#version: 0.2 - Trained by `huggingface/tokenizers`
e n
e r
c h
▁ d
e i
u n
i e
▁ ,
s t
i n
▁ .
▁ a
e s
i ch
o n
▁ un
▁d ie
ei n
▁ w
▁ s
# #
a n
un g
▁ S
g e
▁d er
s ch
▁un d
t e
t i
▁ v
▁ ein
o r
l l
▁ A
t en
a r
a s
▁ b
▁ z
▁ m
i t
▁ D
u r
▁ E
▁ i
▁ B
g en
▁ in
u s
e m
d en
h r
a l
▁ n
A T
d er
## AT
##AT ##
▁ M
▁ f
▁ P
i r
▁ h
t er
r a
▁ K
▁z u
▁ F
l ich
▁ I
u f
▁ W
e t
▁ G
ü r
e l
▁ k
▁ V
m m
a t
▁d as
ei t
i s
▁ R
▁ H
▁d en
b er
▁ g
r o
i sch
▁v on
i er
▁ ge
d e
ich t
▁ T
▁w ir
▁a n
b en
▁ L
ti on
en t
▁ er
▁i st
u m
r e
▁ ##AT##
▁a uf
- ##AT##
▁##AT## -##AT##
▁f ür
o l
a ch
a m
u ch
e h
s en
▁v er
▁m it
▁ U
i g
c k
▁ Z
▁V er
s e
▁d es
s er
▁b e
an d
e ll
▁ l
ung en
▁ N
u t
n en
▁D ie
f t
▁ o
ei ch
s i
▁I n
▁ein e
▁s o
▁S ie
▁i m
▁w er
▁n icht
i l
in d
o p
o t
s p
isch en
ü ber
l e
▁s ich
ä n
▁ &
o mm
k t
▁wer den
f f
a h
▁d em
▁ p
▁S t
▁das s
l s
▁A n
o m
a tion
▁a us
▁ t
▁ C
▁U n
▁R e
a hr
▁ es
l a
▁ über
an n
e hr
r i
▁ st
▁ 1
e u
▁ J
▁a uch
q u
i en
▁d a
st en
ur op
g t
et z
r ei
▁S ch
b e
▁ um
ung s
m en
o ch
▁h a
▁s ind
ll e
▁ 2
sch a
▁ (
▁v or
r ä
▁wir d
▁ )
▁B e
er n
▁ j
es ch
w ei
▁a ls
▁s ch
h al
ö n
▁P ro
▁b ei
v er
▁w ie
en d
▁E r
▁E in
ie l
l ie
ti g
o s
or t
▁ O
0 0
▁E n
en n
▁ ich
▁h at
▁s ein
▁o der
ei l
a u
▁ e
scha ft
▁ :
ä t
▁A us
▁E urop
▁die s
qu ot
▁& quot
▁&quot ;
▁z ur
▁ -
ur ch
z u
ter n
▁M it
te l
a us
▁ha ben
▁B er
h e
▁s ie
▁H er
i mm
lich en
st ell
in g
un d
▁ ent
▁ein er
▁i hr
si on
isch e
▁k ön
▁A r
r ü
i on
a b
te t
▁W ir
▁un ser
u l
f or
f ü
g er
a ten
der n
sch en
ch t
i ck
i k
z en
ei ten
▁n ach
h eit
▁un ter
▁ein en
▁D as
e d
st a
ll en
k eit
ä r
▁K omm
an g
i ti
▁F ra
r u
us s
el t
▁P ar
i gen
st e
▁d urch
▁I ch
▁w ur
w er
▁kön nen
ti v
▁G e
lich e
o h
an z
▁d ar
▁J ahr
▁Komm is
▁Her r
▁V or
omm en
r ie
▁m ö
▁S p
b l
eh en
n e
an t
r eich
▁zu m
a p
ö r
a g
▁En t
▁A b
▁ein em
a d
b eit
ier en
g lich
ein e
u ß
ch te
▁Europ ä
ier t
p f
▁un s
▁a ll
▁k ann
▁die se
k tion
ch en
ü s
e st
k en
▁n ur
d u
b ar
▁A uf
▁I hr
i ge
▁an der
ol iti
▁D er
▁a b
a ll
ü n
i st
ei ter
ah l
▁K on
ff en
▁H o
g es
a mm
▁ !
rä si
ge b
▁w ar
ch e
o k
b t
räsi den
▁die ser
▁Kommis sion
▁E s
eh men
a uf
▁n eu
h en
r it
ä hr
▁b er
▁ re
ier ung
▁M a
f en
▁da ß
o g
r und
▁n och
▁s p
ü t
z i
r an
l ei
er s
t ra
▁a m
n is
ü ck
räsiden t
er en
ut z
it ät
▁wur de
al en
l am
▁m ehr
▁so ll
i c
▁2 00
g lie
▁a ber
ge l
ä h
o ll
▁m üs
▁U m
w ick
▁w enn
u g
ti gen
▁ c
n er
a ge
▁m an
e g
es s
st imm
▁d e
for m
▁ /
l eich
▁s ehr
▁müs sen
as sen
or d
z e
er t
▁ r
▁Mit glie
▁P räsident
i ll
h t
▁z w
lam ent
n ah
▁ ?
etz t
▁b is
▁so w
m e
a k
l in
▁b es
f ahr
e kt
▁Par lament
amm en
fü hr
i z
▁g es
al e
m a
us ammen
o b
ro ß
▁ 3
▁dies em
▁h in
e k
▁M en
▁Un ion
▁w eiter
t schaft
▁Re g
▁ge gen
▁w as
▁ gen
at z
▁Ar beit
s am
▁& #
p p
w end
as s
un den
än d
▁Un ter
▁Europä ischen
f ol
l ung
h nen
▁a lle
m it
ach t
▁ge w
on der
sch e
sch ie
o lle
▁ Ü
e ben
lie ß
▁Mitglie d
▁b et
g ra
▁k on
st em
▁ge m
▁D e
ation en
v or
▁h er
▁mö chte
hal ten
l ä
d i
om p
ell en
ä l
▁k l
ei gen
al t
▁1 9
hal t
▁Z eit
▁Ho tel
▁G es
y stem
▁ –
e ch
ich tig
ar t
▁R at
r in
▁Z u
d em
▁Ü ber
k ommen
▁. .
▁h ier
h er
ü hr
▁ein es
▁F or
▁E U
i bt
ti ge
urop ä
▁S o
l and
▁j e
l an
g an
r en
▁v om
st üt
m al
▁g roß
▁Fra u
n ung
a st
z ie
in den
▁l ie
▁ihr e
▁Ber icht
h a
▁Men schen
▁&# 9
▁sow ie
ä ch
▁e uropä
b es
▁z wei
▁dies es
ig keit
▁j ed
▁.. .
t eil
▁ et
ich er
än der
▁B ei
▁g ibt
▁M ar
oliti k
st er
b st
h o
▁w o
▁I m
k l
▁L and
p t
oh l
mm er
hal b
bl em
la u
il d
ie le
f ten
sta aten
▁v iel
▁Ent wick
▁be st
▁zw ischen
w ir
▁N ach
ö glich
▁C h
m er
a ti
▁m uss
▁ “
am it
ein en
▁unser e
l os
and el
s etz
▁k eine
an k
s s
▁p ro
▁b ie
w ar
▁ber eit
▁I hnen
▁O r
gra mm
▁aus ge
▁be g
▁an ge
ra uch
a gen
s icht
esch ä
▁Re cht
eu te
ach en
▁Mitglied staaten
a tiv
g ung
▁H aus
b ei
▁ 4
st at
▁G rund
▁s on
ö ff
et t
ap os
▁& apos
▁&apos ;
▁Pro du
eh t
▁t he
▁ander en
p ro
▁ 5
z eu
i d
▁ Ä
▁Europ a
▁Z usammen
o ur
tern ehmen
▁ „
l o
e b
▁be f
r ö
for der
ent r
ge ben
g a
gen d
is sen
it u
uß er
k eiten
l er
▁Pro blem
i v
ig er
el bst
▁W enn
isch er
▁i mmer
imm er
▁g er
▁F l
a te
wei se
f e
stell en
▁ ;
ch ten
sch ließ
g esch
un kt
o v
▁d ann
k te
in anz
▁W elt
▁A l
▁Vor sch
▁Ber eich
▁In form
l en
▁B ür
ei d
st änd
▁ Q
▁in s
▁die sen
▁wie der
am en
▁d amit
▁K l
nah men
rit t
▁Ver b
▁ein z
g ie
tra g
▁g esch
▁g anz
le gen
▁wur den
stell t
f er
en den
ö s
o d
▁ eigen
p er
c e
tern ation
d ing
ar beit
▁Die s
z ung
▁Die se
icher heit
z eich
in nen
ar d
ä m
▁neu e
▁S te
▁w ichtig
rü n
än dern
re chen
▁Q u
▁unser er
schie den
ra g
▁Ge b
la g
h ne
▁Ihr e
w e
ell e
▁T h
w ort
▁m ein
s el
z eit
r icht
▁ha be
t ur
at s
p l
i a
▁G em
ß en
▁son dern
fahr en
ein sam
f l
ol og
▁jed och
▁Ma ß
▁sein e
▁Europä ische
st and
in der
▁B et
▁p oliti
m ent
ers on
s atz
reich en
al is
▁St a
k e
▁2 0
z t
mit tel
n et
▁et w
ra gen
u st
in n
▁w ür
▁St ra
▁h eute
▁ en
f ach
ru ck
ti k
▁h o
▁Un ternehmen
m in
la gen
▁Ä n
▁o b
▁g leich
▁W as
s k
er v
▁w en
f ür
▁an d
z ei
o sten
▁K olle
rö ß
s uch
u ten
ä re
es sen
▁Än der
t ro
▁bereit s
▁T eil
▁W ie
lich er
at t
▁m ich
▁Entwick lung
▁s elbst
ei st
k ehr
ok ra
▁unter stüt
▁soll te
f all
▁D aten
▁w el
tion en
la ge
al ität
ei te
k tiv
▁Fra ge
▁e x
u b
▁f ühr
▁europä ischen
▁ihr er
▁neu en
o w
▁o hne
or den
ch n
▁L eben
▁W er
▁Jahr en
▁ver b
▁H in
ind et
▁R icht
stell ung
el d
▁ander e
▁ %
▁St ad
m us
▁In ter
▁T e
öff ent
▁in ternation
i m
▁den n
▁M in
▁S icherheit
ier te
▁f est
▁S e
▁M on
er e
f ern
äl t
▁soll ten
▁Bür ger
t re
▁f inden
ge m
am p
▁den en
ck en
▁S ystem
▁Pro gramm
k un
▁B es
▁gem einsam
▁mö glich
i o
at ur
▁ver schieden
▁f or
nis se
nah me
▁D es
or en
ru pp
▁T ag
onder e
▁Stad t
ähr end
es se
▁bie tet
z ahl
▁s ol
h n
kt ur
ti gt
lei st
ar b
ff e
n te
▁ 6
o si
l uss
▁Wir tschaft
▁Mit tel
un ktion
▁L i
k er
el e
▁da zu
ti eren
ün f
▁Par t
▁lie gt
▁ent sp
ich te
▁In st
is k
än g
ier ten
▁m achen
▁a llen
kun ft
▁M öglich
▁all er
▁v iele
▁P erson
h ör
h in
▁w eil
a de
ah men
▁o f
▁be k
w elt
an der
ä ß
3 ;
▁&#9 3;
▁l etz
s ar
ei den
1 ;
▁&#9 1;
▁W eb
un der
▁dar auf
▁sein er
▁b en
ei se
▁j etzt
wer t
i al
ig ung
ah er
al ten
au pt
▁St and
▁E x
w or
▁b eh
zu g
▁Th em
▁g röß
▁G en
▁sich er
▁M an
ien st
rei s
um en
is s
▁a r
▁U S
▁k ein
▁G er
▁R ahmen
ic e
▁ein ge
l ungen
▁v oll
▁Inform ationen
▁ge b
gan is
▁ge ht
▁Maß nahmen
▁L age
at ür
▁ein fach
rin gen
▁wir k
▁Z immer
▁sch on
ann t
ul tur
▁ge f
u d
k on
▁M ein
▁e ben
▁F inanz
▁Gem ein
los sen
▁g ut
▁ein ige
o ten
ion en
▁da für
zi al
▁Ver ein
▁A m
ungs ant
a y
t s
kl är
ti ert
sp iel
m ar
el n
▁Jahr e
▁F all
g ar
▁Aus sch
es en
▁ te
r än
▁Herr n
u te
▁Kommis sar
▁P l
a ffen
fol g
h ält
▁zur ück
k s
ot wend
b au
ö l
r on
it z
h eiten
g rund
▁t o
▁all em
▁Z iel
ti schen
▁ihr en
lich keit
▁E ur
in e
ä ten
bes ser
r is
ü h
▁Ge w
▁de ut
▁M o
▁d ir
▁m eine
▁n un
v en
▁D a
ge w
▁z usammen
▁b in
g ang
ich ten
▁F ür
setz ung
u er
E R
▁m ir
▁B l
i te
▁ 7
eich t
▁ 0
▁ Ö
▁a l
▁bes onder
sch eid
▁A ll
▁m o
▁unser en
bes ondere
▁ 8
▁b esch
▁Ein e
gen ommen
▁wo llen
▁A ut
a c
p unkt
ie t
▁19 9
▁ver fü
al er
führ t
oh n
ant wort
an den
▁En er
▁ 9
▁H a
an ge
s o
ar en
ru ktur
o gen
▁wür de
▁G esch
▁1 0
g leich
▁Pro j
ation s
ei ß
sp ro
f te
re u
ri v
w .
lich t
▁s eit
ich ter
▁Parlament s
▁B ild
ah n
g r
▁st ehen
▁L ös
▁etw as
a um
▁w ährend
▁s agen
it te
▁Vorsch lag
▁w issen
▁L änder
stimm ung
▁B ar
re cht
y p
▁M e
on d
st o
▁d och
▁Recht s
▁G eschä
gan gen
▁For m
▁F rei
▁D em
▁Un d
t a
de ut
r em
un de
ord nung
wer b
ek te
▁d rei
▁Unter stüt
an ken
▁Un ser
ra che
▁be stimm
▁D urch
▁er m
▁er sten
lin ie
ro m
▁ver w
▁ins besondere
▁sch n
f ra
▁K omp
▁T er
f ft
▁er halten
▁k ommen
h and
▁B o
▁a ußer
▁n ie
▁f ol
atür lich
▁k omm
scha ften
▁K unden
▁Fra ktion
▁P olitik
rä ge
▁Ver fü
▁Mar kt
▁Haus halt
▁ein mal
am il
en de
er k
▁B eh
ran k
▁ öffent
ut zen
▁Um welt
ät z
ar k
▁U r
a gt
l ungs
ass ung
▁war en
h ol
fall s
▁S ti
f ri
il fe
▁ver st
▁M ill
▁Unterstüt zung
▁bei m
i sten
▁Arbeit s
te ls
▁sp e
it äten
▁Zusammen arbeit
z ü
ell schaft
ga be
▁N amen
▁als o
▁M us
▁wir tschaft
▁letz ten
ver s
▁n ation
ach e
▁Ar t
▁T he
▁Sp iel
▁l assen
▁be de
▁Z ug
ge hen
▁L in
▁Gemein schaft
▁T ran
ar ten
▁In tern
▁L ändern
▁ge ben
▁Änder ungsant
le gt
▁Ener gie
h ö
▁Fl ug
alt ung
▁ent wick
ra um
▁l a
or gen
▁De ut
▁um f
▁E m
n eh
▁H aupt
▁best eht
▁bes ser
▁s ehen
kt u
is mus
al d
ig n
ör der
in a
führ ung
o st
war e
i an
uch en
ti er
n ten
v on
▁A ls
ra ft
d ruck
▁H andel
▁Fra gen
▁ge l
▁Eur o
etz en
▁st eht
x t
schie d
ga ben
wend ung
▁ge st
▁t un
▁k omp
▁A d
ur z
g lichen
ech n
▁D ienst
ativ e
▁f rei
uf t
k ten
▁B esch
▁sein en
ie ll
▁in ter
n ehmen
g ri
ti sch
▁B eit
▁Reg ierung
icht s
▁st att
▁ ch
le x
zie h
▁L a
rie b
ichter stat
▁w äre
▁Kolle gen
▁S eite
h äng
▁da bei
▁w ich
ett be
ät ze
▁re cht
ra k
▁g lau
s f
00 0
▁Geschä ft
f iz
▁d u
▁R ei
f ort
▁Ver trag
▁1 5
▁ge hör
▁Pro z
ber eich
▁p er
and elt
▁h ö
▁m uß
bl ick
ig t
ei sten
mar kt
ar te
wir tschaft
ei le
sta ur
▁w orden
▁Sch w
tig ung
▁T echn
▁H and
re chte
r uch
entr um
▁w e
um ent
▁Be deut
▁ qu
ei g
ei en
▁be d
eschä f
▁D ar
▁Verfü gung
i b
re ch
und heit
ar e
▁An t
▁groß e
▁wel che
▁groß en
ding ungen
ra cht
▁in ner
▁er st
▁l e
▁E ben
▁Ent scheid
▁Bedeut ung
ob il
▁der en
rü ck
▁ em
▁K inder
▁ or
▁be w
▁Er geb
▁S u
▁Re gel
▁Intern et
▁B en
▁R o
▁H ier
rü h
a z
iel en
ettbe werb
▁Sch utz
▁so zi
▁Möglich keit
▁je der
k auf
▁sch w
▁E l
▁b lei
ä d
s st
ro t
f eren
▁Ber ichterstat
ti sche
a ter
▁A uch
▁z ahl
a ck
as se
▁S erv
ück s
▁Sta aten
re ffen
▁F ahr
ün st
▁o ffen
▁A ber
ge stellt
▁Z ahl
▁bie ten
n t
▁n otwend
b eh
am t
▁her vor
b ild
▁ el
▁V ol
▁ent fern
▁Them a
▁F ol
v est
▁Leben s
ab il
äh l
▁ ##
▁1 8
wir k
ie s
ier ungs
▁N e
▁da von
▁G ä
sch utz
i um
▁L ie
or g
ges etzt
▁Be d
▁A t
▁Zu kunft
▁dar über
öl ker
v e
1 2
ra t
▁d aher
▁er forder
m o
▁ent sch
ie ls
du st
▁schn ell
staur ant
ri ft
▁st ellen
iel t
▁l ang
eu er
z uf
w eg
▁st ell
ff iz
▁Problem e
äm pf
p olitik
▁all es
▁b rauch
un ter
▁w ill
▁gegen über
▁S eiten
▁i s
▁eigen en
▁ on
h ang
▁1 2
tik el
ze p
rie den
uf en
▁bef indet
▁sow ohl
▁Frau en
▁W eise
▁Ge gen
r and
▁F amil
▁Bei spiel
▁ver l
ris e
rit te
tig keit
▁Qu alität
▁weiter e
▁& amp
▁&amp ;
▁W eg
enn t
▁Ihr er
tre ten
▁n äch
▁L e
ig keiten
it al
▁t eil
g l
▁er reichen
i de
an ischen
▁T ra
▁W ahl
▁n atürlich
▁R es
▁mein er
▁politi schen
▁En de
in de
▁C o
▁unterstüt zen
1 0
▁G l
wei ter
▁wirk lich
A R
▁kön nte
▁besonder s
in en
ist er
▁hat te
▁M ehr
zeu g
▁S ol
ri ften
▁Aussch uss
▁auf ge
ho f
ne ten
t ie
ß e
▁For sch
ach ten
▁Berichterstat ter
▁M ed
ge ord
▁D at
▁ges am
▁verschieden en
▁S itu
te m
▁i hnen
i ma
▁entfern t
u bl
▁G rupp
rie ben
▁De b
▁Richt linie
▁P h
▁F unktion
▁h och
▁Reg ion
i p
wei sen
gen den
▁inner halb
m an
w eit
i der
ein t
▁d ort
▁viel en
b ung
rei se
ri fft
S T
▁A u
c o
▁gen au
▁w eit
tiv e
▁Was ser
re und
wer k
ers ön
▁a ktu
▁Deut sch
ich tet
▁D i
▁R olle
ding s
▁O b
h m
ind ung
▁Ar tikel
▁Z wei
▁mö chten
▁internation alen
es ent
▁zw ar
s ystem
▁G rün
▁w elt
zi p
lau b
▁d i
▁N utz
▁W e
ü d
ig ten
a ut
zei tig
▁Ihr en
▁W och
sp rache
ft ware
▁er n
rei fen
ä u
▁te chn
▁D isk
▁Verb rauch
▁U hr
▁dir ekt
▁F ort
er ien
▁b el
▁F a
▁R ück
▁d ür
▁führ en
p h
▁hin aus
▁W ettbewerb
▁re g
▁ �
st ra
iv e
ei m
▁K o
▁A lle
sten s
än ger
w är
on e
▁S k
u x
▁gew ähr
▁US A
c en
reich t
▁Dem okra
är en
uch t
sp olitik
ur g
▁europä ische
▁A p
▁kl ar
z immer
ktion en
▁Re staurant
▁er ste
o u
▁P f
m äß
di tion
op p
ch er
h aus
te gie
▁S a
il t
▁K am
▁Ver t
sicht lich
▁Mein ung
▁ y
ra ch
▁Ges undheit
u en
r es
a ff
s w
▁g l
mer k
▁F ir
p rä
sta ll
v oll
u ter
▁einz el
at te
▁Geschäft s
▁P reis
uß en
▁ ra
on en
as e
▁K ultur
▁H ilfe
dust rie
▁G leich
n it
un ehmen
r ing
b eiten
▁Ges etz
om e
w ohl
▁Zusammen hang
el s
age ment
▁unser em
▁Person en
z ogen
▁h ät
▁Ab geord
▁Lös ung
▁Situ ation
▁F est
▁W or
ur s
▁bei den
ativ en
O R
▁ u
reich e
▁3 0
▁komm t
an gen
▁g ar
as st
▁Ent schließ
▁ ä
ach st
olog ie
▁Part ner
▁an ges
▁Ho tels
us ätz
▁Kon tro
▁t ra
f ang
▁entsp rechen
▁Gä ste
lä ge
▁f inanz
▁z .
imm t
t lich
▁ Y
▁Dies es
wei s
y m
teil ung
▁Sch luss
f rei
▁N atur
▁P ol
▁Proj ekt
p rü
ie ten
▁Ver antwort
▁em pf
b et
r eit
ä uf
▁best ehen
▁beg rü
äch st
feren z
f assung
ier ungen
▁b z
▁Produ kte
alis ierung
sta d
bar en
▁stell t
▁Präsident in
it y
▁S er
▁Dienst leist
▁O p
o ol
▁ ro
▁G roß
▁So ftware
▁b ringen
▁Or t
▁C on
setz en
vor sch
▁ver besser
▁K osten
st ehen
▁dar an
or e
rei ben
a v
c om
▁M et
▁Des halb
▁bz w.
▁Deutsch land
▁etw a
ann ten
▁st är
▁Inst itu
N D
o c
▁b itte
▁ver such
▁g ilt
▁wen iger
▁200 9
achst um
forder ungen
▁w ahr
äh len
lin e
▁An ge
▁je den
ü b
ar bei
▁ges agt
▁k osten
▁Ter r
sp l
lich es
▁K ü
▁g ute
▁S on
äm lich
fra ge
ein ander
le g
▁p ersön
y n
▁j a
▁n ämlich
▁Er fahr
s or
▁er w
ul d
ge gen
ab häng
▁Ver fahren
▁G ren
s -
▁in dem
▁M al
▁entsch eiden
▁F il
s ol
▁Mill ionen
wend et
rit ten
▁so gar
▁k urz
s ver
▁n ehmen
12 4
▁G eld
än de
l üs
stimm t
▁ab ge
▁ger ade
eit s
▁er folg
▁Zug ang
iell eicht
▁&# 124
▁&#124 ;
▁B us
ick en
▁Europ as
al s
▁W eiter
▁P unkt
ie sen
h under
osi tion
▁ver m
rot z
▁er war
an st
▁Rat es
stad t
▁Ver w
▁er sch
sta at
▁T ür
▁N eu
▁a ut
▁eben falls
▁a k
▁D ank
äch lich
▁F rüh
▁un ver
em ber
▁Unser e
▁E igen
▁i hn
er ik
g än
en nen
▁unter schied
v ölker
▁Serv ice
E N
▁K ap
ün d
▁er z
▁In vest
▁Die ser
▁Entwick lungs
an zen
S C
▁h oh
▁Or ganis
▁m eisten
▁c on
▁i r
▁gem acht
zu stellen
f ä
▁Ver hand
ra chten
arb eiten
▁Eben e
▁politi sche
ar m
▁ver sch
▁An geb
ri gen
▁Tran sp
u tet
ur e
▁dar f
▁i hm
▁Aus sprache
▁verb unden
sion en
▁sein em
▁B au
▁L eist
▁t h
kt or
o te
▁Be zug
▁N icht
▁D u
▁Jahr es
▁ge hen
tra gen
▁T ats
du z
▁m a
e c
▁unterstüt zt
▁all gem
ist or
▁des sen
▁ge t
▁w esent
ond s
v i
an s
▁Kl ima
isch es
ne te
▁Produ ktion
▁In iti
▁B el
geb ung
▁n ah
▁P al
ver kehr
▁Ab stimmung
▁G ra
▁1 6
pro chen
z er
k a
k ung
et te
it zen
▁dar in
▁So zial
si te
y s
sch ein
▁glau be
om ati
▁Re chte
▁Ver kehr
f in
▁dür fen
▁g ern
t in
▁Ges ellschaft
b urg
▁an zu
▁N etz
ll t
un st
le ben
▁Ben utz
▁mo dern
n ov
▁H ö
▁öffent lichen
▁ein igen
▁nicht s
▁Me er
▁M är
▁sch affen
▁Ab kommen
f a
l i
▁ eh
ä he
et s
ühr en
▁brauch en
▁Verbrauch er
▁B uch
og ra
ei gt
▁so llen
▁B eschäf
at or
▁S an
▁1 4
w ahl
ier e
neh mer
äh igkeit
▁T our
al te
▁ihr em
▁k einen
▁spe zie
▁nation alen
▁o p
▁W issen
h l
▁T a
▁Kolle g
un kte
g or
▁h andelt
bar e
▁p osi
ti s
▁2 5
▁D ok
schließ lich
▁z usätz
1 .
▁In dustrie
▁bek annt
▁Jahr hunder
ei der
utz t
m öglich
▁B as
r et
am e
t o
ck t
▁Stra tegie
au er
zie hen
un ächst
om fort
z us
▁1 .
▁bet rifft
ig es
▁Produ kt
. com
sp iels
▁Web site
▁weiter hin
▁a ktiv
i ff
▁J e
ä ter
d urch
ti m
▁Fort sch
▁1 7
▁sch wer
t ag
▁F rank
▁s ei
re d
▁umf assen
h andel
▁her aus
ar i
▁l eben
▁B em
▁ben ö
sp ruch
▁F ischer
an ce
▁sch ließ
▁Inst r
▁R aum
▁t ä
em en
▁bede utet
▁des halb
rie g
zeich net
▁wen ig
▁m acht
▁ X
▁er klär
▁F ot
▁Bes uch
▁be sten
▁ein ger
▁Stand ard
▁sol che
▁p riv
▁Gen er
lie gen
d rück
spiels weise
▁Ab sch
▁deut lich
▁Be zieh
▁Ma il
mal s
▁un be
p or
▁ end
ge legt
▁s e
▁inter ess
d ien
st ück
▁a t
an ten
▁wich tige
zü glich
▁Geb iet
▁kl ein
▁Ergeb nis
▁I de
ma ß
gesch lagen
s ehen
▁auf grund
ck e
▁C omp
ich tigen
il it
▁wür den
ubl ik
sch t
▁o ft
z lich
ach sen
▁V on
rei ten
ze pt
▁f indet
▁h el
▁Menschen rechte
▁An sicht
▁sch ön
▁g rund
▁Um setzung
ro p
▁P ort
▁F eh
re g
▁Be völker
rin zip
▁Richt ung
▁In te
▁In sel
▁P er
▁Ver besser
b el
ör den
▁Demokra tie
▁G ol
▁Ste uer
▁A sp
▁näch sten
▁I s
▁F örder
▁l ä
▁A ußen
▁f r
▁W ert
▁n utzen
▁Be g
e ten
▁Em pf
▁N ähe
▁K unst
▁Proz ess
▁I t
▁St ruktur
▁An wendung
▁Herr en
halt ung
▁Par k
▁J u
▁1 3
▁Haushalt s
▁p rä
▁kon k
▁Mus ik
▁ üb
umen te
▁S h
v ent
▁F ern
▁D ruck
ür d
ffiz ien
▁aller dings
er st
▁f ort
j en
u e
▁K at
▁Verantwort ung
▁ho ffe
al ien
ver ständ
▁Ver s
▁in te
richt ung
p ort
▁Z iele
fri st
▁P lan
ben d
▁v ier
▁Be dingungen
al i
▁S elbst
i ten
▁z ie
▁p ar
▁Entscheid ung
▁bei spielsweise
b o
la uf
▁ ”
▁V iel
merk sam
▁A ktiv
fol gt
▁ge geben
▁Tag es
▁gemeinsam en
▁st imm
▁Vorsch läge
▁20 10
▁h istor
▁notwend ig
wirk ungen
▁Ein z
▁je wei
ü l
pl atz
▁gehör t
ab le
▁z entr
g rupp
▁Be k
▁Un i
▁i de
▁Inter esse
▁Er weiter
▁ar beiten
▁kl einen
aus sch
▁W achstum
▁in form
▁ ö
▁Er folg
▁d ank
▁Grund lage
▁200 8
r ess
▁Ihr em
▁Ein satz
▁pro f
▁Rei he
▁ver wendet
▁v ielleicht
▁dem okra
lin ien
▁w ohl
ll ig
▁ent halten
▁Wie der
▁ us
▁W ort
ate gor
▁sp rechen
▁erm öglich
▁Te xt
▁Ange legen
▁D en
r esse
▁D aher
g ern
▁sozi alen
▁5 0
d et
▁P ri
▁Ver sion
▁be vor
o ck
g reifen
▁A ußer
▁B r
▁Möglich keiten
▁Gesch ichte
▁j en
pf licht
▁F rieden
▁er reicht
eh m
sp h
▁n e
eit ung
ar f
▁wer de
▁gl ob
la den
ll ung
▁h alten
▁P rä
▁ber ücks
f ik
arbeit ung
a .
▁Deb atte
as si
▁Her aus
p ar
▁Er klär
▁V ort
teil t
A N
▁er fü
a den
▁K ön
▁Institu tionen
▁komp l
ät zen
▁Sch ul
ek ten
st ruktur
▁über n
▁Ö ff
▁D amen
r .
gel n
▁Bl ick
▁B il
ele gen
stell ungen
sch er
▁L uft
▁h eiß
stimm ungen
▁Forsch ung
▁ ’
f ung
▁blei ben
▁R uss
zei gt
▁1 00
et a
re ten
▁Ein w
▁H och
▁Z entrum
▁hö ch
arb eiter
em ent
lä ss
▁verschieden e
▁vor geschlagen
l assen
▁A pp
eh n
bild ung
▁ ru
▁Min uten
▁w eiß
▁f unktion
abil ität
fol gen
ter ial
▁Sp ort
▁Mitglie der
▁G i
▁schw ier
▁K raft
▁verfü gt
▁Pl atz
▁O n
▁f ünf
it h
▁kön nten
▁k m
▁Ch ina
▁gemeinsam e
in ge
▁Disk us
mittel n
▁Hin blick
at ten
ges ehen
▁Dienstleist ungen
▁ermöglich t
ä um
▁Sp e
▁N ation
stat t
stat tet
▁sch rift
te g
▁Komm un
▁welt weit
▁Änderungsant rag
▁Arbeit spl
▁P ak
▁2 4
st r
ungs ver
▁Ne w
ann te
▁P riv
st itu
u p
an te
pro du
ist ischen
▁F re
us st
ST AR
we gen
el ten
▁Mo de
▁Invest i
▁l ange
▁Aus wirkungen
ot t
▁gel ten
▁t ran
▁voll ständ
▁t ats
▁z eigt
s be
▁## STAR
▁##STAR ##
tiv en
▁hat ten
▁D ial
▁C l
▁Vor aus
▁bis her
▁erforder lich
▁Reg ionen
▁ä ußer
b ank
▁Aus druck
▁200 7
jen igen
▁d anken
▁Verhand lungen
▁führ t
▁b em
▁Tats ache
ekt or
▁Sch ritt
lan gen
ver b
▁S eit
ün schen
▁S üd
ö sen
▁G ar
ähl t
es sion
▁Inter essen
di vi
▁gesam ten
▁Famil ien
ri min
▁W ohn
▁W ind
▁P la
nit t
▁wirtschaft lichen
▁an geb
ech sel
divi du
▁Kolleg innen
▁einzel nen
d ung
▁D och
▁dar um
▁B innen
ß t
▁f ast
▁eben so
▁Li ste
▁Abgeord neten
un i
d es
on t
▁N ie
▁200 0
▁Land es
▁entwick elt
▁gleich zeitig
is ierung
▁sp äter
ö glichen
▁Wer k
▁den ke
▁Ant wort
▁Grupp e
o ber
▁Pro f
au ber
▁Außer dem
▁an genommen
o llen
ämpf ung
ig ht
bar keit
▁W ähr
räsiden ten
▁Änderungsant räge
an ische
▁F ä
gesch lossen
▁Einz el
in o
OR E
▁d isk
▁Sti mm
▁Sta ats
▁st ar
▁ver ein
änder t
▁Ver l
ur f
▁Tür k
en s
▁jed em
▁Uni vers
om b
▁Web s
rei sen
b ahn
▁Er w
▁Bereich en
▁ein zu
▁F ühr
▁Bet rieb
▁internation ale
arbei tet
ing s
▁bef inden
B .
tra uen
in ter
▁G elegen
▁R is
▁Z um
▁D enn
▁lie gen
ie ßen
l ändern
in gen
▁hät te
ND ER
ar ität
▁kon nte
ab el
▁r es
▁Bevölker ung
▁s etzen
▁erw äh
ü gen
f on
▁W ar
ie llen
▁n eben
▁Bezieh ungen
l y
▁V ide
I N
al y
▁St u
▁Erweiter ung
f el
ow n
stell er
▁weiter en
▁In ternation
ch es
▁f a
ord in
ed ig
pro gramm
gri ff
▁Angeb ot
w ischen
▁bede uten
▁Russ land
m et
▁Verein igten
ren z
▁Verb indung
▁er hö
z entrum
▁heiß t
▁ 00
▁N ord
▁Them en
▁Be st
o se
▁z. B.
▁Dial og
▁fol gen
▁Terr or
fol ge
▁e ff
▁r ichtig
andel n
▁F uß
▁je de
▁hin ter
▁Te am
▁Schluss el
ien en
omm er
and lung
▁hel fen
▁Ver ordnung
▁Beit rag
▁er he
▁Auf gabe
▁ ur
richt ungen
▁v ö
s itz
et ten
▁kl eine
ich tigt
▁ver s
▁ rund
▁Ch ar
al ter
▁U N
▁En g
▁Türk ei
▁Ver pflicht
U NDER
in ner
j ahr
▁gegen wär
▁R eise
▁K op
den ken
ik en
▁Förder ung
tem ber
i x
▁m einen
▁b eit
▁Kam pf
▁wich tigen
▁ge stellt
▁G eh
▁Pro t
c a
▁unser es
▁Kontro lle
ent halt
▁K rise
▁p rak
aff ung
p lan
is se
UNDER SC
hal te
f lä
▁## UNDERSC
ORE ##
▁##UNDERSC ORE##
▁Mit arbeiter
um s
anz ös
d r
▁ +
▁ge stimmt
▁R u
for men
▁r el
teil en
or n
▁Beit ritt
▁C hr
ha ft
l änder
an ien
▁Ar ch
ul t
eich en
gangen en
as ser
▁jed es
wor ten
▁aus zu
ten s
u tion
2 0
f ragen
ech s
▁Entschließ ung
ä us
▁g ab
z unehmen
▁f reu
▁be kommen
▁aut omati
ra chen
▁Vol k
▁blei bt
z ess
▁Beh örden
en ten
▁or ganis
▁we gen
▁St rand
ell er
▁b as
▁Nutz ung
ha fen
▁Ausschuss es
▁B ahn
▁K ar
▁K a
e cht
▁reg ion
▁Benutz er
▁g ro
▁nah e
▁R om
ab on
ilit är
▁Sta at
▁ange m
▁D amit
▁g ra
▁spe zi
▁w under
▁K ir
▁Lös ungen
eh len
▁durch ge
t h
rä gt
▁Inform ation
sto ff
▁gern e
pf lich
▁Des ign
▁Au gen
z entr
▁Ur laub
▁un abhäng
g rün
▁L iss
▁Be f
ig ar
▁St unden
fahr t
▁B itte
▁er f
▁ver antwort
ö st
▁Sicherheit s
▁Liss abon
▁st ra
▁Woch en
r y
▁M acht
▁Ver anst
▁wichtig sten
▁ge legen
ör dern
C H
▁Aus wahl
▁H ol
▁200 6
▁ak zep
or m
▁l ok
on nen
▁k ultur
▁Re p
▁mehr ere
f äl
▁J an
g n
gra tion
▁Frank reich
ss ystem
ven tion
st ru
zeu gen
j ähr
tern e
enn ung
▁ab zu
▁2 .
sp räsident
▁vor h
▁For der
▁N otwend
ob ei
nis sen
ro ffen
g liche
ie lle
▁Verbesser ung
ges amt
tig er
▁ent hält
▁ganz e
▁am erik
▁g anzen
▁Ber lin
▁Z ur
neh m
▁J uni
▁hin sichtlich
▁K ern
▁nach hal
▁Binnen markt
ö hn
▁Te x
▁w obei
▁erm öglichen
il f
▁s ag
▁ausge w
▁Fischer ei
▁G ast
schließ end
▁An st
▁A ktion
▁A ir
▁S uch
sta g
iv il
▁ge eig
▁b il
▁F ach
s a
▁An fang
▁st ark
rech end
in ne
auf en
▁Kon ferenz
▁V is
▁über w
▁z eigen
f eld
s y
▁Sch wei
▁er lau
te te
▁Gelegen heit
▁G u
▁bel ie
▁A mer
▁D ir
ge h
▁der zeit
er weise
▁t rotz
wert ungen
▁Auf enthalt
▁N ov
rin gt
▁tra dition
▁F erien
▁S al
▁Re form
▁ru h
▁her r
▁K or
ta kt
b ringen
▁N acht
k ünf
p en
▁ir gend
▁F ar
w urf
▁R ad
▁gar an
▁Sch affung
leist et
▁Gew alt
st anden
▁m us
ser v
n ern
▁Lie fer
de u
op er
än den
ken nen
▁Ergeb nisse
▁h eu
▁O ber
▁sp ielen
▁1 1
▁Dar über
vorsch riften
au sch
ak ter
in gt
üt zen
stell e
. 000
▁vö llig
▁Feh ler
▁Ver wendung
ster reich
▁Ver tre
▁Inte gration
ür f
▁er k
▁H e
sp lan
▁B al
▁w ith
▁Ju gend
▁Her zen
▁T age
▁Woch e
▁inte gr
▁in dividu
▁verbesser n
▁An zahl
▁A k
▁Land wirtschaft
▁K rieg
▁P ra
▁Pri or
▁W ein
m ut
c t
ment s
▁It alien
n ess
ä tigkeit
▁19 8
▁verw enden
t liche
▁g uten
▁lä sst
▁S it
▁eigen e
on a
sp rechen
▁gesch lossen
führ en
▁verfü gen
ör per
kl us
▁s u
w and
▁Notwend igkeit
forder t
▁groß er
äh n
▁Zeit punkt
▁Sch l
sph äre
▁T i
O N
▁gef ähr
▁sozi ale
s ei
▁h äuf
▁verfü g
c c
z a
▁Kön ig
▁Min ister
▁L auf
her e
er nen
▁Famil ie
▁mein em
ik ation
▁disk u
▁Z we
gri ffen
verständ lich
g ren
▁L es
▁Änder ungen
▁z unächst
an a
▁k ünf
▁Gi pf
rei bung
our cen
ei ster
▁gesam te
▁gehör en
in s
spro gramm
▁p l
▁Vol ks
▁f ördern
▁St ud
▁Erfahr ung
a ar
sch inen
▁M än
▁Über ein
▁Beschäf tigung
▁ho tel
ein er
▁Hin ter
▁gleich en
▁vorh anden
▁Ma i
mäß ig
▁st änd
▁angem essen
ich tige
te chn
s ent
▁W ahr
▁Nie der
▁N eben
▁Um gebung
▁tats ächlich
▁s orgen
lei sten
▁K n
öff net
▁schrift lich
edig lich
al es
eil en
▁ein deu
tro ll
▁Mehr heit
st re
▁2 3
▁Se p
min ister
▁D ab
▁ab sol
zeu gt
▁Ein führung
▁ver öffent
stitu tion
▁w ider
▁Reg ierungen
▁W ährend
p art
▁On line
▁verst är
be dingungen
▁Ste llung
▁4 0
ge f
▁ge führt
▁Kon fl
ers eits
▁S c
maß nahmen
ok oll
▁Dab ei
o od
▁I mm
▁entwick eln
▁äußer st
▁T est
▁J ul
ow s
▁ern st
ra el
aussch uss
▁B i
opp el
stimm en
▁verst ehen
x is
lüs sel
ungs -
▁ ®
h ilfe
▁m en
▁größ ten
▁P osition
ungs k
h ung
qu en
ti fiz
or f
▁ver t
▁Öff ent
▁Verein bar
r ichten
▁An wend
l ang
h il
▁Aktiv itäten
ie d
un sch
b uch
▁Sp rache
▁el ekt
▁gewähr leisten
▁so mit
▁Initi ative
▁200 5
▁hoh en
pf er
▁Fol gen
▁Dat ei
▁Ber g
▁M ot
▁T ele
▁M obil
▁l eicht
▁St abilität
ä st
▁Ma terial
▁l ediglich
äu de
und es
d aten
ä te
▁Hö he
an nen
al b
▁geb racht
omb in
▁ver pflich
▁bet eil
▁erfolg reich
ik o
it ten
ren g
üh m
5 0
▁t ragen
▁ges p
▁B ank
c l
▁Ges amt
ck er
▁Kommissar in
▁Comp uter
▁sch le
▁Flug hafen
▁ausge stattet
ul ar
▁Komp rom
▁S en
▁Gem einsam
▁Diskus sion
▁S icht
▁E rachten
▁Bek ämpfung
▁Erachten s
ra tion
▁Präsident schaft
▁ver n
arm on
sp art
▁bestimm te
▁wirtschaft liche
ist ische
ind ust
▁A bend
▁h e
▁mein es
d ienst
▁Stand punkt
▁ander er
ges sen
▁D el
▁b ein
▁Programm e
▁Med ien
u le
▁ob wohl
di o
▁zahl reiche
▁S or
▁Dok ument
▁D inge
▁Kon takt
ur en
b ie
▁Grupp en
▁P e
▁Frei heit
▁Met ho
▁ ähn
fl uss
v is
u ar
▁In halt
m b
ger ung
▁Sep tember
▁zwei te
et ter
▁statt f
▁bestimm ten
▁Bas is
▁er hält
▁In nov
▁vor gesehen
▁De z
ber g
▁ent de
▁B ro
▁Be stimmungen
i ar
▁ein schließlich
▁Mus e
▁ro om
sp rün
zeu ge
▁Fortsch ritte
eh l
h aupt
sch w
ur t
▁fr anzös
schließ en
▁200 4
▁P unkte
▁R ess
▁T at
om ent
▁neu er
lo se
wert ung
▁Jahrhunder t
▁K an
▁B ad
▁w oll
▁außer dem
▁P o
▁P reise
▁er ster
▁T r
ie w
se ktor
▁Erklär ung
▁sag te
is sion
▁C ar
▁sch eint
▁S ommer
▁versuch en
▁E is
▁m in
v ol
▁wirk sam
▁Dez ember
ch ter
▁l in
▁d el
rei b
hält nis
▁best ä
▁Ste lle
lex ib
▁all ein
te xt
indust rie
▁N or
▁sol chen
▁N ur
an de
▁O kt
rä gen
▁W ohl
▁Fil m
ir e
▁bet roffen
▁Vorsch riften
▁re gel
▁da durch
ategor ien
▁In stall
▁ins gesamt
▁gem äß
red it
v olle
w ach
▁D ien
▁ho he
▁zwei ten
▁F e
▁P rü
▁P ass
▁Ver trauen
▁b ri
▁einz ige
ahr en
▁Person al
▁EU R
▁Auf merksam
▁Inform ations
ge ber
▁Mar k
▁auf genommen
ten si
▁al ten
▁c a.
m ehr
s b
be wertungen
▁T od
▁Z entr
in es
▁Ge fahr
▁Ap art
a kt
möglich keiten
an lage
le gung
▁Sol id
▁f rü
ti en
▁W i
ö nen
on s
▁An forderungen
▁A gr
ul ti
▁erhe b
sch luss
ie f
▁ver gangenen
▁Bild ung
▁Ser ver
▁Be w
▁einz igar
▁Aufmerksam keit
un ternehmen
ges ellschaft
aren z
▁Entscheid ungen
▁2 2
▁Kü che
▁Früh stück
▁L ehr
▁gen ießen
▁S ub
ges etz
zuf ühren
al tet
▁St re
ist r
▁vor ge
▁jewei l
mit t
r ang
▁L og
▁Mär z
▁ ändern
▁Bil der
▁vor her
▁A ust
▁Gäste bewertungen
ut ter
▁ver treten
▁Ho st
▁Se e
olog ien
▁Prot okoll
▁Aut o
▁er fahren
ab kommen
▁k ri
rä um
▁l eg
um an
▁Proj ekte
▁P rinzip
▁200 3
qu e
▁kein er
▁Techn ologie
▁P räsidenten
▁m orgen
▁K ri
rä fte
▁kon zentr
er ung
▁Bereich e
▁O l
▁An frage
▁Bericht s
▁j ün
▁A gen
▁eigen tlich
ne ut
▁An satz
▁eff ek
▁E le
▁for der
alis iert
▁b eschäf
f alt
▁Transp arenz
▁schließ lich
▁m ed
▁St at
▁St äd
▁grund legen
▁Instr ument
rit erien
▁Gren zen
▁Rat spräsident
▁Kon z
▁l eider
▁B rü
▁St är
▁erwar ten
ie g
ast rop
▁T em
▁ein gesetzt
ennt nis
ier ter
ent wick
▁Re d
▁Okt ober
▁Öffent lichkeit
▁l eisten
▁u .
▁ge k
s on
t rem
▁Arbeit nehmer
rie d
▁W est
▁Amer ik
▁kon nten
▁wen ige
ungs f
inde st
▁j ähr
▁Nation al
▁Jan uar
▁Tages ordnung
▁Wir k
▁häuf ig
l änd
üh ungen
▁de fin
sp rü
at h
spro zess
▁Unter such
r il
▁G ed
▁C as
▁durchge führt
▁gen ommen
i zi
▁ it
lich keiten
▁T V
▁benö tigen
▁Wirtschaft s
b ien
▁M eine
▁auf zu
te ten
▁In nen
▁W ider
▁Auf trag
▁All er
▁Regel n
än gt
▁Handel s
ra d
▁k or
▁gew orden
▁Fir ma
▁Sp anien
l ös
▁Rep ublik
▁Stra ßen
▁s uchen
▁a d
▁Vertre ter
▁ber ühm
▁Ver f
▁A G
üt zt
▁Priv at
▁Empf eh
▁S ektor
▁N ationen
▁un mittel
E S
▁I r
▁kann st
s ätze
▁Lin ie
▁Investi tionen
forder ung
▁europä ischer
▁Li ber
icher ung
▁Schw ier
▁K re
▁bet reffen
▁B undes
▁f reund
ü ge
▁An w
▁aktu ellen
▁k ennen
lo w
g ien
▁wichtig er
tro ffen
u ll
▁S inne
k an
▁Vertrag s
A S
▁Grün den
▁t reffen
ie te
▁V i
drück lich
tier ung
▁gef unden
▁F er
▁ur sprün
▁Jul i
▁ihr es
▁en g
▁Agr ar
▁An aly
▁200 1
▁Ver änder
for dern
wor tern
ie ht
▁be ein
ung e
▁h alte
mo sphäre
▁Auf fassung
zeich nung
ti t
k raft
▁z unehmen
▁be züglich
iz in
▁Al t
▁Bed ürf
hin dern
I S
▁st a
▁Solid arität
d am
▁we der
zus etzen
▁er neut
▁ 000
ill a
lei tet
ho ben
▁so fort
▁S itz
▁Auf gaben
stell ten
▁begrü ße
mb H
▁Sch ließ
▁gesch affen
▁S ache
▁s erv
ieren den
▁über prü
f reund
▁Re de
i kt
▁K ur
▁anges ichts
▁ »
om en
▁son st
rei g
▁Menschen recht
c el
n ungen
▁H eute
▁G mbH
▁üb rigen
▁Bür gern
▁P ap
▁hin zu
ri b
▁Gl ob
▁Organis ation
▁E reig
amm lung
▁b y
acht ung
▁sie ht
▁vor zu
ör en
▁Schlussel wortern
gel t
ogra f
il e
▁belie b
▁wissen schaft
▁Sit zung
▁in stall
un t
▁b ringt
▁ver gessen
▁k ur
A D
▁eh er
st ung
s etzt
▁mo der
▁Ress ourcen
▁die jenigen
▁entsprechen den
▁T ur
▁zie hen
▁Bet eil
w ie
sch lag
▁T ab
st ände
I T
▁l änger
▁beit ragen
▁Sch la
▁wieder hol
lo sen
▁Wind ows
▁N r.
ünst ler
▁öffent liche
▁Fol ge
▁entsp rechend
w ürd
▁W unsch
▁Gol f
ig ur
s vor
▁Ar mut
▁Nach bar
▁Fä llen
▁Verkehr s
▁I I
▁A fri
O M
▁D ritt
▁ausge zeich
▁I st
m ann
▁Änder ung
▁Bem ühungen
m ö
▁B ot
in t
▁Beh andlung
▁Spiel er
▁T o
▁K oh
▁Ber uf
ad a
▁Mon aten
d at
le b
▁G el
gew iesen
▁z eit
▁get an
k ur
▁E t
us e
▁Ver such
▁Dat eien
i den
schein lich
▁Wer te
. 0
▁beh andelt
▁R el
ün sche
▁H ome
b esch
▁so zial
am b
alt ungs
▁ver hindern
ha fte
▁lang frist
▁ €
▁er folgt
▁un er
▁Z us
st ein
ge t
▁G r
▁200 2
a ktion
▁Bürger innen
▁G arten
sch lagen
▁Geb äude
ei sen
s si
▁begrü ßen
▁T agen
k omm
f ter
ive au
z eiten
▁be ant
▁gen annten
▁E N
▁Man agement
fra struktur
▁An der
tig es
er a
u mmer
w asser
▁hät ten
▁n immt
▁At mosphäre
alis mus
ap p
v el
▁Gemeinschaft s
▁6 0
i tion
▁Re ch
▁G ott
▁Ko ordin
▁Nov ember
▁ander em
▁d rin
olog ischen
▁B .
▁M ag
▁bes ondere
l es
an geb
▁Proz ent
▁Restaurant s
eh e
▁Mode ll
b il
▁Unternehmen s
▁ger ing
▁Finanz ierung
▁Tele fon
am ent
ein schaft
▁d .
▁I T
▁M inder
▁versuch t
▁P ost
setz ungen
▁Erfahr ungen
▁k o
▁op tim
u k
▁D oppel
t ak
lle g
▁p aar
▁erklär t
▁Beg inn
▁gew esen
▁be ste
▁ver y
▁N atürlich
▁Ver gangen
inn ern
▁Sp a
▁Ap ril
it er
bau en
ell schaften
▁Rechts vorschriften
▁for dern
▁Mill iar
eta il
▁f al
▁Ger ichts
▁Wissen schaft
▁g ünst
▁mit t
▁t yp
▁L assen
ri st
n a
▁über haupt
in dern
▁erfü llen
▁unter b
ämpf en
▁et c
▁s echs
ri ff
▁Transp ort
v a
▁o ffiz
b ol
▁zahl reichen
▁men sch
üt z
on g
un k
sch ung
▁berücks ichtigt
▁war um
▁Vert eid
▁M od
▁ber ech
▁Fir men
▁z ehn
▁r ichtige
▁Pra xis
▁größ er
▁Terror ismus
▁G o
▁W aren
▁stimm en
▁D is
▁ger echt
▁ver h
▁s äm
▁per f
▁O st
▁wel ches
▁eh em
▁19 7
▁Asp ekte
▁w ünschen
▁Ex per
grupp e
ha ben
▁Vergangen heit
au en
▁w ählen
▁B ü
▁ar bei
▁F r
ver fahren
▁größ te
in ess
▁ ter
I P
▁K redit
alt ungen
▁sch ützen
▁ein heit
▁Ver gleich
ei tet
▁histor ischen
▁jeweil igen
ital ien
▁Ad resse
▁ äl
ffizien z
scha u
ot he
▁F isch
▁st ets
▁Zwei tens
▁W inter
a f
▁ge troffen
▁2 7
los igkeit
or k
yn am
▁Be stand
▁jün g
▁M ann
▁S terne
▁verpflich tet
▁Par is
▁V iele
▁Sch ritte
A P
f ert
▁stra teg
▁S onder
▁O pfer
▁a re
rän kt
▁außer halb
eh nt
v ollen
▁ver k
▁moder nen
m är
▁neu es
de te
ti ver
▁Agen tur
▁ein geb
▁Z ivil
▁bef ür
▁g rün
▁Ge f
▁zum indest
▁C D
▁beg innen
flä che
▁A ug
d ingt
▁& gt
umen ten
▁Berichterstatter in
▁&gt ;
▁M il
▁zu ständ
sf ähigkeit
▁spezie ll
l ass
▁P an
▁Angelegen heit
▁Vide o
▁techn ischen
leg ten
▁S ym
▁R ot
▁Part eien
▁sein es
d lich
▁sta at
▁L eit
▁verantwort lich
own lo
▁spezi f
▁k am
▁U p
▁for m
▁Spe zial
ig in
▁b ald
or gt
▁ver kauf
▁r en
▁W el
▁Da zu
be zogen
bar er
▁ber u
▁V oll
▁vollständ ig
▁w w
▁heu tigen
▁L o
▁ver ab
▁p rü
▁f rüh
▁gen ug
▁persön lichen
ri d
än ge
▁k ür
▁Aller dings
▁erlau bt
▁Part ei
▁K arte
s itzen
▁Sch lüssel
▁ ehr
▁Angelegen heiten
▁Er d
▁Ber at
▁Verw altung
▁Res erv
▁System s
▁Sch wer
▁Schwier igkeiten
▁Kl ein
grupp en
g ül
▁Ste llen
▁automati sch
▁Ges prä
▁in nov
ach tet
▁Ver sch
emen te
▁aus schließlich
▁Z eichen
▁us w.
▁fol gt
sp ort
E L
▁ reich
▁n ot
uf f
▁er innern
▁deut schen
▁Heraus forderungen
▁Einw ander
▁D ann
ut t
▁Arch ite
▁an erk
▁Ein richtung
▁Ob j
wer te
me er
an c
ra h
▁20 1
▁erwar tet
erk ennung
▁L ux
ör t
▁Hin sicht
▁besser e
▁Ihr es
▁N un
▁Ein ige
▁Ver fassung
f onds
b ieten
▁stär ker
▁konk re
▁S ign
▁An nahme
t ritt
▁Unter k
am a
▁K rank
▁hervor ragen
b y
re ut
▁ à
iti eren
▁priv aten
▁ «
ieren de
▁f rom
s eh
▁ italien
▁ =
▁S ehen
▁an gen
fü hl
▁Be weg
▁un ten
geh end
▁fol genden
▁S oll
▁über nehmen
▁G ro
c tion
▁ rie
▁Reg ierungs
an ach
▁E d
▁i lleg
▁prä sen
▁ver urs
ist an
▁zu künf
▁Cl ub
reng ungen
z ut
▁p h
▁allgem einen
▁Ö sterreich
▁Mit te
▁Eigen t
ge st
▁B ade
▁T ier
▁Produ kten
ind ungen
gang s
ger ungen
j e
u hr
▁Arbeitspl ätze
imm ern
▁K os
▁m al
▁ent gegen
▁ges etz
▁ges ehen
hil fen
z ur
▁er weiter
▁s en
▁Or d
▁aus ger
▁A cht
▁n atür
▁ge z
A L
▁b itten
l d
▁B is
T O
▁199 9
▁ehem al
he ben
▁zu dem
▁dar stellt
▁Er k
▁s etzt
▁d eine
i ß
▁angeb oten
k o
▁ww w.
▁An trag
c on
▁Tran s
n ungs
▁Kommun ikation
s sen
▁Fall s
▁R a
örder t
▁end lich
▁Ver kauf
lie genden
zeu gung
etz ung
kon om
▁drin gend
▁Sch iff
▁bei de
zeich en
▁G et
▁Organis ationen
3 0
▁eindeu tig
f rieden
▁W ann
an o
▁l änd
or s
▁y ou
▁Kon zept
lo ck
▁bestimm t
▁Aussch uß
▁d ra
▁T rotz
ild et
h eim
▁letz te
al a
▁L eute
▁zu ge
w ill
▁st and
b ür
▁p erson
ti l
u ellen
▁Chr ist
inn t
▁Ob wohl
u ell
▁H eim
s ser
▁Er stens
I n
▁J ap
▁un tern
y er
▁W ei
▁Is rael
, 5
▁Milliar den
▁D etail
▁Ein sch
▁Verpflicht ungen
▁bem ü
de ten
▁vor aus
or ganis
ru g
▁D oll
we der
▁8 0
▁Gipf el
▁Ho ff
zeich nen
▁K riterien
▁Ein fluss
end et
k ra
▁ben utzt
ter e
▁pro duz
▁Über wach
▁Her z
geb iet
▁T ätigkeit
än gen
▁Anst rengungen
▁Kon s
▁Ver halten
▁In s
▁Nach fol
▁k omfort
is on
▁P C
ic a
▁Ter min
▁s el
▁umf ang
a ger
▁L icht
▁prof ession
▁Haus e
▁Fa lle
▁s inn
▁j em
rei te
and id
sto ffe
▁G rie
▁h ei
▁größ ere
▁gen annt
▁Zu stimmung
▁m ar
▁Ge st
as h
olog ische
▁ver z
▁E ind
▁n o
▁S ite
▁unbe dingt
ach te
st änden
▁zusätz liche
ft ung
ot s
▁gen utzt
▁in d
▁besch lossen
▁k aum
▁System e
▁Funktion en
▁D on
▁einge hen
▁qu e
▁beg l
▁m inde
▁Char akter
▁o ben
▁bil den
▁entsp richt
zü g
▁Beschäf tig
lich ung
p reis
▁C or
▁V ölker
▁An ti
▁über zeugt
z eigen
▁modern e
▁f e
▁vor gelegt
▁Mitglied staat
▁N utzen
▁Al ter
w ind
ul ieren
▁An erkennung
▁Entschließ ungsant
o x
▁D ro
▁in tensi
▁be zahl
▁re ag
▁D om
▁Ö l
zen z
▁selbst verständlich
▁K auf
sch reiten
▁Ide e
▁All gem
▁ges etzt
▁Bo den
▁Vereinbar ung
▁elekt ron
▁politi sch
ehr te
fä lle
▁Z wischen
▁ent schieden
ro so
▁L eg
ri en
▁ent stehen
▁m ilitär
. 00
▁S w
▁Bes onder
▁Al tern
▁Wahl en
▁Hol z
ar y
p age
am erik
an er
oh nung
s ätz
▁W affen
▁er kennen
▁zu frieden
op h
rei ber
j a
▁ex ist
statt ung
S E
▁P ati
▁berücks ichtigen
▁19 6
▁ange geben
c i
▁minde stens
de st
sp unkt
▁wesent lich
▁her unter
o ben
▁unterschied lichen
▁ma x
▁n eg
▁dank e
▁In halte
▁Netz werk
▁e ffizien
▁mit tel
w enden
▁Aus bildung
▁Durch führung
▁m ag
▁verfüg bar
k arte
it zt
▁Sp rachen
an lagen
▁L ond
▁Ex p
m and
▁K örper
än e
▁Doll ar
lä uf
▁Besuch er
▁Richt linien
▁hoch wer
ück w
▁mehr eren
sch ine
▁ge zeigt
▁D ist
▁Hinter grund
▁demokra tischen
f igur
▁Fl ü
▁bew usst
▁Mit teilung
▁Konfl ikt
▁Ele kt
h an
wir ken
ha ften
▁ ­
▁re duz
▁hin weisen
▁b l
▁entsprechen de
▁T re
r uf
▁Absch luss
ar ch
▁ex trem
ar tige
▁Aus gaben
äst inen
▁Sti l
▁In frastruktur
▁Komprom iss
▁M y
▁Al b
is e
▁An spruch
b all
▁ge grün
▁O sten
▁Ko oper
be w
▁on line
ei z
ig te
▁d am
ok ing
rä ger
▁d ig
▁er reich
qu em
▁Vort eile
zep tion
▁n ö
▁M ün
▁ges prochen
▁B ud
▁erwäh nt
▁Imm obil
▁En gl
▁Lebens mittel
▁nach dem
gew öhn
lie fer
al it
R O
fa llen
▁aktu elle
▁Techn ologien
▁wer t
▁glau ben
rän k
l ern
▁K omfort
▁St art
▁Re chn
▁anges prochen
▁2 1
▁h uman
ri pt
▁nation ale
▁S ü
ta in
▁Währ ung
ma ck
▁ge d
▁Schla f
sw ürd
▁Eng agement
▁ben utzen
sp e
▁St o
▁Sch aden
röß e
▁Men sch
a fft
▁Zentr al
▁An p
▁J a
ownlo ad
sp ar
▁besonder en
▁kon troll
▁Auf nahme
▁Or gan
▁V en
▁N ah
▁e uch
reich end
▁einger ichtet
▁akzep tieren
▁Ein kauf
zie ht
▁sicher zustellen
it es
▁Aug ust
lan gt
▁Partner schaft
▁3 .
tisch er
▁L u
▁N ahr
▁geeig net
▁er greifen
▁sie he
▁En d
▁der zei
m el
▁Bem erk
an cen
▁F eb
in k
▁Vor ber
▁Mittel meer
s se
rei bt
▁Kap ital
▁Kri tik
▁zu g
▁Home page
s wert
un kten
▁Zeit raum
▁erz ielt
▁l oc
min ist
▁Anwend ungen
▁Z unächst
ste chn
▁M io
iz ei
▁Schließ lich
omm un
führ er
w andel
▁I rak
▁wahr scheinlich
p ft
▁Ent sch
▁bestehen den
▁Re formen
▁freu en
▁Grie chen
au ern
▁Pak et
ir m
p ack
▁Er n
sk on
s icherheit
la ufen
serv ice
s eite
zieh ung
▁Unterk ategorien
▁wunder sch
▁Such e
▁w achsen
rü cken
s ichten
▁Ein richtungen
▁zu l
▁Zu dem
isch em
▁Stra ße
p oliti
all s
▁prü fen
▁H altung
▁fest gelegt
▁2 8
▁Su per
en der
▁frei en
ti c
ic es
▁l eich
▁el eg
▁Son nen
▁F ran
▁glob alen
ier tel
al k
▁ge ändert
▁ho ffen
▁An d
▁möglich erweise
is sionen
▁B anken
ogra ph
▁notwend igen
▁Wettbewerb sfähigkeit
▁um gesetzt
ak tiv
▁K enntnis
▁l and
rit ann
ar a
▁Lond on
▁l ösen
ger t
▁K ind
▁p ass
▁T ro
▁zul etzt
▁posi tiv
wer ke
wer ten
ichtig ung
▁erfü llt
sp iele
▁J ed
▁ander es
▁Aus gang
▁Fortsch ritt
▁amerik anischen
▁p ol
▁finanz iellen
▁S il
▁s üd
p tion
ün sch
I C
▁Zwe ck
mit glie
▁Bar cel
▁d ienen
▁be ziehen
▁Bus iness
▁Mon ate
s ein
▁Sp eich
▁d o
▁Sch n
▁Z er
se e
tier te
▁2 6
▁gen er
au p
▁Me ter
▁Ch ance
▁W ill
r ig
ö pf
▁f üh
ati k
▁f ahren
tier ten
▁T el
te st
▁l esen
o us
äus er
▁C O
ec t
▁gleich e
▁jen e
▁a s
ter t
▁Ar ten
▁ander s
▁Viel falt
au l
▁F reu
urop a
ohl en
▁jeder zeit
▁O per
▁verm eiden
▁Univers ität
la us
▁B ran
▁Dien ste
▁brauch t
▁A c
▁K indern
▁verbesser t
ä den
ard s
▁schwier ig
etz ungen
är m
▁etc .
▁n äh
ul ierung
▁Gesundheit s
▁Feb ru
ritann ien
fl ug
amp ag
▁I den
▁G ut
▁gem üt
▁We ge
system e
▁verein bar
un a
ho w
o ut
▁Forsch ungs
▁sicher lich
▁stattf inden
▁B and
▁J ust
▁techn ische
▁dar unter
▁A ss
rah men
lei sch
f achen
▁M or
ha ber
en ter
▁ {
▁Stimm e
oh ner
▁ange zeigt
▁jewei ls
b ad
ar s
▁Schwei z
tig keiten
▁M ad
▁Grund satz
▁n or
▁W ell
v in
▁Ar beiten
▁übern achten
▁ent weder
. 2
▁k n
os s
▁Men ge
▁M ich
au st
il ität
▁Webs eite
▁M oment
m eld
▁T or
u ern
▁empf ehlen
▁D ritten
▁ge langen
▁C he
land s
räum e
▁F en
b ritannien
▁F onds
▁Techn ik
▁T her
▁Ab schließend
▁erz ielen
inder t
▁Ph il
▁Ma schinen
k omp
wei ten
▁l au
▁c omp
▁Leist ungen
▁Ti tel
▁W a
ri k
▁Instr umente
▁C amp
rä f
sp oliti
▁H y
s eits
▁F rem
▁Ver hältnis
▁Ha fen
▁Forder ung
▁I S
ati st
ali fiz
▁5 00
▁Ber ichte
l ing
▁Sch ön
▁er gän
z ent
ch mal
▁bes uchen
est er
▁teil weise
▁F reund
ov o
▁Febru ar
ss el
ó n
▁aus drücklich
▁stimm e
▁w est
z one
ech an
▁ständ ig
pl ätze
▁nie der
E T
▁Ent wurf
▁Regel ung
▁S y
ati sch
▁er stellt
▁wel cher
▁erhö hen
▁Vor gehen
▁ge kommen
▁Analy se
▁F in
▁Initi ativen
▁sch l
f s
▁Ris iko
▁Abgeord nete
▁Verein ten
▁G anz
▁J etzt
▁stär k
at oren
▁s agt
▁absol ut
▁bet onen
▁Her stellung
▁T eile
▁auf merksam
▁Klima wandel
▁S inn
▁Groß britannien
t es
▁c o
▁kommen den
▁woll te
▁Aut om
per atur
▁Tra dition
licher weise
▁Bes itz
b ruch
leist ung
▁Install ation
ä llt
ei ls
qu alität
▁Ber eit
▁inform ieren
▁funktion iert
ig h
▁komp lex
ol d
▁Leist ung
▁in stitution
▁Stat us
▁l ernen
▁w ären
▁S am
▁E ff
▁Innov ation
▁D ownload
▁Un abhäng
▁B on
▁g ing
▁Gren z
▁o ber
▁h andeln
▁L eider
ungsver fahren
i me
▁Ar g
▁Ru he
s weise
▁f ragen
alis ieren
▁th at
▁F el
▁P len
▁Veränder ungen
▁N ot
such en
f il
äh ig
▁zu vor
▁ein iger
▁An g
▁H eil
▁In d
o y
▁V ielen
▁Ver ständ
▁Standard s
is h
dem okra
▁ch ines
prü fung
▁s auber
t t
men sion
▁Rat svor
I D
▁9 0
▁Gener al
sche ch
lan zen
▁Z eiten
▁konkre te
ter en
▁W ander
ständ igkeit
▁dar stellen
▁un ternehmen
▁An gaben
ak e
▁ge fordert
▁Be griff
▁K urz
l uß
▁da gegen
as en
▁a pp
▁I ran
▁War um
öff nen
▁F lexib
▁s org
▁er leben
▁wen igen
▁kompl ett
▁M ess
▁M ö
▁Ab satz
verkehr s
▁Ent sp
▁Auf bau
rach tet
▁Haus es
▁Eis en
▁durch aus
▁Jap an
üs se
ro h
▁l i
▁For men
▁Mio .
▁P a
A M
ör de
ti ken
▁kosten los
▁gewähr leistet
▁freu e
p unkte
▁verw ende
▁stär ken
▁S and
▁1 1.
los s
▁Kl icken
▁hin zuf
▁en gl
p ool
▁Geb ieten
▁al te
de ck
z in
▁er folgen
▁Sehen swürd
stat ten
▁verl oren
▁kl are
w agen
P E
▁ver ring
▁Her steller
▁lie be
▁7 0
▁Ein igung
▁Prior itäten
▁ver d
▁benö tigt
▁r uss
▁kl icken
▁Überein kommen
▁G eist
▁t rägt
▁Wor te
▁veröffent licht
▁P rem
▁lok alen
▁Brü ssel
▁Rech nung
▁Kir che
führ ten
▁ab geschlossen
▁D V
▁Programm s
ma ßen
▁h ält
ster dam
▁ver ur
▁Mot or
▁In dien
▁W ien
▁Zwei fel
▁C an
▁Heraus forderung
s h
k osten
▁Kat astrop
▁Immobil ien
ran ken
▁M ic
n etz
▁ersch eint
▁allgem ein
gew icht
▁Am sterdam
▁ }
▁König reich
▁Terr asse
▁erklär en
▁Stellung nahme
vers or
▁möglich st
leist ungen
et ing
mo de
▁m e
▁K arten
▁l eist
▁M iss
▁ge h
al og
▁Lin ux
be d
ber icht
▁er stellen
▁Nachfol gend
▁T al
▁Flü cht
▁P en
▁Meer es
▁Acht ung
r ung
kt oren
lä gen
st eht
sp ek
▁Unter kunft
g i
▁Ein haltung
▁Entschließungsant rag
▁Ver k
rie be
▁Land wir
▁konzentr ieren
▁denn och
▁M er
▁Port ug
▁Denn och
▁Komp eten
▁Muse um
▁Gew ähr
▁Forder ungen
▁E hr
▁ver f
▁gegen sei
▁finanz ielle
▁be quem
w ay
bie ter
▁Tex te
▁M ig
rei tet
oh nen
▁Asp ekt
▁gegrün det
ig ungen
geb aut
ul en
▁näch ste
ge geben
▁A sy
ä ck
▁Pati enten
▁lin ks
um än
▁Del eg
▁unterschied liche
▁M ass
vol ution
▁persön lich
▁E G
▁aus reichend
▁tä glich
▁über tragen
r um
▁f er
▁Barcel ona
▁ver folgen
▁disku tieren
it or
▁ge leistet
ab l
sch nitt
▁An lagen
▁human it
▁2 9
▁p ri
▁le gen
▁P aten
▁Jahrhunder ts
▁w ei
i pp
ll igen
re ak
▁Ide en
ate d
▁Sehenswürd igkeiten
▁L ab
▁Afri ka
▁G as
▁M esse
▁sp ielt
▁umf asst
▁n ennen
▁3 00
▁end gül
▁verl assen
▁z erst
▁U kra
▁Deb ian
▁An ges
▁unabhäng ig
▁T yp
▁W ald
▁Les ung
▁K ol
▁D orf
A C
▁sch önen
st euer
O S
▁Aus sicht
ra chte
tin ent
▁dig it
▁J av
▁bet rachtet
▁den ken
▁hö her
▁posi tive
▁H el
▁l os
▁Verpflicht ung
▁Gemeinsam en
▁w or
▁L ang
▁K ünstler
iv en
▁N ame
be f
rän ken
w a
kon ferenz
▁Land schaft
▁fest stellen
un ion
▁garan tiert
▁arbei tet
te sten
▁erforder lichen
▁a u
se quen
u elle
▁ver tra
lüs se
▁Um fang
▁er leich
▁T reffen
man agement
▁überprü fen
▁En ter
▁h ören
▁New s
▁beh aup
▁Pol en
▁kultur ellen
▁D o
ar ischen
p o
▁Überwach ung
▁V illa
▁H armon
▁Sor ge
▁Gleich zeitig
▁Viel zahl
▁S im
p ark
u mm
re gel
ick t
▁St ück
teg ien
▁Kop f
en k
▁Er zeug
▁st abil
▁K il
tion s
wei te
end es
▁Er st
▁K enn
▁ ti
ien s
▁nie dr
▁Stär kung
▁r ichtigen
▁tä tig
▁hin gewiesen
▁l es
▁g rat
▁Tour ismus
▁Heim at
▁Bed arf
z wischen
de x
u pt
e ck
p assen
rauch er
▁b i
▁Entwick lungen
▁Nutz er
▁Je der
▁Li zenz
▁p assen
▁Dro gen
▁res p
versor gung
ü ter
in str
▁mit einander
▁Flexib ilität
auf trag
lös ung
▁in vest
▁ha upt
▁Teil nehmer
▁Wi llen
▁Ver z
v o
führ ungen
b ett
▁S ehr
bl i
R E
▁vern ünf
▁s eiten
▁m on
▁An lage
▁vor an
▁M and
hal tet
our n
▁be zeichnet
▁Ratsvor sitz
▁El emente
▁M utter
▁Problem en
▁Arbeits losigkeit
p reise
el te
ö t
r ich
▁er inner
▁Prior ität
▁weiter er
▁Bedürf nisse
▁Ir land
▁ver gleich
ra b
▁zahl en
▁Well ness
▁Stra f
▁einge führt
▁prof itieren
▁unter sch
▁g renz
▁W echsel
om it
▁kon stru
z y
k ünd
▁Disk rimin
▁zwei f
▁V ir
ra gt
▁Be wertung
bl eh
▁ge lin
▁f alls
▁M echan
▁f l
▁P resse
▁Archite ktur
▁Jahr z
▁vor ber
▁Geschäfts ordnung
is iert
▁Besch reibung
▁d ritten
▁gew innen
▁19 .
ome ter
ö se
uff et
▁Just iz
ie gen
g o
▁unterstüt ze
▁französ ischen
wei st
▁kl ass
▁e st
▁gesch ehen
▁ $
▁aus führ
ger e
▁Mo dern
▁M ik
▁Bahn hof
▁ein setzen
beh alten
▁ x
▁ö k
▁Führ ung
o o
▁zu ver
▁Rechn ungs
g ibt
p a
▁Regel ungen
▁d anach
▁Host els
▁vor liegenden
▁über all
wind igkeit
▁Verteid igung
▁H ilf
▁zentr ale
▁er le
▁Alt stadt
▁Sch we
▁Europä er
▁säm tliche
▁rie si
▁S ek
▁beg innt
▁fest ge
▁C ap
▁Mein er
▁An teil
▁Lin ks
▁Fot o
▁gesch ützt
▁Tra in
▁ent standen
oking .com
▁H alb
▁keiner lei
andid aten
▁bes itzt
▁gegenwär tig
▁aus ges
▁bestä tigt
tin u
▁Fot os
▁St ein
▁region alen
en te
▁Ch ancen
lie gt
rü nen
▁S eine
k am
▁spezie lle
▁H am
v iel
▁3 5
▁W TO
▁R ein
u ster
▁Glob alisierung
wor tet
▁voll kommen
▁offen sichtlich
▁einfach e
▁K ombin
▁so b
di ent
▁grenz über
h op
▁St ock
ig i
▁Vor sitzen
reit ung
f g
▁ver folgt
▁groß es
▁st ren
▁nor mal
▁beteil igt
ro chen
▁4 .
▁D E
p la
▁gest alten
ig ungs
▁o ff
▁199 8
▁M ilitär
▁S ant
▁Gerichts hof
▁T isch
hör en
▁Mar ken
st ücks
▁st e
ausschuss es
in i
c es
recht s
▁Griechen land
lei hen
▁haupt s
▁Ukra ine
▁O ffen
▁Anges ichts
▁ide al
iel ten
gem äß
▁Mittel n
▁Pol izei
▁größ eren
▁Verständ nis
i f
▁m eist
▁politi scher
▁Aus land
▁er h
ag n
▁Kos ovo
▁Gol d
▁St ar
▁Re zeption
▁garan tieren
w ser
frei heit
f ast
▁Wor ten
L E
é s
▁war ten
b rauch
eh mer
pp ort
I E
p e
mit tag
▁frü her
▁Internation al
▁zusätz lich
▁Er hö
tig ten
▁gut es
ist isch
▁gegenwär tigen
ver standen
▁fa llen
ate ll
▁Maß e
▁internation al
entwick lung
▁er geben
▁S ach
▁G röße
ell a
ele v
▁bein haltet
▁De fin
▁Mon at
▁umfassen de
schie de
▁rel ativ
▁Beteil igung
▁Stadt zentrum
▁2 1.
os k
▁Eind ruck
ber t
▁verbunden en
▁folgen de
ä sion
▁T ri
▁f ern
stell te
▁a cht
att form
ü ben
▁internation aler
▁so gen
ul gar
▁Exper ten
▁p la
▁st eigen
ol e
▁mitt ler
▁Geb rauch
, 00
▁W ichtig
▁Fern seh
▁Z oll
▁da uer
▁sol cher
k rieg
w esen
▁Stud ien
n ü
er gie
▁Daten bank
▁Erklär ungen
▁Aus s
▁grund sätz
▁K u
sel ben
▁Mär kte
I M
sp rach
▁Kontro ll
▁A ktionen
▁l etzt
In nen
lä gt
▁wesent lichen
t lichen
▁Tod es
▁E C
▁Komp onen
▁Gesetz gebung
▁m obil
▁teil nehmen
s es
mö gen
a llen
wor fen
ä fen
sch rift
ell os
▁Grün de
▁Koh äsion
▁St .
▁begl ückw
▁D r.
▁Hin weis
▁at tra
▁vor liegen
klus ive
▁ren ov
vorsch lag
▁Nahr ungs
▁W ür
as il
▁St rom
eich ert
▁Rei sen
▁bem er
▁DV D
i j
▁k ost
▁Daten schutz
ab s
▁T ool
▁Wor ld
▁Ver mitt
▁Städ te
ik ations
ennt nisse
▁Unabhäng igkeit
ot o
▁Fen ster
▁N iveau
y a
▁Re alität
▁re al
▁F it
▁Mon t
▁Er de
art a
▁Verw altungs
▁ausgew ogen
▁Ged anken
scha ffen
▁spezie llen
▁Verb rechen
▁e vent
▁Zahl en
ie gel
▁Far ben
▁l o
b us
mittel t
▁f ehl
▁t ür
hol ung
▁gem einschaft
▁A si
d .
▁um welt
▁Mitglie dern
▁wer e
▁Wieder auf
▁prak tisch
▁Min dest
▁di ent
▁Zug riff
▁Sch rift
▁Op tion
▁bet rachten
▁ge öffnet
lin ge
a in
▁Stu den
O L
▁en or
▁Op en
▁Empfeh lungen
ktiv e
▁Bot schaft
äuf er
▁be achten
▁kor re
i mal
is ieren
äl fte
it ze
▁Gegen satz
▁Ur s
▁Bei m
▁Ereig nisse
▁Bei hilfen
▁l angen
ichte te
handel s
▁ge lungen
▁Re aktion
ho tel
▁ch ar
gef ähr
bli othe
▁O ff
ris en
▁Kommission s
▁Ein kommen
rit or
▁Bo oking.com
▁Weiter e
kl ang
▁Besch luss
▁inform iert
▁erhö ht
richt linie
or te
iert es
o om
▁Metho de
▁In n
▁star ke
stand s
▁Gar ant
r asse
▁schön e
▁tran sp
. 1
ern e
i tel
a x
▁bri tischen
ter nen
▁t ief
ek tiv
▁Sü den
▁r ein
▁F R
▁ein sch
ri ge
▁th is
uch ten
▁Nach dem
▁Insel n
▁Fraktion en
▁recht s
▁W h
▁Wir kung
an ger
▁F eld
▁man chmal
it ut
▁g uter
sp rech
▁P at
▁über ein
▁dar aus
▁sorg fäl
▁Geb iete
aus o
▁haupts ächlich
▁Mitglied s
an en
▁19 4
er r
ver t
▁Be ob
▁her zlich
▁tran s
em in
▁Ka ffe
▁Gr unde
le un
ges ellschaften
b indung
▁l ux
▁tür k
▁nachhal tige
ent lich
▁außer orden
u ert
▁G re
▁ein verstanden
▁allgem eine
▁Liber alisierung
▁kosten frei
it ter
it t
z ellen
▁ide ale
d essen
at o
▁Sch i
▁mit tels
▁gesch ieht
a i
ro ati
▁Hoff nung
▁Prü fung
▁sob ald
▁Früh stücks
es si
▁ge halten
▁Grund rechte
▁fest gestellt
▁20 .
produ ktion
E D
▁t reten
▁pro blem
▁Haupt stadt
▁Voraus setzungen
▁nie mand
ä umen
▁C a
▁Sp rach
gend a
▁I N
ok er
▁untern ommen
ategor ie
▁vorgeschlagen en
▁B u
▁einz igen
▁mö glichen
reak fast
f uhr
▁T on
▁Minder heiten
▁Tour isten
▁Währ ungs
ik e
▁sp richt
▁schnell er
▁ab häng
▁K urs
▁C enter
▁k aufen
▁Teil en
k ap
ann ung
jähr igen
▁Th is
▁l auf
ym p
▁Vort eil
▁dam als
eschä ft
ing er
▁B ra
▁Erw art
▁M art
y r
in form
▁P il
ul ation
▁Gegen teil
ungs bereich
lich em
▁V om
▁jüng sten
▁s elten
▁erforder t
▁z ählen
n ach
▁priv ate
▁Nach richten
lie ben
▁übern ommen
▁R en
▁aus länd
▁s ystem
▁Verfü g
▁persön liche
I CH
▁j ungen
▁Sp iele
▁Män ner
▁Nieder lan
S S
▁w eg
▁A genda
ähl ten
▁nation aler
j ekt
▁teil en
▁unter st
▁an bieten
▁In f
▁Politik er
▁Nicht raucher
▁Co de
▁K ür
▁Arbeits markt
▁Asy l
▁Teil nahme
▁Bestand teil
▁Y ork
▁med izin
▁M ir
▁Veranst altungen
▁R and
sy ch
▁S low
E C
▁Ver öffent
tig te
▁Or igin
▁App arte
▁f amil
▁viel er
▁T op
an e
d o
w issen
▁P rak
▁regel mäßig
▁Wel che
k arten
▁Klima anlage
▁Ris iken
▁vor schlagen
such t
▁Apart ments
▁s a
▁s age
▁N o
w ungen
▁be ob
z n
▁gew ünsch
▁E ffizienz
▁Ph ase
▁betroffen en
l eitung
▁u p
▁Z immern
▁Über prüfung
gend es
▁Form ular
ä sser
▁sie ben
▁Z iff
ha f
▁P ublik
▁P L
▁Ü b
aus ende
is men
▁B a
▁Jav a
▁R eich
▁R oh
▁0 1
▁Ver st
▁Ferien w
rä ch
▁Vorber eitung
▁Pf licht
▁tradition ellen
ränk ungen
▁Metho den
▁Angeb ote
▁zu gleich
▁e chte
▁ges ellschaft
▁klein er
▁A ktu
▁beschäf tigt
ell es
▁Aust ausch
▁Z iels
▁Gesetz e
▁n orm
ktiv en
▁Koordin ierung
es halb
▁bek annte
▁P oten
▁ge be
▁Z uf
▁wo durch
osi tionen
rie ch
leb nis
utz ung
war z
▁reg istr
▁P oliti
▁Wettbewerb s
▁ha ve
▁gew ählt
▁a g
▁ern euer
f unktion
▁sich ern
▁Anp assung
▁Über n
pro blem
▁Lie be
▁s ur
ten t
▁Erhö hung
▁D ig
io de
gri ffe
▁Aus nahme
▁kon text
▁A K
▁her gestellt
▁un ge
▁Eben so
m lich
▁Ma c
▁besser en
w echsel
▁Sym bol
▁ab gel
▁c om
▁199 7
ö der
▁disku tiert
techn ik
▁ é
ab len
▁Internation alen
▁ander erseits
all y
▁Pf lanzen
▁wichtig ste
ron t
▁R umän
▁Diskrimin ierung
▁qu alifiz
▁deut sche
▁An griff
▁f ehlen
▁h .
▁M ulti
▁Vert rieb
al ys
▁Gä sten
▁H älfte
▁Fl uss
▁beein fl
k or
▁h ilf
fü gt
▁Ab sicht
gr ess
▁Beweg ung
▁El tern
gän glich
▁H ard
▁f ällt
am es
ass ungs
▁R und
met ho
be k
gel assen
▁frei e
▁Serv ices
▁w h
▁z er
ri end
▁weiter es
▁grenzüber schreiten
▁A kte
le ge
▁b ür
▁M orgen
▁Lauf e
▁bei ge
▁Form at
▁viel fäl
▁will kommen
weg s
he bung
ol a
▁ersch einen
▁Auf grund
▁demokra tische
▁Zu stand
▁C ity
ver se
▁seiten s
N G
▁f inde
gren zen
▁beg ann
▁Aut or
m es
ungs st
▁Rel ig
▁kür zlich
▁Di mension
ang s
▁komm un
▁T iere
iv al
tit ät
ol z
u ver
▁Dok umente
sprü che
ch em
▁Frei zeit
▁Ord nung
p rise
en ken
di um
▁5 .
▁jem and
▁V ater
▁einzel ne
▁akzep tiert
spart ner
▁reag ieren
▁P ool
▁be wegen
▁N orden
▁An liegen
▁ä uß
b le
▁Fit ness
or ien
▁Be weis
lau ben
ad em
▁Haushalt splan
▁Gener ation
▁Kooper ation
▁b ill
is la
▁näh er
▁Fä lle
▁Schwe den
▁D rei
▁sinn voll
ze ß
▁p oten
▁Dir ekt
▁irgend w
▁vert eid
▁Re st
▁We gen
▁F ähigkeit
▁ reichen
▁s er
▁st aff
▁j unge
▁länd lichen
es e
▁beh andeln
▁dies be
▁noch mals
▁Ser ie
▁Ein heit
▁gen ü
▁Lin k
ak te
M U
▁g riech
▁Ber ücks
og le
▁posi tiven
▁D ad
▁um geben
▁ange ht
▁Ha ut
▁t ut
c ia
▁berühm ten
▁3 2
ord nungs
ohn t
▁bet ont
fiz ierung
▁Gren ze
roso ft
sen s
zahl ung
▁Mehr wert
▁F lä
v al
▁Ver m
▁Fre unde
▁anerk annt
ium s
▁sicher stellen
▁Gl as
▁Bro wser
▁F arb
▁Ge fühl
▁Sal z
pl ant
▁St unde
iel te
▁führ enden
▁j eg
I L
it s
ber ech
▁lang sam
▁G ran
▁D ort
▁Kombin ation
▁beg onnen
▁d ynam
▁W eiß
▁a cc
▁Untersuch ung
▁Portug al
▁verstär kt
▁Engl isch
P S
▁Unter schiede
▁L ob
geb racht
sk i
ästinen s
ein richtungen
▁beein druck
▁Um ständen
ah nen
un sten
▁Per spek
▁d ah
grund lage
▁Ein klang
e x
▁entsp annen
▁Diskus sionen
ge ht
▁Aut ob
▁Eigen schaften
▁Kolle ge
sicht s
▁H ar
fl üge
m s
ier end
le chter
h .
ll er
▁forder t
▁F ü
▁Min i
▁über ra
▁ra sch
▁ rei
▁l eiden
zahl t
▁R h
stehen den
▁B io
fer tigt
▁Verfüg barkeit
▁ber uf
▁verl ieren
g ut
fol gerungen
▁besch rieben
▁H ei
w es
ma terial
▁Freu de
▁Pro vin
▁viel mehr
sto ffen
▁vor genommen
at es
▁Dad urch
y l
▁er griffen
▁glob ale
▁f and
▁bef assen
▁Einwander ung
▁Be denken
org nis
▁Mic rosoft
▁K unde
bien te
zi f
nehm ern
▁bed arf
▁derzei tigen
▁zu stimmen
▁Handel n
meld ung
ourn al
▁Berücks ichtigung
o sen
▁star ken
▁D ol
▁T M
▁Kon tak
os oph
▁P H
▁Unter schied
▁h and
▁gew isse
▁ein gesch
▁m ulti
▁unterschied lich
▁ehemal igen
▁land wirtschaft
▁E vent
▁Pap ier
▁v an
▁Enter prise
▁L as
▁Ger äte
▁The ater
▁o ut
▁Ant worten
lich ten
▁nö tig
▁Dist rib
▁Erw achsen
ü mm
▁b ildet
▁st ruktur
▁höch ste
▁Europ e
▁S icher
▁wieder um
▁We sten
▁lä uft
▁konk reten
▁T un
▁er b
rä umen
▁Schwer punkt
▁F ein
▁V ar
▁bas iert
▁wel chen
▁K ranken
leg te
ma schinen
▁Zus atz
▁H igh
at ein
▁Ch in
▁Grund sätze
▁Voraus setzung
▁Wahr heit
▁Komm ent
▁D re
ur i
uf e
▁an t
▁El ement
▁b ut
▁V ielleicht
▁schließ en
st ä
c y
▁4 5
om ie
▁sp rach
▁schle cht
▁Mark eting
ü ch
▁S .
iz iert
▁Reg istr
▁s eien
g eiz
▁Un tern
▁Leit linien
▁kein es
li ste
g ünst
▁Kü ste
z ig
▁B la
f angen
ich ern
▁eng ag
ei er
▁d einer
▁L ö
fg han
▁abhäng ig
▁Stud ie
▁f ried
▁Sch äden
▁gen auso
▁Allgem einen
p äck
i ent
▁Vert räge
▁ent lang
▁San ktionen
▁gest ern
▁b o
▁Stra tegien
▁z eich
ge g
▁La ger
rü stung
▁t ie
ff end
he ber
▁be zieht
▁Maß nahme
▁ma ß
▁vor s
om in
fü llung
me ch
▁Wirtschaft s-
▁Bl og
▁un ein
E M
▁M assen
▁Sch ule
▁T ick
▁wichtig es
▁resp ek
▁Sk i
▁Tag ung
▁Amerik a
▁Sign al
us sen
▁199 6
▁h al
▁al t
▁Men ü
▁Bei fall
p s
gän ge
▁Bed ien
▁Go ogle
p erson
▁K ategorie
▁ reicht
▁Sch m
ähr t
▁L ei
▁3 6
▁... .
äum e
▁Berat ung
b a
t u
▁s enden
▁Da für
ul iert
k rise
el be
▁p o
k oh
mär kte
▁l aufen
▁unmittel bar
ü ste
▁18 .
▁A fghan
▁g eist
beh örden
▁Gen ehm
ol er
▁Es sen
isch ung
bl ei
ent re
lä ssi
▁al tern
▁erhält lich
h len
▁ver langen
▁außer gewöhn
▁Defin ition
▁An bieter
▁W o
g al
▁D am
▁Frank f
▁lie fern
reu ung
d a
▁H oh
eta ill
▁Sch nitt
▁trotz dem
▁Ges icht
▁A g
z te
▁w enden
tra gung
▁Landwir te
re chten
▁p al
tro lle
▁i den
▁hoh er
▁umfassen den
▁Detail s
▁zie mlich
z iel
▁Struktur fonds
▁t our
äh igkeiten
▁rel igi
▁K e
ekt oren
▁interess ante
▁italien ischen
▁An fragen
g röß
bereich e
▁Material ien
ichte ten
▁gesch rieben
▁S zen
la st
▁histor ische
▁ eig
▁P D
angeb ot
▁K risen
▁la ut
▁Tem peratur
▁B ulgar
▁region ale
▁B ett
▁bek annten
st u
▁Kam era
▁Umwelt schutz
sch n
▁m y
n ummer
▁o per
▁g ood
▁1 ,
at a
▁D ach
▁Mik ro
▁so fern
▁D auer
zu legen
m acht
▁D rit
nit ten
U S
▁Kon sequen
▁se x
▁Studen ten
gesch rieben
▁qu alit
▁Ger man
▁I P
▁Fern er
▁g ül
▁fal sch
r ichtet
ät zung
▁Frem den
mech an
▁V o
▁er öffnet
▁führ te
▁ °
pp en
▁Nor men
▁K rie
▁entde cken
gen er
▁s h
az ität
▁bet rägt
n o
▁Empfeh lung
ma il
▁Bade zimmer
▁Fahr zeug
▁künf tig
▁B ri
▁ge prü
läss ig
komm t
▁Deleg ation
▁Z yp
▁Über setzung
▁s icht
▁E p
il ft
em a
▁Her kunft
▁Garant ie
▁zusätz lichen
▁beg ren
be ziehung
▁ko ordin
▁über zeugen
dien ste
▁Mün chen
▁Bl ut
▁Institu tion
▁gef ördert
qu ellen
▁15 0
▁Eisen bahn
▁ber aten
▁dir ekte
fä llen
mode ll
▁zu gänglich
▁Vor sitz
▁gleich er
vis ion
künf te
▁Er inner
▁komm er
ati schen
▁kurz em
▁fa ir
▁ öffnen
a ce
▁19 5
amerik a
ü gel
▁ —
▁zunehmen d
üh l
▁hö here
▁schön sten
▁Am biente
▁Region al
▁ver ändert
▁Veranst altung
f est
▁Ein stellung
▁voll er
eu ern
▁an s
▁wesent liche
▁Agrar politik
z o
ließ en
M L
▁C ol
▁grundlegen den
part ner
sch irm
▁eigen es
▁Mittel punkt
▁bes itzen
▁f ac
▁Produktion s
▁interess iert
▁h ilft
▁p ort
▁schwier igen
▁N AT
▁k ombin
▁hervorragen de
amm er
I A
▁E S
ck s
▁Ver h
▁Un gar
▁Stand ort
ff eren
ne ter
▁Erwart ungen
▁M ü
flä chen
▁K ann
▁Aus gabe
▁O hne
▁ausgezeich nete
re ck
▁zweif ellos
▁zu erst
stra ße
on es
▁entsch lossen
▁w eshalb
▁K andidaten
▁Proj ekten
mm en
ag es
▁For um
ber eit
v iew
▁B an
▁Wirk lichkeit
w ander
fri k
▁ange p
▁nie mals
w ä
▁a ußen
▁welt weiten
wick lung
▁Bal kon
k at
änd ler
t eile
te d
an gt
▁Hin dern
▁In ner
▁Bei spiele
▁Krank heit
re e
▁St atist
▁Gl ück
spruch s
▁S atell
lie fert
▁Reg ime
▁neue sten
▁F und
▁Bi bliothe
▁jähr lich
sam keit
▁Nach frage
▁B aum
▁Verbesser ungen
rä cht
▁s k
▁ruh igen
▁Konfl ik
▁erweiter t
▁natür lichen
▁W ol
▁Prü f
g as
▁M el
ür en
▁Schul den
▁Kü sten
and a
▁ausgezeich neten
▁d is
mit ten
▁b reite
ü st
▁B ucht
▁Bau ern
▁sch reiben
▁am tieren
▁re den
▁v is
▁Kon tinent
▁install iert
▁B ill
▁Un gleich
▁P re
L A
▁mo di
u la
▁in dustrie
▁kommer zie
▁in zwischen
ot h
▁Struktur en
ven tionen
o zi
or al
▁Sh op
▁so d
rä ften
▁Im p
▁bemü ht
L AN
▁füh len
st ieg
eh me
▁N et
ampag ne
▁m ark
▁Du sche
weis ung
▁L ast
r enn
t äu
▁offen en
system s
▁In dust
▁sp anischen
▁Zu ge
▁Wirtschaft sw
▁ein fachen
ver w
▁Bef ug
▁An schluss
pp osition
▁ch em
ges undheit
▁W ik
klär ung
▁ursprün glichen
▁ che
▁N ein
▁Aus stattung
▁Beschäftig ungs
▁kur ze
▁Res p
ra te
▁ger e
▁Entwicklungs ländern
ich ert
▁G rand
▁B ay
▁ge legt
▁kultur elle
▁un gefähr
▁K rimin
▁Über zeugung
sch m
▁einer seits
▁Mitglied schaft
sp er
▁bet rächt
war d
▁Jed es
ter s
▁betreffen den
de cken
▁6 .
l eiten
▁s orgt
st eh
gen de
▁Ma x
m eister
▁Mit t
zeich nis
▁h armon
▁Par lam
c ript
▁mensch lichen
▁r ichten
t räge
R A
▁w id
eu ten
ähl te
▁Mobil ität
▁präsen tiert
▁17 .
em m
wer ber
▁d etaill
▁la den
▁grundlegen de
▁Iden tität
▁st arten
▁Aus stellung
▁Ausgang spunkt
▁w ettbewerb
▁M erk
▁a chten
▁P unkten
▁Harmon isierung
▁geb oren
▁K MU
▁ver ändern
▁st immt
▁R i
▁So und
▁Ar me
▁M c
▁l og
rück e
leg ungen
▁abgel ehnt
▁f ü
e te
▁Ex port
▁nach zu
wirk ung
h end
ör ung
▁Z usätz
▁organis iert
é e
▁funktion ieren
ak et
uch e
▁ausges prochen
▁grat ulieren
▁B ur
äl tigen
▁mus ste
qu is
▁T schech
▁auf zunehmen
euer ung
▁entscheiden d
isten z
▁15 .
reich ung
▁t rifft
▁höch sten
g yp
▁Gesch mack
p el
▁Sch atten
▁Plan ung
▁Rom a
▁effek tiv
▁K roati
li ent
▁Absch nitt
hol en
bahn hof
▁Abkommen s
▁riesi gen
▁ex p
▁Jahrz eh
▁ge zogen
beh örde
r ischen
ren nen
▁Bo ot
▁Autom obil
d orf
aus end
▁F la
▁St reit
organis ationen
▁d ritte
▁S n
▁Be stellung
▁T ä
i as
▁f ra
▁St ahl
▁Ste uern
▁künf tigen
ic o
▁Far be
Q L
zie le
▁übern immt
▁erlau ben
▁sow eit
▁Buch ung
▁Zahl ungs
m ed
▁um zusetzen
▁b ar
v id
b as
u gen
▁m ünd
▁t ot
▁ver an
wir t
och en
▁Überein stimmung
▁Rumän ien
▁p re
▁verschieden er
▁Part nern
▁b uchen
▁Ratspräsident schaft
er o
r ufen
▁forder e
ar tigen
▁durch zuführen
▁y our
▁NAT O
▁m m
rän de
arbei tern
rupp en
▁a c
feren zen
tinu ier
▁Beh inder
▁Ge gend
or a
▁Aus führungen
la stung
▁Als o
▁Dienstleist ungs
▁aus geschlossen
ar tet
▁Frieden s
▁z ählt
▁Z w
▁Ver tra
▁gew onnen
▁Änderungsant rägen
▁Re al
▁einzigar tige
▁J ournal
▁perf ekt
▁verurs acht
▁Komponen ten
▁Zu ständigkeit
mäß ige
▁Ch em
por te
▁App l
▁Gest altung
▁ rück
▁be z
▁Leist ungs
▁F euer
▁auf treten
▁gel öst
is er
ant ast
▁UN O
▁Relig ion
j ekte
▁u. a.
▁unein gesch
▁Kil ometer
▁Kl asse
▁ver langt
uropä ischen
▁Vorsch lägen
▁bek ämpfen
▁an statt
hand elt
▁sch afft
g rei
▁Cas ino
▁F ähigkeiten
▁An n
▁Aus führung
jähr ige
▁lau tet
▁mö gliche
az ier
▁Er satz
▁Am ts
▁Schön heit
▁an nehmen
stand ards
▁bes ei
▁Um feld
▁Verb indungen
zü ge
▁schw ed
▁Ak tien
▁an wes
for schung
▁s ehe
▁er ör
▁hervor heben
▁Nah en
▁anges ehen
▁wissenschaft lichen
▁F o
▁V al
▁ger äum
▁Dritt ländern
▁be zug
▁schn elle
▁G lauben
▁Fest legung
ber ge
▁be abs
▁zentr al
a der
kehr en
▁Krank heiten
▁ver ständ
▁Gew inn
▁aufge fordert
▁beglückw ünschen
▁P oker
▁amerik anische
▁ ¤
▁f lexib
▁0 2
▁Schlaf zimmer
zip lin
führ te
▁zentr alen
mm e
▁einz us
▁V iertel
sp ir
ahr t
▁Ha ft
sch ule
si di
▁zurück ge
▁Ur sp
ehr t
▁Geschä fte
▁mit ten
▁N och
▁kur zen
▁Programm en
▁Komp l
▁recht lichen
▁O ut
▁P rin
8 0
ad o
▁Ang st
▁Qualität s
▁er lä
scha ff
▁Kon text
min uten
▁Se c
▁10 .
▁Webs ites
▁erheb lich
I G
▁Gra fik
▁vor ange
. de
ma schine
▁zug unsten
▁Er f
▁7 .
▁pro du
▁zu zu
le fon
on i
▁CO 2
ech tigkeit
▁ge prä
▁verb ringen
bet rieb
▁durch führen
▁kon tinuier
▁prä z
▁zuständ igen
▁Ver ring
ot te
▁Sch loss
▁par lament
▁ausge stat
▁Schw imm
▁un ent
▁verst anden
▁bek omm
▁nachhal tigen
eich ern
n immt
▁Führ er
▁Altern ative
▁Pl attform
▁ab w
▁bestä tigen
▁loc ation
▁w eite
▁un e
▁sod ass
ün scht
▁Gleich gewicht
▁ehr geiz
▁Ge päck
schied et
äh ler
di tionen
z ehn
▁z ivil
sor gung
▁verab schiedet
▁O pposition
▁Pan or
▁B ru
▁Mein ungs
▁v olle
ti fik
▁Aktion splan
▁früh eren
▁Ziff er
▁S ein
üs sen
▁p r
D E
▁notwend ige
▁Tr end
g ä
h eren
▁H imm
lie b
▁Gew icht
▁Entwicklungs länder
▁an spruchs
▁Kon to
▁Co sta
▁Arbeitspl atz
▁zu folge
▁Red ner
ro ht
▁Um gang
▁Arbeitspl ätzen
▁Dritten s
läss lich
▁Ger ät
st ande
▁C omm
ist ik
re b
▁Wir d
▁16 .
▁4 00
▁zurück zu
▁Wer bung
▁Son ne
▁Afghan istan
▁D an
▁d. h.
y si
is ser
▁Gemein de
▁frei will
▁Kl ar
T E
l eren
▁pal ästinens
r t
▁Plen um
▁All es
▁L ive
▁ö sterreich
M S
ein bar
and o
▁serv iert
▁Hoh en
▁m et
▁Sa una
▁entde ck
in sel
▁einz uf
▁Regierungs konferenz
▁produz iert
▁Prinzip ien
▁20 20
▁Gra d
▁Rad io
▁Sch en
mäß igen
f ähigkeit
▁A L
pf en
izi ent
▁ausge zeichnet
▁Ä r
▁Verb ot
▁geprü ft
▁Kap itel
sch uld
I V
▁h ängt
hö rigen
▁m assi
▁Kon vent
▁bezahl en
▁Br asil
st ation
▁erm u
▁öffent lich
▁Webs eiten
4 0
▁Ein stellungen
▁M r
▁N a
▁gew issen
▁Ger ichte
reu z
▁12 .
▁Ungar n
os sen
▁199 5
er kennen
▁d ich
▁Grün dung
▁Op tionen
▁vollständ ige
▁w echsel
reit ag
ger ufen
▁Vereinbar ungen
be auftrag
haus halt
r as
▁Er holung
usst sein
▁T rag
eu gen
▁j etz
▁Beit räge
e p
▁ver leihen
it a
▁auf nehmen
▁Em issionen
eint räch
▁versch w
▁verh indert
▁Bezieh ung
ähr ung
ug h
▁Gen au
▁der artige
▁p lan
läss igkeit
st es
▁Mil ch
ger äte
in er
▁besch ränkt
▁abge stimmt
b an
▁ rom
▁Bür o
▁erreich bar
I F
▁ge ä
▁M ut
▁Veröffent lichung
▁Ge org
ü ler
iti m
▁An kunft
▁Kompeten z
r or
▁Außen politik
▁Verring erung
▁aus gesetzt
▁St ation
▁Inst itut
▁Zentral bank
u h
▁Ab häng
▁Besonder s
▁Bemerk ungen
▁Problem s
▁ent steht
▁nie d
re ffend
sp rachen
▁west lichen
▁n utz
koh ol
▁dir ekten
▁ar ch
▁sorgfäl tig
▁B ab
sor ge
le cht
▁An rei
▁Ha ftung
en kt
▁v iew
▁F leisch
▁J ohn
▁Geh eim
tifiz iert
▁un möglich
▁W ünsche
▁wel chem
▁entwick elten
▁Zusammen halt
▁geb oten
▁Su pport
á n
▁Ein beziehung
▁Nahrungs mittel
▁pass iert
op ul
▁Po wer
▁v ir
▁b reit
▁Stu dio
▁Werk zeug
▁P ersön
▁Kon figur
▁Des wegen
u a
▁Frei heiten
▁h tt
▁Be am
▁W LAN
▁le gt
cl ub
▁p reis
▁geb aut
ag o
▁Fa ktoren
▁begrü ßt
▁woll ten
or y
▁T ari
▁Sch uld
ru ption
▁Tats ächlich
▁Lux us
st eigen
▁ausge führt
▁gelten den
▁defin iert
▁hinzuf ügen
▁S l
▁Je de
m achen
▁N av
▁e chten
▁Re gen
▁Ch arta
▁Gesetz es
▁Einw ohner
▁mit ge
produ kte
▁spezif ischen
▁Kn ow
ann e
etz ten
▁Speich er
▁kost et
▁tats äch
▁Sp azier
▁erleich tern
▁p art
▁c an
▁nahe zu
▁heu tige
▁Prem ier
▁staat lichen
▁S orgen
ro hung
▁Kon sens
▁Vorschlag s
zieh ungen
▁An merk
ion e
aussch uß
▁Ges ellschaften
w affen
▁Ver mögen
under t
▁kurz frist
▁ho ff
z onen
▁hervor ge
on ien
▁ver ehrte
▁beg rün
örder ung
▁intensi v
▁K räfte
▁gesp eichert
▁Gesprä che
▁i P
▁Zyp ern
scheid et
▁Deut schen
▁W esent
▁vor legen
▁ #
▁sol ange
▁Stimm en
▁Bild ungs
S t
den k
f inanz
▁B rie
▁Vers and
▁ex klus
▁ ordnungs
▁Fa x
sver l
▁P ack
▁fern er
och ter
▁gez wungen
en ha
ti mal
ik er
ame ter
z we
▁D ek
wer tet
▁p e
wei le
prä sent
▁fer tig
d auer
U R
amm eln
duz ierung
▁angemessen e
▁bemü hen
de d
ak ten
▁vor bei
▁Rechts staat
▁Markt es
▁S ing
▁K y
sp f
▁besch leun
▁B ack
gn or
▁Provin z
n ö
▁Politi ken
ent wurf
▁erinner t
▁13 .
▁Op tim
aust ausch
zent ren
▁k ämpfen
▁Ver pack
ar ische
riend ly
te ste
▁Am t
▁Verl ust
▁o ur
▁hö heren
ic al
sam en
nt ag
▁übrigen s
d lichen
spe zif
zept abel
▁Br enn
▁jeg liche
▁Sub sidi
▁W art
▁m u
gem einschaft
▁is rael
▁S P
▁Origin al
▁G rö
▁Gro up
wer ben
zn ei
▁Ge fahren
d ate
g s
ick s
▁et hn
g änger
hand lungen
▁8 .
▁verb ind
▁B IP
▁Bet rug
▁Subsidi arität
ati s
le an
▁aus reichen
▁Ziel en
w ald
sto ß
▁Kor ruption
▁kon f
▁verring ern
▁E AD
▁G al
▁bestehen de
▁S yn
▁Vor haben
▁w ann
▁Selbst verständlich
▁bil ater
▁Mig ration
el a
lin gen
fahr er
bür ger
▁außerorden tlich
▁S emin
ol i
▁P reisen
ach er
all el
▁Schwei zer
stra tegie
▁Untersuch ungen
▁a .
▁K abel
teil ungen
i tionen
hr en
▁kon tak
▁gegeben en
▁Soll ten
▁chines ischen
würd igkeit
p al
s ätzen
▁A s
▁Stra ß
▁At om
▁htt p
▁M at
pl emen
ktiv ität
t ä
▁Asi en
▁Dig ital
▁Wirtschaftsw achstum
▁aktu ell
▁verur teilt
▁Frühstücks b
▁einfach er
▁m oment
▁beh alten
▁Bes orgnis
▁k ümm
schaff ung
▁Ver sionen
eit ungen
we ge
▁nun mehr
▁ruh ig
▁W are
▁einheit lichen
▁Me x
ra ten
▁ver dient
▁C ha
▁interess ant
▁verb inden
ät ten
▁install ieren
▁R os
▁Med ik
▁gewähr t
▁Zwe cke
▁Ins besondere
▁B lock
▁grundsätz lich
▁s ah
▁beschäf tigen
on n
▁max im
▁bestimm en
▁Co ok
▁Soll te
▁Einkauf s
▁ne un
b ur
▁ab gesch
▁Neu e
▁organis ieren
d ik
▁d est
▁gesp ielt
ap ie
▁Wer ke
w ür
▁er setzt
▁Verb reitung
▁Mit arbeitern
▁berech tigt
ö m
hl t
ssystem e
▁vorhanden en
b and
▁W ohnung
▁wundersch ön
▁T ochter
▁höch st
▁U l
▁Ener gien
▁t rag
▁Ol ymp
▁letzt lich
▁individu elle
p ap
sp akt
le y
▁Satell iten
▁k re
▁IS O
▁vor stellen
▁zusammen arbeiten
k reis
stell ungs
▁Pl ug
▁d ein
▁Erzeug nisse
▁Man gel
▁Man ager
▁individu ellen
g ten
▁b r
ass ungen
▁erfolg reiche
▁W etter
▁Fre unden
▁gest altet
▁B ern
▁bemer ken
h äuser
züg igkeit
k ultur
▁in klusive
▁in tern
▁Bet rag
▁Zahl ung
or ten
▁Bemerk ung
▁Al p
▁entscheiden de
ati ver
▁Fuß ball
stru ktion
▁Vers icher
▁Tab ak
▁Eigent um
▁Spa ß
▁19 3
r essen
ges s
▁bek räf
▁Rechnungs hof
▁Lux em
▁lux uri
u al
▁aus sprechen
▁r elev
ör ter
▁op timal
▁ursprün glich
ben e
▁Don ner
▁ab z
▁J o
▁unver züglich
▁Ur heber
▁an alys
▁Vis ion
▁PH P
▁Vor stellung
eh nen
us ion
d igen
ri c
▁j ust
▁jen en
p rinzip
▁Investi tion
cen ter
▁ö konom
▁R enten
▁bri tische
▁pol n
▁s ub
▁G ang
an w
▁sch lägt
pp e
▁Ger icht
▁stehen den
▁beru ht
▁aus geb
▁0 3
▁199 0
O T
▁Kontro llen
▁angegeben en
ac t
▁dür fte
▁Verfahren s
▁Sch ne
beh andlung
▁t ro
▁kl aren
▁p age
▁russ ischen
▁ver wirk
▁Apart ment
▁m ü
▁F reitag
▁se par
▁m iss
▁B ord
aus e
▁innov ative
▁Kop enha
▁fehl t
▁ver dien
▁Ver lauf
▁Au ge
▁empf ohlen
▁verstär ken
▁T raum
▁Z ul
▁Städ ten
▁Fest pl
uk le
an gem
▁S atz
sor ganis
f ar
▁S ektoren
▁B ör
▁Nach richt
▁C af
▁groß züg
▁ange wand
▁einger eicht
▁wiederhol en
▁reduz ieren
f ied
▁verkauf en
ol o
▁Arbeit sk
▁k amen
yp e
▁Beruf s
▁Genehm igung
▁Frankf urt
▁O der
ic s
▁Park platz
l etter
▁S how
▁zw eit
▁Bar s
▁äuß ern
▁Ver d
▁Betrieb s
▁R ob
▁Er lebnis
id a
▁Z in
▁Zu cker
▁Autob ahn
▁wider sp
▁Bet racht
▁Er stellung
▁ergän zen
▁individu ell
▁De p
▁Schluss folgerungen
▁Kaffe e
un e
▁F inn
▁E mail
▁Mar ke
▁Schul en
zeu ger
g te
▁l ast
i or
or iz
▁st il
▁on e
▁Gegen stand
wir kt
wer ken
▁System en
ur laub
▁Res ort
▁Wohl stand
w ählen
▁erh ielt
▁Bereit stellung
▁vorber eitet
- -
▁Bus h
▁Will kommen
▁erfolg reichen
▁Ta uch
▁Kon gress
▁Zusätz lich
ä ss
▁Ein gang
inform ationen
w art
▁bestimm ter
▁Kommun ikations
▁transp aren
▁Wachstum s
▁jen er
▁AK P
uch te
▁ver mitteln
u ste
▁Män nern
▁deut sch
ruch t
▁E Z
▁Aus maß
▁Kon kur
▁Erw ä
▁gew öhn
▁Fahr t
c or
▁viel es
a ben
▁N ummer
re geln
▁In fl
h ei
▁E L
▁erheb liche
▁Vor der
▁Bel gien
▁Sozial demokra
▁v ous
▁Verbraucher schutz
▁S m
ru h
kehr t
▁14 .
i bl
sk rise
▁Liefer ung
▁sen si
▁ein ig
etz te
▁einge halten
▁Bel ast
▁Pla yer
▁Rechts grundlage
ier s
ar n
▁französ ische
▁Kons ult
i lle
m on
▁K reis
k ret
▁Gesch windigkeit
▁Ent fern
▁Über gang
▁strateg ischen
▁wundersch önen
▁anwes end
heit s
▁verantwort ungs
▁R ub
▁Ar znei
▁pro p
▁Wider stand
as zin
▁nah m
▁aus einander
▁a rab
▁tradition elle
▁Schl uß
e ffizienz
▁Vide os
geb iete
▁Anw ender
r al
▁Sp itzen
sche fs
▁empf angen
▁wettbewerb sf
▁M eister
a il
hr e
▁Über setz
alis ierten
m od
ur a
k ern
▁groß em
▁aktiv ieren
▁M ission
▁beige tragen
▁G laub
▁Med izin
▁i gnor
▁p our
▁kri tis
ie gelt
▁Pak ete
▁klein es
▁lok ale
▁B os
▁unver gess
▁A ben
▁f uer
il der
▁niedr ig
▁S icherung
äum t
▁beteil igen
▁st amm
▁einzigar tigen
▁PD F
um p
▁beob achten
▁vor rang
▁bed auer
ra u
▁Nach hal
fä llig
de ckt
▁Deut sche
ore a
l assung
p iel
▁Tel ek
wer ks
▁Bulgar ien
▁st olz
▁Besch lüsse
▁M ul
▁gek enn
▁elektron ischen
▁integr iert
▁W andel
▁Bed rohung
d ie
sst ra
▁A st
▁Un s
▁Ar b
▁verb oten
▁komm e
▁Res iden
▁an bel
am s
v ern
▁W C
▁hochwer tige
▁entscheiden der
▁lie fert
amen te
I I
▁S ä
b r
▁P ositionen
▁bis lang
zahl en
▁L iter
itu ation
▁ge arbeitet
▁er zeugt
▁Au dio
▁ausger ichtet
h ängen
▁verb indet
▁An sichten
▁bet reffend
▁Katastrop he
▁st re
▁Dar um
▁Glaub würdigkeit
▁anbel angt
▁Sch üler
▁Kroati en
▁EAD S
x i
▁Ver arbeitung
▁Al pen
▁sol ches
▁verkauf t
▁Ver n
ehr en
▁bereit gestellt
▁eff izient
t ran
▁Kontak te
▁st ud
m ung
▁k at
▁T im
▁Gewähr leistung
ehr ten
▁Staat es
k ür
▁sch icken
▁News letter
▁zuständ ig
▁gen annte
eig ern
ü bt
▁W äl
▁St amm
▁G üter
ohn ungen
or ie
▁L ok
qu es
ss icherheit
▁Di pl
▁Vi zep
is ion
sen z
▁All i
▁beant worten
ti z
▁m oral
▁S ohn
▁Qu ellen
▁su per
▁3 1
▁Distrib ution
▁9 .
äus ern
▁Über legungen
▁Kolleg in
▁Konsequen zen
▁B urg
os la
s werte
▁C lient
▁201 1
▁Mr d.
ur teilung
▁re st
ie den
▁Pass wort
w an
▁ha d
▁Minister p
▁n ör
▁K al
▁offiz iellen
▁P fer
▁Sch on
▁T enn
scheid ung
w o
ei gerung
zen ten
y d
re che
sto ßen
▁Proz esse
reg ion
▁Resp ekt
▁Prä sent
▁überprü ft
▁sozial er
eu ert
▁ho w
▁Übern achtung
▁w eist
▁Zivil gesellschaft
▁Kon ver
▁Or te
▁un i
▁Sa ison
k und
▁in mitten
▁W ählen
▁An lass
▁st ammen
▁Camp ing
▁Er m
a el
▁w ohnen
re p
▁19 2
ies sen
▁genü gend
▁3 D
▁Su iten
▁letzten dlich
▁La ut
▁ähn lich
▁Sto ffe
▁Üb rigen
▁3 7
▁Mode lle
▁person en
ei ra
▁or igin
n iveau
▁Mad rid
▁weit gehend
b ran
▁P rag
▁Besch wer
▁wiederhol t
▁Verz ö
wei len
z ir
gesch ichte
str ich
▁verteid igen
▁b reakfast
▁herr scht
▁ge pf
lie hen
▁konf ron
am in
▁aktiv e
▁Konz ern
men te
▁Ger ade
▁offen bar
▁Augen blick
sch reiben
▁mitt leren
▁b reiten
ord nungen
mit tels
▁Re volution
▁Re duzierung
▁3 3
as y
är kt
fol gung
▁Ent lastung
spro blem
▁gl ück
▁Pro p
▁R ati
tisch es
ur m
▁hin weg
▁Geh minuten
▁mus sten
▁l ag
▁J oh
▁Mit tag
▁Par ad
hält nisse
stra fe
▁Anst ieg
▁room s
▁Obj ekt
▁Schi ffe
▁in nen
▁Er füllung
▁finanz iell
▁Dok umenten
▁W all
▁all zu
▁Em ission
▁erst mals
▁Verl etzung
▁spezif ische
▁bet reiben
n ien
▁P T
▁entwick elte
▁Tex til
▁m achte
▁O S
▁or ien
▁g o
▁4 8
mar k
ati sche
▁Ger echtigkeit
▁vorzu legen
▁Prak tiken
A G
▁H T
▁erle bt
k räfte
▁V an
▁Kultur en
▁einz ur
▁Son ntag
▁I C
▁j ahr
▁Mon tag
rech ter
▁Ab w
u tern
▁an ti
l ösen
▁C om
▁bet rieben
▁glau b
▁h art
▁Up date
▁Pen sion
▁hier bei
▁ob j
agen tur
rän ke
▁hervor ra
▁ernst haft
▁optim ale
▁b ele
eh ler
▁t ritt
fri ka
wor k
▁letz ter
▁konk ret
spart ei
r ungen
sch ul
▁an schließen
▁j ur
▁Tran sa
▁Donner stag
▁erwäh nen
▁Brasil ien
▁vers ichern
▁invest ieren
▁7 5
ar ia
▁g re
▁L atein
▁Gleich stellung
▁Um satz
ei ert
▁S ammlung
weis ungen
ro lle
▁angep asst
b ring
h nung
▁Be gl
▁C re
▁Bet ten
all er
▁All tag
▁B rand
▁gelin gt
v iertel
spro z
▁Eben en
▁z us
▁j ap
and t
6 0
▁führ ende
rän kung
▁stell te
la ger
▁Ab fall
▁Den k
▁ein bezogen
ist ischer
organis ation
▁untersch eiden
U NG
▁wirtschaft licher
▁reduz iert
▁Tä tigkeiten
▁Her bst
▁S ind
▁A lex
hör t
▁Su bst
▁kontak tieren
nah m
▁Fahr zeuge
▁zukünf tigen
▁bekomm t
ekt rum
▁Gef äng
▁0 ,
zep te
▁Spe zi
▁institution ellen
▁Sant a
mitglie d
▁G rünen
▁d é
gra d
▁Plan eten
r iere
▁ein st
▁Gen ießen
▁begren zt
▁ge plan
▁Prozess es
uver än
▁W ähler
ste uropa
ti f
▁L eiden
▁Trotz dem
▁f und
▁ge stattet
▁er setzen
▁des wegen
▁Gott es
▁Hilf s
▁W ild
▁Sch ei
▁kompl iz
r ieren
▁be endet
▁P in
▁ver teilt
äh igen
äng st
▁verfüg baren
▁an sprechen
▁unterst reichen
▁einzus etzen
▁illeg alen
▁199 4
▁hervorge hoben
▁ge tragen
op f
▁Situ ationen
politi schen
▁Aus flüge
▁wh ich
ri a
▁Organ e
v an
sch riften
▁an schließend
▁Zu ver
▁Er gän
▁Best ä
▁bedeuten de
t on
än glich
▁Fre e
▁Beitritt s
st räger
▁mit teilen
▁F rist
▁größer es
ar us
▁K er
▁e d
▁Pe ter
▁be geg
ät zt
▁offen e
▁vorgesehen en
▁behaup ten
▁b lo
sp rinzip
▁Ad minist
osoph ie
k urs
▁t eile
acht eil
▁künf tige
▁wissenschaft liche
z usammen
ger ät
▁gef allen
▁Flug zeug
▁Bran che
▁D ra
▁L ist
ver l
▁Krimin alität
▁sch m
▁man che
▁her um
▁Frei zügigkeit
▁G N
at ter
▁v ollen
▁S achen
ran ten
▁3 4
u ls
ung er
▁K ab
▁Arme e
▁Über gangs
▁inte lligen
▁Abend essen
▁langfrist ige
▁Hard ware
öff nung
▁Weiter en
▁A bleh
▁C ro
▁s ign
▁K ub
▁Verein fach
▁freund lich
▁A qu
au b
▁Ex istenz
▁ab stimmen
▁Perspek tive
ab t
bet ten
bed arf
ver sion
sf onds
▁erst re
▁bisher igen
▁unter liegen
▁Bet reiber
sol id
▁Fern sehen
▁Tur n
▁poten zie
lex ibl
iz za
▁konzentr iert
▁geb rauch
▁C ommun
▁unter zeichnet
▁US B
▁gew al
▁herunter laden
ig ner
▁konfron tiert
▁Ableh nung
▁be einträch
▁Veränder ung
▁Re f
lei ste
co de
är ten
▁Wider spruch
▁D ynam
▁h eim
fer nen
▁h as
gel öst
z ungen
▁er hoben
▁kön nt
amm elt
▁umfassen d
▁vorgeschlagen e
▁S T
ell ent
▁li ber
▁L ernen
▁Ham burg
blei ben
ve c
▁Rück kehr
on y
bereich en
▁S E
▁lie ber
▁inter nen
▁M P
▁p f
uß t
▁Vor lage
▁Ä gyp
▁Di kt
▁EZ B
▁beh oben
ver y
▁Arg ument
her stellung
▁ordnungs gemäß
▁R unde
▁ger aten
ö konom
r ennt
▁Sch warz
▁Geb urt
▁Frühstücksb uffet
1 1
staat lichen
▁anzu zeigen
▁offiz iell
▁Katastrop hen
b rechen
▁dra ma
a ktionen
az itäten
▁Fil ter
▁P or
▁V e
▁Nachbar schaft
w och
äß t
drück t
wend ungen
I B
▁er gibt
▁Steuer ung
▁M iß
▁L eitung
▁Pl äne
▁Verf asser
h äfen
▁H äuser
▁personen bezogen
▁l eb
▁Met all
▁Kan ada
▁einge gangen
▁Bal kan
▁mensch liche
▁Komp lex
▁Ma in
▁militär ischen
▁un zur
an isch
▁um ge
▁At tra
▁finanz iert
▁Entsp annung
▁Chin as
▁s an
▁Lob by
▁re chten
techn ologie
▁Gesprä ch
▁L eiter
▁1 ⁄
spiel en
▁Schl acht
▁Ab schaffung
▁ind ir
▁Nachhal tigkeit
gren ze
▁Bereit schaft
atur en
▁res erv
▁umfang reiche
▁sich ere
ann ter
I R
▁m el
▁Sol ar
▁p sych
▁C H
stre ben
▁U ser
ug osla
▁zukünf tige
un ruh
sch iff
▁g rö
▁prak tische
▁geprä gt
l og
▁m ul
ach ter
▁gebe ten
▁Volk es
in iti
▁De f
▁dank bar
▁angen ehm
▁Fahr rad
▁30 .
▁sch lagen
sch läge
▁l as
▁G a
▁enthalten en
in os
▁Prof il
▁a bend
▁ausge hen
▁pl us
ut h
▁So ft
▁Reserv ierung
▁an hand
▁l äßt
▁hervorragen den
▁sogen annten
▁vorliegen de
ei tigung
anz ig
▁Fest ival
programm e
▁präsen tieren
k as
te uer
dienst leistungen
▁3 1.
▁f rag
▁Ber ichten
▁Nachbar n
▁Abhäng igkeit
h le
▁n a
▁Mein es
▁is lam
▁Erinner ung
c ial
an tien
▁Dem on
gren zung
▁aus ser
ik a
▁besonder er
▁Mär kten
▁gro sse
la ter
ed ia
▁militär ische
▁Re fer
wei tern
▁ger ichtet
▁Paten t
gar ten
▁Ol iven
9 0
▁K lei
▁Hö ch
▁perf ekte
▁d ans
▁Pe ti
lös ungen
be ziehen
sprogramm e
▁B all
▁Binnenmarkt es
▁Himm el
▁F rü
▁l ö
ICH T
▁f antast
▁R uf
▁dar gestellt
mitglie der
▁ange künd
▁Regierung schefs
sprozess es
al itäten
▁fest zulegen
▁Fa ktor
▁Menschenrecht s
▁Befug nisse
▁Lehr er
besch reibung
▁vereinbar t
▁Be arbeitung
rin k
▁et abl
▁w on
ight s
▁in folge
▁C ast
▁c l
▁hin gegen
▁Voraus schau
▁Mich ael
▁s i
re ktur
alen der
glie der
▁Volks gesundheit
▁Finanz ierungs
S cript
▁Kir chen
ler nen
▁Hei zung
▁jetz igen
au ben
▁langfrist ig
▁Sp ann
o ff
▁erf reut
an ischer
▁zusammen ge
▁W eil
▁L os
äm pft
▁ähn liche
▁Lin ien
▁ben ach
▁verdien en
▁sch äd
▁gewünsch ten
▁s m
▁Ma schine
▁Grund lagen
▁ge plant
▁eig net
▁f lexibl
▁günst ig
▁St att
äh ige
gr unde
í a
an spruch
▁gemeinschaft lichen
I ON
▁zie ht
▁Pass ag
▁Beteil igten
▁F ab
▁nach drücklich
uß ert
▁W är
▁Ser bien
▁natür liche
▁F öder
enn e
▁unabhäng igen
▁Stre et
ra ts
▁kn app
▁C ard
▁Ho f
▁Flücht linge
▁Ein tritt
▁Registr ierung
äd chen
▁Ander e
eich er
rä glich
▁Wochen ende
▁gewähr en
▁hoh em
▁strateg ische
▁norm alen
▁d ist
▁k ünstler
au schen
▁Par ameter
▁c lean
▁Ver teilung
▁Sie d
▁Bild schirm
▁N ik
üs s
▁re ch
▁normal erweise
s eiten
ör p
▁re c
▁staat liche
fiz it
i llen
▁S D
▁Be für
▁C op
▁Anw esen
▁beh inder
▁kompl ette
▁Alli anz
▁ п
▁E uch
▁Konz ert
▁kontroll ieren
▁leich ter
▁G ri
▁Ä ußer
▁n ütz
▁sp eichern
▁Innen stadt
▁zu grunde
▁Tenn is
▁be ur
▁Mod ul
S P
qu ent
▁Bibliothe k
▁Arb eiter
▁un g
▁ver sp
▁Bar roso
▁bed anken
jahr es
gef unden
▁sicht bar
▁port ug
f leisch
▁en ger
▁9 8
▁E st
▁G aler
▁Ge werk
▁Sp eisen
▁D än
ut age
reich er
▁sp ort
▁Zahl ungen
h el
gr essi
▁Poten zial
tifiz ierung
utz utage
ühr t
▁beg renz
▁3 8
▁über aus
ü cher
▁n ord
▁erst kl
▁korre kt
ti al
▁Gemeinsam e
z wei
▁b us
▁wirtschaft lich
d y
▁Al kohol
▁Dar stellung
▁Ver zeichnis
▁besch ränken
▁nieder länd
▁P aul
üt zlich
äch er
▁bedeuten d
▁Urs achen
▁hoff entlich
scha uen
e f
g ner
▁sch einen
▁Sch reiben
▁Fr anzös
▁Re chten
end ung
wer fen
du le
▁exist iert
▁In dividu
▁Kredit karte
▁f ein
▁Gener ationen
▁einheit liche
▁stand ard
▁T u
▁Agentur en
▁festge legten
▁Vertra ges
▁un gar
▁ex tra
e ff
▁unabhäng ige
▁Muse en
▁Joh ann
g eschäft
▁ex ternen
▁Wiederauf bau
frik anischen
▁Fahr er
k el
▁f ördert
▁V ari
▁Verhand lungs
sen den
▁T ausende
be weg
▁Gef angen
▁A R
▁Sti ftung
opp elt
▁recht liche
▁L am
▁unter sucht
▁recht zeitig
▁kor rig
▁Wei hn
▁komfort able
▁unzur eich
an aly
it ar
sbe k
▁Alb um
▁humanit äre
▁er weitern
ungs system
▁A v
alis ierte
▁Spiel en
▁P ic
▁portug ies
▁in cl
▁Konflik te
as k
▁R E
▁auf gebaut
gest altung
▁ •
mitt lung
h i
▁st ay
rieden heit
▁um setzen
▁genau e
▁Aus blick
▁m ak
▁hier für
7 0
▁Öff nung
▁sich eren
▁Das s
▁wirksam e
▁n ützlich
▁s in
▁S ob
än omen
iet ung
▁gen ie
ym bol
d is
▁Zeit ung
ett o
▁zurück zuführen
▁ant worten
. .
sam e
▁Bei de
pro zess
▁Bürger beauftrag
▁qualit ativ
ll a
▁Bür okra
vorsch läge
un n
▁gering er
▁w ünsche
j et
▁zu gelassen
▁Über blick
▁Ph ot
▁lauf enden
▁Rechtsstaat lichkeit
▁K ategorien
▁Schn ell
spoliti schen
an ter
sch i
ck ung
▁f roh
p ol
ü mer
▁D ritte
▁Wür de
▁hei ßen
▁beg leitet
▁Ass ozi
▁sp ät
▁gen ehm
▁vor nehmen
metho den
▁Vereinfach ung
▁K la
▁ange wendet
▁Kat alog
ück en
▁Techn olog
▁Groß teil
ö ch
▁Bevölker ungs
▁gro ssen
▁won ach
W F
▁K reuz
ur y
▁f ach
▁Rei hen
▁h andel
▁Ab s
▁Qu elle
instr ument
▁Is lam
▁Z ut
▁C am
▁Entwick ler
▁stattf indet
▁klass ischen
▁Ha ben
▁Internation ale
▁I M
▁mehr fach
▁r ufen
yp en
ip s
▁Arch iv
▁Stär ke
. -
▁Ho use
▁201 3
▁4 2
▁Fl ash
▁Qu ali
▁ben utz
▁Straß burg
z ähl
▁er fordern
▁Aus einander
ün ften
▁Hand lungs
fferen z
i ste
▁A cc
iter ran
▁geä ußert
▁Gel der
▁unent gel
▁einzuf ühren
▁schn ellen
▁Z ür
▁Deb atten
▁wahr en
▁Kopenha gen
j unkt
▁ent täu
▁Test s
n am
in stitu
▁ver änder
▁Auf sichts
▁p ost
▁modi fied
ern t
▁ges undheit
i os
u ck
ä le
▁par a
▁Den ken
▁un a
▁Fot ograf
▁Berlin er
▁S omit
▁über sch
▁entde ckt
f o
op ol
▁Haupt bahnhof
▁Fr anz
▁T ruppen
b aus
tig ungen
.2 00
▁Luxem burg
▁a bleh
▁Qu ad
▁Sch aus
ad or
▁Aut os
▁Män gel
▁S ar
iten t
▁sch war
▁einge stellt
▁türk ischen
▁T sch
▁Park plätze
▁angeb racht
▁Stre cke
▁kein em
▁mittler weile
▁Z one
ret ung
son sten
▁Niederlan den
▁Mar ia
zahl ungen
▁an halten
▁Bü cher
l esen
▁Ver sorgung
▁Slow ak
▁bew ältigen
▁schl imm
▁rom an
▁lie ß
ff er
▁Be stimmung
▁Pal ästinen
ger echt
▁ne w
▁Eng land
▁Er haltung
▁sicher gestellt
▁25 0
▁Z erst
▁Welt krieg
▁gest ärkt
▁Ro y
▁Palästinen ser
▁sel ber
▁f aszin
▁Ferienw ohnung
▁C al
▁Arbeit geber
▁Energie effizienz
▁Mer c
z ten
▁S amm
▁I mmer
le ute
▁At lan
▁gesetz lichen
▁hinzu ge
t rieben
▁A B
▁digit alen
▁s im
▁b auen
sp räsidenten
▁Berichterstatter s
a fe
▁schwer en
▁Elekt ro
▁be stellen
▁bes orgt
▁komp eten
änder ungen
▁Fl oren
▁zerst ört
▁gef ragt
▁a vec
▁S eg
▁Finanz krise
▁m äch
▁über lassen
▁25 .
et o
▁sel ben
S L
sch nit
imm ing
zeich nungen
▁Mart in
freund liche
с т
zus ehen
ber gen
▁geeig nete
▁ergän zt
▁Dipl om
ür zt
ank e
▁Sch lag
os si
t or
▁Bel arus
▁T onnen
schie ben
ov ern
▁Z auber
d liche
▁frü hen
m ale
▁O s
▁fra ge
▁vir t
▁W in
▁l eiten
▁Var ian
▁herr lichen
▁unmittel barer
▁Team s
▁Ar men
ul in
▁di pl
▁überw inden
wirt schaften
▁Ander erseits
▁R oll
▁L änge
▁es sen
▁hier zu
▁Par ti
ei ger
▁Ver gn
ian o
res sion
eschä d
▁b lock
geb ieten
▁8 00
b eu
▁v ia
ri p
▁Wirtschaft skrise
▁My S
▁ha st
führ ungs
▁0 4
▁diesbe züglich
▁Parlam ente
▁B ö
ha fter
ä chte
▁m aler
olog isch
▁spezi alisiert
▁res ul
▁B M
t eils
▁b it
▁S ur
verb rauch
▁ ten
uch s
▁ver weisen
zus p
▁G ent
▁Wer be
▁Invest oren
ge d
ubl ic
▁Cor por
u z
▁Bran chen
▁integr ierten
▁Benutz ung
▁griech ischen
▁T om
▁Wesent lichen
such e
▁Telek ommun
▁w eb
wär ts
▁anzu bieten
as i
▁D ingen
ro und
se kret
bar es
▁gegenwär tige
▁Ober fläche
▁Währungs union
▁i l
a frika
u ti
org ungs
▁L ohn
▁Bew usstsein
▁Bes eitigung
▁Kompl ett
▁Su ite
▁zu lassen
▁sp reche
rei ter
ink el
▁kon se
▁kl ima
O P
▁Med ia
▁h ol
▁wir ken
▁L esen
▁Train ing
▁gleicher maßen
ar ma
▁bes ucht
▁länd liche
▁max imal
er as
em ark
▁auf fordern
▁be enden
▁ung laub
ver trag
▁Über tragung
▁Pak istan
▁Geb ühren
▁Jahrzeh nten
wor ben
▁H all
ige m
hr ase
▁I D
ik ationen
▁H at
▁Kon zer
▁Konz ent
▁ reisen
▁gra mm
▁unentgel tlich
▁Ber ge
▁v ari
bild ungs
▁Ereig nis
ver anst
▁v ot
▁199 2
▁Projekt s
▁Jugend lichen
e z
è s
▁er richtet
d rücken
▁stamm t
▁Verhand lung
▁Prof ession
w n
▁Ter ritor
▁Sam stag
▁Schaus piel
▁Mechan ismen
▁Untern ehmer
▁K ühl
▁sch ätzen
▁Min ute
reib ungen
u el
▁A 5
▁Pf lege
deck ung
▁Mand at
ir d
▁er sta
▁St r
▁hin ein
id es
▁6 00
▁Eff ekt
kl ar
▁derzei tige
b anken
ov e
▁le bt
. D
▁K ampagne
▁Aus gleich
▁Amerik aner
en a
▁Re vision
lossen heit
▁Außen minister
▁enor me
▁unter suchen
o de
ah me
▁Euro zone
▁Prä senz
▁th em
▁L it
▁gekenn zeichnet
▁ex c
▁beru hen
▁Todes strafe
junkt ur
ein igung
▁P PE
or ge
▁Früh jahr
wirk lichung
▁Bedürf nissen
▁F uss
▁c m
z um
▁event uell
▁Höch st
▁auf s
in stitution
▁beg eist
▁Urlaub s
▁ausgew ählt
b at
▁Benutz ern
▁stärk ere
kam pf
▁Journal isten
▁1 000
▁Dre h
▁Schen gen
▁Sie g
▁t here
▁Sicherheit spolitik
aktiv itäten
▁ermu tigen
▁D ör
▁K äufer
▁man geln
▁Apparte ments
▁C at
rat es
▁II I
laus el
t her
sta ats
val u
▁er zeugen
▁Beg rün
▁Air port
▁vor gestellt
▁Hand y
▁J ob
▁Ho he
▁19 0
▁b lau
ha lle
▁Vertre tern
p re
▁den jenigen
▁p a
▁Inter vention
▁Dat um
▁Dialog s
▁Spezial itäten
i ón
▁Be vor
▁bein halten
▁Ven edig
▁Drit tel
▁neg ativen
▁un nö
st äd
▁Ber ech
an forderungen
▁Ab lauf
▁K as
▁Brie f
▁M ädchen
▁M os
hol t
▁Rati fizierung
▁Flä che
▁eigen er
▁prak tischen
▁verk nü
▁A C
verw altung
▁M aus
▁re aler
▁And re
▁t a
▁Dokument ation
▁Zuver lässigkeit
▁Be achtung
ne y
▁V ier
▁st er
▁je glich
▁mü ß
oriz ont
T P
▁be deut
▁best and
▁g u
▁An gel
▁ged acht
▁Modern isierung
▁Ber eits
iti ert
▁bew ähr
▁Mex iko
ro s
▁Sch alt
bl ig
▁bef asst
▁Ur teil
▁kontroll iert
▁An hör
▁st euer
▁entscheiden den
b eln
▁Aut on
▁Umwelt fragen
▁ver trauen
▁An meldung
▁Vers ammlung
▁typ ischen
▁Sob ald
▁bedeuten den
ot ten
▁Vizep räsident
ge stellten
▁Produ ktivität
▁fest zustellen
▁verl etzt
handel n
ag d
▁in ak
▁Bet reuung
ie ß
▁E he
▁Wohn zimmer
▁kümm ern
▁an zunehmen
▁Sch icks
▁mö gen
▁ra dik
▁Nach mittag
▁Hin weise
▁offiz ielle
b rech
▁gew id
eld et
▁Intern etz
▁p or
is ation
ik al
▁produz ieren
▁m od
sw esen
▁reich hal
▁A 3
▁t ö
ö hnen
▁Bes uchen
c u
▁H under
IN G
n i
▁An reise
▁c omfort
▁So uverän
▁Hindern isse
▁Ein fl
i alen
▁ir ischen
▁sen ken
▁h alb
▁G AP
reg ionen
▁24 .
▁Wissenschaft ler
▁Elekt ron
ei ern
▁J ose
▁Aus bau
▁renov iert
▁Ergebnis sen
T A
fik ation
▁berech net
▁müs ste
gra ben
läuf ig
a lle
▁i mm
▁M itent
▁V ia
▁Vor rang
▁Liefer anten
▁J ack
ch ron
▁Mechan ismus
. org
▁O bst
▁US S
▁wieder her
regel ung
▁angemessen en
▁b rachte
▁angewand t
▁Entfern ung
▁- -
▁Ver wirklichung
form ance
▁Zeit plan
▁Ro ck
▁bezahl t
▁gere gelt
n amen
▁I ll
▁Sen kung
▁Auf zug
▁r ichtet
▁Wirk samkeit
stehen de
▁Java Script
▁n atur
▁P ress
▁gro ss
▁integr ierte
▁G az
gel d
▁12 0
▁Pol y
▁aktiv en
▁wechsel n
▁A ra
▁Kohäsion spolitik
▁dipl omati
an y
▁Finn land
▁gew iss
et h
▁be we
▁be unruh
▁so eben
▁versch är
▁z eig
id o
▁Ex trem
gehen de
▁f rem
ann er
▁Res ult
▁K öl
at lan
▁wesent licher
tis ierung
▁ö st
▁B or
▁Reg ulierung
p aket
geb nis
▁äl teren
▁illeg ale
icht ung
▁An sprüche
▁Gre en
ir l
▁J er
▁0 7
mär kten
▁ein stimm
▁Betrieb ssystem
▁ ärm
rü ne
vers ammlung
▁jeden falls
▁St rände
▁Inter ess
▁erklär te
n or
gen z
▁An zei
▁An nehm
mer z
▁politisch es
▁Internetz ug
▁F ang
▁Be ach
▁gew isser
▁anzu wenden
st he
▁w eisen
▁M as
▁effizien te
▁ в
▁um zu
SC H
▁M em
▁R äume
▁Ma ster
▁Refer end
▁T ha
▁da uert
▁e gal
▁5 5
k al
▁Res ol
s um
▁st reng
▁Er richtung
▁ausge geben
▁Aufenthalt s
▁Auss age
▁Premier minister
▁M all
▁Re par
▁st elle
▁ver ank
▁gefähr det
k la
ar io
▁schle chte
▁k op
ô tel
beh alt
▁Sa int
▁humanit ären
k ö
▁f reut
▁An h
▁effek tive
▁s c
▁aus üben
▁müs sten
▁Staats -
▁bed au
▁schwer wie
▁app ell
▁wir kt
▁Ein en
ekt ak
o f
▁Gemein schaften
▁Vor stellungen
▁3 9
▁Bet riebe
▁beeinfl ussen
sch ulen
▁T reib
▁fest legen
D R
sch ritt
▁W ett
om as
▁beh err
▁Kon struktion
▁Empf änger
▁Innov ationen
le ger
w iesen
▁K och
▁F inde
▁ver ste
▁europä isches
▁23 .
ä cht
▁Luft fahrt
▁hervorra gend
▁Außen -
▁schwier ige
▁S at
▁P op
▁199 3
▁eleg ante
▁2 ,
▁bel g
▁Rech ner
stechn ik
gä ste
eu g
▁ex zellen
▁hel pf
üt ung
▁Bon us
▁Nav ig
ar ier
ir men
▁wirk liche
▁zeich net
mittels icherheit
▁D ring
stell ern
▁Rat schlag
▁Kl im
▁wachsen den
ut es
▁Aut omati
pf el
▁palästinens ischen
▁R ab
▁J ung
eil er
▁abge geben
▁Weiter entwicklung
▁Jed och
den kt
▁0 8
üh len
▁Zugang s
▁22 .
izi te
um in
▁Doppel zimmer
▁niedr iger
▁Kern el
▁N ICHT
ät te
▁zwei tens
sorganis ation
▁M uster
▁F ünf
▁an sehen
▁L oc
▁vor zunehmen
1 5
▁K ä
▁Z y
ü hen
▁Aus arbeitung
her r
▁Flug häfen
▁Ph änomen
▁d re
▁d ringen
▁P ut
▁serv ice
▁italien ische
▁Cook ies
▁m ater
▁oft mals
▁langfrist igen
be cken
▁kon zip
▁0 9
▁Krieg s
▁an geschlossen
▁ha us
ast er
entr al
bet racht
▁Phil osophie
▁be zeichnen
▁Fer tig
f re
el y
▁Tra ditionen
▁Je an
é es
▁angen ehmen
▁Che ck
▁Wissen s
▁Bil dern
▁Vermitt lungs
▁R O
▁Wär me
▁Er fordern
▁ger ech
▁Tick et
▁D ubl
▁ent fernen
▁Wirtschaft spolitik
▁1⁄ 4
▁profession elle
▁Publik um
▁k ennt
ks hop
▁Re chen
▁beh ält
b i
r ische
on ie
▁st eigern
▁Lo unge
▁B rem
▁in spir
▁erhö h
▁k lin
il eg
▁Pro zeß
st ab
öl f
emen ten
▁s ammeln
▁S O
▁H il
▁N izza
aus gaben
är er
ap ital
▁Wer den
▁erw iesen
▁Floren z
▁Souverän ität
f tet
ut ung
mö gliche
gen ie
▁Auf lösung
▁d ur
▁E cht
▁B ol
al em
▁T ieren
▁erk annt
b ieren
ü bung
▁sch wei
arbeit ungs
ie geln
▁C S
▁Be ste
iz ieren
▁Arbeit nehmern
▁9 5
▁J es
ör ungen
▁view s
▁m er
▁Eng ine
ig a
▁bei zut
▁gew ählten
V P
▁verst eht
▁Ägyp ten
▁Sek unden
ã o
▁Z eich
▁Sp itze
▁überw achen
quen z
▁zw eck
▁Unter künfte
gem ein
▁beabs ichtigt
▁Or ten
p le
v ar
▁ent halt
▁tä glichen
▁Wohn ungen
▁So w
▁Fremden verkehr
▁er teilt
gen tin
▁an wenden
▁Besch luß
▁E tik
▁g rünen
▁vorge legten
▁Rahmen programm
▁moment an
▁N orm
▁et h
eid ung
▁La den
▁EC U
▁Ho ll
▁R ich
ite d
▁Konkur renz
h am
ir ma
▁Ö k
▁Trans fer
▁Annehm lichkeiten
▁st ri
▁leg isla
▁Vorder grund
▁K ein
▁J ac
▁Mon te
▁6 5
ungsf ähigkeit
▁Obj ekte
▁kontext uellen
2 4
▁B ier
ün den
kl asse
▁0 6
▁ ́
▁Er zeuger
▁Fil me
▁vollständ igen
▁entdeck st
a is
an dern
▁zu ges
▁f riendly
▁gen iessen
ger ech
▁r öm
▁Entwicklungs hilfe
▁Investi tions
angeb ote
▁a bl
▁M eg
▁der er
▁M eilen
▁Tre k
▁List ings
ein igt
▁ber eitet
▁r é
▁lin ken
▁L ou
▁Vorsitzen den
sch es
ber ichterstat
▁be werten
ant es
▁9 9
▁W and
▁um gehen
▁ent stand
▁Wer ten
fä ll
▁Veranst altungs
▁D anach
▁Empf ang
bo den
reg ierung
▁in halt
um b
▁t schech
▁Air bus
k ul
▁K art
▁Arg umente
▁kontext uell
p hrase
▁geb lieben
▁hinzuf ugen
▁gramm atisch
ur ity
▁l äd
▁Zür ich
tifiz ieren
▁Apparte ment
y le
▁Dän emark
▁Internetzug ang
▁re staurant
▁Steuer zahl
▁Z war
spro du
▁eingeb racht
1 9
▁h eil
▁e ur
▁kosten lose
▁h undert
▁T enden
▁Z un
▁be arbeiten
▁9 7
▁R ichter
schaft s
▁Über sicht
▁multi later
▁Schlussel wort
▁Schlussel phrase
▁ehemal ige
▁gre at
▁ein sei
sver fahren
bo x
. S
▁R am
▁aufge zahlt
▁Kap azität
▁16 0
▁besei tigen
▁4 3
▁pl öt
▁Aust r
▁süd lichen
j o
▁M osk
▁Sektor s
s ur
▁D iv
▁on ly
▁Ris ik
▁char akter
er er
▁a ir
il s
▁welt weite
▁gefähr lich
▁d rän
▁un ber
▁Beh and
▁Ge gner
▁gewid met
▁B ä
▁F ront
▁Über nahme
▁einge leitet
rän den
▁schließ t
p ass
un dern
at ch
völker ung
▁Ein er
▁beant wortet
▁finanz ieren
▁H istor
▁gemeinsam es
▁Sol daten
ohn ern
▁Bestä tigung
▁G ibt
▁vor n
weit ung
dat es
▁Austr alien
▁n ice
▁R ennen
▁verst ehe
▁verwende ten
instr umente
u be
▁ben achteil
uch er
▁Ma z
▁verring ert
▁gegebenen falls
▁M S
▁Be zeichnung
ess or
▁Spazier gang
▁Ehr e
▁Nor mal
▁Kre ativ
ti ere
▁f ree
od es
▁West ern
▁sch reck
▁te m
an i
it o
for d
ge fühl
▁N ehmen
▁man chen
gesetz ten
▁An betracht
▁Feh l
▁Kön nen
▁W under
▁exist ieren
▁Wa sch
zu bringen
▁näch ster
▁F assung
ma te
▁her z
▁Ein fuhr
▁aktiv iert
▁R ett
▁4 4
▁gel esen
▁veröffent lichen
▁landwirtschaft lichen
person en
kat astrop
▁hinzuge fügt
▁Pro di
▁Eigent ums
▁hochwer tigen
▁Niederlan de
f inden
▁Ver ab
au te
inder ung
▁Rein igung
▁Kon vention
▁Um struktur
▁Da vid
▁en ge
▁verb reitet
▁reag iert
▁digit ale
▁auf bauen
ugosla w
▁Dring lichkeit
dat um
▁hilf reich
▁Erwachsen e
bur ger
▁läd t
▁ver anst
▁keines wegs
▁bür ger
▁G rem
▁Ka iser
▁irgendw el
▁Emission s
▁a ust
▁defin ieren
bran che
gleich heit
▁So wohl
▁aufzu bauen
z immern
▁sch ritt
▁Akte ure
a be
j or
▁ver wei
▁schwer e
▁Verf assungs
▁Verbrauch ern
▁Konzent ration
▁Sk ype
a ßt
sch öpf
al on
▁da uern
be griffen
▁Bla ck
fik ationen
ö ss
em pf
▁C E
iels ei
▁besonder es
▁statt gefunden
▁verpflich ten
▁ruh ige
gl ück
f unk
▁V ill
▁erk unden
b s
isch t
▁Ar m
frei e
▁Kap it
▁Ky oto
▁o u
▁di ver
▁profession ellen
h ard
sph ase
▁S tern
ah e
▁Aus weitung
▁gen e
▁innov ativen
▁Tool s
st ritten
▁M iet
▁e uropa
▁ti me
▁W esen
▁o ver
ei ge
st rö
▁ständ igen
g äng
▁er worben
▁her zustellen
▁c ity
▁Mont age
▁s itzen
▁W en
▁Demokra ten
▁Univers itäten
▁fe sten
ktion s
▁ein s
▁an erkennen
qu ip
▁erhe ben
▁erf reu
▁E W
▁Ein fach
antwort ung
▁Rom an
▁gener ell
▁ök ologischen
t ung
▁f assen
▁c ar
fer tigen
ü g
▁m ore
ur ce
et tet
▁Sp ar
gesch windigkeit
ia z
▁Krie ges
▁w oh
▁Gew ässer
▁a tember
▁H uman
▁Pla za
j i
st ern
▁I WF
▁helpf ul
▁Kompeten zen
▁Kenn zeichnung
U M
▁w ork
▁her bei
wahl en
▁Asp ekten
▁Anmerk ungen
▁ableh nen
▁Anzei ge
▁zu stande
▁l anger
▁Er reichung
▁Ein es
▁Aus richtung
▁S ternen
▁O rien
▁Alter s
m ess
▁Er halt
▁L ay
▁ch rist
wär tige
▁Aus rüstung
lässi gen
ur n
▁T anz
▁ter ritor
▁Entsch lossenheit
▁Verein igte
▁9 6
opp ing
c le
▁Reg ul
würd ig
▁dest o
▁Volk spartei
▁n utzt
▁R uß
druck s
▁Nichtraucher zimmer
▁T ief
▁Beam ten
▁In kraft
la d
kt op
l ö
▁ge statten
om et
por tieren
▁Mass age
C D
▁W il
▁Unter richt
▁genau er
▁Im age
▁Des igner
▁ge liefert
eh le
▁Leg itim
rep ublik
as ste
▁Komment are
▁schwed ischen
im um
▁befür worten
▁E P
▁st ill
▁Er folge
pla y
▁dah in
ber n
fü llt
▁Kl assen
▁ orden
▁ber ichtet
▁Gefäng nis
▁w ell
▁sch auen
▁konse quent
b em
ein heit
▁F ans
io us
skon trolle
▁F rie
▁gemüt liche
k i
▁a si
▁Kor rektur
ge laden
hr t
▁Wor kshop
▁Slowak ei
sp rechend
äu den
ektiv ität
▁grenzüberschreiten den
w in
▁aus wählen
▁uneingesch ränkt
b ind
▁k olle
▁ad minist
▁W eine
▁Ins gesamt
▁MyS QL
sekret är
é n
▁o blig
▁L ad
ov a
▁Log istik
▁berühm te
▁GN U
h lung
▁un zähl
▁Ab bau
kauf t
co unt
is ierten
il i
mus e
▁Rot ary
te x
▁in n
▁Re k
▁- S
▁ent f
▁G overn
▁Bes atz
wor te
▁gesellschaft lichen
▁Bürokra tie
▁E R
▁Am b
▁Ha ar
sektor s
▁s itu
▁Be stell
▁sp annen
▁erst es
ges p
▁Dynam ik
▁er werben
▁Schw ä
▁Pla y
▁mittel alter
▁B ug
▁H ändler
ien ce
▁bei behalten
▁Kommission spräsident
olog ischer
▁bevor zu
▁effizien ter
▁S V
form ular
▁bew ahren
▁St abil
res erv
▁Gar antien
as ien
gt on
▁Mar ok
verb indung
▁Fund ament
▁wid men
▁s ucht
▁G elt
▁c u
▁ §
▁Se ele
▁kosten losen
▁Verteid igungs
▁neg ative
▁k örper
▁Qu oten
▁Bek annt
▁verur teilen
▁un ab
▁ein laden
▁Fe atur
g u
y e
▁W urz
ol f
▁Br un
▁schrift liche
▁begl eiten
▁Sw imming
▁zwei ter
erv ice
▁umfassen der
▁Get ränke
▁Klar heit
▁vor über
▁hoh es
de hn
▁Beh örde
lo ser
b ab
▁W ünschen
▁Bet roffen
▁Prä vention
▁Ursp r
be stimmungen
▁Mod us
▁Exp ress
▁K lo
▁Re ferenz
▁sp aren
▁elektron ische
▁N L
▁ber eiten
lä uft
▁Gemein den
hö rige
▁R enn
▁So zi
voll er
▁ge gangen
ay s
▁Deutschland s
▁Bab y
▁v o
▁B rücke
▁Durch setzung
▁Zwei ten
▁ausländ ischen
▁d än
▁S au
▁er lassen
▁auf recht
▁Statist iken
▁g rei
▁Nutz ungs
▁198 9
▁Se x
▁H ong
▁An f
▁sp anische
▁Z ahn
▁Co ck
▁Fel der
▁E th
▁H ände
▁In genie
ystem e
▁Glob al
▁d omin
ti ment
▁A ward
▁H äfen
▁Be stellungen
▁Bo x
▁bed roht
▁Grün buch
▁famil i
▁R iv
▁er teilen
▁Über leben
▁aktu alisiert
▁klein ere
si ve
▁enor men
▁maß geb
▁Festpl atte
▁F ass
▁l eid
▁Ti pp
lich te
▁Kl assi
▁stra f
▁effek tiver
▁ar men
▁unterschied licher
▁Latein amerika
üst et
b ack
▁er arbeitet
qu elle
▁Serv ic
▁kurz er
in st
▁A ch
▁st ation
rank ungen
reib ungs
▁um gehend
ampag nen
▁Unter haltung
▁med iterran
▁A ssi
▁4 9
▁te uer
▁9 00
▁L im
zug reifen
▁Urs ache
6 4
▁dem on
lä sst
▁typ isch
▁un w
az z
2 5
r ent
ir n
▁W ä
▁vert ritt
▁S äu
ap pen
▁reg ul
umm ern
▁Mitt woch
▁ver eint
▁Funktion ieren
ti ro
▁sol ch
▁Fort setzung
▁Wichtig keit
ie ts
▁Kon junktur
▁K enntnisse
ograph ie
▁Nach druck
▁umfang reich
▁M alt
▁st äd
▁Er werb
▁Pl ätze
▁chines ische
▁ver mittelt
iel d
ce ption
▁Bl u
▁Miss brauch
▁Er schein
▁en er
änger ung
▁Auss agen
▁Ferienw ohnungen
▁erstkl assi
▁R eicht
▁verurs achen
▁F utter
▁R ent
geb äude
m äh
ab sch
l im
st unde
sk a
▁Lebens mittelsicherheit
▁Schicks al
▁be weisen
äl tigung
▁wirk lichen
▁erk ennt
▁29 .
▁freund liche
un en
▁N E
ag ra
▁199 1
▁Dienstleist ung
sverl etzungen
nor men
ch ester
▁T ie
geb nisse
è re
liefer ung
▁A 4
auber n
н о
ei ste
rän kte
▁fal sche
▁Mensch heit
ek ter
▁kombin iert
▁anzu passen
▁Bud get
▁Minder heit
U T
ter rasse
ger ichts
war en
▁Problem atik
▁Netz e
▁umfang reichen
ö gern
▁I l
▁H om
▁Sp iegel
▁einge tragen
▁b at
▁ver sehen
ständ igen
tro l
▁respek tieren
o be
▁S et
▁K ünst
äuf e
▁F u
▁T aten
▁In halten
▁Ab teilung
▁behaup tet
▁Kür ze
▁Arznei mittel
C C
el ben
▁überra scht
▁p ra
verständ nis
ü se
▁ \
er te
▁aus wirken
▁inner e
▁Aben teuer
k ir
▁ein heim
▁ge ehrte
▁Die sen
st ätigkeit
▁unterb rochen
rit er
▁Er öffnung
ud es
▁Grö ßen
f ein
▁ver geben
▁Vor red
▁Zimmer beschreibung
gehen den
▁Mittelmeer raum
▁Vorgehen sweise
▁c lose
▁Weiter hin
▁get rennt
▁Pal ette
▁Wahr ung
▁26 .
▁in terne
▁p opul
produ kten
▁Einzel heiten
der s
se bene
2 00
or ca
▁L ag
▁gra v
sch rank
el en
▁vor sch
▁nation al
fer tigung
▁Werk zeuge
▁günst igen
▁l enken
▁Protokoll s
oler anz
▁V ul
▁vor liegt
▁Fe ed
▁Dam pf
▁Inkraft treten
ie hlt
▁E dition
fahr zeuge
▁0 5
zuf ügen
▁per man
▁Sa fe
▁ein her
▁M B
scha fter
ver tre
wander ung
▁L E
▁ger ingen
▁6 4
c s
▁Ge fü
bring ung
gen öss
▁M ischung
▁Gesch enk
▁techn isch
▁gemüt lichen
g ier
▁K eine
▁Offen heit
▁Infl ation
▁P uert
▁c entre
▁Vis a
▁Auton omie
f le
▁ausgestat tete
▁füh l
▁Ziels etzungen
▁komp ati
▁Ed el
▁Oper ation
i ale
▁P ir
▁öffent licher
▁grund le
▁eleg anten
▁F ri
▁Altern ativen
g ast
▁Zur ück
▁Dir ect
▁endgül tige
1 4
▁P S
▁L ate
▁L ärm
▁Er arbeitung
▁erleich tert
ichtig keit
m äch
▁bei der
sproz esse
▁N ichts
z iger
sk o
▁günst ige
▁behinder ten
o ver
▁A ff
▁U fer
▁Off ice
▁plan en
v es
▁zw ölf
н а
▁gel ang
▁Georg ien
▁Chancen gleichheit
möglich keit
u tive
il de
▁Ar zt
▁re alisiert
▁Ro om
politi sche
n ers
▁der selben
▁2. 0
▁Gipf elt
▁institution elle
p ret
▁g eschäft
▁Ver sprechen
▁Auf hebung
▁Bet rifft
▁Zer tifik
▁Trag ö
▁begeg nen
▁im p
▁über mitteln
▁sp äte
▁fort setzen
▁Entsch äd
▁Hostels club
▁tatsäch lichen
▁angekünd igt
▁des ign
beh ör
▁Pil ot
it zung
▁N RO
▁da vor
▁28 .
wä sche
▁B SE
▁nachhal tig
▁ ‘
▁empf ängt
▁wunderschön e
▁Terror isten
plan ung
▁Bos nien
▁kön ne
▁ ¶
▁s ho
▁be zogen
▁gest artet
▁Verst är
▁Liber alen
▁flexib el
▁bewe gt
▁st atist
▁Vis um
Г ј
▁der art
▁erforder liche
▁verab schieden
land schaft
sb ür
▁Geb ir
k unden
m as
qu ote
▁vors ieht
▁zu kommen
frei en
▁angenommen en
▁parlament arischen
▁ab sch
▁H änden
▁Inter view
▁Aus nahmen
▁f il
▁Ein nahmen
▁Mag az
▁zuge stimmt
▁F an
▁kon figur
▁Gesch lechter
▁sogen annte
▁Ministerp räsident
▁ber ichten
di os
prä sen
z ession
▁ab gesehen
▁Schw ellen
▁An k
wer be
▁Men gen
▁Frei handels
▁Di agn
▁w alk
lin es
▁Ro bert
▁Dir ektor
▁G ute
ver arbeitung
▁Vor stand
▁ab out
▁verm ut
▁Buch sta
▁chem ische
▁Gipfelt reffen
▁Welt handel
▁ersten s
▁bew ußt
▁Treib haus
ick e
▁Besch ränkungen
j u
▁lie ben
▁administ ra
c ar
▁An sch
▁Zerst örung
▁Kl ang
▁verz ichten
y th
▁b u
▁N I
▁St orn
d ok
▁H D
▁St eigerung
▁Liter atur
ub le
▁Mo un
▁herr schen
▁diesbe zü
k üste
ian ischen
▁Ro llen
▁er arbeiten
▁so for
ant s
▁erwäh nten
▁dam al
f assen
st rand
▁oblig ator
▁Präsent ation
im es
▁s ymbol
▁Der zeit
▁deut liche
▁Met ro
▁Ta i
spar ent
▁Event s
g ing
ti st
ver halten
▁Up dates
▁Che f
▁mo tiv
ätz ungen
schließ t
▁erstre ckt
▁d ok
▁Aus flug
▁ar beit
▁arab ischen
b it
▁eindeu tige
▁ursprün gliche
ektak ul
▁Des ktop
ud an
sf rei
▁Y ou
▁ch amb
▁Privat sphäre
▁komfort ablen
g renz
▁B om
be utung
▁Konver genz
▁F A
eist ungen
▁er öffnen
▁Ver ordnungen
ran ge
▁üb lichen
▁erheb lichen
▁V ie
▁Re präsent
▁genie ßt
▁B ünd
f ähig
▁wo uld
spro zeß
▁The orie
▁Ke y
▁geb unden
▁Pl atten
▁Bl umen
▁interess anten
▁beteil igten
▁Föder ation
▁B it
▁an passen
▁gemeinsam er
▁leben s
▁Lab or
her steller
▁größ ter
▁Mö bel
lässi ge
н и
▁a frikanischen
▁K lin
▁V ic
ill igt
stück e
ord s
▁Tour en
▁Ord ner
▁Mill ion
▁Per formance
▁Volks wirtschaften
▁komplex e
▁Begrün dung
e w
am ing
▁l angem
▁Aus grenzung
ian ce
ro hen
▁Lie bl
▁Roy al
1 8
▁g reifen
▁Mar ina
▁Club s
▁Sow jet
▁ter ror
▁Wor k
▁Russland s
▁leist et
▁Sa al
▁Bew ohner
▁österreich ischen
▁v .
bl att
▁eigen tliche
▁beru h
▁stärk sten
st är
▁H ü
auf nahme
▁gesch mack
pl ätzen
▁Raum s
kö mm
A .
▁d ien
ier er
▁In haber
be völkerung
▁Form ulierung
hol z
▁Arbeits losen
▁Wieder herstellung
▁zug ute
geb ühren
ding ung
▁Th omas
l ings
▁M ur
▁zur zeit
he dr
▁Te e
▁heraus ragen
sbe dingungen
▁bas ieren
m t
▁Slow en
▁z un
▁verw iesen
bet riebe
▁Demon stra
ä ußer
ver schm
gesch nitten
▁Bil anz
▁Süd afrika
le bt
▁geh abt
m ot
▁Ab t
▁Log ik
▁ein iges
▁integr ieren
▁er weisen
▁Nichtraucher zonen
▁Köl n
re en
▁C olle
bl en
▁Welt wirtschaft
r us
ak er
üh le
b sp
▁dies elbe
▁Mobil te
at in
klär t
▁L ern
▁verm ieden
▁Dubl in
▁w ächst
▁dies elben
▁zentr aler
▁27 .
▁V in
▁ge langt
ri m
ho d
▁US D
ak u
änder ung
▁Spezial isten
ar r
▁befür wortet
▁form uliert
▁einge laden
▁gewünsch te
▁nied rigen
▁vermut lich
▁ver liehen
▁um so
▁Ber ater
▁Was hin
h ab
▁t her
be stand
mechan ismen
▁rech nen
▁s ec
sen dung
di te
tre ffen
▁La sten
▁Leg isla
▁aus s
▁C entre
▁st eigt
ver m
▁Um stände
▁ren omm
▁präz ise
▁ein treten
▁B E
kl en
▁Verab schied
▁G B
▁Aus beutung
▁Kü chen
▁par allel
▁komplex en
▁gegensei tigen
▁P räsi
▁F akten
▁Ad ressen
▁Abgeord neter
▁Port al
▁Frem d
mechan ismus
ür e
pf ern
▁So urce
▁Se en
▁problem los
▁Bürgerbeauftrag ten
üs sel
▁4 6
20 10
▁mus ikal
▁Menschenrecht sverletzungen
▁Französ isch
ge führt
▁I V
▁Las er
▁Gl ückw
▁Host el
▁Kon serv
▁18 0
▁bedauer lich
▁auf r
▁en orm
▁region aler
▁Aut oren
▁Groß en
▁Fe der
▁Mini bar
▁Verabschied ung
▁A kt
▁G U
▁tran sparent
er ing
▁S C
▁A P
G E
ell o
▁ab geben
▁erlä uter
it ra
▁dass elbe
▁Pf lichten
▁I sol
ber eiten
▁St ufe
▁leich te
▁comfort able
▁Sch reib
▁Priv ate
▁Jugend liche
▁Stat ut
▁Bud ap
▁Wäl der
9 9
our en
▁beh er
▁Funktion alität
▁modern er
▁auf gestellt
▁An gabe
▁Unter drück
▁verstär kte
▁Kub a
▁demokra tisch
▁medizin ische
▁Gent oo
▁k oh
is ierte
▁einz ig
▁geeig neten
i us
▁Tab elle
▁Fin anzen
T ER
la dung
▁ex per
g igen
▁Kon t
▁Kooper ations
▁lö schen
▁H ekt
ör m
▁vertra ut
▁Kommissions vorschlag
k ette
fahr ten
▁Mo dule
▁Arbeits zeit
▁Char me
▁Sp ektrum
▁Europe an
▁D A
▁t r
▁Hand lungen
▁klein eren
▁Anwend ungs
▁aus sehen
▁Be werber
▁Stra ft
▁Mein ungen
▁J ugoslaw
▁Verb ind
▁Ob ama
zus agen
▁R ass
▁re form
▁Ma ast
▁Gen uss
▁Ant räge
▁unbe k
▁neg ativ
▁ver schaffen
system en
▁Kar riere
▁weiter zu
tik eln
▁Dritt staaten
▁Zun ahme
zeich nete
▁teil t
sbek ämpfung
▁atember auben
▁Marok ko
te ktion
▁A V
▁f inn
▁F lag
▁Tür en
▁Imm un
▁Rh ein
▁In dex
lass ungen
▁Sw iss
1 3
▁ver gangen
▁gew alt
▁he utzutage
▁dra st
▁S erien
▁ein stellen
▁Kunst stoff
▁sonst ige
▁i ran
▁An bindung
▁später en
▁Univers ity
▁ster ben
opp en
▁endgül tigen
metho de
k u
▁Fischerei politik
▁absol ute
ei r
▁be wertet
au x
▁min im
▁Erd be
d isk
h eil
▁H ügel
▁ma il
t op
▁t reiben
au ten
par ks
▁K om
▁Konfigur ation
▁Ver folgung
▁Er zeugung
▁durch zusetzen
7 5
▁an n
äl te
b ahnen
▁ver tie
▁höch ster
▁N u
zusammen arbeit
▁jeglich er
g y
▁K alender
be ziehungen
▁Gew inner
j ekten
▁Ber gen
▁Kern kraft
▁jüng ste
▁exc ellent
K T
st rom
iz z
▁religi ösen
▁B aut
▁gerecht fertigt
▁S ter
▁M eld
▁ger inge
▁Sti ll
▁Gast freund
p unkten
▁Sch u
▁Verl ängerung
aul t
▁a ss
▁bis schen
tik er
▁12 .00
▁Zu stell
▁Su mme
▁organis ierte
▁un gewöhn
ress ourcen
▁Belast ung
▁P iaz
▁Vermitt lung
wissen schaft
▁Washin gton
m öglichen
mer e
ried igen
▁mittler e
v ir
▁T en
▁wahr e
▁Versuch e
al o
zug s
▁Bü hne
v ier
ig hl
eb ung
▁198 0
▁Versicher ungs
▁k ünst
▁so me
▁fü llen
sp unkte
▁Zusammen setzung
▁empf iehlt
e ber
ort s
ac ion
▁einger eich
▁Einwander er
▁wert volle
la ut
i am
kon trolle
▁is ol
▁angeboten en
▁Mich el
K W
▁P R
▁ver arbeitet
fü ll
zeit raum
▁Gem üse
▁maxim ale
▁U R
▁Produ zenten
▁schle chter
en e
▁o hn
▁unter scheidet
▁s ach
▁v ol
vers icherung
▁E D
▁auf einander
fä llt
▁einstimm ig
umin ium
▁ge he
be stände
▁Kon tra
zeich neten
▁pass ieren
▁Kan al
▁Ma k
adem ie
▁H or
men ge
▁Be urteilung
▁gew innt
▁Klimawandel s
▁ausländ ische
1 6
▁s low
▁ge ograf
▁r etten
▁Panor ama
ü m
▁St rei
▁schwier iger
▁Anwesen heit
▁Ein gabe
recht lichen
fa ce
z w
den s
▁N ote
än n
fen ster
▁ges ichert
▁aufge führt
▁organis ierten
p g
bo ok
▁Aktiv ität
G B
▁T reiber
▁dar gelegt
▁zw ingen
▁b lieb
▁F ron
▁the y
▁Geschä ften
▁techn ischer
ix el
on ym
▁P ay
rech er
as on
▁M essen
▁f in
ot her
▁Bo uti
▁ersch ienen
▁Berat ungen
▁gegensei tige
et schen
▁O steuropa
pf ung
▁Schnitt stelle
lie ss
▁ähn lichen
▁engl ischen
▁M aler
▁besch reibt
▁Mehrwert steuer
▁Menschen rechten
▁gest iegen
▁Steuerzahl er
f acht
▁C N
reisen de
▁Ergän zung
▁über geben
▁sp ektakul
▁Geb äuden
▁zusammen zu
▁poln ischen
▁Aus übung
▁Fest stellung
▁Flä chen
▁b al
▁M old
▁Ge orge
äus e
▁überw acht
▁vereinbar ten
▁leist ungsf
▁Erwä gung
ger äten
▁ è
▁t rat
ständ ig
▁ с
al ity
▁Schutz es
zir k
▁F inger
▁Bör se
ge ls
▁beschleun igen
▁geplan ten
▁Urspr ungs
k orea
▁f anden
▁Qu ell
▁aut or
ek tive
▁Druck er
▁Ind ik
▁ausführ lich
▁Referend um
▁Unter halt
our s
l eiter
v ort
▁n ehme
▁G ärten
▁weiter entwick
▁an f
▁er hol
▁Geb ühr
▁gel assen
▁Repar atur
sa al
acht ungs
▁v ielsei
leich ter
dat ei
▁ein nehmen
▁E valu
▁L eid
▁lie genden
▁bed ienen
▁get ö
mel den
and al
▁l ike
▁Herr schaft
ic ation
▁Ant rieb
▁eigen tlichen
▁Süd tiro
▁Fo und
▁Anrei ze
▁ausreichen de
▁Energie quellen
▁ ändert
▁Änder ungs
mes ser
▁um s
▁sag ten
▁Besitz er
T S
▁ ‚
▁ reibungs
▁ein führen
▁T ank
▁p asst
▁Heil igen
▁Schwimm bad
▁s .
▁Part y
▁Is land
▁H en
▁ange legt
z ern
▁A D
ger icht
▁Ge ben
▁Beschwer den
▁ausge dehn
▁Verl etzungen
▁gelin gen
▁ ört
▁über legen
▁vor behalten
▁durch schnitt
▁Arbeits gruppe
▁gelegen en
▁bein ahe
▁Heimat land
▁ge leitet
▁sp ielte
▁komfort abel
▁wachsen de
▁Europ ar
▁ruh iger
▁industrie llen
▁B reakfast
▁n on
▁H ot
auf wand
▁zw anzig
▁Führ ungs
▁überw ie
d ring
sch end
▁M u
▁Con s
▁ehr lich
▁bür okra
▁inn eren
▁Swimming pool
d ungs
sprü chen
s inn
▁K OM
▁auf gerufen
▁Rück gang
▁Vert retung
▁Prä m
▁E M
▁P et
▁Sh utt
▁ph ys
finanz ierung
es k
as er
ter min
▁H u
▁k an
▁H ans
▁L euten
▁In c
▁gem ein
p res
▁Instr umenten
▁israel ischen
st eil
▁Re c
▁re geln
▁St ich
▁An künd
▁einger äumt
▁Commun ity
▁ver zeichnen
▁Rahmen bedingungen
o fern
▁P as
▁ver bleiben
▁Gew inne
▁Mail s
▁Prof essor
▁Einsch ränkungen
3 2
▁ver größ
▁N G
▁Kon ferenzen
▁späte stens
▁M auer
iti v
▁N ic
▁teil zunehmen
▁v al
ra m
ständ ige
vel op
▁A N
▁ins ofern
▁ständ ige
analy se
▁V el
▁bew iesen
▁erb aut
un ch
▁F ac
si de
tin ation
g ab
▁Auf nahmen
▁Ar gentin
voll es
▁Konsult ation
▁vor gehen
▁Grund sätzen
▁sonst igen
▁inak zeptabel
▁Rass ismus
ver teilung
▁Pl us
▁All ein
▁Son y
▁medizin ischen
▁Schauspiel er
▁Ruß land
▁P RO
▁belieb igen
▁Sto ff
▁Beob achter
st ige
on te
▁unter wegs
▁Im plemen
amen s
▁Qu ark
▁An hang
▁Bür os
▁eigen em
▁t raum
▁ro b
▁Wert pap
produ kt
▁M ol
at ing
▁Ex tra
▁Ger äten
▁verwirk lichen
▁der jenigen
▁ge ograph
men ade
alt h
per iode
▁ernst hafte
oom s
la gerung
▁sp ür
▁jähr lichen
app e
▁Kon f
▁De vis
äl ter
▁Absch luß
a w
itz er
▁8 5
▁demon str
▁Es s
▁Ad obe
▁passen de
A V
р а
▁F ok
ri z
▁beg ünst
▁Beschäftig ten
▁Er z
ät ter
▁statt dessen
▁HT ML
▁m 2
mäß igkeit
▁besch ließen
sver handlungen
▁beruf lichen
▁ q
▁Unter lagen
▁en gen
▁ober en
▁Optim ierung
▁n bsp
ort h
▁belie bt
▁Einsch ätzung
way s
▁respek tiert
▁Rub rik
b ten
▁aus drück
üt ter
fe ktion
▁Anwend ungsbereich
b reite
▁S qu
▁j üd
▁the ore
pro jekte
w est
▁H alte
▁Rück en
▁Gel ände
▁zeit genöss
▁kür z
c al
▁sch uld
▁De ck
▁lok aler
h ändler
i que
ch tet
fol genden
▁Freu en
▁Ban anen
▁Budap est
l eitungen
ie tet
▁all mäh
fol io
▁Art .
▁Li fe
▁kri tischen
fil m
▁Ab stimm
kap ital
▁geist igen
▁W al
ber eitung
▁4 7
▁ öffnet
st ätten
▁A U
us ste
▁R ang
tel n
▁20 12
▁Ha lle
▁fol glich
ungsver trag
▁R ind
ungs weise
▁Ein blick
▁Con tent
▁gefähr den
▁H yp
re form
▁An im
wirtschaft ung
▁Alex ander
as sten
▁7 00
▁erf asst
bet rag
▁Sitz ungen
gleich en
▁beeinfl usst
▁d id
▁ex terne
▁Aussch üsse
hol fen
▁Gegen wart
sper iode
▁G ül
▁be stens
▁Europ ol
▁ausgew ählten
dat eien
▁Anhör ung
k n
▁or gan
▁kontinuier lich
c is
ir es
▁erneuer baren
▁Kreativ ität
M A
as p
▁V it
▁ange stre
▁unterb reiten
un ken
▁R ele
ion s
▁Ger ichten
▁Verteidigung spolitik
▁Untern ehm
▁Regional politik
ü ten
▁Kons um
▁invest iert
ot ograf
▁sch enken
▁Ent steh
▁pl atz
abkommen s
▁erweiter ten
▁bedau ere
▁B rot
▁W ellen
▁t op
▁te lefon
▁Ta xi
▁automati sche
▁Er be
▁voll em
▁Dat a
▁Fernseh er
▁5 2
sk osten
ac ión
▁Fer tigung
▁Spann ungen
▁k rimin
▁Auf sicht
por tiert
▁ärm sten
▁P res
▁R ing
▁her kömm
▁Inner halb
▁Mo tiv
▁erör tert
dis ziplin
▁Vergn ügen
w ig
es ien
▁v e
▁I B
▁ent h
▁Auf ruf
▁Unter zeichnung
grün den
▁Maz ed
▁T ir
ic an
▁fort gesetzt
n es
▁ein drucks
▁p ark
pl or
▁all eine
stand ard
▁Bedien ung
m ach
▁s ech
▁P rei
▁Ver markt
▁ab schließend
▁H ann
rupp e
meld ungen
▁Merk male
w as
▁P r
▁W ord
▁Aus fuhr
▁Pal ace
▁vorber eiten
it ies
▁Kon zepte
▁trans atlan
▁L ande
ok ol
id ad
t licher
ak a
▁gesch ütz
eh er
gesch n
▁C ommer
▁ent worfen
▁Techn iken
▁weit aus
▁russ ische
▁Moun tain
▁i f
▁H it
▁I b
ri ck
▁Min er
▁Sol che
▁Stu dium
▁gül tig
▁kommerzie llen
am o
▁re präsen
▁Im port
▁kosten günst
▁angen ehme
▁jem als
▁Weiß buch
▁Medik amente
▁beizut ragen
l ers
▁K räften
▁Feh len
▁General sekretär
▁Al uminium
SC O
▁Spe zie
▁R em
▁Eigent ümer
▁fair en
▁Wol f
h äusern
sch uss
rit z
▁gesch ickt
muse um
▁N euer
▁eingesch ränkt
l ehen
▁be wirken
dern falls
pro jekt
▁Found ation
ständ igkeiten
▁Wart ung
E F
▁S org
▁n ukle
▁M ahl
▁F i
▁Un fall
▁Ch amp
▁Galer ie
▁gew ünscht
▁Hoch zeit
bil ität
z icht
▁an y
▁wer fen
▁ge stellten
ut r
▁am b
▁Hö hen
rid ge
1 7
▁plöt zlich
an schluss
m ord
▁H al
▁Re zession
▁ein ander
ange hen
▁F ast
ären z
▁Eigen schaft
▁Ven e
▁Übereinkommen s
h ängt
is ierungs
▁über mittelt
▁Gem äß
▁transp or
▁S ad
▁in begriffen
v as
er zeug
▁G itar
eh in
P A
wei l
mus ik
▁Pal äst
▁Attra ktionen
▁Äußer ungen
d el
g eschä
h one
initi ative
▁ är
▁f ährt
▁P sych
▁be en
▁verw alten
▁Best euerung
f amil
▁von einander
de b
▁Vor gaben
▁zwei er
▁Flug gesellschaften
▁erwäh nte
▁vernünf tig
▁detaill ierte
▁Ober flächen
▁Can on
▁E F
urch t
▁leist ungsst
sch l
▁J ur
▁Inter pret
▁Energie politik
▁Ju den
8 6
▁konstru ktive
▁mel den
s weisen
▁Vor feld
▁Hekt ar
r iel
р о
▁Herkunft s
3 5
▁S AP
fü gen
ru he
▁Mot to
▁Sp ir
▁geb ildet
▁besch reiben
oc i
▁getö tet
▁T ib
▁Un sicherheit
▁nach denken
acht ungen
bo ard
▁erlä utern
in ing
▁M es
▁Kat hedr
p osition
▁ge handelt
il and
gesch ritten
ian a
ur es
▁sch warz
▁ange wiesen
kur se
▁endgül tig
▁Gol den
▁Bew ältigung
▁vernünf tige
▁erör tern
o ter
ä nen
▁M A
▁k öst
▁gel ernt
▁unterb reitet
▁begrün det
▁M ach
▁F ähr
▁Neu es
▁demokra tischer
▁Exper i
▁g ast
d ig
ahr ung
▁J azz
ran s
▁Kap azitäten
▁Minister rat
▁mobil e
▁T it
▁m essen
▁l ine
▁aktu alisieren
▁loc ated
ber ichte
▁be arbeitet
▁St rasse
▁An griffe
▁Weiter bildung
▁Verl uste
▁gra tis
b ro
▁R ö
and ten
▁Auf wand
▁norm ale
ungs maßnahmen
▁vertra u
▁Puert o
▁ ·
▁H ub
ges prä
▁gesch afft
▁Wh irl
▁l ib
▁Entsp annen
▁ohn ehin
▁Be zahlung
ab les
▁eingeb unden
▁Cock ta
ün de
hö he
alte ten
▁Stock hol
▁Elektron ik
▁Fol ter
schutz es
▁konzip iert
w ood
▁G ü
äng ern
▁Di am
▁äl tere
▁Get rei
▁Drit ter
▁zeig te
or ben
▁Ab stimmungen
gew ogen
▁gelegen e
▁grundlegen der
▁auf er
▁ar g
haus e
▁Mobil e
or es
▁B atter
▁St utt
▁vor hin
rü ger
▁recht fertigen
▁Gener ald
▁f ur
ür zen
is st
▁J ames
▁beit rägt
▁mul tination
▁ein halten
▁ver deut
▁C y
ähr ungs
▁Zu ständigkeiten
▁mar quis
▁schritt weise
▁techn ologische
ath em
▁Aktu alisierung
▁aus führen
▁Re port
lä nen
▁klima tis
lüs sen
ser ver
▁Ro ad
▁modern es
▁17 0
unk el
▁Kredit karten
▁Besuch ern
▁einzu gehen
▁Kir k
▁exklus iven
ali for
▁bilater alen
▁Mall orca
▁C our
▁st ützen
▁gebrauch t
k m
▁D ER
▁An bau
▁Flug zeuge
▁erinner e
o ugh
▁M und
tro llen
▁einger ichtete
▁angeb lich
▁typ ische
t räger
▁ ü
▁Mon itor
▁erfolg te
reg ungen
▁Weihn acht
e y
▁Arbeits bedingungen
▁Wi lle
▁grenzüberschreiten de
d ungen
▁BM W
el emente
re cken
▁konk ur
▁Prä z
▁E cke
▁be gangen
▁Re alisierung
ul se
▁Ä hn
▁Lehr e
▁Dar in
▁Betroffen en
s m
▁Verk äufer
▁Transa ktionen
▁Johann es
b ach
▁z ielt
▁bef ind
▁gute m
▁Ide al
▁registr iert
▁K ron
▁Port o
▁Caf é
▁dok umen
▁p as
▁C ent
▁Li ban
▁interess ieren
▁Vers orgungs
▁erk enn
▁Schei tern
▁bed auern
spf licht
▁Atlan tik
▁Resol ution
▁D S
▁re alisieren
V O
▁G M
▁ört lichen
s werten
▁Ent decken
▁tro cken
er es
ier a
▁be auf
▁Vo gel
▁Panor am
▁w omit
▁o ther
ron omie
verb indungen
▁d oppel
▁B lan
▁Vorred ner
st il
▁z iel
▁L och
le d
spl äne
▁Administ ration
к о
▁M ix
▁nö tigen
▁Zuf riedenheit
▁ersta un
▁der ar
▁B ele
us h
ant as
▁re alen
▁Gesch lecht
b te
▁er langen
▁mit hilfe
▁Ab stand
▁Beh aupt
ober fläche
fel der
▁kri tisch
▁kritis iert
be g
▁Se gel
▁vors ichtig
u gt
▁A re
▁Inhalt s
▁Auftrag geber
▁beur teilen
ge legen
wei f
▁Fl üge
▁bet rieb
arbei teten
▁Vorsitzen der
▁arch ite
h ar
▁So weit
▁techn ologischen
▁herr liche
▁Dis ziplin
ö ßt
si l
▁ra tifiziert
Z E
▁Über arbeitung
▁Me tern
▁Komprom iß
▁F al
▁te sten
▁einzu halten
▁Dol om
er re
▁Ein trag
▁Über ra
▁Verantwort lichen
verschm utzung
▁L en
▁Zu behör
▁Vert rägen
▁X P
▁Tick ets
▁A bl
▁b ist
geb ühr
▁freund lichen
▁Erwachsen en
▁Gepäck raum
▁T ar
▁Verein igung
ake te
▁Z it
▁1 ,5
▁e cht
l isten
o tel
er ten
▁Zimmer service
▁verbesser te
▁Beweg ungen
▁Klo ster
▁L ot
▁aus sch
▁Ge statten
auf gaben
lä ub
▁Frei will
▁Ost see
▁Tari f
▁S ei
ob el
el and
▁V iet
▁enttäu scht
. 2010
▁ange fangen
▁5 4
gesch oss
▁Em p
▁tä tigen
▁uner lässlich
▁Wien er
▁flexib le
▁d ella
▁pro gramm
A B
▁an sonsten
rin ken
kon zept
wür fe
▁Whirl pool
▁Re b
▁Sp uren
▁unzureich end
▁i rak
▁co uld
▁S L
▁S el
▁zu kunft
▁R od
dr ich
▁Lehr en
▁fal schen
spar ungen
▁Schne e
▁k ulin
▁T am
▁Sch war
▁sch reibt
▁O ne
it ation
fl anz
▁ir ische
▁ide aler
▁Anh änger
ä mm
or i
aus enden
lei h
▁erreich te
▁bekräf tigt
▁verw öhnen
alte te
▁D ich
▁f ehler
▁P akt
▁ges onder
fiz iert
▁verein fachen
▁Legisla tiv
▁erläuter t
▁Haus halte
▁erz ielten
▁Gipf els
▁vielfäl tigen
▁unter halten
ard in
tik a
▁Stabilität spakt
▁are a
▁d rücken
qu id
▁verw altet
▁Lebens mitteln
greifen de
▁Br ut
▁kon s
▁süd lich
▁Echt zeit
d h
▁w öch
▁münd lichen
f isch
▁A M
▁G riff
eu x
tur e
in vest
▁a v
hör igkeit
▁gel ö
▁bevor stehenden
▁V ER
▁Jugend her
▁schle chten
▁Sub ventionen
▁Ehr en
on ischen
lei ster
▁ges ammelt
▁meisten s
utt on
beweg ung
A U
▁H ör
▁L y
▁N ull
▁Qu art
▁Kur se
▁größer er
geschn eider
5 00
l us
os a
▁Aus bildungs
▁Hotels afe
▁disk rimin
▁Tschech ischen
▁U ND
▁t rop
▁Reg imes
▁tradition ell
bef inden
▁kurzfrist ig
ie fer
▁Her berge
echs lungs
▁An weisungen
▁An regungen
▁Bet on
▁teil genommen
▁Verkauf s
▁Ther mal
lie ssen
▁Auf forderung
▁prak tiz
▁zunehmen de
▁altern ative
▁Schatten berichterstat
▁wei b
▁relev anten
▁Unterdrück ung
gel ung
▁Union sbür
spoliti sche
▁Hy d
B S
V .
ein heiten
rech nung
▁Demokra tisierung
▁stren ge
▁MP 3
▁e very
▁Mon ats
▁registr ieren
▁Lit auen
▁Maast richt
sch ungen
▁K ra
▁sch licht
▁gew achsen
▁Gu mm
▁Dom ain
▁Sim bab
▁Ursp rung
▁S i
▁an zeigen
zen zen
▁Be wertungen
▁ent scheidet
stat us
▁Gesetz geb
▁Ham as
funktion en
▁Gesprä chen
▁keines falls
▁Mc C
I K
tion al
▁l ive
▁irgend ein
▁incl u
▁s yn
lle ktu
▁sol ide
werb ung
an ia
▁her stellen
▁Mus ic
▁glob aler
bed ürf
▁Sn ow
g in
u c
▁A T
ro ck
▁Mazed onien
l ehnen
ö ße
▁auf rechter
▁Rat s
änd ig
▁ange ben
▁verl änger
▁Tai wan
b ungen
▁vor teil
▁Mosk au
▁den k
eh end
▁Dar auf
▁UN E
▁H um
▁Ste ll
▁Einzel nen
▁Amerik as
▁resul tieren
▁Malt a
▁Je den
▁schließ e
▁Mul tim
▁Corpor ate
▁Über setzungen
▁Fa ir
grei ft
▁Kathedr ale
g art
▁Ver g
▁be denken
op le
scha uer
war ten
▁Li by
▁Lebens qualität
▁mitge teilt
k tiver
▁B ang
▁T rink
▁Analy sen
▁Alb anien
c ard
ück e
▁fr isch
▁ide alen
▁Vir us
g üter
▁der artigen
sch la
▁B 5
▁k auf
end o
▁Aus stellungen
▁Sp anisch
▁Gewerk schaften
b aum
▁n amens
▁h ielt
▁H on
▁ge leiste
▁Re aktionen
spro chen
▁Pla ya
▁Gerichtshof s
f i
▁R ande
▁Tem po
▁analys ieren
▁irgendwel che
▁Koh le
▁M ah
fahr ts
▁Dank e
á s
▁K ohlen
▁st anden
▁gem essen
▁Is ra
▁nutz bar
▁Subsidiarität sprinzip
▁begeist ert
den z
▁Aus nah
ad s
▁zuver lässig
un c
▁M is
and te
▁sp üren
▁Einsch ränkung
▁Statist ik
▁br ut
í n
le ch
▁Pro v
▁ange hen
▁Le der
▁D or
▁Sch au
▁3 ,
▁hier mit
▁Kar l
ungsk osten
▁jeweil ige
▁Sec urity
▁Semin ar
▁z üg
öff nete
▁Pal ast
▁Ein -
kun st
▁Wahr nehm
▁Stre cken
p end
in nung
▁K ohl
tie f
▁Govern ance
▁D IE
lei den
▁18 9
LA F
▁h orizont
▁R io
▁Wohl befinden
g rit
▁Chr isten
▁Koh ärenz
▁Tragö die
▁D est
▁aus gelöst
▁re staur
▁Ind ones
▁Ratsvorsitz es
▁ök ologische
problem e
▁Haushaltsplan s
▁Z ent
▁Archite kten
▁Ther apie
. C
m or
▁b a
▁An ruf
▁aus gesch
men gen
▁sch ützt
▁üb rig
h or
▁deut scher
▁Durch schnitt
▁Dien stag
▁Entsteh ung
▁aus wärtige
▁Er nen
▁wenig stens
demokra ten
▁Isra els
▁Vor h
▁Einw ohnern
▁he f
▁Implemen tierung
▁ex klusive
▁verschieden sten
gän gen
▁Nie mand
bil den
▁Ant on
▁ko oper
▁Sil ber
glieder ung
N A
l as
▁über d
▁sp iegelt
▁bew aff
▁einger ichteten
▁kompl etten
▁ignor iert
katastrop hen
▁Gül tigkeit
▁e ure
▁Aus legung
▁ges unden
▁kl ären
lüs s
▁Sy rien
sch icht
sch rau
em pl
▁son n
▁Ern ährung
▁exklus iv
l et
▁w hen
▁K au
▁T H
▁unver zicht
▁P ie
re formen
▁Geb ur
▁erneuer bare
zusp rechen
v illa
id s
▁Regul ierungs
r ier
▁W örter
rei en
au d
gra de
▁gefähr lichen
strich en
ber at
▁ver halten
▁Er ste
▁Dar f
▁einzel ner
▁Instrument s
a ß
f .
ro om
▁Finanz mittel
▁Gesundheit swesen
▁Fel sen
I X
▁Markt wirtschaft
▁d einen
▁ver lei
▁Fl otte
▁Erk enntnisse
an bieter
▁D res
▁internation ales
struktur en
▁äußer ster
▁ethn ischen
p ress
▁h üb
bür o
▁sch rieb
▁Ch at
stre cken
s em
▁ и
il den
▁wirk ungs
▁genehm igt
A F
▁kri tische
▁Bis her
▁Trend s
▁uni verse
▁s etzte
▁T R
▁Entwicklungs zusammenarbeit
▁arbei tete
▁umwelt freund
▁iP hone
c raft
ik alien
▁Initi ativ
▁gefähr liche
▁Tab ellen
▁Golf platz
▁Verstär kung
sch te
al ia
▁n ennt
di a
▁verb rei
j pg
▁k enn
lä d
▁Aus fahrt
▁Kind es
▁riesi ge
▁unge achtet
▁niederländ ischen
▁f ar
▁Sch ienen
▁war tet
con om
▁An zeigen
▁zurück kehren
▁Bl ue
▁it s
▁Lu c
▁Szen e
▁Sorg falt
z on
verb and
▁benach r
N E
▁t rennen
zu kommen
▁end et
▁Inte lligen
▁Amts zeit
spezif ische
▁Sozialdemokra ten
sch alter
▁offen kund
str asse
r unde
der e
▁Be frei
ap s
w s
▁ver he
▁Bo ard
▁App le
▁D ein
▁über setzt
rä gern
▁Vor bild
▁klass ische
sstra tegie
ächt nis
I ER
u age
▁l ängst
▁gef ällt
▁abge halten
▁Jugoslaw ien
▁a part
ir a
▁Prem ium
▁einz iges
▁Sk la
▁abw echslungs
▁Erdbe ben
frei heiten
▁Zin ss
i ft
k ar
▁g ingen
ämpf e
▁Grün der
grei f
▁Devis en
O W
ver kauf
ließ t
▁Li sten
▁ern ste
▁Konflikt s
▁attra ktiv
f ul
▁auf weisen
vers icher
▁durchge führten
▁n ight
▁V iew
▁Leiden schaft
▁Im per
▁inter pre
▁tra ur
▁Schiff s
▁Eff ekte
n el
▁K ino
sf ragen
wär mung
▁ir re
▁Doppel bett
▁äl ter
äußer ung
▁M ilit
▁an wend
sbe ziehungen
▁vorher ige
▁Slowen ien
▁in kl
▁P SE
▁ver ehrten
▁Halb insel
P C
d re
▁H ighl
ier bar
▁l ohnt
▁Berichterstat tern
ir gt
sen der
▁üb lich
ssystem s
▁beträcht liche
▁Tha iland
▁Ver hältnisse
ord net
▁Dien sten
b al
▁Welt bank
▁Bef ehl
▁säm tlichen
▁bekannte sten
▁Frie drich
▁Rechen schaft
▁5 3
▁Hin zu
▁Erfolg s
▁vorher igen
▁Gefangen en
▁ ©
▁g ä
▁Form ul
▁amtieren der
▁den selben
▁Liban on
A CH
▁ ei
äh iger
me ter
komp eten
▁gegensei tig
▁engag iert
vertre ter
▁S un
▁aufge hoben
▁Gro ss
▁Kol um
▁k g
re staurant
la gert
▁Le on
bet reuung
▁Buch ungs
▁stark es
▁zunehmen den
▁zeich nen
och e
▁Lie b
▁schl immer
▁zahl reicher
bef ug
ron om
ucht ung
▁Geschäfts bedingungen
▁ma in
▁Inte grit
▁einzigar tig
▁leg iti
▁Arbeitsk räfte
▁Ab sichten
▁Rechts rahmen
▁Verf ass
▁dauer haft
▁Piaz za
▁Z eug
▁N iger
▁Ho w
▁beg ab
alis ierungs
▁Mail and
▁luxuri öse
▁sm all
▁ rot
▁H aust
▁aus gebaut
▁wirksam en
▁V alen
▁An sprech
▁äl testen
R ooms
▁E sp
▁N ap
▁größ t
▁h ell
▁ver handeln
nehm bar
▁portugies ischen
▁Text es
▁Paläst ina
zu stand
bie tet
▁ungar ischen
r ein
der t
▁über fl
▁unter en
▁Vor gänger
ap el
▁Salz burg
em it
▁K le
▁kon serv
▁Form el
▁us e
▁Sen si
▁Koordin ation
▁vergleich en
▁Verzö gerung
▁In dem
ativ es
zuf inden
sprach igen
▁b inden
ra y
our ce
▁Al m
▁einzu beziehen
▁einzur ichten
g röße
▁Be dingung
▁Komm ando
lei dung
so ftware
▁Pf ad
▁ak zeptabel
steuer ung
▁in wie
▁O ze
▁Stadt teil
▁fa ire
▁Wik itra
▁f eier
▁F ried
▁Man che
▁befür worte
solid ierung
is en
▁C le
▁Fl or
bet eil
▁Sn ack
▁Bru der
▁S S
▁Dar lehen
s .
▁K laus
▁Sch ott
▁glau bt
▁bew undern
▁qualifiz ierte
h y
ste uropäischen
▁ausge legt
laub nis
prü f
▁wei ßen
▁gef angen
▁verständ lich
▁jahr el
▁Late Rooms
▁eingereich ten
▁5 6
▁einzel staatlichen
▁beit reten
▁fried lichen
▁glück lich
riter ium
▁Vul kan
▁Frage stunde
▁Con troll
▁leben den
▁Perspek tiven
▁H an
▁ver stoßen
▁Ein heiten
ap e
▁wo für
bil der
▁B y
rü st
teil ten
▁Internet seite
haus es
▁Nor wegen
▁vielfäl tige
m esse
end igung
pl atten
▁vern ach
bek ämpfung
▁Wikitra vel
yr ight
▁Komplett preise
bl ock
▁c or
▁Besonder heiten
▁Temperatur en
▁Sm art
▁Z e
vol umen
▁E leg
um pen
▁6 8
▁Ph ysi
▁länger e
▁P ek
▁O pfern
▁Mon d
▁auszu üben
▁Amer ican
▁system atisch
▁w eiten
▁Rand lage
▁Fein d
▁beeinträch tigt
▁verank ert
▁Umstruktur ierung
liess lich
▁v i
▁Train ings
▁Tsch etschen
▁de bat
w äl
ß ig
▁h arte
▁er richten
ig uren
ver si
▁Verb and
recht lich
▁Ac count
▁Dek or
la ß
▁Mill enn
▁Ereig nissen
w inkel
▁sch lage
beit rag
ak eten
▁National park
gere chte
▁beruf liche
▁grö s
sp oten
ag s
▁Auf t
fl otte
▁sicher er
▁ra sche
▁verab schie
▁Ann äh
▁UNE SCO
u tionen
▁er eig
sp reis
▁Vor sorge
▁Ex ec
▁Kommissar e
▁Vorsitzen de
▁besei tigt
▁Einfl uß
st s
▁Featur es
▁überwie gend
▁zw angs
▁P est
▁Pro test
▁O D
▁durch setzen
▁personenbezogen en
▁maler ischen
ein kommen
men ü
▁unter liegt
▁Sk y
▁automati s
▁T räger
▁L uf
p on
ir s
▁Hier bei
▁un zu
▁T rib
▁Entschließ ungen
e arch
▁A ud
ungs möglichkeiten
▁deut licher
▁Gelegen heiten
▁Ern st
▁Cap tain
▁Net work
s zeit
▁A ro
▁E VP
ess el
▁Gegen stände
gerichts hof
▁war m
▁ger ufen
▁Wahr schein
▁abz ielen
▁Sowjet union
▁E i
▁f o
fü llen
▁Sp iels
ämpf er
▁Tats achen
▁irgend einer
▁Integrit ät
ar ium
▁Sie he
▁im plemen
ystem s
▁Partner schaften
▁Auseinander setzung
▁G E
▁ge laden
ast et
▁ausgewogen en
▁Sch ool
ord nen
▁inter institution
n utzung
r ön
▁B lau
▁L T
att formen
▁besch eiden
▁stehen de
▁verlei ht
▁c as
▁Organ en
▁S em
▁G ir
▁zum al
▁inter ak
▁zusammenzu arbeiten
st ant
tain er
▁g äng
▁dauer hafte
bas is
ur er
▁B aden
ir st
▁G ame
▁e .
▁4 1
kon to
▁Anrei z
▁ver arbeiten
▁Z ellen
▁Ges am
▁aut hen
▁Vi sta
▁Stutt gart
▁frei er
▁El ementen
▁Forsch er
▁Varian te
▁D ur
▁dies mal
▁Fl ach
g .
st ers
▁r eine
▁Son g
▁Zul assung
r é
▁Zahl reiche
▁Grafik en
ump ing
▁Verzö gerungen
▁ge kauft
▁L ust
▁Welt markt
▁versch oben
v ide
▁Be endigung
▁best icht
mer zen
reg ierungs
▁Inner es
▁S omm
or gan
ver einbar
▁Frei en
ip el
▁schön es
▁Reihen folge
4 5
▁Tenden z
▁Tipp s
▁Cons ult
▁aufrechter halten
ber ger
echs elt
▁Vorber eitungen
▁Be achten
▁nör dlichen
b ry
m ir
iv als
▁geb illigt
▁197 0
netz e
▁Modern e
ich en
▁G ard
▁an bietet
ol ge
▁Sp ek
zei tige
▁Arbeits weise
schw emm
▁Phil ipp
men s
▁Qu ar
▁Berat ungs
▁kommerzie lle
▁Ankünd igung
▁L AN
om er
▁Er leben
▁Daten banken
▁klar er
spoliti ken
viel falt
▁bele gt
▁Soft war
an wendungen
ov is
▁Stabilität s-
k ri
▁k unden
▁Her angehen
rin t
▁Kre bs
▁Fer r
▁einsch lä
▁v ierten
al us
ehr ter
▁bereit zustellen
ard o
▁Par ks
bl es
▁Gen f
öl kern
▁th eir
▁stärk eren
▁konstru ktiven
▁belg ischen
m eid
▁n ament
▁neue ste
pl iz
▁schnell es
▁Le vel
▁Musik er
▁Christ demokraten
▁mar kt
▁jap anischen
p hen
▁P ier
ra in
▁H U
ab stimmung
▁Ex plor
▁einmal ige
▁Nicht regierungs
es ischen
▁G ala
▁C entral
▁J un
▁K örp
▁Be griffe
ab teilung
▁get renn
▁gä be
▁D ub
▁O m
ant eil
▁bes etzt
▁gef asst
ID S
an ern
ri o
▁ange hören
spiel er
▁u eber
▁grundle gend
o ok
▁ver schieben
äl er
▁breit es
▁Lay out
s ung
▁A rab
▁ben annt
▁belieb ten
▁N ukle
▁vor geschrieben
▁zukünf tig
▁nütz liche
us sten
▁ge holfen
▁wer te
▁beg reifen
▁Ta ste
▁Wieder ver
▁stren gen
▁bez aubern
▁Är zte
▁K m
▁Camping platz
h ungen
▁W agen
▁Sch uh
▁Invest ment
▁Zwe cken
▁bi ologischen
▁chamb res
▁zu geschnitten
▁For en
▁5 8
we be
▁Finanz märkte
w ehr
ö hnung
id ay
▁Ex porte
▁Sk ript
▁Eff ektivität
▁zerst ören
st reit
▁unter s
▁Vor wand
▁bevor zug
▁Dis play
▁gesellschaft liche
▁g ren
▁Befür cht
▁kompati bel
m l
▁ о
un tern
oh a
stimm te
▁Co unt
▁verein facht
▁Wh ite
▁Komment ar
▁Hong kon
▁J os
▁Fol glich
▁mak ro
f örm
▁D eine
▁D üssel
el ung
▁vor ne
▁Ma y
▁ges unde
▁Menschen handel
rän gt
▁wünschen swert
▁Dist ri
▁Statt dessen
▁Gastfreund schaft
▁S K
icht ungs
wär tig
▁Tr ennung
▁analys iert
▁Präsi dium
b ä
nt h
▁Bas el
▁Kop ie
sprogramm s
▁Reicht um
em issionen
▁e asy
▁verschw inden
▁Put in
f ab
▁er mitteln
▁y e
test et
▁B uffet
▁L etz
▁L ap
▁ha bt
▁Zusammen bruch
▁wor auf
▁Rele ase
▁L ine
▁drän gen
. net
a al
▁Mit wirkung
▁Ab gesehen
▁mehr erer
▁c omm
▁Hier zu
S A
▁ge werb
▁J agd
IN E
▁famil ien
▁hilf s
▁D ay
▁Jahres bericht
ilit ies
des ign
▁Sor timent
schnit tlich
inter essen
▁türk ische
▁müß te
h em
▁f rucht
▁unter graben
▁war men
▁Ö konom
bel ast
ä udes
▁g rüne
il a
▁t ausend
▁Er reichen
▁verl iert
ement s
▁Log o
rä der
EN T
▁unvergess lichen
f r
▁j unger
ag a
▁Verpack ung
▁ver sprochen
▁C oll
▁De fizit
▁vorge geben
▁müs se
▁tra in
▁unmittel baren
▁Rind fleisch
▁ver fahren
▁führ ten
▁fr ischen
▁star tet
öpf e
▁fund ament
▁K ernen
▁Dol met
▁verknü pft
▁M asse
▁C 5
▁Kons umenten
▁Luft verkehrs
6 5
A E
l é
▁R äum
▁Auf träge
▁Stand punkte
▁Kam in
▁Straßen verkehr
m iss
▁f eiern
▁so zusagen
▁mehr mals
▁weiter gegeben
▁For st
▁Spiel raum
▁intern et
▁Legitim ität
ür fen
▁an stelle
▁Be weise
▁nach voll
▁unab ding
▁P u
si gen
▁Grund freiheiten
▁Roh stoff
▁Tib et
c ess
o ul
ich e
is a
▁ersch ien
▁Tem pel
▁wettbewerbsf ähig
▁Viet nam
sch u
▁Z igar
▁Ge geben
lä ß
rich en
▁ab geb
▁ausge arbeitet
ator ium
c er
▁n um
▁Sch okol
▁c our
▁Gesch ichten
▁Binnenmarkt s
▁Ander s
▁ökonom ischen
sch ei
▁min utes
▁unterst reicht
b ö
▁s ite
▁Or ts
▁Verm eidung
▁bat hr
c op
▁bereit stellen
▁effek tiven
▁Cop yright
▁korrig ieren
▁Vermarkt ung
▁Unionsbür ger
▁ge klärt
▁wo zu
▁Vir en
▁Lei p
▁münd liche
▁bedeutend sten
▁Kühl schrank
▁S äm
▁Im pf
▁Kl ick
▁Gleich behandlung
s u
on ial
ge kommen
▁Ganz es
▁außergewöhn liche
w en
▁unter einander
▁gew ann
▁Energie versorgung
▁Informations gesellschaft
▁C R
lag ern
▁Rahmen s
▁Sek ret
▁Territor ium
st uf
▁w ho
▁Man chmal
▁Leist ungsfähigkeit
▁gelten d
▁wunder bare
▁Les er
▁Hil fen
g on
▁t od
ag ing
recht liche
▁Fest ung
▁fried liche
▁Ausnah mere
▁in iti
▁Hin sichtlich
▁Fok us
ück t
▁häuf iger
tief st
▁b ack
▁B ib
▁Aus ser
▁Ab fälle
▁Ma ter
▁So uth
▁pla ce
▁14 0
▁gez ielt
how s
▁landwirtschaft liche
▁ignor ieren
▁Berech nung
▁g rand
▁O ffiz
▁Priv atis
▁ausgestat teten
sproblem e
▁zu tiefst
▁T oleranz
▁durch gesetzt
▁Ste u
▁mo st
ive aus
▁Neu igkeiten
▁wenig sten
▁vers etzt
minister ium
▁effizien ten
▁Orien tierung
ie ter
▁w a
▁H eiz
riv e
▁hinzu weisen
ä ssi
▁Zug leich
othe ken
▁Stellen wert
▁Künst lern
▁S ir
ro ss
▁Parlament arier
iz a
sor gt
▁schwer er
▁Jose ph
in ischen
über wach
▁gesch eiter
▁Nachfol ger
▁vorange gangenen
g ol
g ungen
▁H unger
la b
▁Frei e
▁Char les
bie tern
▁korre kte
▁Ziels etzung
▁arg umen
l uft
▁P ad
▁T hr
▁gleich berech
▁H els
eben e
▁recht lich
▁genü gt
▁Persön lichkeit
C P
▁W E
▁an st
ann ehm
▁Rat spräsidenten
▁besser es
▁unver bind
▁Netz es
ied elt
▁Muse ums
schw ung
▁d on
▁Sta ff
▁Eur or
▁intensi ve
▁vorrang ig
▁Getrei de
▁C ir
ahl en
sk raft
▁Ad ri
▁Vers icherung
▁Komponen te
▁kons ul
▁Simbab we
▁S ier
▁I F
at ie
▁di verse
W E
▁ge folgt
▁auf re
▁groß artige
our ismus
▁rei z
▁umge kehrt
▁indir ekt
▁un vor
ser klärung
▁be ach
sp aren
▁St ränden
▁zahl t
▁Met rop
▁vorhanden e
▁Chem ikalien
ar ge
▁qu an
▁Install ations
▁Verk nü
▁Ernen nung
O C
▁G ames
urop as
▁Ma ur
▁gew ählte
▁viel fach
▁einzu sch
▁Reserv e
▁G ay
▁Komp on
▁Lou is
▁f ung
de uten
▁Navig ation
▁Wurz eln
st unden
▁Sp ec
ant rag
▁zwei mal
▁Kl uft
▁Mö chten
▁Wahrschein lichkeit
▁B our
ri ffe
▁Be steller
▁Er rungen
▁bet ra
▁Entscheid ungs
▁Mot oren
▁optim alen
▁Tun esien
▁Buchsta ben
u es
an sprüche
▁zu lässig
▁entsch uld
burg h
▁hinter lassen
▁leich ten
▁Parlam enten
institu tionen
▁Argentin ien
teil te
▁lang jährige
an b
▁K ul
▁T ru
▁Ph asen
▁Cas a
▁Kl är
▁Finanz iellen
▁Au di
▁Groß e
▁Bus se
▁Informations -
▁grün dlich
▁fehlen de
▁Parad ies
▁Rich ard
р е
▁F ett
▁L t
▁Fran ce
▁E ro
am i
▁bes agt
▁Sing le
▁finanziell er
▁Quad rat
▁ge testet
qu ar
▁um stritten
ib r
▁Verkehrs mittel
▁Ass oci
▁Fri sten
▁Kernen ergie
▁Sp enden
▁verb ieten
ay a
▁Fran cis
▁vorsch lägt
▁F unk
▁ge teilt
▁wahr nehmen
▁veröffent lichten
▁Annäh erung
▁d ei
zuf olge
▁umfassen des
k rie
p ut
▁a p
▁n ett
▁ab sur
▁Land schaften
▁Haushalts jahr
▁Dör fer
▁UR L
be wertung
stechn ologie
▁Indust riel
▁schwar zen
6 8
▁d roht
▁N ero
▁ausge glichen
▁Bru st
▁verwirk licht
b inden
▁zu gewiesen
▁Zu erst
▁Et agen
▁an melden
▁Ab onn
▁b elegen
il er
▁Auf rechter
▁c re
zut eilen
▁Wahrnehm ung
▁ein zustellen
▁Ge ber
ke p
rat or
▁Innov ations
▁Jahrzeh nte
herr schaft
▁M O
▁M achen
▁ge treten
▁Ph arma
▁herunter geladen
kam era
us alem
du ktion
ogra fen
▁Schi ffen
▁CH F
▁Acc ess
▁Ein ladung
schie bung
eigen en
pl äne
zü gen
▁Kam eras
zwe ck
▁Mitent scheid
▁M att
▁All ah
▁K ing
land es
ar tikel
▁Ver lag
se g
ri ffen
pf l
▁de cken
dien sten
▁Abw eich
st ik
▁f irst
▁r isk
▁7 2
markt es
▁Stimm ung
▁größten teils
▁Sign ale
t r
sch wei
▁W ettbe
▁qu i
▁ph ysi
▁Infrastruktur en
▁Nahr ung
▁stabil e
▁koh ären
▁ab ges
▁al ter
▁gra f
▁Mü he
▁schwed ische
▁m ieten
▁Auf stieg
▁ges orgt
greifen den
▁Nord ir
▁regel mäßigen
▁zwangs läufig
sch äden
▁Re den
ün deten
▁Unser er
▁To il
▁f ä
▁unter halb
▁Ab wicklung
▁kompl iziert
tensi v
▁f liegen
▁Mittel -
▁Anmerk ung
▁Exec utive
▁Säm tliche
▁G VO
▁Lös ungs
▁beant ragen
▁Def izite
▁islam ischen
▁Mehr ere
▁Ern ährungs
anspruch nahme
▁Gri ll
▁Str assen
▁Dolom iten
▁l atein
▁Gleich heit
▁Konzer te
x en
▁d oppelt
▁R iesen
de fin
▁engl isch
▁real istisch
▁Welthandel sorganisation
h u
▁S QL
ad et
▁tran se
▁Assozi ierungs
▁gesch ätzt
▁Stu dios
▁erweiter te
▁Automobil industrie
▁Subst anzen
▁Säu le
er be
▁K en
▁vor kommen
▁3 50
▁5 7
frist ig
▁Behinder ungen
▁Telekommun ikations
en se
▁w it
▁P ubl
▁t wo
▁Aus sichten
zu heben
▁13 0
▁Versch m
cy cl
▁Appl ikationen
▁an lässlich
la fen
äl en
od y
▁amerik anischer
▁su bst
▁D oha
ag og
▁Di fferenz
▁an tiken
▁t oll
▁gewöhn lich
P ro
T V
is ol
▁g ol
▁be stellt
▁j u
fahr zeug
▁Sicherheit s-
▁Plan et
stu hl
▁tatsäch liche
▁arbeit s
т о
▁S uchen
▁Par allel
▁Sp äter
gel ände
▁Wachstum spakt
▁w ünscht
anz ler
ho tels
▁Gew issen
▁Beg eister
▁Sh opping
▁Tur m
▁abz ielt
▁un gen
▁D I
▁P y
hal ter
▁verb reiten
▁parlament arische
▁beeinträch tigen
r el
▁A IDS
ver treten
▁O x
▁Projekt es
st abilität
▁an streben
fahr zeugen
▁Inf os
▁Aufrechter haltung
▁Spiel ern
▁au di
▁re ale
▁Y acht
▁schön er
▁Nacht eil
▁beant ragt
▁mon at
▁ener g
▁Liby en
st ent
▁R et
▁Aus kunft
▁Fra cht
form at
sb as
▁ste ckt
▁Zent ren
▁Eleg anz
ge halt
▁G ood
▁L amp
▁Ent deckung
pp er
▁schnell st
▁Konflik ten
far ben
▁A S
reich enden
▁einz eln
▁Ko ali
ied lung
z ucht
ä uft
or dern
▁B in
▁be wirkt
▁p osition
▁kon vention
▁Teil nehmern
▁Beitritt sk
roh ungen
▁Mic ro
anw alt
m ü
u eller
▁Landwirtschaft s
läuf e
▁Tro cken
▁sex uellen
c ts
ow ski
▁Bef örderung
▁ausführ liche
▁Bör sen
▁Frü chte
▁A ven
▁L ud
▁Mon opol
▁Nachbarschaft spolitik
▁Entschäd igung
▁bet reibt
ss on
▁I R
▁Sol ange
▁persön licher
▁Prin t
äss ig
▁D C
▁R äumen
▁Allgem eine
▁Gaz a
in te
ge ts
▁Reg ister
reu en
▁Squ are
st eine
▁Sp l
▁klar es
▁belieb testen
lan ge
▁Don au
k le
n ik
te am
▁G ru
▁ver glichen
▁t ho
▁Sp am
▁re volution
▁bef riedigen
▁Li quid
▁Ro ute
▁Peti tions
c an
▁ein geben
▁z iti
ent sprechend
▁sp äten
▁lie ßen
▁Eben falls
▁ra dio
▁glob al
▁Einw ände
▁Frankreich s
▁Gesamt heit
▁ge druck
▁Zeit ungen
▁Über w
▁abend s
▁Parti tion
▁E gal
▁f iel
▁an fangen
▁Sch le
ist et
▁Ges etzen
▁At hen
▁benö tigten
▁Kos me
▁öst lichen
▁k ünd
▁R ap
▁ver trag
▁Ar tikeln
wick elt
▁bekräf tigen
▁dän ischen
▁G erne
▁G PS
▁Ver schieden
▁genau en
▁Christ ian
g rö
s et
▁Geschäfts führer
▁Außen grenzen
part ei
amerik anischen
▁Pfer de
f assungen
▁E T
▁V ölkern
▁ge forder
onen ten
▁passen den
▁tour istischen
▁ge änder
▁C ab
▁ausge übt
AR E
▁Air lines
gesetz te
▁koordin ieren
▁Imp ulse
l em
▁D oss
aus stattung
B C
▁ausgewogen e
▁d or
▁1 10
▁mein t
▁bek am
▁Vol umen
▁Kranken haus
, 9
▁Automati s
▁allmäh lich
▁gelö scht
▁h ängen
tig ungs
▁Welt meister
▁intensi ver
▁industrie lle
b rü
b io
h us
▁T ot
be stimmung
▁festge halten
c ol
▁In anspruchnahme
▁Staats bürger
ar tig
▁f otograf
▁N orth
▁st oppen
gi pfel
▁damal igen
st abil
▁h et
▁W W
▁Al ger
m il
▁N ok
▁An zeichen
▁bes ichtigen
▁18 8
▁Dafür halten
▁religi öse
▁nachzu denken
veranst altungen
▁Verfass ungsvertrag
▁ein leiten
▁n ahmen
▁G ö
ers atz
mer kt
▁Internet seiten
▁Augen merk
▁Oper ationen
▁vernünf tigen
c ast
▁S W
▁Ch i
▁optim ieren
▁Engl ish
▁tie fe
▁Workshop s
▁S in
▁p ubl
be werber
hand lung
▁gesetz lich
▁qualifiz ierten
▁Tschetschen ien
w achsen
▁st o
▁Mit bürger
▁em o
▁jähr liche
viel fäl
▁Inf o
▁griech ische
ökonom ischen
▁A .
▁th an
▁Chr .
▁grün den
▁Ern euerung
▁Hy per
▁tie fer
, 2
F P
▁T ut
ul ationen
▁op en
▁Kraft stoff
▁verstär kten
▁gül tigen
▁Nichtregierungs organisationen
▁ein bringen
▁Untersuch ungs
▁Zer tifizierung
▁Indik atoren
ten eg
ri um
▁em p
▁Vertrauen s
▁renov ierte
▁Konvent s
▁Immun ität
i fik
▁R A
ste ten
fe ct
▁fünf zehn
PE G
ü sten
▁ räum
al p
▁er for
▁be weist
▁CD s
▁beunruh igen
▁A z
▁f ix
▁da y
▁Sch lei
au tif
beh alte
schein end
▁Spe ed
▁Zivil isation
▁iP od
▁Engine ering
▁Präz ision
a iss
▁T ast
▁immer hin
▁Kre atur
▁voraus gesetzt
in frastruktur
▁ha ftet
▁So fern
▁5 9
bau ten
itt le
▁Sier ra
▁n u
▁L ett
geb ir
▁Qu e
ele ct
▁Jahrhunder te
▁geh ei
▁Dikt atur
▁z og
▁H äuf
▁st euern
mer ken
▁verb rauch
ink i
us se
▁V ierten
▁In so
▁Ta sten
▁hinzu zufügen
l eit
ö cke
▁m uch
ul pt
▁So fort
kon troll
▁Finanz -
▁Namen s
m ischung
▁B org
▁h ome
▁er l
▁Ar ena
ed es
üt ten
▁Ex ek
▁gehör te
▁Raum fahrt
preis es
▁Passag iere
n ame
▁K ant
ho use
▁Recht ssicherheit
ub s
▁War craft
▁leg te
▁bemer kt
▁fac ilities
▁veran l
sfrei heit
▁Sad dam
▁h om
re ben
op tionen
be arbeitung
▁Ad d
▁Rück tritt
▁Gesetz geber
▁Zentrum s
▁pl ant
▁Erd öl
▁Indones ien
, 3
U L
▁T ap
▁schw ach
▁veröffent lichte
▁Komprom isse
velop ment
▁Ansprech partner
, 6
lich sten
uf fer
zu er
fahr ung
▁bet rachte
▁Verw alt
▁fr ische
▁Ele ct
ien e
staat liche
▁Fot ok
▁erreich ten
▁Klei dung
▁Explor er
, 4
k anischen
▁Ein bindung
▁So f
▁Tag ungs
▁Son gs
▁Prof .
▁uner w
▁Turn ier
▁M i
▁W ood
si a
ad el
▁Sti ck
▁Erd gas
▁engag ieren
antas ie
a e
▁H IV
▁An sätze
▁J ar
▁Gl et
▁Zwei f
▁eig nen
▁Inso fern
d igt
▁ern annt
▁vorzu bereiten
würd ige
▁maß geschneider
▁geschmack voll
▁Stockhol m
a sten
▁Ver gabe
▁Stellung nahmen
s bereich
t é
▁Th un
▁Sicherheits rat
▁Termin e
pal ette
▁b eschäd
▁Dienst es
▁Fir st
▁eh e
▁regel mäßige
▁frü here
▁vorzu schlagen
▁gesetz liche
sko dex
st euern
▁k os
▁be ding
▁Sozial politik
▁fort zusetzen
▁erf assen
▁überra schen
.S .
▁S änger
▁ein setzt
▁Her stellern
ru hen
änd igen
▁Natur katastrophen
▁Sport s
▁audi ovis
▁H unde
▁Gl ücks
inge hend
▁B ell
de fizit
▁Er leichter
▁e ven
und et
т е
st ätte
sprech ung
▁weite m
▁Düssel dorf
z el
um pf
▁ausge drückt
▁berühm t
komp lex
▁engl ische
▁beglückw ünsche
▁vot es
▁Se villa
▁fort geschritten
▁Viel mehr
▁Brü der
▁E ast
mit te
▁aufge worfen
▁Sing ap
▁Plug in
▁B reit
▁t olle
▁bef reien
▁Em o
▁Gast ronomie
▁iden tifizieren
▁Ul tra
▁O t
▁Vor behalte
▁günst iger
▁EW G
▁Liebl ings
b ringt
▁K DE
▁C .
▁re ad
▁abzu lehnen
▁wiederhol e
▁Euror aum
d as
▁K andid
▁sch merz
di mension
▁Qu er
▁Sti ft
▁Vi llen
▁dauer haften
▁Zut aten
O F
ein s
▁s y
▁Z eile
▁Min imum
ange hörigen
fra u
one y
▁Gef ähr
bereit schaft
▁Geburt stag
▁Er stellen
▁fest halten
▁X ML
▁chem ischen
▁Nik on
▁Nok ia
G A
ei gert
iti s
▁Ho heits
ek tiven
▁Schwier igkeit
▁Trans it
▁letzt es
k enntnisse
m ischen
▁h arten
▁H ir
ber gt
▁Sie mens
ver folg
▁unter strichen
▁Angeb oten
▁tä gliche
▁un gerecht
▁V IP
änder ungsant
▁Entwicklung spolitik
zept anz
▁illeg al
▁röm ischen
. jpg
▁e en
▁vert rieben
berech tigung
▁Result at
▁ber ührt
▁Finanz rahmen
▁Hels inki
▁D ü
▁B ach
▁F le
▁F rucht
▁C P
au ert
ger en
ic i
fol gerung
▁pro test
tem peratur
▁Ferien haus
▁Auto verm
▁zivil en
▁mangeln de
▁b ot
▁W M
▁Im porte
▁Bes etzung
▁Dom in
▁zuver lässige
u ben
▁K ammer
▁Ver y
▁C e
▁best anden
▁Inter face
zut reten
▁wert vollen
▁archite kt
▁ge achtet
▁de aktiv
arbei tete
▁sauber e
▁dah ingehend
material ien
her z
omen te
▁Gest alt
▁Entschließungsant räge
▁Multim edia
▁p aten
ri ken
▁Lin ken
▁bed ürfen
▁Natur schutz
jähr iger
▁Komplex ität
▁diver sen
▁ reiche
ed a
▁ander sw
▁erz ählt
▁Lauf zeit
▁außergewöhn lichen
kir che
▁B reite
▁Ver stoß
▁l oben
▁Auf lagen
▁le gend
▁Kre dite
▁H art
am ik
▁Ein reise
▁Mar c
▁Fahr zeugen
u i
▁und er
▁F I
▁H ein
▁über t
leich en
▁zw in
▁Artikel s
▁Demokra tien
▁Rede zeit
▁steigen den
▁Zw angs
▁fühl t
▁erkenn bar
▁G all
▁auf weist
▁bei zu
▁c ol
kon trollen
▁fort schritt
▁Tre ff
▁Fortschritt s
▁ Š
▁m achten
▁R SS
▁aus genommen
▁ausge stellt
▁ex tern
▁seit dem
geord net
▁Nutz ern
▁amtieren den
▁benach bar
▁B re
ber eitet
▁Auf klärung
▁amtieren de
▁aus machen
anz ut
▁ab schließen
leist ungs
▁geschlossen en
▁absol v
▁Persön lichkeiten
▁Mold au
▁un um
ein halb
▁Termin al
▁Gewähr ung
▁koordin iert
▁Vic tor
M ail
▁K oll
▁t hr
▁Ch ir
▁Maß stab
▁Führ ungsk
▁erfahren en
▁tschech ischen
▁woh in
, 8
6 6
w ing
▁m ech
▁W andern
▁G anzen
at on
ön e
ha be
wär tigen
▁Bundes republik
regel ungen
▁grat ul
▁Gegeben heiten
fiz ieren
▁abzu schließen
m ission
n ütz
▁d ün
▁d ruck
▁P aar
le hr
zu halten
▁en ergie
▁Sk ige
▁fe ste
▁Typ en
▁moral ische
sch üsse
▁F ru
▁l ehnen
ein stellungen
ll es
▁f lo
▁ge p
ik i
▁Zeit alter
▁Ti me
▁off er
▁Kä se
k ä
le uten
ab schluss
▁Fab rik
г о
▁un weit
sch wer
▁m ach
▁ge führten
▁automati schen
▁Kan äle
▁Ganz e
ein g
▁P ed
▁p ool
▁aut on
grün de
▁n am
▁ber ufen
▁8 8
ater ial
hunder t
▁Netz werke
▁wunder baren
va il
▁Zwischen zeit
, 7
P ress
b ücher
▁S U
▁den kt
pf lanzen
▁bek ämpft
▁Ad ap
▁Fol gendes
▁Institu te
▁unver meid
▁modern sten
▁kat astrop
▁Begeister ung
g eist
▁M ED
▁be achtet
qu oten
▁App art
▁einzu leiten
▁Fuß gänger
▁Altern ativ
▁transatlan tischen
2 2
beh altung
▁ak tiver
komp l
▁verlänger t
▁h ört
ter in
▁L etzt
eh nten
ah ll
▁aus b
sol ven
▁anzu gehen
▁Erk enntnis
▁Pek ing
▁H ä
▁Vor sicht
eb el
▁Bes ser
▁Mittel alter
bild ungen
pen sion
▁Landwir ten
▁geräum igen
▁dir ekter
ennt nissen
▁Übersetz er
▁bus iness
▁benachr ichtigt
w anne
▁h ôtel
▁wir ft
▁er we
ul den
▁Schul ung
▁Italien s
▁Hoff nungen
▁Einkommen s
▁Streit kräfte
▁Ve get
H R
▁G n
▁T ok
▁ver teilen
▁St örungen
▁bas ierend
▁Übersetz ungs
▁er suchen
ck et
▁ent lassen
▁Beitritt sverhandlungen
▁Schott land
k ammer
ild ing
▁Wer de
▁ar t
ator s
▁verein baren
▁vö ll
▁eleg ant
▁abgesch afft
▁inwie weit
k räf
sp aket
▁C ann
aus wahl
kun de
▁Gegen wärtig
▁ausgew ählte
▁Atom waffen
▁Hongkon g
▁E ck
▁ver weist
ru p
▁Bel ie
stre cke
person al
▁nör dlich
▁sin ken
▁Diagn ose
▁ges ucht
▁Fl üss
▁6 3
▁El ite
▁el ement
▁Autor ität
strö m
▁katastrop hal
▁er ober
▁t at
ran sport
▁notwend iger
▁Ak zeptanz
▁verbind lich
▁Cre w
c ing
▁Ha llen
▁priv at
berat ung
ir o
▁V ö
▁Ch ic
▁wahr genommen
programm s
▁tot al
▁Residen ce
▁benutz er
▁M id
▁K eller
▁zu greifen
▁Wer ken
r ichter
▁F un
▁R ichtigkeit
▁Ch ip
rän kten
t rib
ier endes
▁beh indert
▁Ein stieg
▁Über trag
▁bereit gestellten
▁leg itim
j oy
r ar
ung al
▁Europä isches
zei le
▁Bro sch
▁blo ß
si ge
▁Pro gn
▁Er hol
▁Mon teneg
▁Fir ef
▁Rot h
▁Wander ungen
▁kop ieren
▁Kapit alismus
n d
▁- A
ph ase
▁beob achtet
▁Jer usalem
t okoll
▁Z eilen
▁In spe
stand es
▁ch ron
▁vorher r
▁Sy ner
▁Vertrieb s
▁Genau igkeit
▁vot re
▁beher bergt
▁M ord
ver mögen
ap par
▁Sa v
▁Vort rag
▁Luf tra
ber uf
▁ausge hend
▁gesch ätz
eite te
▁sozi o
▁Höhe punkt
▁Königreich s
mode lle
▁dynam ischen
-- --
▁schlimm sten
. ch
▁M .
▁L ü
▁er re
▁Tra ck
▁Sozial isten
▁Hindern is
▁andersw o
▁Firef ox
ö pft
un ta
▁h ör
▁g g
▁Besch leun
▁säm tlicher
▁ausger üstet
t chen
▁W ach
ck ten
▁Sen sor
▁Ged anke
▁Anp assungen
▁Straf gerichtshof
▁ag ieren
▁pf legen
▁B ruch
▁Über mittlung
▁Publik ationen
▁Chem ie
7 7
▁d an
▁B lei
▁M E
ger s
mit h
hält nissen
▁Hunder te
▁Leip zig
▁N eg
ahr scheinlich
▁sch ien
▁Co .
▁Olymp ischen
▁Technolog y
▁leistungsst ar
▁gratul iere
T EN
etz e
▁Ent täu
▁Stand orten
▁Verhalten skodex
▁Phot os
it é
▁t re
▁Kon go
▁r umän
gie b
▁Schließ ung
▁Erk rankungen
▁syn chron
n ächst
ö ser
▁L ED
aus bildung
▁empf ind
▁Mig ranten
▁legisla tiven
▁asi atischen
▁Besatz ung
he d
▁Her zlich
▁ange führt
AR D
▁Rück sicht
▁irgend eine
▁gemeinschaft liche
▁ ol
▁S CH
el ess
▁an zusehen
▁Bet räge
▁and auern
jen ige
▁Schwer punkte
▁Quart al
▁Ver gessen
sto ckung
▁bew ahrt
ES S
▁attra ktive
▁diesbezü glichen
▁E B
▁durch d
▁gest richen
stra hlung
tis h
▁Beg ren
▁App ell
▁Mitglieds staaten
▁Telekommun ikation
▁S udan
▁N oten
sp iegel
▁will kür
▁bekannt lich
sprogramm en
▁Ed in
▁vergleich bar
▁tie fen
▁österreich ische
▁Zustell betten
I O
k w
▁ rat
▁ old
▁un geh
▁K it
▁p rinzip
▁- B
▁Dienst stellen
▁dort hin
spart nern
▁Gemeinschafts recht
▁dynam ische
▁pe ople
▁ hr
▁Nach weis
we sten
▁führen der
▁Con trol
▁B ogen
▁h y
▁für chte
▁Er ziehung
bet rieben
▁Mann schaft
▁m erk
si sten
ri x
▁vor anzut
▁Pro mo
fü g
▁best raft
▁Währ ungen
▁überw ältigen
▁P osi
eh ne
▁C ô
la sten
▁Tag ungen
▁Prof it
▁block iert
▁Stabil isierung
▁Vie h
▁p rag
spezif ischen
▁O ft
▁Ta schen
▁Bot schafter
▁Fü lle
▁mark iert
▁voranzut reiben
ein satz
▁Gen fer
▁ro ten
▁J ak
▁Sozial partner
▁Wohn sitz
stechn ologien
▁v ar
▁be dient
ah ara
▁zusammen gestellt
mäß igkeiten
▁stabil en
▁gepf legt
▁Kolum bien
. 3
b ot
n ier
stimm igkeit
itu ationen
▁Jahre stag
▁Ur lau
▁abzu geben
spart eien
▁ag gressi
▁künstler ischen
▁verhe eren
g io
i dem
▁m ache
▁Hand buch
▁Gleich wohl
▁erwar te
▁event uelle
▁Schluß folgerungen
ge k
▁R eit
▁er mittelt
▁En des
▁qu er
▁rel ax
▁Nacht leben
▁gemüt lich
▁mobil en
▁hal ben
▁anspruchs volle
▁stre ben
O B
▁M uss
▁W eit
▁Un regel
▁dazu ge
k riterien
▁B ig
▁auf halten
eh ls
▁re ally
▁kon stitution
▁5 1
▁dür ften
▁Industrie politik
▁Jahrz ehnt
▁Verh inderung
ie ur
▁n nen
▁f ahr
▁f ood
▁P au
▁R y
▁Li zenzen
▁Wechsel kurs
e ffizien
▁Zu schauer
▁Bürger rechte
▁zurück kommen
▁Jahres zeit
▁verd anken
▁Ren aiss
▁kommun izieren
▁Zin sen
▁d un
▁un voll
▁bet reut
▁Finanz minister
▁Wohl er
▁196 0
▁gol den
▁J on
▁7 8
▁Die jenigen
▁Ab fahrt
▁Hand hab
▁ser b
▁Festpl atten
▁Fotograf ie
w ider
▁K ost
▁Um stellung
▁wenn gleich
▁klar stellen
▁Ged ächtnis
gül tig
u ge
▁K orea
▁L ight
▁C er
▁Vor gang
ac io
▁198 8
▁Et age
▁Entsch uld
▁Meinungs äußerung
▁multilater alen
▁Wä sches
▁N an
▁2 ,5
▁ak adem
▁Hoch schulen
▁Priv ileg
▁s elt
de p
▁T s
▁auf hören
▁An sprüchen
ett a
▁Geb äudes
▁Brü cken
▁geräum ige
riz ität
в а
▁d rohen
▁S MS
▁b rei
▁Ver schw
▁es p
amm ent
▁ex akt
cycl ing
ch ern
▁P opul
▁F riendly
▁Sch ritten
▁Er fassung
og a
▁For mate
ungsver hältnis
▁mittel -
▁Wohler gehen
d ar
w elle
▁ †
▁E v
▁P i
▁G P
▁H ung
▁er bringen
ol ogen
▁J .
▁ausge liefert
▁K riterium
▁W ur
▁Hotel zimmer
▁gesch enkt
▁Fischerei abkommen
t ätigkeit
▁p ublic
ha i
▁Grund prinzip
od a
▁Do ktor
oli ber
▁prag ma
l änglich
▁F usion
▁F eiert
▁Über schwemm
▁mus lim
▁Sitzung speriode
▁nied rige
▁Servic el
▁Lieb haber
▁v ide
it är
▁P rie
op oliti
▁Da von
▁ne ar
verb ot
▁mittelalter lichen
▁aufr ichtig
b eschäf
ar isch
▁M au
▁G öt
▁Kon solidierung
▁Sen der
▁Flücht lingen
▁städ tischen
▁Dres den
▁l eitet
▁ne ed
▁Beschwer de
ei s
▁D .
▁F ull
▁In di
▁St ate
▁An leger
▁unmittel bare
▁Gut es
▁attra ktiven
▁Ungleich heiten
mach ung
▁Räum lichkeiten
u is
▁w eich
▁Wir t
geb ungen
▁Te uf
▁Haupt ziel
verfahren s
▁Ref lex
▁begrenz te
▁Trink wasser
▁Wäsches ervice
sch äd
▁f ak
▁Dar aus
▁Cha os
▁Mittag essen
▁reserv ieren
invest itionen
▁wir st
tig sten
sta mm
fl ügel
▁Versch lechter
▁Zuf all
dy ll
▁veranst altet
▁Interpret ation
6 7
▁l ock
▁Sp annung
▁best ehend
zug ang
▁Schw anger
aut om
bet reiber
▁verm ieten
ar ien
▁H äusern
▁T osk
▁ver lin
▁über trieben
▁Aus sehen
▁Um w
▁c al
▁Grund stück
per e
ction s
▁begren zen
н е
ein richtung
▁L abel
▁aus zur
▁Gegen den
▁Ta uchen
▁Plen ar
▁virt uellen
▁k ol
▁H ill
▁zuständ ige
▁unglaub lich
g roß
▁v ierte
▁ver handelt
▁Er hebung
richt linien
▁6 2
▁perf ekten
▁Sach verständ
▁Halte stelle
▁s or
▁sich ert
▁p le
▁Ch ile
▁ausge prä
▁Finanz ielle
programm en
▁erhe bt
läuf igen
t um
▁E conom
▁h igh
qu alifiz
▁Band breite
▁kre ative
schnit ts
▁Hann over
▁w ach
▁G R
▁über leben
▁ab hängen
▁verl ang
ungsf onds
▁Afri kas
▁sign ifik
▁verschär ft
4 8
p ra
▁P ublic
▁An sehen
▁unter gebracht
▁de kor
▁Bei behaltung
▁Rei fen
▁Entscheid ungsf
▁Sol ution
agentur en
▁Begl eitung
▁europa weit
▁f ind
▁Auf preis
▁Pal ma
würd igen
tain ment
▁Behand lungen
E E
ei gung
▁b aut
au scht
▁vorgesehen e
▁Herz eg
▁R aketen
om o
▁C all
mar ken
▁Nacht eile
▁intelligen te
k örper
▁m ade
▁T oten
▁In zwischen
▁el f
b ü
▁m .
▁C ub
tra gt
ht on
▁Zu liefer
▁posi tiver
sa ison
▁angemessen er
inform ation
▁gewal tige
l or
ent a
▁N erv
▁N etto
schaft lichen
▁Rat ing
▁Port folio
▁Erweiter ungen
▁i ll
re den
▁C ru
▁J ub
▁Sp an
ib an
▁Nordir land
▁Aus stellungs
▁kon solid
▁Ad ress
▁Hand t
▁Poten tial
▁Mü ll
reb ungen
▁grei ft
un s
▁Aus bruch
pro duz
▁Funktion sweise
▁Cl assi
▁diplomati schen
▁leid et
▁um gew
▁e chter
▁Zeit schrift
▁Best rebungen
▁Ak ademie
▁Spa ce
▁Elekt rizität
▁Tie fe
▁ ri
▁g än
▁ver setzen
▁An s
▁Bei spielsweise
scheid ungen
▁kommen de
▁beeindruck ende
▁Shop s
▁exzellen te
er ischen
▁h under
▁k ar
stell bar
ad os
gl as
▁intensi ven
▁acc ess
stä tigung
▁Mountain b
▁bathr oom
V IS
v ard
▁O LAF
ant o
io x
▁anzu erkennen
pack t
▁dynam isch
p reisen
ü che
▁m üh
▁Sie ger
ungs systeme
▁aufge treten
▁Flücht ling
zy klus
▁begrenz ten
▁S auber
▁ein setz
geben d
▁Schw ach
▁irgend wie
▁Vor mittag
est s
utz er
▁Früh ling
▁star ker
▁optim iert
▁Imp uls
▁Est land
dok ument
h och
▁F eier
▁ge heim
▁An schließend
▁kon sequen
▁schrift lichen
▁Allgem ein
▁kommun istischen
▁Anf änger
▁auf rufen
ell i
si m
▁nach folgenden
art h
▁Zusammen fassung
▁Maß stä
ari at
▁Pla ce
▁Sand strand
größ te
▁freiwill ig
▁massi ven
pliz it
▁Edin burgh
▁P atten
se x
▁altern ativen
▁Valen cia
▁Z ell
▁An leitung
▁Min de
▁untern ehmer
a ure
c as
▁S id
▁ein genommen
▁A tem
▁K alk
de hnung
▁T rop
▁St ress
▁Sp y
▁bes p
▁sol id
▁9 2
▁B irma
is c
▁ra tion
▁zerst ör
D A
▁E X
▁B ungal
▁St ufen
▁Sp eise
▁ausge ben
▁Kl aren
▁Aussch üssen
spro jekt
▁erz ielte
AS S
bil anz
▁Roh stoffe
med ien
▁beruh igen
▁S ens
ti me
▁zu t
▁T w
▁C lau
▁verw andeln
ian ische
▁Best ände
▁Schnitt stellen
▁kritis ieren
▁ein richten
om a
oh le
rin ge
▁lie fer
ffe e
ç a
▁w ind
▁b reiter
▁er holen
▁dir ect
▁Tex ten
▁Stre ben
sitzen den
▁t oler
▁Dem o
▁Bem ühen
▁morgen s
▁Ol d
▁Sym p
▁ste cken
▁Grem ien
▁Miner al
n ation
▁ger icht
▁Ste hen
▁aufge führten
▁mittel ständ
▁Semin are
▁K r
▁ver sprechen
end em
anz eige
eise ktor
▁Gen e
▁geb ucht
▁hervor zuheben
▁prof itiert
▁vers orgen
bür os
▁Reisen den
aller y
▁Mobilte lefon
▁Unter brech
▁verbunden e
▁198 6
wie gend
besch luss
▁anerk annten
▁fü gt
▁D os
über tragung
▁Un glück
ank ungen
▁gene tisch
▁Freiwill igen
autif ul
st ahl
▁un über
▁st ützt
üt te
▁zusammen gef
geord neten
sor ien
▁Kommissions mitglied
x ik
▁F uer
▁Sch ad
▁Sch riften
▁defin itiv
▁Chin esen
ar es
▁T ragen
▁Dies el
▁Pf eiler
▁gelegen tlich
▁Ed itor
▁irgendw o
▁Appl ikation
▁unzähl ige
f an
k re
▁an ger
ers eh
▁Bed rohungen
▁wirksam er
▁verantwortungs bew
▁Kla vier
fein d
▁Verbind ungs
▁Begren zung
ot os
ger lich
▁priv ater
▁Mode llen
▁vorzu gehen
▁Sil ver
▁massi ve
▁beauf tragt
▁gg f.
▁de zentr
▁bed ingt
▁Harmon ie
▁Mitglieds länder
ü chter
st ar
▁A LE
▁P isten
▁W ollen
▁L CD
il es
▁freund liches
h ü
▁H ass
▁Ä ra
ris iko
▁beschleun igt
▁Caf és
▁Jes us
▁Fotok op
7 2
▁ д
▁b uch
re gung
eil ung
ste te
anz lei
▁Bü gel
▁Bla ir
▁Cô te
▁un besch
▁E .
gen ehm
al in
▁V alle
re z
▁über nahm
▁Pro tektion
arbeit s
▁aufge geben
▁Angebot s
▁Voll ständigkeit
▁Vari ablen
▁maßgeb lich
▁s et
▁M ang
▁W ende
▁T eils
ag ten
ac o
feren ce
bo ot
▁Überein kunft
▁Ri ver
▁exp lo
▁l im
la v
amen ten
▁gesch ah
▁Preis es
▁Alger ien
sch ten
▁A y
le f
▁Sto ffen
▁bedeut sam
en ke
▁m änn
bar d
bei hilfen
stra ßen
▁Fest ivals
quen zen
▁erstklassi ge
▁Handhab ung
b aut
mm et
▁Pro be
▁ges enkt
▁bef reit
ond a
▁aufge griffen
▁grün dete
▁Privatis ierung
ser ie
▁weiter ge
▁gem achten
part nern
▁erh ielten
▁irgendw ann
▁Mü ller
▁jur istischen
▁q m
3 3
ch ange
▁B utton
▁F ord
▁Er mitt
▁- K
▁gem eint
▁Al arm
olog y
▁Stad ium
spro jekte
▁d ring
▁f örder
▁N on
▁dem selben
▁dem nächst
▁ent nehmen
▁Auf treten
▁bed aure
▁Reich weite
rans fer
ro v
▁re qu
▁beh indern
▁Kommissar s
▁Hand lung
▁Su ites
▁Ange stellten
▁Bel eg
▁ge fertigt
▁ge einigt
▁an schauen
▁durch schnittlich
▁verl ängern
▁versuch te
liefer ten
▁positiv es
▁ste tig
▁kostenfrei en
▁Varian ten
▁Verschlechter ung
c z
▁G T
▁ver läuft
sp rung
▁jem anden
▁Überw indung
▁st arb
▁O K
▁Ro sen
▁Ange hörigen
▁Wei s
▁k räf
▁be acht
▁Wort laut
▁Prüf ungen
k räften
▁ein beziehen
▁m ake
▁F ak
▁ver folg
▁be c
▁be geben
▁Be wirtschaftung
▁Ein stimmigkeit
▁Fra me
▁Stra fe
▁Download s
▁Symbol e
▁Sicher stellung
▁ tier
▁Mar co
▁Recht sprechung
okra ft
▁erz ählen
▁Fischer eisektor
▁Deleg ationen
▁char man
haf tet
▁weiterentwick elt
▁Körp ers
▁S ark
▁L eicht
▁Sch ätzungen
▁bet ragen
▁einz ut
▁Ko dex
tis mus
▁höher er
▁Schrift steller
▁Inn eren
▁iran ischen
▁Herzeg ow
▁S og
it ären
▁Ver sp
▁p hil
▁Re staur
rei he
gel ö
▁Te pp
▁Ur sprün
unter richt
▁bel astet
gewogen heit
▁H uss
▁be gan
ot a
▁fol gte
rück t
▁Gesicht spunkt
ou v
ose x
▁bill igen
▁verteid igt
▁widersp iegelt
▁hol en
d or
g re
ti tel
▁K ampagnen
▁C ot
▁j ung
▁man gel
▁versch l
▁Anw alt
▁che ck
▁korrig iert
F T
▁S M
ff ekt
▁re p
kehr ungen
▁Sti lle
▁Schul z
▁Design s
▁Konferenz -
te au
▁P ixel
▁T ak
uch tigkeit
il dern
ad resse
uropä ische
▁Verkehrs mitteln
▁Fluss es
▁Franz osen
▁einheim ischen
▁exper i
zuer halten
▁A ction
▁L iv
ser gebnisse
▁C ala
▁Fil men
▁Baum w
▁uneingesch ränkte
▁unters agt
b on
al z
▁F on
▁Auf stellung
▁Informations austausch
▁Cas h
öpf en
▁erhöh te
deb atte
den t
▁H ôtel
▁be ster
man ager
pfl anz
▁Tast atur
b our
ar ing
wei ß
sätz lich
▁großzüg ig
▁aufrecht zuerhalten
stär ke
▁N ür
▁Ein sparungen
zu gehen
ag ung
▁re fle
▁do uble
▁i dyll
▁f re
▁F C
▁R eh
▁ver sorgt
▁C i
assi v
▁wid met
▁Solar ium
▁t own
▁Ein leitung
▁ent ziehen
▁Di fferen
▁Tim es
▁beunruh igt
ñ a
▁sch all
▁sch einbar
▁r as
änd lern
▁Terr assen
▁Wellness bereich
sprech er
▁Evalu ierung
▁schuld ig
U B
y o
▁nach gewiesen
▁Zu wanderung
tin gen
▁198 5
arch ie
▁unterschiedlich sten
▁widersp iegeln
s c
▁f arb
▁o steuropäischen
▁Mus li
▁entfern ten
▁Per iode
iden t
▁Rab att
▁Gelt ungsbereich
▁in fo
▁Auf teilung
▁histor isch
▁pri m
▁fac to
▁Sl ides
▁in to
▁M omente
▁Ein erseits
▁ganz heit
▁Lie d
▁Wasser sport
▁Geschäfts reisende
▁entsprechen der
▁Geh äuse
▁Spec ial
▁un annehm
om an
▁qu iet
▁Unregel mäßigkeiten
F S
st art
um e
wer ter
▁Fre quenz
ile o
▁194 5
▁Bibliothe ken
▁einschlä gigen
▁f ähig
ra ul
um gebung
▁mit zuteilen
sp eicher
▁C anc
ag ne
▁beh eben
ve z
▁untern immt
▁Kontinent s
▁veran lassen
▁separ ate
▁OS ZE
▁Gewässer n
▁Steu ers
▁C el
▁ob gleich
▁Bal ance
▁Zus agen
▁getroffen en
ünsch te
▁miss brauch
▁Rek ord
c ed
▁ на
▁Aus lieferung
gew al
▁Bay ern
▁Ministerp räsidenten
▁Associ ation
g ü
ä chen
▁un kompl
▁N ächte
▁o d
▁Ein mal
▁Ro uten
▁Beweg ungs
▁Koali tion
p akete
r elev
is o
be ob
▁Be zirk
▁ex portieren
▁west liche
▁verbind liche
▁flexibl en
▁Generald ire
w ein
▁W ater
kon stru
▁erst mal
▁Kar ls
▁II .
▁Bade wanne
▁Trans form
▁Prop ag
▁GU E
▁hilfs bereit
▁Tosk ana
л ь
▁k apital
▁ver laufen
▁Reg ist
▁gew ahrt
▁Gemeinschaft sebene
sf ers
▁Veranst alter
▁betreffen de
▁ober ste
▁Dan eben
▁Behand lungs
▁Präm ien
7 3
▁an re
and ina
▁Kon tinu
▁sow je
▁Frei lassung
▁verw andelt
▁stell vertreten
▁Prot ot
▁Liefer ungen
▁israel ische
▁An ony
▁her an
▁Motor rad
▁Beob achtungs
▁Transa ktion
▁s em
▁s uch
▁T here
▁Sch ach
▁Sp ei
▁hin nehmen
▁einfach es
▁abge deckt
▁Geh ör
▁min imal
▁appell iere
H O
a bend
st eiger
▁M isch
▁Fl ucht
▁Sü ß
▁sex uelle
▁Ungleich heit
▁Residen z
belast ung
▁D J
▁k rei
▁ge ehrter
▁auf geben
os se
▁Ab reise
▁Auf stockung
kl icken
äng lichen
▁Hol iday
▁vorge tragen
▁Konfigur ations
▁E ier
▁0 .
wirtschaft lichen
▁bedeuten der
▁bi ologische
▁territor ialen
▁Feed back
überwach ung
w achstum
▁K ie
▁Pl attformen
▁Hand werk
▁König s
▁Bi okraft
▁dig ital
▁Pre stige
▁Rett ung
▁vertie fen
▁gän zlich
O K
U N
▁m ay
▁an scheinend
▁O EC
▁Aus zeichnung
▁Vor jahr
▁Auf tritt
▁ab schließ
▁Gem äl
spl atz
▁Verw enden
▁War nung
▁Car l
▁verurs achten
▁German y
▁Indust rien
▁Commer ce
▁Vierten s
▁h is
▁R üst
▁L etzten
▁Er sten
he ater
▁Ex cel
▁198 7
▁Bot schaften
▁Veranstaltungs räume
s ituation
un er
an bau
kl er
▁Ex empl
▁Pl ätzen
▁Con tainer
▁inform ation
▁Erd geschoss
▁Fax -
▁Mitent scheidung
gäng ig
n eu
es a
▁un auf
▁Lebens bedingungen
▁ehr en
▁ge denkt
▁L od
re bt
ill er
unter laden
▁Reisen de
▁Riv iera
▁Südtiro l
▁quan tit
c at
▁P V
▁ge führte
▁Vor behalt
ss ituation
▁ind ischen
▁C OM
▁uns icher
▁allgem einer
▁Bon n
▁verwende te
▁Ren ov
x y
▁B ron
▁V ot
▁über denken
ap eu
▁all tä
▁c arte
▁Durch führungs
▁Neu en
▁us er
▁kultur eller
▁bo ok
▁Bünd nis
▁sch aden
▁Kon zeption
▁Schul ungen
▁Lett land
▁S A
▁t rinken
ill on
ill igung
gl .
▁stär kt
▁Befrei ung
▁W .
▁G ab
ier bare
ck te
▁N ar
▁J ord
▁ange kommen
▁belieb ige
disk rimin
G H
sch ätzung
▁R ic
▁t ak
▁Luft verkehr
gesetz gebung
▁Erzeug nissen
▁Ker amik
▁ enden
▁Un recht
▁Inst abilität
ta uchen
▁Besch ränkung
▁hoch rang
bel ebung
▁ö fter
▁transparen te
▁herkömm lichen
▁park ing
▁über arbeitet
oh ne
▁re chte
▁Bei hilfe
▁beh ilf
▁Pf eil
▁wissenschaft lich
▁Christ us
▁orien tiert
▁A ma
▁p läd
▁Be antwortung
ist isches
▁bes uchte
führ enden
klär ungen
ator ischen
▁Best reben
sprü fung
▁Dig it
arn ing
▁n ein
▁Sch auen
ed ition
▁mö ge
▁6 6
▁Inst anz
▁Wiederauf nahme
▁AL DE
a j
g asse
er zeugung
al m
▁C up
▁r et
kl ick
sel be
▁Verh eugen
▁OEC D
y k
▁S end
ge gangen
▁M ale
▁P osten
lo gen
▁Fahr en
leben s
▁Bestand teile
▁bilater ale
▁Gefü hle
▁Herzegow ina
m und
к а
▁B R
▁k enne
rä te
▁konkre ter
▁problem atisch
▁Zusammenhalt s
n itte
▁S ab
▁k alt
ser t
▁C orn
▁vor wiegend
zie he
▁wieder auf
▁ob liegt
▁Min ist
▁Ha iti
▁Mail ing
▁Wieder ein
AN T
▁pri ce
▁Sozialdemokra tischen
▁Ök os
beg inn
▁Entscheidungsf indung
▁a vail
sch lüssel
uch tet
si der
▁Aus lands
sk y
▁ehrgeiz ige
▁verwei gert
▁auss ieht
▁Lap top
st ationen
an sion
▁E IB
▁H P
iz il
▁hinaus gehen
▁unver ändert
▁Kn oten
schi ffe
u v
▁to o
▁Res earch
▁Erw äh
▁Profession al
▁christ lichen
▁Mitentscheid ungsverfahren
O G
z z
▁w eise
▁l öst
▁In tensiv
▁unter richtet
wer en
ok e
▁Gra b
▁Rund funk
▁Sä ulen
ú n
▁g alt
▁Z üge
op e
ce pt
▁wunder bar
▁Präsidentschaft sw
▁Mark et
▁To de
▁verf asst
▁Verst öße
famil ie
9 5
▁a fter
▁ein räumen
▁F ut
lei teten
▁Gesellschaft s
▁vers ichert
▁Verpack ungs
▁As hton
▁Autoverm ietung
ur ger
gen au
▁er zeug
▁ver voll
▁In folge
▁de f
▁gesch icht
▁di fferenz
▁heraus zufinden
▁Gast geber
▁Konserv ativen
▁Ausser dem
▁behilf lich
▁d achte
▁P ot
▁er r
▁nach kommen
ag te
▁Berichterstat tung
▁Innen hof
▁äl teste
zwe cken
▁zweit es
▁bevorzu gt
▁Jos é
▁F ische
▁über zeu
▁Ber echn
▁unter zeichnen
▁sp iel
▁verbesser ten
vi lle
▁Gar den
▁Geh alt
▁abzu stimmen
sprach ige
▁Fla ir
▁potenzie llen
▁SD L
▁umfangreich es
▁K rä
▁Er laubnis
▁Aus dehnung
▁ganz es
▁Sol ana
▁Spanien s
▁Tier schutz
▁wor ld
▁Lang zeit
▁teilnehmen den
▁Kohäsion sfonds
▁Schrift liche
▁übersch ritten
▁ üben
▁M ov
men sionen
▁c e
eigen schaften
bes itz
▁seiner zeit
▁näch stes
▁Beob achtung
▁Gal ileo
▁veränder ten
▁Brut to
K E
ig sten
▁Haushalt sverfahren
▁Bed auern
▁Speich erk
▁geplan te
de utet
▁L anz
ver hältnisse
zuf ordern
▁Dienstleistungs richtlinie
▁schreck lichen
▁w illen
▁b irgt
▁G rä
▁aus schließ
▁best rebt
▁Gleich e
▁Up grade
▁erle digen
▁Controll er
▁S mith
▁f ließen
ig an
▁t ru
ad ing
äch sten
rö me
ierte m
▁darauf hin
▁Wahl kreis
▁Po int
gien e
▁Fü ßen
▁Wäl dern
▁sto ßen
F OR
te ch
▁D IN
▁E asy
▁re d
▁fol gendes
zuf riedenheit
▁Nord korea
komm un
▁form ulieren
▁Bio technologie
▁wiederher zustellen
▁Glet scher
▁K h
▁Z eugen
▁her ange
▁18 5
▁Sa f
▁prä sent
▁comp uter
▁Glückw unsch
н ы
▁- T
▁Komm en
▁ab ger
▁sp rachen
sche cken
▁Ro hr
▁aufge teilt
fang s
▁verschw unden
▁gewal tigen
▁befind lichen
läß lich
▁transe uropäischen
st ill
▁f öder
sp ektrum
änd ige
▁son t
tier ungen
ose v
städ te
ol en
▁Ber ichtig
▁ange hört
iet y
▁erf rischen
▁Zentr ale
▁grün det
▁Get ränk
▁handel te
▁S eil
▁A SE
uf er
▁V oy
▁H ell
▁ihr erseits
tiv es
▁r uft
lo v
▁Ra uchen
▁transparen ter
▁Schwä chen
▁un end
▁S ul
▁K ok
de f
men sch
▁r em
▁gem eldet
▁Durch bruch
▁Niger ia
▁Protektion ismus
n ummern
л и
▁E IN
▁an merken
zi a
gra m
▁Aussch luss
▁Meer blick
▁Sh ir
▁gefähr licher
andina v
B A
▁R öm
▁Ver urteilung
▁So u
▁Pl at
haus en
ci ón
▁Beitrittsk andidaten
▁Servicel eistungen
▁f ull
iti ve
az zo
▁unver gleich
▁häufig sten
▁zeit lich
▁profession ell
inst itut
▁Befürcht ungen
K S
▁H i
▁o k
▁bes orgnis
▁Haushalts ausschusses
▁Mün zen
▁Sam sung
▁konstru ktiv
▁gere chte
angem essen
▁un schuld
ti pp
▁In spir
▁über schreiten
pro f
▁Welt raum
gem ä
▁Eur os
alb anken
▁201 5
▁Super ior
▁Sach ver
▁Konsequen z
▁Urheber recht
▁Nukle ar
▁ С
▁d icht
▁C ur
▁C hal
▁Bl att
▁leben d
▁hal be
▁Krie ge
▁Prop he
▁IB M
▁Be stehen
▁Paten te
▁bürger liche
▁Z onen
▁ex o
▁Em bry
▁Fisch ler
zwe cke
▁stud ierte
▁Klär ung
▁besorgnis erre
a ktor
▁zwin gend
k opf
▁N az
ff in
ste xt
▁offen sicht
▁com o
▁jeg lichen
▁Belast ungen
K A
w örter
▁ м
▁I f
▁G läub
▁Ver wir
vor haben
▁ä sthe
▁befür chten
▁staat licher
▁Veröffent lich
▁beeindruck enden
OT EL
▁Verd acht
▁virt uelle
▁durchschnitt liche
▁C lin
alis ierungen
▁Dienst leister
▁Fot ografen
akt oren
▁einzigar tiges
▁Geist es
▁Schm uck
▁kat hol
▁Sied lung
▁Assi sten
f irmen
▁T ech
▁Um frage
gew ichte
gesetz e
▁Kür zungen
▁Dam als
▁Haft bef
▁Infl ations
▁jur istische
▁Weihn achten
▁frem den
4 9
z em
▁b ud
ver antwortung
führ ende
▁bew eg
▁Klima schutz
wissen schaften
▁poln ische
▁Passag ier
▁Erleichter ung
b org
f al
st on
ent s
▁In vas
▁St aub
▁Re cycling
▁re präsent
▁ges amt
▁Recht setzung
▁empf ehle
▁zusätz licher
▁Öff nen
▁Stär ken
▁ehrgeiz igen
▁Auseinander setzungen
▁unber ühr
▁Gebur ts
▁nach teil
ag on
▁Richt ungen
▁Geh irn
▁gra us
▁Mitgliedstaat es
▁umgew andelt
▁Fotokop ier
▁n omin
▁G au
la y
▁vor ant
wei tet
▁de ckt
▁Bet rieben
▁priv ileg
▁B uen
ff ic
schaft liche
▁Aus gangs
▁Aus gewogenheit
ic ars
▁Haushalt skontrolle
▁anspruchs vollen
▁Rob oter
L ICH
j er
o is
▁R OM
▁St ring
wor ter
▁histor ischer
ish ing
▁schwei gen
vir on
▁ü pp
▁Prov ider
▁offenkund ig
z eilen
▁B ass
▁C ra
▁ab hängt
lä uter
▁La gerung
▁Gest ern
skon troll
▁Magaz in
▁S ich
ll i
▁G our
▁R inder
ig o
▁l äng
▁im pl
▁O ase
ste ckt
▁par tic
▁Wik icars
d om
▁W elle
▁O ster
▁sp ir
kl assen
▁off ers
▁Geheim nis
n oten
in ts
▁I .
▁Z en
for um
ang aben
▁Or chester
per ten
▁heraus gegeben
flä ch
▁Pat ch
▁dein em
▁sensi blen
▁kompliz ierten
▁schnellst möglich
B ER
▁in tu
▁All iance
▁Sk ulpt
▁persön liches
▁fehlen den
▁Pest izi
▁Renaiss ance
C E
ch ar
▁Un fälle
di ums
▁einge treten
▁Forsch ungs-
aut y
▁14 9
▁erle digt
▁überein stimmen
▁- F
ass age
kl ima
▁Bürger krieg
ux e
haft ung
▁Sy nth
▁wh at
▁ökonom ische
▁Cour t
y t
▁Ch ines
▁Them as
▁auszu bauen
▁absol uten
▁länger en
▁orien tieren
▁NG L
kompeten z
ä tigen
р и
ir ektor
▁K G
▁st arte
▁Demokra tischen
▁u kra
▁Weiter gabe
ünd ung
▁berech nen
▁voran zubringen
f ic
on ische
▁S om
re chn
▁Ver tie
gew ässer
voll sten
▁Vir tu
pa cken
k reb
▁H und
aus stellung
▁Tam pere
h armon
on sor
▁R ation
▁U K
▁Ver ts
▁Sch all
att le
▁Dan iel
▁Erm essen
▁ge stüt
▁St olz
äh ern
▁groß artigen
▁einge geben
tier ter
▁jen seits
▁Frieden sprozess
▁rest lichen
▁Fotokopier einrichtungen
3 4
ö gert
▁Mo di
▁Informations schalter
m ag
▁Vor beu
▁Inter ventionen
▁struktur ellen
▁Consult ing
▁K alifor
▁O k
imm ers
anz eigen
rie s
ieren der
äh lung
ak s
▁Lebens dauer
▁Kampf es
sprü ch
▁luxuri ösen
▁Holl and
▁sofor tige
▁echt es
▁began nen
▁ver läss
▁dem ograf
▁J ungen
▁Ho b
▁ne utr
▁Erwä gungen
▁OD ER
▁Errungen schaften
▁weiter gehen
tre te
ute te
tier ungs
▁beherr schen
▁s w
▁K omit
och ten
ver ein
art s
▁8 2
▁Fach leute
cl us
mod us
van gel
▁erhol samen
▁Shutt le
▁Singap ur
op fer
for e
▁Kam er
zur ufen
schn eiden
▁stri kt
▁Brun nen
▁zusammengef asst
3 6
▁ver haftet
▁Z a
▁r einen
▁ges endet
▁Verb ündeten
▁einge st
rak tiken
▁elekt rischen
▁Meinungs freiheit
▁entdeck te
▁Monteneg ro
▁s ing
▁B ast
▁p ur
▁aus zuführen
▁Stand orte
▁gl än
▁dritten s
▁Akte uren
▁ermu tigt
h än
r ennung
in stall
▁s ü
▁F igur
ig l
▁l ehnt
sp unkten
sta ste
▁Folgen absch
▁Fitness center
▁Zw ang
g ste
s ä
▁s eid
or ial
▁T E
▁Programm ier
▁12 5
▁Such maschinen
▁Pe ters
haupt stadt
▁forder te
spe zial
▁Aktu alität
kor b
▁ Č
st ud
▁ern sten
port al
initi ativen
▁Verknü pfung
b ra
▁be zieh
ver zeichnis
▁pol izei
▁bevorzu gen
▁s itzt
▁Aus wirkung
▁einz iger
▁Reserv ierungen
▁Bri tish
▁Seg ment
▁orden tlich
▁L ange
▁im stande
▁vor behalt
▁Aus wertung
iell er
statt ungen
▁Änderungsantrag s
sb esch
▁steigen de
j an
k y
▁un angemessen
▁ein wand
ter a
▁An sonsten
kon fl
▁Aut hen
▁Energie verbrauch
▁frei gegeben
▁Di mensionen
ph one
zer rungen
fa ßt
▁par ad
▁Kommun ismus
▁ausgew iesen
▁beur teilt
or o
▁Er läuter
ok olle
▁c ent
ati bilität
gem acht
▁Feh lern
▁Hoch schul
▁Kn ochen
▁Alp ha
▁ein f
▁An statt
▁C AN
ri ka
▁Sch ock
▁Um stand
▁kon ver
▁geb ühr
▁bl icken
▁Pfer d
▁Zertifik at
▁f ragt
▁an kommt
▁Aus steller
sion s
▁sp ac
▁wür digen
zentrum s
▁wissenschaft licher
rock ner
▁G ehen
▁über sehen
▁vor sehen
wer den
▁De velopment
▁Politik ern
▁Ak k
▁jap anische
▁п о
▁un aus
pf lege
▁lang jährigen
▁Sal on
gren zt
▁Telefon nummer
▁angesprochen en
c ti
ine a
▁Sit ze
umm e
▁kontinuier liche
▁massi v
▁Quali fikation
▁Francis co
▁Liquid ität
t räglich
▁m iß
▁In stand
vor gaben
▁renomm ierten
N S
▁S us
▁be gehen
▁O hr
rie f
▁Sicherheit sk
▁Mon ti
▁Juni or
kap azität
▁Frankf ur
▁etabl iert
schrau ber
▁dies jährigen
▁Lie der
▁versch lechter
▁Sozial modell
▁Tari fa
b lich
f rü
▁B ow
▁B uchen
▁l iter
▁In tel
▁Pro ven
▁Bouti que
é r
ein gang
▁Inform atik
▁Umwelt -
▁Ro ut
▁Pf und
▁Bro k
▁müß ten
▁S ho
▁S endung
scha d
▁Jahr t
▁gen ügen
▁ange griffen
▁Lö hne
▁Bevölkerungs gruppen
dring lich
▁b un
▁b ulgar
elt a
▁Kunden dienst
▁Schw ester
AR T
▁höch stem
▁Beschäftigung spolitik
▁Ged uld
▁Ander en
k ungen
▁ ul
en dern
▁D oc
▁M ön
ir r
et or
▁L ade
▁kon tra
reichen de
licher e
aut omati
sw id
▁prü ft
▁freiwill ige
▁beherr scht
▁Bom ben
n y
▁ein geschlossen
▁B isch
▁an kommen
▁be ziehe
▁Ein mischung
amm elten
▁Stra fen
▁Bes ichtigung
▁voraus sichtlich
vert räglich
▁Jac ques
▁CE O
▁Straft aten
▁Zinss ätze
▁WW U
C on
▁E ver
▁ge zahlt
▁L iga
▁Proz essen
▁Gra mm
▁wider sprechen
▁Mitt ler
▁Schen gener
▁Ingenie ur
▁Ein bau
▁ausge ht
ischer weise
▁Ha art
▁Jahrhunder ten
▁Rel ax
▁bill iger
▁Treibhaus gas
ab ler
▁La w
▁gerade zu
▁Übern achtungen
▁Bett wäsche
beweg ungen
.200 9
▁Press emit
▁multination alen
▁Schokol ade
▁Breit band
▁w in
▁L om
ren ten
▁Fahr plan
▁Gar age
▁ko ennen
▁Tal iban
▁behinderten freundliche
▁Strei tigkeiten
▁Enttäu schung
ar l
▁f ossi
▁Sch ein
▁Sp ass
stimm ungs
▁Familien zimmer
▁Dritt länder
▁stren gere
▁Subst anz
v ed
▁ rü
ar o
▁dem nach
lin der
iz er
▁Wahl kampf
äu schen
▁Milliar de
bew usstsein
▁telefon isch
▁Behaupt ung
7 1
auf nahmen
ord et
▁Le ucht
▁Kat zen
▁Vertie fung
▁er weist
▁so lle
eu gt
be am
ver k
▁Er forschung
▁hervor gerufen
mäß iger
▁San ti
sbe zogen
▁Et appe
▁Dampf bad
geschä fte
h änge
an kt
▁S ri
▁n et
▁ver einen
▁Mar ine
▁Umwelt politik
stra tegien
▁Treff punkt
P P
▁ver kehr
pro z
▁unterstüt zten
gor ith
▁Ra uch
verl ust
▁Wertpap ier
H z
ur o
▁R oten
ol s
▁C av
▁Ein gliederung
tra ges
gel der
▁Ist anb
▁Mess ung
▁Stück e
▁finn ischen
▁entschuld igen
▁ ̈
▁Ein igkeit
zi fik
▁bef and
▁Bild es
a o
▁P ul
▁H is
▁St reifen
▁C ON
▁Unter scheidung
▁Fl u
▁Serv ern
▁Ide ologie
▁Auftrag s
▁herausragen de
▁J et
▁Mar mor
▁Person als
ris iken
▁Le v
▁Haushalts mittel
▁Zentr albanken
▁Sym pt
▁Freund schaft
▁900 1
▁Überschwemm ungen
D EN
▁R ä
ann a
▁Er wärmung
▁gleich nam
▁Nah e
fil ter
▁kombin ieren
▁Etik et
▁derar tiger
vereinbar ung
▁P ast
▁l ust
rei bst
sta ge
ad as
▁offen er
opp elten
ome tern
▁Snack s
▁Beschleun igung
2 1
S I
▁Schw eine
con i
▁Gesundheits versorgung
▁Quali fikationen
▁schwar ze
▁dien te
▁val ue
▁L is
▁An na
▁e b
▁her ab
▁19 50
▁wo von
▁4 50
▁stattf and
ant a
▁Cro ss
▁air port
ö pfer
de hnen
il äum
▁st ieg
fa ktor
▁prä ch
▁Lab our
▁palästinens ische
▁verschär fen
X I
ei ll
al istischen
▁h är
eu tet
▁c ool
▁Verb und
aler ie
▁Bo ok
▁eindeu tigen
▁Andre as
▁b ra
sp erson
▁Sp ur
▁al p
▁aufge zeigt
▁bl u
▁tem por
▁F ro
▁er leb
▁Geb iets
▁qu asi
▁überw unden
▁Ratspräsident in
frik anische
▁Fo ot
fab rik
▁beizu behalten
▁avail able
w el
т а
▁so viel
▁aus schlag
▁sch lafen
▁Er sch
▁O ste
▁Aus sprachen
▁Al ten
ct or
▁Zus age
▁Will iam
▁ordnungsgemäß e
▁Slides hows
▁M athem
ien ten
▁zur echt
▁ent s
▁bek annter
▁Internet anschluss
▁Kol onial
▁Tun nel
▁Konsult ationen
▁dist anz
beteil igung
f la
▁b ro
ir gend
ab or
amm lungen
▁3 000
▁Or tschaft
sol e
sver b
▁Empf angs
▁Voll endung
▁ungar ische
▁herbei zuführen
▁Jugendher berge
▁b rand
▁Re ader
▁st orn
os o
▁Mal ay
▁Best es
▁rie s
▁dra ußen
▁Verhalten s
▁Kür zung
▁beträcht lichen
▁Schwä che
▁ver tik
▁An forderung
ver leih
▁Kon stru
▁Pak ets
▁Zigar etten
c ip
▁S tere
▁B ull
ver ter
unter stüt
▁EUR O
▁appell ieren
▁Rei s
▁Sc ience
▁Erinner ungen
▁kümm ert
▁drama tisch
▁Result ate
▁unter worfen
est ern
▁Ad v
▁üb licherweise
▁Wieder gabe
▁197 9
▁Medik amenten
N ET
t an
▁K inn
▁Ver weis
▁war me
ha ut
sk omm
▁Hoch schule
▁Log os
▁Versch lüssel
▁Sark o
un ft
▁ver lie
▁man uell
▁Wa ffe
▁erneuer barer
▁Begl eit
kas us
r isch
▁A ri
▁An laß
ann i
ic ations
oll ow
lo ok
▁ra ffin
g round
▁w endet
▁K lausel
▁N äh
▁o s
▁Re feren
lo ß
▁Durch messer
▁tra f
ünd et
▁Sc ript
▁exist ierenden
▁Griechen lands
▁arch ä
▁ethn ische
u den
▁S ech
▁be autiful
▁Ein verständnis
os h
vor aus
▁hier her
▁jeder mann
▁Med ium
▁innov ativer
▁Kontinu ität
6 9
▁s é
▁mit zu
▁Flug gesellschaft
▁Tra vel
vorsch rift
▁kompliz ierte
▁physi kal
c io
h ing
u sten
▁Mit teilungen
ger ichte
▁Comp utern
▁Gu ide
anc ial
▁bezieh ungsweise
f low
▁K reu
▁F L
▁F inden
▁R asse
▁H ab
▁st reichen
▁1. 000
urt eile
wach s
▁Zivil isten
▁Syn chron
▁sah en
▁mediterran en
▁Mahl zeiten
▁Kohl end
f ischer
k ab
p ä
▁ 
▁b ig
▁V eg
de cke
▁über setzen
▁J am
ys sen
▁Seit dem
▁Kar ib
▁Material s
EL L
gere gt
. M
▁h ar
▁auf kommen
▁Z oom
ing u
ün der
▁Imm ig
▁extrem en
▁lau ten
▁Behinder ung
▁rest ri
▁herz lichen
▁geleiste te
ah m
stell ers
ron ic
▁Kinder betreuung
▁con f
▁liegen de
▁Kn opf
▁reich lich
▁Pin ien
sil ber
▁Ver vielfäl
▁man y
▁pro j
▁inform ellen
▁poten tie
▁origin al
▁Oze an
, 1
▁V I
▁Ein träge
▁Ab wesen
▁überra schend
.. ..
▁irak ischen
▁er öffnete
pl atte
▁unterstüt zte
▁Österreich s
▁gez ielte
▁Fitness raum
▁geä ußer
aku um
alo ge
▁unabding bar
et tern
▁Gra f
▁ser i
▁geschütz ten
f örderung
ein nahmen
▁C in
▁um liegenden
äh le
ett s
techn ologien
▁fer tigen
▁Vizepräsident in
▁Fried hof
▁ziti ere
▁Kosme tik
▁veranl asst
▁S ession
▁S IE
▁L ar
▁Z ie
▁e v
▁Sp ring
▁Or ch
we en
▁10 .000
▁strateg ischer
▁Demonstra tion
▁aufer legt
▁Erhol ungs
▁Teuf el
p asst
▁w ay
▁K od
ser mäch
▁Erfahr ungs
ungsk raft
AS P
▁part ner
▁Oliven öl
▁e. V.
▁refle k
w ende
▁b lieben
▁W äre
▁ver trete
▁Un der
▁Comp any
▁B at
ber ater
▁stell ten
▁Hy b
▁freiwill igen
▁verwei gern
▁Verwir rung
▁F lex
▁k ä
▁Zu hause
▁en joy
▁Hö hlen
▁men schen
▁belieb te
▁eingeb ettet
tic s
▁36 0
▁liber alen
▁eth ischen
▁FA Q
▁Versp ät
gemä ßen
A ND
▁E qu
▁V ent
▁Sch merz
▁Kolle ktion
▁Bef örder
▁serv ices
▁grundsätz liche
lieb haber
z ungs
ür t
▁g aben
end s
tig ter
▁Ch or
arte ment
oc us
▁Überwach ungs
arch ite
▁züg ig
l ist
▁G ate
▁C L
▁unter zogen
fl ügen
▁auszu arbeiten
länd ischen
▁nö tige
▁Asyl bewerber
erzeug nisse
c ent
el fen
▁g r
▁L eich
▁auf gel
▁wer det
▁J h
▁Auf schwung
▁c ir
▁verl etzen
▁erfolgreich er
▁Vertreter in
mitglie dern
orien tierte
▁ausgeb il
▁portugies ische
▁Diplom atie
▁Verschm utzung
▁geänder ten
S D
▁un fa
▁K rem
▁zu fällig
ent al
▁Be züglich
▁jen em
hältnis mäßig
▁benachbar ten
3 1
▁S AT
▁ent zieht
stimm e
▁Man ip
zep ten
opp eln
bezogen e
▁Enter tainment
▁außergewöhn lich
▁Schalt fläche
▁f einen
▁sch alten
ver sch
▁O hren
▁Europä ern
ic y
▁ar riv
▁8 9
▁erw achsen
▁nament lich
m auern
▁ ort
▁P od
▁K im
▁k e
▁H arb
▁be ge
▁N ick
▁Ar c
▁Kon ten
▁De cken
▁bef aßt
▁ersch wert
ograf ie
▁Kalifor nien
▁Ver schiebung
▁sch ot
▁ent schied
▁Ma is
wert ungs
▁deut lichen
▁bewähr ten
▁Nutzungs bedingungen
▁Kont inen
▁überfl üss
▁Sou ven
i op
p oten
▁B und
▁C odes
pp t
▁muß te
kauf en
▁198 4
▁Gemeinschafts haushalt
if est
▁lauf ende
sorganis ationen
▁dokumen tiert
▁Darf ur
4 7
▁a ga
▁b ien
▁St ationen
▁zum eist
▁Th yssen
▁drei ßig
▁Au schecken
av ig
anc ed
▁Einwanderung spolitik
▁Samm el
m .
ei hen
▁G 20
▁an fallen
▁gesch m
▁Li ft
▁Aktion sprogramm
▁AG B
▁geograf ischen
b od
▁E sta
▁f ügen
▁an schließ
▁mit unter
rä uch
gew ichts
▁Bo ots
▁Bed auer
els ohne
ator ische
▁Entscheidung sträger
▁folgen der
▁ernst haften
▁loc al
▁zuzu stimmen
▁Beam te
▁begeist ern
▁Schu he
▁Maßstä be
▁Stehen de
k rank
▁ge hoben
▁an führen
▁Re cher
▁Bet a
▁6 9
▁Them atik
▁ne oliber
▁Differen zen
▁S Y
▁n os
▁W inkel
▁Be sten
▁Auf lage
▁Reg isse
▁elektron ischer
▁flexibl er
▁roman tischen
▁Cockta il
▁Urlau ber
feind lichkeit
▁S hang
▁ein sehen
▁auf w
▁- D
gem essen
▁Mehr zahl
▁einsch ränken
▁Ziff ern
▁kre ativen
quip ment
▁l ittle
▁J ury
▁Ste ck
▁Amsterdam er
sprodu kt
er maßen
▁G eister
▁Z ö
▁St urm
▁- M
lan k
▁Pl as
▁Spiel zeug
▁Les e
▁vern ichten
ipp en
▁beschrieben en
▁veränder te
fäll ige
▁einsei tig
▁slow en
▁k roati
di das
▁erm ordet
▁ne xt
▁Vort eilen
tens ität
▁unabhäng iger
▁sinn volle
do or
▁Arznei mitteln
ökonom ische
▁Klin ik
beschäf tigung
▁un t
▁un gew
▁S ack
▁D ür
▁M auern
▁H alt
▁Re zept
▁Sch atz
ver hältnis
ne e
hö fe
▁Rück zug
äuf ers
▁anerk annte
▁grö sser
▁Vene zu
▁Mau staste
us k
▁R un
▁L ücken
▁sch ie
▁Aus b
ant ie
ren gung
▁Sti pend
gesetz es
▁Gemeinschafts rechts
▁Vern ichtung
▁sho uld
z ell
▁n ette
▁zu genommen
▁N ice
▁Un ited
▁Y or
▁su ite
ath ie
▁früh zeitig
mel de
▁Zuge ständ
▁niedrig eren
▁dringen de
▁f un
▁K ette
▁aus lösen
qu er
▁Vor gänge
beit räge
▁Part ners
▁San ter
▁illeg aler
▁Wol ken
H S
j ord
p an
▁R é
▁Sp recher
▁r ight
▁pro bieren
gleich ung
raum s
▁Ph oto
▁Israel is
▁Mitglieds ländern
▁Olymp us
▁doppel te
k enn
▁Sch ichten
▁man ip
▁bel asten
▁Sicht weise
▁ähn licher
far be
in haber
▁K öst
▁F els
▁ge ehrten
iz es
▁hin dern
▁gek ürzt
▁benachteil igten
▁Lt d.
d ach
m uster
▁Men üs
▁Ort es
▁AK VIS
▁Erfordern isse
r h
▁Bet rüger
▁leg al
▁sa lle
▁moral ischen
▁Anim ation
▁Istanb ul
. E
S M
z end
▁M T
▁M ug
▁g ran
▁Er fahren
▁c enter
▁kri stall
▁zuver sichtlich
▁iden tifiziert
▁nachzu kommen
▁Investitions bank
▁jüd ischen
e v
▁m i
▁zu geben
▁ver g
▁Ein gangs
wer bst
▁Bo ote
▁Sk ip
▁Con ne
▁Nation alen
▁angem eldet
▁Sor ten
if ic
▁Haft ungs
▁zusammenge arbeitet
▁weiterge leitet
▁K ast
▁er ho
▁l arge
▁einmal igen
▁Ne ph
▁Tages zeit
▁Bi om
▁Del uxe
▁Et wa
▁Versuch en
▁Erschein ung
▁Meld ung
▁beschäd igt
b ogen
▁L ind
▁N ähr
▁O ri
▁gem isch
▁Bar on
▁Pal acio
▁bestimmt es
▁PC s
▁Rh yth
▁haus halt
mess ungen
▁repräsen tiert
▁a way
▁M andel
▁f ru
qu emen
▁6 7
gr em
opp lung
▁get ä
▁Speich ern
▁Gre at
haf tigkeit
▁drast isch
▁U V
op tim
▁Aus länder
▁Sp rung
ap azität
▁ges und
▁Da ß
ac y
▁Ober grenze
ownlo aden
▁Richtlinien vorschlag
▁90 er
▁beeindruck t
▁unnö tig
▁Demonstra tionen
▁Assoziierungs abkommen
▁w here
ra tionen
▁p ic
▁Her unterladen
zen e
▁Auf fassungen
gel ungen
pro bieren
zei tigen
zei gten
▁Ap ache
▁einzur äumen
schul den
▁Corpor ation
▁transpor tiert
ämm ung
▁Nür n
w ettbewerb
▁F iguren
▁an nimmt
▁En gel
ill igen
▁Li br
▁Finanz dienstleistungen
▁per fect
▁Geld politik
▁Sozial -
▁gering eren
▁Spezial ist
▁vorüber gehend
▁man gelt
pro menade
▁angenommen e
▁Anzahl ung
▁he bt
▁Train er
I ST
j est
▁D R
▁B ike
be dien
▁vor ab
▁beg riffen
mar ke
▁Flücht lings
r d
si den
▁Con c
▁Prozent satz
▁Not fall
wä cht
▁Glauben s
w ier
▁L D
op s
▁An schein
▁Fir ew
▁He alth
▁Paris er
minist ers
▁stil volle
▁Angel es
▁emo tion
ge stellte
▁m org
am ar
▁N T
▁Organis men
▁elekt rische
l ar
▁P ausch
▁F ood
at ab
▁N obel
sp eich
▁C ust
▁j eher
ab gabe
setz ungs
▁ausge weitet
▁Mal ware
tin i
▁allgemein em
▁Tschech ische
▁Colle ge
▁Santi ago
▁E ric
▁An dernfalls
▁Sch icht
▁Lauf enden
▁erb racht
▁Ausgleich s
▁reichhal tiges
▁Rent ner
▁Wolf gang
▁Pier re
▁Verschieden e
▁d ritt
in ken
▁ein gesetzten
▁B äume
▁T reu
▁C ost
▁Sch ild
rä t
ul ierten
ul ator
▁Ent f
pp el
▁Handel s-
▁Ne uf
ssystem en
▁Öffent liche
▁Mark us
▁entstehen den
▁Ca stell
mot or
▁P el
▁H orn
▁e p
▁ausge gangen
▁Bes ondere
▁Ger äu
▁Pen sionen
zum achen
▁blau en
▁Futter mittel
▁demonstr ieren
m ässig
л е
▁un l
▁s up
▁G or
▁H ut
▁l ächer
her apie
stück en
assi st
▁Ress ource
angeb oten
▁befür chte
▁Oper a
▁komplex er
▁pla y
▁amb ition
b eugen
▁unzähl igen
▁s ektor
▁S H
▁P ion
▁bei des
ant wortet
▁hin ten
▁Zeit schriften
sk arten
▁Wettbewerb spolitik
▁Schluss folgerung
▁Produkt palette
u ung
▁d eg
▁k ub
▁R ussen
▁Sch äd
▁gew ohnt
▁bet rug
▁best mögliche
▁Bürger meister
▁gest rigen
▁perman ent
l u
▁P av
▁h ellen
ro w
▁Rahmen richtlinie
▁Flug zeugen
▁anges iedelt
▁Ju an
▁auszu schließen
▁Kur den
▁uner war
▁196 7
▁Tal ent
▁maxim alen
▁br asil
▁niederländ ische
▁inspir iert
▁Zeich nungen
▁Rö mer
▁vertrau lich
▁Sog ar
▁a round
▁H eid
and em
og n
▁bis weilen
ak i
▁Kl eine
▁Ben ach
▁con dition
▁Bü chern
▁potenzie lle
▁sho wer
▁administra tiven
▁un lau
an sch
pro fil
▁bef est
▁Mein ungsver
▁Gew iss
▁Sk andal
▁Verantwort ungs
▁frü he
▁Speich erung
▁bill ig
▁Lanz ar
st able
▁w ater
▁F at
▁W ähl
ver folgung
▁Le er
▁Ru inen
▁empfehlen swert
II I
3 7
ro ll
▁L ock
▁L ücke
▁er sucht
▁Z ucht
▁t reu
▁Ein heim
▁gen utz
▁pro m
▁Cl ass
▁Staats ange
gerech net
T ra
▁S her
▁B ut
▁Z ehn
▁aus zut
läss iger
▁verz ichtet
▁S ien
▁E ch
▁L KW
▁Fl otten
hö re
▁Ad am
▁ä gyp
▁ersch üt
▁Verbraucher politik
▁nachhal tiges
▁Dis c
▁stattfinden den
sproz essen
städ ten
5 5
n ischen
▁M D
▁K ün
▁G ASP
▁l ov
▁im per
▁bei spiel
▁einge hend
sto ck
▁gesp eicher
▁197 8
▁anerk ennt
▁Exp ansion
▁Mad eira
▁Cub ase
▁Huss ein
3 8
j ust
▁ з
▁s il
▁H emm
▁Z ir
la di
▁was ser
▁Geschäfts -
▁Italien isch
▁1990 er
▁versp richt
▁getrenn te
▁gescheiter t
▁Umw andlung
▁Proven ce
▁Meinungsver schieden
▁a ux
▁G D
ent halte
sp rä
▁Sch ande
ran sp
▁zwei fel
sf ähig
sor ten
▁Produkt s
▁belieb ig
▁sozial es
▁schl ug
▁oper ation
▁erstklassi gen
3 9
▁zu teil
um fang
▁Be arbeitungs
▁beh andel
▁Pal azzo
▁Mitte le
fg h
▁Ku pfer
▁atemberauben den
▁Meld ungen
w eich
z ielen
▁p ay
▁Qu ality
▁Eigen tlich
▁inte llektu
▁And alus
▁vor geb
▁Fra g
▁Über zeug
▁verst ößt
▁con ven
▁Bel ange
▁Sozial fonds
▁Nord amerika
hel fen
▁vorherr schen
▁Haart rockner
4 4
d s
h ls
▁G rüne
▁be quemen
la gerungen
▁re ception
ron en
▁Einzel personen
gesprä che
or ia
▁an gel
▁L enk
ad y
▁Rat haus
▁lie b
▁Verantwort lichkeit
▁Buch ten
▁Get ränken
▁Exp lo
▁vernach läss
b iet
к и
▁G h
▁G ei
▁an grenzen
aus rüstung
vor gang
▁fest geschrieben
▁Grenz werte
▁inhalt lich
ä qu
▁W arte
du c
▁gef äl
▁zurück greifen
äd agog
▁Geschäfts bereich
▁Entsp rechend
gä sten
▁drama tischen
▁dre hen
▁Veröffentlich ungen
sermäch tigungen
qu eren
ag ue
▁ch o
▁le er
▁Gleich berechtigung
▁Pal m
▁se e
▁speziell es
▁extrem e
▁tö ten
▁vergröß ern
▁ausdrück liche
▁Anton io
v ing
▁S eb
ar on
se y
ser n
zu geben
▁weiß e
▁verf assungs
▁pri or
▁Invas ion
as ern
▁b eschä
▁zu kommt
▁R I
▁Ge webe
ati scher
▁7 6
▁Handel spolitik
▁Ne use
▁ak zept
▁Leist ungsverhältnis
bie gen
▁Sied lungen
G P
ti um
▁D é
▁i mmen
▁B ob
▁f indest
▁zu bereitet
▁L ong
▁Aus ge
▁c ur
▁So c
eid et
bau ern
ohn heiten
▁Einsatz es
▁bisher ige
▁Kop ien
▁wider sprüch
wesen s
▁Ca fe
▁beträcht lich
▁Wil hel
▁z ögern
▁in haf
um feld
be griff
▁vor zustellen
äl ern
min i
▁al b
▁La ck
▁Tra uben
▁X V
▁höch stens
▁kost spiel
▁erhöh ten
eu ers
▁Mit arbeit
▁c a
▁3 .0
▁Ne apel
▁Di versi
▁bas ierte
▁vorge legte
▁Klein -
▁obj ektiv
lüss elt
f ähige
p os
is sar
is mo
▁p at
▁aus drücken
▁Vor züge
ic tion
▁Fl ora
▁person al
▁Dist anz
▁Pat ri
▁Gran de
▁exzellen ten
▁gemein nütz
▁wöch entlich
▁Abwesen heit
▁b rachten
▁Pati ent
▁Freihandels abkommen
H L
i od
▁Unter wasser
▁gesch lagen
▁Pl ur
komp onenten
▁ober halb
▁lauf end
▁zer tifiziert
▁apart ment
st i
▁D uft
▁B ir
▁G assen
uß ts
▁c ommun
▁Wert schöpf
▁Wort es
▁natür licher
▁Rett ungs
B E
w andeln
et es
▁über gehen
▁Be auty
ing ham
zi lla
ak ets
wind igkeiten
▁Prak tik
▁unverzicht bar
l änge
it äre
ier n
▁auf geb
▁auf greifen
▁auf bew
zu laden
▁Lin ke
▁Gesundheit s-
▁1. 0
halte stelle
▁verk örp
liefer ungen
▁grei f
▁Änderungs vorschläge
▁radio ak
▁schall isol
b oll
m obil
▁T O
ri an
▁Er nte
ös ungen
sst ruktur
ym n
up s
amerik as
▁Behinder ten
▁zivil e
▁großzüg ige
▁gesundheit lichen
▁Komit ologie
k et
ch i
▁P ause
▁K alten
et ti
▁R ie
▁En sem
▁bek lagen
ari f
▁zurückge zogen
▁trag ischen
.D ie
▁Grem ium
▁S ac
▁Ver lagerung
▁aus macht
ähr en
zi o
▁hin nehmbar
▁ger ät
▁Gra ph
▁Institut s
▁heil igen
▁Gelt ung
b u
n ische
il y
▁Her vor
und ung
▁Vor reiter
▁Sp er
▁Land haus
▁Ex change
▁Kam bod
▁Gesundheits schutz
▁Denk mal
h orn
n iveaus
▁a fgh
▁s eg
sch on
▁b on
at om
imm en
▁unbe f
▁tradition eller
▁künstler ische
▁verdeut licht
y ch
st ö
▁h yd
▁R F
▁R ücks
scha fft
au g
▁Komm and
▁Um lauf
▁Besch affung
▁benö tigte
▁Krieg sver
▁Straßen bahn
▁80 er
▁Religion sfreiheit
▁Fass ade
l .
ein stellung
▁t ur
▁O d
▁Presse freiheit
▁Sau di
▁Ib iza
▁bewaff neten
k est
m auer
ä mmen
ar kt
▁z ir
▁P flanz
▁K uchen
▁O ra
▁Buch ungen
▁jen es
▁Volks wirtschaft
▁jähr igen
▁Entsch eiden
▁Mand ats
▁stren ger
b ian
d ies
n utzen
в о
▁m usst
ed o
glich keit
▁Mitglied staats
▁ern euert
▁Nation alismus
▁relev ant
▁schwerwie gende
▁Überra schung
▁Lud wig
1 00
▁ver zer
▁Der eg
▁Mar x
schließ ung
spl ant
▁Haushalts linie
▁Merc edes
▁verste ckt
f ehler
w ell
▁Be quem
▁hel p
▁iden tisch
▁gül tige
▁statist ischen
▁gäng igen
m u
m acher
in as
men ten
▁O R
bl as
▁weiter ver
▁ex plizit
▁gelten de
▁vern ichtet
.0 9
bliothe k
▁vis it
▁detaill ierten
g rä
Ü R
▁F äl
sp osition
ho ut
▁gleich wer
▁198 2
▁Tschech ien
▁S eien
AT ION
▁O ver
▁Se eh
▁heiß e
▁grün dliche
▁Sonnen unter
▁Pa are
orien tierten
▁kurzfrist ige
▁un glück
▁Gew ichts
▁Werk statt
▁Nieder lage
▁Et was
▁Aktionsplan s
▁Rechnungshof s
▁Neuer ungen
▁debat tieren
b rücke
▁z auber
▁an dernfalls
auf gabe
▁De ep
eb ook
▁voll zogen
▁al arm
▁al kohol
▁ro te
▁klein ste
▁Haushalts ausschuss
▁Kat al
▁us ed
freund lich
▁Ra ucher
▁Freund lichkeit
▁IN TER
▁Distrib ut
▁Befür worter
. W
m ont
▁k raft
▁T rieb
▁Programm ierung
io den
zug leichen
öhn t
▁strateg isch
▁spür bar
▁Jub iläum
▁verschlechter t
is l
▁Ab u
ün dete
min en
beh and
por ten
▁Prozess or
▁Unterhalt ungs
▁eingest uft
i i
ol is
▁N O
▁über st
▁mö bl
pf eiler
kon struktion
▁lang wier
▁Währ ungsfonds
▁Univers al
▁197 5
eto oth
▁absur d
ar me
▁E CH
▁P uffer
▁K und
ot or
▁r unden
arb on
▁Aktion äre
▁hervorragen der
läuf ige
▁Immobil ie
▁Frühstücks raum
▁vieler lei
▁gerech ten
▁Verg ütung
▁Intelligen z
▁Fuer te
kreb s
M E
st al
▁M é
▁ge g
▁N ummern
sp iell
▁Be ge
sel n
▁con fort
th ing
▁Willen s
▁klin gt
n ähe
ro hr
▁ver wir
är es
▁Vor stands
▁ab halten
geb unden
▁Arbeit sprogramm
▁Prof is
▁He ad
▁Heil ung
▁engl ischer
▁Mass agen
▁Schm id
▁stud ieren
ipel ine
C O
j k
w ellen
▁b rechen
▁B ein
▁Ein greifen
▁nach weis
pro jekten
▁for mal
▁Su mmen
▁Organis ations
räum t
▁Mag net
▁Besonder heit
▁Neuse eland
rit ter
▁Menschen leben
▁ex portiert
▁Rad ik
▁Obj ekten
▁hochwer tiger
▁Ausflug s
hod ox
▁Solution s
▁a ff
▁S auer
ist ans
oll t
▁en gere
ite ls
▁Ben zin
▁Co ver
▁Gu ant
▁Nahrungs mitteln
▁widersp richt
2 8
e der
▁A F
▁E u
▁P E
▁so g.
op tion
▁t agt
▁- E
ert al
ank a
▁Gl anz
▁Ost se
▁transparen ten
▁Dra ma
▁bec ause
ä en
▁s us
sch alten
de z
▁st ehe
imm ert
sta gung
▁neu em
▁re par
▁Mo der
▁He utzutage
▁Amb itionen
▁Gö te
▁Emo tionen
▁Frankfur ter
h ir
▁m ess
▁B anner
▁in c
▁G O
▁Ein sicht
lo cken
ierte ls
▁Wander ung
▁Beitritts länder
▁Loc ation
▁Bä der
▁Flag ge
▁19 30
▁bed acht
▁ra schen
▁Fortsch ritten
▁Dokument s
▁Völker recht
▁Hel den
▁lo ok
▁Stamm zellen
▁Kart off
u ite
▁f uhr
▁dem zufolge
▁Ad ria
▁Fest land
▁unbe grenz
▁ur heber
orm on
▁Bele uchtung
▁vide o
▁Erwäh nung
▁M w
omm od
▁Man h
▁Markt führer
▁Qualität ss
▁To uch
▁Pan ason
▁vielfäl tig
▁Meg ap
▁Eth ik
spoten zial
7 8
o ire
t y
▁B art
re al
ann el
▁Ein griff
maß nahme
▁Univers um
▁nachhal tiger
▁Ang rei
▁Offen bar
steh end
▁Doss ier
▁Adap ter
er ei
▁d own
▁I ron
ver lauf
▁Aus gehend
▁unter richten
▁dar zustellen
▁Rechts vorschrift
staat es
▁Außen handel
▁ad d
▁Solidarität sfonds
▁Beruf ung
▁unvergess liche
▁Vill age
▁Motiv ation
▁Sachverständ igen
ei tern
▁f ile
▁K ämpfe
▁L ichte
▁C ad
reich es
▁Akte ur
▁Massen vern
gerech ten
▁in neh
si v
▁Be at
ist in
▁par ti
▁erfahren e
▁Fisch fang
▁ober sten
▁Halb jahr
üch ern
▁geist ige
▁bürger lichen
▁Hü geln
▁verabschie deten
▁überflüss ig
G R
▁k ap
ver antwort
▁Rahmen beschluss
▁nation ales
▁See verkehr
▁großzüg igen
▁Vern unft
▁Präsent ationen
▁restaurant s
▁Classi c
▁in ne
ber ühm
▁an stehenden
▁im port
▁aus reichenden
▁nach ts
ry pt
▁Tr il
▁Modell s
▁Mor al
▁voran kommen
vert räge
▁Kontra st
▁nukle aren
▁Bügel service
d os
k eln
ser satz
▁In t
▁dem entsprechend
▁Pro teste
▁O ran
▁Ent deck
ak is
▁Bedürf nis
▁fantast ischen
▁block ieren
▁besp rechen
▁Unterbrech ung
I ND
k ing
u lichkeit
▁A er
▁Dar an
▁Ben j
geord nete
▁Op ern
▁Air es
▁Fach wissen
▁Kritik er
▁Storn ierungen
▁Millenn iums
▁vorant reiben
ar ren
▁W einen
▁H ur
▁T räume
um a
▁In haf
▁sch ock
▁Inter oper
▁Kinder spiel
▁funktion ierenden
▁Bef est
▁fantast ische
▁verbleiben den
▁Gü tern
befug nisse
m anden
er ische
▁aus fallen
▁Welt kultur
▁Di agra
▁Wettbewerb sver
▁Zivil bevölkerung
geg nung
▁Cy ber
▁Sauber keit
▁spir itu
e ken
▁d oppelten
▁an steigen
re de
▁U .S.
▁St rö
▁St arten
ne st
eg ion
ze denz
▁9 4
blick en
▁X L
lang es
▁Fremden feindlichkeit
▁Karib ik
▁Panason ic
▁er langt
▁U C
▁St eine
▁Flug gäste
eig net
▁ersch wing
▁Wohn ungs
▁197 6
▁Bri ten
▁anhalten den
▁Os lo
▁Ara bien
▁Panoram abl
▁Buen os
▁Benach r
▁l ong
▁mehr heit
▁besonder em
▁we ek
▁entstanden en
▁Registr ierungs
c us
▁ 
st urz
▁B L
▁H ang
lei ß
▁zw ingt
▁weiter geben
lä re
sst euer
stra uen
▁lok al
▁wor über
▁kurzfrist igen
institu te
▁bewähr te
▁Gour met
▁s es
ti le
▁B ag
▁p ossi
▁r is
reg ulierung
▁Wissenschaft lern
▁eingeb rachten
▁spannen de
▁begünst igt
P O
st ufe
▁h ie
▁St able
▁2 20
ul ierte
▁Mon tre
▁hö re
▁con tent
OM E
sh ip
▁Verh ütung
▁Konzern s
▁glaub würdig
▁Blu etooth
▁konfigur iert
▁Kinn ock
v re
▁so ftware
tiv ir
bl er
▁bes etzten
los es
▁Produ ktionen
▁Daten er
▁Bl izz
▁Hilfs mittel
▁kop iert
▁dre ht
▁Lod ge
▁Vorbeu gung
er klärung
▁A ct
▁E co
▁G am
▁N CC
▁An lauf
▁An leihen
▁C AM
ste am
▁Qu eck
▁7 1
▁Anst rengung
▁begrün den
▁sport lichen
▁Pic ard
7 4
▁S IM
▁h ind
▁R ate
▁In se
▁In land
▁vor gebracht
▁Er mittlung
▁Sp alten
▁8 6
▁Gesch ehen
▁bed roh
▁ra us
▁heraus gestellt
sei tigkeit
▁Fisch bestände
▁My th
▁Job s
▁Herangehen sweise
d ichte
▁un angen
▁F urcht
▁ver hält
▁At trib
▁Prä zedenz
▁Mil osev
▁196 8
läuf er
▁Grundsatz es
▁zuver lässigen
▁RE ACH
▁implemen tiert
▁geforder ten
, 0
d umping
▁un klar
▁B ali
▁ver senden
▁de v
▁at mo
▁Dom a
▁Hy giene
▁qualifiz ierter
▁Normal erweise
▁Mobilte lef
▁ ör
in land
▁D SL
▁K ro
▁ander wei
lä chen
▁schw achen
▁verein fach
▁erk läre
▁ph arma
▁erstaun lich
▁Generaldire ktion
r ant
st ufen
▁h alt
▁man cher
▁Kl etter
▁Ha ag
▁gest euert
▁beit ritt
▁ausgedehn t
G O
ahn sinn
▁Haupt sitz
▁Rück über
▁kn ow
▁Sound s
▁leb te
▁frag te
▁Lanzar ote
k anzler
ot ti
▁Mit gefühl
▁Internet s
▁12 8
▁Verantwort lichkeiten
▁Mutter sprache
▁ tim
▁K ell
▁F lan
et ings
ro llen
▁L ido
▁An bietern
▁sch ar
ät tern
▁Mo z
▁auszu wählen
▁Jack son
▁Zy klus
▁legisla tive
7 6
k ans
in tensi
▁S enden
▁B ah
bes uch
mittel ten
▁zusammen fassen
ange legen
rem e
▁wesent liches
▁Ansatz es
▁Konz erne
▁Handels abkommen
▁Pil oten
▁Schwar zen
ie der
in ten
▁H ed
ol as
▁Ma ison
▁Durch schnitts
mo us
▁Met al
ünd igung
▁Terrorismus bekämpfung
▁speziell er
▁konfigur ieren
▁LateRooms .com
▁konstitution elle
T R
f euer
i min
▁M ID
▁g i
▁bei spiell
lei tete
id sch
▁Qu artet
rän gen
▁Pal ästinens
▁gering ere
▁London er
▁Edel stahl
▁Europar at
▁angestre bt
▁Voy ager
m ond
w äch
▁m oney
▁Ste fan
▁Natur park
sver trag
▁Vermitt ler
▁tour istische
▁oper ativen
▁zurückzu kehren
▁Sarko zy
e e
g ige
h ilf
s icher
as a
▁Un zu
▁Kon gr
chn ik
▁fest legt
▁Tag s
▁Süd korea
▁Wohn raum
▁Technolog ies
▁Fertig ungs
reserv en
▁Weihnacht s
ässi gen
▁D ün
▁h ieß
▁K ret
▁ge füllt
▁o wn
geb iets
▁war nen
▁3 ,5
▁pro gressi
▁Beit rägen
▁hervor geht
▁Gegen über
▁versch lossen
▁defin ierten
▁verh ängt
▁Bud dh
▁ök ologisch
▁Handeln s
▁Dach terrasse
▁erfreu lich
▁ann ähern
greif end
▁Bedauer licherweise
k ore
n eiden
el ement
re ens
▁Ver urs
▁Inter ieur
▁gef eiert
gew innung
▁Komp atibilität
▁nie manden
▁einheit liches
▁ther apeu
▁Entschuld igung
▁Handt ücher
viron ment
▁V il
op pt
▁1 -
▁Er b
▁Er trag
▁ange st
▁Ä th
▁Wasser s
fa ktoren
▁sozial istischen
▁system atische
▁diesbezü gliche
m ap
▁ rücken
us a
▁M ütter
▁Sp alte
ass o
▁Al i
▁Gesch eh
ilt on
▁abzu bauen
▁ehemal iger
▁Engagement s
spar ung
▁DVD s
▁zuges agt
▁Brutto inland
k os
s werter
sch eine
▁R on
ol it
▁St ütz
▁C A
▁- P
▁ab gew
▁Fl ut
▁Mo dem
▁Erk rank
▁ausgeb ildet
▁Alltag s
▁Propag anda
r uss
s ichtig
е н
л о
▁L äden
▁Schwei gen
splan s
sent wurf
▁Pap st
▁Trans l
▁Gebir ge
▁Göte borg
or ter
▁C M
▁vor nehm
▁Sc anner
▁einheit lich
▁bl og
▁CO D
▁Szen en
▁Tenden zen
▁gast ronom
▁Tit an
▁erl itten
▁Sien a
sch ir
▁M ap
sen kung
ul o
schen ko
di alog
▁Grund wasser
nt he
▁Ob gleich
▁später e
▁uni vers
▁AP I
▁Skla ven
▁D rag
ber ichts
▁auf tritt
▁ent fallen
ik ro
▁Gem üt
▁Mal aria
▁klein sten
▁Luft -
▁Hoch geschwindigkeit
daten bank
▁gesp annt
▁Relig ionen
▁Szen ario
rüst ungen
c am
o fen
▁i z
▁p i
▁Mar b
▁te le
▁zusammen hängen
▁Zug riffe
▁Uhr en
anc es
▁unnö tige
▁verbrei tete
▁interpre tiert
▁Victor ia
▁Interoper abilität
C A
v ie
ie ber
ar zt
▁Sch iene
▁vor der
▁Ho te
▁ange gangen
.com .
fel dern
▁Pa zifik
▁Vertra ulichkeit
▁Erf indung
▁Erfordern issen
▁Note book
▁Schattenberichterstat tern
▁Nerv en
▁Malay sia
▁Köst lichkeiten
z un
▁w andern
▁Pro menade
▁Ges ichts
▁Handel sbeziehungen
▁Ben z
▁nah en
hei mer
▁körper liche
▁CP U
▁A zur
▁L ake
ion i
oren en
kon z
ite e
▁Politik bereiche
▁ern eute
OR T
▁Gu est
▁Iden tifik
▁trans nation
▁struktur elle
▁Anreise datum
▁tschech ische
▁kenn zeichnen
▁Shang hai
o ung
▁d oc
▁P ho
▁K lage
▁G 8
▁p op
▁Re duktion
▁Aus sen
per rt
bau er
▁8 4
▁9 3
▁modern ste
▁fort fahren
▁Nation ale
▁Anti bio
▁Flü gel
tinent al
▁ersta unt
▁Mem ory
▁Holl y
▁geograph ischen
▁Batter ie
▁Beton ung
▁Manh att
k ol
n ia
o int
▁D ame
▁W id
si ven
▁C AD
▁Ge werbe
ill es
▁Bar bar
ungsk ette
▁Administ rator
▁mäch tigen
▁Panoramabl ick
n g
ü te
▁St reichung
▁An lä
▁ab gebaut
▁Arbeits -
sver w
▁Sport ler
▁kan ad
▁Hä ft
▁Veget ation
▁Massenvern ichtungs
▁Queck silber
g ro
▁B O
▁F lie
am an
▁t rug
ün kt
▁bestehen der
▁Dorf es
▁blo ße
gesp ielt
▁isol iert
▁flo or
f ähigen
k olle
▁D al
▁f urcht
▁zu geordnet
▁p red
▁Be gegnung
▁For ce
▁bed room
▁Fil e
▁Lauf werk
▁Iden tifizierung
▁ausführ lichen
▁Off ic
▁Einkaufs zentrum
▁verdeut lichen
▁irgendein em
▁interinstitution ellen
▁Ökonom ie
▁Präsidentschaftsw ahlen
▁Assisten ten
▁Vervielfäl tigung
I EN
P R
▁s endet
an bindung
sch ild
▁P ent
▁K etten
▁T hal
▁l it
▁N enn
▁Wir eless
▁Teil ung
▁Möglich erweise
▁besser er
vorsch lägen
▁ged rängt
▁me xik
▁Publik ation
▁Einkaufs möglichkeiten
gebir ge
▁Venezu ela
. A
h ans
▁ein ges
▁K amp
ier baren
bl ätter
▁c ultur
▁r ig
esen de
▁Bo ule
▁Sicherheits maßnahmen
▁abzu schaffen
▁Völker mord
▁ass ozi
▁S urf
▁In betrieb
▁aus reicht
▁Ein nahme
tel y
▁c ap
▁Bereich s
▁Ser vers
▁Fin ancial
▁zweif elsohne
▁terror istischen
▁K ass
▁K rak
▁anzu geben
▁Sicherheits standards
▁anhalten de
▁Profession alität
▁zun ichte
F i
T C
é lé
▁W elten
▁L O
▁Sch affen
▁Inter institution
▁15 00
▁welt berühm
▁Mobil isierung
▁Wirk ungen
▁Waffen still
▁Schön e
wirt scha
v it
▁w usste
▁D L
▁D age
▁M IT
▁R eiter
▁t eils
▁kon st
fer tigte
▁Mobil funk
▁he art
▁verh elfen
▁Wart ungs
▁Miet wagen
▁Hon ig
▁C ho
auf enthalt
▁7 9
▁Roh stoffen
▁dah inter
▁außen politischen
▁Fla schen
bö den
▁Hoheits gebiet
A O
o en
t rägen
▁D M
▁M PEG
▁Al gorith
▁Mittel me
▁to llen
▁Grün dungs
▁Film s
▁Red nern
▁Tsch ern
▁Highl ights
G u
t ras
▁w uchs
▁ein tritt
el ekt
▁an geregt
ck ets
▁Ein vern
▁O ur
▁Ab änderungsant
spl attform
▁con t
▁Nieder lassungen
▁Tur b
▁militär ischer
▁Sek unde
▁separ aten
▁ye ar
▁Dolmet scher
▁d unkel
sch ichten
ti se
▁be denkt
▁Pro te
▁kön ig
ab eth
▁bie gen
▁Se es
▁ra tifizieren
▁Entwicklungs ziele
▁Diskussion s
▁ähn liches
fre quenz
ouv erne
▁d ell
▁w em
ön t
ill o
fa den
▁National staaten
▁mu y
▁slow ak
g ärten
т и
un es
▁B ald
▁H itze
▁o .
▁im portieren
ah ls
▁Sp ritz
▁Ent sorgung
▁Grund sätzlich
▁verb racht
fra gt
▁empf unden
▁Außen beziehungen
berg s
▁jähr ige
▁Tro ck
▁kn ü
▁Musli me
K R
▁P ant
▁an zusprechen
sp itze
▁vor wärts
schaft lich
▁op tion
▁Bundes regierung
▁angegeben e
▁Hit ler
▁Weis heit
t al
ó w
▁D rink
▁W etten
▁aus schließen
▁r assist
▁So cial
▁Fl üsse
▁Verein s
yn n
▁Bas il
▁Pla stik
▁Vorh anden
▁dor tigen
▁Wirt schaften
2 6
▁ge stellte
▁In sp
fern sehen
▁Fahr ten
weiter ung
▁Wieder belebung
leb nisse
▁Client s
▁Count ry
b rochen
j em
o .
▁B ienen
▁H orizont
▁H OTEL
▁an sch
▁Aus -
▁Ch ian
▁eigen s
▁Inter im
▁Forsch ungen
▁Betracht ung
▁Begl eiter
▁Aff ili
▁Wähl ern
V ER
i ver
un ts
on as
▁C F
är fung
▁Fra t
▁Vor kehrungen
▁Bet ä
1. 0
▁Beitrag s
▁li zenz
▁Vater s
▁Indust ri
▁schäd lichen
▁Hall o
▁Benutzern amen
▁kolle ktiven
▁V all
▁an im
▁bew ährt
man gel
klus iv
▁wert voll
▁famil y
▁vorange trieben
▁Zeug nis
▁Spl it
m alen
▁V ib
at eien
▁für s
▁p an
▁best ra
▁Besch reibungen
▁einzu bringen
▁bequem e
▁Asy ls
▁phil osoph
▁Rüst ungs
er stattung
ur teilungen
▁V .
▁er schaffen
▁N at
▁p ack
▁hin reichend
▁Euro stat
az ieren
▁Ko finanzierung
▁interess anter
▁Sicherheits rates
▁etabl ieren
▁Nichts dest
▁Konf ront
krie ges
2 3
k ov
st isch
us es
▁N H
▁St ro
▁Be werbung
üt ze
lä ger
fer tigten
rag ten
▁einge gangenen
▁Per u
▁verurs achte
AC K
mot oren
▁Somm ers
k inder
▁w ählt
sch ancen
ar ly
▁b ran
us ionen
▁Be cken
▁Se el
▁Besuch e
▁Prof ile
▁Leg isl
▁co unt
▁é quip
gener ation
▁Vorsitz es
▁popul är
bä der
▁prinzip iell
▁Hob by
b lichkeit
m os
ö hne
▁S SL
▁z eugt
▁M ent
▁k unst
▁T U
▁J ähr
ate mal
▁Internet verbindung
staat licher
▁zentr ales
▁Russ ischen
▁Pak eten
▁min i
med izin
▁Hunder tt
▁diplomati sche
▁Maler ei
▁Jak ob
▁v en
▁b ünd
▁R um
▁Ver dienst
▁e w
ed i
▁ab onn
▁serv ieren
▁real istische
▁Beschluss es
▁Mater ie
h te
▁Unter bringung
amp le
▁Gen ugt
▁Besch lüssen
▁Einzel zimmer
▁Sal v
▁Mod el
▁innov ativ
▁Rechn ungen
▁unannehm bar
▁Gemäl de
▁Meinungsverschieden heiten
▁E rika
▁p assi
▁neu sten
▁Ä l
▁Kl ienten
▁Se geln
▁möglich er
ign ano
▁Kn ei
▁Rede beitrag
▁Winter sport
▁Schaden sersatz
▁Meilen stein
▁Plenar saal
▁Einvern ehmen
▁Genugt uung
f lex
er z
▁B äumen
▁T hre
be c
ungs anlagen
▁sp ont
alen te
stimm ten
▁Recht fertigung
▁We der
▁Verpack ungen
▁Hyb rid
m at
▁D unkel
▁E volution
▁E vangel
sp ra
▁ent gehen
▁Ma gen
▁c entral
▁Se ktion
▁Ex c
gn ügen
▁Tr enn
▁Demon st
▁Frü her
gemein schaften
▁ ulti
▁R av
▁N am
▁Pro ben
▁Al gar
ys q
▁gro sser
▁Fe uchtigkeit
▁Obj ektiv
ai lle
▁radik ale
unterstüt zung
h istor
▁w ahl
▁M á
▁U ran
▁N i
▁N it
▁ha b
▁lang uage
▁kultur ell
jähr ig
▁su pport
ath on
▁Zuge hörigkeit
▁ungewöhn lich
▁Cockta ils
lech tern
o in
ä ger
an satz
▁T ausenden
ern et
▁sch arf
▁her e
▁bef ördert
▁ho tels
▁zurück halten
▁Tra de
▁We steuropa
▁Sc reen
▁Install er
sb ruck
agn ost
▁po wer
▁zuzu lassen
us ser
▁h ielten
▁Ab gabe
▁Unter schrift
▁Ch ief
bau te
ret ungen
▁Kar el
sa ktionen
▁eingeb aut
aktiv ität
▁Lang uage
c ome
▁W alk
▁Sch irm
▁ent re
wir ft
▁Gi ov
▁198 1
nö ten
▁Vern etzung
gelegen en
▁energ isch
▁Chic ago
▁un miss
▁s how
▁M oh
▁f ünften
▁W alter
▁sch är
ho st
▁pro vide
pro ben
▁Ger ü
ohn ten
hö fen
ian er
▁Met a
tag s
▁Galer ien
rip te
▁territor iale
▁Hub schrauber
▁aussch liesslich
p at
as ing
▁K i
▁g rü
▁kon tro
▁Inter aktion
▁Min en
▁Ex il
▁ar m
▁Ben utzen
▁beige treten
▁Monitor ing
▁Mis strauen
▁Etiket tierung
b ein
m üd
▁in vol
▁Dies be
▁Mon ster
▁Verw altungen
▁Selbst mord
▁Einzel betten
▁west lich
▁walk ing
▁trop ischen
P G
r iert
in j
al isten
▁R S
▁L etzte
lie be
enn a
▁Vort räge
▁berühm testen
▁hei sst
▁Halb zeit
▁Defin itionen
▁erfor schen
▁Kandid at
▁Dereg ulierung
. T
f ass
▁ein geschlagen
▁W ehr
▁Ver wertung
▁so uver
▁C ore
▁Re view
ul ations
▁ab seh
▁ho fft
▁wirtschaft liches
▁Schw ung
▁unver antwort
▁Vers agen
▁auszu weiten
▁Sicher lich
wür de
▁Interess es
▁situ ated
▁kürz ester
▁gleichnam igen
H E
a tern
sch ritte
▁z a
it ch
▁D ichter
sp ital
▁st yle
scha ll
▁sch eitern
▁Ein s
fü hlen
▁Vor jahres
▁Al bert
▁Kl onen
kan al
▁Konzept s
arch iv
▁Versicher ungen
▁entf alten
▁Ingenie ure
▁konsul tiert
▁Kompon isten
▁Mw St
b or
▁auf zustellen
▁Z elt
▁l ern
▁Computer s
▁angen ehmer
▁subst anz
▁Thun fisch
▁konsequen te
▁Vot um
▁Berechn ungen
on z
▁n irgend
is si
▁Aus künfte
▁Ber lus
▁c ou
▁ges unken
▁Inn sbruck
▁Miß trauen
acion es
▁Promo tion
▁unl ängst
▁Äth iop
c ri
c odes
k enntnis
st rägern
▁T ol
▁Ab zug
amm ern
▁re produ
▁abge legt
▁französ ischer
▁Lo ok
▁Jap ans
▁abw eichen
▁Versand kosten
▁Sm all
▁Kreis lauf
▁unw ahrscheinlich
▁Prophe ten
▁Milosev ic
7 9
B O
P M
b äumen
▁w eichen
em ma
▁P ac
▁l ohnen
op ie
be ding
und s
▁r ufe
▁Über prüf
▁Hand ys
▁War n
▁198 3
▁Gut achten
▁jetz ige
▁atemberauben de
▁Diversi fizierung
N et
y on
▁v ill
▁A llen
▁R ay
▁Jahr esende
▁bes prochen
äng liche
mo dern
▁Beg rü
▁Reserv ierungs
▁Textil ien
aller erst
▁belg ische
▁Automatis ierung
brü che
▁Tepp ich
▁m ass
▁in stabil
▁W ales
▁an legen
▁p flanz
▁Ge flügel
▁Ab sol
▁Kl ing
ond o
▁Süd ost
▁Schwei ß
▁aufzu geben
▁jüng ster
▁ind igen
▁Salz burger
▁Out look
▁Dör fern
▁anst ren
▁Legisl atur
b ehr
p i
▁ein fluss
▁ent z
▁Mo tive
▁modern em
▁Liefer ant
▁Sit es
▁auseinander setzen
▁Denk m
▁faszin ierende
▁ta uchen
▁Ansch luß
▁Bungal ows
c ture
n äck
te lefon
▁A la
▁i d
▁M ust
▁f ront
▁V akuum
▁Un ruhen
▁de cor
▁verfüg bare
▁Unterk ünften
▁Tor re
▁Brem en
▁Heid el
r ut
s ub
st h
al tern
▁K ne
▁G ig
▁An hebung
▁Ein halt
▁Ent weder
we de
par ad
▁zer tifiz
▁bedauer licherweise
▁bit tet
▁aust auschen
▁Aven ue
▁gestüt zt
▁v ul
▁F arm
▁N omin
ind el
▁aus bauen
▁Sch a
ungs mittel
enn etz
▁ent werfen
▁Ar k
▁Ar te
▁unter teilt
▁c ost
ob yl
äl tigt
▁Le gende
▁Vers öhnung
▁Ir lands
▁Fein de
▁benachteil igt
▁platz iert
▁Gala x
an wendung
▁b ild
em ann
▁Sch merzen
▁Bo hr
▁erf ährt
▁gesetz ten
▁Arten vielfalt
ba idsch
▁administra tive
▁musikal ischen
▁Batter ien
▁Reh abil
fischer ei
▁Firew all
k ombin
es ische
▁A SP
▁M aul
▁W arm
▁W üste
▁an k
▁L ow
sen dungen
▁In fe
sp ekt
au gen
▁unter hält
ild ren
druck en
▁197 3
▁197 4
▁Entwurf s
▁Klei der
▁Vermittlungs verfahren
▁reform ieren
▁einzusch ränken
▁Massenvernichtungs waffen
w ich
ch ner
▁m inder
▁H als
▁T ob
▁L ic
ser baidsch
▁p ie
▁An ordnung
▁Er ster
bar go
sk ultur
▁Pl atte
▁Eur ex
▁qu ality
▁Zahl ungsver
▁ern euten
▁Werk zeugen
sent wicklung
▁Imm o
▁vertreten en
▁Provin zen
▁Block ade
▁begeg net
▁Baut eile
▁Führungs rolle
▁Gumm i
▁nachvoll zieh
▁Kreu zung
▁auszut auschen
▁d os
an schlag
▁k la
stell end
alt ar
▁Geb ot
pl es
▁Sa at
sor gan
▁enthalten e
sbe stimmungen
▁Unabhäng ig
▁11. 00
▁Ku gel
▁log isch
ußts ein
▁Rücks eite
▁pharma zeu
i at
▁n annte
▁K orn
▁T AC
▁Ver wend
▁t ausende
ad es
▁Mensch lichkeit
▁Nah ost
▁Business center
▁General versammlung
▁Glück licherweise
▁detaill iert
▁Erm ord
▁Erschein ungs
▁Still stand
V er
r einigung
un abhäng
in ische
▁P anz
▁K üh
▁für chten
▁Z ag
▁Ver ona
▁vor legt
aus gabe
▁bet reten
▁Komp akt
sf eld
▁Super markt
▁S. A.
▁Gewerk schaft
▁Cat al
▁einher gehen
▁Pres ident
diskrimin ierung
ä gen
▁s al
op oul
▁C r
▁Land s
▁ange legten
▁Aktiv ierung
▁Schlaf zimmern
skon vention
▁EG F
▁selten en
ungsst unde
▁Ungleich gewichte
▁obj ektive
▁roman tische
▁gewisser maßen
▁Initiativ bericht
f reu
▁ Ã
▁b rennen
▁D il
▁h elle
▁k alten
▁An ne
di ten
▁Stra hlen
▁Bar ock
▁fol gten
▁Ta sche
▁geeig neter
▁Pra ger
▁Fin ale
▁Pflanzen schutz
▁Umweltschutz es
▁ausser halb
▁jahrel ang
f at
▁ у
▁un kontroll
▁S etzen
▁f ließt
▁H är
op ing
▁Bl itz
▁besch uld
▁Produkt es
▁Start seite
test s
▁Sand st
▁Indien s
▁Bauern hof
▁kompliz ierter
▁umzu gehen
▁gren zt
▁Progn osen
4 1
b ör
▁ 
▁h ot
▁Un ge
▁st ör
rei be
▁lie st
▁Än gste
▁sol iden
stra hl
▁Benutzer oberfläche
▁Rumän iens
▁abw eich
▁Kohlen stoff
▁Grundprinzip ien
h ib
▁B I
▁R .
▁auf zufordern
▁Z immers
▁Sch ied
▁vor igen
▁Wie sen
mar sch
▁te st
▁dir ec
ende te
ip her
▁Raum es
▁Außen pool
▁Kri stall
▁Rein igungs
x e
er gebnisse
▁ver zeichnet
ser gebnis
▁N ase
▁C redit
▁Sp onsor
est ra
▁unver ständ
▁Heraus geber
othe k
hei zung
▁Fac ebook
grö ßen
▁druck en
▁Ausb reitung
▁Kambod scha
s ign
sch ungs
▁e sta
ed s
ta ucht
▁get rieben
▁Far bt
▁Koordin ierungs
▁imp os
untern ehmer
▁Luftra um
▁Ermitt lungen
▁ECH O
k ok
k eller
m än
▁T än
ent halten
▁er lernen
um welt
ig ma
▁verb orgen
▁Geschäfts jahr
▁Pal men
▁prä ven
part eien
▁Abend s
▁Dis co
▁Antrag s
▁Verfasser in
▁legiti men
▁Treibhausgas emissionen
b els
r er
in ation
▁D elta
▁T ask
ot rotz
▁Gesch irr
▁Energie träger
▁em ail
fä lligen
▁War schau
▁Fak ult
▁spac ious
▁w ild
▁E hem
▁k a
▁H ür
▁T .
▁Ver teil
▁heraus stellen
▁interess ierten
▁Struktur reformen
▁Aufenthalt es
▁Nürn berg
▁Benj amin
a ve
t ür
▁zu weilen
▁R ac
▁R ome
▁St rich
▁Un ger
▁Ein sätze
▁e B
lau bt
▁ger in
▁Du sch
▁beschlossen en
▁Bol kest
schei be
▁S ele
▁K inos
▁zu wider
och t
▁einge fügt
ip e
▁Partnerschaft s
▁70 er
▁kostenfrei e
▁bill ige
▁reserv iert
▁Repräsent anten
▁ple as
▁Marb ella
▁Diesbe züglich
ge stüt
gen der
▁R AM
▁st im
lin k
für sorge
▁Wirtschaft lichkeit
▁gest altete
▁Preis stabilität
▁Con verter
schein ungen
▁Begriff s
▁acc ommod
▁vergröß ert
▁Clin ton
▁a didas
▁S IS
sch ub
▁L ac
▁be fore
▁Sch ül
▁Kommission spräsidenten
▁bet one
eigen e
gar age
▁Blick winkel
kur beln
instr umenten
▁Abstimm ungsstunde
verfolg barkeit
▁Fußgänger zone
▁Tschern obyl
▁A mate
▁W HO
▁aus füllen
rot t
▁Gegen seitigkeit
▁San ierung
▁Log in
▁Bundes kanzler
▁Reserv en
▁geräum ig
▁radik al
▁Wurz el
▁Hom osex
▁Anony mous
as mus
▁B utter
▁f eiert
▁k ind
▁In -
▁An gleichung
ste ck
▁schw ächen
▁gra ð
▁Waren zeichen
▁Besitz stand
▁Entschließungsantrag s
▁Brenn er
▁Ros a
▁stil vollen
▁kompeten te
▁Abweich ungen
gü tern
verträglich keit
e ur
k üche
o e
▁s l
▁D y
▁D og
▁l agen
lie d
▁Kon g
▁hin auf
▁Mar s
kon sum
▁mensch licher
seh er
kam eras
▁Kontak ten
▁bemerken swerte
▁drama tische
▁bal tischen
▁Ever est
▁Manhatt an
j ar
ei de
st reifen
▁k rie
at tra
▁L or
▁L unch
▁Sch alter
▁e qu
he ad
▁ex z
ud a
▁17 5
liegen de
reg ister
▁wei ss
zwei g
▁Demonst ranten
▁F ont
ber ung
▁N ight
▁p ap
▁p od
▁O F
▁Unter schriften
▁ausge t
▁Haushalt skontroll
▁on t
freund lichen
▁Hoff entlich
▁Merk mal
▁ehrgeiz ig
▁stil voll
änglich keit
▁erstre cken
▁schwerwie genden
▁fak tisch
▁Frat tini
▁gerin gem
d le
▁P länen
▁F .
▁bet ter
▁Ch urch
▁zurück ziehen
▁Flug gast
▁La eken
ater ie
▁Pol ens
▁funktion ierende
▁gener iert
▁mobil isieren
▁sh opping
▁vorrang ige
▁Lam an
▁Resol utionen
▁unfa ir
4 2
▁S he
▁z ahll
▁B ist
▁dar legen
tur es
▁Umwelt verschmutzung
▁muß ten
▁erwar teten
▁Netz werks
▁Kop ieren
▁Treibhaus g
▁Abonn ement
▁Libr ary
▁Algar ve
z et
ber ufen
▁bet ween
▁entsp annt
▁ben ennen
rach ter
▁Prof itieren
▁Ven til
orien tierung
pap ier
▁gewalt tä
▁sonn igen
▁Zweif ellos
▁Wilhel m
o ft
▁f angen
▁W ats
am as
▁p ak
ob a
▁Über re
bes itzer
fe ste
▁eigen ständige
▁ar me
▁Wieder holung
▁Fuß e
▁gegrün dete
▁direkte m
▁Tu ber
▁praktiz iert
▁Bruttoinland sprodukt
▁ein greifen
ll o
▁H amb
▁An schlag
▁Be werb
▁ges icher
▁Th ese
▁aufzu heben
▁gener elle
fest ival
▁Eth ernet
▁durchschnitt lichen
▁Inbetrieb nahme
▁Bolkest ein
d f
ä ra
▁z ielen
▁B rauch
▁T y
▁C C
▁Sch eck
▁Ein setzung
öff neten
fach e
hör er
▁Markt platz
▁wirtschaft spolitischen
▁Plan s
▁leg alen
svor sorge
▁ph oto
▁ti be
▁verbind lichen
wart ung
▁konkur rieren
▁ASE AN
k etten
л а
it sch
▁T NG
▁Ab nahme
▁hinter her
▁Char ter
▁Prot okolle
haft es
▁Wohl stands
▁gering füg
▁korre kten
▁Blog s
▁dur fte
schöpf en
▁notwendiger weise
▁Dage gen
▁G il
▁ge le
▁ge fahren
▁L an
sp raktiken
▁C amb
ab a
aten den
ic on
▁Fa vor
verb ände
met all
var ian
▁Formul ierungen
▁audiovis uellen
m i
▁m ov
▁Aus setzung
äh iges
▁gew artet
▁best möglichen
▁wel ch
unter schiede
▁abge laufen
▁erklär ten
▁Sitz ungs
gemein de
▁Experi ment
▁Beobachtungs stelle
p ot
u ay
▁un günst
▁s ä
▁A x
▁F ix
▁G ouverne
▁im portiert
▁über mäßige
▁nach mittag
▁ab stra
ht ml
▁Ü bung
▁Im ages
▁Parlaments wahlen
▁inter kultur
▁Kultur -
▁Car los
▁beabs ichtigen
▁Spezi fikationen
▁pra xis
▁Ank lage
▁Skige biet
8 5
U E
o ffiz
u an
▁F our
▁an dern
ah ne
▁An melde
▁über s
ver ordnung
ges ucht
▁Da v
▁ersch weren
▁Aktion s
▁mus ic
▁König in
▁Verf ech
▁Charakter s
▁hand werk
spf lich
▁Aufsichts rat
▁vari ieren
▁wit hin
p .
t wicklung
▁E mm
▁B akter
▁T ausend
stat ut
▁en c
kon omen
ac a
▁verw öhnt
drück e
▁Kommun al
▁Prof i
ried igung
▁personenbezogen er
▁Prie ster
▁Über legung
▁Verein barkeit
▁ad äqu
▁Bü hnen
▁Digital kamera
▁1980 er
▁kulin arischen
▁anwend bar
▁grös ste
▁Flach bild
u y
ge führte
gen annten
▁n ame
▁sp ek
▁Zu wander
fri sten
tisch em
unter lagen
figur ation
▁ausländ ischer
▁Ep idem
▁standard mäßig
▁Ten er
▁Aud it
▁D ut
sp richt
▁Sch af
au bt
▁c ard
ma ster
▁Mo sche
▁Inte llektu
AN N
▁geschlossen e
▁Dritt staats
bezogen en
▁intensiv ieren
▁un wei
▁S la
▁v ene
us en
▁Ar range
▁Über dies
▁brauch e
▁fünf zig
▁Herz og
▁Sensi bil
т ь
or ch
▁F ünften
▁G ad
▁L ama
▁sch ade
lei det
▁kon tinent
wor ks
▁öffent liches
▁At omen
▁Eigen mittel
▁con c
▁Erweiter ungs
▁Schul ter
dienst es
▁Konkur renten
▁zus amment
steil nehmer
. 5
2 7
A Y
is ode
▁L ago
▁C V
▁Sch är
▁Er reich
▁erhalten en
▁gehör ten
▁Su p
▁vorher gehenden
▁Währung spolitik
laus eln
▁Fel dern
▁Fotograf ien
▁sing le
d on
p ul
ar isierung
▁m é
▁f eine
▁Sie b
▁An dr
end el
▁Vor fall
▁Kon ditionen
▁ho c
▁zurück gegeben
▁modern ster
▁Sport -
▁Bef ehls
▁Bro ad
▁komplett es
▁acc u
▁Etik etten
▁stri kte
▁vernachläss igt
▁B olog
et ra
▁V ON
▁T own
▁C res
▁O c
ste sts
▁Ab flug
▁Reg ie
äch ten
▁Pl ant
▁Rechts akte
▁Techn ische
▁qu ite
ib us
uld et
▁bevor stehende
orien tiert
schuld ung
▁si ze
▁GB P
▁Ernährungs sicherheit
s an
u tiv
ä tischen
ti ma
▁P ick
▁T äter
▁l iv
eil t
og o
sk örper
▁Fol genden
▁Gut haben
▁Wichtig ste
▁lux em
▁Ri mini
gek rön
n etzen
▁n aher
ber ichten
sp ann
vers orgungs
▁El end
wirk sam
▁Haushalts behörde
▁glob ales
▁Einzel -
▁verantwort lichen
ingt on
▁Last wagen
▁leb ten
▁Work flow
▁Sekret ariat
▁thr ough
▁Sens oren
▁Inspir ation
d ner
st el
▁n .
▁In tensität
▁t ri
ver handlungen
▁Ab fällen
auf tritt
▁Verbrauch s
▁Rück verfolgbarkeit
▁Interessen ten
▁Vis ual
▁Volks republik
tifiz ierungs
▁profession eller
▁pre k
▁potenzie ll
▁Abs icherung
▁Palästinenser n
▁zeig ten
▁NE W
▁Highl ight
▁Seb ast
f lich
o on
o ftware
ü ne
▁M un
▁ver legt
▁Z äh
ab lauf
ik anen
▁c ome
ow en
▁Selbst ver
freund lichkeit
▁pri mär
▁Kandidaten länder
▁kontinuier lichen
▁Dra ht
▁Div ision
, 000
▁S OL
▁D B
▁Z ap
il en
▁An weisung
▁uns icht
iv a
ron ik
▁Ter ra
▁Handel sk
▁leben sw
▁ausgezeich neter
▁Gerichts verfahren
▁Verm ietung
▁Lei b
▁Devisen wechsel
▁grös sten
▁Weltmeister schaft
▁Haftbef ehl
▁Verurs acher
▁W ände
▁Leben sst
▁Ro se
▁Schaden s
▁Zuf l
▁Übrigen s
▁bürokra tischen
▁wöch ent
2 9
▁w ant
▁Ab teilungen
▁Europä ischer
▁ger ettet
▁frei em
▁will st
▁con ne
▁Versch uld
▁Ton y
▁koordin ierte
▁Peti tion
▁Peti tionen
▁renomm ierte
▁Gesetzgeb ungs
▁Tut orial
d ay
j our
t ouren
▁ein t
▁an fangs
▁o m
▁C 4
▁Un be
aus weis
▁re vid
▁sp ar
äch s
▁al tes
▁gest alteten
▁Schutz maßnahmen
▁Fa una
▁Zeitraum s
▁Quell code
▁Cann es
▁missbrauch t
▁Ermord ung
6 1
▁un gleich
hr op
▁t hre
▁J unge
▁recht licher
▁Information sk
▁erfreu en
▁finn ische
▁DS 9
▁ziel ger
▁Jahrt ausend
G EL
c m
an isches
▁F ell
et ho
▁ge opoliti
▁An ten
▁Er teilung
▁ab seits
ek tierung
▁Grund stein
▁wissen sbas
▁recht swid
▁wahr lich
▁sozial demokra
▁liebe voll
▁zweier lei
d in
r end
▁ б
▁D einer
▁P ers
▁be folgen
▁Par c
▁bel aufen
▁Industrie -
reisen den
▁Air ways
▁Berg bau
▁Armut s
▁Mag ic
▁Lu ka
▁Erst es
üch tern
▁einsei tige
▁Schreib tisch
▁Ly on
▁Ausnahmere gelungen
▁Oste uropas
i ze
w id
z ö
▁E c
▁zu hause
▁W üsten
ber to
▁an zum
▁auf streben
▁Be zir
▁O f
▁Aus weg
▁Vor lagen
▁bet onte
▁Zusammen spiel
▁Qu ick
▁ch arm
▁Lebens standard
▁Install ationen
▁National parks
▁To wer
ars itzung
▁weite st
▁maßgeschneider te
▁hind urch
e ktion
y ing
▁s ek
el ei
▁L A
um pe
▁ver häng
iz ität
wirtschaft liche
▁Ser ben
sver kehr
▁Ac tive
▁Mass aker
▁Mat rat
▁Letz ter
archite ktur
▁Legislatur periode
6 3
e ti
h ip
ñ os
▁von nöten
▁Ver gewal
▁ange führten
▁fest igen
▁Bar nier
▁Frei gabe
▁umf aßt
▁Besonder en
▁196 9
▁Befug nis
▁ac tiv
▁Zuständigkeit sbereich
IV E
▁vo or
▁Vorhanden sein
c omp
t our
▁A serbaidsch
▁W eich
et ch
▁An alog
zu lernen
gew inn
▁op tischen
▁Einzel fall
▁jün geren
▁gek ämpft
▁bl ühen
▁Band s
▁Mö beln
▁Vermögen s
▁Ill usion
▁spektakul ären
▁Ox ford
ie gt
▁A hm
▁G ur
▁aus wirkt
▁einmal ig
werk zeuge
▁bel ohnt
▁zusätz liches
▁Beg innen
▁wohl haben
▁Bef ehle
ij k
▁Cook ie
▁öst lich
▁restaur iert
▁Vorsorge prinzip
▁vorgegeben en
x x
▁Menschen würde
isk o
▁sicher es
[...]
