#version: 0.2 - Trained by `huggingface/tokenizers`
▁ t
▁ a
h e
i n
r e
▁t he
o n
e r
▁ s
▁ w
▁ o
a t
e n
▁ c
a n
i t
o r
i s
e d
▁ b
▁ f
e s
▁ p
in g
a r
o u
a l
n d
▁ in
▁t o
▁o f
▁ h
▁ m
a s
▁ d
▁a nd
i c
l e
i on
o m
▁t h
en t
i l
▁ T
i d
▁ re
s t
▁ n
▁ l
v e
r o
▁b e
▁ S
▁ e
▁ A
o t
▁ g
a y
l y
▁ on
u t
▁ I
a c
▁ M
a d
▁f or
▁ C
a m
e t
u r
i m
o l
i g
▁ is
▁ he
e l
o w
▁th at
e c
v er
u s
' s
i r
▁s t
▁ B
at ion
▁T he
it h
t er
▁ P
▁w h
▁w ith
▁ y
▁ it
il l
c e
▁a s
▁w as
▁ 2
o s
u n
▁ H
l d
▁ 1
▁a n
▁ "
er s
▁w e
▁a l
▁ W
▁a t
u l
r i
▁ R
a g
e m
t s
c h
▁c on
▁ D
▁ r
he r
▁ F
u m
▁s a
▁h a
an d
k e
c t
re s
o p
es t
a in
▁p ro
ou r
o re
t h
ig h
r om
at e
▁ L
i f
p p
▁ N
▁a re
▁c om
e ar
▁ E
▁ ,
e w
▁ G
▁sa id
▁b y
0 0
▁ .
es s
▁f rom
o d
▁ v
▁ha ve
m ent
▁e x
a b
it y
▁s h
or t
▁ -
s .
▁h is
s ,
▁n ot
ou ld
▁h as
▁ J
ar t
u st
i ve
q u
o c
▁d e
▁c h
is t
i es
▁s u
▁ le
a p
▁ O
▁ (
en d
al l
re d
s e
▁s e
as t
▁ u
▁o r
▁y ou
▁ U
an t
igh t
a k
ac k
ar d
n t
▁p l
e ,
▁s p
▁t r
i v
▁th is
ou t
o st
ec t
0 1
▁a b
i al
e .
u d
▁w ill
g h
ic h
▁ j
▁g o
▁w or
▁ K
i a
▁wh o
r ou
# #
▁w he
el l
e p
o k
om e
▁b ut
f f
▁the y
b er
▁ k
▁the ir
g e
▁he r
on g
▁o ut
▁h ad
u re
▁in t
, "
i an
▁c an
▁a d
▁I n
▁wh ich
▁al l
▁y ear
ic e
t her
▁be en
id e
▁a g
▁of f
▁d o
r a
c c
▁2 01
▁n e
i p
ou s
▁S t
f ter
▁u p
▁re s
▁c l
▁we re
▁com p
▁ un
u b
a re
▁T h
▁ us
at ed
al ly
' t
on e
i e
▁m ore
r y
ar y
ag e
▁ab out
▁s he
on d
▁ im
a ke
s o
▁I t
p er
or d
▁m an
in e
▁in c
ig n
▁w ould
▁a fter
ion s
▁ en
▁t im
an s
▁con t
▁p er
▁C h
▁m e
ac t
in d
▁p e
▁on e
o g
ver y
r u
am e
i le
▁re p
m er
i re
▁it s
id ent
i ke
▁o ver
▁al so
u e
▁s o
p t
▁ 3
ou nt
op le
a il
os e
e re
ar k
▁p art
▁ V
▁d is
a v
ow n
▁ '
o ok
▁n ew
l ic
an ce
d ay
is h
▁p ol
res s
ol d
en ce
ab le
ac e
i b
v en
▁t w
▁H e
▁pe ople
▁a pp
▁whe n
▁th an
▁ Y
it e
▁s ay
▁wor k
or m
as s
i z
▁the re
▁f ir
▁a r
es ,
u c
A T
l o
es .
▁ qu
▁re c
ic al
re e
▁o ther
▁ ro
▁T r
ve l
ac h
▁a cc
um p
▁be c
it ion
ou nd
▁s c
ic k
▁ex p
il d
an g
▁l ike
ul t
re at
ation s
ct ion
ou gh
▁the m
▁int o
## AT
##AT ##
en s
o v
▁im p
o in
y ,
he d
e k
n e
a us
am p
ic t
r it
▁fir st
n ing
▁p re
o ve
▁tw o
▁o ur
▁s er
w n
ad e
▁j ust
in k
an c
▁h im
▁at t
▁s ome
▁M r
ro p
ed .
is s
l l
nd er
▁k n
▁said .
▁t e
▁B ut
▁pl ay
▁wh at
▁ 4
▁a m
▁p r
▁n o
▁y our
▁tim e
ation al
n g
it t
▁an y
y .
m an
n 't
▁c ould
▁m y
or s
. .
▁Tr ump
a w
▁d ec
▁1 9
▁g et
f orm
▁in v
▁U n
▁ 0
▁s ec
▁W e
▁ if
▁ 5
▁2 00
* *
as e
i ous
ter n
ou n
▁ag ain
ol l
f ore
▁b ack
res ident
o b
f t
▁l ast
l ud
w e
us s
l and
▁n ow
▁d ay
at er
ub lic
aus e
ver s
▁com m
▁c o
▁u nder
w ay
u nd
▁be t
▁c ount
l i
at es
rou nd
ur n
ent s
▁on ly
▁re g
▁a ct
rou gh
. "
o od
▁ad d
re n
en c
▁A nd
ver n
▁b l
▁h ow
on s
h ing
oc k
▁d es
or y
ing s
it ies
▁in d
▁inc lud
▁con s
▁ &
▁m ost
▁sh ow
an k
ur ing
▁we ek
▁W h
▁f e
▁su pp
▁f in
▁A s
at ing
▁d id
ot her
▁re m
a ,
t e
i ew
▁m on
▁1 0
t on
▁be fore
a ir
at h
▁c ent
▁N ew
▁ne ed
er ,
u al
ar g
f ere
▁ $
t t
ro w
is e
ill ion
ed ,
▁be ing
▁p os
f ul
ak ing
om m
▁E u
▁" I
▁whe re
in ce
▁e m
em ent
▁ 6
r am
h n
vern ment
▁le ad
▁bec ause
it ed
u es
▁c all
▁w ay
▁Th is
▁b r
a z
▁sh ould
ing ,
▁l ook
▁m in
x t
l in
el f
o y
▁c ar
▁year s
▁m ake
v ed
▁a c
▁Eu rop
▁off ic
▁re l
ing .
or k
o ol
w ard
he n
▁f l
▁to ld
▁ very
▁e ven
▁e v
▁e very
▁A r
▁b u
▁f am
▁th rough
b le
▁p h
em ber
▁w ell
▁again st
le ct
r al
▁as s
▁m ade
d u
t ing
▁rep ort
ou se
al k
l p
▁d own
u p
▁ 7
▁w ant
e an
l ed
▁e ar
u ch
00 0
i ed
▁kn ow
▁man y
as on
▁" T
▁F r
▁m ay
▁ end
a u
c on
a x
▁c r
▁wor ld
▁l ong
▁de f
il y
▁th ree
rou p
▁comp an
▁the n
▁w om
▁o wn
▁L e
▁s ur
▁R ep
▁he lp
▁c ap
▁S p
as ed
▁th ink
o ot
l es
v ing
g an
▁wh ile
▁M ar
▁f ound
▁s et
▁ch ild
at ive
ers on
u res
oin t
▁mon th
▁ ke
▁t er
▁s y
▁ ##AT##
▁o p
▁be l
▁th ose
- ##AT##
▁##AT## -##AT##
▁P h
al s
▁go vernment
at her
er t
i x
ib le
▁l if
▁d on
▁d if
▁t ake
▁R e
▁re t
h ip
we en
▁su ch
mer ic
c om
ro s
ul ar
▁S he
▁h igh
r on
▁res p
ri b
i o
▁s m
▁inv est
▁R uss
▁m ed
, 000
▁go od
▁bet ween
er n
g g
▁w in
▁in s
▁it 's
ter s
▁st r
a red
al th
n er
▁se e
ow er
as h
▁d uring
▁ 8
an ts
▁c our
s on
▁A l
or ts
a .
▁m uch
ot h
il ity
if ic
▁st art
en er
is ts
▁the se
▁A meric
im e
▁A n
▁pro v
▁m ark
▁ ent
▁con c
r ic
▁te am
▁c ur
- y
ire ct
▁b us
oll ow
▁e ff
an ge
▁st ill
▁ #
ol og
d uc
is ion
j ect
▁st ud
ut ion
▁I '
vel op
▁su b
▁g r
ot t
▁S c
▁s ince
▁con f
e red
▁n um
ul l
' re
▁s ign
▁1 2
▁count ry
▁l aw
t y
a h
▁w ar
▁ser v
g et
▁dis c
i el
▁g roup
▁I s
▁go ing
a ve
▁S h
▁tr ans
▁P resident
▁g u
▁2 0
▁C omm
it al
oun c
-y ear
in ess
▁M ay
m in
▁F or
▁a round
m s
▁The y
ord ing
at ch
▁ 9
ad y
ment s
▁v ot
▁p ublic
om et
e ver
he s
le ar
▁ex t
▁r ight
st em
▁Y ou
le g
▁f our
▁b o
re nt
p r
igh ts
er .
▁U S
▁supp ort
▁f ollow
▁de p
▁re f
▁in ter
or n
m ed
▁l oc
▁le g
▁he ad
ic es
▁c ol
ri v
▁pol it
o ,
▁r un
▁in st
▁a ut
▁sec ond
▁say s
▁includ ing
ch ool
e f
▁st at
▁sp ec
i k
a j
▁h and
is ed
is ter
iss ion
u g
▁A ust
▁is s
l ing
▁d et
is m
▁The re
▁o b
e x
or th
▁c amp
iv es
▁m illion
▁th ough
▁pl an
▁do es
it s
▁op en
at t
con om
▁b ig
▁de velop
al e
▁ex per
y s
▁a ir
res ent
ou th
/ /
c ent
n ess
2 01
▁p ut
- b
▁don 't
▁pro g
r ation
▁ha pp
▁1 1
▁p erson
e e
▁s l
▁J o
em b
▁g reat
i vers
▁st ate
▁sp e
er v
: 0
▁O n
▁cont in
y ing
▁"T he
c k
i ent
ur s
p l
▁sy stem
ri end
▁pro t
▁201 6
ros s
tt p
▁us e
▁re al
▁h ome
▁ne xt
▁bel ie
▁v is
▁I f
▁d irect
ect ed
i et
▁B rit
u ally
▁p resident
: //
S .
▁t ri
▁o pp
- t
▁Europ ean
▁an n
p h
▁f ind
▁as k
re m
▁s oc
▁s ame
▁re qu
iel d
▁U .
▁b oth
▁ Z
▁mark et
s h
ly ,
v iew
▁ad v
in a
▁p ass
▁1 5
▁an other
a im
▁f il
▁att ack
ent ion
▁le ft
: 1
▁c he
▁c are
r at
ic s
▁Aust ral
ttp ://
▁dif fere
- old
? ?
le ction
en g
▁re st
▁m od
ers ,
▁" W
▁in form
▁pol ice
id ay
▁child ren
▁bus iness
▁Th at
at ur
▁C on
▁me et
▁inc re
▁b est
▁e conom
▁M in
▁f ar
▁b ro
o .
▁S y
re t
i er
▁n ear
▁d em
▁offic ial
am es
ce pt
▁p ay
▁pos s
a pp
▁wom en
▁in f
ut e
- f
tern ational
▁c re
▁ Ð
) ,
is hed
▁for mer
▁part ic
i ence
d er
▁H ow
▁us ed
▁ £
▁com e
▁num ber
▁cur rent
▁p ost
ers .
▁pol ic
ag es
: 3
▁s omet
ation .
▁m il
ak es
▁s im
▁m et
▁imp ort
▁pro c
-year -old
n ed
▁f ac
▁U. S.
▁he re
▁to p
▁ Q
▁re ally
ir d
▁b re
▁ :
▁d el
am ent
s elf
▁s chool
▁rec ent
▁c ity
▁A t
r ap
h or
▁n ight
a ff
▁Un ited
u red
t en
▁p ar
▁1 8
p ort
a ign
▁se ason
▁st and
▁B r
g y
▁he alth
▁fe el
i red
ec ts
▁be h
os s
▁compan y
▁Rep ublic
▁It 's
ot el
▁cl aim
ation ,
al f
▁Mr .
▁per cent
▁a v
▁g ener
od y
: 2
au gh
▁pre v
▁m ust
l ine
ap os
▁d ri
ar ge
▁st ar
▁I m
apos ;
▁& apos;
▁qu est
ere st
al d
▁ [
▁fam ily
p le
▁camp aign
▁P r
▁call ed
▁P ro
ear ch
▁g ot
en se
▁P ar
▁f ew
ain ed
ec hn
▁B e
▁all ow
ec ut
▁de al
▁ne ver
▁acc ording
: 4
iv ing
▁A d
▁Ch r
aj or
▁p rom
▁comp le
▁h um
in es
- 1
▁f ive
- s
▁man ag
un ity
▁to ok
▁c or
▁o per
ri es
▁f act
et s
▁s it
ed :
▁pro ble
▁bu ild
▁pl ace
ur ity
▁you ng
▁t urn
itt le
▁s k
w w
▁M c
) .
er ing
▁h op
os ed
▁m ain
▁prog ram
▁- -
e b
▁f ore
▁with out
t ed
enc y
▁r is
▁ar t
▁p oint
▁I nd
: 5
uc k
▁M an
n es
- c
▁P ol
▁f riend
▁m ov
▁a way
▁pro f
▁C ar
▁l ot
v es
▁lif e
r act
▁k ill
▁cont ro
▁int erest
l ess
lo y
▁. ..
▁ est
▁E ng
▁p op
▁t alk
▁ ed
▁d ist
ak en
▁re le
ial ly
ion al
▁1 4
▁un t
▁ )
ect ion
▁v iew
an ,
c es
▁ch ang
iv en
ic ally
▁differe nt
▁Jo hn
way s
ain s
▁h ard
▁c lear
▁m ove
es p
▁g row
▁m ight
▁c ame
ne y
▁201 5
▁or gan
▁p ower
▁m en
▁pro du
▁st re
on ,
▁t ax
- p
▁said :
ia ,
ert ain
▁2 5
▁c ost
▁Y ork
▁re ce
▁for m
n ce
▁m ajor
▁R o
y p
▁e ach
▁j ob
▁l ater
▁a ff
b y
▁exp l
in s
id ed
▁1 6
▁con d
▁ke ep
art ment
▁ro om
▁o ld
▁1 3
▁A ll
▁pro duc
▁p ast
▁h our
▁l ess
ur y
re ady
▁invest ig
▁le vel
▁G o
▁import ant
▁new s
▁ /
▁de b
▁l ittle
▁U K
at or
▁G er
a id
▁to o
▁3 0
▁polit ical
s ide
▁somet hing
ie f
▁W hen
▁H ouse
he re
e v
▁app ro
os p
▁f und
cc ess
▁w on
r or
an n
▁s ix
a 's
▁his t
▁v ict
▁bet ter
re en
▁al ready
in c
▁s w
▁se em
▁Americ an
▁A m
▁I' m
▁sm all
i or
ivers ity
▁h ttp://
one y
en n
at ure
▁se en
▁N orth
in al
- m
▁S o
▁it .
▁cap t
▁E U
▁h om
▁ex c
▁B l
▁proc ess
▁ ve
▁B ar
i ver
▁ret urn
ain ing
▁J an
▁m us
iz ed
▁n ational
▁pro p
ec h
** **
▁t echn
▁1 7
▁p ress
▁m ar
▁soc ial
▁e lect
▁ +
and s
it ing
c hed
▁ph ot
th ing
le y
▁aut hor
▁al ways
▁g ame
▁S outh
emb ers
▁inform ation
▁ev ent
al ity
▁L ond
▁s ol
b r
▁D on
end ing
▁Russ ian
▁did n't
ate ly
▁f ree
2 0
▁per form
▁Fr iday
▁l ist
▁s ing
▁p at
▁ch ar
▁rec ord
▁unt il
▁m at
▁w ent
▁e l
▁e qu
day ,
▁ “
▁ab le
i um
▁c as
ar ing
▁loc al
▁st ru
h am
▁M ond
▁day s
▁de ath
▁le t
st er
▁tr a
▁happ en
▁C l
oc rat
▁e as
iv ed
ur g
▁C an
▁W ed
▁d r
▁J un
e g
▁T w
▁S und
▁ag re
ir l
b s
ed er
ounc il
▁Mond ay
▁P l
l ish
pt ion
▁st op
▁con st
- d
▁work ing
▁bec ome
▁ha ving
▁c rit
▁whe ther
p loy
▁w ater
▁f oot
▁f ut
▁sa f
▁201 4
▁h ouse
▁t aken
i ol
▁se x
▁Chr ist
ever ,
▁ ide
▁Sund ay
▁O ne
us ed
▁2 1
▁C ent
▁D em
▁C o
' ve
b e
▁b as
▁D av
▁T ues
▁mil it
▁cour t
a ut
is ing
end ed
▁tr ad
▁Ger man
g in
2 .
▁t our
▁v al
▁ind ust
▁m iss
▁ac ross
ab ly
ep t
▁am ong
▁m aking
▁s ent
▁g ive
▁app ear
re st
▁le ast
le ,
▁follow ing
el s
▁h alf
o ver
▁b ook
▁med ia
▁ear ly
▁su ccess
u ed
pp ed
▁in j
b all
▁comp et
e al
▁stat ement
id ence
a i
2 ,
▁' I
is on
▁inv ol
▁c ut
▁des ign
▁f ull
a un
▁m om
▁al ong
ag ue
u ge
▁Th urs
▁in ternational
a f
▁p riv
▁d at
▁g iven
st and
▁D ec
e le
▁hum an
▁O r
ies ,
▁"W e
id d
▁dec ision
▁Wed nes
▁St ate
▁said ,
▁spec ial
▁Wh at
▁h old
▁c ust
▁c ase
▁W ith
▁sh ort
▁conc ern
▁l arge
▁e lection
or ld
▁fut ure
id er
▁cl ose
ies .
m .
▁O b
▁A fter
▁w rit
▁sec urity
▁t ell
▁Comm ission
▁pl ac
▁th ings
ron t
1 0
ar s
▁act iv
▁with in
on y
▁N ational
▁poss ible
▁f ail
▁fin al
r an
▁fin anc
▁f ur
▁Russ ia
▁re ad
m ost
▁t est
un g
▁b ank
▁J u
▁str ong
5 0
▁C ity
▁quest ion
▁v ide
im es
▁se ver
t he
▁s al
▁m embers
day .
▁A M
▁su gg
▁S atur
▁th ird
▁b en
▁E x
iz e
▁ris k
w ork
▁( 00
▁vis it
▁19 9
.. .
oc i
▁C om
us p
li ament
▁Lond on
▁S ec
ts ,
▁H ar
▁s um
re w
▁partic ular
▁or der
▁P M
i am
▁month s
w are
▁p oin
▁ch ange
▁P ost
▁fam il
if e
e, "
▁l ove
▁ ****
c o
▁report ed
▁sever al
e ad
ard s
▁r a
▁St ates
▁cl ub
▁kn own
1 .
get her
▁to gether
7 ,
f or
al if
/ 201
g er
▁tim es
ra w
▁T o
▁en c
▁Mar ch
▁wh y
▁p ot
▁E d
ian s
▁p resent
▁A f
ent ial
▁W est
▁tra vel
▁part y
▁p res
▁pro per
el t
▁des c
as ter
▁A b
▁count ries
▁m oney
lo b
▁O ct
▁h otel
▁C lin
le t
▁f ight
▁h it
ir on
ect ive
▁res ult
ore d
an e
ri ed
ts .
ar m
ious ly
▁Brit ish
are n
▁a p
id es
▁al leg
B C
▁A pr
s, "
▁g l
▁st ay
▁G e
i ,
▁2 4
▁Trump 's
▁m or
s el
le ment
min ist
▁C ol
og rap
▁r ul
▁f ire
▁m other
▁sp ok
▁imp ro
▁S en
▁of ten
▁K ore
▁though t
he ad
▁us ing
▁ch arg
um ent
▁wom an
▁th ing
▁belie ve
▁e ver
▁2 3
▁t aking
fere nce
▁c ou
▁In st
▁S w
▁en ough
▁say ing
f ic
- h
▁s usp
▁current ly
▁on ce
▁w alk
▁v iol
us h
▁ask ed
ur ch
▁f un
as hing
▁p o
▁W orld
▁Dem ocrat
▁S e
▁t reat
▁h ig
▁acc ess
▁th reat
r ight
it ions
▁cour se
▁Im age
▁year .
▁like ly
ru g
▁are a
▁re ve
▁Ph one
i qu
▁l ow
▁cust om
▁wor d
▁min ut
▁year ,
▁H is
r ing
9 ,
▁k ind
▁f all
he l
l ished
al y
▁fil m
it ive
▁an t
ro wn
▁fur ther
▁m ess
▁r ights
▁em ploy
▁f ood
▁develop ment
▁S ept
▁bre ak
itt ed
▁c ertain
▁rel ations
▁beh ind
▁Ch ina
▁Clin ton
▁o cc
u ary
▁contro l
▁bl ack
▁s ide
▁he ld
▁Ob am
▁de v
ro om
▁As s
▁D ep
▁S u
▁ –
g ed
▁y et
o f
▁av ail
a ul
▁"I t
on t
▁en g
▁l ive
qu ot
▁proble m
- l
▁M us
▁ch o
p or
8 ,
▁G u
▁Un iversity
▁t yp
ition al
▁d ou
▁polic y
▁Austral ia
▁A ug
ap s
▁Europ e
▁w r
▁g irl
n ot
ion .
olog y
li er
▁Sy ri
quot ;
▁t re
▁b ar
▁w ro
▁l and
ly .
if ied
ur al
m en
▁ne g
▁B re
p ar
▁& quot;
m y
c ed
▁st ri
c her
2 00
a ur
ward s
ecut ive
▁f ace
im ate
1 ,
o x
her n
▁sit u
▁c op
▁disc uss
▁w ind
▁p ub
▁b illion
▁Apr il
osp ital
ac y
▁Min ister
▁that 's
▁me an
ion ,
▁b it
▁D e
▁com es
▁su ff
3 0
l am
at s
▁" A
iv id
▁econom ic
i od
▁milit ary
▁l o
on es
▁al most
▁Don ald
▁t em
▁cl ass
▁g am
▁ch all
▁meet ing
lob al
. com
▁201 3
ab ility
▁me as
▁serv ice
eder al
m ber
s p
▁5 0
▁h ost
▁p le
▁st aff
6 ,
▁look ing
▁f ront
▁su re
ul ation
y l
- w
▁v ar
▁le ar
’ s
h ic
f ort
▁n et
▁W ill
o ke
▁sh ot
or ,
▁financ ial
▁l ine
▁exp ect
▁mom ent
▁j oin
▁j ud
▁M ed
▁f oc
▁f lo
i ber
▁ann ounc
ar ter
ove mber
▁n ame
/ 1
▁l ost
▁Jan uary
▁Dav id
▁G r
▁f re
in t
▁dat a
▁l ight
r ict
▁b all
: 00
▁sugg est
at ic
▁s n
▁ad minist
al ,
▁R es
▁f ig
▁# 1
ib ility
▁J ust
▁tr ying
▁Wh ite
v iron
y n
▁pro ject
▁N ovember
▁c aus
▁start ed
▁Eng land
▁avail able
▁en s
anc es
▁play ers
▁D r
▁br ing
our n
▁ro le
it her
o ber
▁rep resent
▁d ue
le x
▁C ouncil
▁can 't
▁ «
▁f av
▁get ting
▁O ff
▁F l
▁N o
▁Sept ember
▁exp ected
▁T ur
▁desc rib
- 0
ag ed
om in
▁ ident
th ough
m ing
▁1 00
▁a ction
▁he art
▁sh are
▁H er
▁do ing
▁l ate
▁B el
▁A ng
▁me ans
▁per iod
▁lead ers
▁reve al
▁opp ort
c he
our t
▁ch ief
▁t arg
▁hop e
▁P art
▁d rug
viron ment
▁&apos; s
▁to t
▁l im
▁c ult
en e
▁acc ount
▁c and
▁p ict
▁w a
▁exper ience
▁indust ry
▁im m
ru ct
ec ess
▁resp ons
fic ult
▁pos ition
▁serv ices
▁l aun
▁official s
▁ »
▁Pol ice
ress ed
▁2 2
▁F eb
▁con v
▁b ill
▁W ar
▁prof ess
k n
▁st ep
ul ts
▁Jun e
g o
▁f ather
▁does n't
am ed
▁201 0
▁N ow
▁priv ate
▁p ri
er y
▁Ph ot
▁ben ef
il ar
as ing
' ll
▁f ield
ashing ton
▁M y
or ies
7 .
▁( 1
ens ive
▁out side
o on
▁Oct ober
▁compan ies
ra ft
oun ter
▁C or
▁d oc
▁dif ficult
▁re ason
▁ter ror
▁Brit ain
▁d one
▁Dec ember
augh ter
▁pr act
es ts
▁him self
▁Wh ile
▁en er
▁for ward
▁g round
▁b ased
ak h
▁to day
ep end
▁Ge or
▁ex amp
▁att em
ir c
▁qu ick
▁want ed
▁res earch
▁comm un
▁e y
ate g
▁leg al
▁mor ning
▁vide o
ren ch
▁Un ion
▁direct or
▁e mer
▁" S
k s
▁sa w
▁W ashington
▁p ain
is c
▁b ody
o ff
▁m akes
▁ad m
▁ro ad
▁n on
j oy
ow s
▁l at
▁E l
▁under stand
er 's
▁le ave
▁de ad
▁ar rest
▁det ail
▁comm unity
▁su per
▁c ele
▁inter view
▁r ac
▁(00 :0
▁bec ame
▁f ell
▁P et
▁ke y
▁A cc
▁fore ign
iv il
▁L ab
av ing
it ter
ver age
al .
▁ar g
▁contin ue
rem e
m p
en ,
r ain
▁hour s
▁conf ir
▁com ing
du ct
▁in it
am er
a res
▁to wn
▁P al
a el
▁re d
n ers
▁M ich
▁C ourt
▁ser ies
ur d
i -
▁A g
▁play ed
iz ation
⁄ 4
, '
▁tr y
our ce
_ _
op er
u ff
▁Ju ly
▁S ome
b ook
▁he 's
▁be gan
▁Sc ot
▁P ark
at ors
▁P e
▁d am
▁o il
om b
▁vot e
▁hist or
▁se ven
▁con n
. 5
▁s en
▁How ever,
▁cand id
▁Aug ust
▁iss ue
▁w atch
▁l ed
it or
re am
▁build ing
itt ee
▁mus ic
▁T V
▁l arg
- 2
▁comple te
▁vict im
▁are as
▁ er
▁Republic an
re et
itt ing
▁Austral ian
▁can c
▁be gin
▁prov ide
▁r ather
▁A ir
▁off er
b our
▁wh ite
ret ary
▁F rench
▁act ually
il t
▁Sc ott
ru ction
▁d en
- up
▁b oy
▁rep orts
▁poin ts
▁d i
s w
▁4 0
▁st e
▁kill ed
l im
▁cap ital
ac hed
▁wh ose
▁com ment
st an
f er
um b
▁com b
ove red
▁sing le
▁year s.
▁H ill
▁en joy
- st
▁spok es
° C
▁inf l
▁ X
▁$ 1
▁sign ific
▁cl os
re ad
▁s on
▁P er
▁show s
▁p ick
▁g lobal
id ing
▁it ,
▁ed uc
w .
▁r ound
m e
▁Tues day
le .
▁cou ple
il ities
▁S m
▁c le
it iz
▁c reat
ob ile
▁se ek
▁des p
▁N ot
▁ind ivid
▁pro b
▁them .
es c
▁b ad
▁or ig
. 1
iet y
ag e.
▁New s
▁targ et
▁b an
▁l ink
u el
▁s old
ap e
▁Satur day
▁wro te
▁h ospital
▁announc ed
▁m id
▁ z
▁s elf
ang u
▁ear lier
▁minut es
▁relations hip
▁mat ter
/ 0
ra el
?? ??
▁char ac
▁g ames
▁tr ade
▁grow th
b ack
▁d est
▁you 're
▁m ass
▁pr ice
ch ie
ud get
▁ac cept
▁en vironment
▁e ight
ist ic
i enc
med i
▁l iving
▁Par liament
▁or d
5 ,
▁re view
in ation
og n
▁pre p
▁Thurs day
▁f r
▁add ed
▁m ot
▁Af ric
▁partic ip
▁capt ion
▁sh op
▁s qu
▁m atch
▁ex ecutive
▁th ous
is es
▁t ou
▁go al
re g
▁not hing
▁E m
▁tim e.
▁produ ction
▁incre ase
▁rece ived
▁be aut
▁est ab
▁includ e
w h
▁cons um
. 0
▁ esp
s c
▁M s
▁Wednes day
ol ution
▁d iv
. '
▁p aren
▁Fr ance
ru ary
▁ Ñ
▁M el
▁B y
le v
c hes
red it
▁stud y
is ,
▁qu arter
▁individ ual
▁who le
▁m ult
i pp
▁Is rael
▁on line
▁tim e,
pl ay
▁Dep artment
▁a head
▁rele ased
▁l ab
a ult
idd le
▁M ark
j ects
d d
in ed
ec ially
▁in tern
is l
it ution
▁other s
▁tr ain
b and
▁prop os
al t
▁det er
▁c oll
▁g ave
sel ves
▁inc ident
▁' T
▁spe ak
▁can not
▁need s
▁Feb ruary
▁ i
▁person al
▁h or
ir st
i ents
▁sh oot
▁sim ilar
▁some one
" :
rough t
▁ener gy
ograp h
r ay
y c
▁play ing
e ared
▁we bs
▁d ied
▁St e
▁bu y
▁requ est
ap er
▁E n
▁signific ant
t o
▁In ternational
▁fe at
▁administ ration
▁M os
▁ab s
▁sum mer
h old
▁iss ues
g est
▁m ember
▁ev idence
▁de ep
iv al
▁st ory
▁A pp
u k
it ch
▁year s,
2 5
▁ vers
▁week s
▁p ark
▁" H
▁o pt
▁s ell
▁pl ans
ough t
▁f ederal
l er
rib ut
▁k id
▁crit ic
▁d aughter
▁v ol
end er
▁r ate
▁bo ard
▁opp os
ag n
▁h ol
▁f ile
▁19 8
et t
i ec
▁b ord
▁a chie
▁off ice
▁lead er
▁so on
▁author ities
▁Ang el
▁cons ider
▁gener al
▁B ank
▁che ck
ip e
▁qu ite
om an
ig r
▁M ore
e y
▁s ect
ww w.
▁M or
▁ <
▁rem ain
l us
▁desp ite
alif orn
f ield
▁c ivil
amp ions
▁c itiz
I S
f ord
▁t it
▁comm on
- -
▁b ed
ot i
▁K az
▁lat est
▁M on
▁n ecess
▁friend s
ang er
▁a ge
et y
o id
▁pot ential
▁re ach
z e
▁Scot land
▁D ay
c ast
▁c irc
▁he ard
▁near ly
▁F ace
▁M o
8 .
ke y
us e
w ood
▁I' ve
y le
▁qu ality
▁was n't
anc he
at ives
▁pop ular
▁esp ecially
et h
ir t
▁Is lam
ud e
▁201 7
▁hig her
▁J ap
▁r ad
▁rep l
▁m ind
ful ly
▁c al
▁attem pt
2 4
▁app lic
p an
' d
▁m ater
6 0
▁"T h
ag e,
▁ ’
▁dem and
in ,
▁wr ong
▁im medi
▁foc us
▁F in
▁D o
▁min ister
▁h us
as k
▁Obam a
▁m em
▁resp ond
are nt
▁cr im
▁The se
▁hist ory
▁foot ball
▁res ident
▁bro ad
od e
ot e
▁ind epend
ia .
- g
▁Acc ording
x it
▁every thing
▁ch ance
▁P aul
▁run ning
▁s at
9 .
s k
▁tr ack
▁on :
▁a im
▁bl ock
▁recent ly
ist ry
▁agre ement
▁Ch ar
p ly
▁turn ed
en ed
ur b
A S
▁G od
▁for ce
ic e.
3 ⁄4
▁Tw itter
i j
if y
▁N e
▁p ort
▁show ed
▁H am
▁h on
▁B ro
▁cond ition
▁tot al
▁a ud
▁T e
▁Mich ael
▁impro ve
▁there 's
▁L a
if t
ir th
▁lead ing
ra z
▁l angu
▁situ ation
o ard
▁net work
▁Face book
un t
▁S an
3 ,
▁cent re
f ect
▁that ,
▁comp l
▁b ab
end s
▁Ph il
▁p ack
▁he av
h ib
▁f elt
▁stru gg
ent ly
▁b att
▁cr is
▁f ear
▁pub lished
e et
▁C up
▁Can ad
▁M ad
ourn al
▁ve hic
▁cre ate
▁re v
▁him .
▁cont act
▁s ite
ines e
▁so ft
▁ent ire
▁S er
ot s
▁un c
▁S un
▁l oss
▁cop y
▁big gest
▁am ount
▁b rought
▁H ol
▁sur pr
▁sp ent
▁fir m
▁Le ague
r ad
▁imp act
▁invol ved
▁b udget
▁2 6
▁J ames
▁" M
or ter
▁perform ance
▁res ults
▁look ed
▁co ach
ens ion
c ome
▁ide a
▁rec ogn
3 .
▁press ure
▁p en
▁S ch
ity .
▁F ore
▁ex ist
▁int ro
▁ne igh
▁leg isl
▁cele br
ation s.
uc lear
▁h uge
b or
▁g un
h t
▁b lo
▁neg oti
▁an im
▁St reet
en ing
- r
▁Will iam
▁A lex
▁E ar
▁need ed
f act
ber t
▁p aid
▁alleg ed
▁work ed
▁reg ard
▁h ous
▁prot ect
▁Ch inese
▁p ers
' .
▁co ver
▁treat ment
▁ass oci
on se
our ces
▁ ?
▁reg ion
▁particular ly
▁pol l
▁ ri
ac her
▁O ur
▁ch air
ail y
▁any thing
▁Q ue
▁prob ably
n y
u x
▁long er
s y
es tern
▁Kaz akh
or ters
▁H otel
▁S am
▁chall eng
▁ab ove
n a
▁rest aur
▁charac ter
▁col le
▁produc ts
▁its elf
er c
▁ass ist
▁C aliforn
▁Phot o
▁opport unity
▁ser ious
▁mater ial
as ,
▁ext ra
▁add ress
▁Jap an
▁ar ri
▁we 're
▁do ct
▁w ants
o le
▁2 8
7 0
▁stud ents
ul ly
it ness
▁E ast
▁car ry
▁ ill
▁paren ts
st r
if f
▁say s.
▁re b
▁Post ed:
▁L ast
▁pro s
h ttp://
▁deb ate
▁Bre xit
▁cont ract
▁ph ys
▁cre ated
c ial
und red
▁sh all
iqu e
▁Eng lish
▁mod ern
▁e ither
▁con ference
▁he ar
▁Sy d
▁sex ual
▁s ound
▁produ ct
▁Q u
e es
▁D an
▁dis p
▁mod el
▁C ount
▁w el
▁app eared
▁p red
▁n atur
it er
▁ins ide
▁t akes
ic e,
▁ins p
▁resp onse
▁set t
▁describ ed
h ood
ver t
u le
▁spe ed
▁bec om
op h
▁investig ation
▁tri p
▁pr ison
▁Go vernment
in o
▁prev ious
▁G l
all ed
▁w ide
▁proble ms
▁week end
▁ag o
▁C ong
▁tr aining
▁dr ink
▁U k
▁spec ific
▁appro ach
▁every one
4 0
r im
O R
▁emer g
▁B BC
5 .
▁C ons
ut y
▁reveal ed
▁B er
▁s le
▁ter ms
▁s earch
▁rem ains
▁invest ment
row d
▁am b
ist an
▁requ ire
▁att ention
E R
▁c ross
b ody
▁hus band
▁pri or
a ud
▁d raw
y 's
▁ens ure
▁S erv
▁spokes man
▁P at
▁tri ed
▁em ail
ad es
▁1 .
▁group s
ur ning
▁" B
▁incre asing
▁play er
ear cher
▁S im
▁dou b
um ents
i res
▁f ans
▁chang es
▁wor th
or .
▁doc ument
▁con duct
ag ing
▁l ack
▁p air
4 .
s :
▁n ation
ex ic
▁d ro
▁seem s
- in
▁hol iday
▁A ct
▁2 7
▁rec omm
▁G roup
y an
▁em b
ig ration
▁includ ed
al es
▁eff ect
ent al
▁dec ided
▁s ense
4 ,
▁se par
l ight
ra q
▁an sw
u e.
▁med ical
▁n uclear
▁Re g
▁to wards
▁w ife
r is
▁sen ior
▁l ower
he st
6 .
▁g en
> >
▁Rep ly
▁off ers
▁P ort
▁co oper
▁them selves
▁g as
� �
▁sim ply
▁6 0
▁p m
ity ,
▁claim s
▁http:// www.
lo ad
▁b al
▁f em
ou l
en .
▁c ard
e ed
▁Sen ate
▁ph one
▁president ial
▁they 're
▁sp ace
▁ 01
▁M ac
ress ive
▁M art
ak er
▁sub ject
▁allow ed
ce ed
▁I raq
2 2
▁F irst
▁R ich
▁Lab our
▁mess age
▁prev ent
ort hern
▁F rom
▁b irth
▁r ange
▁re n
u it
es e
▁" d
▁st ock
▁h ar
ess ion
▁quest ions
▁acc used
▁M P
▁work ers
o o
▁l os
▁b od
▁st ates
ell ig
▁dis app
▁B en
▁pe ace
▁n orm
▁ ̧
▁is n't
▁Mc C
ur t
i ant
▁S and
▁M exic
▁The n
▁help ed
▁p ur
ick et
st on
▁gr and
▁reg ul
▁ter m
▁polit ic
r ac
▁sc ient
▁G ener
▁per fect
m ark
▁imp lement
▁reg ular
o res
▁eff orts
▁J ack
▁L os
an a
▁Americ a
t ain
re l
- 201
▁a verage
▁l ives
ce ment
▁ urg
▁inst ead
s. "
▁bu ilt
▁ro ck
▁saf ety
▁eff ective
▁stre ng
▁" s
▁ref uge
▁That 's
▁viol ence
▁cond itions
▁thous ands
as es
▁tem per
h aps
ay s
▁N et
O N
▁pr im
▁bro ther
▁att ract
ut h
▁1 ,
ec k
augh t
▁Uk rain
ov ed
▁manag er
▁pre c
▁spe ech
id ge
▁Ass oci
em ents
m it
▁R ed
▁H ere
▁sur v
▁e p
▁stud ent
p ing
▁v ill
kn own
▁offic ers
▁I ran
▁c rowd
▁care er
▁M al
▁Pr ime
ve y
▁d ate
in ary
▁p an
▁s il
. m.
ly mp
▁al though
▁w ond
oun ts
▁u nd
▁copy right
ut er
▁" O
▁O ther
▁kn ew
▁w all
▁dis e
▁c ause
▁ind ic
▁h undred
▁bo x
▁w ipe
am b
▁infl u
▁work s
m l
▁0 4
▁re fere
. ,
▁m is
2 3
▁do g
▁cris is
is ation
▁' W
▁dec l
▁contin u
id e.
▁fav our
e at
▁K ing
ic le
i .
▁cent ral
▁any one
at ory
I N
▁col lect
▁p iec
▁techn ology
2 Ð
▁d oll
▁econom y
▁larg est
▁proper ty
▁V ict
▁E ven
A R
▁re du
p ro
▁f air
▁O f
▁I S
▁M anche
er ve
2 1
▁claim ed
▁pre m
▁r out
▁O lymp
▁for ces
▁2 9
▁s un
▁stre et
p ed
▁O p
d own
ar ian
▁Par is
es ter
duc ed
▁n orth
▁necess ary
▁com fort
▁be at
▁Ar t
▁I r
ou d
if ul
▁A nt
k y
re ct
▁pr ices
▁201 2
ar a
▁Bl ack
ut ions
▁blo od
or ing
▁Pe ople
r ast
at al
▁st age
▁P rem
▁V al
▁d anger
▁re form
c el
▁for ced
▁custom ers
▁S oc
▁compet ition
▁eas y
l ike
▁law s
▁week ,
▁C he
▁trans port
▁resp ect
9 9
ure ,
▁manag ement
▁Ar men
▁won 't
▁v o
▁el se
▁citiz ens
e um
m a
m as
ide red
▁prov ided
▁M att
in e,
▁sh ared
i ers
▁mov ed
se qu
-b ased
▁p un
ip le
▁enc our
u fact
▁le aving
▁tw eet
and er
▁meas ures
▁G old
olog ical
▁Syd ney
op e
▁f ast
▁St at
A N
ly ing
ak ers
▁pr inc
▁how ever,
▁Sm ith
▁and ,
▁sal es
▁dri ver
ri ef
▁open ing
▁H igh
▁Geor ge
▁pos itive
▁r ace
▁law y
z er
- A
▁b ott
▁s ens
▁t able
▁sl ow
▁is land
▁ esc
li ed
▁j ournal
▁let ter
▁( A
▁we ap
▁var ious
▁Democrat ic
▁Kazakh stan
▁rul es
▁s outh
▁fail ed
▁commun ic
▁exper ienc
▁ev ents
▁num b
▁eff ort
▁g old
s "
▁grow ing
ill ed
▁cas es
ber g
▁d ram
▁n ine
▁in n
▁T om
▁av oid
▁val ue
▁natur al
▁tou ch
s et
on a
tt y
▁look s
▁It al
b ed
▁g iving
u e,
▁a ware
▁happ y
▁"It 's
en ge
▁T im
▁prev iously
c ow
▁vict ory
ad em
h an
h at
▁p age
▁& #
▁m ach
▁dis play
▁happen ed
▁re ady
▁includ es
S C
son ,
- e
▁Tr ans
▁beh av
▁caus ed
▁Th om
▁inj ur
▁cons idered
▁m ag
▁ex act
▁post ed
▁Mus lim
ac ed
▁quick ly
▁st ra
ro l
v ent
ation s,
▁go es
air s
▁cl imate
ad d
ur ance
▁Comm ittee
▁b omb
e ated
oy al
▁c ru
ro ll
ast ic
▁s ong
8 0
▁cle an
wh ile
im um
▁that .
▁incre ased
▁major ity
▁dem on
▁n amed
▁c amer
▁m ill
▁G reen
▁ob s
us ,
▁Fore ign
ut ers
ed om
or g
▁belie ved
▁cost s
▁off ered
▁sp ot
al ys
R L
▁m e.
- S
ellig ence
▁" c
v al
▁" the
▁phot o
▁Tw o
enc es
ate ,
▁Kore a
▁Pl ay
▁res earcher
▁stru ct
▁sp ort
▁ad op
▁dou ble
▁open ed
▁dri ve
ish ing
▁win ning
▁bel ow
Y ou
1 ⁄
▁confir med
▁arrest ed
▁call s
▁prot ection
▁r ise
▁week .
▁sign ed
▁s ource
▁Ar ab
y ond
▁c ast
om en
ill s
▁up d
▁r ates
il le
▁Manche ster
▁hand s
▁0 9
2 )
▁attack s
▁Con t
▁an aly
▁201 1
▁2 .
▁br and
▁pass eng
▁ke pt
▁Scott ish
▁ra ised
▁d ig
▁M ember
▁vers ion
▁ar ch
▁charg ed
▁d in
it es
▁conf lic
ure .
▁Gener al
▁0 8
is ions
▁ext reme
res h
▁3 1
ht ml
t .
▁sc hed
v est
ip s
▁" C
▁Man y
▁man ufact
-t o
▁sc en
ut in
▁ex ch
▁He alth
▁ann ual
▁O ver
▁L oc
▁v ia
▁immedi ately
▁£ 1
▁U N
▁comple x
▁J os
? "
▁ !
h ol
▁oppos ition
▁car ried
▁c ounter
▁" b
▁C ap
▁re ached
▁pro jects
▁c ell
▁m ount
▁te lev
ol f
erv ative
▁ob ject
▁d om
▁D uring
▁Mr s
on e.
ir it
▁requ ired
d e
igr ants
il es
▁fam ous
▁T od
ment .
ian ce
▁M ic
▁famil ies
ve re
g round
or id
ell ing
▁r at
▁0 3
▁profess ional
▁eng ine
▁sy m
▁Islam ic
▁t en
▁start ing
▁a ward
▁sc reen
▁app eal
▁webs ite
▁bord er
▁agre ed
▁four th
b ur
riv al
ia 's
rop ri
▁par ts
▁add ition
▁Fr anc
▁stand ard
ance ,
▁Mos cow
▁Christ mas
▁K im
▁200 9,
▁b ase
▁S chool
g ar
▁ ess
▁stri k
▁s we
▁D irect
ress ion
ock ed
▁T ex
▁W ind
▁lear n
▁langu age
▁ ;
▁L aw
id e,
▁sub st
ri al
▁sp end
g ing
z z
▁concern s
▁c redit
ash ion
▁part ners
9 1
▁comp ared
▁se lect
▁2016 ,
▁7 0
▁def in
i ar
▁up on
ag ram
▁tr ust
▁pre tty
-t ime
▁word s
▁"Th is
▁through out
av es
▁rele ase
▁saf e
an .
▁r ap
c hen
▁B ill
c y
ic .
▁R ob
ud d
▁activ ities
▁M s.
▁E very
▁certain ly
▁ref er
c l
▁k ick
ate .
▁w at
▁examp le
▁laun ch
▁stra ight
▁b orn
▁te xt
▁0 2
▁lif e.
▁re act
▁German y
m ar
▁orig inal
est ic
▁educ ation
▁Sec retary
▁est im
▁comm it
▁te en
▁Vict or
ib ly
▁add ing
▁M er
▁achie ve
o 's
▁fl ight
▁rel ig
ed d
▁f ully
7 5
▁typ e
▁air port
▁offic er
▁ent er
▁benef it
▁p ow
ain t
▁m ention
g es
▁beaut iful
▁design ed
▁fig ures
▁prom ot
▁0 6
▁vot ers
▁T imes
ol ute
▁J on
▁crim inal
ro y
▁D ef
ar ant
▁l ik
he t
ip l
▁him ,
out hern
▁sp orts
▁tr aff
it ute
▁m iddle
▁int eg
▁st ation
▁( R
▁A ut
p re
▁there fore
▁job s
▁them ,
▁follow ed
r id
▁con vers
▁ il
n ight
▁M e
- ter
▁could n't
v an
▁get s
▁0 5
▁Part y
in e.
▁c ouncil
▁act ive
▁rece ive
▁par liament
▁loc ated
▁d rop
2 6
▁200 9
▁Ad d
▁estab lish
▁S ince
▁V ir
▁hig hest
▁success ful
et ,
ampions hip
ment ,
t op
3⁄4 Ð
▁pat ients
▁ro ll
as c
▁St ep
▁const ruction
▁ab ility
▁M ur
▁com ments
▁c at
us hed
▁" P
▁fin ally
lin ed
▁ha ir
▁d ark
5 00
▁de g
▁sh ares
▁cont ent
h od
9 3
▁ch arge
y m
▁ag ency
ent y
▁sle ep
ific ation
▁w ild
▁Bel ar
▁con g
▁people ,
▁g reen
▁Cong ress
▁add itional
▁op in
▁country 's
on e,
ic ient
▁begin ning
▁contin ued
▁c ities
▁out .
F L
▁G re
▁day .
▁add ed:
▁ass ault
▁s an
qu e
anc ed
▁sp ending
▁M il
▁Chr is
▁talk ing
m on
▁im ag
▁po or
": "
um e
▁8 0
ac hes
▁part ner
▁h ot
▁laun ched
▁soft ware
▁sur round
▁ro b
▁g one
p e
▁sect or
▁M et
il ed
b it
▁c ash
▁s end
▁people .
▁b rief
:3 0
▁0 7
res p
▁I re
▁we ight
▁Off ice
▁M obile
▁te acher
▁wh om
▁2015 ,
2 8
▁be yond
u gg
▁fig ure
▁trad itional
▁" N
▁we ather
▁" F
- 3
▁call ing
▁P re
▁" a
▁an g
▁L at
i ation
▁" D
▁appear s
▁inj ured
lin es
▁cont ribut
▁sp oke
as ons
▁An other
▁me ant
▁o ption
▁sh own
' m
▁str ateg
▁m e,
▁us ers
1 1
▁Syri an
un k
b l
▁tr ue
▁su it
ic ,
U S
▁somet imes
▁( C
▁enc ounter
led ge
▁p urch
▁mil es
▁telev ision
▁sp ac
▁" f
/ 200
▁cent er
▁j ail
B I
▁Republic ans
▁B ay
▁r are
▁world 's
ar r
▁9 0
▁b at
▁T er
▁Min istry
▁del iver
g n
▁mov ing
ell ,
▁Ire land
- M
as hed
▁tit le
▁il leg
▁ch amp
▁R ec
on .
s en
▁Fl orid
▁C r
▁level s
▁ ver
▁Su per
▁bab y
▁restaur ant
▁part ies
▁19 7
▁fem ale
▁m ist
▁im age
p m
▁3 5
▁pl at
b urg
▁world .
▁em ot
▁deter min
ure r
ar ily
sy ch
▁f ix
▁M ost
▁st orm
▁co ast
▁st or
▁add ed.
▁it em
▁a w
▁join ed
▁s ort
▁organ iz
e xt
▁200 8,
ict ion
bour ne
4 5
▁day ,
▁end ed
▁way s
▁Americ ans
▁A re
▁season .
▁chang ed
▁after n
▁occ ur
▁independ ent
im b
▁l og
▁aut om
▁N or
▁comm ission
▁B rown
▁detail s
▁writ ten
ar i
y d
l es,
et .
▁a id
▁cons ult
▁C N
st e
▁O '
▁show ing
▁Cent ral
▁adv is
▁cooper ation
▁ex hib
▁Car ol
▁ ult
▁go vern
op s
2 7
▁rem ember
▁high ly
▁n ature
ally ,
▁f est
on n
ated .
ri an
▁rem ark
▁K e
▁sim ple
ru it
▁ex am
▁b ath
h ,
▁equ ip
▁bas is
▁than k
▁Sp an
▁J ul
▁dep artment
ru pt
y a
▁an alys
▁mar ri
▁victim s
▁Sec urity
E S
▁ac qu
▁gr ad
▁Cent er
▁return ed
▁p ath
▁talk s
▁sa ve
▁do or
ance .
▁Prem ier
pp ing
▁Go og
▁A c
▁200 8
▁def end
or row
▁ob v
▁pass ed
▁'T he
▁app oint
▁p ool
▁sc ored
▁f an
gh an
▁L ord
▁k m
eng th
▁John son
▁( M
▁sp read
▁l ay
▁pur p
▁complete ly
▁numb ers
▁war ning
▁candid ate
sh ire
▁phot os
▁ap artment
▁pl ant
< /
▁ann oun
▁Inst agram
et ty
▁co al
▁m ur
▁J e
▁F ox
e 's
▁L ou
k in
▁tr ou
▁d ress
▁B raz
▁init i
▁chall enge
un ch
esp ite
▁rel ated
▁respons ible
▁T ra
▁re ven
▁j ump
▁charg es
▁Pet er
▁seem ed
▁jud ge
▁expl ain
▁m ix
▁b i
▁cor por
▁S al
▁per haps
▁att end
▁sur f
ad ium
▁gu arant
▁ex cept
▁" w
▁sec retary
.com /
▁dis m
▁W all
▁fund ing
▁feel ing
ag er
▁G reat
▁batt le
ict ed
▁ar m
▁ag o,
▁f resh
ly n
▁pop ulation
▁b ag
▁be ach
▁Sp e
▁feat ures
▁country .
▁trans fer
▁And rew
▁proc ed
▁clear ly
▁Belar us
▁war ned
▁br ain
▁un f
▁contro vers
▁N ov
▁Con st
▁propos al
▁my self
▁ant i-
▁com mer
▁occ as
▁great er
▁real ity
re c
▁c aught
az az
v ention
▁int elligence
▁Tod ay
▁Sw ed
▁ter rit
-ter m
ipl om
__ __
ic ial
▁H all
5 )
▁pros ecut
▁Tur key
▁Hill ary
ct ions
▁Is land
▁suff ered
▁sc ene
▁reg ist
▁cl osed
▁j oint
s '
▁recomm end
▁direct ly
▁Californ ia
▁st ore
▁adv ant
1 6
▁w ish
▁W il
▁room s
▁sol ution
▁tri al
i 's
um an
▁r ank
▁Sp ain
▁prog ress
▁sp l
A .
▁s em
▁Mel bourne
▁exper ts
▁ass ess
▁respons ibility
▁power ful
4 8
▁v ac
▁resident s
9 0
▁Just ice
▁" m
▁s ize
u ro
▁Braz il
▁K en
▁A ff
ow ing
f riend
ann el
▁redu ce
▁cho ice
▁team s
it ation
▁R os
d om
- se
▁re nt
ph p
▁pict ure
▁met hod
▁suggest ed
▁g ives
or ney
▁reg ional
▁to ol
▁school s
▁min or
▁Hol ly
▁fun ction
o e
▁Rich ard
** *
▁He 's
▁exact ly
▁R yan
▁M iss
am a
▁Democrat s
O P
▁canc er
▁c ere
▁se a
ist ed
▁iss ued
▁Char l
▁leaders hip
ag ement
▁prot est
▁develop ed
▁arri ved
ate gy
▁miss ing
▁ser ver
▁rep eated
▁19 6
▁"The re
▁ag enc
▁In tern
▁year 's
▁se at
- C
h a
▁D espite
he m
▁wond er
man ,
nd um
▁Ind ian
▁ex erc
▁G ar
ent ially
A D
▁prop osed
▁flo or
▁W estern
▁U nder
▁Olymp ic
▁as p
▁to ward
▁news p
▁" t
A C
▁her self
▁2014 ,
is ters
▁" L
l ant
▁concern ed
! !
▁Wh y
rib ution
▁hundred s
▁system s
▁c ook
▁Geor g
in n
▁St ar
3 3
▁plac es
▁fre edom
▁dom estic
able .
ing :
▁re ject
▁would n't
▁researcher s
▁plan ning
▁hold ing
▁C hel
▁wa it
k en
▁Angel es
▁s ust
▁elect ric
ous ly
re f
ard en
: 01
▁v ir
while ,
▁dri ving
▁l iber
r ang
▁exp and
▁up .
▁sc ore
▁" h
v is
▁d ire
▁imm igration
▁Al though
4 )
▁2 ,
l ig
▁S aud
▁h arm
▁f le
▁w itness
▁fight ing
▁adm itted
▁Ro bert
E O
r ick
▁b id
j ust
h ouse
u a
▁There 's
▁shoot ing
▁Fr ank
ul f
▁M ill
B S
▁ser ved
▁bo ost
a ith
▁in qu
▁ ]
▁now ,
▁belie ves
om s
▁far m
anc y
▁In c
▁en for
2 9
▁we aring
▁ra ise
▁mur der
▁run s
▁move ment
▁dam age
▁acc ident
ell ed
▁abs olute
▁Y ear
▁3 .
ic a
p ts
▁go als
▁r ail
▁Pro f
i pped
▁fin ished
▁J ud
im ately
▁b ur
▁fell ow
▁R el
▁B u
▁sec ret
▁refere ndum
▁Vir gin
▁ins urance
ou s.
o or
▁mov ie
1⁄ 2Ð
▁we 've
▁J ones
: :
▁S ant
▁ag ree
▁D is
▁Christ ian
▁becom ing
▁heav y
▁t al
▁acc om
▁d ream
▁Count y
▁10 ,
r ated
▁d iplom
ing er
▁view s
ab in
p ool
iz ing
▁ret ail
e. "
▁cor rect
y r
▁r an
▁Mart in
▁0 .
▁l ose
▁wor st
▁M ean
▁phys ical
▁c ateg
▁is ,
▁ap art
▁pict ures
con t
▁p ul
▁comm ittee
as .
▁cl ot
1 5
▁answ er
ack ed
▁conf idence
▁Ital ian
▁b and
▁c yc
▁plat form
z ,
▁Goog le
▁G ood
▁p et
▁T re
▁emerg ency
▁Syri a
▁t ough
▁do z
▁R oyal
▁Pr ince
▁" p
▁N o.
3 5
▁Span ish
▁2015 .
▁K el
▁kid s
▁us ually
▁r ain
▁temper ature
▁C ru
▁e t
▁there .
se a
us .
▁prov ides
▁Y our
▁ch urch
▁I nt
▁res c
▁ag g
▁( S
b um
▁che m
▁he aring
▁sh ut
3 )
▁prep ared
▁Afric an
- sh
▁t ack
▁i P
u ct
▁seek ing
▁p urs
p et
▁plan ned
▁pre gn
▁t on
ant ly
▁pr ime
ic ip
▁g ues
▁cult ure
▁def ense
▁at h
▁prof it
▁polic ies
▁k it
▁CN N
ent ,
▁n omin
▁p ush
▁lim it
▁th row
▁t ro
▁J ew
▁hom es
▁App le
▁p .m.
ent .
▁K ar
▁bl ue
▁mean ing
app ed
▁manag ed
ag o
▁Gu ard
▁cap ac
▁sk in
▁ ir
ro g
▁inc ome
▁app arent
o very
re y
▁fl ag
▁H ome
un ities
▁sh ock
▁sw im
▁E r
▁put ting
▁Af ghan
▁p ull
▁ey e
▁activ ity
▁Kore an
t ,
▁n am
ir ing
▁influ ence
▁aff ect
▁event ually
▁vot ed
- of
▁see ing
ic i
▁F ar
▁sp irit
▁not ed
ec ause
on 's
▁d omin
com ing
- and
ru /
▁she 's
or s,
▁own ers
o ly
▁pract ice
▁Com pan
- th
▁B oth
▁rest rict
▁spe aking
ab les
▁comp uter
▁ser ve
▁le ague
o es
ill ing
k i
ru ption
▁med ic
▁C ub
▁pat ient
▁dep art
▁month ,
▁W ood
▁I' d
▁estab lished
▁f at
▁p sych
I C
▁commer cial
▁e at
▁T urn
▁be g
▁legisl ation
rou d
▁prim ary
▁hom e.
ad ,
H S
E C
▁allow s
go ing
▁mass ive
n et
m ond
el ess
▁un ique
▁count ri
▁tell ing
▁fav or
ry ,
▁D ist
▁tre nd
or al
▁proper t
it ude
▁Tur k
▁p aper
▁L iber
е н
▁I I
▁U p
▁night .
▁" You
▁fac ing
an y
▁f ram
▁request ed
▁f if
▁mill ions
▁flo od
▁oper ating
▁Gr and
il ing
▁2010 ,
▁ad vert
▁s ister
▁tour n
▁ ut
h ab
am s
- day
ent ed
▁fl ights
▁differe nce
▁w id
▁employ ees
▁disc overed
▁Holly wood
▁un it
▁B us
rib ute
▁L et
▁off ering
▁l ic
lus ive
▁well .
ew here
▁M ike
▁e th
un e
▁un s
▁f ashion
с т
▁un like
▁d ed
ic es.
▁l ength
▁inn ov
▁sh ip
▁wind ow
▁soc iety
E N
▁S up
▁stri ke
▁separ ate
▁f ine
i e,
▁al tern
▁rel ative
▁( U
ad ed
▁'I t
ropri ate
▁d raft
rast ruct
kn ow
▁conn ection
▁war m
ist ,
n el
ul ated
▁supp orters
▁car s
▁den ied
▁L u
ab or
ron ic
▁how ever
▁St ud
▁r ule
▁m obile
ad ing
is b
bur gh
in a,
▁D el
i h
▁ag o.
▁aftern oon
ri ption
▁M ary
as ts
um n
T he
▁cont est
▁applic ation
▁ask ing
f ast
▁sm art
▁gam e.
▁iss u
▁techn olog
▁d aily
▁cr ime
▁examp le,
▁cho ose
▁P ress
▁think ing
▁organ ization
▁exper t
▁5 00
▁A tt
i en
▁Th ose
▁over all
▁b ond
▁C al
- off
▁aud ience
por ary
▁analy st
6 )
C .
w ell
h y
▁comm itted
▁orig in
▁cult ural
▁ ign
▁gr ant
▁ear th
▁str ategy
▁"I f
i os
▁s ale
m ore
▁" G
▁T or
▁wa iting
= "
omm od
▁The ir
▁crit ical
id el
▁l a
us hing
▁oper ation
▁Op en
▁In ter
▁pro sp
▁Tues day,
ib r
▁qu alif
▁course ,
▁" E
▁doc uments
▁later ,
▁Ch ic
ap t
▁inst all
▁demon str
▁ro se
ott en
▁under st
ak ed
ow l
▁Serv ice
▁al bum
▁benef its
▁( N
ri pt
w here
lic k
▁bro ke
▁aff ord
▁mult iple
a it
▁win ner
▁act ions
▁again .
▁cons ist
▁kill ing
▁neigh bor
= =
▁s om
▁contin ues
▁sched ul
▁im ages
▁m ental
▁Friday ,
▁cr ash
▁S il
▁ref lect
a >
▁find ing
▁201 1,
b n
▁w ood
▁confir m
▁In vest
▁C amer
▁fund s
▁ha ven
▁exch ange
▁ €
3 1
▁alleg ations
▁on to
▁than ks
b oard
▁know s
en 's
a e
▁S n
▁sl ight
▁sur ger
▁Monday ,
▁200 7,
▁Ch urch
▁V er
gy pt
▁along side
our s
▁ п
c raft
▁inj ury
▁S ar
▁d er
▁Trump ,
.. ..
▁chair man
▁st yle
▁fac ilities
▁D en
▁her .
▁St .
▁A C
▁supp ly
T V
▁help ing
▁s itting
μ Ð
▁tr uth
-p ro
▁4 5
▁conf ident
▁B ern
un ning
▁M od
▁los ing
▁m ission
▁conn ect
▁hop es
▁N S
▁res ources
▁ %
▁M ag
m ine
▁ey es
▁conc lud
ric ult
▁g ra
▁200 7
L L
ar ,
4 9
php ?
▁am id
▁ 00
▁fl ow
▁C le
▁E conom
ate ver
co hol
on ald
▁out ,
▁fre qu
▁will ing
▁rem ind
▁D own
▁fl at
▁month .
et er
▁ac know
▁eff ects
▁w ound
▁Dr .
▁exp ress
▁dire ction
▁extreme ly
▁plac ed
▁old er
res s.
▁P utin
l or
▁Bar cel
▁on es
▁B ig
m at
▁ep is
▁W ork
▁Thurs day,
te red
- B
▁Saud i
▁b ul
p s
▁anim al
▁Wednes day,
▁col lection
▁environment al
▁doub t
ic ed
▁present ed
▁c red
▁S ir
▁dro pped
▁f uel
▁dec ad
▁con sequ
▁opport unities
▁aff ected
- P
▁It aly
▁lim ited
▁inc red
▁increasing ly
▁set ting
l ad
▁dist rict
il ty
▁season ,
▁meas ure
p ut
▁intern et
ad or
▁L iver
▁we alth
▁t ask
as e.
▁St r
▁norm al
▁champ ion
▁O ut
l es.
▁ve ter
▁mot or
ton ,
▁reported ly
▁writ ing
▁techn ical
▁Ch ief
▁b oss
▁prov iding
is .
▁dest roy
▁business es
▁link ed
▁stop ped
▁mon itor
▁exp ressed
ar ies
▁co ol
at a
▁h ref
▁del ay
▁T ay
▁D aily
▁act or
▁l ived
▁exc ell
▁F ound
▁hous ing
ation :
▁c old
▁( P
▁F BI
is her
▁ab use
▁N orthern
▁How ever
▁inf rastruct
▁Ch ild
▁qu iet
р а
il s
▁n ice
H ,
▁Pro t
iz z
▁stat us
▁'W e
il i
▁E gypt
w oman
▁b ought
▁wor se
7 )
▁rad io
▁exist ing
▁your self
▁Tex as
▁S ol
▁here .
▁4 .
v ant
▁to o.
▁colle ag
▁invest ors
▁produc ed
n s
▁opp on
▁comfort able
▁gues ts
▁know ledge
▁art icle
▁W al
igh ter
▁fe ature
</ a>
▁tr ail
r ig
▁per m
▁cons id
▁Ste ve
▁wel come
▁stand ing
▁C amp
▁statement .
▁r ich
▁develop ing
pp er
▁now .
▁fe ed
▁res ign
▁W in
▁sn ow
b ol
▁s ides
▁200 6,
▁cre w
▁Sand ers
' ,
▁acc us
▁vehic le
s id
▁program me
P I
▁work .
▁un iversity
▁Sup reme
1 8
ri f
▁Inst itute
▁acc ommod
▁indust rial
▁def ence
▁m er
▁M ail
b re
he w
▁equip ment
1 )
▁danger ous
▁F er
▁even ing
▁girl s
▁W at
▁C am
▁p ra
▁piec e
▁sc ience
▁" R
▁M iddle
▁he ro
▁res olution
▁own er
▁Liver pool
itution al
▁Mc G
▁J oin
▁m ax
▁market s
▁you .
f l
▁st uff
in h
▁t ight
▁walk ing
ite ly
▁R od
▁def eat
▁circ um
▁K h
ort ing
▁princ ip
a ire
▁f it
▁p roud
▁E v
▁pres ence
▁with d
▁Y et
▁D et
▁gu ilty
ul ate
к а
▁fin ish
▁f aith
▁H el
▁creat ing
3 6
▁commun ities
▁opin ion
▁loc ation
▁J im
3 8
o ch
▁world ,
▁Cent re
▁poss ibility
ri ff
ang ing
▁fe et
▁phot ograph
▁mar ried
▁support ed
og ue
el ,
▁l iv
/201 6
▁dec ades
ad .
▁tourn ament
▁E ll
▁Co ast
▁p ound
▁tre ated
- n
m et
▁m one
▁Un known
▁streng th
▁bank s
▁200 0
ew ork
▁tr uck
▁gu ard
▁2016 .
▁deb ut
▁j our
▁t ast
▁N ic
▁Franc is
▁D es
▁stru ck
▁C ur
▁watch ing
▁" n
▁most ly
▁B ul
," "
▁neigh bour
i very
▁oper ations
an 's
1 7
▁am end
▁rem ained
▁sp ect
▁cent ury
▁Wind ows
▁st ick
▁Ear th
▁B ur
▁way .
▁kit chen
▁c overed
▁Th ank
▁l ines
▁large ly
est in
▁F re
▁bed room
▁< a
▁vo ice
▁R om
▁m ic
▁fac es
it z
▁traff ic
▁H uman
hen s
▁( I
▁p il
▁eas ily
▁R ad
ic es,
▁mag az
▁ 's
▁over se
▁prom pt
▁mem or
k a
▁c atch
▁Que ens
k o
▁' S
m akers
▁R E
▁Je ff
▁co ff
▁say ,
ri e
▁m ale
▁v ul
he red
▁sol id
ov a
▁Soc ial
▁ath let
S T
l ass
▁2013 ,
ists ,
▁al one
▁am az
▁expl os
ens ions
-- --
▁H aw
▁interest ed
▁ref used
▁up ,
ide o
▁play s
▁produ ce
3 7
▁keep ing
▁U s
▁J er
▁night ,
and a
▁star s
▁un ion
A P
▁N ick
▁3 2
▁r id
and on
▁S ur
▁y ester
▁estim ated
▁f ired
▁polit ics
▁n om
ar ch
- a
▁alleged ly
▁ag ed
l a
-t he
▁step s
▁W ales
▁drug s
▁on .
▁you ,
ism ,
s s
▁Ind ia
▁illeg al
▁deb t
stand ing
4 4
▁dig ital
▁2014 .
▁doct ors
▁P ri
▁sur vey
! "
▁behav i
▁you th
▁25 ,
by n
▁c ry
er ved
▁Dan iel
▁U RL
▁dism iss
l ook
▁inst it
▁re asons
▁intern al
▁f ra
▁n ar
ott ed
▁st ress
▁F ederal
▁bas ic
▁ro w
▁Be fore
▁At lant
▁di agn
ec ution
▁C EO
fort un
▁l iter
▁Thom as
▁l ands
▁C ast
▁Im ages
w ord
v ille
in .
ac he
▁he at
▁ar rang
ech an
▁decl ared
▁weap ons
▁n or
u ing
▁3 6
▁sign s
A ,
▁A p
▁neg ative
@ @
▁intro duced
▁L ike
▁win ter
▁Intern et
▁are n't
▁st ories
▁De velop
u pp
ot ed
ord in
▁vot es
▁air craft
▁pul led
in ing
▁P ublic
▁sec ure
o z
▁n orthern
▁tw ice
▁William s
▁terror ist
▁al cohol
▁not e
▁M ont
▁gl ass
▁rel ax
▁201 2,
▁Inst ead
8 )
▁capac ity
▁ren ew
ur ric
▁t end
▁"I 'm
▁fac ed
▁adv oc
oc ol
ou s,
▁Commission er
▁stand ards
▁An n
▁Mean while,
in i
▁country ,
le ase
▁act ual
▁cur ren
ism .
9 )
▁l uck
▁m urd
▁Turk ish
▁Or gan
▁Associ ation
▁Florid a
▁act ress
▁ ????
▁w est
▁Z eal
▁fif th
▁F am
or s.
▁trans l
▁ident ified
▁Can ber
▁g iant
ing ly
▁K n
▁h all
▁cl in
▁ple ase
res a
▁analys is
▁bott om
▁conflic t
▁' A
▁e le
ro c
enc ed
▁dec isions
▁s ection
▁wro t
▁l oved
▁2 2,
° Ð
▁us er
▁Britain 's
▁for t
▁em ph
▁un able
▁occ up
▁P ak
▁I ts
▁dec lined
▁relig ious
▁l ux
▁dec ide
▁F air
▁dise ase
c an
▁us .
▁g ain
▁se vere
anc ing
▁b reat
ro v
▁import ance
▁Mus eum
▁compl ain
▁W omen
▁interest s
- le
▁de leg
▁ rival
r acy
in y
▁res ol
u nder
▁tell s
▁th r
▁sh ar
▁" g
ol it
▁Armen ia
ac ing
▁refuge es
▁com ed
l os
▁f ish
▁ex ecut
▁exhib ition
▁R ock
im in
▁g ent
▁"H e
ra wn
▁Afric a
▁r ally
n ces
▁pay ing
▁Cor byn
▁st ret
▁ ice
er o
t ime
ab b
m osp
▁miss ed
▁foc used
▁advant age
▁v an
▁Am az
▁An y
▁res erv
▁Zeal and
at ically
▁sp ark
▁allow ing
al se
▁Sunday ,
▁Med ia
▁n ames
▁B ecause
▁G al
▁bath room
▁̧ Ð
▁dem oc
com /
▁cons ervative
▁( G
ill ,
▁sat is
▁may be
res s,
▁no vel
▁est ate
iv ity
ic on
▁init ial
▁T our
▁g ar
ar io
▁pay ment
▁T echn
▁200 6
▁vul ner
▁b ird
i est
ive red
▁gu y
▁O ld
▁organ is
▁pro ceed
▁lif e,
▁g rew
form ation
- ch
▁pop ul
▁corpor ate
▁C ard
u ,
▁we ak
▁feel s
▁R oman
▁su ic
▁susp ect
▁201 7,
▁carry ing
▁e ast
du ction
i as
▁inqu ir
▁all ,
ad o
▁high light
▁cou p
▁contro ll
▁J am
u ly
▁ord ered
ot a
▁L ew
able ,
▁Cl ub
▁l ock
b an
▁ris ing
4 6
ph one
▁ple as
▁M at
▁comm and
▁R iver
▁haven 't
le y,
▁Bel g
▁rep orters
ning s
op p
▁C ome
▁Aut hor
▁Re al
▁Canber ra
▁bel ong
▁schedul ed
▁visit ors
▁rec all
▁Lou is
▁w edd
▁sub m
1 9
▁Step hen
▁N av
ang ers
▁O s
M T
ul a
▁near by
I D
▁te le
▁art ist
▁exp ensive
▁Ab out
▁F und
▁scient ists
ad s
▁expl ained
▁lear ned
▁sc r
▁sc and
▁circum st
▁pen al
▁te ach
▁su dd
oss ible
▁mus eum
▁5 .
▁B oard
▁Dist rict
▁p ap
▁app ly
▁behavi our
▁r ub
▁d ial
▁v irt
ut ch
im ent
ex p
4 7
▁3 00
▁negoti ations
▁commit ment
▁vill age
▁3 3
▁For mer
▁s outhern
▁health y
ess ions
ou red
▁Join ed:
▁absolute ly
ist ics
▁miss ile
▁del ivered
▁t ear
▁to w
▁rem ov
▁inc om
▁associ ated
▁cl ick
▁Al so
▁"I n
▁M a
ow ed
▁cor ner
▁R ights
▁S k
▁B ush
▁Chel sea
▁Be ach
▁pr ay
▁Japan ese
▁announ cement
▁Har ry
ant ,
▁t ick
▁elect ions
▁' H
▁bal ance
▁aim ed
▁em p
w ide
at ,
t ained
▁passeng ers
▁candid ates
▁res ist
▁company 's
▁NS W
au g
▁vis ited
▁cont ain
igh ters
act ion
▁particip ants
▁s ession
resp ond
▁A v
▁att ended
▁cut s
y. "
= http://
▁pl ed
▁ob lig
▁J ord
▁Res earch
▁sell ing
▁W ay
▁Friday .
▁opt ions
▁appro ved
▁read ing
:1 0
▁ent ertain
▁adv ice
▁m ap
▁trad ing
▁in .
ag on
j an
▁invol ve
▁excell ent
▁Ir ish
e qu
▁G OP
▁st y
▁D ar
it ect
▁at mosp
▁R io
er ous
for um
ste in
▁st ood
cept ion
g e,
▁Mexic o
▁ac adem
▁profess or
l ies
▁comple ted
▁just ice
▁ ”
▁J es
▁we ar
▁k ne
▁sa v
▁On ly
▁custom er
▁rem oved
it e,
▁Satur day,
▁ @
▁doll ar
▁Direct or
▁s ources
▁pl enty
▁wor ry
an ch
▁m ort
▁bring ing
▁T est
ig g
ut s
▁$ 1.
▁B ook
▁Tues day.
▁report ed.
ource :
▁back ground
ill a
▁on e.
▁Br uss
▁this ,
▁supp osed
▁larg er
r .
▁vot ing
▁long -term
▁fore cast
- R
▁s ought
▁ess ential
▁camer a
▁h ack
▁plan e
is e,
▁chem ical
- T
▁appear ance
▁We 're
▁P ac
▁what 's
▁R T
▁t icket
▁IS IS
▁c e
▁W el
▁Queens land
▁G ra
▁Monday .
▁ap olog
- L
▁beh alf
▁lear ning
- on
▁Ukrain e
el .
▁interest ing
▁fr ust
b on
▁f ant
A L
ath an
w ise
▁sudd en
▁experienc ed
▁trad ition
▁un ivers
▁cent ur
▁N ations
a uc
duc ing
▁C redit
▁typ es
▁Th ree
ic ated
▁Sh ow
▁point ed
▁cas e,
▁H ospital
▁has n't
▁S ing
▁ab us
▁r ough
▁per man
▁Ad am
le ge
iss ions
▁pre fer
▁Prof ess
▁independ ence
▁ant i
▁ •
▁women 's
ree k
am in
▁beaut y
▁nom ine
▁Jos h
▁instit utions
▁becom es
▁A le
▁Pal estin
) :
▁ag end
▁wr ite
▁Mo ore
▁Br ad
▁enfor cement
▁B o
▁Wednes day.
▁p al
▁A ri
▁an c
▁Jo e
▁p itch
▁m aster
▁m echan
▁h urt
ev in
▁M u
ab led
▁B al
▁On ce
▁s and
as tern
▁stre ets
ivers ary
ok ing
▁we b
▁val u
▁determin ed
▁cr ack
▁elect ed
▁there ,
▁ ***
▁Mad rid
▁capt ain
▁Ar sen
▁Ber lin
▁month s.
▁pro ve
▁China 's
▁sugg ests
▁opt im
▁comp lic
▁emph as
▁L ib
▁t urning
at re
▁m igrants
▁young er
9 5
ke ep
▁conduct ed
▁V ol
ig er
▁P u
it arian
▁pot entially
▁Thurs day.
c are
▁3 4
it e.
▁to day.
▁Wh o
▁P en
O S
▁( D
▁The resa
ot ic
itt e
▁clos er
▁As h
▁cl ient
▁( T
▁$ 3
▁ret ire
▁plac e.
▁B est
▁3 ,
ay ,
ol a
os ,
▁Bus iness
▁server .
▁fund ament
▁Mur ray
f it
lin e.
▁she l
▁marri age
▁squ are
▁good s
▁bod ies
at ures
E D
▁mount ain
▁equ al
ell ow
▁Spe aking
▁discuss ed
▁lawy er
▁children ,
▁B or
▁k il
i y
▁consum er
▁suff ering
▁Le g
▁dev ice
▁ar med
▁P ict
▁ С
▁support ing
▁bro ken
▁main tain
▁T op
▁Canad a
▁ag ricult
▁say s,
▁r u
B A
▁rul ing
▁J ere
▁challeng es
▁iP h
▁Air port
▁vehic les
▁record ed
▁r om
ah ,
▁21 ,
lus ion
▁defin itely
▁big ger
▁immedi ate
▁sust ain
▁thous and
▁Bro ok
▁urg ed
▁"The y
ol ic
▁ —
р о
▁critic ism
▁F il
idd en
▁colle ge
▁ent ered
6 5
▁acc ounts
▁for c
▁cele b
▁disapp oint
▁O h
▁way ,
▁F est
▁wh atever
iver se
▁grad u
▁200 5
if e,
▁regard ing
▁br ight
enn is
▁altern ative
▁rem aining
▁f ly
urb an
▁trans p
а т
▁m ut
▁g e
▁N HS
▁shop ping
▁injur ies
▁Ac adem
▁S qu
▁att orney
r ist
▁et c
▁rap id
▁rem ove
▁foot age
or 's
▁cond em
▁acknow led
▁sym bol
▁M ax
amp ;
▁spl it
▁hom e,
▁report ing
▁star ts
▁F ire
ac e.
▁histor ic
▁Lond on,
ap ed
▁F eder
▁fil ed
▁3 8
▁fra ud
▁program m
os ition
▁colleag ues
▁din ner
▁fail ure
▁app ropriate
▁self -
▁You ng
▁Canad ian
▁g ather
▁G en
▁col our
▁partners hip
▁Kel ly
▁V an
▁N FL
▁F our
ub e
os ing
▁Le e
▁work ,
▁ser iously
▁H en
▁program s
▁chang ing
▁system .
▁Aff airs
▁understand ing
ac u
▁F ollow
▁min ute
▁coal ition
▁m agn
▁individual s
▁sing er
▁dis s
▁v ice
] >
all ery
▁controvers ial
▁w ww
▁lo an
k ed
a is
▁away .
ia )
▁Sp ec
▁th us
▁sit es
▁O l
▁gener ation
▁adop ted
▁walk ed
▁min imum
▁great est
▁famil iar
al u
on om
▁B ob
▁E ner
▁down .
▁Ed in
▁b urn
▁w ake
r as
▁D ub
▁us es
▁ve get
▁non -
▁D eb
▁le aves
u ction
▁back .
ak s
▁che ap
▁c y
▁wel com
▁consum ers
▁F oot
▁then ,
g u
▁S um
▁cont ext
▁though ,
▁Pak istan
▁sent ence
id ency
I T
▁repeated ly
emb ly
▁un us
1 4
▁infrastruct ure
▁v ast
▁w ine
▁L uc
▁to m
ony m
ac ts
▁government 's
▁ ́
g ers
▁o dd
ac e,
▁v ision
▁cru cial
og an
7 7
▁small er
▁Ro ad
▁D u
▁Be ij
▁V iew
-s c
▁restaur ants
▁k ing
tern al
▁gent le
▁An th
+ +
am ing
or y.
▁f ruit
▁pick ed
ists .
▁ed itor
▁emer ged
▁day s.
▁e ating
▁Australia 's
▁rep orter
A M
▁re duced
▁b oot
▁do .
▁I' ll
▁A P
▁regist ered
OR E
▁discuss ion
i us
▁init ially
▁re in
▁S at
▁C oll
▁Sp orts
▁ext rem
▁children .
ri ble
▁val ues
un te
ik a
▁Israel i
▁newsp aper
▁politic ians
▁you 've
▁dri vers
▁D ou
▁var iety
▁L as
▁cont em
▁D .
▁Se a
▁N az
▁down load
▁app rec
▁Ch ampionship
▁this .
▁www .
▁Barcel ona
ad a
-m on
▁har ass
▁fest ival
en a
▁fall ing
▁Cru z
▁imp ossible
▁200 5,
▁f alse
▁gu ys
el ine
8 5
▁represent atives
▁fact ,
▁K at
u an
▁l ob
▁Carol ina
▁hop ing
▁sub sid
▁inst r
▁Edin burgh
▁d ry
▁it ,"
s hip
/ h
▁slight ly
ive .
ain e
:2 0
▁W alk
▁d iet
▁S l
▁help s
▁prom ised
▁all .
am ,
н о
▁T ony
▁ann iversary
▁comp ar
t r
▁d u
▁gu est
▁L ove
▁hon est
▁F ree
▁R em
▁book s
ad ow
▁$ 5
▁bo at
▁m arg
▁mention ed
att le
▁atmosp here
▁C are
▁r app
▁Am ong
is e.
▁phot ograp
▁l ad
▁K er
▁M ount
ut es
▁accept ed
▁conv ention
▁occur red
▁Que en
▁P lease
▁B ack
▁Chic ago
▁n av
▁doll ars
if ying
▁surpr ise
▁3 7
н а
▁stud ies
▁break fast
▁L ong
▁MP s
abin et
n er,
ri er
▁Sunday .
▁As ia
es. "
- G
▁on ,
▁occas ion
▁Compan y
▁anim als
ac es
▁int ended
anc ell
▁post s
k ,
▁prom ote
▁R am
▁e gg
▁Bar ack
▁P enn
ated ,
in ct
▁penal ty
�� ��
▁ar ms
▁for g
▁L y
-c alled
▁ad just
▁well ,
▁emot ional
00 ,000
▁15 ,
▁ar riv
▁( F
▁20 ,
▁Matt hew
▁p ushed
▁ar my
▁fram ework
1 3
▁wide ly
▁F ed
▁purp ose
▁H ou
▁item s
▁Ex p
▁act ing
▁sh ift
ter ,
▁unc ertain
▁arch itect
▁l augh
az z
▁conc er
▁pro ved
▁Alex ander
▁ x
rap h
et ic
▁Comm unity
▁4 8
▁B ell
us al
▁caus ing
▁We ek
IN G
▁ch ain
▁employ ment
▁surround ing
us ion
▁Pl an
sel v
▁trou ble
▁trans ition
▁squ ad
em ploy
ocrat ic
▁V lad
▁gam e,
▁you 'll
▁T ime
▁Com p
▁B et
T A
▁invol ving
▁c ode
▁jud g
▁K l
▁p it
g r
▁hotel s
il ton
▁ide as
i xt
▁Med ic
▁tro ops
▁san ctions
ri p
iven ess
▁dec ade
▁unlike ly
▁underst ood
▁( B
▁ag ent
▁y ards
ass ador
▁spokes woman
- 4
▁b ound
:1 5
ic ious
▁sur ve
▁stand s
▁agenc ies
▁on going
▁W here
▁Satur day.
▁house hold
▁propos als
▁again ,
▁se lection
▁St and
▁K evin
in em
m illion
▁Jere my
i at
▁V ideo
▁Pr ice
▁exc lusive
▁ch ampionship
is hes
c a
▁repl ace
land s
▁s ick
▁dep uty
▁day s,
▁Ro ber
▁gener ally
▁h at
▁D un
▁mess ages
▁del ivery
▁W he
▁g arden
▁E lect
▁rec overy
▁record s
▁19 5
▁reg ulation
▁6 .
▁St adium
▁lead s
▁A li
▁lab or
▁m al
▁dev ast
▁c oun
-mon th
▁cor respond
▁happ ens
▁Sen .
▁b are
as e,
▁head s
▁Ch air
▁pan el
ov .
▁more .
▁( the
▁Develop ment
▁rul ed
▁v en
▁sold iers
▁Ar ch
▁consid ering
▁conc ent
▁relative ly
▁e ld
▁ 't
▁R ub
▁p arent
▁b ra
▁famil y.
▁des per
it ors
▁reven ue
▁g ap
▁J ac
ug by
▁con cept
▁C elt
▁wrot e.
▁d ie
▁O sc
▁eas ier
▁S ub
os es
▁cal c
▁g ender
▁de als
▁coll abor
1 2
▁ab andon
▁J enn
m ,
▁ter min
▁l ov
▁list ed
▁m ad
▁se es
▁tr uly
▁mach ine
▁pre par
ie v
▁( p
▁sett lement
▁199 0
ok ed
91 ;
▁government s
land ,
▁scient ific
▁P C
▁man ,
s )
▁for get
▁Arsen al
▁ind ex
▁the rap
urric ane
▁doct or
▁pat tern
▁so -called
▁require ments
▁know ,
▁acc ord
▁wat ched
▁requ ires
g ent
O M
▁M ir
▁jour ney
▁st ores
▁risk s
▁D am
▁A BC
ort ion
▁ide al
▁f ill
▁E duc
▁disc rim
3 2
▁Br isb
▁St ock
▁pl ants
▁&# 91;
▁pred ict
ver se
▁month s,
▁num erous
u gh
▁max imum
▁e uro
9 8
▁Phil ipp
▁p ension
▁ es
▁build ings
▁dis aster
▁implement ation
F P
O T
▁rece iving
en /
▁conc ert
▁g olf
▁city 's
▁withd raw
93 ;
▁( $
ian ,
et te
im ir
f all
▁M un
▁f urn
▁pl us
ign ed
▁He ad
es ters
▁bl og
▁res ort
it a
▁m ir
▁author ity
ord er
▁V eg
▁r ing
▁s ad
▁US A
▁Camer on
▁&# 93;
▁7 5
r ison
▁H ay
▁n eck
▁sp ring
▁c ert
▁B oy
▁U ber
▁Jack son
▁Col lege
▁enjoy ed
▁here ,
▁ri ver
▁cor ruption
▁wedd ing
ter y
▁des ire
▁rep ut
▁strugg ling
▁back ed
ce an
▁m and
o h
▁un less
▁P an
▁Russ ia,
▁fore st
▁dep end
▁t ests
▁r ating
:4 0
▁comp ens
il it
▁co -
▁exp lo
▁compet itive
▁trans form
▁r ide
▁sp r
▁weap on
▁Comm un
m ony
▁Lab or
▁material s
▁ в
▁ser ving
3 4
▁J ess
ur ge
▁Anth ony
▁m um
▁su gar
▁mid field
▁S ky
▁sym pt
▁exerc ise
▁share hold
▁win s
▁̧ Ñ
yp e
os en
▁Ag ency
▁Char les
▁on e,
▁election .
▁Ch ampions
▁territ ory
▁P age
ad er
▁laws uit
▁us ,
b ai
▁< <
▁death s
▁an x
▁A zer
▁C ath
▁R ic
▁rev olution
▁mot iv
▁Ed iting
▁accom pan
▁15 0
- min
▁arg ued
c er
▁char ity
▁c up
▁sk ills
6 6
b ull
forum /
▁Pro g
▁respond ed
▁2 7,
▁Tay lor
▁C BS
▁T own
▁adop t
▁Mc D
I A
▁M iam
pl ace
" ,
▁ben ch
e en
▁sk y
▁Sec ond
▁Ar my
▁initi ative
▁boy s
▁G et
i ate
il ly
▁reg ions
▁t ies
▁threat ened
s ewhere
▁hor se
ard ,
▁Mic hel
▁vol unte
▁g rown
▁T al
▁23 ,
:5 0
▁div ision
-1 0
▁reject ed
▁deter mine
▁18 ,
▁behav ior
▁poss ibly
- he
es h
▁Ener gy
▁Ste ven
▁A .
u ild
N .
S P
▁capt ured
- 5
▁imp ressive
▁team .
▁ass um
▁L ook
▁guarant ee
▁meet ings
el a
▁soc iet
▁Sen ator
is a
▁F ort
PI )
▁perform ed
▁l unch
▁convers ation
▁cong ress
▁re li
▁g ang
▁W ild
▁T en
▁p ip
▁struct ure
▁Gl as
▁entire ly
▁Photo :
▁arg ument
▁Re uters
▁v ital
▁7 .
▁nar row
ov iet
▁histor ical
▁For ce
▁en h
▁Con n
▁turn s
▁future .
▁bu ying
▁close ly
▁amaz ing
▁C atal
yl um
▁w estern
▁f lex
▁they 've
▁L ake
▁belie f
▁eas tern
▁dr ag
▁$ 2
▁attempt ed
▁Mar c
▁viol ent
t hen
▁cl oud
/ d
▁public ly
if er
▁( K
▁cont rac
▁imm igrants
▁are a.
▁19 ,
▁conv inc
▁insp ired
▁ab ro
I M
I P
ary ,
▁er ror
▁d rawn
r ate
▁4 ,
ab ilities
▁pr in
▁h ate
▁ret urning
▁not ice
▁g at
▁w ore
▁al t
res ents
▁W ell
▁short ly
▁to o,
or y,
▁susp ended
▁24 ,
▁ident ify
▁dist ance
▁hous es
▁claim ing
r ative
▁B ol
▁Child ren
erv ation
▁stat ements
▁Ant on
▁investig ating
r ant
▁ext ended
▁2 6,
▁surger y
▁Trump .
▁B lo
▁a .m.
▁wonder ful
/1 1
р е
▁S om
▁wor ried
am ic
▁reg ime
▁n one
▁neighbor hood
ac hel
▁B ost
▁As ian
in ning
▁Victor ia
▁Profess or
ag g
▁dep loy
▁ban ned
▁5 5
▁c oin
▁terror ism
▁(U PI)
▁Loc ation:
▁h y
▁G ame
▁enter pr
qu ar
id s
▁club s
▁a st
▁be ar
▁sol utions
d en
- out
▁O per
▁T H
▁mom ents
▁int ention
▁target ed
▁10 H,
▁ro y
▁f illed
▁adv ance
▁S af
▁m os
▁encour age
▁R og
▁ с
▁favour ite
:1 2
▁C ost
▁million .
▁s ending
▁bas k
▁M ass
and ,
▁F ur
p son
▁fear s
▁yester day
▁H ear
:4 5
▁We b
it zer
ic it
▁apparent ly
▁exp ans
▁col or
▁strugg le
▁t un
or ry
▁E ach
▁inst ruct
org /
▁ *
▁K ong
▁obv iously
i able
▁t ank
▁ded icated
us es
▁he ight
▁W ater
c ol
▁ear li
▁acc ur
▁B ir
▁own ed
▁manufact urer
▁a f
E L
▁coff ee
l ers
▁c ore
ch ing
▁tr ick
▁mat ters
▁off ensive
▁deg ree
▁201 7.
w hel
▁her ,
▁N .
ig an
▁ins isted
▁: :
▁swe et
▁react ion
▁H ong
▁em br
▁v ent
▁ev acu
i e.
▁lik es
н и
▁comb ined
▁subst ant
ou ts
▁R a
▁Bruss els
g ow
▁ed ge
▁$ 4
▁detail ed
b ro
▁campaign .
▁en em
▁continu ing
▁' M
▁bl ow
▁hold s
rel ated
▁b le
▁Art icle
▁2013 .
▁rele vant
▁Azer bai
▁friend ly
▁Turn bull
▁rec on
▁pow ers
▁K urd
▁g ay
▁ ‘
▁ear ned
▁S a
le ts
▁in ,
lo v
▁fir ms
▁comp rom
/200 9
▁Econom ic
▁man age
л ь
S ource:
- D
▁conn ected
azaz azaz
▁dev ices
ri a
▁city .
ated :
8 8
▁susp ected
▁ra ising
т о
▁impro ved
▁refer red
▁rec over
▁R oss
▁2 8,
ian a
▁comb at
▁s amp
▁test ing
▁17 ,
▁( L
▁famil y,
▁su c
▁prior ity
▁cut ting
▁ne ither
▁lux ury
ew s
▁det ect
▁dri ven
▁assist ance
▁sp otted
:1 1
iz es
▁attack ed
▁P ower
▁comp on
▁Gre ec
n ic
g .
▁Vlad imir
we ight
▁16 ,
▁20 20
▁Ear lier
ere r
ab eth
>> >
▁communic ation
▁attem pts
▁Cons ervative
▁head ing
em ble
ive ,
▁government .
D P
p .
▁St an
-s p
▁n ut
▁Afghan istan
▁st ake
▁disc over
▁agg ressive
▁suic ide
▁fil es
▁s ight
▁surv iv
▁p ages
▁liber al
▁rep resents
▁sh aring
▁as ylum
▁pay ments
▁fac ility
um ber
▁pack age
▁rout e
▁me re
▁ult imately
ater al
▁market .
▁contribut ed
▁m ent
▁art ic
▁fundament al
ot al
▁ch a
▁Sh ar
▁Jord an
▁sc ale
▁st ab
▁T em
▁deal ing
our c
id ity
▁Jes us
▁D i
r ance
in ent
▁L and
▁ent ry
at es,
C C
▁cont rast
▁S oviet
9 6
▁S outhern
▁Oh io
▁list en
▁use ful
ness ,
▁park ing
▁ear n
▁Pol it
▁system ,
▁K ate
▁pass ing
c ious
igr ant
▁c art
▁off .
w in
▁lands c
▁met res
▁inform ed
ess ed
▁"W hat
▁pl astic
▁T reat
▁cont ains
I V
▁prep are
in a.
am ber
he me
▁198 0
▁Ind ust
▁link s
at ar
▁broad cast
- 6
P A
▁P y
▁co verage
▁S omet
▁Jew ish
▁main ly
▁Man agement
▁for ms
▁rel ief
▁F ord
▁t iny
▁d ating
ed s
▁del ight
▁ ing
▁perman ent
▁lot s
▁B a
ind ex
б р
▁bus y
▁cere mony
▁b on
▁mem ory
e z
▁M id
▁D ie
▁sk i
▁unus ual
:1 7
▁deg re
▁second s
▁Clinton 's
▁app lied
▁D N
▁Now ,
▁deep ly
▁but ton
▁hand ed
M A
▁r ural
▁democ racy
▁J ers
▁cl ients
▁ass ets
▁was te
▁L ind
ic y
or ne
▁mark ed
▁obv ious
ra v
▁cre ation
▁spok en
▁feat ured
▁30 ,
-r un
ac c
ord inary
T S
▁div or
▁L o
▁con ven
▁talk ed
▁new ly
▁Sy stem
▁eff icient
▁prot ests
▁fil ms
▁C ro
▁tack le
▁5 ,
▁W atch
▁few er
▁organ isation
▁anc ient
▁fact or
▁j ack
▁200 4
▁Port ug
▁Academ y
▁P res
▁En ter
▁regular ly
▁L ife
▁Russia 's
h us
re hens
k ins
▁A N
▁Th ough
▁ret ired
▁resp ective
▁mod er
▁f lying
p ay
▁S ee
▁organiz ations
▁d uty
▁tr ig
▁achie ved
▁we 'll
f e
b a
▁Jud ge
▁R en
or ial
▁happen ing
▁N AT
▁G MT
▁br ings
▁El iz
▁Amaz on
▁B ang
▁swim ming
▁vis iting
▁E st
▁4 4
▁C op
AS E
▁Def ense
3⁄4 Ñ
so ft
▁J .
ail s
▁n ations
F A
re ll
▁refuge e
▁report .
▁appro val
al a
▁I D
▁pregn ant
▁find ings
▁ch annel
▁effective ly
▁D er
▁conv icted
▁magaz ine
▁P ros
▁Stat es,
▁Con ference
▁' B
▁vulner able
▁ icon
▁he 'd
▁gat hered
row s
▁purch ase
▁head ed
▁( 0
- k
▁writ er
▁creat ive
▁tom orrow
im p
▁my ster
▁Ch ina,
▁iPh one
▁Ne xt
▁Sar ah
▁were n't
g en
▁Rep orting
▁assist ant
▁inst itution
1 ⁄4
▁pers p
ur l
▁E ric
▁d yn
▁Re ad
▁dep os
▁citiz en
▁O x
▁st ated
▁Armen ian
▁origin ally
▁h ung
▁Sp ace
▁E ver
ness .
▁F ood
▁doz ens
▁Iraq i
▁F all
▁tweet ed
▁h am
as y
▁class ic
▁sub sequ
▁(00 :01
▁Glas gow
▁compan y,
▁Ab d
▁6 5
▁con ce
▁"W hen
net /
:1 6
▁vide os
▁morning ,
▁Palestin ian
▁r um
▁el imin
as p
▁14 ,
▁surpr ised
ipp ing
▁t rop
▁heav ily
▁out d
° Ñ
▁p ushing
▁gr ab
▁4 9
▁m outh
ist .
I n
▁B all
▁Le ices
b ury
▁ident ity
▁ad ults
▁sh ape
▁veter an
▁<< <
▁Pal ace
▁nation 's
▁represent ative
▁lif t
▁B ru
▁t act
re al
▁se ats
u ine
▁appoint ed
▁e lement
▁( "
▁re ference
▁sum mit
▁fail ing
▁ac ts
▁epis ode
▁streng then
▁G lobal
ro b
ep h
▁us ual
▁l aid
▁Ad minist
ow nt
▁pass ion
▁201 8
▁S ix
▁co ordin
z a
3 9
▁Phot ograph
F C
▁ =
▁p ed
▁Sant a
▁ke en
▁stud io
▁Play ing:
ust er
th ,
▁Ind epend
▁is ol
▁Sim on
▁N BC
▁t ech
▁gr ap
▁ch osen
▁adv anced
▁other wise
▁mod els
▁un p
al ed
▁w ife,
▁Serv ices
▁B as
▁tax es
▁campaign ,
▁to day,
U R
▁em pt
▁Su pp
:2 5
▁caus es
ers '
▁manufact uring
as ters
em an
▁ex it
р и
▁M ot
▁histor y.
▁p over
▁shar p
▁sw itch
▁cont ribution
el er
▁mat ches
Ð 3⁄4Ð
▁cap able
:1 4
▁sc heme
▁min isters
▁Tre as
▁J ason
▁L og
app ing
f ire
▁S ep
▁" l
I L
▁" in
▁countri es.
▁cl as
▁strateg ic
- E
▁t ied
) ;
e ing
▁resc ue
▁mus ical
-e lect
ell a
▁'It 's
▁C all
▁mov es
▁Bl ue
e ur
▁ar rival
:1 3
▁dram atic
▁incred ible
▁direct ed
▁pil ot
▁president ,
ap se
▁f ulf
▁threat s
ul s
▁Squ are
er al
▁Obam a's
▁rad ical
w orth
▁Ch annel
▁ste el
▁think s
▁sign ing
▁celebr ate
▁C ook
e uters
▁ins ist
▁H om
▁reg ister
▁dec re
▁w ave
▁opp osed
▁Beij ing
▁sil ver
anc ial
▁l it
▁4 2
ure au
▁def ensive
▁significant ly
▁O k
▁pl ot
> <
▁bre aking
:1 9
ick en
▁S av
▁sur ge
/ 10
▁g ained
▁st adium
▁ch ances
▁morning .
▁dem ocratic
ag es.
.com .
▁fin ance
▁Spec ial
▁M embers
▁disc ip
▁pos itions
▁dec or
▁surf ace
▁const ruct
it als
▁me at
:2 1
ers "
yl van
h is
l aim
▁3 9
f ol
▁Rad io
ic er
▁I T
▁P ay
. A.
▁Hou ston
▁Fam ily
▁repl aced
▁4 00
▁satis f
▁s oul
▁Ari z
▁together .
▁propert ies
ack s
un ction
▁fall en
▁Pac ific
ed. "
▁regul ations
▁ext ensive
ene z
▁c ards
▁Georg ia
▁G reek
▁"Th at
▁government ,
▁proced ure
▁s ac
▁art ists
▁Brisb ane
▁parliament ary
▁a ver
in als
ant ic
ence ,
▁set s
-min ute
oot h
▁prom ise
▁V iet
▁Eliz abeth
▁vir us
▁Dep uty
▁show .
▁d ance
ri fic
g e.
an o
▁un employ
▁election ,
▁consequ ences
▁dram a
▁Ar gent
ac ement
▁h its
▁l iqu
h ow
▁piec es
▁tim es.
▁( s
▁E astern
r um
▁Dav is
▁NAT O
▁E nd
:3 5
▁drink ing
▁inv ited
i ro
▁found er
▁prov ince
▁percent .
▁them selv
▁( and
▁cr imes
▁Pr inc
▁agend a
▁percent ,
▁T ory
▁elect ronic
ie 's
▁eng aged
-201 2,
it u
. html
▁bre ast
▁href =http://
▁Stat es.
▁S uch
▁kil omet
’ t
,000 .
▁prep aring
▁l in
s ylvan
▁Sc ience
▁t rib
▁" J
▁over whel
▁sol ar
▁H ung
▁cl ar
▁tour ist
▁H ist
▁A k
is k
▁S us
▁6 ,
▁12 ,
P )
▁scand al
▁doz en
▁up set
▁A h
l ock
▁ent it
▁found ed
▁ad ult
▁mone y.
▁people 's
/0 6
▁Mic ro
ag h
▁team ,
▁girl friend
▁Francis co
ren ce
st one
▁Associ ated
:1 8
at o
▁pain t
▁applic ations
▁pict ured
▁lawy ers
▁c od
C D
et her
▁D od
ib ilities
▁kn ock
▁br ill
▁ple ased
▁un w
▁11 ,
ence .
▁pres c
▁st ability
- re
▁ord ers
▁comb ination
▁' d
▁form al
▁death .
7 8
▁exc ess
▁like ,
▁Con f
we ek
▁dem ands
im al
▁put s
▁Mer k
b ar
▁bask et
g rad
-h our
▁med ium
▁return s
▁Virgin ia
il ateral
▁Celt ic
ive ly
▁gen uine
▁ph il
n ,
▁curren cy
▁F A
l an
▁m ob
p orts
▁f ake
▁cas e.
▁Americ a's
▁G ames
▁Val ley
a wn
- N
▁other s.
▁I v
▁ind eed
:0 6
▁supp orter
▁st unning
▁grant ed
ay a
▁cl imb
▁B ab
▁R ose
▁el sewhere
- H
▁appro x
▁passeng er
:0 5
▁4 1
▁fact ors
▁C ra
▁spec ies
▁G reg
:2 3
▁She 's
▁( W
μ Ñ
▁S ever
▁so ,
▁strong ly
▁ iron
7 6
▁over t
▁D ev
▁six th
ad el
▁Fest ival
▁city ,
▁London .
▁birth day
b o
▁A T
▁mist ake
▁Just in
▁monitor ing
▁ent hus
▁gu ide
▁charac ters
▁diplom atic
E T
▁wrote :
▁8 .
▁We in
w est
▁10 .
own ed
▁t ree
▁n urs
▁prosp ect
▁law makers
ran ch
▁V ill
▁e c
ens es
▁our selves
v ious
▁tal ent
▁concer ning
▁arri ve
▁B alt
▁c os
▁princ iple
re te
▁d ies
▁typ ically
▁E qu
▁201 2.
▁rem ote
▁ev alu
R A
▁Bro ad
▁Viet n
:0 4
re pre
/ 2
▁aff air
us ing
▁circumst ances
▁j ury
lic op
b orn
▁lab our
▁upd ate
▁redu ction
aw ay
▁h un
▁ro of
▁A ward
▁sat ell
b el
ici ency
▁str ing
▁tem porary
▁sp ons
ur ation
▁reach ing
▁accommod ation
ri k
▁Lew is
▁women ,
▁tick ets
- F
▁Ab b
____ ____
▁proced ures
▁Sw itzer
▁l ies
▁children 's
▁ riv
▁suff er
▁ и
repre ne
ra id
▁Ind ones
▁poin ts,
p =
▁Osc ar
▁m emb
esp erson
/ G
▁V en
:2 6
▁unc lear
▁J SC
▁so le
▁for th
all ,
▁Mo ham
▁D utch
▁ о
▁he licop
▁H or
▁down ,
▁v ess
▁ele ments
ir ty
▁market ing
▁chang e.
▁temper atures
▁st uck
▁pun ish
- K
▁group ,
▁prof ile
▁imag ine
▁every body
z h
▁follow s
m ates
▁attack .
▁Car l
v ision
▁process .
▁crit ics
▁s ch
▁F e
st ream
▁particip ation
▁Off icial
▁beg ins
▁N ob
▁whe el
he ast
at es.
▁strugg led
▁suc ceed
▁Ð 3⁄4Ð
▁surpr ising
▁R et
▁ob st
▁Found ation
▁select ed
▁And re
▁equ ipped
▁In formation
:4 4
it ure
▁M em
▁Comm on
▁award ed
▁subm itted
▁fl u
т е
▁sc oring
▁cr icket
ancell or
h ire
at iv
▁person nel
▁shot s
▁j ur
+ 0
▁M arg
▁con ver
▁int ense
▁19 70
▁ste pped
ian o
om a
▁b es
▁later .
▁state .
▁G irl
▁show ,
▁But ,
▁M ess
▁h al
:0 3
▁comple t
:2 2
к о
ic ing
- v
olog ist
▁tot ally
▁en orm
▁York ,
▁inc or
▁B ry
▁f ro
▁sem i
▁hop ed
▁v oc
▁ch ose
▁z one
ass y
▁an onym
str ong
▁ext ent
▁B ow
▁Fin ancial
▁met al
▁sent enced
▁comp rehens
-g ame
▁P ot
G B
▁4 6
▁" un
▁H aving
▁p up
b led
-c lass
▁N ight
▁ext ension
▁M en
- cent
▁Instead ,
▁stay ed
▁prot ected
▁ urban
▁cas ual
▁ent ering
it age
▁un n
:5 5
▁Feder ation
pt on
el d
▁y n
▁Educ ation
▁4 3
▁qu al
▁roy al
end ers
▁g ift
▁Pro ject
4 3
ep ing
▁J en
b ec
▁prec ise
▁Ð μÐ
▁clos ing
▁Pol and
▁En vironment
▁They 're
▁f ought
et ary
▁rec ip
▁associ ation
▁EU R
▁out s
du ce
▁ton ight
▁V enez
▁countri es,
-f oot
▁profess ion
▁T it
▁K ir
▁spok esperson
▁reports .
arr ass
▁back ,
▁prot esters
way ,
▁inquir y
▁br ut
- W
ag es,
▁left ,
ost er
▁n erv
▁to .
:0 8
▁C z
▁prov id
ann a
▁members hip
▁milit ants
▁strong er
▁( £
if i
:4 1
▁L ittle
▁join ing
▁tim es,
▁We 've
▁asp ects
▁president 's
:4 2
▁p ace
▁sen ator
▁H oll
▁n ative
▁sn ap
▁mother ,
▁hon our
ham ,
▁Am b
▁Prog ram
▁leg end
▁(00:0 4
▁Mor gan
▁mus c
▁f ol
:3 1
▁Tr ade
▁esc ape
▁r ang
▁pr int
ear ing
ac ter
% .
▁right ,
▁S o,
▁exp ort
▁ang ry
elf are
:2 8
N P
▁7 ,
▁M ach
▁exc ited
▁Te am
ac le
u ce
u y
▁ag ents
▁end s
▁athlet es
▁sa ved
▁T ill
f ile
:0 7
lin e,
▁Sw iss
▁gam es.
▁pers ons
00 00
▁h ang
▁Rel ated:
▁Washington ,
▁represent ed
ok es
son 's
are t
▁dist ribution
▁incre ases
:5 4
▁Con vention
▁Gold en
:4 3
:3 7
▁f aster
▁St ill,
▁Eu ro
▁dro ve
▁A ud
▁success fully
▁out r
▁Follow ing
:3 4
▁oppos ite
▁b ow
▁200 3
ed ed
▁G ord
▁Med ical
▁journal ists
ur ities
▁Leices ter
:2 7
▁B at
c ts
л и
:5 9
▁d rew
▁state 's
▁dec line
v il
▁father ,
n est
▁comment .
▁any where
▁Le on
ibr ary
▁refer ring
▁Al ab
ell er
▁ Д
▁find s
▁s li
▁str ict
ut ed
/201 7
p ret
▁human itarian
▁teacher s
" .
▁business .
▁t ie
▁Austral ia,
▁activ ists
▁em issions
▁govern or
▁targ ets
▁n ights
▁sh out
▁pract ical
:3 9
▁sh if
▁impro ving
ih ad
or ough
ain ,
▁may or
▁law .
▁ant icip
▁Liber al
▁N ik
ann y
▁King dom
▁U l
▁official ly
▁del iber
▁d ad
▁Europ e,
ov ic
▁stay ing
▁t ap
▁b orrow
b oy
▁(00:0 3
▁Rob in
▁mix ed
▁Venez uel
▁prosecut ors
▁exp osed
▁produc er
▁man ner
meric an
▁I d
l as
▁1 ,000
:3 6
l ife
▁b ik
▁tool s
▁fix ed
an i
▁travel ling
for ce
▁se vent
8 6
▁media .
:4 9
▁C rown
▁ha bit
▁And y
- related
▁un its
▁Ukrain ian
▁Phil ip
▁H art
:5 2
▁eld er
▁sm oke
▁manag ing
▁up coming
▁before .
▁C lick
▁end ing
▁all ies
▁You T
▁Mac ron
▁Trans port
▁Loc al
▁G P
▁well -
usal em
-l ike
▁G ian
▁Ro om
▁op ens
:3 8
▁B rian
▁V ice
▁rough ly
he im
ol es
▁politic ian
▁qu e
▁percent age
▁not es
▁h yd
m o
▁And erson
▁Mexic an
▁Net work
n i
▁re ward
▁bl ast
▁J ean
▁extra ordinary
▁Ex per
t ar
▁C ivil
▁under t
ounc ed
▁Europ e.
▁Don 't
se y
▁a uction
▁y ield
f ax
▁sh adow
▁adv ent
▁advert ising
- 7
▁ext end
▁(00:0 2
:3 3
▁test ed
:3 2
▁are a,
▁welcom ed
▁rat io
m ad
▁$ 10
▁Cle vel
▁f itness
▁car bon
▁B urn
▁sa ving
▁end ors
? '
▁bl ame
▁T ake
-b ack
▁d ut
▁Tor ont
▁Per haps
ect or
▁Mar ia
w rit
▁establish ment
:2 9
▁Azerbai jan
▁Ham ilton
▁sk ill
▁b ail
▁Pat rick
▁$ 6
end ar
▁for med
k er
▁p ink
▁D id
-1 1
▁prov ision
▁se qu
▁tour ists
▁categ ory
er a
▁h itting
▁reg ion.
het ic
▁improve ment
▁should n't
▁leg it
▁bar rel
▁specific ally
▁Chair man
ans as
▁RE AD
▁M ajor
▁Col or
▁m ail
▁Col umb
▁l ights
▁M our
▁brill iant
▁ad apt
it able
▁re ducing
k m
▁dat ab
▁supp orts
▁Sever al
ienc es
▁recomm ended
:4 8
w an
▁Rober ts
g age
▁u pper
” ,
▁As ked
▁cong rat
▁tr aged
/1 6
:0 2
▁& amp;
▁minut es.
app y
C A
▁law ,
▁Dis ney
▁V is
▁W ars
n o
▁ П
▁particip ate
▁st able
▁(1 )
▁200 1
▁t ort
-st yle
li x
▁hard er
O L
▁Jer usalem
:2 4
w ick
ne y,
esp read
▁sudden ly
▁se g
▁g ym
▁f ighters
▁Rep orter
▁suff icient
▁Foot ball
▁fe es
▁un ve
▁newsp ap
▁su p
▁N AS
▁T y
▁touch down
▁perfect ly
▁dist ribut
▁infl ation
▁M old
▁destroy ed
:0 9
▁W rit
▁pri ze
▁point ,
▁13 ,
▁"M y
▁K ent
ch ange
▁know ing
d og
▁f ab
idel ines
▁them e
▁Cz ech
▁Fur ther
▁C D
▁fe e
▁out come
▁re vel
:5 1
▁Tra vel
▁f asc
▁sh irt
▁reput ation
▁J ournal
▁cent .
▁t ur
bre ak
-f ree
▁al ert
▁hand ,
▁Co oper
▁recogn ition
▁ob tained
g a
▁min istry
▁Mus ic
b ling
▁p ump
▁pub lish
igh th
▁col umn
:5 3
and ed
▁K y
е т
▁N ev
em en
▁y ellow
al ing
▁offic e.
▁Per th
ch o
▁room ,
▁f ranch
▁C at
▁legisl ative
▁sett le
▁(R euters
▁iss ue.
:5 6
▁mil k
▁( E
um er
▁agre ements
▁unt o
az a
▁(00:0 5
▁ass et
▁S ean
▁be .
▁controll ed
▁coll aps
▁St art
▁emb arrass
▁er a
▁Cam br
▁Micro soft
ov ,
▁discuss ions
:4 6
▁conclud ed
▁U t
i ot
am .
▁p in
▁ ##
os .
▁' O
▁bl ind
▁Mark et
w ater
:4 7
w ar
▁persp ective
▁y e
adel ph
▁R oy
u ros
▁equ ival
▁G all
▁Jos eph
▁Swed ish
▁assess ment
▁enjoy ing
▁cons p
▁Thank s
▁j u
▁week 's
r d
▁I ll
se x
D A
▁f ighter
▁P R
:5 7
erv atives
▁cy ber
▁af raid
m m
▁UK 's
▁H ard
exp ected
ear s
▁Ale pp
▁Sc ient
▁km /h
way .
▁was ,
▁J ose
▁over night
50 ,000
▁2 9,
▁ob jects
▁Ch ap
▁dog s
ib b
h att
ern and
▁l ap
▁tast e
▁4 7
it ud
▁health care
▁Guard ian
▁old ,
▁Cra ig
▁typ ical
▁hon or
▁b om
▁organ ized
tt ing
▁M it
▁is .
4 1
▁R angers
▁P op
▁tri es
▁F ive
▁l ie
▁th rown
:5 8
▁suggest ing
▁pe ak
▁demon st
▁ex ternal
▁d ressed
▁d ownt
▁L ive
▁week s.
▁investig ators
. php?
if orm
▁inter act
om ing
▁civil ian
▁const ant
▁expans ion
ig en
ra h
▁F lyn
▁L in
y on
▁quarter back
/201 0
▁dismiss ed
▁reve als
▁women .
▁H un
▁sound s
▁pro port
ol en
▁jud ges
▁Sh ort
ri ve
▁Ar m
▁th rew
▁question ed
e ed,
▁tax pay
▁Kore a's
▁Re v
▁fr ag
▁May or
▁H oly
▁announ ce
el and
▁pro hib
/ A
▁peace ful
▁c af
▁In s
▁rapp ort
▁ear nings
[ /
▁boy friend
▁wid espread
▁Phil adelph
▁keep s
▁c ited
▁Cath olic
▁kne e
h o
▁M other
▁int ens
▁exc iting
▁Ass embly
▁dial ogue
▁L es
▁re -
5 5
▁br anch
az e
ul ating
▁remark s
▁bank ing
▁Bost on
ter ing
▁experienc es
▁Ser ge
t aining
re ement
▁m 2
▁r ig
▁p ock
▁feat uring
or ous
A F
z b
▁Iran ian
▁Russia .
▁coll apse
▁vol ume
▁it ?
▁hand le
isc al
quar ters
9 7
▁Rep resent
ert o
v in
l ights
▁over s
▁prompt ed
ter .
▁draw ing
op her
▁Miam i
▁out put
▁tre es
ically ,
▁lab el
" ,"
▁un known
▁t ennis
▁sens itive
▁ch at
▁prem ium
▁M ORE
▁City ,
▁" th
▁S aint
▁princip les
▁inst alled
mark et
U N
ish op
▁Cl ark
▁poll s
- J
▁M ain
▁# 2
▁s on,
▁Al an
▁Ken ned
▁d ict
▁analyst s
▁plan et
▁fant astic
▁const antly
▁repl acement
▁inn oc
▁ter rible
▁w ire
- pl
▁party 's
▁Att orney
▁C ust
is an
▁aim s
og ether
▁expl ore
▁Or ig
▁cell s
▁Net her
-h alf
▁acknowled ged
▁ex ceed
▁form at
▁S on
▁st one
▁work er
▁p ill
um in
▁D iv
▁U. N.
▁M ah
▁B owl
▁R ay
▁A ven
ran ean
▁J ay
▁un fortun
▁France ,
▁m ood
▁s ide.
▁to ile
▁plac e,
бр ь
▁May ,
▁(Reuters )
▁amend ments
as er
▁play off
he s,
▁Veg as
▁rout ine
▁exch ang
▁rep eal
▁"We 're
less ,
▁technolog ies
▁r aid
▁view ers
▁fl ed
▁coun sel
▁3 1,
▁possible .
r ors
▁Mar sh
p ass
▁Tr ust
▁compet e
▁L aur
▁photograp her
▁h idden
▁air line
▁T es
▁w ider
▁t um
▁eth nic
▁complain ts
▁prom inent
▁H old
▁res ul
▁9 .
s es
▁dep ort
▁do ors
▁In f
▁expect ations
▁6 4
▁beg un
▁en able
or ic
▁A S
a ution
or ation
um es
ok er
▁electric ity
▁L ow
▁def icit
▁dead ly
▁Mour inh
▁R onald
▁journal ist
▁low est
== ==
▁clot hing
▁method s
▁N iger
-l ong
on ed
▁proper ly
al i
▁state ,
▁loss es
▁N ever
▁not .
▁j oy
▁Bar b
iam ond
l ist
▁H y
▁G ary
ities .
▁favor ite
am e.
▁May be
man 's
▁million ,
▁w elfare
▁D ur
▁Photograph :
O C
▁t ail
▁ent reprene
▁arg ue
▁p hen
▁d ivid
▁compan y.
▁p ure
▁sl am
▁communic ations
▁scr utin
-p oint
▁Sp ring
▁men u
▁B eck
▁had n't
/ f
v y
▁Lat in
▁Administ ration
um a
▁T ro
▁Y ere
▁email s
ie re
▁apart ments
▁consum ption
▁ener g
▁Mos ul
н ы
▁child hood
▁app l
▁instr ument
1 00
▁cent ,
▁t ab
2 Ñ
▁oper ate
we red
▁polic e.
▁advis er
▁12 /
▁reform s
▁out standing
op ing
▁road s
▁s id
▁fac ts
▁R est
▁perm ission
▁E s
▁gu ess
▁Mc K
▁c inem
▁w rest
▁compl aint
▁regist ration
▁song s
▁school ,
ul es
▁Merk el
▁sustain able
a ed
▁I an
▁l oud
d a
v ed.
▁Cl ass
▁bare ly
▁for um
▁Bir ming
▁L yn
ul ous
ant .
▁tour ism
▁word s,
v a
al le
▁exp os
r s
▁ch ap
▁Pict ure
▁frequ ently
▁indic ated
▁pen alt
▁H urricane
all ing
▁wat ers
▁cl im
▁high -
▁b owl
▁b urd
▁g ard
▁oppon ent
o ir
▁b ree
d ll
▁imp lic
if est
▁UK ,
▁cal m
▁surround ed
os is
% ,
▁minor ity
▁c raz
▁al arm
ate ly,
▁be ating
st al
▁Cur rent
f lix
▁sc hem
▁Cap ital
▁K ey
▁inter vention
▁market ,
▁ К
▁R ick
▁Wil son
▁Jan e
▁Jon athan
▁L ady
▁to ler
▁H amp
el lect
▁review s
▁25 0
▁( 3
▁O K
▁dis ag
▁j e
onn ell
-f or
ard ash
▁cons ecutive
t d
man n
▁rel ation
▁C ult
▁tr ained
▁j un
/1 2
▁H a
▁depart ure
▁celebr ated
▁inter pret
▁expl an
r ical
▁clot hes
▁agricult ural
▁che f
▁h yp
▁Muslim s
e :
r ich
▁L uk
▁not ,
▁L am
olit an
▁sol ve
▁serv ices.
▁8 ,
ing ton
▁C ross
▁d iversity
▁in aug
▁elect oral
n c
▁Man hatt
▁Australia .
▁stock s
▁Anton io
iter ranean
▁C orn
- 20
▁Soc iety
▁accord ance
▁A stan
▁f ract
▁strik es
▁c ock
▁che st
▁rep air
▁job .
▁cal endar
▁epis od
▁Ð °Ð
▁stret ch
▁ id
▁F ri
il ,
▁( O
▁integ ration
ond uct
▁encour aged
▁convinc ed
/201 5
▁(00 :00
▁disp ute
▁inf ection
ut t
▁st ro
▁m o
▁cour ts
arg o
▁hard ly
▁do ,
▁Har vey
▁Till erson
ac are
▁t ar
▁requ ests
▁right .
re tt
▁investig ate
▁cont ribute
/ s
▁lad ies
▁world wide
▁ д
m aker
▁med al
▁vac c
▁t ribute
▁c oc
▁L i
▁pos ed
in er
▁harass ment
▁teach ing
▁comprehens ive
▁G ab
▁def ender
▁div ided
▁T ele
ar on
▁b ike
▁involve ment
▁poll ution
P R
it i
▁hom eless
▁pover ty
C ,
▁G etty
▁Ex ecutive
os h
▁l oyal
ack ing
▁process ing
▁Jers ey
ew hat
▁accom pl
▁Swed en
▁group .
▁person ality
▁There fore
▁nomine e
▁contact ed
▁Pet ers
▁12 0
▁say .
▁S .
▁T ower
com fort
▁speak s
che ll
▁п о
▁St ew
ic o
▁phen omen
▁main ten
▁t or
▁Gra ham
▁inter ior
▁Michel le
▁sign al
▁A lp
:: ::
▁AC T
anc es.
▁un iform
▁Sp ort
▁j et
▁K ardash
▁av o
▁f ault
▁conc lusion
▁German y,
▁C as
▁celeb ration
▁design er
▁] ]>
it ,
▁mark s
▁conc rete
▁d ump
▁who 's
▁th ick
▁lif est
▁mor al
▁w ing
▁result ed
▁f ier
▁scen es
▁produc ers
▁Clevel and
▁pra ised
▁luck y
▁perform ing
ag an
▁situ ated
▁d im
▁qu ant
▁enorm ous
ed ing
▁def ined
a )
▁Te leg
eng er
▁cl ash
▁Med iterranean
▁Prot ection
▁me al
▁C y
▁Har ris
ities ,
▁ens uring
R E
k .
▁Dou g
▁re ass
▁earth qu
▁Th rough
▁5 2
3 00
it ary
▁Wel sh
▁Fr ont
▁" K
ograph y
▁consist ent
▁W ell,
d o
ge red
▁med ia,
view top
▁pract ices
▁L im
▁Pu erto
▁5 6
▁Jam ie
roll ed
▁c iting
▁employ ee
▁rec ruit
▁overse as
▁kind s
p oint
▁field s
▁B ak
▁water .
▁prof its
▁'I 'm
▁" to
▁reb el
▁mot ion
▁school .
y ang
▁deal .
▁as ide
▁n in
▁Fil m
▁in ev
▁Pol icy
▁we igh
▁care ful
▁o w
▁teen ag
▁E C
▁Ed ward
- right
▁statement ,
▁comed y
z y
▁pers u
▁innov ative
▁Switzer land
▁differe nces
▁" st
▁Col omb
w o
▁though ts
▁program .
▁offic e,
t =
▁part ly
▁air lines
B O
▁f er
▁cl ock
d ict
▁say ing,
▁sc ores
▁# 5
▁200 2
▁challeng ing
▁no body
▁empt y
▁necess arily
▁in ner
▁intro duction
▁poin ts.
▁t ens
▁T ok
▁trans g
▁dam aged
▁jail ed
в а
▁f ishing
▁upd ated
▁abs ence
o is
▁document ary
ard o
l aw
▁Const ruction
▁br idge
▁bl owing
▁Come y
▁Belg ium
▁car ri
ar ry
ir ation
▁201 1.
▁person ally
▁approx imately
-1 2
▁t ip
▁ch ocol
▁det ention
▁industry .
▁A ber
ust ed
▁reb ound
▁ground s
▁eff iciency
▁m isc
ate ful
ab et
▁T otten
▁add ressed
▁back ing
▁self -d
▁h osp
▁s ke
▁over .
▁intro duce
viewtop ic.
▁N ich
▁Sept .
▁business ,
▁h o
▁int ent
▁farm ers
▁etc .
▁Treat y
▁oppon ents
▁trans m
▁R ight
▁F ind
▁care fully
u ous
▁Go vern
▁promot ing
L A
▁Jac ob
▁divor ce
▁c ul
▁some body
▁every where
▁amb assador
/G etty
▁New cast
▁to ll
▁war n
▁am ounts
▁st im
▁Brook lyn
▁r ape
▁Hen ry
▁Fair fax
▁histor y,
w ear
▁I P
▁Net flix
▁end ,
▁weekend .
▁C C
▁part y.
itte e,
4 2
▁strik ing
I I
▁e lev
l ah
▁bl amed
▁5 1
▁part y,
▁det ained
▁entertain ment
th ing.
im e,
▁other .
▁describ e
▁pro of
▁P ass
m b
8 7
▁" not
▁k iss
▁T ai
▁H ug
▁sav ings
▁e leg
▁La ure
▁F ather
▁tw e
▁(A P)
▁6 6
▁restrict ions
▁jump ed
-st ar
▁sp in
▁demand ing
▁serv ice.
u z
▁G ard
-201 3,
id ,
▁process es
▁contrac ts
▁UK .
▁# 3
▁"O ur
a ired
▁president .
▁acc eler
▁sy mp
viewtopic. php?
▁A FL
▁m el
be at
▁st em
▁ill ness
▁st ations
▁ill ust
▁ >
sh op
▁win ners
▁proble m.
▁phil os
▁str ange
▁???? ????
t ies
▁al ive
▁retire ment
▁equival ent
▁t aught
▁́ Ð
an es
ik h
▁spect ac
▁stud y,
▁canc el
▁N orm
▁Ox ford
▁men ,
▁St aff
▁E ve
O n
▁sh ap
▁room .
▁sm ile
▁diagn osed
à :
▁D all
▁organis ations
▁F red
▁st ressed
▁invest ments
▁hand ling
st ra
▁"A s
▁R ome
▁away ,
▁f atal
▁ing red
▁V i
er m
er g
▁entit led
▁conf ront
ick ing
ig ation
rat ors
▁so .
▁rac ing
▁require ment
ow ,
▁g lo
j p
▁l ine.
▁bro wn
▁susp ic
-p art
▁fl av
▁incident s
▁not iced
▁together ,
▁dep th
▁Penn sylvan
▁oper ator
▁dist urb
▁autom atically
▁c orn
r ace
▁contem porary
▁water ,
w ich
ic s,
▁leg s
▁bre ach
▁w age
▁week s,
▁8 5
▁R y
▁" U
▁Obam acare
▁offic es
▁stor age
▁addition ,
anc er
▁cont ained
▁special ist
▁Californ ia,
▁struct ures
▁house ,
ion s,
▁Arab ia
x y
d ie
uck y
re ens
ion s.
▁exp ects
▁priv ile
▁represent ing
ing u
▁D omin
▁Le ag
▁Pro v
» Ð
{ "
▁Do ct
b ox
▁writ es
▁r ugby
▁Lu ke
▁qu ot
▁MORE :
▁I C
▁L ight
▁appro ached
▁incred ibly
▁attack ,
▁ord inary
▁B .
▁E xt
▁Stew art
▁sc ar
▁" re
▁Jenn ifer
▁h ole
▁Mal ays
▁F riend
▁norm ally
▁Whe ther
ump h
ank a
ttp s
▁rec overed
▁econom y.
▁sub sc
▁collect ed
▁report ,
▁H ell
j a
▁M eet
▁http:// t
▁Sw an
▁( f
st ers
on na
ens us
▁block ed
b al
▁found ation
▁R and
ion e
▁Syri a,
▁lat ter
▁Ph ill
. ru/
r ates
” .
▁C av
▁t all
▁educ ational
▁direct ive
▁win .
▁sex ually
▁cover ing
▁c abinet
▁(00:0 6
▁cr ude
▁ 000
▁B es
▁K han
▁basket ball
▁$ US
▁found .
▁civil ians
▁Russ ell
ttps ://
▁unf air
um ,
is er
▁st eal
-to -
ograp hic
! '
▁P riv
▁spark ed
rou s
▁aware ness
m ans
▁vot e.
▁wom an,
im e.
▁exc lud
loy d
▁wind s
▁S end
▁9 5
anc es,
▁in ning
▁lim its
▁S her
▁g if
▁riv als
▁surve ill
▁critic ized
▁( 5
▁describ es
▁Le ban
▁equ ally
▁P ap
▁sh r
▁val id
▁prom ises
▁B ron
▁threat ening
▁ Ò
g or
▁S T
▁cl ip
c omm
▁P ent
▁compens ation
▁g reet
E P
b ell
▁j ew
▁g all
▁Z ika
ap ore
w ith
enc y.
8 00
ch ild
▁sympt oms
▁in ject
▁more ,
▁gentle men
▁ren ov
ra pped
▁Y es,
u per
▁"n o
▁Greec e
▁te a
▁shop s
▁T aj
ac cept
▁Im m
▁equ ality
ist ol
▁bl ond
▁implement ed
▁Ne il
I R
-se ason
▁object ive
▁Kurd ish
▁susp ects
▁m igration
ct ic
▁Treas ury
▁D ate
▁L ions
▁C ow
-le vel
b urn
▁r aw
▁pres idency
▁outd oor
▁With out
▁th ing.
▁be er
-b orn
▁eng agement
▁D ave
▁Nav y
▁relationship s
л о
▁P ub
▁power .
on z
▁time :
▁H ad
▁critic ised
▁Reporter :
ick s
▁appoint ment
▁host s
▁strik er
it .
▁Somet imes
▁Ð o
▁protect ing
▁som ewhat
▁ph ase
▁says :
ann on
▁house .
▁' D
▁I N
▁19 60
▁attack ing
▁gu id
▁vis its
▁Flyn n
▁dis rupt
▁b ars
▁E .
▁saying :
▁TH E
▁Mill er
▁I ow
▁s ide,
▁K al
▁Pros ecut
▁issu es.
▁c rop
▁en l
▁A wards
▁Cor por
▁ball ot
▁Ð ¿
▁5 7
▁cr ashed
▁priv acy
▁fall s
ela ide
em ed
ver ,
▁( in
▁G ov.
▁test im
▁expect ing
▁rare ly
▁Street ,
▁mov ies
▁v ig
m ail
▁( wh
▁investig ation.
▁som ewhere
our se
z en
▁aff airs
r ump
▁A FP
▁ph arm
▁def ended
▁good .
▁h ur
ir m
▁( J
▁met ers
▁12 .
▁11 .
S A
▁st olen
ol ly
▁un expected
▁G ill
▁fact ory
▁port ray
i er,
▁int ellect
▁vis ible
▁he l
pt ed
▁expl ains
ag ic
▁satell ite
▁Scotland 's
▁result ing
▁sh ocked
▁better .
▁eng age
pre ced
▁Pre vious
▁team 's
å ì
▁valu able
▁Cr ime
▁ob tain
▁r het
▁rec ording
ut ral
▁let ters
▁reason able
om er
▁attempt ing
ar .
▁r amp
▁display ed
▁cont aining
▁Cor p
-b e
▁acqu is
▁g ains
▁substant ial
▁West min
▁d riv
▁all oc
or a
c o.
▁mach ines
- round
▁kick ed
▁camer as
▁House ,
▁pro l
▁res idence
▁Rub io
▁desper ate
ag en
e ople
▁Nov .
▁const itutional
▁pass es
▁V ery
▁( H
▁crit er
▁engine ering
▁esc al
▁Br idge
it o
▁N ear
▁Totten ham
▁prepar ation
▁U C
▁L A
or ious
r ating
▁hour s.
▁G riff
▁cons ol
m al
▁l ying
▁cre am
ing "
ат ь
ri ving
ill er
▁York .
▁Se ven
▁p od
▁What 's
▁the ory
le te
▁estim ates
▁ О
▁event .
▁Bul gar
▁(p ict
▁sevent h
c aster
as ks
▁thing s.
▁P o
▁an ger
ir a
▁resol ve
▁Charl ie
н е
▁Am end
▁dis h
▁death ,
T M
▁m ine
t ail
▁Wh ich
▁sc ream
▁Ad elaide
▁lik ed
▁prec ip
▁d ates
ar ity
-f inal
▁el ig
ke ,
▁P it
---- ----
▁tele phone
h ors
▁B udget
▁f iscal
▁today 's
▁comp os
▁January ,
▁University ,
▁Che ck
▁20 th
ay ev
▁"S he
▁host ed
▁Rep .
▁minister ,
▁cent res
▁a wards
o j
▁serv es
▁N E
ch ,
▁can n
▁prosp ects
▁fl ash
▁Sing apore
▁Re f
▁network s
▁sched ule
▁before ,
ar re
▁fil med
▁W as
▁dep ending
it ious
▁Tur ke
▁9 ,
▁F if
▁the atre
▁result ,
▁T el
▁M ake
▁min i
▁" Y
▁Ch o
od d
▁base ball
▁sc an
▁inform ation.
▁A ccess
▁r iding
▁se asons
ile y
▁liv es.
к и
▁mere ly
M S
s /
▁beat en
h ost
▁gam es,
▁def ending
▁wall s
▁Ð 1⁄2Ð
▁c ounts
▁add ed,
y e
▁techn iqu
▁rac ial
/201 1
▁administ rative
u is
▁Americ a,
▁" very
▁aff ili
o en
▁Br id
less ly
▁an s
▁care er.
▁view ed
▁attract ive
O W
▁ro t
▁execut ives
▁gr ass
▁cas es,
▁reg ion,
▁emerg ing
▁add s
▁Mit chell
▁mar ij
▁Oct .
▁Bern ie
▁P ence
▁In n
▁sc ript
▁dist inct
h i
isc ons
m ate
▁H as
com .
▁should er
?? ?
ants ,
▁att itude
▁s orry
▁bord ers
▁Py ong
▁stre am
▁academ ic
▁5 4
▁L ater
▁point .
u ana
▁over look
▁Brazil ian
▁play .
▁gl ad
▁B enn
▁vis a
▁buy ers
▁transp aren
▁par am
il a
▁rapport eur
▁(pict ured
▁h ip
▁Const itution
el le
sh ore
z ing
▁ro les
▁$ 2.
ul ous.
ol ved
▁P ack
▁capt ure
oin ting
▁community .
▁serv ices,
▁other s,
ink ing
▁level .
▁bond s
▁remark able
▁' c
▁imp osed
▁England 's
▁pound s
▁0 %
▁H ans
▁h ors
▁co vers
▁rail way
ing s,
▁lo ans
▁resident ial
▁T ax
▁war rant
▁Mar ine
g ame
▁N BA
▁cust ody
▁Die go
▁Sunday 's
▁T ed
U RL
▁inv ent
▁Mal col
▁expect ed,
▁B ureau
▁re un
▁old est
▁port fol
ary .
AT A
im m
ou b
▁re ception
▁court .
▁disappoint ed
▁Res earcher
▁sport ing
▁man ifest
▁accompan ied
ol as
▁desc ription
▁st om
▁( 2
▁Pyong yang
▁G ulf
▁F ield
▁Mor ning
▁connect ions
▁fest iv
▁' f
▁sure ly
▁summer .
▁M .
▁O ak
▁col on
▁event ,
▁poss ession
▁re ly
▁E mer
▁March ,
▁s ear
▁disapp ear
▁Gord on
▁serv ice,
▁href ="
▁ple aded
u zz
▁F orm
s ung
▁C os
I .
h r
▁sp ir
▁C .
▁K as
▁h ide
▁mos qu
▁act ors
▁sm ooth
▁Ò åì
ord s
▁produc ing
▁Atlant ic
in s,
▁lo ose
▁purs ue
▁mone y,
▁Mc L
▁th orough
▁Ag ain
▁man .
▁M aster
/ 3
▁sp ell
▁l ip
e ath
▁Cl ar
▁S NP
▁J ong
▁Sp irit
▁period .
▁encour aging
G O
ath y
b y,
▁Today ,
▁Alex and
▁sett led
▁obs er
▁L isa
▁answ ers
▁B ond
▁S ud
▁mod est
▁s oph
▁const itu
▁Other s
▁Ch ina.
▁# 4
▁cyc le
▁regard less
▁mainten ance
f ront
▁he ll
▁Pat ri
в о
▁man s
▁G iven
p art
▁Organ ization
▁c able
▁t ag
▁congress ional
▁don e.
▁Jun e,
▁Òåì à:
▁B ad
▁h ired
▁program ,
▁bree ze
▁C re
j ud
▁wound ed
in 's
ay .
D .
▁attract ed
е р
oc key
▁£ 2
▁off ,
▁rent al
ry .
ag a
ark s
il st
▁din ing
he nt
▁' N
▁summer ,
▁dest ruction
▁fair ly
▁New s.
▁ear ning
▁( 6
k h
▁Bor is
in es,
▁' C
▁exc it
▁so vere
▁Sh an
▁unemploy ment
▁discrim ination
x ic
▁exp orts
▁mult i
▁G un
▁inc ent
▁land ed
▁D al
▁T ri
▁search ing
▁se ized
m other
t le
▁vis ual
▁Mun ich
▁innov ation
▁pain ting
▁G ib
т а
▁' You
we et
▁St one
▁Malcol m
ard .
▁YouT ube
ot te
▁( 4
▁d ub
▁5 8
▁spirit ual
▁d iverse
▁Sn ow
▁adv ised
▁Ariz ona
is p
▁l i
▁Sam sung
▁ans wered
▁manag ers
▁collect ive
▁suit able
▁O il
▁Here 's
▁virt ual
▁slow ly
] .
▁degre es
ur a
▁st un
▁jun ior
▁out com
▁problem s.
▁Cont rol
▁investig ations
▁we ird
# p
man .
▁I b
▁gener ated
▁l ocked
▁im per
▁programm es
▁l ady
▁thing s,
▁she ll
▁inst ance,
▁Le ader
ugh t
▁p ig
▁N ad
▁complic ated
▁Con c
▁control s
▁B uck
▁target ing
▁B ed
▁L ink
ir ts
▁Un fortun
▁$ 7
he s.
l og
▁real ise
▁War ren
▁sust ained
▁Tok y
it ol
▁K ings
▁f inger
yc le
▁Ever ton
is ive
e als
▁( c
▁C irc
▁prim arily
▁disc overy
rop olitan
▁ult imate
▁z ero
▁( V
▁sw ing
▁K yr
▁owners hip
@@ @@
ant ed
▁c raft
▁t ill
▁The atre
- 200
▁own s
▁bab ies
▁are ,
▁resist ance
▁abro ad
▁T on
▁5 3
▁mut ual
▁ex em
-w inning
▁Princ ess
▁lic ense
▁Ag reement
u .
▁midfield er
▁1 .5
▁loc ations
▁And ,
▁daughter ,
▁Birming ham
▁E th
oun ce
▁m un
D F
▁nam e,
▁pub l
▁club 's
▁regul atory
▁Wh it
▁dis abled
▁Min nes
▁show c
▁far ,
▁Jan .
▁el ite
▁gl am
ra it
▁dist ract
▁tou g
▁j oke
▁disc l
iec e
▁rec alled
▁Olymp ics
us et
▁cert ific
▁J r.
▁abandon ed
▁bur st
▁devast ating
ic ate
▁men 's
▁D ick
▁highlight ed
▁film ,
▁go .
▁19 4
▁Det ro
▁poss ess
▁September ,
▁ex ecution
▁P ut
▁r ushed
1⁄4 Ð
▁uncertain ty
▁industry ,
al e,
▁broad er
▁dest ination
▁ce ase
▁spectac ular
▁Ser b
▁t rem
▁but ,
▁Kardash ian
▁pro ven
▁pled ged
index .php?
▁Saturday 's
preced ented
▁perform ances
▁cont r
▁f old
▁D isc
▁att ending
▁a er
▁d ust
▁H it
▁exper im
▁A ren
as hes
▁R h
▁ab ortion
▁s its
▁W .
▁invol ves
▁B on
▁brother s
▁P S
▁seem ingly
▁min ing
▁prom ising
▁helicop ter
▁ph ones
er ies
▁ph r
on ia
av a
▁rep li
▁Christ opher
lo ved
▁hosp itals
▁o cean
▁S essions
▁per ce
- led
▁drink s
▁rec k
▁help .
enc y,
▁fort un
▁Th ail
ach uset
▁pack ed
▁Dec .
E ,
ent h
▁teen ager
▁rom antic
▁sim pl
▁stor y.
▁c rown
▁war .
m )
▁R ail
-y ard
▁ev il
▁Bru ce
▁hum idity
▁to ,
▁sharehold ers
▁b acter
▁cle ared
▁point :
ist an,
▁H ave
▁aut umn
1 24
▁( or
▁+ 0000
▁Ex change
▁res erve
▁pre t
▁hum ans
▁A st
ial s
▁McD onald
▁bre ad
▁Researcher s
f ather
▁consp ir
▁Re view
▁2010 .
▁Ser ies
atur al
4 00
▁organ ised
▁top ic
▁s ons
h ar
ag u
▁disc ount
ind er
▁demand ed
▁s in
▁head quarters
ers e
-A merican
i ac
▁DN A
▁amend ment
▁fire f
go vernment
▁mic ro
b ie
▁pros ecution
igen ous
ron es
▁r all
▁hor ror
▁M S
▁L td
▁book ,
▁Newcast le
▁t ensions
▁ А
▁G arden
▁'T his
▁terror ists
▁gu idelines
▁n arr
▁per pet
▁pred icted
▁celebr ity
▁N Y
▁that ,"
▁Al bert
▁K enn
▁Author ities
▁arri ving
▁b urning
▁imp ression
▁fl aw
▁rel ating
l ing,
▁car .
▁W right
▁hand ful
▁amb ul
c ott
ic ation
▁decl ar
▁bad ly
▁pro be
-t r
▁rock et
▁M as
▁col leg
▁Bu ild
i ous,
▁b old
av en
▁qu oted
▁weekend ,
▁real ised
ik i
▁throw ing
▁O li
▁accus ations
▁Ch ancellor
▁dr unk
▁wind ows
▁War ri
f ers
▁U nt
▁webs ite.
▁A z
▁friends hip
▁T s
▁sch ol
▁support .
▁I ron
T ON
▁husband ,
▁For um
▁Americ a.
▁bl ank
- 8
▁( b
▁Z h
in ations
▁£ 3
▁gr ateful
▁employ e
▁fem in
- week
-pro file
▁# 6
▁ch icken
▁minut es,
▁photograph s
▁A aron
▁apprec iate
G A
▁Hamp shire
▁Aber de
▁track s
p at
▁F al
▁surv ived
▁Jim my
▁overwhel ming
▁re hab
ually ,
▁cons cious
▁main tained
▁cere mon
▁b ull
" ;
▁E ag
▁Mc M
▁sec ured
▁disc los
▁Teleg raph
▁Ok lah
▁Toront o
re ction
▁G am
▁pro st
▁O w
▁elder ly
▁rep eat
▁unn ecess
▁transg ender
▁Res erve
▁consider able
▁follow ers
▁some how
▁bod y.
▁F le
▁gold en
▁10 H
▁rec ru
▁urg ent
d am
▁surveill ance
▁Park ,
i ated
▁Des ign
▁pro te
▁rapid ly
▁6 8
▁rem emb
at .
▁qu it
▁j ihad
▁L ine
▁6 00
▁S ad
▁Mad am
hes s
▁S oph
et ime
▁Women 's
is on,
▁des k
▁P ow
▁recommend ations
▁B an
▁experience .
keep er
▁for .
im a
▁Holl and
▁v it
▁' P
re ts
▁st ages
▁t ired
▁" sh
▁e ase
▁ В
▁m aps
▁moment ,
▁Astan a
▁prop ag
▁Pol ish
▁H IV
▁f ires
▁A y
▁ext ract
▁polit ically
▁H o
▁Every one
▁polic e,
▁polic y.
r ise
▁T ar
▁recogn ise
▁g rey
▁g ri
▁st amp
▁nomin ation
▁City .
▁b ol
▁comp ound
▁pet ition
▁Bro ther
I F
▁ent rance
▁love ly
it ut
▁Mod el
▁sub urb
▁deal ,
▁St orm
▁supp lies
▁Techn ology
▁saf et
▁compl ained
▁d ew
ul ations
▁stud ied
ing s.
▁b rows
▁himself .
es ts.
▁lob by
▁qualif ied
▁bott le
▁end .
▁comp ut
ond er
▁exp ression
▁g lob
av ed
▁help ful
▁" we
lic it
re p
▁expand ed
▁aut hors
▁Belarus ian
▁sign ature
in ating
▁ess entially
ver ning
or ge
▁fr ame
▁NAS A
з а
▁over come
▁creat es
if e.
▁f o
▁out fit
▁dec ent
▁ro ot
▁US ,
▁Rep ort
▁advert is
in ity
▁Wein stein
▁fac ilit
- cont
▁block s
▁Ar ts
▁Fre edom
▁domin ated
▁Add itional
o on,
▁liter ally
d ale
▁7 2
▁B M
▁drop s
om ed
▁Co le
▁prov isions
ul pt
▁< !
S t
▁( a
▁reli able
▁teen age
▁le ct
▁develop ments
▁moder ate
re ck
▁bu ff
▁themselv es.
▁October ,
-w ing
▁bill s
ra f
st er,
- one
ab s
ap ol
▁ex ha
▁int im
▁L ith
▁den y
▁ >>>
▁proport ion
▁icon ic
est ,
▁X i
b les
▁H u
m ir
▁c ents
▁adm it
▁obs erv
▁Austral ians
▁6 7
▁prog ressive
▁D ata
1⁄ 2Ñ
r ,
▁A L
ov sk
▁first ,
▁fun ctions
▁art ific
▁h ttps://
▁arg uing
▁T am
▁m oon
▁Independ ent
it ar
l ash
▁Angel a
▁est imate
▁asp ect
▁O pp
▁deal t
▁rest ore
▁th in
▁odd s
en h
▁Peters burg
▁integ rated
▁own .
▁surv ive
▁Sec ret
l s
op ping
▁acqu ired
c ript
▁House .
▁U r
▁lead er,
▁S et
k ing
▁inter f
th ur
▁C ry
▁R oll
▁promot ion
▁town s
▁Add ress
ind ing
▁chang e,
6 7
b ing
▁consider ation
▁sm oking
▁mort gage
▁holiday s
▁An na
▁activ ist
▁marg in
c d
▁5 9
▁A ction
▁main stream
▁compan ies,
▁T an
▁action .
г о
▁controvers y
▁Syri a.
▁comprom ise
▁Y an
▁film ing
▁att ached
▁y ard
▁discuss ing
▁199 9
▁L ad
▁liqu id
▁philos oph
▁"F or
▁month ly
▁let 's
▁language :
▁ М
▁decision .
▁e uros
▁T un
H P
▁ed ition
▁G DP
▁compon ents
/ 01
▁10 ,000
le cts
▁intellect ual
▁V in
▁bas ically
▁ad equ
▁fun ny
ig ious
▁With in
▁ground .
▁Hill s
▁le ather
▁friend s,
▁they 'll
▁c ig
▁less ons
oc a
▁break s
▁Blo om
▁fin ishing
http:// www.
▁except ion
▁" an
▁B ull
at i
▁br ands
z .
▁B ox
▁dep ends
I ON
l ades
▁re vers
rem lin
▁hope ful
▁"There 's
▁friend s.
▁equ ity
▁stom ach
▁Un it
lim inary
▁b urg
▁r ush
▁tr ains
▁enh ance
▁Lat est
▁trip s
▁appear ing
GB T
CD ATA
row ing
▁book ing
i ary
▁des erve
▁earthqu ake
ic ian
[ CDATA
[CDATA [
▁on line.
▁<! [CDATA[
-f ound
▁clin ical
▁St u
▁N on
▁kid n
▁Du ke
▁Ind eed,
ne y.
▁class es
▁Qu est
▁Ev ans
▁Do es
▁landsc ape
▁lov es
▁York shire
▁downt own
vil le,
h and
▁'H e
▁' F
a ver
▁Ass ad
z ed
D ,
▁transfer red
K .
▁s ed
▁past ,
и я
▁t one
▁C B
ator ,
▁"I 've
we alth
im ore
eg u
▁Haw ai
▁afford able
▁fir ing
▁process ,
▁fore ver
an th
th ing,
▁&apos; t
▁exper iment
▁Philadelph ia
over ,
▁aut onom
▁categ ories
J .
▁Here :
▁In sp
▁England ,
▁April ,
▁B os
▁man 's
aut hor
l u
ro t
▁b ump
ol ph
mer ce
▁fab ric
▁ter rif
▁avail ability
▁c raw
▁spec ulation
▁meet s
▁Taj ik
▁Official s
v ed,
▁g ross
act ive
▁he 'll
▁Bl air
▁list ening
▁cross ing
▁over h
▁Part ners
▁Count ry
] ,
▁f ing
ist a
te en
▁E p
am e,
▁Fore st
▁cour ses
▁outr age
▁W oman
] ]>
▁not ing
▁att ribut
▁want ing
▁fle w
▁forc ing
▁te eth
▁spac es
▁Tal ib
ast rop
▁recogn ize
▁prosecut or
▁portfol io
▁On line
▁const itution
▁tre as
▁kn ocked
oc ument
U T
▁m erc
▁land ing
▁recogn ized
▁Picture :
▁Rog er
▁Q ual
forum/ index.php?
▁ast ron
▁T ru
a o
▁V ar
▁pre ced
▁moment um
▁' L
/ 4
▁ на
▁19 th
▁pull ing
▁subsequ ent
and om
if ies
▁Mourinh o
▁sal ary
10 .
▁P ed
ixt ure
▁£ 5
▁h ire
▁ch ronic
▁Be at
he alth
▁D ream
▁high lights
▁feel ings
▁se ed
▁ar ts
▁univers ities
▁ass ert
▁lif ted
▁tou ched
▁active ly
▁delight ed
▁celebr ating
▁bar ri
▁kn ife
▁rac e.
▁B ash
che s.
▁depos it
▁B art
▁show er
▁compar ison
▁D or
▁Jess ica
▁frequ ent
▁E lection
▁amb itious
▁family 's
▁public ation
c u
▁Bre ak
▁T ig
▁ м
-1 8
▁datab ase
▁w aves
▁W iscons
in f
& p=
▁prem iere
▁ne utral
°C ,
▁past .
ific ations
▁g ig
▁crisis .
▁Ju ly,
▁pred ecess
▁v owed
▁K us
▁November ,
con n
▁Is s
▁Le v
▁ad s
▁London 's
▁U se
▁all iance
▁D ak
viewtopic.php? t=
▁Def ence
▁group 's
6 8
▁we aken
▁explos ion
iz arre
ally .
▁wealth y
▁stud ying
b ul
▁s iz
▁she d
▁b uck
rem ulous.
▁Abb ott
▁8 00
ev a
E M
▁E aster
▁th re
▁chocol ate
▁un accept
▁You 're
т я
▁rid ic
▁Kenned y
▁Alab ama
remulous. net/
▁R ow
are st
▁week ly
▁integ r
▁tax i
▁D LL
▁C O
▁Ab u
ou ri
▁Saf ety
ro id
▁install ation
▁May 's
rat or
▁condem ned
... +
▁Cost a
ach ing
▁S el
▁Let 's
ar o
▁G il
▁http://t remulous.net/
▁des ert
▁b ilateral
▁compet ing
y ou
▁P ope
▁count y
▁disp os
▁econom y,
▁How ard
ures ,
▁adm its
▁Lat v
ut her
▁sol o
▁21 st
-b ed
▁sit e.
▁delay ed
▁convers ations
▁A R
▁no ise
▁sect ors
▁ign ored
▁blond e
▁p ose
▁fac e.
▁inform ation,
▁incor por
▁http://tremulous.net/ forum/index.php?
▁Clinton ,
▁Orig in
▁mar ch
p c
▁P ear
▁[ the
ic ations
▁(N ew
▁M and
▁c aution
▁un precedented
▁vol unt
▁p orn
▁over d
▁N ation
che s,
▁S ev
ar th
▁pow er,
▁Card iff
▁View s
▁rel atives
▁g est
▁sc ared
lin ing
6 00
og s
▁att orne
▁V ik
em s
▁reg ret
▁H and
▁c ake
▁car ,
it ched
▁S ex
▁r ic
▁compl iance
▁go verning
▁transparen cy
▁Laur a
▁Kore a,
▁clos est
▁h ook
in es.
ar ia
▁Sn ap
▁ask s
▁in app
▁deliver ing
▁Bar n
▁real ize
▁God ,
▁public .
▁areas .
▁any more
▁issu es,
▁de emed
▁Bang lades
▁fund ra
▁coin c
▁temperature ,
▁prefer red
▁exist ence
▁B ud
▁rep ro
▁play ers.
▁D esc
▁aut hent
▁l ung
▁F ull
▁bat tery
j o
▁F .
▁D ead
▁Belg ian
ants .
▁Ad v
▁happen ed.
is ms
▁less on
▁ins ists
▁men .
enn a
▁purp os
▁club .
▁def eated
°C ;
bor ne
ibb ean
▁Dall as
ac re
9 00
▁food ,
i ous.
/0 8
▁g od
le an
▁c abin
ou ch
▁Victor ian
-1 5
▁Mich igan
▁war ,
▁Met ro
▁L ux
▁l ake
▁colle ague
p age
▁with .
9 /2017
▁sal t
▁franch ise
9 4
▁defin ition
le ep
N e
enc ing
▁wrong .
B .
ur se
▁di abet
▁capital ,
▁night 's
▁e ighth
- qu
▁Em b
▁stri p
▁leg acy
▁demonstr ated
▁b ust
l ow
ar b
▁Sh ould
▁reveal ing
▁H on
▁Br ight
▁fe ared
S E
▁P erson
▁H an
▁did .
▁er u
▁H end
▁P el
▁vot er
▁December ,
-l aw
▁conf ron
▁# 7
▁hour s,
▁long ,
▁So ft
at tered
▁h ik
r in
▁bal con
▁arrang ement
▁pain ful
▁burd en
▁care .
▁every day
▁gather ing
on ic
ot o
▁Wat son
▁Cro at
▁Cap itol
▁N ine
▁le an
▁n ick
▁Lith uan
▁conv iction
▁Feb .
▁sub jects
▁princip al
▁about .
▁poin ting
▁elig ible
▁ad ap
▁examp les
▁pros per
▁bomb ing
▁Mr s.
▁O tt
▁' b
the ning
▁O d
▁ser ies,
st ad
ol n
▁sm ugg
▁( 2)
d f
▁C rim
▁Q atar
▁H ous
▁under ground
▁M oon
▁enough .
▁satis fact
▁D ean
▁August ,
hed ral
▁le ak
▁K remlin
▁Rod rig
▁arg u
▁ch ampions
▁recogn ised
r ition
▁ass ume
▁difficult ies
▁incident .
▁focus ing
▁describ ing
▁tr apped
▁sleep ing
▁Bern ard
▁E ur
▁pres ents
m itt
▁C li
on 't
▁An ne
▁cook ing
n ew
▁Atlant a
▁H ann
▁L iving
▁le tting
cl ub
m ont
▁car ries
▁seek s
▁L isb
▁ven ue
▁h ub
▁P a
▁hospital .
▁play ers,
ino is
▁201 8.
▁br id
▁St ation
land .
▁which ,
▁part ,
▁high -profile
▁v s.
▁H ope
od ox
gg ed
▁marij uana
▁Al t
or se
▁moment .
or gan
▁C abinet
= '
▁supp li
w y
▁meet ing,
▁Hist ory
▁period ,
▁prison ers
% )
▁interview s
▁brief ly
▁c ow
▁C a
▁d ying
▁Balt imore
▁sh oes
▁Westmin ster
▁rel uct
▁abs or
▁mem ories
▁s ne
▁billion aire
▁F isher
▁' h
▁fast est
ra ,
ec urity
-m ail
▁"N o
ford ,
▁h anging
▁L GBT
201 7
▁reflect ed
▁curren c
▁pass word
▁st ance
▁O reg
▁access ible
▁Thom pson
▁situ ation.
▁san ction
▁b ub
▁Unt il
▁D. C.
▁Aug .
rib ed
. 48
▁man ip
▁inter ven
▁rec re
▁employ ed
iat ric
▁in equ
m ath
▁ urge
▁prior ities
▁nam e.
▁confirm ation
▁campaign s
an ia
augh ters
▁K yle
▁narr ative
▁F act
▁Cambr idge
- 01
▁ ­
am ents
▁N as
▁sc ope
/0 7
S ,
▁February ,
bor ough
▁e cho
- O
an im
un a
▁citizens hip
▁Car ibbean
/0 5
▁post ing
ou p
▁purch ased
aw are
▁stat istics
▁pl ate
▁sil ence
▁12/ 9/2017
y "
▁t ons
▁esc ap
▁R esp
▁other ,
▁sing ing
▁transport ation
▁polic y,
▁Se attle
▁M erc
▁conv ict
▁match ing
▁soph istic
au x
▁scen e.
st ar
▁h unt
▁check s
▁m e,"
▁Govern or
▁un comfort
▁T otal
▁st ir
b ourn
l av
▁b in
▁financ ing
▁Ex c
▁' G
im g
▁K a
▁fier ce
▁twe ets
▁Invest ig
▁disapp eared
▁overh aul
el ing
▁Reg ion
▁langu ages
▁N athan
-b acked
iers hip
▁K rist
▁sc ulpt
▁act ed
▁artic les
▁off shore
▁inf ect
▁vide o,
▁al one.
▁re verse
▁Car ter
▁Smith ,
▁Br and
▁condem n
▁custom s
- I
▁pl ung
» Ñ
▁consol id
": {"
▁g ear
og a
▁expand ing
out heast
▁6 1
▁f are
art ed
▁who ,
▁wood en
▁D j
co. uk
▁air ports
▁D anny
▁h ill
ures .
▁condition s.
▁forward .
▁Int elligence
▁19 0
▁the at
▁Dub ai
▁itself .
▁D E
▁indic ate
▁good ,
▁trans act
▁brut al
▁list .
▁mun icip
▁breat h
▁gen etic
▁m ask
▁Europe 's
▁D V
-1 4
▁mean while,
▁publ isher
el s,
▁medic ine
▁guid ance
l er,
▁bo om
▁real ized
▁t urb
▁Mur ph
" s
▁relig ion
▁Then ,
▁# .48
▁#.48 #
▁Win ter
▁E T
▁January .
▁Charl otte
▁rac es
▁May .
▁" pro
▁criter ia
ch ang
▁up grad
▁pl ain
en z
▁I l
▁C ond
▁B uff
▁happen .
▁L inc
▁t ension
▁vers ions
▁in hab
▁e ager
an e,
▁pre liminary
▁rob ot
▁A ld
▁dyn amic
▁direct or,
▁dis g
> </a>
▁g re
▁dev oted
▁read ers
le y.
▁dis ord
▁K u
/ 8
▁ret ain
▁expos ure
l ast
▁( 200
▁anx iety
▁demonstr ate
▁precise ly
▁Em ma
▁urg ing
▁ped est
▁walk s
▁scen ario
▁t att
▁person .
▁P ier
▁gener ate
▁collabor ation
▁afternoon .
▁w ages
▁R aid
▁rac e,
▁deleg ation
▁6 2
▁therap y
▁September .
▁an k
▁her itage
-1 6
▁remov al
▁A ge
▁2 ,000
▁ver dict
▁Air lines
▁Har v
/0 3
л а
n ik
ist le
▁Aust ria
▁H op
▁In g
▁acquis ition
▁ste ady
▁7 7
▁exp ense
her s
▁any body
▁rat ings
▁negoti ating
▁"E very
▁unve iled
▁long est
▁long time
▁aud io
▁object ives
▁vot e,
▁v ary
azazazaz azazazaz
▁er rors
b ank
▁France 's
▁(00:0 7
▁traged y
▁Fer g
▁Sum mer
▁B ath
▁Vietn am
▁C ele
k es
▁She riff
ac y.
▁A G
▁pr on
▁so il
▁He ath
▁pregn ancy
▁off ense
▁g al
▁virt ually
▁r andom
▁job ,
▁pap ers
▁c ub
▁H al
▁gun s
▁autom atic
l ay
▁Oli ver
▁d ign
▁investig ated
▁Post ed
▁stat es.
▁fl our
▁future ,
▁control .
▁reb uild
▁tr agic
▁rep ublic
▁ins urer
▁stre ak
▁EU .
▁pick ing
▁6 3
▁bod y,
▁be ,
▁imp rison
▁tri umph
▁W A
▁po ison
le ft
▁camp us
ort ed
jp g
▁per mit
▁enthus i
6 4
▁Ten ness
▁level ,
▁# 8
▁in her
▁legit imate
-th ird
▁appear ances
▁Em ir
▁S P
▁$ 8
▁fun eral
▁Thail and
▁Stand ard
▁Common wealth
▁al ter
▁you 'd
▁Comm ons
/200 8
▁K ansas
▁N H
▁Co al
▁pers ist
▁E sp
▁sh ips
▁murd ered
▁7 1
▁frust ration
▁H unt
▁deploy ed
r ans
▁sp ray
124 ;
▁but ter
▁War ner
▁t iss
▁F ile
▁&# 124;
▁H ost
▁re ign
ror ism
▁Sim pson
▁rank ed
▁contribut ions
▁ref lects
▁roll ed
▁fund ed
b .
▁head .
▁Dod gers
▁travel led
▁B ah
▁profession als
▁he ating
▁L ist
/201 3
▁guarant eed
▁pre st
▁from :
▁main taining
ri ent
ep s
▁tar iff
▁( 7
is ed.
▁McG reg
▁Ch amber
▁cont rad
▁Walk er
▁achieve ment
▁l ibrary
▁regard ed
▁be ll
▁A round
▁Sc ar
▁under lying
ve t
▁J oy
▁Y ah
▁O bs
▁H ot
▁mon ument
▁Al b
▁initi atives
▁T a
▁Over view
ah u
▁R achel
▁jud icial
▁d iver
el son
▁bo ast
▁C S
▁200 9.
▁sc rap
▁fore c
▁rac ist
▁nerv ous
▁m ile
E .
▁Am ster
▁flex ible
▁Author ity
ley 's
▁emot ion
▁trig gered
▁sh ame
ol o
▁low -
▁discrim in
▁phys ically
am m
▁cour age
▁dam aging
▁Kus hn
▁memor ial
▁else .
▁father 's
H O
▁sy n
▁check ed
ro d
▁Min sk
▁Ol iv
▁R ou
▁O cean
▁b arg
▁Nether lands
u er
-d own
▁P ant
▁w is
et ers
olog ists
▁Pr im
▁100 %
▁exp licit
▁rel ie
1 ]
▁p or
▁Jun e.
as ion
-m aking
▁pip eline
▁artific ial
▁ ur
▁Cub a
▁G i
▁po et
imb led
▁misc onduct
▁Down load
- man
▁injur y.
▁Stu art
▁Br istol
il iation
abb ing
-m illion
▁' m
ne g
▁par ad
▁inf ected
▁November .
▁Ke ith
▁" wh
▁b izarre
oc he
▁conven ient
▁trig ger
▁Coll ins
▁nomin ated
-se x
▁Sus an
▁Pit ts
bl og
aw a
▁prev ention
▁Sil ver
▁p our
▁associ ate
af e
▁mother s
л е
g ate
▁oper ators
▁manufacturer s
r ust
▁imp ose
▁Invest ment
▁tem por
▁Jew s
▁psych ological
▁b ot
▁aw a
ener al
▁w ishes
m ph
▁M uch
▁stop s
▁field .
▁suspic ion
▁sa il
▁7 6
▁C her
▁D a
▁All en
▁rob ber
▁K os
▁P oint
▁after math
top ic
▁Mer ced
r and
▁C rit
▁T alk
▁"A ll
▁Alepp o
▁oper ational
▁car pet
h ill
▁she et
▁bit ter
▁h in
▁ ����
▁bag s
▁comm ander
o op
▁B ra
▁reb els
id em
▁ass emb
▁provid ers
/0 9
▁cl er
▁tear s
▁new s.
▁gra ve
▁kill er
▁project ,
▁shock ing
▁island s
▁sec urities
erv es
▁cap s
▁form ally
▁Tra ff
▁200 4,
" )
▁young est
▁rele ase.
▁Gr ant
▁ro ok
▁t asks
ail ed
▁meas ured
el ong
▁Sen ior
▁child ,
▁leg ally
▁comm od
▁Britain ,
▁Detro it
▁W imbled
▁st age.
other ap
es ts,
▁g ram
▁13 0
▁trad em
▁k g
▁f ert
op en
▁M ov
l ive
▁court ,
▁project .
▁tow er
▁F I
ic ts
▁F el
▁land mark
▁Fin ance
▁much .
▁D ian
▁R ugby
▁200 8.
hen ko
▁199 8
▁Cont act
▁Fin n
▁amb ition
▁class ified
▁2 .5
an mar
▁dise ases
▁vent ure
▁T ob
▁del ays
/201 4
▁engine er
▁precip itation
ua /
aren ts
▁Charl ott
▁interview ed
▁direct ors
▁l y
▁19 50
▁mir ror
▁pre -
▁pol ling
u rop
▁pra ise
▁w ed
f a
▁Eng ine
▁coup les
uss ia
▁My anmar
▁dist ric
▁C old
▁Russian s
▁Le ad
▁B oe
▁enterpr ises
▁bom bs
▁Den mark
▁second ary
▁D om
▁prot ocol
▁Egypt ian
▁craz y
▁Ham mond
▁W olf
▁hand .
▁Gr ay
▁instr uments
▁R on
▁app ropri
▁lifest yle
▁st ead
▁aff ects
▁co -found
▁M ack
▁canc ell
▁miss iles
▁6 9
▁situ ations
▁rememb ered
▁arg uments
▁employ ers
▁roll ing
▁sold ier
▁bed s
▁M ade
▁Gar c
AS H
▁Mass achuset
▁recon st
▁H od
▁dr one
▁solid arity
▁present ation
▁pres um
▁l es
▁d '
ar n
▁E vent
▁decad es.
▁b out
▁D y
▁launch ing
▁L en
▁D C
▁person ,
▁them ,"
▁grand mother
.... ....
▁D ig
▁bill ions
▁subst ance
▁che aper
▁Amb assador
? v
▁obs erved
▁resign ed
▁ Р
▁hope fully
oph ob
▁l ine,
▁renew able
rit ies
▁t ables
▁Gab ri
▁invest or
R C
gh ai
▁$ 20
▁Yere v
,000 ,
es "
zb ek
▁I M
▁pleas ure
▁susp ension
▁cha os
▁F ut
▁demonst ration
▁ra ises
▁bra ve
▁L .A.
▁pay s
▁tit les
▁N ig
▁are .
▁pup ils
▁streng thening
▁bur ied
is ure
▁care er,
▁Mar co
-cent ury
▁tw in
/201 2
▁consist ently
" ><
▁enl arg
enc ies
▁po ly
▁Ð 3⁄4Ñ
▁ Н
fere nces
▁th ou
el s.
▁ben eath
▁reg ards
▁di ed.
g allery
▁Ð μÑ
▁threat en
▁dep ress
▁egg s
er ving
▁sw ift
▁natur ally
x ual
▁F ab
▁dro pping
k ward
▁"W h
▁invest ed
ry ing
▁Er d
▁to xic
▁E mp
u v
▁h alt
▁Ben j
▁arrang ements
em it
▁w ard
▁ad j
▁" V
▁Be yon
▁D ark
gr ade
?v =
▁resul ts.
z one
▁cross ed
e ff
▁lo ad
▁witness es
▁collaps ed
▁Div ision
il y,
▁f et
▁imp ressed
▁shop p
duc ts
▁univers al
th rough
▁up load
▁judg ment
▁furn iture
▁Gian ts
olog y,
▁d aughters
▁tri ple
▁m igrant
▁produc ts,
aliforn ia)
▁Br un
▁group s,
▁All iance
▁un h
▁Mod ern
▁al ien
▁sh ake
/0 4
ace ut
-b y
▁P ers
▁ch ip
▁K ASE
▁g allery
▁camp s
▁child .
▁they 'd
▁7 8
n ame
▁tim e,"
▁Mar s
▁interview .
▁out look
ay ing
▁compan ies.
▁w et
▁a x
▁18 0
▁Man ager
▁March .
uss ian
▁squ ee
▁mount ains
▁Ter ry
ant e
▁particular ,
on es,
/0 2
▁saf egu
▁volunte ers
▁Dub lin
▁popular ity
▁bon us
▁def ault
/ or
▁inc hes
▁woman 's
▁humidity :
ast y
▁http:// f
▁pat rol
▁(C alifornia)
▁me als
▁C ase
▁Barcel on
▁bl ess
▁coast al
▁dut ies
▁R ams
▁cho ices
m und
▁flex ibility
▁b ure
▁c ous
▁insp ect
▁f ate
ag s
▁ign ore
▁stat es,
▁meet ing.
▁Pitts burgh
▁St urge
-1 9
ock s
▁g ate
▁tr illion
▁Re :
▁deleg ates
▁Un like
en ess
▁Th ous
▁con vert
th .
▁Off ic
▁dram atically
▁ter race
we g
ab ly,
▁conspir acy
▁rest ored
▁13 .
ore y
-bed room
▁co aches
▁bat ter
u its
▁Met ropolitan
▁rel oc
▁rank s
▁be loved
▁F itz
▁cho osing
▁D uc
as se
ac co
▁position .
ian g
▁N a
▁pres erve
▁host ing
▁De ath
▁clean ing
▁P A
▁£ 1.
▁un iverse
▁warning s
▁billion .
▁min im
▁voc al
▁l od
b ow
▁areas ,
▁th y
▁resc ued
▁ag e,
▁Pal mer
▁Be ing
id .
▁shel ter
▁dis pl
▁head lines
og g
▁canc elled
▁pl ug
▁' w
▁F lo
▁har sh
▁L loyd
▁tun nel
▁eleg ant
▁ass embly
▁lic ens
▁cap abilities
▁innoc ent
▁f ights
▁be aches
▁7 3
▁rhet oric
er :
▁treatment .
lov ak
▁sh ore
▁S ign
▁mechan ism
▁unnecess ary
topic =
ic s.
▁po ore
n ews
enc es.
▁Way ne
▁explain ed.
▁round s
▁veter ans
▁ant ib
aceut ical
r c
▁R un
▁ag es
▁ev olution
▁German y's
▁community ,
/ 5
▁Manhatt an
▁opt ed
▁sli pped
▁jack et
▁democ rac
k ov
▁M om
m ak
▁the ater
▁Ker ry
▁G olf
▁"The se
▁rob ust
P .
▁cru ise
▁decad es,
▁t y
▁super market
e e.
uck s
▁cons ent
▁cent ers
▁F arm
▁Shan ghai
▁d ivers
▁ser ies.
m es
▁ele ph
s, '
▁Rich mond
▁Nor way
▁webs ites
▁challeng ed
m el
▁esc aped
▁success .
▁CC TV
▁was .
▁yet .
▁Every thing
▁cons ists
▁Ex pl
▁dead line
▁Y emen
++ ++
▁en v
▁Th ird
-1 7
▁sen ators
▁Ste el
ather ine
▁( 201
▁Portug al
▁around .
et he
▁over ,
▁sty lish
▁le ag
▁Per ry
▁C H
▁Camp bell
▁ch ann
▁'T here
▁n urse
oen ix
▁event s.
▁th ing,
o ft
▁Mor ris
▁dis ch
▁U zbek
▁f u
ag ger
▁t ips
▁Y e
▁Scotland ,
▁199 7
▁ris en
▁development .
▁# 9
▁spac e.
▁P ric
▁cons ensus
▁John son,
▁# 10
▁S C
▁Emer g
▁mother 's
▁c ab
▁B ever
▁t orn
m art
▁Ar n
▁Oklah oma
b y.
ia h
▁C ould
▁el abor
▁sh o
▁invest ing
▁S lo
▁transp arent
▁Cub an
▁struct ural
▁Pres idency
▁f oss
I G
▁paren ts,
▁T rib
▁bl oc
▁witness ed
u cc
▁14 .
▁indust ries
▁experience ,
▁we 'd
▁prevent ing
▁port ion
8 9
▁ar bit
▁announc ing
an ne
▁sl ip
▁S ab
▁fle et
▁dep ression
P S
▁sm ell
▁K o
▁Us ing
▁Ul t
▁Argent ina
le tt
man uel
▁Bl ake
▁testim ony
iv es,
th odox
▁viol ation
▁Un ivers
& amp;
▁Reg ional
▁Mel bourn
▁expl aining
▁Scient ists
-0 5
▁rele as
▁plan .
▁pock et
▁star ring
m ith
u es.
Q L
▁cont acts
▁renew ed
8 4
▁K r
im mer
l ie
▁V illa
▁100 ,000
▁S anche
▁NE W
## ##
▁9 6
child ren
▁oper ated
▁Bar ry
▁crowd s
▁V e
▁pass port
▁Pro per
▁open ly
rop h
▁comp ly
▁tra um
ot ,
▁spot light
▁conc lus
▁sub mit
▁Writ ing
▁sympt om
▁comp at
▁Cast le
▁bird s
rom e
▁Marg aret
тя брь
▁Is a
▁flow ers
▁suggest ion
T O
▁ch amber
▁sp are
▁enem y
es y
▁accur ate
- per
▁address ing
▁under min
▁Reg ist
▁Am y
ed "
-in -law
▁embr ace
▁Sydney 's
▁ball istic
▁Up d
▁Ap art
7 4
▁Mor oc
▁tw enty
▁C ass
▁Chic ag
▁P oll
▁cat astrop
▁stre aming
▁Cons ervatives
▁C o.
▁be ef
▁F C
lud ing
- owned
▁ref use
▁http://tremulous.net/forum/index.php? topic=
▁feed back
ic ians
▁produc ts.
▁che ek
ple te
ber ry
▁webs ite,
▁gra v
▁ch art
ab e
▁app lies
-h igh
▁October .
▁writ ers
▁Inc .
i er.
▁stab bed
ore t
▁pri z
▁improve ments
▁vo ices
▁explan ation
▁C alif
▁even ing,
▁Al ong
▁3 D
▁air st
▁c ro
aly st
▁purp oses
▁techn ological
ult ane
▁he d
▁att itud
▁Rev olution
▁sp ots
▁10 th
▁semi -final
▁l ists
▁poss ibilities
▁R af
▁educ ation,
▁compon ent
▁15 .
▁Iow a
▁str ang
▁7 4
▁group s.
▁even ing.
are r
▁Angel es,
▁but t
▁ha z
▁den ies
n .
▁after ward
▁Ar thur
▁job s.
U M
▁trem end
▁II I
▁remov ing
▁she 'd
▁architect ure
od ed
▁soc cer
▁Linc oln
▁Rest aur
▁bedroom s
x ,
▁N ative
U L
▁'I f
▁an the
▁disapp ointing
E A
▁ass ured
▁G ro
▁make up
ail ing
▁Are a
ING TON
8 1
▁Be aut
▁She l
ord ination
▁Washington .
▁H az
▁mon etary
▁ref using
▁strong est
▁Further more
▁deep er
upp lied
▁influ ential
▁health .
-0 2
▁Ferg us
▁Le ave
▁B und
▁health ,
▁B udd
▁Gre ens
▁Ju an
▁plan ,
W e
▁Indust ry
▁scrutin y
c i
▁politic s.
▁advoc ates
▁pres id
▁m m
▁ab st
▁Yerev an,
ful ,
▁sy nd
▁broad caster
▁art istic
▁Port al
▁Fin ally,
u ccess
▁pled ge
▁conflic ts
▁gu ilt
▁coach ing
X P
▁Amend ment
▁Ch ile
as s.
▁W ould
▁Off icer
▁" it
▁Mold ova
( s)
▁int end
urn ed
op ard
he rent
cher s
▁Law rence
▁Exp ress
▁Ph oenix
▁aw kward
▁Bre nd
▁tal ented
▁stor y,
- com
▁F ashion
▁crack down
▁Guard iol
u es,
-sc ale
st ate
▁Color ado
▁intim id
▁D im
▁exp enses
▁1 st
as s,
▁cop e
▁Sm all
▁coll ision
▁ut ter
▁Chel se
▁another .
▁Mount ain
▁matter .
▁imp ress
▁g ut
▁f ool
▁[ 1]
▁F ernand
▁back s
▁20 2
▁t ent
▁P ere
▁pain ted
▁J r
▁g otten
ate ur
▁People 's
▁himself ,
▁conf ig
ook ing
▁Naz i
▁ste ep
▁it ."
▁or che
▁T -sh
▁L iam
▁staff ,
ab out
▁know .
▁ad ul
▁sa uce
am i
▁mod e
▁growth .
▁play ,
▁vict ory.
ock ing
is ons
▁subsequ ently
▁Philipp ines
▁Lisb on
▁b ully
▁food s
▁+ 2.
▁s ights
▁K it
▁( d
▁kilomet res
▁appro ve
▁prof ound
▁s ib
▁un anim
▁arriv es
▁McC onnell
3 Ð
▁B ishop
▁le aked
▁Or der
am pton
l ing.
▁dress ing
▁Tai wan
▁pr ide
▁hor a
▁fin als
▁M ans
▁violence .
9 2
▁injur ies.
▁go ,
K ,
▁L ear
▁consult ation
▁convention al
or i
▁now here
ang el
7 1
-e lection
om p
▁travel ing
▁stop ping
▁E ight
▁m it
▁/ gallery
▁ar ray
▁Nic ole
▁speak er
▁frust rated
' r
▁Bl ues
▁course .
▁rout es
▁r anging
▁che er
ire ,
▁ev ident
▁England .
▁"That 's
qu is
▁train er
▁move ments
▁period s
▁Talib an
▁don ations
▁aftern oon,
ol i
▁ref ers
▁N at
▁hear ts
▁surviv ors
▁iss ue,
▁res ource
▁wh ilst
▁attack s.
▁Ind ia,
▁accept able
▁st up
é s
▁M aur
▁c atal
field ,
oll ar
▁toile t
▁mand ate
▁flood ing
▁except ional
▁Medic aid
R .
▁treat ing
▁c am
▁B elf
ig a
d y
iss a
▁optim istic
▁Pent agon
ed e
▁loc als
-0 3
▁dead .
E F
▁Ed die
re ,
ut en
▁Ital y,
ish ,
▁conduct ing
▁vac ation
ach t
▁supp lement
- ed
▁Sp enc
▁come back
а н
▁16 .
▁N umber
▁wa ited
▁Emerg ency
re nd
▁negoti ate
▁make -up
▁"B ut
▁“ The
▁acknow ledge
▁imp orts
▁dis order
▁ens emble
▁particip ating
w ing
▁comp uters
▁promot ed
▁bul let
▁an ch
▁' p
▁incident ,
on er
p m.
ar med
▁consid ers
▁isol ated
▁S i
▁y es,
▁conver ted
ac o
ell o
s ;
▁L OR
▁aut o
▁agricult ure
▁( 10
on ing
▁wor n
▁rep lic
▁bure auc
ton 's
▁administration .
▁R aj
▁Sh a
▁Or land
▁punish ment
▁bank rupt
▁rights .
▁T ories
▁Also ,
er man
▁sw ept
▁m ac
▁phr ase
▁app eals
▁back lash
▁think ,
▁Conn ect
▁s essions
▁exam ine
▁quarter .
▁M aj
▁c uis
/ p
▁ref und
▁France .
ab il
▁mist akes
▁US .
▁grad ually
▁capital .
▁hor iz
▁integr ity
▁inst itutional
▁Catal an
or ate
▁unaccept able
▁McC ain
▁25 H,
▁trans action
▁" is
▁m aker
D ER
ac on
▁P rom
▁hor ario
▁Canad a,
▁14 0
b od
▁Twitter .
▁Priv ate
▁gener ations
▁es :
▁hus o
▁C IA
▁school s,
▁trend s
▁G ram
▁watch dog
▁"P eople
ale y
id a
▁B illy
▁December .
▁prov oc
rah im
▁h ug
i ott
▁w rapped
▁Den ver
▁off ences
▁C ode
▁entreprene ur
▁Tuesday 's
-h and
▁book ed
▁W ord
▁techn ique
▁Al most
▁Minnes ota
▁g own
▁T oy
▁' E
r ade
N ext
▁Hear t
▁not ion
▁N ap
▁resp ected
▁unf old
▁mag ic
- go
▁dist ingu
▁particip ated
▁dub bed
os e,
▁mid night
▁E ston
ab les,
▁Jon es,
ows ki
▁S A
▁Cast ro
w ind
▁Re ut
▁mind .
▁S earch
▁Col in
▁ass ass
n ’t
ig e
▁elimin ate
▁jur is
▁I van
ol or
▁left .
▁m ild
▁pleas ant
▁go al.
▁motor c
ax y
r un
▁d iamond
▁pr ices.
▁prevent ed
▁exam ined
▁club ,
▁Net any
▁proceed ings
▁L av
▁respons ibilities
▁N ame
▁canc er.
ed y
▁Pri ze
▁organ ic
▁implement ing
▁tim ing
▁landsc ap
▁F ac
+ 00
▁Pe ace
ic he
▁instruct ions
▁W y
L .
▁$1 00
▁king dom
▁dise ase.
m ers
▁“ I
▁sp o
ok en
stan bul
▁Luk as
6 3
▁conv ince
▁ed it
▁B i
▁Min isters
iss ipp
▁investig ation,
▁problem s,
▁sit e,
br id
▁Florid a,
▁Scot s
▁Aven ue
▁Warri ors
▁accus ing
▁V o
▁music ,
▁work force
▁Look ing
▁f right
▁p izz
ors hip
▁J ake
▁firm ly
▁us e.
▁ri f
▁old .
▁P .
▁Year 's
▁"A t
▁Merced es
▁ex ists
7 00
▁G at
con f
▁exclusive ly
▁recon c
b ers
z o
▁th ro
▁G as
▁c ord
▁w reck
▁fire .
ath on
▁dat a.
ov o
▁cann ab
▁Phot os
▁Leg al
▁to b
int end
▁E nt
l ack
▁administration 's
▁def ine
▁super ior
▁manag er,
▁Mary land
▁gener ous
▁D yl
▁Ju ly.
▁st ored
▁the r
▁( left
▁performance .
▁G M
▁B ald
▁societ y.
▁ingred ients
▁9 9
▁T ue
▁che ese
▁dis hes
▁milit ant
▁H ond
▁Environment al
L E
▁ir re
▁qualif y
▁2 2.
▁al ly
▁brother ,
▁M ult
▁ass ign
▁establish ing
▁Kore a.
▁Fin land
pp ers
▁Se ason
▁music ian
▁Spe aker
c z
▁emb assy
v iously
akes pe
ra vel
▁ob es
▁nin th
▁E ss
A r
▁special ists
am ous
." "
▁nav ig
▁D ow
▁have ,
▁Ar k
▁C and
▁Jap an,
▁Pub lished
▁Japan 's
▁weak ness
▁r hy
▁f ed
▁ut il
▁out break
▁b ic
▁un e
▁satisf ied
▁Toky o
▁ag e.
▁sem in
▁care ,
▁decl are
Source: S
▁staff .
akespe are
▁du o
▁B rent
▁t ape
T C
ick ed
▁explos ive
ig inal
r ations
▁Mil an
ist ant
▁imm une
▁President -elect
ol t
▁Cry stal
▁screen ing
el i
▁memb ers,
▁Thous ands
▁techniqu es
▁opp ose
▁S eb
▁breat hing
▁A th
▁L .
▁d imin
▁don e,
▁prov ider
▁te x
▁hol es
▁inev it
w all
01 .
-C h
▁Pl ace
" }
▁v s
al o
▁l one
▁s orts
gy z
▁purs uit
▁Pennsylvan ia
▁gr at
- U
▁Sw ift
T .
▁d ancing
▁E SP
▁brief ing
c ot
▁long -
▁resign ation
▁S ain
▁recent ly,
P M
anc hes
A d
▁war ming
▁H us
▁" he
. ru
g irl
▁treat ments
▁ret reat
▁inter im
▁18 th
▁remind ed
▁I stanbul
▁cons c
sh ot
▁Comm ittee,
▁length y
▁grab bed
v o
ro ck
▁development ,
▁condition .
▁R .
▁Portug ues
▁Erd ogan
7 3
atch ing
▁ord er.
▁hors es
▁perce ived
▁to y
▁( m
▁C lear
▁sim ultane
▁lux ur
▁Mot or
▁withdraw al
e or
▁burn ed
▁different .
▁insp iration
ASH INGTON
▁viol ations
▁respond ing
son .
▁b one
▁h orm
▁ °C
▁dr um
▁T M
▁enough ,
▁centur y.
▁"H e's
▁Commun ist
▁neighbour hood
▁d ual
▁un ited
▁US S
▁N ord
▁show 's
▁determin ation
-l ife
- 30
▁Twitter ,
p o
▁or ange
▁D rug
▁par alle
▁myster y
▁oper ates
▁difficult y
▁grap hic
!! !!
▁dies el
▁strugg les
▁sky ;
▁very ,
berg ,
▁reserv es
▁expert ise
uter te
▁st age,
duc es
▁tr ump
▁p ione
+00 :00
▁11 0
▁harm on
Source:S upplied
▁he s
ac y,
▁Em ily
· Ð
▁happ iness
▁f illing
▁cons ervation
▁Sp urs
▁M ug
▁str ain
▁friend ,
▁exha ust
▁ep idem
-m ade
inc ome
▁2 -1
▁fr ank
▁match .
▁fol k
▁H .
▁spect rum
▁N ag
in ction
ter s,
▁ins ult
▁sophistic ated
6 1
▁Kir k
med ia
▁ac id
▁o m
y t
▁g onna
▁form ation
▁K Z
▁E t
ri es,
are tt
▁w are
▁requ iring
▁t ub
og en
▁Near ly
▁un ions
uck er
work s
8 3
▁6 -
▁account .
▁Islam ist
▁L anc
▁develop ers
le e
▁problem ,
▁account ing
▁cru el
▁regul ator
▁TV ,
U P
▁g ro
▁stro ke
▁bill ,
▁new s,
ick ets
▁Jul ian
w orld
т ь
▁Ag ricult
▁M urd
▁rights ,
▁int ensive
-f riend
▁qualif ying
▁accept ing
▁sup rem
▁Pal m
▁s ink
▁co at
▁sh ield
▁declar ation
▁first .
▁question ing
▁Ut ah
as )
/ en/
▁April .
▁199 6
▁inst antly
▁risk .
▁inv ite
▁occas ions
▁exp end
▁musc le
▁under mine
▁L ang
▁affect ing
▁K aren
▁wond ering
▁my th
▁Moscow ,
▁communic ate
se ason
▁com e.
l ings
ag raph
▁plan es
▁Se oul
▁Josh ua
▁bu g
.1 2.
undred s
▁Al ask
▁3 ,000
▁opin ions
▁Ch amp
▁Un ion.
res ,
▁G h
▁cris is,
▁vol at
▁Never the
▁Os borne
▁scient ist
▁U A
▁Group ,
cont in
▁same -sex
res hold
n ers,
▁liter ature
▁V ot
id es,
▁concent ration
▁Amster dam
om y
▁gener al,
▁g roc
▁P as
▁D uterte
▁earli er.
▁last ed
au ,
▁surv ival
▁slam med
h .
▁per f
ourc es.
▁Mail On
▁inapp ropriate
▁tempor arily
/ C
ro se
▁hun ting
▁Yan ke
l at
▁Sp icer
▁Labour 's
▁M oney
▁M ap
▁st er
ob s
▁S lovak
-e ast
▁the ft
▁hard ware
▁comp r
▁£ 4
▁un ity
▁Coal ition
▁d anc
l en
▁"T o
▁experienc ing
▁J in
▁gu itar
ph ones
ig hed
▁acc um
▁penalt ies
▁official s.
▁Exper ts
▁Belf ast
▁re iter
▁cost s.
re port
▁inequ ality
io ,
aus e,
▁pos es
▁Inter ior
▁separ ated
▁Nor weg
▁deliber ately
▁B achel
▁Sh akespeare
▁"We 've
▁bill .
rog en
▁earli er,
▁available .
▁remind er
▁N RL
▁arrang ed
▁Iv anka
▁prompt ing
▁Qu ote
▁vers us
▁achie ving
▁ins ight
▁f ame
▁ Т
▁when ever
▁deter ior
al ia
st an,
▁L ate
▁econom ist
▁res um
▁K iev
▁n ose
▁F ro
▁barri ers
▁C ab
▁doub led
▁Bulgar ia
▁business man
▁Harv ard
.1 5
-b re
▁Ash ley
▁occup ied
▁Ar ctic
▁event s,
▁( for
m outh
▁Not e
l v
▁run .
▁war ns
h aw
▁dat a,
▁Kyr gyz
▁Sp r
▁great ly
▁Any one
▁"O n
▁half .
▁Aberde en
forum/ viewtopic.php?t=
▁last ing
▁official s,
ic ide
a. com/
d .
in ter
▁d ated
▁retail ers
▁inf o
/ S
▁Sim ilar
▁elect rical
▁acc oun
c os
▁ris es
ock ,
▁samp le
▁f oul
▁night m
▁quarter ,
ch air
▁visit or
▁Turke y,
▁two -year
▁int ellig
▁#1 1
▁bal anced
▁St ef
▁L ion
▁post p
▁vill ages
▁inter ference
▁16 0
- night
▁press ing
y ard
▁c aut
▁inter cept
▁build ing.
rib e
▁Benj amin
▁University .
▁domin ant
▁Californ ia.
▁with ,
laim ed
r idge
▁I cel
▁oblig ations
▁in nings
▁lap top
▁Cons umer
▁n aked
▁propag anda
▁S &
▁memb ers.
ur red
▁suggest ions
ici ary
▁(G etty
▁ambul ance
▁You th
▁8 6
ie g
▁August .
▁short -term
▁d il
▁rook ie
ec onom
m us
id al
ob e
▁Cult ure
▁EU ,
▁ste am
ad vant
▁R ather
▁motiv ated
▁effect .
е ка
▁h ike
▁underst ands
▁S ay
ip ed
▁emphas is
▁Well s
▁adopt ion
▁chann els
est one
▁samp les
▁b unch
▁tri als
▁Swan sea
▁Angel es.
▁J ar
▁did ,
▁h iding
▁Th ings
▁op io
▁$ 1,
▁Fin ally
▁N atural
▁Br ady
▁extrem ist
▁Afric a,
▁assum ed
▁clim bed
▁n ort
oc al
▁Sh i
t own
▁Mexic o,
▁ch ur
n ity
▁illeg ally
▁ins urg
▁18 .
▁reven ues
▁H um
G ,
▁dec e
▁M all
▁spe ec
-2 2
M E
▁G lo
▁int imate
▁al -A
▁We ather
▁Ell iott
0 cd
▁dis ability
▁forg otten
▁driv es
▁distribut ed
▁H ud
▁vol can
▁T ech
-1 3
est ed
▁B urg
▁intro ducing
▁enthus ias
▁th reshold
▁Ch ang
▁fle eing
d ,
▁food .
▁De uts
al e.
▁G ay
-0 9
▁relax ed
▁Indust rial
▁e -mail
▁stat ue
▁Par is,
▁prison .
O .
▁t ong
▁'S he
ro ad
▁stab il
▁B orn
▁road .
n ut
▁circ le
7 9
-part y
is he
f r
▁d ement
▁confident ial
▁ass igned
▁+ 22
rol og
▁two ,
▁det ain
ec ond
▁far .
▁mill enn
7 2
▁7 00
▁transact ions
ab ul
▁avo ided
on i
▁G onz
▁yet ,
▁Iran 's
ful .
▁famil ies.
▁'The y
▁app lying
▁9 8
▁E li
p ,
▁win ,
▁centur y,
▁P ul
▁Park .
▁security .
▁S ong
▁mind s
▁Camp aign
agh d
▁decision ,
▁Supp ort
▁uncomfort able
▁Day ,
▁dep ut
▁hospital ,
▁M ick
▁tour s
▁Tex as,
/06 /16
▁S E
▁J ared
ach ment
▁chap ter
▁off set
▁A D
▁C auc
on es.
▁commit ments
▁sl ump
▁Z imb
▁G ren
▁K am
ord able
▁safe ly
▁support ,
c oin
▁ab oard
▁t ang
e e,
▁job s,
▁K ath
▁W ASHINGTON
с я
▁B ear
▁( t
▁inst ant
▁Hel en
▁rece ives
▁17 .
lo e
in ery
▁re nd
▁L an
▁Aren a
▁bench mark
▁o ven
▁appro aches
▁Friday 's
▁h urricane
▁Fl ore
▁address es
▁8 1
▁speech ,
▁'t he
▁I TV
▁Un ion,
▁gradu ate
▁ste pping
▁F ig
▁s rc
ativ es,
▁P add
▁Ir an,
▁super b
▁Meet ing
lam m
▁s idel
▁H ull
▁Mc I
▁guarant ees
▁sh ipping
▁pat ri
▁German y.
▁v ibr
hib ition
▁trou bled
▁rece iver
▁publish ing
▁Benn ett
▁Em ploy
- 9
▁J oint
▁Ch all
▁imp e
▁present er
▁charg ing
▁technolog y,
▁Kas ich
R ating
▁build ing,
▁February .
on st
▁Price :
▁£ 10
▁tradition ally
▁M ul
▁mad e.
iv es.
▁19 3
▁P ages
▁hand led
▁foss il
ud s
▁advoc ate
▁R ap
▁Kat ie
▁Children 's
▁Le ft
▁wild life
▁out lets
▁Tr ad
g rim
▁batt ling
▁in put
▁n a
▁Hol iday
▁ple a
G .
▁celebr ates
▁indic ation
th al
▁Bab y
▁Car los
▁prec ious
▁authent ic
's ,
▁ball s
ar at
▁M ove
▁H im
▁vig il
ounc ill
▁ep ic
▁teenag ers
▁min imal
y stem
▁Tim es.
▁Clinton .
▁T amp
h ap
▁d a
▁sp here
▁St ory
et 's
▁mar ine
▁O P
▁G ran
▁Nic ola
▁inhab it
▁either .
L e
▁" v
▁c her
- ins
▁smart phone
mat y
▁sh ark
▁gu ided
▁team -m
▁household s
▁trad ed
w alk
▁P ic
▁dec iding
▁5 ,000
▁Pro duct
▁excit ement
▁possible ,
▁mod ified
▁comp are
w a
▁app s
▁well- known
▁T at
V iew
▁An k
▁Zimb ab
▁C u
▁B ou
▁Hug hes
▁Th u
▁lic ence
▁re ar
▁vir al
il er
▁F inal
▁track ing
▁rep ly
▁li ability
-0 6
▁box ing
k g
▁ob sc
▁Inst itut
umb led
A B
▁Or ange
▁Wimbled on
▁n od
▁H orn
es :
ac les
▁St oke
ah l
▁rac ism
▁Bet ween
ating ,
▁Britain .
▁competition .
▁G az
C H
▁Conf eder
▁P rop
ar ms
/ M
▁199 5
▁Hotel s
▁sc reens
▁arrest s
▁repl acing
▁Scotland .
▁celeb rities
▁Iraq ,
t ains
-c are
▁o ught
-0 8
▁D und
-w est
▁ut ility
▁Polit ical
▁ не
▁1 000
▁Val ent
yc ling
▁U FC
▁ab ol
▁W enger
▁Enter tain
u f
ot yp
▁heard .
▁Aust in
▁regul ators
ad i
▁G w
ST AR
pr int
▁lock s
▁through .
▁exam ination
▁oblig ation
▁real istic
itte e.
▁Kar l
▁car rier
▁l av
▁administration ,
▁D ri
▁Ukrain e,
▁upd ates
▁seg ment
▁ И
▁ rib
-year-old ,
▁schol ars
angu age
▁billion ,
▁dem ol
▁Cent er,
▁grand father
▁L ess
l ed,
▁2 -0
▁ev ol
▁rest ruct
▁five -year
▁adm ission
▁Break fast
▁Al f
ank ed
▁class room
ur u
ig nt
▁Brexit .
▁a ides
▁M itch
▁Nob el
▁Down ing
▁bo ats
▁dise ase,
▁Count y,
▁N ash
▁Again st
▁ à
▁C ancer
▁charg es.
▁N o,
▁In side
▁circ uit
▁table .
ur rent
▁up grade
▁"H ow
▁al one,
▁Lib ya
ut ton
▁Ð °Ñ
▁ly ric
▁board .
▁p upp
▁politic s,
et a
ak ,
▁interview ,
▁Re yn
▁W ol
ir k
▁Enter pr
▁bes ide
t y,
▁pr ice.
olit ical
▁sp an
▁dis advant
om ers
▁und ers
▁s ame.
▁transform ed
▁Stock hol
ak es,
▁comed ian
p ost
▁N atal
▁thought ,
▁break through
▁Ne ither
▁B ased
ifi ed.
▁fac e,
▁Clar ke
▁f isher
▁add ict
▁Su nder
▁ha ul
▁un con
▁Domin ic
▁comm em
▁H ugh
▁(wh ich
▁9 1
▁mer ch
▁K ay
g un
▁hour ly
▁full -time
-he ld
▁fasc inating
▁m ath
▁us ,"
▁pe op
▁crew s
▁L ane
▁o xy
▁City 's
▁S ound
▁Kl opp
▁swe eping
▁author ized
ativ es.
▁fro zen
is ed,
▁' a
▁excess ive
▁Res ident
▁consult ant
▁lob b
▁ed iting
▁s ung
▁en ables
' :
▁W ool
▁sign als
▁termin al
B M
f are
▁contin ent
mitt ed:
art ial
▁H undreds
▁Marsh all
▁Su ite
▁04 /06/16
▁campaign ing
fere nt
▁"O ne
▁key word
▁Aust rian
▁drag ged
▁DV D
▁correspond ent
▁p ending
lect ed
▁tremend ous
b us
▁N one
▁port rait
▁decor ated
▁ {
▁ground ,
▁role .
▁under c
▁gu ards
▁review ed
\ u
▁transl ation
▁rein for
▁willing ness
▁o k
ov ich
▁Re x
▁cor rupt
▁f el
▁custom ers.
▁Raid ers
▁T .
▁comm itt
30 pm
st orm
▁Not hing
▁centur ies
▁' R
д а
▁State ,
▁pri est
▁int ends
▁rul es.
▁S& P
▁Co ach
▁b ip
▁res il
▁assault ed
s. ..
▁ab used
▁le ts
▁bo asts
▁Work ing
▁le af
we ather
▁pol ar
▁bl az
▁Israel ,
▁s ends
▁sub mar
▁D J
▁condition s,
▁govern ance
▁Norweg ian
b uy
▁E van
▁she er
▁strateg ies
l ed.
▁St ill
▁K i
▁spac e,
▁for ,
▁goal keeper
▁Mem orial
▁st ation.
▁prin ted
/ c
▁night club
hold ers
▁Am ber
▁Columb ia
▁Sturge on
▁soon .
▁bott les
ourc es,
▁M ort
▁implic ations
▁8 8
▁dream s
▁С ен
▁pack ages
▁sil ent
▁enterpr ise
▁br on
O D
▁g aining
▁B ird
6 9
in ated
▁G are
▁work place
h ite
▁top .
▁arg ues
▁res emb
▁"W ith
er b
▁McGreg or
ar ound
olog ies
i i
▁Fer r
▁Her ald
▁I V
ak a
▁offic er,
▁council s
▁flo or.
d em
▁s ess
' n
st on,
▁Offic ers
it ime
▁clos ure
▁William s,
▁hy per
s. '
▁toug her
▁Palestin ians
▁S em
▁h iring
▁K end
ch at
" >
in ner
▁rel ate
▁insp ection
▁T as
▁( v
▁presc ription
▁check ing
▁N ature
oun ge
▁phenomen on
ak es.
he ld
▁trop ical
m od
▁Gl enn
▁st ere
ick ,
▁p uzz
▁spac ious
▁press ed
▁magn ific
▁p atch
▁j ok
▁environment .
▁re leg
▁B ase
▁Part y,
▁Obam a,
▁view ,
▁Island s
▁craw led
-2 1
▁( n
▁B rom
▁Pet ro
▁far -right
▁met ro
▁tr ue.
▁Sum mit
/ R
o vers
p df
▁r ational
▁advis ers
▁su ite
▁a ston
▁" ex
▁mat hem
ateg ory
ating .
▁R ah
▁ske pt
▁park s
ron ics
▁S U
▁f ict
▁ter m.
▁bel t
▁Ro ad,
▁congrat ulate
▁prest igious
st er.
it utes
us c
▁C reat
▁traff icking
air y
▁sm ok
▁h oney
▁box es
▁she ep
▁Hung ary
oc c
▁Duc hess
▁op ener
▁des erves
F i
▁cred ibility
aun ch
▁Brad ley
▁1 -0
e. com/
▁rom ance
▁view ing
u j
- Q
▁former ly
▁Bu y
▁N GO
-0 7
▁Be h
.1 1.
▁adding :
ic ut
▁P L
▁Ear ly
▁secretary ,
▁any thing.
50 .
и с
▁decad e.
▁mand atory
▁d ang
▁"S t
▁unfortun ately
▁me an,
▁ri ot
▁bar r
▁Jer ry
▁ren owned
▁Great er
▁G .
-s ized
▁B annon
- j
▁Co hen
2 :00
▁Ib rahim
▁research ,
▁land l
▁(T ex
▁( 8
▁doub ts
▁McC arth
▁security ,
▁L ope
▁Co x
▁H ind
▁Represent ative
is es.
▁St ars
▁tr igg
▁#1 2
▁Miss ouri
▁lead .
g io
▁plac ing
▁C ot
our ,
▁not ably
▁firef ighters
ok o
-m ile
▁Th ink
u ber
▁eng aging
old s
▁don ated
▁ б
f ell
▁head line
▁san ct
▁conference .
л я
▁dis ruption
▁Moham med
▁Tw enty
▁was hing
ны й
▁where as
ar c
▁field ,
um m
▁date .
▁decre ase
▁tro op
▁econom ies
▁head ,
ass ion
▁sent iment
oub ted
▁Tajik istan
▁wis dom
d on
▁worry ing
ons cious
▁trans pl
▁ank le
▁var i
6 2
ard y
▁play er,
▁Boe ing
▁Facebook ,
▁execut ed
▁commission ed
▁8 4
▁accompl ish
▁attack s,
▁$1 5
▁post .
or ia
▁D ue
▁Dav ies
ó n
▁Ind ia's
▁Mean while
ow ered
▁scen e,
▁lif ting
sh ine
▁hor rific
▁Portugues e
▁u g
d rop
▁K id
▁E PA
▁student s,
▁ahead .
il itation
▁evacu ated
▁distric ts
▁to dd
▁Sun set
ES T
▁bus es
▁sac rif
c é
▁R ound
▁d ear
▁M ol
▁M agn
▁ton nes
▁produc es
▁Im p
▁Wiscons in
▁say :
▁R A
▁Cele br
▁Y es
▁travel ed
▁in mates
▁+ 1
▁adequ ate
▁question .
▁bacter ia
▁"A nd
▁Cap tain
▁0 .1
▁For ces
▁Сен тябрь
▁" and
▁lov ing
▁Fed erer
▁ro ots
▁Cy pr
n ers.
▁vess els
at ched
▁Netany ahu
▁top ics
▁priv ately
▁tr ous
al g
▁l ined
▁ext rad
▁FI FA
in st
▁lif etime
▁fin ed
▁d y
▁re aches
▁be aring
- line
um ble
im s
um per
▁So f
ind ed
ous es
▁( right
▁Tod d
▁com ic
per form
▁trail er
ing ing
ut ter
sk y
▁itself ,
▁people ,"
▁vess el
▁he ated
▁editor ial
▁B R
▁0 .5
▁C urt
l t
▁Tr ude
▁high way
▁star ,
▁## STAR
▁##STAR ##
re xit
▁stud y.
▁Ch an
▁or g
ul ent
▁Sanche z
-2 5
▁T O
ch i
▁Ant i-
▁O val
▁$ 500
▁another ,
▁(Tex as)
▁L arry
▁school s.
▁L L
▁among st
▁occasion ally
▁and /or
▁Oreg on
▁B id
ec ute
▁V .
▁common ly
▁draw s
▁accept ance
▁purs uing
t able
▁safegu ard
▁inst ance
▁se al
s a
▁spread ing
▁b ru
▁upd ated.
il .
▁pos ing
▁counter par
E :
▁Desc ription
▁non pro
▁desper ately
▁O pt
▁sc ram
▁W W
ef in
▁town .
um .
▁bi ological
▁Miss issipp
▁signific ance
ull ah
▁' g
▁huge ly
▁join s
/1 7
▁sovere ignt
▁new ,
▁pass age
▁restrict ed
▁199 2
▁one 's
▁transm ission
▁contrast ,
▁hand s.
▁v ine
▁(Getty )
▁expl oring
bre aking
▁Kn ow
▁M eg
▁Frank lin
▁tact ics
c ess
▁block ing
▁2 7.
▁pattern s
▁d rought
▁w rap
ins ula
▁music .
+0 2:00
▁part ially
▁lay er
id o
▁Her itage
e ating
] ,"
▁ann oy
ton .
▁anonym ous
▁authorities .
▁emp lo
▁W ang
▁sp y
▁pun ch
▁Th us
▁intern ation
i ya
▁half ,
▁o live
▁200 7.
▁represent ation
▁Com merce
▁file ,
▁<![CDATA[ R
▁disag re
▁T ow
▁w ise
▁famous ly
k ind
▁Day .
▁f ib
▁work ers,
▁mess age.
umb ling
▁s isters
▁inqu est
b ors
ap est
▁$ 25
▁y es
▁v end
▁Con te
▁Dak ota
▁Emb assy
▁Ar med
▁p age.
▁(A l
▁depend ent
at is
▁collect ing
▁nation wide
P P
▁divid end
▁incre as
o a
▁continu ed.
ix on
▁John ny
▁violence ,
▁25 H
aul ts
▁V iol
▁Nig el
▁H alf
▁off ence
▁sect ions
▁hack ing
▁mat ched
▁cl iff
▁thank ed
▁Lu is
▁<![CDATA[R e:
▁sole ly
▁fail s
it is
▁present ing
▁T R
ue z
▁public ,
▁S ri
▁Bloom berg
▁cont ents
▁rank ing
▁neighbour s
q q
▁b er
▁20 .
e ep
▁appeal ing
▁Turn er
▁Rod gers
un al
▁prote in
▁batt les
▁ �
▁n uts
▁Ro hing
ay ed
▁Sun rise
▁fil m.
▁propert y.
▁Christ ie
▁Europ a
▁Sal v
▁depart ments
▁was t
▁anticip ated
▁amount ed
▁prem ature
▁form ats
▁hom es.
▁perm itted
▁design ated
▁gif ts
out .
red ict
▁passion ate
▁pet rol
O V
▁Monday 's
▁We 'll
▁ph one.
▁design s
▁love .
▁B aker
▁Spain ,
▁St re
▁Indian a
▁cred its
▁as c
▁aud iences
r ange
▁T rop
▁C IS
/1 5
-0 4
▁sect or.
▁long .
▁inter action
▁Cl imate
▁se as
▁love ,
▁Wood s
▁S ave
▁recover ing
▁Council ,
▁explo it
▁T aking
▁wrest ling
▁Partners hip
▁turn over
( 1)
▁199 4
- un
-friend ly
▁advant ages
▁ce iling
▁s ew
▁conclud e
qu es
▁suppli ers
EN T
▁R ain
▁br anches
▁on es.
▁I .
▁dec isive
▁consult ing
▁Com pet
▁name ly
ian ts
▁municip al
▁Prosecut ors
▁S ony
▁f itted
▁rhy th
▁run ner
he ll
▁dyn am
▁G a
!! !
le ted
▁le ap
or able
▁fac ial
▁B ible
▁inv itation
▁be ars
▁Tim es,
▁world w
em outh
▁work ers.
▁sl im
▁Cent ury
▁imm igrant
▁result .
▁susp end
ose xual
▁Pot ter
▁M asters
▁"C h
▁hes it
ne ath
▁av iation
▁benef icial
▁(0 )
▁W ard
▁election s.
▁she riff
▁President ial
▁effect iveness
ing ham
▁kilomet ers
▁Rel ations
▁Ke ep
▁Mil itary
url ":"
▁H ernand
us hes
▁par ade
▁Build ing
▁F lin
▁V atic
▁Bul ld
▁Soft ware
▁cannab is
▁s q
▁Origin ally
▁tob acco
▁R uth
ab y
▁ann ually
▁H ait
▁F R
e u
▁M ater
р у
▁tit led
▁Ad ams
▁play er.
▁ch op
▁First ,
▁Wednesday 's
▁ever .
h ov
▁stim ul
b b
▁And roid
▁mist aken
▁P av
▁president s
▁focus es
ight ing
▁Res ort
▁#1 5
▁list ,
▁mind ,
▁tri al.
▁clin ic
▁1 01
▁sec uring
▁brand ed
▁just ify
I ,
w ed
▁pat ent
▁record .
▁fan s.
n orm
▁H av
▁Thursday 's
l ar
av y
▁bu zz
▁t ale
▁was h
ator .
▁crim e.
- te
▁swe at
▁Leag ue.
▁correspond ing
▁Sh ares
▁T yl
▁diagn osis
▁Laure n
or p
▁him ,"
▁e cl
ator s,
▁Charlott es
op es
▁Mach ine,
▁short age
▁G ot
▁shar ply
▁L akers
▁football .
▁growth ,
▁Ros en
sk i
for mer
201 5
▁L ock
▁Turkey 's
▁alt ogether
/ 7
▁break down
▁pray er
▁end less
▁sp a
▁volunt ary
i op
▁Barb ara
▁MailOn line
-l ooking
ov a,
u ilt
os a
▁Vi enna
▁M ason
▁situ ation,
▁hat red
▁Tes la
▁**** **
▁deb ates
▁themselv es,
▁N ice
▁confron ted
▁God .
▁entreprene urs
ü r
▁trans it
▁div ide
▁take over
▁$ 30
▁fil ing
▁th read
▁Ric o
▁#1 3
▁Es sex
▁treat y
▁crim inals
▁K il
▁mob ility
▁rev ised
▁cyc ling
▁tradem ark
▁fulf ill
▁gr ade
▁re cept
▁co ordination
▁Dan ish
▁enjoy s
▁comb ine
▁un beat
▁Broad way
▁aim ing
▁cust od
▁Christ ians
▁English ,
▁own ,
▁8 3
▁veget ables,
▁stay s
ore ,
▁BBC 's
▁technolog y.
▁any thing,
▁indic ates
▁Gen eva
▁app et
▁Tun is
▁st aged
un es
anc ou
▁Th ai
▁9 00
▁Not ting
wood ,
▁T omm
▁famil ies,
▁episod es
▁cult ure,
▁for b
▁G aza
в и
w art
▁hor rible
▁achieve ments
▁speak ers
▁Re bec
▁Icel and
▁ â
-t wo
▁C itiz
▁fire ,
ble acher
om ic
▁int r
▁wel coming
▁N ort
▁under go
▁reluct ant
▁Ch arg
▁now ,"
▁S or
▁tex ts
▁Jul ie
ment ed
▁H em
▁ord er,
▁Wh atever
▁Ad vis
▁harm ful
game 3
▁canc er,
game3 a.com/
▁volunte er
▁19 1
] [
▁(pictured )
▁Ð 2Ð
▁ ©
l if
io x
▁A uss
▁p y
▁human ity
▁blo ody
▁The ater
▁have .
▁per ception
▁sell s
▁cock tail
▁H ig
▁(00:0 8
0 4
▁U.S. ,
▁t el
▁Israel 's
▁c ogn
▁seek ers
▁Tenness ee
▁Blo od
▁F at
▁H ass
▁rub ber
▁g rip
▁O F
▁ind oor
▁mid st
an ing
▁legend ary
▁pregn anc
▁child 's
▁c argo
▁Oper a
▁fant asy
▁Cr ist
▁project ed
▁woman .
▁he els
as ian
▁respons es
▁develop er
▁st ark
▁H BO
▁liv es,
▁sa ke
▁qu ar
▁wor ries
c ing
▁cop ies
▁oppos ing
▁ind igenous
eg ree
▁S ac
▁" com
▁meaning ful
le 's
de /
p ack
▁D og
▁H ob
▁int rig
▁long -r
▁susp icious
▁term ,
▁contribut ing
▁sum m
▁med d
os e.
▁Al z
▁a ide
x .
▁line up
▁A id
ight ,
ail able
▁cry ing
▁C amb
) )
▁cor rid
▁air .
ur bs
ag ne
▁conc uss
▁c ot
▁Sm art
▁quiet ly
▁wrot e,
▁en abled
P ro
▁around ,
▁" sp
be it
▁Brown ,
▁start .
nder ing
m un
ipp er
▁Cont in
▁host ile
▁better ,
▁bord er.
▁b idd
▁gr ace
▁Gr ace
▁L enn
▁CNN 's
b ound
▁this :
▁st all
▁two .
▁avo iding
▁rap ed
▁K ane
▁Act ,
▁sear ched
▁D elt
ast e
▁V ancou
▁conc eded
d i
▁B ourn
▁h oly
▁7 9
▁veget ables
or ies.
▁platform s
am an
▁Marc us
▁m ph
▁popul ation.
▁decad e,
▁'M y
d ing
le ments
▁pr ices,
▁State .
? p=
▁dest ro
▁truck s
c ar
▁genuine ly
▁O' Ne
se e
▁not able
▁Ro oney
▁taxpay ers
▁s acked
▁Cup .
▁Dj ok
▁V ers
▁every thing.
▁20 ,000
▁Rec ord
-L e
ine 's
▁em ission
our g
▁ent r
▁kick ing
▁touch ing
ess a
▁forth coming
▁Hel p
▁devast ated
em on
▁L ibrary
▁sh y
▁conf usion
▁Or thodox
▁Bul g
▁Way back
af ort
▁Bever ly
▁supp lied
▁invol ved.
▁Soph ie
n al
▁m akers
▁emb ark
le ans
▁con j
▁round .
▁viol ated
▁man ual
▁Sun :
▁st ating
▁B A
▁tort ure
▁( 3)
▁pan ic
▁discl ose
ff ield
▁sh orts
▁ref lection
I E
▁Doug las
lic t
▁Const itutional
▁lead ers,
▁dial og
oin ts
▁Banglades h
▁K night
▁control ,
▁c ens
▁Seb ast
▁rele asing
▁10 %
▁bet ray
ull iv
orn o
▁c auc
▁account ,
ade qu
▁compet it
▁Em manuel
▁sy nt
/1 3
▁jump ing
==== ====
▁Se lect
▁B order
ne ver
▁ter rac
▁T ogether
▁influ enced
▁al ike
ut ting
ograp her
▁spec ified
▁P od
▁ESP N
ro ,
▁11 th
▁f ence
▁high .
0 5
▁executive ,
▁Apple 's
▁R u
ur st
\ /
▁ri pped
▁ у
▁s ie
▁on line,
qu ir
▁exc use
▁action ,
▁Que en's
▁here ,"
id i
▁compet itions
▁we ighed
▁cons ervatives
b ,
▁deb ris
▁inter rupt
▁R ot
▁resol ved
▁9 7
▁Indones ia
i q
▁'W hen
▁sw itched
▁le isure
es ome
▁Aff ordable
▁right -wing
▁Bay ern
▁relationship .
-qu arter
▁( The
▁C inc
▁Wel come
▁N elson
▁cho ice.
▁Serge y
▁Robin son
▁All ah
▁Sh aw
▁Har rison
▁l end
▁Stan ley
▁to ss
▁f ores
▁Com ments
á n
TM L
▁aw ful
▁tri o
▁r ushing
▁prop ose
▁bar rier
▁abs ent
ai ,
▁8 2
ard ed
▁G 20
▁S ize
▁advent ure
▁like .
/ B
/ #
▁car p
▁F o
▁to pped
▁counter part
▁brows er
▁medic ation
μÐ 1⁄2Ð
▁Elect ric
▁comp osition
b its
▁par agraph
▁su ed
▁T ol
▁dist ress
▁sun ny
▁br ick
ch a
▁3 .5
▁Imm igration
▁Tig ers
▁emot ions
▁B ord
qu et
▁cast ing
ww w
▁val ued
qu er
burg ,
▁Murph y
ist ing
eng u
-p age
▁complet ion
▁product ivity
▁date ,
▁level s.
▁c yn
▁incor rect
aug hed
8 2
ou st
i ed.
▁" e
▁l uc
▁mar ry
▁kill ed.
▁mis le
▁system s.
▁fl ower
▁E ff
▁cult iv
▁reserv ation
▁Col leg
▁pharm aceutical
▁safet y.
N ews
m atic
▁Cow boy
▁D ise
▁small ,
▁O' B
ak i
▁dam ages
▁( with
т и
▁Sh are
F or
th ood
▁student s.
▁wrong do
▁enc ry
▁Eag les
▁+22 °C
▁best .
▁Brexit ,
▁subject ed
ad e,
ew ay
▁Corpor ation
ne x
ri es.
▁mark ing
iz ed.
▁prot ective
y a,
▁fun n
▁Vin cent
▁f ash
▁st ole
▁b ats
▁**** *
oca ust
▁climb ing
▁B aghd
A )
▁subsid ies
a a
▁tri al,
▁controll ing
▁Phill ip
▁reporter s.
▁g orge
▁"b ut
n ull
uck ed
▁rul es,
▁neighbour ing
ER S
▁bul k
▁Pr ague
▁res erved
▁“ A
▁endors ed
▁dispos al
M .
e velop
▁Te h
▁Ham as
is es,
▁don ors
▁Commun ications
▁19 .
▁educ ation.
▁not orious
▁page :
▁to mat
- V
v i
▁M alt
▁wh istle
▁work shop
h all
▁Tit an
▁New s,
▁Ed ition
▁exp ed
UN DER
▁S ter
id ers
▁co-found er
ium ,
▁imm ense
▁worth y
▁rec ipe
▁Deb ian
▁move .
▁back up
▁D mit
▁They 've
▁Mc A
▁list ing
w estern
▁aud it
▁D ere
ain ted
▁injur y,
▁eth ics
el ve
▁sk et
▁col ours
▁cyc l
▁en ab
▁there ,"
▁Kazakh stan,
▁Ber g
▁( inc
▁Fut ure
▁ult ra
▁Sam uel
▁Address :
▁add iction
ress es
▁son 's
▁J av
▁Hend erson
▁F ix
▁Aut om
▁Alz heim
▁ac res
b ag
▁of ,
▁g room
▁recommend ation
▁und oubted
▁comp lim
im age
▁D rive
▁r h
▁Vict ory
▁T ag
▁US D
f urt
▁S ales
▁under neath
▁ap ology
▁P ur
ash a
▁l aughed
back s
▁P ast
▁ch ase
▁obser vers
ra ham
▁Pl at
uff icient
ain .
▁Д ека
▁town ,
▁Massachuset ts
▁clas hes
or f
▁display s
▁Park er
▁1980 s
▁d irt
▁l iver
▁do or.
▁Gl en
▁quick ly.
i ors
▁contr ary
ip se
▁grap h
▁m all
▁post er
▁exerc ises
▁S elf
-c ol
▁Reut ers.
t it
▁J a
▁vot ers.
▁R at
▁emer ge
▁enlarg ement
▁har vest
▁cent er,
▁similar ly
▁C ash
ult ural
▁star red
▁S ach
▁relax ing
▁( th
▁R acing
▁Min utes
▁cle ver
▁Restaur ant
▁$ 3.
▁character istics
▁ath lete
▁tem pt
▁attention .
▁car n
▁D iamond
▁part ner,
▁Stud ies
ce ,
▁She ffield
м о
▁imag in
▁del icious
n e,
▁( l
il y.
▁Luc as
▁W als
-third s
ar m.
ugg ed
▁Start ing
▁team mates
▁Res ults
▁alloc ated
▁philosoph y
▁B il
▁a ired
▁Dig ital
in o,
▁C ai
ott o
▁res ume
▁express ing
▁Nev ada
▁you ?
▁worse .
ign ific
▁forward ,
▁Proper ty
▁Y em
▁cop per
R e
▁r ice
▁G allery
▁ab ort
▁Is is
▁Slo ven
▁tack ling
v as
▁ref usal
▁C ape
▁Step han
] [/
▁Man afort
▁Pict ures
-up s
▁Cooper ation
▁h ij
▁imp l
▁Pro ducts
▁Bulg arian
id =
▁$ 200
lin ary
▁Re agan
▁Friend s
▁Ath let
▁market s.
▁injured .
l .
▁South ampton
▁heav en
▁Zimbab we
er ts
ru p
resp ons
u ate
iz er
▁M ak
▁need ed.
p in
▁R ules
▁g rief
ire .
ing e
▁adm itting
▁Comm and
▁feed ing
▁D ol
▁cooper ate
▁K oh
"; "
▁att ends
▁fight .
▁Hom eland
▁C ategory
▁P sych
▁D aw
▁sm ashed
▁S ere
▁fle e
▁1970 s
▁Trude au
ne red
▁un le
▁G ul
▁9 2
ec raft
▁17 th
▁Gu y
▁then .
▁out er
▁http://www. g
P C
▁bron ze
▁Jul ia
▁continu ous
▁approach ing
SC ORE
alys is
▁chemical s
▁Lukas henko
▁st ation,
▁inc lusion
o ons
▁Mad uro
▁boss es
▁insist ing
а л
▁Hun ter
p ress.
is en
▁vict ories
▁B ot
▁ID :
bel iev
": null
▁f ru
▁balcon y
el 's
▁R ud
▁satisfact ion
ic ienc
▁can .
▁## UNDER
▁Doct ors
SCORE ##
▁##UNDER SCORE##
s uit
▁lawy er,
▁c ater
er y,
▁form ula
▁n erve
▁P il
▁ext ending
▁dis par
▁nightm are
▁st air
▁stri pped
▁Patri ots
▁open ,
▁M ind
▁V eter
▁couple 's
IM G
▁Sc he
ous se
▁Spain 's
▁Gare th
▁con vey
/ 20
▁fan s,
▁Man ning
ot ion
▁appeal ed
▁defend ers
ap h
▁window .
▁Get ting
▁Ann ual
▁Rec ent
▁Pages :
▁P itt
▁photograp hed
▁Or leans
ri en
▁Sp ot
-of -the
▁m ole
▁much ,
▁engine ers
▁paren ts.
p ower
▁ind ict
▁conference ,
▁prov inc
▁Bourn emouth
em a
▁position ,
▁B ark
▁H M
201 0
▁bom ber
▁York )
r ong
▁board ,
▁nonpro fit
▁facilit ate
▁Res c
▁S ource:
▁refere e
▁Tr ain
▁g host
▁O m
▁Gold man
▁commission er
▁d angers
▁found ing
F .
▁prem ier
▁enem ies
▁n ation.
▁ch ic
▁national s
( 2)
ist rates
c m
aed a
▁F ax
▁opio id
▁" one
URL ]
▁gr id
▁Ex hibition
E G
- pr
od ay
▁attract ions
apol is
imp se
▁un st
▁S in
▁Emir ates
b ot
▁gl impse
▁F ried
▁count less
▁pan els
▁T arg
▁support ive
▁ab und
ant le
▁autonom ous
▁forec asts
▁c ouncill
▁#1 4
▁Gal axy
▁Dar ren
▁inf ant
▁by :
▁BM W
▁en act
ing ,"
▁T ype
▁important .
▁abs urd
s end
▁s lic
▁l un
▁hed ge
▁8 7
▁son .
▁D iana
▁car s,
▁travel lers
▁leave .
t y.
▁f oster
▁territ orial
ON D
▁ha iled
▁least ,
▁conclus ions
oll ah
▁Cl aire
▁persu ade
▁m ouse
▁B attle
▁" be
▁saf e.
▁forc es.
▁C ros
▁Sh ane
▁paint ings
▁Ind ex
▁[ URL
▁Venezuel a
▁b ureau
el ed
▁right ly
▁calc ulated
am o
▁char ming
▁nurs ing
▁K or
land s,
▁Z e
▁Lin ux
ic ism
▁M end
▁bro k
▁V ent
econom ic
ch .
▁N ancy
▁sect or,
▁c ave
▁cult ure.
▁diabet es
ic e,"
ins k
▁ac ute
▁Roman ia
▁h ood
▁Fest iv
▁9 3
▁adv ise
▁attack er
▁C ord
m ic
▁" ext
▁dam age.
at ter
▁LOR D
▁Sunder land
▁i .
inh ua
▁trans formation
▁Ow en
/ av
▁mob il
▁flo ors
▁B omb
▁hour .
▁memor able
▁R ivers
▁or bit
▁char ter
▁acqu ire
▁eng ines
▁high -r
▁plan s.
▁gard ens
▁qu ote
▁fest ive
▁pil ots
▁m elt
pro duct
▁hack ers
og ram
▁Ste in
▁2 nd
▁national ist
c b
▁where ver
▁charg e.
▁Cust oms
▁severe ly
or ies,
▁program s.
▁Ðo Ð
z 's
olog y.
▁Dun can
▁Cinc inn
▁magnific ent
▁displ aced
▁Court .
- ind
▁adap ted
▁sent ences
▁F ans
▁K in
▁mother .
ac ent
▁heart .
b uild
▁rel ent
olute ly
▁res on
▁$ 50
-month -old
ab akh
▁myster ious
al s,
▁r am
▁Carol ina,
▁Spenc er
▁un re
▁'I 've
▁st roll
▁though .
▁agreement .
▁green house
▁agreement ,
▁album ,
▁r it
▁tatt oo
▁Unfortun ately
ur i
ist ical
▁o v
▁vide o.
out ,
▁T ry
▁+ 7
▁lo aded
▁Kent ucky
▁in ters
▁rat es.
U .
▁O N
▁enh anced
▁K le
▁Street .
▁rock s
▁More over,
▁Regist ration
▁B eng
▁p orts
l ong
app er
bro ok
▁laun ches
▁Canad a's
/ 22
▁[URL =http://
ability .
________ ________
r ab
▁rep ay
▁sk irt
▁Sain ts
▁of .
ie val
itt en
▁design ,
▁attorne ys
▁b un
▁p ond
as ant
▁So on
▁light ing
▁trop hy
▁interest .
▁det ection
▁Wal es,
▁trans fers
▁je ans
▁rele ases
▁Sec urities
][/ URL]
▁Represent atives
▁paralle l
▁l over
al id
▁supp lier
att a
▁since re
▁sh orter
▁W emble
▁Z oo
▁tem ple
▁jew el
▁Bash ar
▁pick s
▁gun man
▁Sud an
▁O nt
▁Al ban
▁US C
▁comple ting
▁out lined
▁prol ong
he v
▁Teh ran
▁f eder
▁p oker
▁dr ill
▁Lux emb
▁Cat hedral
▁inf lamm
▁C lo
e y,
▁run ,
▁inst ruction
▁Leag ue,
▁return .
▁“ T
▁cos met
▁Uzbek istan
▁Balt ic
▁mechan ical
▁inev itable
▁retail er
▁belong ing
▁ne arest
▁mechan isms
▁end ured
▁M ust
▁celebr ations
▁Flore nce
▁belong s
ve ,
um s
ish .
▁Re id
5 3
▁un for
ank s
▁Congress ional
el ivery
▁propert y,
▁accommod ate
O ,
▁sal v
▁W or
▁bas es
▁greet ed
▁Afric a.
▁class ical
p her
▁fundra ising
▁mos que
▁B ent
▁Rebec ca
▁person 's
gor ith
oc racy
▁St ra
▁cinem a
▁d irty
▁sub urbs
ur f
▁16 th
▁Connect icut
▁Trans mitted:
▁o rient
▁#1 6
▁Ukrain e.
▁T-sh irt
▁record ,
▁H TML
int age
▁endors ement
▁18 -year-old
▁co hes
ative ly
ol k
▁McDonald 's
▁De ep
▁instead .
▁over c
▁question ,
▁(left )
▁L ot
▁wire less
- or
▁di ed,
▁wh oles
▁s add
▁p add
▁repli ed:
▁murd er.
▁2020 .
▁Sil icon
▁Cl are
▁th igh
▁Entertain ment
▁cas es.
ens ion.
▁final .
▁pro ving
▁ch ill
▁Fr an
-and -a
▁part ial
▁e .
▁conf used
▁se af
▁or al
-2 4
▁Mon itor
-f und
▁ ®
▁C reek
▁C ertain
▁B and
▁land ,
▁ey es.
▁Nich olas
▁wor ship
▁disp uted
▁Syri a's
▁fin es
▁+ 29
▁Crim inal
▁Europe ans
-d egree
c .
▁I R
▁E P
▁Re ven
▁lead er.
▁sett ings
▁Yah oo
in ts
▁E sc
5 ,000
▁Dyl an
▁Rohing ya
c ore
h ot
▁question s.
ag ging
raf ts
▁revolution ary
▁st yl
▁Jo h
▁/ ></a>
▁C raw
▁Deuts che
▁R udd
▁Nob ody
▁l ending
▁B ec
▁resul ts,
▁Brend an
▁cast le
▁anc est
▁pat ience
b en
▁park ed
resp ect
▁Facebook .
▁embr aced
w atch
▁3 -0
ruct ive
▁performance ,
▁Murd och
ond ition
▁consider ably
▁advoc acy
ess ,
▁tit le.
▁defend ant
ator s.
▁hard est
▁fut ures
▁prot ester
▁dist ant
▁su ck
op oul
▁projects .
▁Unfortun ately,
-s chool
▁centre .
sp an
▁advis ory
▁fl own
▁societ y,
▁G B
▁meas uring
▁z ones
▁S O
▁f ond
▁d read
g i
▁intens ity
▁Ad rian
▁fre e.
il es,
▁3 50
▁£ 20
▁199 3
▁Ch uck
▁reconst ruction
▁h orn
( 1
▁d od
ip h
▁Ch ange
ir ,
ty pe
ent er
▁adv ances
ishe ries
it es,
▁United 's
▁comp uls
▁Cong ress,
g iving
ar ri
▁centre ,
▁Ser ver
▁200 6.
▁R ash
▁Ah med
▁Dou ble
▁tr act
▁speec hes
▁" on
▁coc aine
an e.
▁Mar io
▁Ed wards
▁Per form
▁High way
▁Guardiol a
▁w ished
▁о т
▁Doct or
▁Court ,
in os
▁Th or
▁goal s.
▁P ick
▁G en.
▁threat ens
▁N OT
▁Alzheim er's
▁Syd ney,
▁has ht
pl us
▁h ilar
▁Dam asc
▁12 th
▁F un
iet h
▁S ah
▁v ib
b illion
▁L ie
▁b ang
▁Ch arter
▁econom ists
c ul
▁gr ants
▁flo ating
▁Hol ocaust
▁newspap ers
▁this ,"
▁K yl
▁Hall ow
▁D ame
▁back drop
▁peop les
▁K .
▁G ors
▁P ep
▁May weather
▁free ly
▁construct ed
or iginal
▁girl ,
w ise,
▁m ixture
word press.
▁C atherine
▁month 's
▁rece ip
▁out let
▁wh is
▁crowd ed
▁Ins urance
▁astron aut
▁land .
▁B air
▁mount ing
ID S
▁fl esh
he astern
▁des ired
▁speech .
n an
▁sn apped
▁succeed ed
▁med als
▁los es
▁S alt
▁F ill
▁sub urban
▁to oth
▁Ð¿ Ñ
▁second s.
▁ble w
p a
▁disappoint ment
▁president -elect
▁8 9
st age
▁bl aze
▁met h
-p resident
▁treatment ,
iz ation,
▁table ,
z i
▁del ivers
▁Crit ics
▁"d is
▁diplom ats
▁L ore
▁bip art
▁abro ad.
▁enfor ce
A G
r ained
work ing
▁product ive
▁I ce
▁expl oration
▁Orland o
▁trad itions
▁help ,
▁15 th
▁marg inal
▁ vert
▁A be
▁airst rik
▁competit iveness
he ro
▁Cl ay
▁Heath row
▁W i-
▁function ing
▁or ,
▁trust ed
▁unc overed
▁Stud ents
▁asp ir
▁ir rit
▁compet itor
▁Mor rison
- ey
▁start ,
▁C art
▁uns uccess
▁flo or,
-cont rolled
▁evalu ation
▁pre jud
▁m ock
▁He at
▁che es
▁view .
h al
▁dis ast
▁rad ar
▁dead ,
▁Vol ks
▁w inger
▁far ming
▁scream ing
▁Ireland ,
▁W onder
▁cred ible
▁team ed
▁pred omin
▁cuis ine
▁Government 's
▁ass ists
▁way s.
▁System s
e av
▁ident ifying
▁steal ing
▁min er
pm ,
J SC
▁ Â
▁24 -year-old
▁file .
▁so ap
▁diplom at
▁e rect
▁activities .
ocument ed
▁a est
▁Th under
▁attend ance
▁enthusias m
▁stun ned
▁bik ini
▁really ,
▁Frank furt
ifi ed,
▁K ens
▁about ,
▁hom es,
im ed
▁unfortun ate
▁Le eds
▁gl ory
▁serv ants
▁access ion
▁Vill age
▁j azz
▁super vis
▁B eth
▁201 8,
▁st raw
▁p ile
▁satisf y
t a
т ра
▁war s
▁anthe m
▁system s,
▁"S o
▁Дека брь
▁ph one,
o hn
▁S S
ol er
ens ion,
▁26 -year-old
▁turn ,
▁al ign
▁dis abilities
▁21 .
▁flood ed
▁Ven ice
▁Traff ord
▁sl ide
▁year s,"
▁s ack
▁kill ings
▁move ment,
▁b other
▁trad e,
▁po em
▁mem oir
▁' J
▁review ing
. org
▁tra uma
▁nav y
▁certific ate
▁prin ting
▁13 th
▁F ew
▁B T
▁un rest
▁vill a
▁decl aring
▁oxy gen
▁as leep
▁recall s
▁Je hov
▁N i
▁H S
▁tr im
and al
▁undoubted ly
▁hold ers
▁respective ly.
▁storm s
▁in adequ
aff e
▁Ra qq
ns ic
▁des erved
▁d ys
▁awa iting
▁gr ain
▁energ y,
▁flag s
▁Cub s
▁daughter 's
▁cities ,
▁oper ations.
▁He ather
▁eth ical
ay er
- era
а й
▁Stud io
t 's
▁C ris
▁Mu ham
l on
▁Ser gio
omet own
▁E N
▁process ed
▁barrel s
▁ke ys
b ird
▁affili ate
a. ,
▁19 -year-old
▁African -American
▁cur b
▁te ens
▁bet ting
▁z oo
▁room s,
▁nut rition
▁B ann
▁success ive
▁King 's
":null ,"
O )
▁19 30
ri ved
▁two -thirds
iv a
▁pe er
▁lear nt
▁Griff ith
otherap y
▁form .
▁neighbor ing
st ock
▁R av
▁chair s
▁rec ount
C E
s. com
▁move ment.
▁l ou
by 's
▁self ie
▁l ibr
▁activ ity.
▁l aser
▁Com b
▁way s,
▁#1 7
▁dec k
▁arch ae
▁rad iation
▁list ened
▁2 .0
о б
r is,
▁rit ual
nest y
▁M aking
ri ke
▁glam orous
▁forc es,
▁saf er
▁run way
▁compet itors
▁sister ,
▁ser ial
u ition
▁mon arch
▁G ent
▁econom ics
/ F
▁O SC
▁cr ashing
▁season 's
are z
▁move ,
▁los s.
▁debate .
▁le ase
oth y
▁Nich ol
▁re he
▁Mus k
▁Ro oms
l ,
▁ban ning
w ent
▁Date :
▁production ,
▁catch ing
br idge
▁al gorith
▁tr ace
▁9 4
▁anti- S
▁ment ally
▁Arn old
▁25 -year-old
▁gradu ated
▁d ent
▁laugh ing
▁17 0
▁evacu ation
▁ >>
our .
ist ance
ov an
▁email .
▁imp acts
▁reason s.
▁ г
oc ide
▁music ians
▁po le
▁refere nces
▁del icate
▁attract ion
▁fil ter
/ m
▁bo ards
▁wond ered
▁m asc
, ,
ac ious
▁tiss ue
ast ed
▁Found ation,
gu ard
▁re ct
▁man y,
▁drug s.
if ully
▁1. 2
▁different ly
▁Franc isc
▁n ail
▁Cent er.
▁road ,
▁199 1
▁ham mer
▁Opp osition
▁comm ittee,
im es.
p rom
▁adjust ed
▁dri ft
▁cart oon
▁accompl ished
▁Ph ys
▁sp ends
enc es,
▁pro x
▁law s.
5 6
oc ial
▁Gu est
▁pun ished
▁N urs
▁c ement
▁light ,
ell i
- room
an a,
▁det ected
▁fl aun
▁gar age
▁Hawai i
▁Y OR
▁am ateur
▁sound ed
▁second ,
▁Bar cl
▁recruit ment
R I
▁market s,
▁t ense
▁employ er
▁su its
-st ate
▁p ensions
op ular
▁insp ire
▁standard s.
▁Alab am
▁Ariz on
▁new born
▁dign ity
▁fur ious
▁subst itute
▁cons erv
▁force .
▁Ref uge
▁phot o,
▁B E
iz ed,
▁debate ,
▁fing ers
▁environment ,
▁Mu eller
▁3 2,
▁street .
▁subst ances
▁ident ification
▁col ors
▁contrad ict
5 7
▁Yere van
wordpress. org/
▁work s.
▁under way
▁bl own
▁wa ist
▁Gren fell
▁v on
▁cease fire
▁Kushn er
▁A B
▁wheel chair
▁chang es.
▁Leg isl
stad t.
▁j aw
▁Hear ts
▁neigh bors
eed /
▁char m
▁intellig ent
▁just ice.
▁argu ably
▁histor ically
▁Here ,
▁Dere k
▁Tem ple
▁obs erve
ens ity
▁l ugg
▁Rem ember
▁n u
▁adapt ation
▁M n
▁sh aped
▁Jen ner
▁R oot
▁mon it
▁p ave
▁sens ible
▁Al ice
▁fort une
▁inc lusive
▁Bright on
▁oper a
▁wid th
▁Quest ion
▁father .
▁pr ince
less .
▁Ger mans
▁us e,
iet y,
comm un
▁luc rative
ot ive
▁go al,
▁Th us,
▁Malays ia
▁201 9
▁press ures
▁frust rating
▁attribut ed
▁ umb
▁shopp ers
5 8
▁F oster
le um
▁there by
▁schem es
eli hood
▁F ast
-2 3
▁i. e.
▁un law
▁Associ ation,
▁L ar
▁adm ire
▁stup id
he nd
re amed
ust ing
az akh
. )
ult y
-and-a -half
▁incom ing
D I
▁car s.
▁chang ed.
▁vo iced
ен и
▁rest rain
▁50 %
▁Op ening
▁interpret ation
▁S ection
▁Loc ated
▁reports ,
▁Form ula
▁mother -of
wordpress.org/ ?v=
▁loyal ty
▁3 60
▁t une
T rump
▁Jack ie
▁conven ience
▁mass acre
е с
▁free zing
▁connect ing
▁part ies,
▁pack aging
▁no ,
p iece
▁b ones
▁Gors uch
▁detail s.
▁buy er
ers hip
ri x
▁sur re
▁super vision
▁W ant
▁marri age.
▁Camb od
▁cost ly
▁h urd
▁conf ess
▁occ urs
▁1 .1
▁O z
▁Pri or
el. :
▁announc es
▁ch ick
▁Volks w
▁sn ake
▁se e.
▁unbeat en
ect ives
▁vot ers,
▁Fr ances
▁in eff
▁Andre a
▁Hernand ez
▁Arch ive
▁pizz a
▁Man uel
amp ed
▁Jo el
▁negoti ated
▁an al
▁j ets
▁P ir
-G eneral
▁Tomm y
▁prep ares
▁Therefore ,
▁w icket
▁We bs
▁20 %
▁t in
ons ist
▁hotel .
ar ies,
▁gam bling
▁EU 's
ache s,
▁C R
▁Gabri el
iv ic
i ad
F S
▁ch asing
▁Georg ian
▁popul ations
▁S ale
▁p iv
▁An a
re ated
▁resp ects
▁concent rate
-e ff
erer s
▁ware house
▁H appy
▁pr icing
▁'T hat
▁disclos ure
▁lif e,"
▁US B
▁direct ions
▁al beit
▁Int erest
▁"Wh ile
▁Medic are
▁h ob
▁22 -year-old
▁Norm an
▁Investig ators
.... ...
▁Har per
▁ident ical
p ot
▁lot .
▁assess ed
C .,
▁(1 9
▁inv asion
▁"N ot
0 .
▁hum ili
▁"t here
▁Previous 1
▁P rest
▁form ing
▁mult ip
▁boot s
▁f itting
▁ne ed.
writ er
▁O .
▁appro v
▁board ing
▁Play ers
▁Enterpr ise
▁swe ep
▁'I n
▁discl osed
bleacher report
▁Qual ity
▁g ru
▁J ak
▁Snap chat
▁clear .
▁Par ad
▁Social ist
▁m aj
▁accident ally
▁pat ron
:::: ::::
▁Tour ism
▁Sing le
/f eed/
▁G av
▁agenc y,
▁D ra
▁20 -year-old
▁belie ving
s or
▁Vis it
▁firm ,
▁Hill ,
▁j okes
▁div isions
▁B it
/1 4
▁Tay l
▁ingred ient
at ics
▁far ms
▁Paris .
▁J ama
▁Inn ov
▁src ="
▁sub way
▁l ounge
▁pur ple
▁happen ed,
▁popul ist
▁R oc
▁lay ing
▁fe et.
▁victim s.
▁Italy 's
N ew
▁oil ,
▁Nad al
▁comment ed
▁referendum .
ag ged
▁photograph y
keep ing
▁tw ins
v or
▁shout ing
▁Organ isation
▁1990 s
▁train ing,
▁198 9
▁sle e
▁m aid
▁pre view
▁200 5.
▁here :
C om
▁t out
iff e
▁appl aud
▁par amed
▁disp ut
▁Melbourne 's
▁agg rav
▁23 -year-old
▁P ok
▁upload ed
- Z
▁y oga
▁sl ot
▁To o
▁sup reme
▁Stud y
▁drug s,
▁r ated
▁production .
5 1
▁election s,
▁Mart ine
C h
▁bre w
▁academ y
▁min eral
▁Ne ed
row th
-m atch
▁special ized
▁response .
▁fol ks
u h
r ite
▁direction .
on el
▁Am anda
▁h ometown
▁disp utes
▁ ра
▁deploy ment
▁high ,
▁M idd
-l ink
▁need s.
▁Plan et
▁As ia,
▁aff ection
▁L ower
▁p ants
ste in,
est ab
▁ ч
▁£ 6
▁Hung arian
t or
▁post ,
▁response ,
▁program ming
▁z o
▁Cr icket
▁cig arett
▁sk illed
▁Matt is
▁pron ounced
se ,
▁don ’t
▁ball .
▁dise as
▁Act or
▁3 5,
▁M EP
▁30 .
▁important ,
▁'W hat
-2 9
op t
port ant
▁prepar ations
l er's
▁break .
' A
▁bank 's
▁he ct
▁Year s
▁J et
▁cas ino
▁model ,
▁t ends
▁ins ide.
▁Com ment
▁School ,
▁three -year
▁that ?
▁ask ed.
▁research .
▁4 ,000
▁fin e.
od a
▁test ified
▁st ew
▁B ody
▁Circ uit
em pt
her ,
▁b os
▁Ab raham
▁Res ources
▁condition ing
▁Cypr us
▁C our
ograph ical
▁coach ,
▁lik elihood
▁oper ation.
▁fl ames
▁cont amin
▁C A
▁man ages
▁dest inations
▁w and
▁qu ake
ange red
▁financ ially
▁p aired
▁Che m
▁Lyn ch
▁corpor ations
▁anim ated
▁w oke
▁h int
▁we ars
pl an
k o,
± Ð
en ary
▁D ennis
▁rum ours
▁Virgin ia,
ig u
▁A I
▁imp osing
▁Post s:
▁fin est
▁Afghan istan,
om i
nest rov
▁perman ently
▁d airy
▁pl ag
ile ,
▁O wn
▁Al v
▁inf amous
▁Aust ri
▁#1 8
▁read s
▁Agricult ure
▁convers ion
▁Bank s
▁minor ities
ult an
▁chur ches
▁sung lass
▁bub ble
▁sc are
▁husband 's
▁part ies.
enn y
▁ide a.
▁Prem iership
▁Djok ovic
▁Resc ue
▁new est
▁An alyst
▁luxur ious
▁Pre vention
▁UC LA
▁three -
▁liter ary
▁Pakistan i
os it
▁G mb
м а
▁Str ateg
qu est
▁+ 25
▁rev ol
▁d ip
▁Mag ic
▁M C
.0 6.
▁al umin
▁magn itude
▁Stockhol m
▁clas s.
▁Class ic
il ia
st op
▁he al
▁Be yond
▁agenc y.
▁outcom es
ac ity
▁know led
▁war ms
▁at roc
▁overs ight
▁H ib
/ http://
▁S QL
▁car ing
▁main land
▁discip line
▁enab ling
▁P ad
-b l
om ,
▁Emp ire
c ons
▁T rip
▁pedest rian
j e
▁T ip
▁c ott
▁confir ming
▁br ush
▁cap ability
▁Mac ed
▁insurer s
5 4
▁clear ,
▁Beach ,
▁Tyl er
▁br un
c op
▁book .
▁pract ice.
▁wrong ,
▁CNN .
▁su ited
▁inc on
bs p
▁App lic
▁Delt a
▁D ort
▁23 .
▁out -of
▁surger y.
▁construct ive
▁don or
▁( US
▁N in
▁all -time
us k
▁ab norm
▁sk ull
▁sty le.
▁Resident s
▁fl ows
▁t ender
▁o re
▁rad i
▁pen et
▁max im
▁Part icip
▁ent ities
▁mer ger
▁nurs es
th ink
▁ins ert
▁e ag
▁weigh ing
▁Beyon ce
▁off end
▁rub b
T ype
▁sp raw
▁Ass istant
g t
P G
▁SU V
au er
m a,
▁His pan
▁W iki
▁am en
▁basis .
▁Mont g
▁L iz
▁strateg ist
ener ation
S S
▁overlook ing
▁below .
▁dec lining
▁match ,
▁П о
▁Calif .
/ b
▁M ission
▁Mich ig
▁sharehold er
▁pow der
▁п ро
▁L ag
▁G ir
▁Tele vision
▁reason ,
▁Mic he
▁disturb ing
▁V AT
▁agre es
iz ation.
▁up s
▁organiz ers
▁C ob
▁your s
ank ing
▁sovere ign
▁shif ting
▁th umb
▁internation ally
▁M oss
▁tim et
▁"S ome
▁spir its
▁Univers al
▁Glo be
▁s ang
▁d ash
rac ts
▁occas ional
å í
▁N eg
▁unh appy
▁" all
▁ Б
▁Lou ise
▁ }
▁$ 9
▁bo y,
.com ,
c ard
▁Jeff rey
▁embarrass ing
▁A K
▁equip ment,
o Ð
▁committ ees
▁sur g
▁Br andon
lim ited
▁vacc ine
▁Vancou ver
▁d rown
▁dif f
▁sl a
▁wound s
▁th under
▁v ic
▁Ir ma
▁purs ued
▁attitud es
▁Stef an
▁un aware
▁K ris
▁since .
▁pup il
▁Insp ector
▁e ve
▁contem pl
▁import ed
▁hor rif
▁Carol ine
▁m ate
it es.
▁pl um
▁design ers
"} ,"
▁main tains
▁Budd h
arb ayev
ah .
▁stick ing
▁En joy
d iction
▁cost s,
▁comp osed
▁thorough ly
▁was hed
▁50 ,000
▁sing les
▁miss ions
▁je opard
▁ab ilities
▁cont end
▁Act ress
▁25 .
▁http:// s
▁Ju vent
▁f iction
▁Oliv ia
onym ous
▁myself .
▁St rip
l is
if ferent
ip ment
▁at e
▁Pr id
б о
▁should ers
▁O' C
▁out ,"
▁network .
▁shif ted
▁undert aken
ian ces
▁dec ides
▁set .
st ring
▁b ay
▁disast rous
▁comp elling
▁ens ures
▁Fl ight
▁utter ly
▁o ce
▁http://www.g stadt.
arg est
▁do ing.
▁Reg ard
▁Ur ban
ill o
▁world ,"
▁elabor ate
▁President 's
▁Luxemb ourg
f ish
▁sport .
ong ,
▁http://www.gstadt. de/
k z
▁don ation
▁Re form
▁S ite
▁ey es,
▁vac u
il es.
▁bec ause,
▁challeng e.
▁ad verse
▁haz ard
▁All -S
▁den ial
▁Mag az
▁acc ent
▁bas ement
▁s ore
w ill
." s
ounc ing
▁Stand ing
▁legit im
▁Direct ors
▁Croat ia
▁d iving
▁free ze
▁Wat ford
▁j oked
▁Oak land
▁E D
▁Phill ips
▁hand ing
▁Mexic o.
é e
i )
▁friend .
▁Th rones
▁W a
▁d rones
▁conflic t.
▁emp ower
shire ,
▁dim ension
▁c ri
▁routine ly
▁P ink
▁d awn
▁Pro duction
▁sp ite
▁Car r
air ,
▁C ou
ne ys
▁attack ers
▁cred ited
▁revel ations
▁An im
▁Ter min
▁unp redict
▁E le
▁ind ul
▁Val enc
ir able
▁Acc ount
-m et
▁Ronald o
▁de leted
▁glass es
ol ine
▁W i
reg ular
▁t ipped
▁c ats
▁f li
▁( as
▁look .
▁Tas man
▁bipart isan
▁count ing
▁Cl aud
▁D eal
▁claim s.
▁anx ious
▁all -
▁else ,
B )
▁a u
▁sm iling
▁Dort mund
▁taxpay er
▁d uck
▁inf ring
▁just ified
▁W itness
v ised
▁sla very
▁Wars aw
h ard
▁stud ios
▁"A l
▁Rep orts
▁Ba iley
▁B rew
с е
▁se aled
▁( http://
▁air ,
ell ar
▁V el
▁train ing.
▁" "
ul ates
▁perform s
▁param eters
▁d oping
▁med ian
index .......
▁http://www.gstadt.de/ index.......
r ine
▁Wal ter
▁simultane ously
▁Day s
-and -
▁currenc ies
▁prohib ited
▁b ed,
▁comm itting
▁T all
▁hotel ,
W W
▁p el
▁offic ers,
▁Cop y
yc l
▁f its
▁im min
ol ,
▁Str ategy
▁spec ify
▁(inc luding
▁pure ly
▁sub tle
au ke
▁coordin ated
▁we aker
▁27 -year-old
▁sacrif ice
▁respond ents
f .
▁un believ
r ack
▁organ ize
▁O S
▁3 1.
▁S ally
▁Ly on
▁Lope z
▁Bes ides
▁A w
▁protect ions
▁17 -year-old
E U
▁K em
▁hour ,
is play
▁pe ers
▁dr ain
▁financ es
▁m ature
▁Stan ford
▁kill s
▁Tamp a
ag e,"
▁Iraq .
▁d ur
▁N A
-b illion
▁21 -year-old
п о
▁d ug
▁ide ological
ass ad
▁(1 99
ac ific
▁read .
▁cur ious
▁US $
a :
▁mov ie,
▁rep lied
▁withd rawn
▁ad min
▁shot .
▁bi as
▁Kit chen
▁nothing .
▁r ans
▁10 -year
▁wat ches
▁ey eb
▁wall .
▁transport ed
i ov
T ,
▁K any
▁mount ed
▁year ,"
▁E y
▁trans f
▁negoti ation
▁m ast
▁C it
▁exchang es
▁purch asing
▁Ap artment
▁light .
▁Br umb
ar a,
▁it ’s
▁pip el
▁expect ation
ple x
▁Island ,
▁ //
▁res id
▁expect ed.
▁m ud
▁n ost
▁Cup ,
▁log o
▁rehab ilitation
▁rapp er
for ward
▁interf ace
5 9
▁l ing
▁med ieval
▁f ring
▁un sp
▁boost ed
▁Garc ia
▁den ying
▁Pl us
▁bro ker
▁val ley
▁E cu
▁will ,
-th reat
▁U g
▁Joy ce
ad h
▁consequ ence
▁n ude
ons ense
▁gr im
▁w al
▁Ver mont
▁b ed.
▁" [
▁" al
▁applic able
▁star ter
▁N B
▁draft ed
▁incent ive
▁s outheast
▁attract ing
▁S lam
▁subm ission
▁i OS
re .
▁ve to
▁sw all
▁Ext ra
▁Gmb H
▁priv at
▁cl ause
ft y
▁tr ue,
▁Ang els
▁stat us,
▁manufact ure
▁Dund ee
let ,
▁polic ies.
▁( 4)
▁Comp uter
▁vol umes
▁Sh op
st ick
▁Gu ine
▁insp ir
▁Prem ium
▁Brazil ,
▁disc our
▁correct ly
▁motiv ation
▁(right )
▁B alk
-w ide
▁pap er,
l osed
▁qu een
▁play ground
▁campaign ers
ount ered
▁comple ment
▁quar ters
▁f ancy
▁far mer
▁short ,
▁se am
▁sh aking
e em
▁large -scale
ec ial
▁24 .
▁14 th
▁further .
▁Leban on
as ia
▁function al
▁react ed
▁Bud apest
▁Mel ania
▁dom ain
-s et
▁success ,
▁3 -1
▁transl ated
▁elsewhere .
▁g one.
▁G em
▁lead ers.
▁m og
▁V ic
▁Sebast ian
▁clear ing
▁document ed
st ep
▁co -star
▁Kenn y
▁settle ments
ast ing
▁Ill inois
▁wh ite,
▁run ners
▁budget .
▁happ ily
▁York 's
▁play -off
▁Sp a
i otic
ust ain
▁enc ountered
▁M A
▁Y ester
- play
▁Mar ie
rat ic
in ces
P D
▁re op
▁Bet ter
▁Cop enh
in is
m ons
▁dr illing
od ing
▁initi ated
▁football ,
▁b inding
▁confir ms
l orid
ag ers
▁Israel .
▁monit ored
u ke
▁Z ucker
▁Stat istics
▁abus e.
▁surprising ly
▁grand children
▁suprem ac
▁restruct uring
▁M um
é ,
▁Ind ians
▁Uk ip
▁S ug
▁ за
C olor
▁sovereignt y
▁p oured
▁28 -year-old
lo ve
▁dem ographic
▁b ite
▁daughter .
▁character istic
▁d up
▁L if
er ie
▁caf e
au .
▁You 've
▁se eds
▁bas e.
in s.
▁it :
▁win es
▁Stadium .
▁earli est
▁spec ially
▁2017 :
▁audience .
▁frequ ency
▁mans ion
▁d é
▁Sc iences
H A
▁R ab
government al
▁sl ogan
▁Bos n
▁mem o
il ation
▁supposed ly
▁Est ate
▁B h
▁caption ed
▁Yanke es
P ,
▁is :
▁Play er
▁3 rd
▁neg lig
▁Vatic an
▁tweet ed:
▁butt ons
▁OSC E
▁C ork
iss ance
▁“ S
▁tur mo
in son
▁T u
▁Techn ologies
▁Prid nestrov
▁tw ist
▁speed s
▁Ham burg
▁strict ly
▁isol ation
▁ind irect
▁inaug uration
▁buff et
▁Cong ress.
▁purch ases
C ount
▁do ,"
▁TV .
▁park .
▁inhabit ants
▁Syd ney.
ak y
w ell,
▁Eth iop
ll inois
▁Mo z
ob i
д и
-2 8
▁in ch
▁bl end
▁traff ick
▁thr illed
▁assist ed
▁bound aries
▁Reg ulation
▁detect ives
▁M ey
▁Te en
▁N ep
▁experim ental
▁M I
▁ad vers
▁hung er
▁Abd ul
▁1 /2
▁#1 9
▁concern s.
▁echo ed
▁furn ished
▁c ure
pt ions
cont ent
fl ash
▁val ue.
ж и
▁OP EC
▁M es
▁s izes
▁ever ,
▁Ltd .
▁he m
▁str anded
▁success or
ce pts
▁Wiki Le
к у
▁la und
▁c er
room s
▁b ands
▁clar ity
c ase
he lp
▁juris diction
▁h ockey
▁ch ains
▁Der by
▁19 2
▁res orts
▁R ac
▁ro le,
2. 5
▁pan or
res .
▁Liber ty
E SC
▁Victor ia's
kin s,
▁semin ar
▁Moscow .
▁cities .
▁projects ,
▁call .
▁something .
▁e g
▁indic ating
▁B our
▁Wind :
3 :00
▁sal ad
ern ess
▁prem ises
▁Br ig
▁behind .
▁Jr .,
sc reen
▁emphas ized
▁Al tern
▁£ 1,
B R
▁ens ured
▁contest ed
ar 's
▁pool ,
▁Rom a
▁Mon te
ll a
▁manufact ured
▁1960 s
▁sw ord
-h anded
▁Cons ult
it ects
▁pr ison,
▁poor ly
▁cook ed
▁Compan ies
те ль
▁T ell
▁popul ation,
▁str anger
int erest
p lic
▁Lithuan ia
iet y.
201 6
-f ive
▁oblig ed
▁heart ,
▁fat ally
il is
▁Oper ation
▁cogn itive
▁Far age
▁Notting ham
▁pract ice,
ript ions
os lav
▁cr ushed
▁chang es,
▁Techn ical
uff ed
▁demonstr ations
▁Leon ard
-m inded
▁D ust
▁stret ched
▁A j
uc ed
▁un chang
▁Cambr id
▁under going
▁anti-S emit
▁end orse
▁rating s.
▁se iz
▁At let
▁poore st
▁D ear
et e
▁# 20
-2 7
▁dump ed
▁are na
▁pre ference
▁book s,
amb ers
▁breat he
▁pow ered
rie ve
▁rall ies
▁h ills
▁Law y
us iness
ier ra
▁Brazil 's
▁eru pted
▁P or
▁W ik
llinois )
▁p age,
▁pal ace
▁no .
▁Bron cos
0 2.
▁thre e,
▁co- oper
▁you ,"
▁sec rets
T R
▁r ides
▁end eav
▁C row
▁3 3,
ar ies.
▁langu age.
▁crowd .
▁Car son
▁har bour
as m
▁Mon aco
▁amb itions
▁Luc y
▁le av
▁(I llinois)
▁Girl s
▁H D
▁Mel issa
o :
▁threat .
▁react ions
▁don ate
▁young ,
▁var ied
▁patient s.
p ired
▁great .
▁desc end
▁prov es
▁Re ed
-pro fit
▁real ity.
▁Mad ison
▁Ali y
▁umb rell
▁distinct ive
▁NH L
f ires
-f our
▁Louis iana
▁East ,
▁A er
a 5
▁stat istic
▁ch ancellor
▁Thom son
im es,
▁every one.
▁grow s
▁ball oon
▁cal ories
▁g iants
▁rest oration
▁bord er,
▁up ,"
▁exam ining
▁rid ers
д е
▁b ounce
▁spac ecraft
▁happ y.
▁inevit ably
▁Auss ie
▁Putin 's
▁ther mal
O U
▁al ive.
roll ing
▁dep ict
▁competition ,
▁O'Ne ill
it ative
ble m
▁Citiz ens
▁H ack
▁sol ic
▁port al
▁commod ity
ne ft
▁crim e,
▁low -c
ul u
▁country ,"
▁blank et
▁inher it
▁ug ly
▁$ 40
▁instruct ed
▁comp act
▁obst acles
▁ne o
f eed
ны е
_ url":"
w as
▁under went
▁inaug ur
▁p ic
pp ling
▁( #
▁pain .
▁Indones ian
▁Ne igh
▁Kazakhstan .
▁groc ery
it ivity
/ N
▁lobb ying
▁V as
▁sur pass
rig er
at ri
▁D A
▁not ified
▁R al
▁0 ,
▁soon er
▁rent ed
▁extrem ists
▁st akes
▁Sh in
b art
▁g y
▁ vel
▁inform al
▁und ocumented
▁Corbyn 's
▁L uck
▁le mon
▁Ber ry
▁prec ision
oc us
E X
▁( X
▁la wn
ist ically
D LL
▁mo ist
▁candid ate,
▁fulf il
▁" for
▁consum ed
▁29 -year-old
▁Hod g
azakh stan
▁30 ,000
▁incent ives
▁bus h
▁sh ad
▁S W
▁Ont ario
▁to ys
m n
▁emb ro
▁terrif ying
▁rate .
▁street ,
▁st unt
able "
▁mar vel
▁McCarth y
▁offic ers.
▁subsid iary
▁aver age,
▁kick s
▁Ch ad
irst y
ad o,
▁obes ity
▁provinc ial
▁Fergus on
▁mag ical
.0 9.
-h ost
▁word s.
▁deput ies
▁l amb
▁privile ge
M C
▁B irth
▁sn ack
▁Serb ia
▁lack ing
aret te
▁separ ation
▁B ott
▁( +
▁f ixt
▁me g
▁Google 's
▁H il
▁Le igh
- ne
u ation
▁P oker
▁l ion
▁Ped ro
el ly
▁200 3,
м и
▁presc ribed
ignific ant
▁million )
▁rock ed
▁L uther
▁2016 :
▁hear ings
▁disch arg
▁v intage
▁bar red
▁sp ill
▁second s,
qu ality
▁bathroom s
▁Equ ipment
▁Mar vel
▁re duces
▁anti -d
▁po ised
в ет
▁business es.
▁In it
▁fl ip
▁force ,
▁Jun ior
▁pre -season
▁fe ud
▁issu ing
-sp eed
▁Tw in
▁occup ation
▁colon ial
ot ing
▁matter ,
▁Act iv
▁C ut
▁destro ying
▁labor atory
▁pract ically
▁communities .
▁l amp
▁thr ill
▁Pow ell
▁F ish
▁Bry ant
▁15 -year-old
▁Pet e
▁Moham ed
▁Pier re
ir med
▁ski ing
▁mon uments
▁ref res
▁hard .
▁form ,
▁broad band
▁prosper ity
▁h ind
▁F TS
▁bl unt
▁them es
▁Sch umer
▁1, 500
▁Wild life
ace y
▁President ,
▁M ik
▁+ 23
▁Andrew s
es '
▁C hen
▁Jan et
▁M oy
▁P in
ai .
.0 7.
▁Tro jan
▁fun .
▁p ork
▁hasht ag
ak u
t ru
▁Sh ah
▁H ur
▁pray ers
OND ON
▁iP od
in ational
▁Ð¿ Ð
▁C ad
-p oin
▁Work ers
▁rate ,
▁suff ers
▁apolog ised
▁nav al
▁surge on
▁N eb
▁sanct uary
▁Florid a.
▁trou bles
▁frag ile
▁ign or
▁St op
az i
▁renov ated
▁M L
▁Mir ror
▁M ead
yn a
- TV
▁Rodrig uez
▁Ðo Ð3⁄4Ð
▁n est
▁stere otyp
▁shif ts
▁exclud ed
▁Dise ase
▁met eor
▁char ities
▁robber y
▁trad e.
pr ising
.0 5.
▁home own
▁b io
▁link ing
ium .
▁character ,
▁30 -year-old
-c ons
▁difficult .
▁sac red
▁Pri x
▁v ag
▁reli ability
▁Invest ors
e )
▁pr iced
f ace
m id
▁loc ally
▁expend iture
▁L ives
▁time ly
▁brun ette
▁d well
▁associ ations
▁Cl ose
▁Ind ia.
▁200 4.
▁never the
ov ing
▁jud ged
ig o
▁benef ited
▁decre ased
ri ber
up s
▁test .
-pl us
▁j am
▁O' Re
▁access ories
's .
rop ortion
▁"w ill
▁disag ree
T 0
▁S ent
▁st int
▁K ash
▁dict ators
▁histor ian
▁Democrat s,
▁Pu ig
▁An imal
▁restaurant ,
▁yester day.
▁Ind eed
▁fre ed
-up .
▁option s.
▁crash .
▁restaurants ,
▁mad e,
▁3 4,
▁territ ories
▁difference .
▁R ory
on est
▁det ective
▁sent im
▁joint ly
▁. .
▁Me gan
▁sa ves
▁Fl ash
▁Co ff
▁mult i-
▁only .
▁ri vers
▁f lick
un ge
▁comp assion
ros h
▁reb ell
▁ex agger
r ary
ic les
▁dest in
▁after wards
iar ies
▁ref uses
▁bat ting
as a
f unction
▁explo itation
▁Hall ,
▁P AC
▁throw s
▁vis as
▁p ries
▁per former
▁Canad a.
▁flu id
▁b ans
ht m
▁from .
▁bully ing
▁P le
▁comp iled
▁lo vers
▁cul min
▁be ings
▁show s.
▁clas s,
▁t ut
▁G or
▁P GA
T ER
▁f ixture
omet hing
cher ,
▁+29 °C
oot ing
▁travel ers
-2 6
▁a uster
▁/gallery /
▁energ y.
▁d iox
▁rec ession
▁recomm ends
▁"W hy
▁"th at
▁in acc
▁ha bits
▁cert ified
▁Det ective
▁c attle
ou g
▁Im ag
ner .
ning ,
▁A &
▁Nic olas
▁Later ,
▁pressure ,
▁convinc ing
▁educ ated
▁American s,
agg ering
▁Y ar
▁kid s.
▁Bob by
k i,
ett ,
▁clar ify
▁FTS E
▁care ers
▁school 's
▁eas iest
▁w ife.
-th an
▁pressure .
▁" you
▁ar range
▁account ed
▁when ,
d ed
▁mosqu ito
▁fall .
▁compar able
▁B uch
pp le
est ine
▁part .
▁manifest o
-th ree
▁s our
▁contract .
▁He zb
▁West ,
asc ular
▁hero in
▁releas ed.
▁caut ious
▁seen .
▁50 ,
▁Bald win
▁injur ies,
G C
▁Brit ons
▁myself ,
▁cl utch
▁McI l
▁mort g
▁reason s,
/ D
▁action s.
▁tong ue
▁event ual
▁lim iting
▁toler ance
▁R iy
pro of
▁ch ol
▁un se
▁Sh ield
ock et
▁need ing
▁reflect ing
▁cred ential
▁ch ant
▁200 1,
▁inj ust
-sc reen
▁I ,
▁aer ial
▁P ip
-on ly
▁Mississipp i
▁Lind a
▁'B ut
on te
▁M ikh
▁Hit ler
B ,
▁fat ig
▁law s,
▁court esy
▁super mark
▁here 's
▁Pr ison
▁c ra
▁order ing
ar ts
ot he
ang ,
re ach
▁Bry an
▁Intern al
▁T ib
▁n ud
▁cost ing
aint iff
▁Isa ac
▁Brumb ies
▁se a.
Y .
▁g ene
▁qual ities
▁pain ,
▁T iger
▁will .
▁us age
▁19 40
ch ant
▁country side
▁Econom y
▁Obs erv
▁S ulliv
▁B ert
▁cond ol
▁not ed.
▁kid s,
/ v
▁examp le.
▁1 -1
▁D yn
▁inc umb
▁a ven
▁separ ately
▁best ,
▁sear ches
▁M is
▁belong ed
▁reiter ated
▁th irty
▁bre ed
▁boy cott
▁reserv ations
▁Bank ,
▁ven ues
▁sle pt
▁rat es,
▁authorities ,
▁r ings
▁Pl aza
▁vit amin
▁rehe ars
ab a
onn ie
▁accident s
▁e. g.
re ra
▁saf e,
ust ral
▁view s.
▁Melbourn e,
м ен
▁off enders
▁corpor ation
▁Jo han
▁H at
▁business es,
ible .
▁For b
▁qu ad
▁glo be
▁ric hest
▁sal es.
▁Beck ham
▁ha un
lin ,
▁rob ots
▁gri ev
5 2
▁effect ,
▁Niger ia
▁Pan ama
- known
▁fer ry
▁ecl ipse
▁scr atch
l aughter
▁Ch ase
▁shout ed
▁Short ly
▁scholars hip
E x
ed i
▁se e,
▁mar itime
▁Red d
▁rebound s
in i,
▁lay ers
▁Turke y.
▁H els
▁Ar s
▁Ferr ari
▁separ at
▁quant ity
▁confront ation
▁fruit s,
ra pping
er y.
▁s ou
-w hite
▁Part y.
▁symbol ic
▁Cai ro
▁R ace
▁soc ially
▁perm its
▁dis gr
▁ch ips
▁1. 3
w right
v iv
▁ch ore
▁hand s,
aly mp
▁Gl ass
▁p ard
- 2.
▁c m
▁sty le,
▁reven ge
le ton
▁S arg
▁pot ato
▁Japan .
n is
▁cancel ed
▁W TO
▁strong ,
▁visit ,
ym ru
▁re lied
▁int ake
▁accompan ying
▁L ONDON
а р
▁src=" http://
▁gorge ous
os ystem
▁turn out
▁Bre tt
. dll
enn sylvan
▁in ability
ang le
▁campaign ed
▁goal s,
▁F eat
▁read er
▁L az
% ;
▁any way.
▁ju ice
▁N am
▁architect ural
▁S outheast
ast ically
▁survey ed
▁Hud son
b ach
old ,
▁oper ations,
▁Rom ney
▁p act
-c he
A A
▁L och
▁(K ASE
▁Georg ia,
▁demonstr ates
▁viol ating
ow ers
▁0. 2
▁up hold
e a
▁( 20
▁B ie
ot a,
▁Colomb ia
▁ass ure
▁Ind igenous
▁ Г
▁evidence .
▁strengthen ed
S :
e ous
▁j ung
▁K urt
▁ro ster
▁Re y
▁ ic
▁c em
▁V il
▁transl ate
▁Sand y
▁Det ails
▁unn amed
▁ ???
iz ard
ott a
▁optim ism
▁lav ish
▁conf essed
▁neg lect
st airs
▁br ace
▁Ant ar
▁N y
▁D ale
▁B ren
°Ð 1⁄2Ð
▁trib unal
▁G ol
▁n ation,
▁film 's
▁Somet hing
▁Independ ence
▁P arents
▁ins ufficient
▁Bulld ogs
▁+ 26
▁budget s
▁YOR K
▁Act .
im et
▁st abbing
▁К о
▁P att
att led
▁he aling
▁exc urs
▁Trans l
▁R oth
▁ret ained
▁Latv ia
/ 6
N A
▁plung ed
▁level s,
▁Ryan air
▁st alk
▁count ed
▁coordin ator
▁Jane iro
-bre aking
▁(1 6
▁We ight
▁Sheriff 's
▁who ever
201 4
▁subject :
ugg ing
▁rem embers
-201 6,
ant on
▁Medic ine
▁l as
▁26 .
w auke
▁t abled
▁bo o
th orn
▁do or,
▁dem ocrat
N C
▁trans c
N G
▁Z ur
▁foreign ers
▁Finn ish
▁stead ily
▁what so
▁Gib son
▁quarter ly
▁live .
ir s
▁"U n
▁Car rie
▁Instagram ,
▁proceed s
▁flag ship
▁R iv
▁airport .
om o
▁J ob
▁Person al
▁kitchen ,
f eld
▁opin ion,
▁d ose
▁F em
▁tariff s
▁Celebr ity
▁prem iership
▁Neverthe less,
▁L arge
▁test ,
▁st ones
▁201 9.
▁cry stal
▁unw anted
▁rall ied
▁Webs ite
▁Ph arm
.0 8.
▁Cle an
▁S hen
▁shoot ings
AN D
▁Jess e
▁letter ,
▁b ann
▁substant ially
▁good by
▁prior it
▁explicit ly
▁surv iving
">< img
▁"J ust
▁symp ath
▁travel s
▁faith ful
▁airstrik es
▁He b
▁East .
▁40 ,
▁fe ver
-s ize
▁Bes ides,
▁H i
▁gam ing
▁Me h
▁hard ,
ident ified
ues ts
▁3 6,
ph an
ron gh
▁accur acy
▁p iano
ir i
▁Johnson 's
▁All-S tar
▁document ation
i ens
▁persist ent
▁Kens ington
▁interact ive
▁terror ism.
reg ation
▁Ber ke
▁demonst rators
▁N ey
▁pres erved
duct ive
▁st ip
▁mass age
▁straight forward
ound ed
▁fail ures
▁vibr ant
▁A qu
▁re -election
▁tournament .
▁Ret urn
▁marri age,
▁Sav ed
▁analys is,
▁domin ate
▁pit ched
▁prison er
sh aw
▁comment ary
▁st iff
▁N CA
▁look ,
▁plan s,
▁ab rupt
▁nut ri
▁nort heast
▁cont ing
▁Californ ia's
▁Tr aining
▁Transport ation
▁referendum ,
▁W es
▁head qu
▁tem p
▁D ad
m aking
▁sign atures
▁account able
es ign
▁R an
▁all erg
-f inals
▁O' D
▁B elt
▁Griff in
it ches
▁eleph ant
▁n ep
▁2000 ,
▁Sam anth
▁S amp
▁sl ower
▁Con way
▁» »
▁sold i
▁narrow ly
▁Arm strong
▁sa iling
▁trip .
m aid
▁slow ing
▁however .
▁deport ation
re z
▁numb ers.
lin es.
▁infect ions
▁portray ed
I s
▁inaug ural
▁lack ed
▁young sters
▁Belar us,
▁creat ures
▁g ast
▁und erest
▁athlet ic
▁Sof ia
▁second .
▁Program me
▁misle ading
▁c ute
▁G amb
▁p ale
▁custom ers,
▁encour ages
▁depos its
▁N ar
▁part isan
▁set ,
▁(P ennsylvan
▁agend a.
p y
▁b aking
▁Hallow een
. g
n ow
▁Mont real
▁mult inational
▁Cav al
▁ed ited
▁Ireland 's
▁Tra vis
▁Lav rov
▁sc rew
▁ord eal
▁approach .
▁Through out
▁def ect
▁Ank ara
▁Department ,
▁out right
duct ions
ID EO
▁New ton
i ed,
▁P un
▁team s.
▁mole c
▁south west
▁(Pennsylvan ia)
en ko
▁round ,
▁S ource
▁O t
▁sex y
▁sc attered
▁War .
▁creat ure
▁d ense
▁Prosecut or
▁cl own
▁catastrop hic
▁E ld
▁dement ia
▁Add ition
▁d uration
▁art ,
▁sched u
▁creat or
▁budget ary
▁hyp oc
▁sc ary
▁trad ers
▁St okes
▁stop p
▁intent ions
▁back pack
▁Post .
▁murd er,
▁H off
▁+ 27
▁Te acher
▁Eur asian
▁S ure
▁M ob
▁As k
mun ition
ст и
▁s ized
▁Span i
▁U. K.
▁Muham mad
▁work s,
▁vict ory,
▁C ron
▁en gin
▁Sh adow
▁sent encing
▁propos ing
op ed
▁Analyst s
▁stop .
▁photos ,
▁Dmit ry
▁ha ird
ia z
▁$ 4.
▁four -year
▁H ilton
▁Me ghan
▁l au
▁showc ase
F O
▁N uclear
▁Par alymp
he tt
▁A x
▁A lic
▁Raf ael
d in
▁Mag istrates
▁Ital y.
ound ing
▁0. 3
▁M ae
▁inter rog
▁Midd les
ul ative
▁p ec
/ E
▁v iable
▁well ,"
▁Hann ah
▁Wemble y
▁sac rific
is le
▁reg istry
▁region 's
▁dist inction
▁kill ed,
▁compet ent
▁Direct ive
▁phot o.
▁langu age,
▁Buck ingham
▁IM F
▁bank s,
▁slow ed
h u
in ate
us lim
lin es,
reg n
▁chance .
-te am
▁Catal onia
▁l ane
▁mog ul
-s aving
▁hom osexual
▁J as
▁symp athy
▁Sus sex
▁Cli ppers
▁Alask a
▁Cowboy s
▁B og
▁K ids
▁Rob bie
▁half way
▁incom es
▁Bah rain
-l argest
▁Air bn
▁assum ption
um mer
▁4 th
▁Kany e
▁elimin ated
op ol
▁unp opular
▁b und
▁t enge
▁L amb
▁Chief s
▁hel m
v es,
c at
▁exp ose
uff le
▁anonym ity
id y
▁aston ishing
d s
▁R ousse
▁( http://www.
▁proc ure
▁tr ap
▁Jun g
▁museum s
▁E asy
▁as h
▁any way
▁M ull
▁coun s
ac erb
▁cohes ion
▁R id
▁autom ated
▁inc onsist
▁re ef
up load
▁r ack
▁discip linary
▁"D o
▁elect orate
▁obs ervation
▁anch or
▁happen ,
▁ball ,
omin ated
▁t an
▁det on
▁re lying
▁al -S
▁hung ry
iz on
er ver
.0 3.
st ead
▁condition ,
▁camer a.
▁Ell en
▁F ly
r us
▁Rog ers
erv ice
▁bl essed
▁term s,
ur ring
▁O cc
▁In v
▁public ity
lic ted
▁econom ically
-sh aring
/ flash
ing. com
▁weapon s.
▁sequ ence
- arm
▁t ire
▁b its
▁broad ly
er k
▁Naz arbayev
A O
ic ular
▁st rongh
▁B od
▁season al
▁ec osystem
a qu
▁K ill
▁f ren
▁ind efin
▁apolog ise
▁elev ated
▁team mate
▁Alex is
▁tend ency
▁C orey
▁Inc re
▁Mil wauke
▁F ram
▁Fire f
ни ц
▁gest ure
▁w ary
▁Y et,
▁acc use
▁Ret ail
▁l ens
▁Up on
▁(F lorid
▁Cincinn ati
-d ri
▁p ir
▁hon ored
▁vehic le.
▁report ed,
▁out sp
▁# 21
▁£ 7
on e,"
▁less er
▁Ge elong
b ek
▁ev olved
▁Name :
▁real ity,
▁Can nes
▁Cor ps
▁art .
▁1. 4
▁"w as
▁enthusi astic
▁lin es.
▁Tes co
- so
H .
ub b
▁b unk
▁spot .
▁Mos es
▁00 :00
▁' un
▁Har bour
▁certain ty
▁prox im
▁t s
▁rel ies
▁pil grim
▁Col lection
▁musc les
▁forest s
▁fract ion
▁sp ices
▁nomine es
▁self-d riving
▁Leon ardo
▁plant ed
.0 2.
▁lands l
▁yester day,
▁2 20
▁R hod
▁end angered
▁z one.
▁legisl ation.
▁grand p
▁KZ T
▁off er.
-r ich
▁Christ ine
▁War ,
- al
st en
▁sc al
ros p
▁screen .
▁oper ation,
ad a,
▁Reyn olds
▁l ighter
▁cheap est
▁casual ties
- ray
▁le thal
pr ing
▁( IS
▁ne at
▁something ,
▁adop ting
▁Air ways
▁presid ency.
H ead
▁ind ec
▁gar lic
▁F DA
▁yield s
▁under water
S )
▁anti -c
mer cial
▁Shar on
ber ,
neg oti
▁d ive
▁16 -year-old
▁sum mon
- ex
▁mans laughter
▁S ierra
▁subsc rib
ers ey
▁"w ith
▁disc ret
▁negoti ations.
▁Ter rit
▁Azerbai j
д о
▁" se
▁Sw ans
▁north west
▁ridic ulous
▁???? ??
▁epidem ic
▁Ral ph
в е
▁Elect oral
▁fl owing
or us
▁Ireland .
▁concent rated
/flash -game
▁organiz ing
▁Profess ional
▁P and
▁Ch loe
▁kid ney
▁equip ment.
+0 3:00
▁our selv
▁20 30
▁perform ers
/ T
▁bit .
▁gen es
om on
▁em oj
uk a
▁exist ed
▁se ize
▁Fact or
▁predomin antly
▁C L
▁cancell ation
r ill
▁resol utions
▁F ear
per ial
▁Del hi
▁n asty
▁H R
▁S ide
qu alif
▁shoot ing.
kin son
ст ь
▁(Florid a)
▁C um
▁D uff
▁social ist
▁hospital ity
▁south -east
▁Pant hers
er "
▁J ets
tr ack
▁O h,
▁present ,
▁Sil va
▁end uring
azazazazazazazaz azazazazazazazaz
▁go ing.
▁charg es,
▁territ ory.
▁secret ly
▁height ened
▁B B
▁ex ter
ro be
im ming
ter ror
▁independ ently
zh ou
row se
▁network ,
▁12 5
-d em
▁C out
▁Republic ,
▁A ston
▁top ,
▁out sk
▁ins ider
**** )
▁Ton ight
▁Twitter :
▁Lib yan
th a
▁Mc N
▁Pr ide
▁immediately .
▁Volksw agen
▁bre eding
-d ef
▁ а
▁option .
▁Sol ar
▁A verage
▁activ ity,
▁doub les
▁fl oral
▁Ult imate
ful ly,
▁01 ,
f its
▁trick y
▁Afric a's
▁Prot ect
▁exchang ed
▁lyric s
▁su cc
▁“ We
▁test ify
▁C V
▁Ken ya
▁adj acent
▁victim s,
▁cloud s
▁recip ient
▁fore nsic
▁raid s
▁appet ite
- res
-up ,
▁pen is
qu are
ai res
ка з
/ 30
▁F E
urop ean
▁ ф
▁techn ically
▁revel ation
ou s,"
▁employe es.
▁Ster ling
▁[URL=http:// game3a.com/
▁reveal ed.
▁evalu ate
▁pe pper
▁Gram my
▁in herent
▁ex acerb
▁pun ched
▁ess ay
▁B av
ers :
c uss
▁const itute
▁colour ful
re r
▁benefit s.
▁necessary .
▁manag er.
▁sum s
uten ant
в ать
ur ,
▁G ates
▁Sun ,
▁ear s
▁Man ufact
-fund ed
k ok
▁M ig
▁cont ention
▁hear ing,
▁tank s
al in
▁re per
▁P ool
▁can ,
▁log ic
▁agree ing
▁hero es
f ,
▁cry pt
▁T ab
▁compl aining
n =
▁clos e.
▁Em my
▁Hels ink
▁2 )
-t ech
▁open .
▁sal mon
▁Ah mad
▁m l
▁eas y.
▁Republican s,
S h
▁l ump
▁American s.
▁sal aries
▁cous in
j u
▁res ett
▁ban ner
▁tr am
▁cent er.
▁gradu ates
g ence
▁G ate
▁Natal ie
▁G uests
▁Smith 's
field .
▁M ets
av an
▁Go ing
▁employe es,
▁con gest
▁problem atic
/1 8
▁hair ,
▁UN ESC
▁spons ored
▁recip es
mans hip
@@@@ @@@@
▁v ague
▁arch ive
▁"A n
▁d azz
▁hom eland
▁reck less
▁G round
▁Str ong
▁plac es.
▁borrow ing
▁T ak
▁abus ive
▁trop h
▁c av
art ,
▁fight ,
a ic
▁"I s
▁touchdown s
▁F ame
▁indic ators
r int
▁character .
▁numb ers,
▁6 .5
▁show s,
▁Re ading
▁interest s.
▁account ability
ro ke
ro ots
▁driver 's
▁URL :
▁V it
n ie
▁y acht
▁J ill
▁Air bus
▁Cur ry
t w
▁Sp eed
▁met ab
▁cost ume
▁Ð 1⁄4Ð
▁track ed
▁sens ational
▁pap er.
▁protest ing
▁Nav al
▁£ 8
▁swift ly
▁ref urb
-B rexit
▁Out side
▁apprec i
-he alth
g one
ir ling
▁high s
▁rec ess
▁subsc ription
▁ext ends
-d ollar
▁los s,
▁efforts .
. S.
▁sh ook
▁As ia.
▁sur rog
▁great ,
▁£ 30
▁Wall ace
her ic
▁fin ale
▁counterpar ts
▁blast ed
▁un lock
▁M alk
▁P H
▁Sun ni
▁Arab ia,
▁S ara
&amp; cb
▁beaut ifully
▁" as
▁o x
▁inquir ies
▁Lim ited
▁rub ble
&amp;cb =
▁C olog
▁br ains
▁vehic les.
▁am munition
▁spokesman ,
▁chem istry
▁inst ances
▁femin ist
▁“ B
▁activities ,
os i
▁set back
O O
▁fall ,
▁Atlet ico
▁visit .
▁r ust
▁tr an
▁n it
▁disp roportion
▁P oor
▁phys ician
opp ers
are l
▁Polit ics
▁st ump
▁inter pre
eal ous
▁/gallery/ log
▁tr ash
ag ons
▁back -to
▁small est
▁+ 24
▁lock er
▁concer ts
▁girl .
▁lost .
▁Fam il
▁St akes
▁vacu um
▁mar athon
▁f ron
-m ark
▁K ap
▁evidence ,
▁herself .
▁S ag
ri pts
▁Dian e
▁Ag u
▁p.m. ,
▁fort night
▁figures ,
▁4 .5
▁fortun ate
▁t uition
/ V
▁host el
oche tt
▁W end
▁V IP
▁Engine ering
▁I ’
▁D oc
▁document s,
▁Mikh ail
at hetic
b ably
▁s cept
▁cult ures
/ W
▁sl ave
▁accident .
▁available ,
-ins pired
▁J ol
201 3
▁well be
▁safet y,
.0 4.
▁McG u
▁Juvent us
▁polic ing
head ed
est on
▁Do z
u ated
▁inst inct
we b
▁Bl as
▁More over
▁Ac ross
▁Institut e,
▁Ch i
▁ent ers
▁Ge off
▁£1 00
▁Un s
- air
▁P oly
▁v ivid
ra .
▁Sant i
▁highlight ing
▁mess aging
▁$1 00,000
▁park ,
▁consc ience
our ing
▁He ights
- under
▁t ube
▁log ical
Color Type
ip her
▁super star
▁lab elled
▁C hes
▁St am
▁sl og
/d elivery
▁nost alg
± Ñ
▁W orth
-in ch
▁»» »
ram ent
▁gl oss
▁T ort
▁management ,
ans k
▁log istics
▁way ,"
▁measure ment
- over
▁r age
ab ies
ep ern
▁( 9
▁so fa
▁answ er.
▁Tre vor
▁switch ing
▁pool s
▁Wi- Fi
▁Hous ing
U C
▁̧Ð μ
▁inter medi
iet ies
▁comb ines
▁T rent
▁fl ies
▁O ft
▁Liber als
▁Bl u
▁ten ure
▁catal og
e ats
▁ref riger
az ed
▁imag ination
▁reg ain
▁sense ,
▁Manche ster,
or ical
▁S ig
▁fact ories
▁Case y
www /delivery
-sh aped
▁medic ines
▁surve ys
▁complim ent
▁the oret
▁dis gu
▁O mar
way s,
▁read :
▁"D on't
▁minut e.
▁al read
▁In iti
▁Mess i
▁imm unity
▁Moore ,
с с
ol and
▁R us
▁M ix
ett a
▁everyone 's
▁ign oring
o Ñ
Source: News
▁Ney mar
▁D rew
▁P ochett
▁Box ing
▁fam ed
▁"A fter
▁football er
▁tourn aments
▁work pl
▁murd ers
▁lifest y
▁the ories
▁analy t
▁defin itive
one y,
▁outs ide.
opoul os
▁on es,
</ strong
it ated
ke ys
▁Beaut y
▁J ur
▁fe ather
▁sib lings
v oc
w ait
▁km )
▁L ogan
▁sh oe
▁cool ing
▁K on
▁les b
▁hum ble
▁am ple
▁alleg ation
▁Roll ing
▁box .
▁star .
u rolog
ro od
▁skin .
▁al-A ss
ion a
▁l aughter
▁count ies
▁conf us
▁infl ux
▁S id
▁Mon etary
▁question s,
▁d ess
▁d ough
▁airport ,
ling ton
▁bar ,
▁J ava
▁withd rew
▁wed i
▁tou ches
ur ry
▁act .
▁document s.
▁F a
▁surger y,
s ay
▁h ath
▁1 )
▁You 'll
▁ast h
ah aw
▁sens ation
▁W ag
▁200 ,000
▁gener ating
▁sty les
▁Kos ovo
▁P og
▁crit ically
▁budget ,
- all
▁be am
▁whatso ever
▁inv iting
▁light ning
▁p aed
▁W arm
▁sur plus
▁patient s,
opp y
line ":"
▁She ikh
▁Pric es
▁19 20
▁1. 6
▁term s.
▁r ider
ell s
▁sal es,
.com. ua/
▁l ament
▁High land
▁un ite
▁interven e
▁M az
▁defin ing
▁Mc E
▁television ,
▁big ,
": tru
▁rev ival
▁bar bec
▁Confeder ate
▁N I
▁veget able
▁sp ike
▁camp .
▁Am nesty
▁???? ?
▁Eu ros
z an
/# com
":tru e,"
▁+ 28
▁Arab ic
▁Card inal
▁Bid en
▁[ in
▁hair .
▁Bell a
C O
ner 's
▁Iran .
▁comfort ably
▁S z
▁rev ive
" ),
▁Major ity
▁assault ing
▁K abul
l ady
▁p ills
om ery
▁bol ster
▁Ob viously
▁Som al
▁H udd
▁" so
▁r ug
▁fire arm
▁sec ular
▁Ka epern
-P acific
▁P resent
▁polic ies,
g roup
li est
▁eat en
▁S old
▁age ing
che ck
▁L od
▁God 's
▁An alysis
▁non ethe
▁figures .
▁firm 's
▁H ab
▁were ,
▁Compet ition
▁g ates
▁D UP
am ily
▁laws uits
▁profit able
▁Bre it
▁pit cher
▁Kyl ie
▁R ing
▁hin ted
▁larg e,
▁Int eg
▁prog ress.
olog ically
▁s oup
ins ul
▁assemb led
▁risk y
▁Jen kins
o "
▁Christmas .
▁mit ig
▁todd ler
mb uds
▁contain er
ColorType Head
▁M ang
▁Dav is,
▁Ab be
▁mach inery
▁worldw ide.
▁P aper
▁extrad ition
ColorTypeHead line":"
▁urg es
▁imag ined
▁coast .
▁pictures que
▁an nex
25 .
▁32 -year-old
▁I OC
▁welcom es
▁" con
▁Championship s
-c ap
▁head er
▁prom in
▁street s.
▁Nag orno
▁fru its
▁C ov
▁w ings
▁tour .
▁J agu
▁Ad el
▁Osc ars
▁Deb bie
es ,"
▁mus h
▁He y
▁cat ches
▁Port land
▁pal m
▁o un
▁Some one
▁over time
▁[ s
▁beach .
50 ,
▁entertain ing
▁m amm
▁D P
f old
▁# 22
eter min
▁Cos by
▁contin ually
▁Cult ural
▁burn s
/ P
▁minister .
▁behaviour .
▁Leban ese
▁T ou
▁sw orn
anth rop
▁she ets
▁tele commun
S L
▁( to
▁tour ing
▁"You 're
▁app rent
▁comp aring
-f l
▁ir regular
/3 /2016
▁through ,
▁associ ates
▁CO 2
▁en velop
▁Gre y
▁us ed.
at ical
▁Spain .
▁Bu zz
▁official ,
▁prev al
▁regul ated
ott est
let ter
A pp
ot ype
▁next .
▁cos y
▁sid ew
▁Pro cess
▁Ter ms
¶ Ð
é t
▁Upd ated
-f ield
▁al -Q
- ra
▁198 8
▁mort ality
▁M eth
▁cre ep
▁quality ,
▁Mon ica
▁Av iation
f und
▁stat ut
/ 27
▁batt led
▁contem pt
▁apprec iated
▁hy brid
▁st aggering
ra ud
▁mis under
▁truth .
▁so ared
▁ang le
▁Stud ios
▁Pop ular
▁m ol
▁d iam
▁Li u
▁Mar in
▁liv est
▁sne ak
▁necess ity
▁Thanks giving
▁Z ach
-g u
▁Washington 's
▁altern atives
▁dis in
▁ri p
f il
▁Am id
▁testim on
▁24 0
▁Tit le
▁“ M
h io
▁st ain
▁bow ling
r ons
ove ,
▁Ar c
▁effort .
N )
v es.
ц и
▁def ects
▁gym n
▁licens ed
▁200 3.
▁Q ur
▁belief s
▁beh ave
▁p ipe
▁ev angel
▁Brook s
▁Prov ince
▁Curt is
▁st ig
ache s.
▁Gonz ale
▁s urn
ar ians
▁e i
▁pl aintiff
▁low- income
▁Ex x
art en
▁bab y.
▁gen et
▁Earth .
▁T ool
▁middle -
▁thro at
▁C yr
ier arch
▁http:// m
▁Ap ost
▁treat s
▁???? ???
▁the e
on so
▁emp ire
e ut
ad en
▁work out
▁Serge i
▁citizen s.
▁W ade
▁stat us.
▁tact ical
▁glob ally
▁inter fere
▁Con or
V .
▁pr isons
▁rain fall
▁supporter s.
▁R ent
▁She ll
▁31 -year-old
▁boost ing
▁Fort un
▁Stephan ie
???? ????
▁pun ct
/ >
▁L or
▁L ed
▁B ST
▁A bs
24 .
▁abst ract
i em
▁sp at
▁Jo an
▁four ,
▁relationship ,
▁" ch
▁Ass ange
▁Senate ,
ild a
▁want .
▁IS O
-Le ague
▁Samanth a
▁bur nt
▁Wal es.
▁C inem
im ination
▁conscious ness
▁Sere na
▁Camer on's
▁9 11
▁legisl ature
▁hear ing.
▁" inc
▁dollar s.
▁Toy ota
▁School s
▁co -host
▁expl oded
▁vol ley
▁continu ed:
▁at op
▁( h
▁line back
▁V iv
▁' n
▁int act
▁R ih
▁met all
▁season s.
▁N iss
▁sl ice
▁bankrupt cy
▁g au
▁neverthe less
▁F ant
▁med i
▁defend ants
▁Pri eb
▁c ared
▁track .
▁comb ating
▁3 7,
▁ac cepts
▁Ad vent
gg y
▁8 /3/2016
▁g end
▁Fred er
▁h id
▁rein force
▁Hol mes
▁"m ore
U n
ri que
▁den ounced
▁Ab original
30 am
▁shut down
o ors
or ity
▁Chicag o,
▁offic er.
▁bas e,
▁unus ually
T H
▁ э
▁slow down
ons ider
▁br ide
▁agg ression
▁T ennis
▁ar c
▁Mark ets
▁F resh
▁insp iring
▁GP S
I O
ian .
r aining
▁comment s.
▁quality .
ck er
▁unw illing
▁M atch
▁K is
▁presum ably
le igh
▁transpl ant
▁p .
om .
▁inv as
▁propos es
▁d amp
▁Co op
▁Chap ter
▁squee ze
ad e.
▁invest ors.
▁mic roph
▁ser vers
ate "
per or
▁cat hedral
& T
▁position ed
▁2 8.
▁circ les
▁lack s
▁Ohio ,
anc ies
▁right ?
▁exhib it
▁Pr act
w yn
▁O EC
▁br ink
▁chair man,
▁overwhelming ly
intend ent
▁org ans
us ive
▁( on
▁Le e,
▁Al ger
▁final ,
▁impe achment
▁c ried
▁F argo
▁sense .
▁ton ed
▁risk ,
▁Bang kok
▁ill umin
▁Every body
▁unp aid
/ t
ag ed.
▁reject ion
▁conce pts
st ant
▁K ont
ul in
▁wall ,
▁high- quality
▁regul ate
▁he nce
k ill
▁No ah
▁Tayl or,
▁camp ,
▁Mu ell
▁has ,
on ents
▁p aus
▁Leg end
▁r av
▁(X inhua
▁undert ake
▁cot ton
hap s,
▁" just
▁C ore
▁Im pro
▁St rict
▁b inary
▁Car roll
▁Ber k
▁sc am
▁ob taining
▁apprec iation
▁cul p
▁m our
▁strateg y.
ri ans
▁Ken y
▁un pro
▁found ations
hire ,
▁hyp ot
▁compat ible
▁batter ies
occ up
▁do es.
▁env oy
▁H app
▁ex otic
▁200 2,
▁Win ston
▁Ark ansas
▁s lick
▁su e
▁art work
▁present .
▁er ad
▁emplo ys
▁18 00
▁sol ving
▁journal ism
▁dictators hip
▁emb edd
▁Jin ping
▁f ares
▁ent ity
▁mar ble
▁Tex as.
▁abus es
▁programm e.
p son,
▁E M
▁nick n
▁o d
▁back ward
▁decision s.
- rec
▁dis reg
▁a ug
ce ph
▁As hes
▁car b
▁ret ro
▁clear ance
▁Scient ific
▁N ixon
▁pl ates
- app
▁stuff .
W .
▁recru ited
▁ar sen
▁Space X
▁m ourn
▁Holy rood
▁/ K
▁proxim ity
w at
▁sem i-
-s pe
▁super hero
▁lugg age
▁television .
▁grat itude
▁h urric
▁V R
▁deliber ate
▁const rain
▁court room
▁198 6
▁Mar ri
▁program s,
▁name :
▁block b
te xt
▁"S h
▁V ick
▁b udd
▁"h as
▁deb t.
▁W HO
▁amb assad
ж е
▁thre e.
▁p ad
▁l ips
▁( see
un ct
our ge
▁inject ion
▁flight .
pe ople
▁con form
▁bit coin
▁Fax :
▁also :
or ruption
▁determin ing
▁outsk irts
▁telev ised
st ed
▁truth ,
▁privile ged
▁G ive
▁imper ial
▁collect ions
▁Franc ois
▁P am
row ning
▁at :
▁G ome
▁fe et,
▁fisher men
▁own er,
▁O'B rien
ab lo
▁" pre
▁Beh ind
▁K ra
▁quick ly,
▁rece iv
▁crop s
- way
▁Parliament .
▁path s
▁tit le,
▁ ко
▁Craw ford
" ).
ve .
▁5 th
▁Haw thorn
U D
▁s way
▁assault .
▁Mill er,
▁war mer
▁Fernand o
se .
▁individ ually
▁post season
m aster
▁L ily
▁Su ff
▁Mn uch
off icial
▁ahead ,
▁new com
▁ass aults
▁cor rection
▁Montg omery
/ 23
▁w ickets
▁integ ral
ES :
▁Com fort
▁weapon s,
▁trous ers
▁l orry
▁Rousse ff
▁al tered
ow .
▁Targ et
▁P orter
at hing
▁9 /11
▁se a,
▁(Xinhua )
▁+25 °C
▁Zucker berg
▁C ool
▁societ ies
▁character ized
ian n
▁2 9.
ul ed
▁P ress.
▁C ann
ASE ,
▁Tai w
▁third .
▁Gu ide
▁Copy right
an s,
▁g ently
▁legisl ation,
▁Commission ,
▁Philipp ine
b ut
.0 5
▁cor on
▁S eg
▁over weight
▁leave ,
▁shr ink
▁y en
▁U pper
▁par ish
▁opportunity .
▁p ier
▁David son
▁as ham
▁res ent
▁Model :
is ible
▁disch arge
▁W ire
r ask
▁pull s
▁'We 're
et ter
▁Sh aun
▁Kar im
▁cauc us
▁Pl ant
▁exceed ed
▁knock ing
▁ide a,
▁State 's
▁recru iting
▁l ining
▁sex .
▁Minister ,
st own
▁EC B
▁p ine
▁Sil v
▁p ets
▁"B e
▁AN Z
▁pock ets
▁premium s
▁What s
l er.
▁urg ency
▁Zur ich
g ios
▁S H
▁(M ich
▁P ru
▁fe as
▁ter rain
▁Man n
aut y
▁impro per
▁(f rom
▁mal ware
▁lin es,
▁D ance
▁g aps
▁D O
▁target .
▁v i
▁N ut
▁trip ,
▁m att
▁A V
▁wr ist
▁broadcast ing
▁miner als
▁t ribut
▁C ind
f in
▁jur ors
▁rang e.
▁Church ill
▁resil ience
▁wor s
▁over l
▁comment s,
▁complic ations
b ishop
▁Qu ick
▁Sand ers,
▁G lob
▁facilities ,
▁De V
itt y
-p ound
▁bal let
▁outsp oken
▁plac es,
▁Chall enge
iot ics
▁emotion ally
▁Rem ain
▁dis respect
▁now ?
▁lab els
▁iP ad
▁young ster
▁f res
▁S D
▁show down
▁motor ists
▁gr ay
▁anymore .
▁L ov
ry s
▁compuls ory
бр я
▁pr ag
▁Hezb ollah
sw ire
▁reun ited
▁V ett
▁sk y,
▁ide ology
▁scen ari
▁Moroc co
▁dress es
▁int oler
▁pr ice,
▁des cent
▁h acked
▁overwhel med
▁us ers.
att ack
▁Second ly
▁sustain ability
▁trigg ering
▁reason ably
▁mis er
▁con ferences
▁show ers
▁agency 's
▁volat ile
=' http://
▁chop ped
▁not or
▁mil estone
da q
▁tw elve
▁symbol s
-b it
▁other 's
em e
on ge
ast ics
▁card .
▁N ike
▁ris e.
r ink
99 0
et ery
▁hilar ious
▁f isheries
▁prec aution
▁author itarian
▁Cent ers
▁abus e,
▁Flin t
ind a
▁nomin ations
im ag
roc od
▁applic ants
▁D ug
ud a
▁bank ,
▁Burn ley
▁Jehov ah
▁' Y
-met re
on ut
▁st ap
▁colleg es
▁ro oft
▁un av
▁О т
▁C ul
ent ions
▁impact .
▁Grand e
▁recre ational
▁Doz ens
▁/K ASE,
о н
▁alleg ations.
▁Jack son,
▁l iable
ar ious
▁40 %
▁M am
▁C ly
▁R ig
▁cent s,
▁plac ement
▁overt urn
▁G ur
▁team s,
▁Trans cript
ro e
▁Obam a.
▁Bow ie
▁found ,
▁Is ab
▁Breit bart
ab ,
▁remind s
▁mer it
▁Coll ing
▁C od
er red
▁island .
▁S ession
▁M ist
▁below ,
st at
▁whe els
▁m ak
▁interest ,
▁girl 's
▁boot h
▁fire arms
▁father s
o y,
▁ „
▁off s
-f ire
▁announc ed.
▁Ed en
▁di e.
▁child care
▁circ ulation
/d isplay
▁Que bec
j i
-p erson
▁vers at
conn ected
▁Bar r
▁v ou
_ name
▁H ew
▁urg ently
▁c ares
▁K an
-p owered
▁" y
▁this ?
eng ers
▁fat s,
▁W and
▁adv ancing
ч и
▁en vis
▁"g ood
▁Tre k
▁sie ge
▁K ang
▁0 9,
▁exhib itions
▁freedom s
▁prosp ective
▁sid es.
▁Ev ents
▁m artial
▁S ays
▁S EC
▁pret end
▁0 2,
▁Ly me
▁rel ations.
▁deb ts
▁Afghanistan .
▁inv ented
▁in h
▁carri ers
olph ins
▁gl ac
▁O ri
ore .
▁shot ,
lant ic
igg ins
- end
▁Har ve
▁broad c
▁emb ry
▁commem or
for cement
▁Le x
▁sol ved
▁demand .
▁inher ited
▁complex ity
▁���� ����
▁p ian
▁no on
▁Ob last
▁red und
▁pod cast
▁Vo ice
re hend
▁newspap er.
▁cy bers
R O
▁pers ecution
fere nc
▁dict ator
▁predecess or
▁F loyd
han i
▁standard s,
▁ble eding
▁constitu ency
oint ed
▁building s,
▁d itch
▁( 49
▁shoot ing,
▁investig ative
▁Z o
▁Parliament ary
ment s.
▁K ier
▁v oid
ms g
▁inadequ ate
▁proud ly
▁Som ers
▁divor ced
▁R ang
▁mar ched
▁Egypt ,
▁Alf red
le m
▁S ue
▁M IN
▁ru in
▁II ,
▁Rober to
▁hal ft
▁inj uring
▁worse ,
▁f iance
▁compet ence
▁began .
▁H ook
& A
▁ess ence
▁P ix
▁K och
▁bl aming
▁mov ie.
ard 's
▁apolog ized
▁st ub
-c ar
▁model .
▁hect ares
▁P P
u i
▁M V
og y
gg ing
▁prot ects
▁a unt
ar in
▁gl itter
▁NCA A
▁late .
▁Black s
in ion
▁relie ved
I LL
j son
▁A ub
▁Su z
▁Tim othy
▁c ob
▁App eal
▁p ant
- lo
▁war ri
▁contract ed
▁Se a,
▁navig ate
tit le
e er
▁Kat y
▁К а
▁day ,"
▁dig it
s son
▁D iet
▁Christ m
▁alert ed
▁aver aged
▁tem pl
▁resident s.
▁( 5)
▁immin ent
▁district ,
▁M O
▁Per u
▁talk s.
▁bedroom s,
▁That cher
▁back-to -back
▁Y ellow
▁disappear ance
/ AP
▁1. 8
▁jail .
▁solution .
▁fore most
▁accoun ts.
it -f
▁Mah m
at on
▁deal er
▁helicop ters
▁C lement
▁Hus se
▁Qu inn
▁Nas daq
▁M b
▁sa una
er ting
▁every thing,
▁D ram
▁train ers
umb ers
▁plung ing
▁Mat ter
▁preced ent
▁cr ashes
▁unc onscious
▁Slovak ia
reme ly
▁circumst ances.
▁transm itted
el o
▁share ,
▁up side
▁first -round
▁while ,
▁Malays ian
▁t ide
ol ar
▁cle ans
U B
-l ength
▁nam ing
▁a ster
▁UNESC O
▁o we
▁S ic
▁But ler
/ 9
▁O ce
▁"W ell,
▁facilities .
ки й
ult ure
▁candid ate.
▁R ule
▁Ed itor
▁traum atic
▁miles )
▁weaken ed
▁K ing,
▁Par ram
▁important ly,
▁Senate .
▁corn ers
▁Over all,
▁Melbourn e.
a5 a
▁gen re
▁sp ear
▁game 's
▁psych iat
▁Aff air
▁St or
▁rev ision
c ity
▁Brun o
▁g ad
▁Im perial
▁motor way
▁Stud ent
lud ed
▁Nor fol
▁w iped
▁hik ing
▁W elling
▁char itable
▁yourself .
▁Kyr gios
▁Lad ies
ept ion
▁Comp are
3Ð 3⁄4
ac ies
▁direct ing
▁wholes ale
▁applic ation,
и :
▁fict ional
▁t roll
▁d orm
▁Sc and
▁El sewhere
▁weight .
arm. ru/
▁rubb ish
▁K ur
▁gen ius
▁driver ,
▁G os
▁£ 2.
▁integ rate
g ary
▁Shi ite
ask et
▁F an
▁sur ged
▁Council .
▁"S tar
▁ban .
▁W ait
▁over head
▁lif elong
▁S AN
▁fre e,
▁sess ion.
▁YouT ub
▁low .
▁Hollywood ,
▁mon ster
▁elect ronics
▁bad .
▁dig est
ut ing
▁F rem
='http:// ad.
h ouses
▁Bar on
▁boy 's
▁rhyth m
▁S ains
▁parliament .
▁H ague
▁par ole
▁sport ,
▁convict ions
ri o
▁organiz ation,
0cd fe
n= a5a
it-f arm.ru/
='http://ad. it-farm.ru/
n=a5a 0cdfe
='http://ad.it-farm.ru/ www/delivery
▁c a
▁E L
▁long er.
▁organis ers
▁US A,
▁Walk ing
▁M B
▁one -day
▁l '
▁championship s
▁j ean
▁sub t
▁magn etic
▁cig arette
oun ters
▁spraw ling
- ad
▁ag ing
▁black ,
▁cod es
▁c ros
▁dis k
▁fire works
▁Wals h
▁pres e
▁terrif ied
▁Prim ary
▁S itu
ing, '
▁nav igation
quis ite
rib ly
e org
▁imm ers
▁Kenn eth
l it
▁beach ,
▁marg ins
▁Fif th
▁Sac rament
▁state -run
▁surround ings
▁experim ents
▁sp ik
▁ment ality
▁lou ng
iqu es
- op
▁"h igh
▁explos ives
▁Niger ian
▁sufficient ly
▁live ly
▁sens ors
▁fundament ally
▁ham string
▁an th
▁F ij
sy stem
▁Video :
▁qual ification
▁persu aded
▁"O h,
▁Ell is
▁creat ivity
ст о
▁Baghd ad
▁R um
▁deliver ies
K K
pp led
▁store .
▁M og
▁M ath
▁prev ail
▁impact ed
▁spons or
▁app ,
' S
▁M ong
▁rele ase,
▁Burn s
в ы
▁198 4
▁add s.
▁roll er
▁Pochett ino
/ 21
ric ul
" ?
▁c alf
▁le verage
▁Econom ics
ens on
▁Bal i
▁Put in,
▁tonight .
201 2
arm ing
▁unc le
oc o
▁C ymru
▁sw ap
o ing
sw orth
▁ten ants
▁heavy weight
▁alarm ing
▁b raw
▁start -up
▁d ail
▁ch ased
▁Turk men
▁im age.
▁$ 5.
▁Comm ittee.
▁inst itute
▁App ro
en i
▁over sh
▁orche stra
▁commun ist
▁0. 4
▁O'Re illy
ment s,
▁Fr aser
▁div isive
▁favor able
▁Corn wall
▁K um
▁tran qu
i ology
▁soc io
▁murder ing
▁war fare
▁assist ing
▁vot es.
▁Instagram .
▁Cal ais
▁Off ice,
▁select ing
ort ium
▁low ered
▁b ored
▁F O
▁Y ell
▁Bachel or
▁Bl ock
▁once ,
▁Kel ly,
▁motorc ycle
▁B oss
ah a
▁C ran
▁tax ,
▁stret ching
▁Exc ell
▁accoun ts,
▁under wear
▁tax es,
▁Qu arter
in ness
▁200 1.
- 50
▁ball ots
▁hands ome
▁sh ores
▁sure ,
▁up ward
ount ry
▁working -class
▁D ocument
▁build s
-in f
b rough
▁F ine
▁est rang
▁tweet ed.
е м
▁viol ate
▁vehic les,
▁Mart in,
" :0
▁S hip
▁wh ale
▁do es,
▁releg ation
n a,
▁Furthermore ,
as i
▁C OM
▁j unk
▁http:// p
inf o
▁Gam es.
ress ing
▁timet able
▁( not
▁record s.
▁above .
▁Sc al
ill ery
▁3 8,
▁seat .
▁un author
▁Car n
l od
os aur
▁assum ing
g am
▁0 4,
▁again ,"
▁c apped
▁Philipp e
iv ity.
0 3
ol .
ul ously
▁sl aughter
▁extrem ism
▁meant ime,
▁Fal con
sh ops
▁roll s
▁Unit ed,
▁b ass
ames e
▁exc lusion
▁d ock
▁reg rett
▁de af
▁6 ,000
-s ite
▁div ine
▁supporter s,
▁emb od
▁sh aken
▁scand al.
▁corner .
▁d otted
▁had ,
▁different ,
▁hyd rogen
▁un limited
▁insp ector
end a
▁required .
ie ve
▁40 ,000
▁sand wich
ö r
▁v om
▁Al ison
▁£ 500
▁comb ining
▁promot es
▁prolong ed
▁B ast
▁pay .
▁leag ue.
▁acceler ate
▁aggrav ated
▁by pass
▁" abs
um ing
▁sa us
▁prev ents
▁continu ously
▁Roman ian
▁unanim ously
▁wife 's
▁Copenh agen
▁key board
▁fr idge
▁Act ually,
▁contest ants
▁eld est
I t
ne um
▁Mid lands
▁V ista
▁ad orable
▁198 7
vers ion
▁S weet
▁sk ipper
l ia
▁t ally
▁D awn
▁mon aster
a fter
▁Cole man
▁5 .5
▁Cru z,
▁ent ries
▁Holland e
▁ve gan
▁stay .
▁Mexic o's
▁1990 s,
▁h ottest
am pt
ou ble
▁down s
▁injured ,
▁spl end
▁j umper
▁skept ical
▁life -threat
k a,
▁content ious
▁unlaw ful
7 %
▁ABC 's
▁has t
▁sec re
▁promot ional
▁H aley
▁sit es.
▁squ ad.
▁sk ies
upload s/
▁4 50
▁Lat ino
▁leadership .
ul iar
▁S kin
bo ards
▁shut tle
▁l ur
ount ain
▁ec ological
im ated
▁' no
▁fert ility
▁fun ,
o os
▁Pol and,
osp el
▁Barcelon a,
- Y
/ g
▁task ed
▁Fall on
Q u
▁it 'll
ke y,
▁dest abil
e i
▁V ale
▁thr ust
▁serv ant
▁military ,
▁appeal .
▁p anc
каз ать
▁H ogan
▁Sch mid
▁seriously .
▁S ources
▁hal ted
-s econd
▁science ,
-f illed
ent ry
▁dev ices.
▁neighborhood s
▁auster ity
▁dys function
-dri ven
▁d d
▁George 's
▁quot es
g ue
▁D AC
▁princ ess
▁Azerbaijan i
-f re
▁plum met
/ L
mer ,
▁trad es
▁sun set
m all
am ination
am il
▁Mar ina
▁number ,
▁So x
▁re wards
▁investment .
mark ed
r ath
▁cup s
▁tail ored
▁f ax
▁J azz
▁sl opes
▁acknowled g
▁com e,
▁honest ly
▁tour ,
▁"A ny
▁imp lant
▁dism ant
-the med
/ 25
▁fu els
▁in ex
▁Jam es,
▁provoc ative
▁A IDS
▁wh 0cd
isc rim
▁nature ,
▁Mill enn
▁speaking ,
li er,
▁bar .
▁l inger
▁circumst ances,
▁l enders
▁(wh o
▁C air
▁holiday .
▁weekend 's
▁obs essed
▁aggressive ly
▁B oot
▁ver bal
▁McL aren
▁P ia
▁hit .
▁church ,
▁calc ulation
hio )
▁four .
-s elling
▁bidd ing
▁T able
▁low ,
▁resum ed
ass ed
▁programm e,
/ 24
▁B ach
ri z
▁Star b
▁ar ise
▁lect urer
▁shoot er
▁pe ace.
▁Le B
▁Serv ice,
▁Centre ,
▁vert ical
▁reason .
у б
▁detail ing
▁Sant os
▁Hass an
▁ill icit
▁p ear
▁part -time
▁gr asp
▁exc av
▁submar ine
▁M i
▁Ro ose
▁mater nity
▁Bay ,
▁Wil son,
inh o
-s quare
▁desk top
/ 28
E )
▁Aut o
h ift
▁T iff
▁loc ation,
▁dif fer
▁R ice
▁K ras
▁nature .
▁Cher yl
on s,
ul ator
▁E V
/av atar
▁Al maty
▁fig ured
▁inters ection
-t op
▁sh attered
▁burg l
▁Che v
▁tomat o
▁ver ify
▁Merkel 's
▁Observ atory
▁health ier
▁ow ed
▁Hudd ers
▁30 %
▁un equ
▁lot tery
/200 7
▁A us
▁happen s,
▁port ra
▁ey e.
▁over th
▁unfor get
▁Current ly,
▁ к
▁organization s,
▁turmo il
▁re aff
▁r ab
h of
ch in
▁c ove
▁gl orious
▁lot ,
▁ident ity.
▁absor b
▁reass ure
▁m im
ch ron
▁relax ation
▁14 -year-old
▁higher .
▁crim es.
▁high- end
▁jew ell
▁l anes
▁diplom acy
▁st airs
▁ex ecute
▁Mar x
▁dil ig
▁t el.:
▁cost .
▁hotel s,
▁CD C
▁turn around
▁miss ing.
▁gar b
▁ju ven
▁be ats
▁gr an
▁time. "
play ed
▁animal s.
▁nep hew
t age
▁DN C
▁2000 .
▁c ad
ard i
-h ouse
as is
vent ions
fl ow
▁ro de
▁5 %
ud er
▁Mov ie
▁C er
▁P om
▁Tra il
▁surg ical
▁M SP
▁don ned
▁Sarg sy
▁album s
▁WikiLe aks
I )
▁en roll
▁fe ast
▁recall ed.
▁click ing
▁ce il
▁think .
▁25 th
▁magaz ine.
▁Lear n
▁answ ering
▁therefore ,
▁Ke eping
ourc ing
▁0 5,
▁front -run
▁M itt
▁B ake
▁res h
▁discover ing
▁ter rific
▁C ec
▁contract ,
▁Damasc us
▁favour ites
▁V W
▁Q at
▁23 0
▁"g reat
▁+ 21
▁post al
▁dri ed
G M
c ient
ful l
game /avatar
uploads/ game/avatar
а с
st rom
▁siz e,
▁cour ty
-s ide
▁Y ang
▁rac ed
▁capt ures
▁Rail way
▁relent less
▁m ales
▁G ig
▁organ ise
fore st
▁partner .
▁ ·
▁H our
▁embedd ed
▁C ant
ht aking
▁conflic t,
▁10 5
▁sk in,
▁had .
▁someone 's
▁explain s.
▁# 23
-f ashion
▁design .
▁ver se
▁Come y's
▁Parliament ,
▁Swed en,
▁distingu ished
▁H P
▁Department .
▁R ost
▁ste ering
▁vice -president
▁sn aps
▁quarter -final
▁up held
-b uild
d iv
▁was ted
▁parliament ,
▁L ost
▁0 8,
I B
▁ex h
▁mess age,
▁flood s
▁Far rell
▁/gallery /display
▁Mug abe
▁W ine
▁Tri ple
▁administ rator
▁y uan
▁rec ycling
i -f
▁r uth
▁contin ue.
▁be ts
▁M ills
’ re
ie ves
▁bes ides
▁V all
▁day light
▁S usp
▁wh olly
▁B end
E Y
▁rans om
▁m a
▁say ing.
l ink
▁partic les
▁BBC .
▁sl id
▁claim s,
▁remain der
▁arrest .
rain e
y ll
bod y.
▁pro -
▁couple ,
m ission
▁island ,
▁front .
▁diagn os
▁bomb ers
▁sentence .
▁per cept
os cow
▁orche str
▁T D
▁director .
▁embarrass ed
▁barg ain
▁Kaepern ick
▁Ch ip
▁top s
▁Ch and
▁victim 's
▁Richard son
ucc i
▁Pere z
▁Mon th
▁landl ord
▁L anguage
▁or phan
d oor
▁girl s,
▁sp ar
bl ank
▁Dri ver
▁F M
▁particip ant
▁follow -up
▁196 7
p iec
-t ax
▁stret ches
▁Airbn b
▁200 2.
- 40
▁button .
▁C T
▁domin ance
s mith
eng le
▁it. '
c am
▁o ath
▁L t.
ud ge
▁AN D
a que
bur y,
▁D ele
▁desp air
ат е
▁flav our
▁d are
ul ation.
▁dest ructive
▁Steven s
▁condol ences
▁S ark
▁ab duct
▁so aring
▁terror ism,
M oney
▁abro ad,
▁(B el
ak .
▁eng ulf
▁2 .1
▁Col lect
▁think ing,
▁tax ation
at em
▁caus e.
▁H air
▁mic rob
▁system atic
-w ar
▁unanim ous
f ly
▁Cho ose
▁le aks
▁lead ,
▁post ers
▁diox ide
er ation
▁sp erm
▁Al m
/1 9
▁Plan ned
▁t ended
» ,
▁contract or
az ing
▁number .
▁analy zed
▁pur port
▁Catal on
_name ":"
is ing.
▁well s
▁sal e.
▁p und
▁R iga
ens ed
:00 )
▁accur ately
▁University 's
▁Carolina )
▁chief s
▁apart .
▁agg reg
▁shap es
▁W id
▁partnership s
iv ity,
▁bo ge
▁positive ly
▁Roose vel
▁lif et
▁Co. ,
▁pries ts
▁decision -making
▁indic ator
▁d ress,
▁film s,
▁Hop kins
▁Altern ative
is ing,
▁dis asters
▁sub s
▁air pl
ished .
▁198 5
▁Roberts on
▁thought .
▁Sains bury
х о
ch t
▁char ism
▁bomb ings
▁Hib s
▁furn it
▁aest hetic
▁str angers
▁friend 's
▁Reg ister
w ic
▁side 's
▁Ð1⁄2Ð 3⁄4Ð
▁adm itt
▁MS N
▁Tay y
▁fare well
▁st al
am ine
▁to ast
▁OEC D
aun t
▁g ust
▁mat ches.
▁B ere
▁Sch ne
▁dark ness
▁pool .
f ound
oul t
▁rum ors
▁am pl
▁"T rump
▁fab ulous
ond a
▁+ 20
-3 1
▁j ersey
▁interpret ed
▁on ,"
▁te aches
▁interrupt ed
.com/ en/
▁Amb ul
▁catal ogue
▁dep rived
▁product .
▁C ert
▁reconc iliation
▁ask ed,
▁bank .
▁tack les
▁Hond ur
í a
▁President s
engle e.com/
▁by ,
▁elimin ating
▁medd ling
▁N O
▁+23 °C
▁St ay
▁trib al
ro ft
▁book s.
▁I de
id "
▁tax es.
▁hel met
ol lo
▁return ,
o ven
▁(O hio)
▁http://f englee.com/
▁poore r
-h op
▁N L
▁cash .
▁church .
▁C P
▁Saf e
▁Barcl ays
rib ing
▁sport ed
p it
le en
▁Sh ir
▁Mel an
▁street s,
▁fant as
▁perf ection
▁seas ide
▁H ang
▁keep er
▁above ,
▁P aren
▁2 70
▁' th
▁Gu z
g ro
▁Art ist
D )
▁(1 1
▁discret ion
S O
▁B att
▁activ ated
▁speed ing
▁l aps
▁Ad ri
▁camer a,
▁"N ow
▁Den is
▁B apt
▁P AR
▁deport ed
▁Hig her
▁P DF
erson ,
p atch
ul ation,
▁bab y,
▁Mar cel
▁Esp ecially
▁N C
am ar
ger ald
▁from ,
▁sem if
▁un identified
▁B un
▁out ing
▁fir m.
▁cru c
▁smart ph
▁h ierarch
▁infrastruct ure,
▁mot ive
▁min es
▁deg rad
▁autom otive
▁revers ed
g ,
▁M ood
7. 5
▁appoint ments
▁smart phones
▁Stadium ,
▁th rive
▁Hond a
▁Exx on
▁b ind
▁ru le,
▁or n
▁tax .
▁Ger ald
▁me. "
▁Lion el
▁wh ip
▁incom e.
- ever
lady health
ir us
▁W ake
▁any one.
ish ment
▁loc ate
▁det rim
is ode
▁"T oday
ienc es,
ari at
▁N est
▁sm ash
▁sex ,
▁Ass emb
▁mod ule
▁Can ter
▁communities ,
▁( al
at able
iz a
ik ,
▁b ore
▁limit ations
▁Mem ph
▁coast ,
":0 ,"
▁F OR
ific ation.
ou ces
▁UK IP
omm on
▁Ry an,
▁schol ar
▁su ites
ug s
▁B ass
▁read iness
▁un m
▁imprison ment
▁(00:0 9
-A meric
am as
▁refuge es,
▁refuge es.
▁over ly
▁alleg ing
▁coach .
▁surf ace.
▁M M
▁court 's
▁attention ,
▁install ing
▁Quest ions
▁assass ination
uper t
as ure
▁sh ine
▁him :
▁L ac
out ing
▁round ed
▁Initi ative
▁P engu
ivid ual
▁judg ement
▁lif ts
ar cer
▁T ouch
▁n ations.
▁K un
lo or
▁el imination
▁festiv als
▁showc ased
▁people ."
▁pe ace,
▁first -time
k ar
▁Se a.
▁fre ight
▁bre ached
▁Or d
-R ussian
▁d ental
▁T ests
▁Le vel
▁Bar rett
▁Ecu ador
▁pict ure.
▁dismiss al
▁Nik ki
▁M iles
ont ane
▁I gor
▁fund s.
▁Cl oud
▁Colleg e,
-------- --------
▁n onsense
▁minut e,
▁weird ,
▁bas is,
▁Access ories
▁ref in
he art
▁Colomb ian
▁sm iles
▁contract ors
▁out going
▁call ,
▁management .
▁grant ing
▁m ice
▁Jenn y
▁sleep .
▁197 9
▁well ness
▁ru ined
▁L ud
▁cl ashed
▁loc ation.
6 %
▁35 -year-old
▁F ight
ub a
▁deb ated
▁ru le.
▁T yp
▁Buff alo
▁b ou
▁pe pp
▁En c
C )
▁ext ensions
▁2020 ,
▁skill s.
ad os
▁Sal man
▁Cas ino
n ar
▁gener ic
▁institution s,
add y
▁(1 8
▁config uration
▁bic ycle
▁R aw
▁att ach
▁start up
udd en
▁Moham mad
▁vir us.
▁Per fect
▁ Ф
-h it
▁seaf ood
▁citizen s,
▁$ 60
▁cha otic
▁Charlottes ville
ic a,
▁0 6,
▁deal ers
▁arch itects
........ ........
-ey ed
**** ****
▁mic row
▁concuss ion
▁res ources.
▁coin s
▁F 1
▁V ogue
▁Current ly
l ake
K R
▁Gr ade
an ium
▁F av
▁ro w.
▁length s
▁Av ailable
▁Sach s
▁advis or
▁flo at
▁L ip
▁sil ly
▁reward ed
▁leadership ,
▁Fil ip
▁H in
▁act or,
▁b an,
▁http://www. k
▁Fitz gerald
▁sh ade
▁content .
▁Card inals
▁Tayy ip
ag ra
▁At hens
▁gas oline
en ophob
▁compos er
▁Ku wait
▁Dra ke
▁host age
▁sib ling
os ity
▁Ker r
▁Valenc ia
- con
▁2 :
▁function ality
▁comfortable ;
▁priz es
▁h ated
ation "
az y
▁hous ed
1 2.
▁http://tremulous.net/forum/index.php?topic= 16
▁D raw
▁It ’s
▁im age,
▁H og
b i
▁underc over
-r anked
▁surre nder
▁inacc ur
▁Cor on
ен ия
▁Bur ke
▁front ,
▁assess ing
▁p ause
is ch
▁v icious
In st
a "
▁Four th
amp ered
hes is
▁tel esc
▁Ad ele
▁vulner ability
▁Move ment
▁Al leg
▁Brit t
