{"<s>":0,"<pad>":1,"</s>":2,"<unk>":3,"<mask>":4,"!":5,"\"":6,"#":7,"$":8,"%":9,"&":10,"'":11,"(":12,")":13,"*":14,"+":15,",":16,"-":17,".":18,"/":19,"0":20,"1":21,"2":22,"3":23,"4":24,"5":25,"6":26,"7":27,"8":28,"9":29,":":30,";":31,"<":32,"=":33,">":34,"?":35,"@":36,"A":37,"B":38,"C":39,"D":40,"E":41,"F":42,"G":43,"H":44,"I":45,"J":46,"K":47,"L":48,"M":49,"N":50,"O":51,"P":52,"Q":53,"R":54,"S":55,"T":56,"U":57,"V":58,"W":59,"X":60,"Y":61,"Z":62,"[":63,"\\":64,"]":65,"^":66,"_":67,"`":68,"a":69,"b":70,"c":71,"d":72,"e":73,"f":74,"g":75,"h":76,"i":77,"j":78,"k":79,"l":80,"m":81,"n":82,"o":83,"p":84,"q":85,"r":86,"s":87,"t":88,"u":89,"v":90,"w":91,"x":92,"y":93,"z":94,"{":95,"}":96,"~":97,"":98,"":99,"":100,"":101,"":102,"":103,"":104,"":105,"":106,"":107,"":108,"¡":109,"¢":110,"£":111,"¤":112,"¥":113,"¦":114,"§":115,"©":116,"«":117,"¬":118,"­":119,"®":120,"°":121,"±":122,"¶":123,"·":124,"»":125,"¿":126,"À":127,"Á":128,"Â":129,"Ã":130,"Ä":131,"Å":132,"Æ":133,"Ç":134,"È":135,"É":136,"Ê":137,"Ë":138,"Ì":139,"Í":140,"Î":141,"Ï":142,"Ð":143,"Ñ":144,"Ò":145,"Ó":146,"Ô":147,"Õ":148,"Ö":149,"×":150,"Ø":151,"Ù":152,"Ú":153,"Û":154,"Ü":155,"Ý":156,"Þ":157,"ß":158,"à":159,"á":160,"â":161,"ã":162,"ä":163,"å":164,"æ":165,"ç":166,"è":167,"é":168,"ê":169,"ë":170,"ì":171,"í":172,"î":173,"ï":174,"ð":175,"ñ":176,"ò":177,"ó":178,"ô":179,"õ":180,"ö":181,"÷":182,"ø":183,"ù":184,"ú":185,"û":186,"ü":187,"ý":188,"þ":189,"ÿ":190,"Ā":191,"ā":192,"ă":193,"ą":194,"ć":195,"Č":196,"č":197,"Đ":198,"đ":199,"ē":200,"ė":201,"ę":202,"ě":203,"ğ":204,"ģ":205,"Ī":206,"ī":207,"į":208,"İ":209,"ı":210,"Ķ":211,"ķ":212,"ļ":213,"ľ":214,"Ł":215,"ł":216,"ń":217,"ņ":218,"ň":219,"Ō":220,"ō":221,"ő":222,"œ":223,"Ř":224,"ř":225,"Ś":226,"ś":227,"Ş":228,"ş":229,"Š":230,"š":231,"Ţ":232,"ţ":233,"ť":234,"Ū":235,"ū":236,"ŭ":237,"ů":238,"ű":239,"ų":240,"ŵ":241,"ŷ":242,"ź":243,"Ż":244,"ż":245,"Ž":246,"ž":247,"ș":248,"ț":249,"ə":250,"ʼ":251,"́":252,"̃":253,"̄":254,"̈":255,"̊":256,"̧":257,"Α":258,"Β":259,"Γ":260,"Δ":261,"Ε":262,"Η":263,"Ι":264,"Κ":265,"Λ":266,"Μ":267,"Ν":268,"Ο":269,"Π":270,"Ρ":271,"Σ":272,"Τ":273,"Υ":274,"Φ":275,"Χ":276,"Ω":277,"ά":278,"έ":279,"ή":280,"ί":281,"α":282,"β":283,"γ":284,"δ":285,"ε":286,"η":287,"θ":288,"ι":289,"κ":290,"λ":291,"μ":292,"ν":293,"ξ":294,"ο":295,"π":296,"ρ":297,"ς":298,"σ":299,"τ":300,"υ":301,"φ":302,"χ":303,"ω":304,"ό":305,"ύ":306,"ώ":307,"Ё":308,"Ђ":309,"Ѓ":310,"І":311,"Ћ":312,"А":313,"Б":314,"В":315,"Г":316,"Д":317,"Е":318,"Ж":319,"З":320,"И":321,"Й":322,"К":323,"Л":324,"М":325,"Н":326,"О":327,"П":328,"Р":329,"С":330,"Т":331,"У":332,"Ф":333,"Х":334,"Ц":335,"Ч":336,"Ш":337,"Щ":338,"Ъ":339,"Ы":340,"Ь":341,"Э":342,"Ю":343,"Я":344,"а":345,"б":346,"в":347,"г":348,"д":349,"е":350,"ж":351,"з":352,"и":353,"й":354,"к":355,"л":356,"м":357,"н":358,"о":359,"п":360,"р":361,"с":362,"т":363,"у":364,"ф":365,"х":366,"ц":367,"ч":368,"ш":369,"щ":370,"ъ":371,"ы":372,"ь":373,"э":374,"ю":375,"я":376,"ё":377,"є":378,"і":379,"ї":380,"ј":381,"њ":382,"ґ":383,"ғ":384,"Қ":385,"қ":386,"ң":387,"ү":388,"ұ":389,"ә":390,"Ա":391,"Դ":392,"Հ":393,"Մ":394,"Ն":395,"ա":396,"բ":397,"գ":398,"դ":399,"ե":400,"ը":401,"թ":402,"ի":403,"լ":404,"խ":405,"ծ":406,"կ":407,"հ":408,"ղ":409,"մ":410,"յ":411,"ն":412,"շ":413,"ո":414,"պ":415,"ջ":416,"ռ":417,"ս":418,"վ":419,"տ":420,"ր":421,"ց":422,"ւ":423,"ք":424,"א":425,"ב":426,"ד":427,"ה":428,"ו":429,"ט":430,"י":431,"ל":432,"ם":433,"מ":434,"נ":435,"ס":436,"ע":437,"פ":438,"ק":439,"ר":440,"ש":441,"ת":442,"أ":443,"إ":444,"ا":445,"ب":446,"ة":447,"ت":448,"ج":449,"ح":450,"خ":451,"د":452,"ر":453,"ز":454,"س":455,"ش":456,"ص":457,"ط":458,"ع":459,"ف":460,"ق":461,"ك":462,"ل":463,"م":464,"ن":465,"ه":466,"و":467,"ى":468,"ي":469,"َ":470,"ِ":471,"ْ":472,"ی":473,"ा":474,"ං":475,"ක":476,"ග":477,"ත":478,"ද":479,"න":480,"ප":481,"ම":482,"ය":483,"ර":484,"ල":485,"ව":486,"ස":487,"හ":488,"ා":489,"ි":490,"ු":491,"ෙ":492,"ේ":493,"ො":494,"ก":495,"ค":496,"ง":497,"ท":498,"น":499,"พ":500,"ม":501,"ย":502,"ร":503,"ว":504,"ส":505,"อ":506,"ะ":507,"ั":508,"า":509,"ี":510,"เ":511,"ა":512,"ე":513,"ი":514,"Ḩ":515,"ḩ":516,"‎":517,"‏":518,"‐":519,"‒":520,"–":521,"—":522,"―":523,"‘":524,"’":525,"‚":526,"“":527,"”":528,"„":529,"†":530,"•":531,"‪":532,"‬":533,"′":534,"‹":535,"›":536,"⁄":537,"€":538,"₴":539,"←":540,"↑":541,"→":542,"−":543,"√":544,"≡":545,"≤":546,"≥":547,"─":548,"═":549,"▁":550,"█":551,"■":552,"▪":553,"►":554,"▼":555,"◄":556,"◆":557,"●":558,"★":559,"♥":560,"♦":561,"❤":562,"⠀":563,"、":564,"。":565,"『":566,"』":567,"あ":568,"い":569,"お":570,"か":571,"が":572,"き":573,"く":574,"こ":575,"さ":576,"し":577,"す":578,"た":579,"て":580,"で":581,"と":582,"な":583,"に":584,"の":585,"は":586,"び":587,"ま":588,"よ":589,"ら":590,"り":591,"る":592,"れ":593,"を":594,"ア":595,"ィ":596,"イ":597,"ウ":598,"カ":599,"ク":600,"グ":601,"シ":602,"ジ":603,"ス":604,"タ":605,"ッ":606,"テ":607,"ト":608,"ド":609,"フ":610,"ブ":611,"プ":612,"マ":613,"ラ":614,"リ":615,"ル":616,"レ":617,"ロ":618,"ン":619,"・":620,"ー":621,"一":622,"上":623,"下":624,"东":625,"中":626,"主":627,"之":628,"亂":629,"亚":630,"亞":631,"亡":632,"产":633,"人":634,"什":635,"价":636,"伊":637,"会":638,"体":639,"保":640,"信":641,"傲":642,"像":643,"克":644,"公":645,"击":646,"刀":647,"分":648,"利":649,"加":650,"努":651,"匠":652,"卡":653,"反":654,"发":655,"可":656,"司":657,"吉":658,"吼":659,"咆":660,"和":661,"咒":662,"品":663,"哈":664,"哮":665,"嗜":666,"器":667,"国":668,"在":669,"地":670,"坤":671,"城":672,"塑":673,"塔":674,"墨":675,"墮":676,"士":677,"多":678,"大":679,"天":680,"失":681,"奧":682,"女":683,"妃":684,"姆":685,"子":686,"孤":687,"学":688,"守":689,"安":690,"家":691,"寇":692,"寧":693,"寶":694,"將":695,"小":696,"尔":697,"尤":698,"岡":699,"巨":700,"市":701,"师":702,"希":703,"帝":704,"年":705,"应":706,"式":707,"引":708,"志":709,"忘":710,"恐":711,"恩":712,"惡":713,"慍":714,"慢":715,"憎":716,"懼":717,"我":718,"战":719,"托":720,"拉":721,"擊":722,"攻":723,"文":724,"斯":725,"新":726,"日":727,"普":728,"暗":729,"更":730,"會":731,"月":732,"有":733,"未":734,"本":735,"机":736,"杉":737,"杜":738,"杰":739,"松":740,"林":741,"柯":742,"格":743,"梅":744,"梭":745,"椎":746,"楚":747,"模":748,"機":749,"死":750,"沙":751,"泉":752,"法":753,"洛":754,"滅":755,"滿":756,"潘":757,"煞":758,"爾":759,"特":760,"狂":761,"狱":762,"獄":763,"獨":764,"王":765,"珀":766,"瑪":767,"生":768,"用":769,"甲":770,"电":771,"登":772,"的":773,"皇":774,"目":775,"眠":776,"眼":777,"督":778,"石":779,"破":780,"神":781,"稷":782,"穹":783,"简":784,"納":785,"索":786,"縛":787,"罗":788,"羅":789,"翁":790,"翼":791,"老":792,"考":793,"者":794,"聖":795,"能":796,"脊":797,"臣":798,"艾":799,"英":800,"茲":801,"莫":802,"萊":803,"落":804,"葛":805,"蕾":806,"薩":807,"螳":808,"血":809,"行":810,"衛":811,"表":812,"衫":813,"西":814,"角":815,"語":816,"諾":817,"議":818,"议":819,"豐":820,"賈":821,"賽":822,"败":823,"赫":824,"路":825,"軍":826,"达":827,"迪":828,"達":829,"遗":830,"遺":831,"邪":832,"里":833,"金":834,"釜":835,"鋒":836,"鋼":837,"鐵":838,"長":839,"长":840,"隆":841,"雄":842,"雙":843,"雷":844,"靈":845,"領":846,"顱":847,"風":848,"馬":849,"馮":850,"马":851,"魂":852,"魔":853,"鲁":854,"黑":855,"齊":856,"龍":857,"가":858,"갈":859,"강":860,"거":861,"결":862,"곤":863,"공":864,"광":865,"괴":866,"교":867,"구":868,"군":869,"굶":870,"그":871,"기":872,"나":873,"날":874,"너":875,"노":876,"는":877,"다":878,"대":879,"데":880,"덴":881,"돈":882,"두":883,"둥":884,"들":885,"등":886,"디":887,"라":888,"락":889,"랄":890,"람":891,"랙":892,"러":893,"레":894,"령":895,"로":896,"록":897,"론":898,"롱":899,"루":900,"르":901,"리":902,"린":903,"림":904,"만":905,"말":906,"메":907,"멜":908,"모":909,"무":910,"바":911,"박":912,"받":913,"병":914,"블":915,"비":916,"빛":917,"사":918,"샤":919,"석":920,"성":921,"션":922,"셰":923,"셴":924,"속":925,"수":926,"술":927,"쉬":928,"스":929,"시":930,"실":931,"쌍":932,"쓰":933,"아":934,"않":935,"암":936,"야":937,"에":938,"엘":939,"여":940,"영":941,"오":942,"온":943,"왕":944,"요":945,"용":946,"우":947,"운":948,"울":949,"원":950,"위":951,"윙":952,"유":953,"은":954,"의":955,"이":956,"잊":957,"자":958,"잘":959,"잠":960,"장":961,"잿":962,"저":963,"전":964,"제":965,"조":966,"존":967,"주":968,"즈":969,"지":970,"진":971,"철":972,"체":973,"초":974,"출":975,"칼":976,"코":977,"쿤":978,"퀀":979,"크":980,"클":981,"타":982,"토":983,"투":984,"트":985,"파":986,"판":987,"펑":988,"포":989,"품":990,"퓨":991,"프":992,"피":993,"하":994,"한":995,"헬":996,"혀":997,"호":998,"혼":999,"황":1000,"회":1001,"흑":1002,"️":1003,"�":1004,"▁t":1005,"▁a":1006,"he":1007,"in":1008,"re":1009,"▁the":1010,"on":1011,"er":1012,"▁s":1013,"▁w":1014,"▁o":1015,"at":1016,"en":1017,"▁c":1018,"an":1019,"it":1020,"or":1021,"is":1022,"ed":1023,"▁b":1024,"▁f":1025,"es":1026,"▁p":1027,"ing":1028,"ar":1029,"ou":1030,"al":1031,"nd":1032,"▁in":1033,"▁to":1034,"▁of":1035,"▁h":1036,"▁m":1037,"as":1038,"▁d":1039,"▁and":1040,"ic":1041,"le":1042,"ion":1043,"om":1044,"▁th":1045,"ent":1046,"il":1047,"▁T":1048,"id":1049,"▁re":1050,"st":1051,"▁n":1052,"▁l":1053,"ve":1054,"ro":1055,"▁be":1056,"▁S":1057,"▁e":1058,"▁A":1059,"ot":1060,"▁g":1061,"ay":1062,"ly":1063,"▁on":1064,"ut":1065,"▁I":1066,"ac":1067,"▁M":1068,"ad":1069,"▁for":1070,"▁C":1071,"am":1072,"et":1073,"ur":1074,"im":1075,"ol":1076,"ig":1077,"▁is":1078,"▁he":1079,"el":1080,"ow":1081,"▁that":1082,"ec":1083,"ver":1084,"us":1085,"'s":1086,"ir":1087,"▁st":1088,"▁B":1089,"ation":1090,"▁The":1091,"ith":1092,"ter":1093,"▁P":1094,"▁wh":1095,"▁with":1096,"▁y":1097,"▁it":1098,"ill":1099,"ce":1100,"▁as":1101,"▁was":1102,"▁2":1103,"os":1104,"un":1105,"▁H":1106,"ld":1107,"▁1":1108,"▁an":1109,"▁\"":1110,"ers":1111,"▁we":1112,"▁al":1113,"▁W":1114,"▁at":1115,"ul":1116,"ri":1117,"▁R":1118,"ag":1119,"em":1120,"ts":1121,"ch":1122,"▁con":1123,"▁D":1124,"▁r":1125,"her":1126,"▁F":1127,"um":1128,"▁sa":1129,"▁ha":1130,"and":1131,"ke":1132,"ct":1133,"res":1134,"op":1135,"est":1136,"ain":1137,"▁pro":1138,"our":1139,"ore":1140,"th":1141,"igh":1142,"rom":1143,"ate":1144,"▁L":1145,"if":1146,"pp":1147,"▁N":1148,"▁are":1149,"▁com":1150,"ear":1151,"▁E":1152,"▁,":1153,"ew":1154,"▁G":1155,"▁said":1156,"▁by":1157,"00":1158,"▁.":1159,"ess":1160,"▁from":1161,"od":1162,"▁v":1163,"▁have":1164,"ment":1165,"▁ex":1166,"ab":1167,"ity":1168,"▁sh":1169,"ort":1170,"▁-":1171,"s.":1172,"▁his":1173,"s,":1174,"▁not":1175,"ould":1176,"▁has":1177,"▁J":1178,"art":1179,"ust":1180,"ive":1181,"qu":1182,"oc":1183,"▁de":1184,"▁ch":1185,"ist":1186,"ies":1187,"▁su":1188,"▁le":1189,"ap":1190,"▁O":1191,"▁(":1192,"end":1193,"all":1194,"red":1195,"se":1196,"▁se":1197,"ast":1198,"▁u":1199,"▁or":1200,"▁you":1201,"▁U":1202,"ant":1203,"ight":1204,"ak":1205,"ack":1206,"ard":1207,"nt":1208,"▁pl":1209,"e,":1210,"▁sp":1211,"▁tr":1212,"iv":1213,"▁this":1214,"out":1215,"ost":1216,"ect":1217,"01":1218,"▁ab":1219,"ial":1220,"e.":1221,"ud":1222,"▁will":1223,"gh":1224,"ich":1225,"▁j":1226,"▁go":1227,"▁wor":1228,"▁K":1229,"ia":1230,"▁who":1231,"rou":1232,"##":1233,"▁whe":1234,"ell":1235,"ep":1236,"ok":1237,"ome":1238,"▁but":1239,"ff":1240,"▁they":1241,"ber":1242,"▁k":1243,"▁their":1244,"ge":1245,"▁her":1246,"ong":1247,"▁out":1248,"▁had":1249,"ure":1250,"▁int":1251,",\"":1252,"ian":1253,"▁can":1254,"▁ad":1255,"▁In":1256,"▁which":1257,"▁all":1258,"▁year":1259,"ice":1260,"ther":1261,"▁been":1262,"ide":1263,"▁ag":1264,"▁off":1265,"▁do":1266,"ra":1267,"cc":1268,"▁201":1269,"▁ne":1270,"ip":1271,"ous":1272,"▁St":1273,"fter":1274,"▁up":1275,"▁res":1276,"▁cl":1277,"▁were":1278,"▁comp":1279,"▁un":1280,"ub":1281,"are":1282,"▁Th":1283,"▁us":1284,"ated":1285,"ally":1286,"'t":1287,"one":1288,"ie":1289,"▁more":1290,"ry":1291,"ary":1292,"age":1293,"▁about":1294,"▁she":1295,"ond":1296,"▁im":1297,"ake":1298,"so":1299,"▁It":1300,"per":1301,"ord":1302,"▁man":1303,"ine":1304,"▁inc":1305,"ign":1306,"▁would":1307,"▁after":1308,"ions":1309,"▁en":1310,"▁tim":1311,"ans":1312,"▁cont":1313,"▁per":1314,"▁Ch":1315,"▁me":1316,"act":1317,"ind":1318,"▁pe":1319,"▁one":1320,"og":1321,"very":1322,"ru":1323,"ame":1324,"ile":1325,"▁rep":1326,"mer":1327,"ire":1328,"▁its":1329,"ident":1330,"ike":1331,"▁over":1332,"▁also":1333,"ue":1334,"▁so":1335,"pt":1336,"▁3":1337,"ount":1338,"ople":1339,"ail":1340,"ose":1341,"ere":1342,"ark":1343,"▁part":1344,"▁V":1345,"▁dis":1346,"av":1347,"own":1348,"▁'":1349,"ook":1350,"▁new":1351,"lic":1352,"ance":1353,"day":1354,"ish":1355,"▁pol":1356,"ress":1357,"old":1358,"ence":1359,"able":1360,"ace":1361,"ib":1362,"ven":1363,"▁tw":1364,"▁He":1365,"▁people":1366,"▁app":1367,"▁when":1368,"▁than":1369,"▁Y":1370,"ite":1371,"▁say":1372,"▁work":1373,"orm":1374,"ass":1375,"iz":1376,"▁there":1377,"▁fir":1378,"▁ar":1379,"es,":1380,"uc":1381,"AT":1382,"lo":1383,"es.":1384,"▁qu":1385,"▁rec":1386,"ical":1387,"ree":1388,"▁other":1389,"▁ro":1390,"▁Tr":1391,"vel":1392,"ach":1393,"▁acc":1394,"ump":1395,"▁bec":1396,"ition":1397,"ound":1398,"▁sc":1399,"ick":1400,"▁exp":1401,"ild":1402,"ang":1403,"▁like":1404,"ult":1405,"reat":1406,"ations":1407,"ction":1408,"ough":1409,"▁them":1410,"▁into":1411,"##AT":1412,"##AT##":1413,"ens":1414,"ov":1415,"▁imp":1416,"oin":1417,"y,":1418,"hed":1419,"ek":1420,"ne":1421,"aus":1422,"amp":1423,"ict":1424,"rit":1425,"▁first":1426,"ning":1427,"▁pre":1428,"ove":1429,"▁two":1430,"▁our":1431,"▁ser":1432,"wn":1433,"ade":1434,"▁just":1435,"ink":1436,"anc":1437,"▁him":1438,"▁att":1439,"▁some":1440,"▁Mr":1441,"rop":1442,"ed.":1443,"iss":1444,"ll":1445,"nder":1446,"▁kn":1447,"▁said.":1448,"▁te":1449,"▁But":1450,"▁play":1451,"▁what":1452,"▁4":1453,"▁am":1454,"▁pr":1455,"▁no":1456,"▁your":1457,"▁time":1458,"ational":1459,"ng":1460,"itt":1461,"▁any":1462,"y.":1463,"man":1464,"n't":1465,"▁could":1466,"▁my":1467,"ors":1468,"..":1469,"▁Trump":1470,"aw":1471,"▁dec":1472,"▁19":1473,"▁get":1474,"form":1475,"▁inv":1476,"▁Un":1477,"▁0":1478,"▁sec":1479,"▁We":1480,"▁if":1481,"▁5":1482,"▁200":1483,"**":1484,"ase":1485,"ious":1486,"tern":1487,"oun":1488,"▁again":1489,"oll":1490,"fore":1491,"▁back":1492,"resident":1493,"ob":1494,"ft":1495,"▁last":1496,"lud":1497,"we":1498,"uss":1499,"land":1500,"▁now":1501,"▁day":1502,"ater":1503,"ublic":1504,"ause":1505,"vers":1506,"▁comm":1507,"▁co":1508,"▁under":1509,"way":1510,"und":1511,"▁bet":1512,"▁count":1513,"li":1514,"ates":1515,"round":1516,"urn":1517,"ents":1518,"▁only":1519,"▁reg":1520,"▁act":1521,"rough":1522,".\"":1523,"ood":1524,"▁add":1525,"ren":1526,"enc":1527,"▁And":1528,"vern":1529,"▁bl":1530,"▁how":1531,"ons":1532,"hing":1533,"ock":1534,"▁des":1535,"ory":1536,"ings":1537,"ities":1538,"▁ind":1539,"▁includ":1540,"▁cons":1541,"▁&":1542,"▁most":1543,"▁show":1544,"ank":1545,"uring":1546,"▁week":1547,"▁Wh":1548,"▁fe":1549,"▁supp":1550,"▁fin":1551,"▁As":1552,"ating":1553,"▁did":1554,"other":1555,"▁rem":1556,"a,":1557,"te":1558,"iew":1559,"▁mon":1560,"▁10":1561,"ton":1562,"▁before":1563,"air":1564,"ath":1565,"▁cent":1566,"▁New":1567,"▁need":1568,"er,":1569,"ual":1570,"arg":1571,"fere":1572,"▁$":1573,"tt":1574,"row":1575,"ise":1576,"illion":1577,"ed,":1578,"▁being":1579,"▁pos":1580,"ful":1581,"aking":1582,"omm":1583,"▁Eu":1584,"▁\"I":1585,"▁where":1586,"ince":1587,"▁em":1588,"ement":1589,"▁6":1590,"ram":1591,"hn":1592,"vernment":1593,"▁lead":1594,"▁because":1595,"ited":1596,"ues":1597,"▁call":1598,"▁way":1599,"▁This":1600,"▁br":1601,"az":1602,"▁should":1603,"ing,":1604,"▁look":1605,"▁min":1606,"xt":1607,"lin":1608,"elf":1609,"oy":1610,"▁car":1611,"▁years":1612,"▁make":1613,"ved":1614,"▁ac":1615,"▁Europ":1616,"▁offic":1617,"▁rel":1618,"ing.":1619,"ork":1620,"ool":1621,"ward":1622,"hen":1623,"▁fl":1624,"▁told":1625,"▁very":1626,"▁even":1627,"▁ev":1628,"▁every":1629,"▁Ar":1630,"▁bu":1631,"▁fam":1632,"▁through":1633,"ble":1634,"▁ph":1635,"ember":1636,"▁well":1637,"▁against":1638,"lect":1639,"ral":1640,"▁ass":1641,"▁made":1642,"du":1643,"ting":1644,"▁report":1645,"ouse":1646,"alk":1647,"lp":1648,"▁down":1649,"up":1650,"▁7":1651,"▁want":1652,"ean":1653,"led":1654,"▁ear":1655,"uch":1656,"000":1657,"ied":1658,"▁know":1659,"▁many":1660,"ason":1661,"▁\"T":1662,"▁Fr":1663,"▁may":1664,"▁end":1665,"au":1666,"con":1667,"ax":1668,"▁cr":1669,"▁world":1670,"▁long":1671,"▁def":1672,"ily":1673,"▁three":1674,"roup":1675,"▁compan":1676,"▁then":1677,"▁wom":1678,"▁own":1679,"▁Le":1680,"▁sur":1681,"▁Rep":1682,"▁help":1683,"▁cap":1684,"▁Sp":1685,"ased":1686,"▁think":1687,"oot":1688,"les":1689,"ving":1690,"gan":1691,"▁while":1692,"▁Mar":1693,"▁found":1694,"▁set":1695,"▁child":1696,"ative":1697,"erson":1698,"ures":1699,"oint":1700,"▁month":1701,"▁ke":1702,"▁ter":1703,"▁sy":1704,"▁##AT##":1705,"▁op":1706,"▁bel":1707,"▁those":1708,"-##AT##":1709,"▁##AT##-##AT##":1710,"▁Ph":1711,"als":1712,"▁government":1713,"ather":1714,"ert":1715,"ix":1716,"ible":1717,"▁lif":1718,"▁don":1719,"▁dif":1720,"▁take":1721,"▁Re":1722,"▁ret":1723,"hip":1724,"ween":1725,"▁such":1726,"meric":1727,"com":1728,"ros":1729,"ular":1730,"▁She":1731,"▁high":1732,"ron":1733,"▁resp":1734,"rib":1735,"io":1736,"▁sm":1737,"▁invest":1738,"▁Russ":1739,"▁med":1740,",000":1741,"▁good":1742,"▁between":1743,"ern":1744,"gg":1745,"▁win":1746,"▁ins":1747,"▁it's":1748,"ters":1749,"▁str":1750,"ared":1751,"alth":1752,"ner":1753,"▁see":1754,"ower":1755,"ash":1756,"▁during":1757,"▁8":1758,"ants":1759,"▁cour":1760,"son":1761,"▁Al":1762,"orts":1763,"a.":1764,"▁much":1765,"oth":1766,"ility":1767,"ific":1768,"▁start":1769,"ener":1770,"ists":1771,"▁these":1772,"▁Americ":1773,"ime":1774,"▁An":1775,"▁prov":1776,"▁mark":1777,"▁ent":1778,"▁conc":1779,"ric":1780,"▁team":1781,"▁cur":1782,"-y":1783,"irect":1784,"▁bus":1785,"ollow":1786,"▁eff":1787,"ange":1788,"▁still":1789,"▁#":1790,"olog":1791,"duc":1792,"ision":1793,"ject":1794,"▁stud":1795,"ution":1796,"▁I'":1797,"velop":1798,"▁sub":1799,"▁gr":1800,"ott":1801,"▁Sc":1802,"▁since":1803,"▁conf":1804,"ered":1805,"▁num":1806,"ull":1807,"'re":1808,"▁sign":1809,"▁12":1810,"▁country":1811,"▁law":1812,"ty":1813,"ah":1814,"▁war":1815,"▁serv":1816,"get":1817,"▁disc":1818,"iel":1819,"▁group":1820,"▁Is":1821,"▁going":1822,"ave":1823,"▁Sh":1824,"▁trans":1825,"▁President":1826,"▁gu":1827,"▁20":1828,"▁Comm":1829,"ital":1830,"ounc":1831,"-year":1832,"iness":1833,"▁May":1834,"min":1835,"▁For":1836,"▁around":1837,"ms":1838,"▁They":1839,"ording":1840,"atch":1841,"▁9":1842,"ady":1843,"ments":1844,"▁vot":1845,"▁public":1846,"omet":1847,"ever":1848,"hes":1849,"lear":1850,"▁ext":1851,"▁right":1852,"stem":1853,"▁You":1854,"leg":1855,"▁four":1856,"▁bo":1857,"rent":1858,"pr":1859,"ights":1860,"er.":1861,"▁US":1862,"▁support":1863,"▁follow":1864,"▁dep":1865,"▁ref":1866,"▁inter":1867,"orn":1868,"med":1869,"▁loc":1870,"▁leg":1871,"▁head":1872,"ices":1873,"▁col":1874,"riv":1875,"▁polit":1876,"o,":1877,"▁run":1878,"▁inst":1879,"▁aut":1880,"▁second":1881,"▁says":1882,"▁including":1883,"chool":1884,"ef":1885,"▁stat":1886,"▁spec":1887,"ik":1888,"aj":1889,"▁hand":1890,"ised":1891,"ister":1892,"ission":1893,"ug":1894,"▁Aust":1895,"▁iss":1896,"ling":1897,"▁det":1898,"ism":1899,"▁There":1900,"▁ob":1901,"ex":1902,"orth":1903,"▁camp":1904,"ives":1905,"▁million":1906,"▁though":1907,"▁plan":1908,"▁does":1909,"its":1910,"▁open":1911,"att":1912,"conom":1913,"▁big":1914,"▁develop":1915,"ale":1916,"▁exper":1917,"ys":1918,"▁air":1919,"resent":1920,"outh":1921,"//":1922,"cent":1923,"ness":1924,"201":1925,"▁put":1926,"-b":1927,"▁don't":1928,"▁prog":1929,"ration":1930,"▁happ":1931,"▁11":1932,"▁person":1933,"ee":1934,"▁sl":1935,"▁Jo":1936,"emb":1937,"▁great":1938,"ivers":1939,"▁state":1940,"▁spe":1941,"erv":1942,":0":1943,"▁On":1944,"▁contin":1945,"ying":1946,"▁\"The":1947,"ck":1948,"ient":1949,"urs":1950,"pl":1951,"▁system":1952,"riend":1953,"▁prot":1954,"▁2016":1955,"ross":1956,"ttp":1957,"▁use":1958,"▁real":1959,"▁home":1960,"▁next":1961,"▁belie":1962,"▁vis":1963,"▁If":1964,"▁direct":1965,"ected":1966,"iet":1967,"▁Brit":1968,"ually":1969,"▁president":1970,"://":1971,"S.":1972,"▁tri":1973,"▁opp":1974,"-t":1975,"▁European":1976,"▁ann":1977,"ph":1978,"▁find":1979,"▁ask":1980,"rem":1981,"▁soc":1982,"▁same":1983,"▁requ":1984,"ield":1985,"▁U.":1986,"▁both":1987,"▁Z":1988,"▁market":1989,"sh":1990,"ly,":1991,"view":1992,"▁adv":1993,"ina":1994,"▁pass":1995,"▁15":1996,"▁another":1997,"aim":1998,"▁fil":1999,"▁attack":2000,"ention":2001,"▁left":2002,":1":2003,"▁che":2004,"▁care":2005,"rat":2006,"ics":2007,"▁Austral":2008,"ttp://":2009,"▁differe":2010,"-old":2011,"??":2012,"lection":2013,"eng":2014,"▁rest":2015,"▁mod":2016,"ers,":2017,"▁\"W":2018,"▁inform":2019,"▁police":2020,"iday":2021,"▁children":2022,"▁business":2023,"▁That":2024,"atur":2025,"▁Con":2026,"▁meet":2027,"▁incre":2028,"▁best":2029,"▁econom":2030,"▁Min":2031,"▁far":2032,"▁bro":2033,"o.":2034,"▁Sy":2035,"ret":2036,"ier":2037,"▁near":2038,"▁dem":2039,"▁official":2040,"ames":2041,"cept":2042,"▁pay":2043,"▁poss":2044,"app":2045,"▁women":2046,"▁inf":2047,"ute":2048,"-f":2049,"ternational":2050,"▁cre":2051,"▁Ð":2052,"),":2053,"ished":2054,"▁former":2055,"▁partic":2056,"ience":2057,"der":2058,"▁How":2059,"▁used":2060,"▁£":2061,"▁come":2062,"▁number":2063,"▁current":2064,"▁post":2065,"ers.":2066,"▁polic":2067,"ages":2068,":3":2069,"▁somet":2070,"ation.":2071,"▁mil":2072,"akes":2073,"▁sim":2074,"▁met":2075,"▁import":2076,"▁proc":2077,"-year-old":2078,"ned":2079,"▁fac":2080,"▁U.S.":2081,"▁here":2082,"▁top":2083,"▁Q":2084,"▁really":2085,"ird":2086,"▁bre":2087,"▁:":2088,"▁del":2089,"ament":2090,"self":2091,"▁school":2092,"▁recent":2093,"▁city":2094,"▁At":2095,"rap":2096,"hor":2097,"▁night":2098,"aff":2099,"▁United":2100,"ured":2101,"ten":2102,"▁par":2103,"▁18":2104,"port":2105,"aign":2106,"▁season":2107,"▁stand":2108,"▁Br":2109,"gy":2110,"▁health":2111,"▁feel":2112,"ired":2113,"ects":2114,"▁beh":2115,"oss":2116,"▁company":2117,"▁Republic":2118,"▁It's":2119,"otel":2120,"▁claim":2121,"ation,":2122,"alf":2123,"▁Mr.":2124,"▁percent":2125,"▁av":2126,"▁gener":2127,"ody":2128,":2":2129,"augh":2130,"▁prev":2131,"▁must":2132,"line":2133,"apos":2134,"▁dri":2135,"arge":2136,"▁star":2137,"▁Im":2138,"apos;":2139,"▁&apos;":2140,"▁quest":2141,"erest":2142,"ald":2143,"▁[":2144,"▁family":2145,"ple":2146,"▁campaign":2147,"▁Pr":2148,"▁called":2149,"▁Pro":2150,"earch":2151,"▁got":2152,"ense":2153,"▁Par":2154,"▁few":2155,"ained":2156,"echn":2157,"▁Be":2158,"▁allow":2159,"ecut":2160,"▁deal":2161,"▁never":2162,"▁according":2163,":4":2164,"iving":2165,"▁Ad":2166,"▁Chr":2167,"ajor":2168,"▁prom":2169,"▁comple":2170,"▁hum":2171,"ines":2172,"-1":2173,"▁five":2174,"-s":2175,"▁manag":2176,"unity":2177,"▁took":2178,"▁cor":2179,"▁oper":2180,"ries":2181,"▁fact":2182,"ets":2183,"▁sit":2184,"ed:":2185,"▁proble":2186,"▁build":2187,"▁place":2188,"urity":2189,"▁young":2190,"▁turn":2191,"ittle":2192,"▁sk":2193,"ww":2194,"▁Mc":2195,").":2196,"ering":2197,"▁hop":2198,"osed":2199,"▁main":2200,"▁program":2201,"▁--":2202,"eb":2203,"▁fore":2204,"▁without":2205,"ted":2206,"ency":2207,"▁ris":2208,"▁art":2209,"▁point":2210,"▁Ind":2211,":5":2212,"uck":2213,"▁Man":2214,"nes":2215,"-c":2216,"▁Pol":2217,"▁friend":2218,"▁mov":2219,"▁away":2220,"▁prof":2221,"▁Car":2222,"▁lot":2223,"ves":2224,"▁life":2225,"ract":2226,"▁kill":2227,"▁contro":2228,"▁interest":2229,"less":2230,"loy":2231,"▁...":2232,"▁est":2233,"▁Eng":2234,"▁pop":2235,"▁talk":2236,"▁ed":2237,"▁dist":2238,"aken":2239,"▁rele":2240,"ially":2241,"ional":2242,"▁14":2243,"▁unt":2244,"▁)":2245,"ection":2246,"▁view":2247,"an,":2248,"ces":2249,"▁chang":2250,"iven":2251,"ically":2252,"▁different":2253,"▁John":2254,"ways":2255,"ains":2256,"▁hard":2257,"▁clear":2258,"▁move":2259,"esp":2260,"▁grow":2261,"▁might":2262,"▁came":2263,"ney":2264,"▁2015":2265,"▁organ":2266,"▁power":2267,"▁men":2268,"▁produ":2269,"▁stre":2270,"on,":2271,"▁tax":2272,"-p":2273,"▁said:":2274,"ia,":2275,"ertain":2276,"▁25":2277,"▁cost":2278,"▁York":2279,"▁rece":2280,"▁form":2281,"nce":2282,"▁major":2283,"▁Ro":2284,"yp":2285,"▁each":2286,"▁job":2287,"▁later":2288,"▁aff":2289,"by":2290,"▁expl":2291,"ins":2292,"ided":2293,"▁16":2294,"▁cond":2295,"▁keep":2296,"artment":2297,"▁room":2298,"▁old":2299,"▁13":2300,"▁All":2301,"▁produc":2302,"▁past":2303,"▁hour":2304,"▁less":2305,"ury":2306,"ready":2307,"▁investig":2308,"▁level":2309,"▁Go":2310,"▁important":2311,"▁news":2312,"▁/":2313,"▁deb":2314,"▁little":2315,"▁UK":2316,"ator":2317,"▁Ger":2318,"aid":2319,"▁too":2320,"▁30":2321,"▁political":2322,"side":2323,"▁something":2324,"ief":2325,"▁When":2326,"▁House":2327,"here":2328,"ev":2329,"▁appro":2330,"osp":2331,"▁fund":2332,"ccess":2333,"▁won":2334,"ror":2335,"ann":2336,"▁six":2337,"a's":2338,"▁hist":2339,"▁vict":2340,"▁better":2341,"reen":2342,"▁already":2343,"inc":2344,"▁sw":2345,"▁seem":2346,"▁American":2347,"▁Am":2348,"▁I'm":2349,"▁small":2350,"ior":2351,"iversity":2352,"▁http://":2353,"oney":2354,"enn":2355,"ature":2356,"▁seen":2357,"▁North":2358,"inal":2359,"-m":2360,"▁So":2361,"▁it.":2362,"▁capt":2363,"▁EU":2364,"▁hom":2365,"▁exc":2366,"▁Bl":2367,"▁process":2368,"▁ve":2369,"▁Bar":2370,"iver":2371,"▁return":2372,"aining":2373,"▁Jan":2374,"▁mus":2375,"ized":2376,"▁national":2377,"▁prop":2378,"ech":2379,"****":2380,"▁techn":2381,"▁17":2382,"▁press":2383,"▁mar":2384,"▁social":2385,"▁elect":2386,"▁+":2387,"ands":2388,"iting":2389,"ched":2390,"▁phot":2391,"thing":2392,"ley":2393,"▁author":2394,"▁always":2395,"▁game":2396,"▁South":2397,"embers":2398,"▁information":2399,"▁event":2400,"ality":2401,"▁Lond":2402,"▁sol":2403,"br":2404,"▁Don":2405,"ending":2406,"▁Russian":2407,"▁didn't":2408,"ately":2409,"▁free":2410,"20":2411,"▁perform":2412,"▁Friday":2413,"▁list":2414,"▁sing":2415,"▁pat":2416,"▁char":2417,"▁record":2418,"▁until":2419,"▁mat":2420,"▁went":2421,"▁el":2422,"▁equ":2423,"day,":2424,"▁“":2425,"▁able":2426,"ium":2427,"▁cas":2428,"aring":2429,"▁local":2430,"▁stru":2431,"ham":2432,"▁Mond":2433,"▁days":2434,"▁death":2435,"▁let":2436,"ster":2437,"▁tra":2438,"▁happen":2439,"▁Cl":2440,"ocrat":2441,"▁eas":2442,"ived":2443,"urg":2444,"▁Can":2445,"▁Wed":2446,"▁dr":2447,"▁Jun":2448,"eg":2449,"▁Tw":2450,"▁Sund":2451,"▁agre":2452,"irl":2453,"bs":2454,"eder":2455,"ouncil":2456,"▁Monday":2457,"▁Pl":2458,"lish":2459,"ption":2460,"▁stop":2461,"▁const":2462,"-d":2463,"▁working":2464,"▁become":2465,"▁having":2466,"▁crit":2467,"▁whether":2468,"ploy":2469,"▁water":2470,"▁foot":2471,"▁fut":2472,"▁saf":2473,"▁2014":2474,"▁house":2475,"▁taken":2476,"iol":2477,"▁sex":2478,"▁Christ":2479,"ever,":2480,"▁ide":2481,"▁Sunday":2482,"▁One":2483,"used":2484,"▁21":2485,"▁Cent":2486,"▁Dem":2487,"▁Co":2488,"'ve":2489,"be":2490,"▁bas":2491,"▁Dav":2492,"▁Tues":2493,"▁milit":2494,"▁court":2495,"aut":2496,"ising":2497,"ended":2498,"▁trad":2499,"▁German":2500,"gin":2501,"2.":2502,"▁tour":2503,"▁val":2504,"▁indust":2505,"▁miss":2506,"▁across":2507,"ably":2508,"ept":2509,"▁among":2510,"▁making":2511,"▁sent":2512,"▁give":2513,"▁appear":2514,"rest":2515,"▁least":2516,"le,":2517,"▁following":2518,"els":2519,"▁half":2520,"over":2521,"▁book":2522,"▁media":2523,"▁early":2524,"▁success":2525,"ued":2526,"pped":2527,"▁inj":2528,"ball":2529,"▁compet":2530,"eal":2531,"▁statement":2532,"idence":2533,"ai":2534,"2,":2535,"▁'I":2536,"ison":2537,"▁invol":2538,"▁cut":2539,"▁design":2540,"▁full":2541,"aun":2542,"▁mom":2543,"▁along":2544,"ague":2545,"uge":2546,"▁Thurs":2547,"▁international":2548,"af":2549,"▁priv":2550,"▁dat":2551,"▁given":2552,"stand":2553,"▁Dec":2554,"ele":2555,"▁human":2556,"▁Or":2557,"ies,":2558,"▁\"We":2559,"idd":2560,"▁decision":2561,"▁Wednes":2562,"▁State":2563,"▁said,":2564,"▁special":2565,"▁What":2566,"▁hold":2567,"▁cust":2568,"▁case":2569,"▁With":2570,"▁short":2571,"▁concern":2572,"▁large":2573,"▁election":2574,"orld":2575,"▁future":2576,"ider":2577,"▁close":2578,"ies.":2579,"m.":2580,"▁Ob":2581,"▁After":2582,"▁writ":2583,"▁security":2584,"▁tell":2585,"▁Commission":2586,"▁plac":2587,"▁things":2588,"ront":2589,"10":2590,"ars":2591,"▁activ":2592,"▁within":2593,"ony":2594,"▁National":2595,"▁possible":2596,"▁fail":2597,"▁final":2598,"ran":2599,"▁financ":2600,"▁fur":2601,"▁Russia":2602,"▁read":2603,"most":2604,"▁test":2605,"ung":2606,"▁bank":2607,"▁Ju":2608,"▁strong":2609,"50":2610,"▁City":2611,"▁question":2612,"▁vide":2613,"imes":2614,"▁sever":2615,"the":2616,"▁sal":2617,"▁members":2618,"day.":2619,"▁AM":2620,"▁sugg":2621,"▁Satur":2622,"▁third":2623,"▁ben":2624,"▁Ex":2625,"ize":2626,"▁risk":2627,"work":2628,"▁(00":2629,"▁visit":2630,"▁199":2631,"...":2632,"oci":2633,"▁Com":2634,"usp":2635,"liament":2636,"▁London":2637,"▁Sec":2638,"ts,":2639,"▁Har":2640,"▁sum":2641,"rew":2642,"▁particular":2643,"▁order":2644,"▁PM":2645,"iam":2646,"▁months":2647,"ware":2648,"▁poin":2649,"▁change":2650,"▁Post":2651,"▁famil":2652,"ife":2653,"e,\"":2654,"▁love":2655,"▁****":2656,"co":2657,"▁reported":2658,"▁several":2659,"ead":2660,"ards":2661,"▁ra":2662,"▁States":2663,"▁club":2664,"▁known":2665,"1.":2666,"gether":2667,"▁together":2668,"7,":2669,"for":2670,"alif":2671,"/201":2672,"ger":2673,"▁times":2674,"raw":2675,"▁To":2676,"▁enc":2677,"▁March":2678,"▁why":2679,"▁pot":2680,"▁Ed":2681,"ians":2682,"▁present":2683,"▁Af":2684,"ential":2685,"▁West":2686,"▁travel":2687,"▁party":2688,"▁pres":2689,"▁proper":2690,"elt":2691,"▁desc":2692,"aster":2693,"▁Ab":2694,"▁countries":2695,"▁money":2696,"lob":2697,"▁Oct":2698,"▁hotel":2699,"▁Clin":2700,"let":2701,"▁fight":2702,"▁hit":2703,"iron":2704,"ective":2705,"▁result":2706,"ored":2707,"ane":2708,"ried":2709,"ts.":2710,"arm":2711,"iously":2712,"▁British":2713,"aren":2714,"▁ap":2715,"ides":2716,"▁alleg":2717,"BC":2718,"▁Apr":2719,"s,\"":2720,"▁gl":2721,"▁stay":2722,"▁Ge":2723,"i,":2724,"▁24":2725,"▁Trump's":2726,"▁mor":2727,"sel":2728,"lement":2729,"minist":2730,"▁Col":2731,"ograp":2732,"▁rul":2733,"▁fire":2734,"▁mother":2735,"▁spok":2736,"▁impro":2737,"▁Sen":2738,"▁often":2739,"▁Kore":2740,"▁thought":2741,"head":2742,"▁using":2743,"▁charg":2744,"ument":2745,"▁woman":2746,"▁thing":2747,"▁believe":2748,"▁ever":2749,"▁23":2750,"▁taking":2751,"ference":2752,"▁cou":2753,"▁Inst":2754,"▁Sw":2755,"▁enough":2756,"▁saying":2757,"fic":2758,"-h":2759,"▁susp":2760,"▁currently":2761,"▁once":2762,"▁walk":2763,"▁viol":2764,"ush":2765,"▁asked":2766,"urch":2767,"▁fun":2768,"ashing":2769,"▁po":2770,"▁World":2771,"▁Democrat":2772,"▁Se":2773,"▁treat":2774,"▁hig":2775,"▁access":2776,"▁threat":2777,"right":2778,"itions":2779,"▁course":2780,"▁Image":2781,"▁year.":2782,"▁likely":2783,"rug":2784,"▁area":2785,"▁reve":2786,"▁Phone":2787,"iqu":2788,"▁low":2789,"▁custom":2790,"▁word":2791,"▁minut":2792,"▁year,":2793,"▁His":2794,"ring":2795,"9,":2796,"▁kind":2797,"▁fall":2798,"hel":2799,"lished":2800,"aly":2801,"▁film":2802,"itive":2803,"▁ant":2804,"rown":2805,"▁further":2806,"▁mess":2807,"▁rights":2808,"▁employ":2809,"▁food":2810,"▁development":2811,"▁Sept":2812,"▁break":2813,"itted":2814,"▁certain":2815,"▁relations":2816,"▁behind":2817,"▁China":2818,"▁Clinton":2819,"▁occ":2820,"uary":2821,"▁control":2822,"▁black":2823,"▁side":2824,"▁held":2825,"▁Obam":2826,"▁dev":2827,"room":2828,"▁Ass":2829,"▁Dep":2830,"▁Su":2831,"▁–":2832,"ged":2833,"▁yet":2834,"of":2835,"▁avail":2836,"aul":2837,"▁\"It":2838,"ont":2839,"▁eng":2840,"▁live":2841,"quot":2842,"▁problem":2843,"-l":2844,"▁Mus":2845,"▁cho":2846,"por":2847,"8,":2848,"▁Gu":2849,"▁University":2850,"▁typ":2851,"itional":2852,"▁dou":2853,"▁policy":2854,"▁Australia":2855,"▁Aug":2856,"aps":2857,"▁Europe":2858,"▁wr":2859,"▁girl":2860,"not":2861,"ion.":2862,"ology":2863,"lier":2864,"▁Syri":2865,"quot;":2866,"▁tre":2867,"▁bar":2868,"▁wro":2869,"▁land":2870,"ly.":2871,"ified":2872,"ural":2873,"men":2874,"▁neg":2875,"▁Bre":2876,"par":2877,"▁&quot;":2878,"my":2879,"ced":2880,"▁stri":2881,"cher":2882,"200":2883,"aur":2884,"wards":2885,"ecutive":2886,"▁face":2887,"imate":2888,"1,":2889,"ox":2890,"hern":2891,"▁situ":2892,"▁cop":2893,"▁discuss":2894,"▁wind":2895,"▁pub":2896,"▁billion":2897,"▁April":2898,"ospital":2899,"acy":2900,"▁Minister":2901,"▁that's":2902,"▁mean":2903,"ion,":2904,"▁bit":2905,"▁De":2906,"▁comes":2907,"▁suff":2908,"30":2909,"lam":2910,"ats":2911,"▁\"A":2912,"ivid":2913,"▁economic":2914,"iod":2915,"▁military":2916,"▁lo":2917,"ones":2918,"▁almost":2919,"▁Donald":2920,"▁tem":2921,"▁class":2922,"▁gam":2923,"▁chall":2924,"▁meeting":2925,"lobal":2926,".com":2927,"▁2013":2928,"ability":2929,"▁meas":2930,"▁service":2931,"ederal":2932,"mber":2933,"sp":2934,"▁50":2935,"▁host":2936,"▁ple":2937,"▁staff":2938,"6,":2939,"▁looking":2940,"▁front":2941,"▁sure":2942,"ulation":2943,"yl":2944,"-w":2945,"▁var":2946,"▁lear":2947,"’s":2948,"hic":2949,"fort":2950,"▁net":2951,"▁Will":2952,"oke":2953,"▁shot":2954,"or,":2955,"▁financial":2956,"▁line":2957,"▁expect":2958,"▁moment":2959,"▁join":2960,"▁jud":2961,"▁Med":2962,"▁foc":2963,"▁flo":2964,"iber":2965,"▁announc":2966,"arter":2967,"ovember":2968,"▁name":2969,"/1":2970,"▁lost":2971,"▁January":2972,"▁David":2973,"▁Gr":2974,"▁fre":2975,"int":2976,"▁data":2977,"▁light":2978,"rict":2979,"▁ball":2980,":00":2981,"▁suggest":2982,"atic":2983,"▁sn":2984,"▁administ":2985,"al,":2986,"▁Res":2987,"▁fig":2988,"▁#1":2989,"ibility":2990,"▁Just":2991,"▁trying":2992,"▁White":2993,"viron":2994,"yn":2995,"▁project":2996,"▁November":2997,"▁caus":2998,"▁started":2999,"▁England":3000,"▁available":3001,"▁ens":3002,"ances":3003,"▁players":3004,"▁Dr":3005,"▁bring":3006,"ourn":3007,"▁role":3008,"ither":3009,"ober":3010,"▁represent":3011,"▁due":3012,"lex":3013,"▁Council":3014,"▁can't":3015,"▁«":3016,"▁fav":3017,"▁getting":3018,"▁Off":3019,"▁Fl":3020,"▁No":3021,"▁September":3022,"▁expected":3023,"▁Tur":3024,"▁describ":3025,"-0":3026,"aged":3027,"omin":3028,"▁ident":3029,"though":3030,"ming":3031,"▁100":3032,"▁action":3033,"▁heart":3034,"▁share":3035,"▁Her":3036,"▁doing":3037,"▁late":3038,"▁Bel":3039,"▁Ang":3040,"▁means":3041,"▁period":3042,"▁leaders":3043,"▁reveal":3044,"▁opport":3045,"che":3046,"ourt":3047,"▁chief":3048,"▁targ":3049,"▁hope":3050,"▁Part":3051,"▁drug":3052,"vironment":3053,"▁&apos;s":3054,"▁tot":3055,"▁lim":3056,"▁cult":3057,"ene":3058,"▁account":3059,"▁cand":3060,"▁pict":3061,"▁wa":3062,"▁experience":3063,"▁industry":3064,"▁imm":3065,"ruct":3066,"ecess":3067,"▁respons":3068,"ficult":3069,"▁position":3070,"▁services":3071,"▁laun":3072,"▁officials":3073,"▁»":3074,"▁Police":3075,"ressed":3076,"▁22":3077,"▁Feb":3078,"▁conv":3079,"▁bill":3080,"▁War":3081,"▁profess":3082,"kn":3083,"▁step":3084,"ults":3085,"▁June":3086,"go":3087,"▁father":3088,"▁doesn't":3089,"amed":3090,"▁2010":3091,"▁Now":3092,"▁private":3093,"▁pri":3094,"ery":3095,"▁Phot":3096,"▁benef":3097,"ilar":3098,"asing":3099,"'ll":3100,"▁field":3101,"ashington":3102,"▁My":3103,"ories":3104,"7.":3105,"▁(1":3106,"ensive":3107,"▁outside":3108,"oon":3109,"▁October":3110,"▁companies":3111,"raft":3112,"ounter":3113,"▁Cor":3114,"▁doc":3115,"▁difficult":3116,"▁reason":3117,"▁terror":3118,"▁Britain":3119,"▁done":3120,"▁December":3121,"aughter":3122,"▁pract":3123,"ests":3124,"▁himself":3125,"▁While":3126,"▁ener":3127,"▁forward":3128,"▁ground":3129,"▁based":3130,"akh":3131,"▁today":3132,"epend":3133,"▁Geor":3134,"▁examp":3135,"▁attem":3136,"irc":3137,"▁quick":3138,"▁wanted":3139,"▁research":3140,"▁commun":3141,"▁ey":3142,"ateg":3143,"▁legal":3144,"▁morning":3145,"▁video":3146,"rench":3147,"▁Union":3148,"▁director":3149,"▁emer":3150,"▁\"S":3151,"ks":3152,"▁saw":3153,"▁Washington":3154,"▁pain":3155,"isc":3156,"▁body":3157,"off":3158,"▁makes":3159,"▁adm":3160,"▁road":3161,"▁non":3162,"joy":3163,"ows":3164,"▁lat":3165,"▁El":3166,"▁understand":3167,"er's":3168,"▁leave":3169,"▁dead":3170,"▁arrest":3171,"▁detail":3172,"▁community":3173,"▁super":3174,"▁cele":3175,"▁interview":3176,"▁rac":3177,"▁(00:0":3178,"▁became":3179,"▁fell":3180,"▁Pet":3181,"▁key":3182,"▁Acc":3183,"▁foreign":3184,"ivil":3185,"▁Lab":3186,"aving":3187,"itter":3188,"verage":3189,"al.":3190,"▁arg":3191,"▁continue":3192,"reme":3193,"mp":3194,"en,":3195,"rain":3196,"▁hours":3197,"▁confir":3198,"▁coming":3199,"duct":3200,"▁init":3201,"amer":3202,"ares":3203,"▁town":3204,"▁Pal":3205,"ael":3206,"▁red":3207,"ners":3208,"▁Mich":3209,"▁Court":3210,"▁series":3211,"urd":3212,"i-":3213,"▁Ag":3214,"▁played":3215,"ization":3216,"⁄4":3217,",'":3218,"▁try":3219,"ource":3220,"__":3221,"oper":3222,"uff":3223,"▁July":3224,"▁Some":3225,"book":3226,"▁he's":3227,"▁began":3228,"▁Scot":3229,"▁Park":3230,"ators":3231,"▁Pe":3232,"▁dam":3233,"▁oil":3234,"omb":3235,"▁vote":3236,"▁histor":3237,"▁seven":3238,"▁conn":3239,".5":3240,"▁sen":3241,"▁However,":3242,"▁candid":3243,"▁August":3244,"▁issue":3245,"▁watch":3246,"▁led":3247,"itor":3248,"ream":3249,"▁building":3250,"ittee":3251,"▁music":3252,"▁TV":3253,"▁larg":3254,"-2":3255,"▁complete":3256,"▁victim":3257,"▁areas":3258,"▁er":3259,"▁Republican":3260,"reet":3261,"itting":3262,"▁Australian":3263,"▁canc":3264,"▁begin":3265,"▁provide":3266,"▁rather":3267,"▁Air":3268,"▁offer":3269,"bour":3270,"▁white":3271,"retary":3272,"▁French":3273,"▁actually":3274,"ilt":3275,"▁Scott":3276,"ruction":3277,"▁den":3278,"-up":3279,"▁boy":3280,"▁reports":3281,"▁points":3282,"▁di":3283,"sw":3284,"▁40":3285,"▁ste":3286,"▁killed":3287,"lim":3288,"▁capital":3289,"ached":3290,"▁whose":3291,"▁comment":3292,"stan":3293,"fer":3294,"umb":3295,"▁comb":3296,"overed":3297,"▁single":3298,"▁years.":3299,"▁Hill":3300,"▁enjoy":3301,"-st":3302,"▁spokes":3303,"°C":3304,"▁infl":3305,"▁X":3306,"▁$1":3307,"▁signific":3308,"▁clos":3309,"read":3310,"▁son":3311,"▁Per":3312,"▁shows":3313,"▁pick":3314,"▁global":3315,"iding":3316,"▁it,":3317,"▁educ":3318,"w.":3319,"▁round":3320,"me":3321,"▁Tuesday":3322,"le.":3323,"▁couple":3324,"ilities":3325,"▁Sm":3326,"▁cle":3327,"itiz":3328,"▁creat":3329,"obile":3330,"▁seek":3331,"▁desp":3332,"▁Not":3333,"▁individ":3334,"▁prob":3335,"▁them.":3336,"esc":3337,"▁bad":3338,"▁orig":3339,".1":3340,"iety":3341,"age.":3342,"▁News":3343,"▁target":3344,"▁ban":3345,"▁link":3346,"uel":3347,"▁sold":3348,"ape":3349,"▁Saturday":3350,"▁wrote":3351,"▁hospital":3352,"▁announced":3353,"▁mid":3354,"▁z":3355,"▁self":3356,"angu":3357,"▁earlier":3358,"▁minutes":3359,"▁relationship":3360,"▁matter":3361,"/0":3362,"rael":3363,"????":3364,"▁charac":3365,"▁games":3366,"▁trade":3367,"▁growth":3368,"back":3369,"▁dest":3370,"▁you're":3371,"▁mass":3372,"▁price":3373,"chie":3374,"udget":3375,"▁accept":3376,"▁environment":3377,"▁eight":3378,"istic":3379,"ienc":3380,"medi":3381,"▁living":3382,"▁Parliament":3383,"▁ord":3384,"5,":3385,"▁review":3386,"ination":3387,"ogn":3388,"▁prep":3389,"▁Thursday":3390,"▁fr":3391,"▁added":3392,"▁mot":3393,"▁Afric":3394,"▁particip":3395,"▁caption":3396,"▁shop":3397,"▁squ":3398,"▁match":3399,"▁executive":3400,"▁thous":3401,"ises":3402,"▁tou":3403,"▁goal":3404,"reg":3405,"▁nothing":3406,"▁Em":3407,"▁time.":3408,"▁production":3409,"▁increase":3410,"▁received":3411,"▁beaut":3412,"▁estab":3413,"▁include":3414,"wh":3415,"▁consum":3416,".0":3417,"▁esp":3418,"sc":3419,"▁Ms":3420,"▁Wednesday":3421,"olution":3422,"▁div":3423,".'":3424,"▁paren":3425,"▁France":3426,"ruary":3427,"▁Ñ":3428,"▁Mel":3429,"▁By":3430,"lev":3431,"ches":3432,"redit":3433,"▁study":3434,"is,":3435,"▁quarter":3436,"▁individual":3437,"▁whole":3438,"▁mult":3439,"ipp":3440,"▁Israel":3441,"▁online":3442,"▁time,":3443,"play":3444,"▁Department":3445,"▁ahead":3446,"▁released":3447,"▁lab":3448,"ault":3449,"iddle":3450,"▁Mark":3451,"jects":3452,"dd":3453,"ined":3454,"ecially":3455,"▁intern":3456,"isl":3457,"itution":3458,"▁others":3459,"▁train":3460,"band":3461,"▁propos":3462,"alt":3463,"▁deter":3464,"▁coll":3465,"▁gave":3466,"selves":3467,"▁incident":3468,"▁'T":3469,"▁speak":3470,"▁cannot":3471,"▁needs":3472,"▁February":3473,"▁i":3474,"▁personal":3475,"▁hor":3476,"irst":3477,"ients":3478,"▁shoot":3479,"▁similar":3480,"▁someone":3481,"\":":3482,"rought":3483,"▁energy":3484,"ograph":3485,"ray":3486,"yc":3487,"▁playing":3488,"eared":3489,"▁webs":3490,"▁died":3491,"▁Ste":3492,"▁buy":3493,"▁request":3494,"aper":3495,"▁En":3496,"▁significant":3497,"to":3498,"▁International":3499,"▁feat":3500,"▁administration":3501,"▁Mos":3502,"▁abs":3503,"▁summer":3504,"hold":3505,"▁issues":3506,"gest":3507,"▁member":3508,"▁evidence":3509,"▁deep":3510,"ival":3511,"▁story":3512,"▁App":3513,"uk":3514,"itch":3515,"▁years,":3516,"25":3517,"▁vers":3518,"▁weeks":3519,"▁park":3520,"▁\"H":3521,"▁opt":3522,"▁sell":3523,"▁plans":3524,"ought":3525,"▁federal":3526,"ler":3527,"ribut":3528,"▁kid":3529,"▁critic":3530,"▁daughter":3531,"▁vol":3532,"ender":3533,"▁rate":3534,"▁board":3535,"▁oppos":3536,"agn":3537,"▁hol":3538,"▁file":3539,"▁198":3540,"ett":3541,"iec":3542,"▁bord":3543,"▁achie":3544,"▁office":3545,"▁leader":3546,"▁soon":3547,"▁authorities":3548,"▁Angel":3549,"▁consider":3550,"▁general":3551,"▁Bank":3552,"▁check":3553,"ipe":3554,"▁quite":3555,"oman":3556,"igr":3557,"▁More":3558,"ey":3559,"▁sect":3560,"www.":3561,"▁Mor":3562,"▁<":3563,"▁remain":3564,"lus":3565,"▁despite":3566,"aliforn":3567,"field":3568,"▁civil":3569,"ampions":3570,"▁citiz":3571,"IS":3572,"ford":3573,"▁tit":3574,"▁common":3575,"--":3576,"▁bed":3577,"oti":3578,"▁Kaz":3579,"▁latest":3580,"▁Mon":3581,"▁necess":3582,"▁friends":3583,"anger":3584,"▁age":3585,"ety":3586,"oid":3587,"▁potential":3588,"▁reach":3589,"ze":3590,"▁Scotland":3591,"▁Day":3592,"cast":3593,"▁circ":3594,"▁heard":3595,"▁nearly":3596,"▁Face":3597,"▁Mo":3598,"8.":3599,"key":3600,"use":3601,"wood":3602,"▁I've":3603,"yle":3604,"▁quality":3605,"▁wasn't":3606,"anche":3607,"atives":3608,"▁popular":3609,"▁especially":3610,"eth":3611,"irt":3612,"▁Islam":3613,"ude":3614,"▁2017":3615,"▁higher":3616,"▁Jap":3617,"▁rad":3618,"▁repl":3619,"▁mind":3620,"fully":3621,"▁cal":3622,"▁attempt":3623,"24":3624,"▁applic":3625,"pan":3626,"'d":3627,"▁mater":3628,"60":3629,"▁\"Th":3630,"age,":3631,"▁’":3632,"▁demand":3633,"in,":3634,"▁wrong":3635,"▁immedi":3636,"▁focus":3637,"▁Fin":3638,"▁Do":3639,"▁minister":3640,"▁hus":3641,"ask":3642,"▁Obama":3643,"▁mem":3644,"▁respond":3645,"arent":3646,"▁crim":3647,"▁These":3648,"▁history":3649,"▁football":3650,"▁resident":3651,"▁broad":3652,"ode":3653,"ote":3654,"▁independ":3655,"ia.":3656,"-g":3657,"▁According":3658,"xit":3659,"▁everything":3660,"▁chance":3661,"▁Paul":3662,"▁running":3663,"▁sat":3664,"9.":3665,"sk":3666,"▁track":3667,"▁on:":3668,"▁aim":3669,"▁block":3670,"▁recently":3671,"istry":3672,"▁agreement":3673,"▁Char":3674,"ply":3675,"▁turned":3676,"ened":3677,"urb":3678,"AS":3679,"▁God":3680,"▁force":3681,"ice.":3682,"3⁄4":3683,"▁Twitter":3684,"ij":3685,"ify":3686,"▁Ne":3687,"▁port":3688,"▁showed":3689,"▁Ham":3690,"▁hon":3691,"▁Bro":3692,"▁condition":3693,"▁total":3694,"▁aud":3695,"▁Te":3696,"▁Michael":3697,"▁improve":3698,"▁there's":3699,"▁La":3700,"ift":3701,"irth":3702,"▁leading":3703,"raz":3704,"▁langu":3705,"▁situation":3706,"oard":3707,"▁network":3708,"▁Facebook":3709,"unt":3710,"▁San":3711,"3,":3712,"▁centre":3713,"fect":3714,"▁that,":3715,"▁compl":3716,"▁bab":3717,"ends":3718,"▁Phil":3719,"▁pack":3720,"▁heav":3721,"hib":3722,"▁felt":3723,"▁strugg":3724,"ently":3725,"▁batt":3726,"▁cris":3727,"▁fear":3728,"▁published":3729,"eet":3730,"▁Cup":3731,"▁Canad":3732,"▁Mad":3733,"ournal":3734,"▁vehic":3735,"▁create":3736,"▁rev":3737,"▁him.":3738,"▁contact":3739,"▁site":3740,"inese":3741,"▁soft":3742,"▁entire":3743,"▁Ser":3744,"ots":3745,"▁unc":3746,"▁Sun":3747,"▁loss":3748,"▁copy":3749,"▁biggest":3750,"▁amount":3751,"▁brought":3752,"▁Hol":3753,"▁surpr":3754,"▁spent":3755,"▁firm":3756,"▁League":3757,"rad":3758,"▁impact":3759,"▁involved":3760,"▁budget":3761,"▁26":3762,"▁James":3763,"▁\"M":3764,"orter":3765,"▁performance":3766,"▁results":3767,"▁looked":3768,"▁coach":3769,"ension":3770,"come":3771,"▁idea":3772,"▁recogn":3773,"3.":3774,"▁pressure":3775,"▁pen":3776,"▁Sch":3777,"ity.":3778,"▁Fore":3779,"▁exist":3780,"▁intro":3781,"▁neigh":3782,"▁legisl":3783,"▁celebr":3784,"ations.":3785,"uclear":3786,"▁huge":3787,"bor":3788,"▁gun":3789,"ht":3790,"▁blo":3791,"▁negoti":3792,"▁anim":3793,"▁Street":3794,"ening":3795,"-r":3796,"▁William":3797,"▁Alex":3798,"▁Ear":3799,"▁needed":3800,"fact":3801,"bert":3802,"▁paid":3803,"▁alleged":3804,"▁worked":3805,"▁regard":3806,"▁hous":3807,"▁protect":3808,"▁Chinese":3809,"▁pers":3810,"'.":3811,"▁cover":3812,"▁treatment":3813,"▁associ":3814,"onse":3815,"ources":3816,"▁?":3817,"▁region":3818,"▁particularly":3819,"▁poll":3820,"▁ri":3821,"acher":3822,"▁Our":3823,"▁chair":3824,"aily":3825,"▁anything":3826,"▁Que":3827,"▁probably":3828,"ny":3829,"ux":3830,"▁longer":3831,"sy":3832,"estern":3833,"▁Kazakh":3834,"orters":3835,"▁Hotel":3836,"▁Sam":3837,"▁challeng":3838,"▁above":3839,"na":3840,"▁restaur":3841,"▁character":3842,"▁colle":3843,"▁products":3844,"▁itself":3845,"erc":3846,"▁assist":3847,"▁Californ":3848,"▁Photo":3849,"▁opportunity":3850,"▁serious":3851,"▁material":3852,"as,":3853,"▁extra":3854,"▁address":3855,"▁Japan":3856,"▁arri":3857,"▁we're":3858,"▁doct":3859,"▁wants":3860,"ole":3861,"▁28":3862,"70":3863,"▁students":3864,"ully":3865,"itness":3866,"▁East":3867,"▁carry":3868,"▁ill":3869,"▁parents":3870,"str":3871,"iff":3872,"▁says.":3873,"▁reb":3874,"▁Posted:":3875,"▁Last":3876,"▁pros":3877,"http://":3878,"▁debate":3879,"▁Brexit":3880,"▁contract":3881,"▁phys":3882,"▁created":3883,"cial":3884,"undred":3885,"▁shall":3886,"ique":3887,"▁English":3888,"▁modern":3889,"▁either":3890,"▁conference":3891,"▁hear":3892,"▁Syd":3893,"▁sexual":3894,"▁sound":3895,"▁product":3896,"▁Qu":3897,"ees":3898,"▁Dan":3899,"▁disp":3900,"▁model":3901,"▁Count":3902,"▁wel":3903,"▁appeared":3904,"▁pred":3905,"▁natur":3906,"iter":3907,"▁inside":3908,"▁takes":3909,"ice,":3910,"▁insp":3911,"▁response":3912,"▁sett":3913,"▁described":3914,"hood":3915,"vert":3916,"ule":3917,"▁speed":3918,"▁becom":3919,"oph":3920,"▁investigation":3921,"▁trip":3922,"▁prison":3923,"▁Government":3924,"ino":3925,"▁previous":3926,"▁Gl":3927,"alled":3928,"▁wide":3929,"▁problems":3930,"▁weekend":3931,"▁ago":3932,"▁Cong":3933,"▁training":3934,"▁drink":3935,"▁Uk":3936,"▁specific":3937,"▁approach":3938,"▁everyone":3939,"40":3940,"rim":3941,"OR":3942,"▁emerg":3943,"▁BBC":3944,"5.":3945,"▁Cons":3946,"uty":3947,"▁revealed":3948,"▁Ber":3949,"▁sle":3950,"▁terms":3951,"▁search":3952,"▁remains":3953,"▁investment":3954,"rowd":3955,"▁amb":3956,"istan":3957,"▁require":3958,"▁attention":3959,"ER":3960,"▁cross":3961,"body":3962,"▁husband":3963,"▁prior":3964,"aud":3965,"▁draw":3966,"y's":3967,"▁ensure":3968,"▁Serv":3969,"▁spokesman":3970,"▁Pat":3971,"▁tried":3972,"▁email":3973,"ades":3974,"▁1.":3975,"▁groups":3976,"urning":3977,"▁\"B":3978,"▁increasing":3979,"▁player":3980,"earcher":3981,"▁Sim":3982,"▁doub":3983,"uments":3984,"ires":3985,"▁fans":3986,"▁changes":3987,"▁worth":3988,"or.":3989,"▁document":3990,"▁conduct":3991,"aging":3992,"▁lack":3993,"▁pair":3994,"4.":3995,"s:":3996,"▁nation":3997,"exic":3998,"▁dro":3999,"▁seems":4000,"-in":4001,"▁holiday":4002,"▁Act":4003,"▁27":4004,"▁recomm":4005,"▁Group":4006,"yan":4007,"▁emb":4008,"igration":4009,"▁included":4010,"ales":4011,"▁effect":4012,"ental":4013,"▁decided":4014,"▁sense":4015,"4,":4016,"▁separ":4017,"light":4018,"raq":4019,"▁answ":4020,"ue.":4021,"▁medical":4022,"▁nuclear":4023,"▁Reg":4024,"▁towards":4025,"▁wife":4026,"ris":4027,"▁senior":4028,"▁lower":4029,"hest":4030,"6.":4031,"▁gen":4032,">>":4033,"▁Reply":4034,"▁offers":4035,"▁Port":4036,"▁cooper":4037,"▁themselves":4038,"▁gas":4039,"��":4040,"▁simply":4041,"▁60":4042,"▁pm":4043,"ity,":4044,"▁claims":4045,"▁http://www.":4046,"load":4047,"▁bal":4048,"▁fem":4049,"oul":4050,"en.":4051,"▁card":4052,"eed":4053,"▁Senate":4054,"▁phone":4055,"▁presidential":4056,"▁they're":4057,"▁space":4058,"▁01":4059,"▁Mac":4060,"ressive":4061,"▁Mart":4062,"aker":4063,"▁subject":4064,"▁allowed":4065,"ceed":4066,"▁Iraq":4067,"22":4068,"▁First":4069,"▁Rich":4070,"▁Labour":4071,"▁message":4072,"▁prevent":4073,"orthern":4074,"▁From":4075,"▁birth":4076,"▁range":4077,"▁ren":4078,"uit":4079,"ese":4080,"▁\"d":4081,"▁stock":4082,"▁har":4083,"ession":4084,"▁questions":4085,"▁accused":4086,"▁MP":4087,"▁workers":4088,"oo":4089,"▁los":4090,"▁bod":4091,"▁states":4092,"ellig":4093,"▁disapp":4094,"▁Ben":4095,"▁peace":4096,"▁norm":4097,"▁̧":4098,"▁isn't":4099,"▁McC":4100,"urt":4101,"iant":4102,"▁Sand":4103,"▁Mexic":4104,"▁Then":4105,"▁helped":4106,"▁pur":4107,"icket":4108,"ston":4109,"▁grand":4110,"▁regul":4111,"▁term":4112,"▁politic":4113,"rac":4114,"▁scient":4115,"▁Gener":4116,"▁perfect":4117,"mark":4118,"▁implement":4119,"▁regular":4120,"ores":4121,"▁efforts":4122,"▁Jack":4123,"▁Los":4124,"ana":4125,"▁America":4126,"tain":4127,"rel":4128,"-201":4129,"▁average":4130,"▁lives":4131,"cement":4132,"▁urg":4133,"▁instead":4134,"s.\"":4135,"▁built":4136,"▁rock":4137,"▁safety":4138,"▁effective":4139,"▁streng":4140,"▁\"s":4141,"▁refuge":4142,"▁That's":4143,"▁violence":4144,"▁conditions":4145,"▁thousands":4146,"ases":4147,"▁temper":4148,"haps":4149,"ays":4150,"▁Net":4151,"ON":4152,"▁prim":4153,"▁brother":4154,"▁attract":4155,"uth":4156,"▁1,":4157,"eck":4158,"aught":4159,"▁Ukrain":4160,"oved":4161,"▁manager":4162,"▁prec":4163,"▁speech":4164,"idge":4165,"▁Associ":4166,"ements":4167,"mit":4168,"▁Red":4169,"▁Here":4170,"▁surv":4171,"▁ep":4172,"▁student":4173,"ping":4174,"▁vill":4175,"known":4176,"▁officers":4177,"▁Iran":4178,"▁crowd":4179,"▁career":4180,"▁Mal":4181,"▁Prime":4182,"vey":4183,"▁date":4184,"inary":4185,"▁pan":4186,"▁sil":4187,".m.":4188,"lymp":4189,"▁although":4190,"▁wond":4191,"ounts":4192,"▁und":4193,"▁copyright":4194,"uter":4195,"▁\"O":4196,"▁Other":4197,"▁knew":4198,"▁wall":4199,"▁dise":4200,"▁cause":4201,"▁indic":4202,"▁hundred":4203,"▁box":4204,"▁wipe":4205,"amb":4206,"▁influ":4207,"▁works":4208,"ml":4209,"▁04":4210,"▁refere":4211,".,":4212,"▁mis":4213,"23":4214,"▁dog":4215,"▁crisis":4216,"isation":4217,"▁'W":4218,"▁decl":4219,"▁continu":4220,"ide.":4221,"▁favour":4222,"eat":4223,"▁King":4224,"icle":4225,"i.":4226,"▁central":4227,"▁anyone":4228,"atory":4229,"IN":4230,"▁collect":4231,"▁piec":4232,"▁technology":4233,"2Ð":4234,"▁doll":4235,"▁economy":4236,"▁largest":4237,"▁property":4238,"▁Vict":4239,"▁Even":4240,"AR":4241,"▁redu":4242,"pro":4243,"▁fair":4244,"▁Of":4245,"▁IS":4246,"▁Manche":4247,"erve":4248,"21":4249,"▁claimed":4250,"▁prem":4251,"▁rout":4252,"▁Olymp":4253,"▁forces":4254,"▁29":4255,"▁sun":4256,"▁street":4257,"ped":4258,"▁Op":4259,"down":4260,"arian":4261,"▁Paris":4262,"ester":4263,"duced":4264,"▁north":4265,"▁necessary":4266,"▁comfort":4267,"▁beat":4268,"▁Art":4269,"▁Ir":4270,"oud":4271,"iful":4272,"▁Ant":4273,"ky":4274,"rect":4275,"▁prices":4276,"▁2012":4277,"ara":4278,"▁Black":4279,"utions":4280,"▁blood":4281,"oring":4282,"▁People":4283,"rast":4284,"atal":4285,"▁stage":4286,"▁Prem":4287,"▁Val":4288,"▁danger":4289,"▁reform":4290,"cel":4291,"▁forced":4292,"▁customers":4293,"▁Soc":4294,"▁competition":4295,"▁easy":4296,"like":4297,"▁laws":4298,"▁week,":4299,"▁Che":4300,"▁transport":4301,"▁respect":4302,"99":4303,"ure,":4304,"▁management":4305,"▁Armen":4306,"▁won't":4307,"▁vo":4308,"▁else":4309,"▁citizens":4310,"eum":4311,"ma":4312,"mas":4313,"idered":4314,"▁provided":4315,"▁Matt":4316,"ine,":4317,"▁shared":4318,"iers":4319,"▁moved":4320,"sequ":4321,"-based":4322,"▁pun":4323,"iple":4324,"▁encour":4325,"ufact":4326,"▁leaving":4327,"▁tweet":4328,"ander":4329,"▁measures":4330,"▁Gold":4331,"ological":4332,"▁Sydney":4333,"ope":4334,"▁fast":4335,"▁Stat":4336,"AN":4337,"lying":4338,"akers":4339,"▁princ":4340,"▁however,":4341,"▁Smith":4342,"▁and,":4343,"▁sales":4344,"▁driver":4345,"rief":4346,"▁opening":4347,"▁High":4348,"▁George":4349,"▁positive":4350,"▁race":4351,"▁lawy":4352,"zer":4353,"-A":4354,"▁bott":4355,"▁sens":4356,"▁table":4357,"▁slow":4358,"▁island":4359,"▁esc":4360,"lied":4361,"▁journal":4362,"▁letter":4363,"▁(A":4364,"▁weap":4365,"▁various":4366,"▁Democratic":4367,"▁Kazakhstan":4368,"▁rules":4369,"▁south":4370,"▁failed":4371,"▁communic":4372,"▁experienc":4373,"▁events":4374,"▁numb":4375,"▁effort":4376,"▁gold":4377,"s\"":4378,"▁growing":4379,"illed":4380,"▁cases":4381,"berg":4382,"▁dram":4383,"▁nine":4384,"▁inn":4385,"▁Tom":4386,"▁avoid":4387,"▁value":4388,"▁natural":4389,"▁touch":4390,"set":4391,"ona":4392,"tty":4393,"▁looks":4394,"▁Ital":4395,"bed":4396,"▁giving":4397,"ue,":4398,"▁aware":4399,"▁happy":4400,"▁\"It's":4401,"enge":4402,"▁Tim":4403,"▁previously":4404,"cow":4405,"▁victory":4406,"adem":4407,"han":4408,"hat":4409,"▁page":4410,"▁&#":4411,"▁mach":4412,"▁display":4413,"▁happened":4414,"▁ready":4415,"▁includes":4416,"SC":4417,"son,":4418,"-e":4419,"▁Trans":4420,"▁behav":4421,"▁caused":4422,"▁Thom":4423,"▁injur":4424,"▁considered":4425,"▁mag":4426,"▁exact":4427,"▁posted":4428,"▁Muslim":4429,"aced":4430,"▁quickly":4431,"▁stra":4432,"rol":4433,"vent":4434,"ations,":4435,"▁goes":4436,"airs":4437,"▁climate":4438,"add":4439,"urance":4440,"▁Committee":4441,"▁bomb":4442,"eated":4443,"oyal":4444,"▁cru":4445,"roll":4446,"astic":4447,"▁song":4448,"80":4449,"▁clean":4450,"while":4451,"imum":4452,"▁that.":4453,"▁increased":4454,"▁majority":4455,"▁demon":4456,"▁named":4457,"▁camer":4458,"▁mill":4459,"▁Green":4460,"▁obs":4461,"us,":4462,"▁Foreign":4463,"uters":4464,"edom":4465,"org":4466,"▁believed":4467,"▁costs":4468,"▁offered":4469,"▁spot":4470,"alys":4471,"RL":4472,"▁me.":4473,"-S":4474,"elligence":4475,"▁\"c":4476,"val":4477,"▁\"the":4478,"▁photo":4479,"▁Two":4480,"ences":4481,"ate,":4482,"▁Korea":4483,"▁Play":4484,"▁researcher":4485,"▁struct":4486,"▁sport":4487,"▁adop":4488,"▁double":4489,"▁opened":4490,"▁drive":4491,"ishing":4492,"▁winning":4493,"▁below":4494,"You":4495,"1⁄":4496,"▁confirmed":4497,"▁arrested":4498,"▁calls":4499,"▁protection":4500,"▁rise":4501,"▁week.":4502,"▁signed":4503,"▁source":4504,"▁Arab":4505,"yond":4506,"▁cast":4507,"omen":4508,"ills":4509,"▁upd":4510,"▁rates":4511,"ille":4512,"▁Manchester":4513,"▁hands":4514,"▁09":4515,"2)":4516,"▁attacks":4517,"▁Cont":4518,"▁analy":4519,"▁2011":4520,"▁2.":4521,"▁brand":4522,"▁passeng":4523,"▁kept":4524,"▁Scottish":4525,"▁raised":4526,"▁dig":4527,"▁Member":4528,"▁version":4529,"▁arch":4530,"▁charged":4531,"▁din":4532,"ites":4533,"▁conflic":4534,"ure.":4535,"▁General":4536,"▁08":4537,"isions":4538,"▁extreme":4539,"resh":4540,"▁31":4541,"html":4542,"t.":4543,"▁sched":4544,"vest":4545,"ips":4546,"▁\"C":4547,"▁Many":4548,"▁manufact":4549,"-to":4550,"▁scen":4551,"utin":4552,"▁exch":4553,"▁Health":4554,"▁annual":4555,"▁Over":4556,"▁Loc":4557,"▁via":4558,"▁immediately":4559,"▁£1":4560,"▁UN":4561,"▁complex":4562,"▁Jos":4563,"?\"":4564,"▁!":4565,"hol":4566,"▁opposition":4567,"▁carried":4568,"▁counter":4569,"▁\"b":4570,"▁Cap":4571,"▁reached":4572,"▁projects":4573,"▁cell":4574,"▁mount":4575,"▁telev":4576,"olf":4577,"ervative":4578,"▁object":4579,"▁dom":4580,"▁During":4581,"▁Mrs":4582,"one.":4583,"irit":4584,"▁required":4585,"de":4586,"igrants":4587,"iles":4588,"▁famous":4589,"▁Tod":4590,"ment.":4591,"iance":4592,"▁Mic":4593,"▁families":4594,"vere":4595,"ground":4596,"orid":4597,"elling":4598,"▁rat":4599,"▁03":4600,"▁professional":4601,"▁engine":4602,"▁sym":4603,"▁Islamic":4604,"▁ten":4605,"▁starting":4606,"▁award":4607,"▁screen":4608,"▁appeal":4609,"▁website":4610,"▁border":4611,"▁agreed":4612,"▁fourth":4613,"bur":4614,"rival":4615,"ia's":4616,"ropri":4617,"▁parts":4618,"▁addition":4619,"▁Franc":4620,"▁standard":4621,"ance,":4622,"▁Moscow":4623,"▁Christmas":4624,"▁Kim":4625,"▁2009,":4626,"▁base":4627,"▁School":4628,"gar":4629,"▁ess":4630,"▁strik":4631,"▁swe":4632,"▁Direct":4633,"ression":4634,"ocked":4635,"▁Tex":4636,"▁Wind":4637,"▁learn":4638,"▁language":4639,"▁;":4640,"▁Law":4641,"ide,":4642,"▁subst":4643,"rial":4644,"▁spend":4645,"ging":4646,"zz":4647,"▁concerns":4648,"▁credit":4649,"ashion":4650,"▁partners":4651,"91":4652,"▁compared":4653,"▁select":4654,"▁2016,":4655,"▁70":4656,"▁defin":4657,"iar":4658,"▁upon":4659,"agram":4660,"▁trust":4661,"▁pretty":4662,"-time":4663,"▁words":4664,"▁\"This":4665,"▁throughout":4666,"aves":4667,"▁release":4668,"▁safe":4669,"an.":4670,"▁rap":4671,"chen":4672,"▁Bill":4673,"cy":4674,"ic.":4675,"▁Rob":4676,"udd":4677,"▁activities":4678,"▁Ms.":4679,"▁Every":4680,"▁certainly":4681,"▁refer":4682,"cl":4683,"▁kick":4684,"ate.":4685,"▁wat":4686,"▁example":4687,"▁launch":4688,"▁straight":4689,"▁born":4690,"▁text":4691,"▁02":4692,"▁life.":4693,"▁react":4694,"▁Germany":4695,"mar":4696,"▁original":4697,"estic":4698,"▁education":4699,"▁Secretary":4700,"▁estim":4701,"▁commit":4702,"▁teen":4703,"▁Victor":4704,"ibly":4705,"▁adding":4706,"▁Mer":4707,"▁achieve":4708,"o's":4709,"▁flight":4710,"▁relig":4711,"edd":4712,"▁fully":4713,"75":4714,"▁type":4715,"▁airport":4716,"▁officer":4717,"▁enter":4718,"▁benefit":4719,"▁pow":4720,"aint":4721,"▁mention":4722,"ges":4723,"▁beautiful":4724,"▁designed":4725,"▁figures":4726,"▁promot":4727,"▁06":4728,"▁voters":4729,"▁Times":4730,"olute":4731,"▁Jon":4732,"▁criminal":4733,"roy":4734,"▁Def":4735,"arant":4736,"▁lik":4737,"het":4738,"ipl":4739,"▁him,":4740,"outhern":4741,"▁sports":4742,"▁traff":4743,"itute":4744,"▁middle":4745,"▁integ":4746,"▁station":4747,"▁(R":4748,"▁Aut":4749,"pre":4750,"▁therefore":4751,"▁jobs":4752,"▁them,":4753,"▁followed":4754,"rid":4755,"▁convers":4756,"▁il":4757,"night":4758,"▁Me":4759,"-ter":4760,"▁couldn't":4761,"van":4762,"▁gets":4763,"▁05":4764,"▁Party":4765,"ine.":4766,"▁council":4767,"▁active":4768,"▁receive":4769,"▁parliament":4770,"▁located":4771,"▁drop":4772,"26":4773,"▁2009":4774,"▁Add":4775,"▁establish":4776,"▁Since":4777,"▁Vir":4778,"▁highest":4779,"▁successful":4780,"et,":4781,"ampionship":4782,"ment,":4783,"top":4784,"3⁄4Ð":4785,"▁patients":4786,"▁roll":4787,"asc":4788,"▁Step":4789,"▁construction":4790,"▁ability":4791,"▁Mur":4792,"▁comments":4793,"▁cat":4794,"ushed":4795,"▁\"P":4796,"▁finally":4797,"lined":4798,"▁hair":4799,"▁dark":4800,"500":4801,"▁deg":4802,"▁shares":4803,"▁content":4804,"hod":4805,"93":4806,"▁charge":4807,"ym":4808,"▁agency":4809,"enty":4810,"▁sleep":4811,"ification":4812,"▁wild":4813,"▁Belar":4814,"▁cong":4815,"▁people,":4816,"▁green":4817,"▁Congress":4818,"▁additional":4819,"▁opin":4820,"▁country's":4821,"one,":4822,"icient":4823,"▁beginning":4824,"▁continued":4825,"▁cities":4826,"▁out.":4827,"FL":4828,"▁Gre":4829,"▁day.":4830,"▁added:":4831,"▁assault":4832,"▁san":4833,"que":4834,"anced":4835,"▁spending":4836,"▁Mil":4837,"▁Chris":4838,"▁talking":4839,"mon":4840,"▁imag":4841,"▁poor":4842,"\":\"":4843,"ume":4844,"▁80":4845,"aches":4846,"▁partner":4847,"▁hot":4848,"▁launched":4849,"▁software":4850,"▁surround":4851,"▁rob":4852,"▁gone":4853,"pe":4854,"▁sector":4855,"▁Met":4856,"iled":4857,"bit":4858,"▁cash":4859,"▁send":4860,"▁people.":4861,"▁brief":4862,":30":4863,"▁07":4864,"resp":4865,"▁Ire":4866,"▁weight":4867,"▁Office":4868,"▁Mobile":4869,"▁teacher":4870,"▁whom":4871,"▁2015,":4872,"28":4873,"▁beyond":4874,"ugg":4875,"▁figure":4876,"▁traditional":4877,"▁\"N":4878,"▁weather":4879,"▁\"F":4880,"-3":4881,"▁calling":4882,"▁Pre":4883,"▁\"a":4884,"▁ang":4885,"▁Lat":4886,"iation":4887,"▁\"D":4888,"▁appears":4889,"▁injured":4890,"lines":4891,"▁contribut":4892,"▁spoke":4893,"asons":4894,"▁Another":4895,"▁meant":4896,"▁option":4897,"▁shown":4898,"'m":4899,"▁strateg":4900,"▁me,":4901,"▁users":4902,"11":4903,"▁Syrian":4904,"unk":4905,"bl":4906,"▁true":4907,"▁suit":4908,"ic,":4909,"US":4910,"▁sometimes":4911,"▁(C":4912,"▁encounter":4913,"ledge":4914,"▁purch":4915,"▁miles":4916,"▁television":4917,"▁spac":4918,"▁\"f":4919,"/200":4920,"▁center":4921,"▁jail":4922,"BI":4923,"▁Republicans":4924,"▁Bay":4925,"▁rare":4926,"▁world's":4927,"arr":4928,"▁90":4929,"▁bat":4930,"▁Ter":4931,"▁Ministry":4932,"▁deliver":4933,"gn":4934,"▁moving":4935,"ell,":4936,"▁Ireland":4937,"-M":4938,"ashed":4939,"▁title":4940,"▁illeg":4941,"▁champ":4942,"▁Rec":4943,"on.":4944,"sen":4945,"▁Florid":4946,"▁Cr":4947,"▁levels":4948,"▁ver":4949,"▁Super":4950,"▁baby":4951,"▁restaurant":4952,"▁parties":4953,"▁197":4954,"▁female":4955,"▁mist":4956,"▁image":4957,"pm":4958,"▁35":4959,"▁plat":4960,"burg":4961,"▁world.":4962,"▁emot":4963,"▁determin":4964,"urer":4965,"arily":4966,"sych":4967,"▁fix":4968,"▁Most":4969,"▁storm":4970,"▁coast":4971,"▁stor":4972,"▁added.":4973,"▁item":4974,"▁aw":4975,"▁joined":4976,"▁sort":4977,"▁organiz":4978,"ext":4979,"▁2008,":4980,"iction":4981,"bourne":4982,"45":4983,"▁day,":4984,"▁ended":4985,"▁ways":4986,"▁Americans":4987,"▁Are":4988,"▁season.":4989,"▁changed":4990,"▁aftern":4991,"▁occur":4992,"▁independent":4993,"imb":4994,"▁log":4995,"▁autom":4996,"▁Nor":4997,"▁commission":4998,"▁Brown":4999,"▁details":5000,"▁written":5001,"ari":5002,"yd":5003,"les,":5004,"et.":5005,"▁aid":5006,"▁consult":5007,"▁CN":5008,"ste":5009,"▁O'":5010,"▁showing":5011,"▁Central":5012,"▁advis":5013,"▁cooperation":5014,"▁exhib":5015,"▁Carol":5016,"▁ult":5017,"▁govern":5018,"ops":5019,"27":5020,"▁remember":5021,"▁highly":5022,"▁nature":5023,"ally,":5024,"▁fest":5025,"onn":5026,"ated.":5027,"rian":5028,"▁remark":5029,"▁Ke":5030,"▁simple":5031,"ruit":5032,"▁exam":5033,"▁bath":5034,"h,":5035,"▁equip":5036,"▁basis":5037,"▁thank":5038,"▁Span":5039,"▁Jul":5040,"▁department":5041,"rupt":5042,"ya":5043,"▁analys":5044,"▁marri":5045,"▁victims":5046,"▁Security":5047,"ES":5048,"▁acqu":5049,"▁grad":5050,"▁Center":5051,"▁returned":5052,"▁path":5053,"▁talks":5054,"▁save":5055,"▁door":5056,"ance.":5057,"▁Premier":5058,"pping":5059,"▁Goog":5060,"▁Ac":5061,"▁2008":5062,"▁defend":5063,"orrow":5064,"▁obv":5065,"▁passed":5066,"▁'The":5067,"▁appoint":5068,"▁pool":5069,"▁scored":5070,"▁fan":5071,"ghan":5072,"▁Lord":5073,"▁km":5074,"ength":5075,"▁Johnson":5076,"▁(M":5077,"▁spread":5078,"▁lay":5079,"▁purp":5080,"▁completely":5081,"▁numbers":5082,"▁warning":5083,"▁candidate":5084,"shire":5085,"▁photos":5086,"▁apartment":5087,"▁plant":5088,"</":5089,"▁announ":5090,"▁Instagram":5091,"etty":5092,"▁coal":5093,"▁mur":5094,"▁Je":5095,"▁Fox":5096,"e's":5097,"▁Lou":5098,"kin":5099,"▁trou":5100,"▁dress":5101,"▁Braz":5102,"▁initi":5103,"▁challenge":5104,"unch":5105,"espite":5106,"▁related":5107,"▁responsible":5108,"▁Tra":5109,"▁reven":5110,"▁jump":5111,"▁charges":5112,"▁Peter":5113,"▁seemed":5114,"▁judge":5115,"▁explain":5116,"▁mix":5117,"▁bi":5118,"▁corpor":5119,"▁Sal":5120,"▁perhaps":5121,"▁attend":5122,"▁surf":5123,"adium":5124,"▁guarant":5125,"▁except":5126,"▁\"w":5127,"▁secretary":5128,".com/":5129,"▁dism":5130,"▁Wall":5131,"▁funding":5132,"▁feeling":5133,"ager":5134,"▁Great":5135,"▁battle":5136,"icted":5137,"▁arm":5138,"▁ago,":5139,"▁fresh":5140,"lyn":5141,"▁population":5142,"▁bag":5143,"▁beach":5144,"▁Spe":5145,"▁features":5146,"▁country.":5147,"▁transfer":5148,"▁Andrew":5149,"▁proced":5150,"▁clearly":5151,"▁Belarus":5152,"▁warned":5153,"▁brain":5154,"▁unf":5155,"▁controvers":5156,"▁Nov":5157,"▁Const":5158,"▁proposal":5159,"▁myself":5160,"▁anti-":5161,"▁commer":5162,"▁occas":5163,"▁greater":5164,"▁reality":5165,"rec":5166,"▁caught":5167,"azaz":5168,"vention":5169,"▁intelligence":5170,"▁Today":5171,"▁Swed":5172,"▁territ":5173,"-term":5174,"iplom":5175,"____":5176,"icial":5177,"▁Hall":5178,"5)":5179,"▁prosecut":5180,"▁Turkey":5181,"▁Hillary":5182,"ctions":5183,"▁Island":5184,"▁suffered":5185,"▁scene":5186,"▁regist":5187,"▁closed":5188,"▁joint":5189,"s'":5190,"▁recommend":5191,"▁directly":5192,"▁California":5193,"▁store":5194,"▁advant":5195,"16":5196,"▁wish":5197,"▁Wil":5198,"▁rooms":5199,"▁solution":5200,"▁trial":5201,"i's":5202,"uman":5203,"▁rank":5204,"▁Spain":5205,"▁progress":5206,"▁spl":5207,"A.":5208,"▁sem":5209,"▁Melbourne":5210,"▁experts":5211,"▁assess":5212,"▁responsibility":5213,"▁powerful":5214,"48":5215,"▁vac":5216,"▁residents":5217,"90":5218,"▁Justice":5219,"▁\"m":5220,"▁size":5221,"uro":5222,"▁Brazil":5223,"▁Ken":5224,"▁Aff":5225,"owing":5226,"friend":5227,"annel":5228,"▁reduce":5229,"▁choice":5230,"▁teams":5231,"itation":5232,"▁Ros":5233,"dom":5234,"-se":5235,"▁rent":5236,"php":5237,"▁picture":5238,"▁method":5239,"▁suggested":5240,"▁gives":5241,"orney":5242,"▁regional":5243,"▁tool":5244,"▁schools":5245,"▁minor":5246,"▁Holly":5247,"▁function":5248,"oe":5249,"▁Richard":5250,"***":5251,"▁He's":5252,"▁exactly":5253,"▁Ryan":5254,"▁Miss":5255,"ama":5256,"▁Democrats":5257,"OP":5258,"▁cancer":5259,"▁cere":5260,"▁sea":5261,"isted":5262,"▁issued":5263,"▁Charl":5264,"▁leadership":5265,"agement":5266,"▁protest":5267,"▁developed":5268,"▁arrived":5269,"ategy":5270,"▁missing":5271,"▁server":5272,"▁repeated":5273,"▁196":5274,"▁\"There":5275,"▁agenc":5276,"▁Intern":5277,"▁year's":5278,"▁seat":5279,"-C":5280,"ha":5281,"▁Despite":5282,"hem":5283,"▁wonder":5284,"man,":5285,"ndum":5286,"▁Indian":5287,"▁exerc":5288,"▁Gar":5289,"entially":5290,"AD":5291,"▁proposed":5292,"▁floor":5293,"▁Western":5294,"▁Under":5295,"▁Olympic":5296,"▁asp":5297,"▁toward":5298,"▁newsp":5299,"▁\"t":5300,"AC":5301,"▁herself":5302,"▁2014,":5303,"isters":5304,"▁\"L":5305,"lant":5306,"▁concerned":5307,"!!":5308,"▁Why":5309,"ribution":5310,"▁hundreds":5311,"▁systems":5312,"▁cook":5313,"▁Georg":5314,"inn":5315,"▁Star":5316,"33":5317,"▁places":5318,"▁freedom":5319,"▁domestic":5320,"able.":5321,"ing:":5322,"▁reject":5323,"▁wouldn't":5324,"▁researchers":5325,"▁planning":5326,"▁holding":5327,"▁Chel":5328,"▁wait":5329,"ken":5330,"▁Angeles":5331,"▁sust":5332,"▁electric":5333,"ously":5334,"ref":5335,"arden":5336,":01":5337,"▁vir":5338,"while,":5339,"▁driving":5340,"▁liber":5341,"rang":5342,"▁expand":5343,"▁up.":5344,"▁score":5345,"▁\"h":5346,"vis":5347,"▁dire":5348,"▁immigration":5349,"▁Although":5350,"4)":5351,"▁2,":5352,"lig":5353,"▁Saud":5354,"▁harm":5355,"▁fle":5356,"▁witness":5357,"▁fighting":5358,"▁admitted":5359,"▁Robert":5360,"EO":5361,"rick":5362,"▁bid":5363,"just":5364,"house":5365,"ua":5366,"▁There's":5367,"▁shooting":5368,"▁Frank":5369,"ulf":5370,"▁Mill":5371,"BS":5372,"▁served":5373,"▁boost":5374,"aith":5375,"▁inqu":5376,"▁]":5377,"▁now,":5378,"▁believes":5379,"oms":5380,"▁farm":5381,"ancy":5382,"▁Inc":5383,"▁enfor":5384,"29":5385,"▁wearing":5386,"▁raise":5387,"▁murder":5388,"▁runs":5389,"▁movement":5390,"▁damage":5391,"▁accident":5392,"elled":5393,"▁absolute":5394,"▁Year":5395,"▁3.":5396,"ica":5397,"pts":5398,"▁goals":5399,"▁rail":5400,"▁Prof":5401,"ipped":5402,"▁finished":5403,"▁Jud":5404,"imately":5405,"▁bur":5406,"▁fellow":5407,"▁Rel":5408,"▁Bu":5409,"▁secret":5410,"▁referendum":5411,"▁Virgin":5412,"▁insurance":5413,"ous.":5414,"oor":5415,"▁movie":5416,"1⁄2Ð":5417,"▁we've":5418,"▁Jones":5419,"::":5420,"▁Sant":5421,"▁agree":5422,"▁Dis":5423,"▁Christian":5424,"▁becoming":5425,"▁heavy":5426,"▁tal":5427,"▁accom":5428,"▁dream":5429,"▁County":5430,"▁10,":5431,"rated":5432,"▁diplom":5433,"inger":5434,"▁views":5435,"abin":5436,"pool":5437,"izing":5438,"▁retail":5439,"e.\"":5440,"▁correct":5441,"yr":5442,"▁ran":5443,"▁Martin":5444,"▁0.":5445,"▁lose":5446,"▁worst":5447,"▁Mean":5448,"▁physical":5449,"▁categ":5450,"▁is,":5451,"▁apart":5452,"▁pictures":5453,"cont":5454,"▁pul":5455,"▁committee":5456,"as.":5457,"▁clot":5458,"15":5459,"▁answer":5460,"acked":5461,"▁confidence":5462,"▁Italian":5463,"▁band":5464,"▁cyc":5465,"▁platform":5466,"z,":5467,"▁Google":5468,"▁Good":5469,"▁pet":5470,"▁Tre":5471,"▁emergency":5472,"▁Syria":5473,"▁tough":5474,"▁doz":5475,"▁Royal":5476,"▁Prince":5477,"▁\"p":5478,"▁No.":5479,"35":5480,"▁Spanish":5481,"▁2015.":5482,"▁Kel":5483,"▁kids":5484,"▁usually":5485,"▁rain":5486,"▁temperature":5487,"▁Cru":5488,"▁et":5489,"▁there.":5490,"sea":5491,"us.":5492,"▁provides":5493,"▁Your":5494,"▁church":5495,"▁Int":5496,"▁resc":5497,"▁agg":5498,"▁(S":5499,"bum":5500,"▁chem":5501,"▁hearing":5502,"▁shut":5503,"3)":5504,"▁prepared":5505,"▁African":5506,"-sh":5507,"▁tack":5508,"▁iP":5509,"uct":5510,"▁seeking":5511,"▁purs":5512,"pet":5513,"▁planned":5514,"▁pregn":5515,"▁ton":5516,"antly":5517,"▁prime":5518,"icip":5519,"▁gues":5520,"▁culture":5521,"▁defense":5522,"▁ath":5523,"▁profit":5524,"▁policies":5525,"▁kit":5526,"▁CNN":5527,"ent,":5528,"▁nomin":5529,"▁push":5530,"▁limit":5531,"▁throw":5532,"▁tro":5533,"▁Jew":5534,"▁homes":5535,"▁Apple":5536,"▁p.m.":5537,"ent.":5538,"▁Kar":5539,"▁blue":5540,"▁meaning":5541,"apped":5542,"▁managed":5543,"ago":5544,"▁Guard":5545,"▁capac":5546,"▁skin":5547,"▁ir":5548,"rog":5549,"▁income":5550,"▁apparent":5551,"overy":5552,"rey":5553,"▁flag":5554,"▁Home":5555,"unities":5556,"▁shock":5557,"▁swim":5558,"▁Er":5559,"▁putting":5560,"▁Afghan":5561,"▁pull":5562,"▁eye":5563,"▁activity":5564,"▁Korean":5565,"t,":5566,"▁nam":5567,"iring":5568,"▁influence":5569,"▁affect":5570,"▁eventually":5571,"▁voted":5572,"-of":5573,"▁seeing":5574,"ici":5575,"▁Far":5576,"▁spirit":5577,"▁noted":5578,"ecause":5579,"on's":5580,"▁domin":5581,"coming":5582,"-and":5583,"ru/":5584,"▁she's":5585,"ors,":5586,"▁owners":5587,"oly":5588,"▁practice":5589,"▁Compan":5590,"-th":5591,"▁Both":5592,"▁restrict":5593,"▁speaking":5594,"ables":5595,"▁computer":5596,"▁serve":5597,"▁league":5598,"oes":5599,"illing":5600,"ki":5601,"ruption":5602,"▁medic":5603,"▁Cub":5604,"▁patient":5605,"▁depart":5606,"▁month,":5607,"▁Wood":5608,"▁I'd":5609,"▁established":5610,"▁fat":5611,"▁psych":5612,"IC":5613,"▁commercial":5614,"▁eat":5615,"▁Turn":5616,"▁beg":5617,"▁legislation":5618,"roud":5619,"▁primary":5620,"▁home.":5621,"ad,":5622,"HS":5623,"EC":5624,"▁allows":5625,"going":5626,"▁massive":5627,"net":5628,"mond":5629,"eless":5630,"▁unique":5631,"▁countri":5632,"▁telling":5633,"▁favor":5634,"ry,":5635,"▁Dist":5636,"▁trend":5637,"oral":5638,"▁propert":5639,"itude":5640,"▁Turk":5641,"▁paper":5642,"▁Liber":5643,"ен":5644,"▁II":5645,"▁Up":5646,"▁night.":5647,"▁\"You":5648,"▁facing":5649,"any":5650,"▁fram":5651,"▁requested":5652,"▁fif":5653,"▁millions":5654,"▁flood":5655,"▁operating":5656,"▁Grand":5657,"iling":5658,"▁2010,":5659,"▁advert":5660,"▁sister":5661,"▁tourn":5662,"▁ut":5663,"hab":5664,"ams":5665,"-day":5666,"ented":5667,"▁flights":5668,"▁difference":5669,"▁wid":5670,"▁employees":5671,"▁discovered":5672,"▁Hollywood":5673,"▁unit":5674,"▁Bus":5675,"ribute":5676,"▁Let":5677,"▁offering":5678,"▁lic":5679,"lusive":5680,"▁well.":5681,"ewhere":5682,"▁Mike":5683,"▁eth":5684,"une":5685,"▁uns":5686,"▁fashion":5687,"ст":5688,"▁unlike":5689,"▁ded":5690,"ices.":5691,"▁length":5692,"▁innov":5693,"▁ship":5694,"▁window":5695,"▁society":5696,"EN":5697,"▁Sup":5698,"▁strike":5699,"▁separate":5700,"▁fine":5701,"ie,":5702,"▁altern":5703,"▁relative":5704,"▁(U":5705,"aded":5706,"▁'It":5707,"ropriate":5708,"▁draft":5709,"rastruct":5710,"know":5711,"▁connection":5712,"▁warm":5713,"ist,":5714,"nel":5715,"ulated":5716,"▁supporters":5717,"▁cars":5718,"▁denied":5719,"▁Lu":5720,"abor":5721,"ronic":5722,"▁however":5723,"▁Stud":5724,"▁rule":5725,"▁mobile":5726,"ading":5727,"isb":5728,"burgh":5729,"ina,":5730,"▁Del":5731,"ih":5732,"▁ago.":5733,"▁afternoon":5734,"ription":5735,"▁Mary":5736,"asts":5737,"umn":5738,"The":5739,"▁contest":5740,"▁application":5741,"▁asking":5742,"fast":5743,"▁smart":5744,"▁game.":5745,"▁issu":5746,"▁technolog":5747,"▁daily":5748,"▁crime":5749,"▁example,":5750,"▁choose":5751,"▁Press":5752,"▁thinking":5753,"▁organization":5754,"▁expert":5755,"▁500":5756,"▁Att":5757,"ien":5758,"▁Those":5759,"▁overall":5760,"▁bond":5761,"▁Cal":5762,"-off":5763,"▁audience":5764,"porary":5765,"▁analyst":5766,"6)":5767,"C.":5768,"well":5769,"hy":5770,"▁committed":5771,"▁origin":5772,"▁cultural":5773,"▁ign":5774,"▁grant":5775,"▁earth":5776,"▁strategy":5777,"▁\"If":5778,"ios":5779,"▁sale":5780,"more":5781,"▁\"G":5782,"▁Tor":5783,"▁waiting":5784,"=\"":5785,"ommod":5786,"▁Their":5787,"▁critical":5788,"idel":5789,"▁la":5790,"ushing":5791,"▁operation":5792,"▁Open":5793,"▁Inter":5794,"▁prosp":5795,"▁Tuesday,":5796,"ibr":5797,"▁qualif":5798,"▁course,":5799,"▁\"E":5800,"▁documents":5801,"▁later,":5802,"▁Chic":5803,"apt":5804,"▁install":5805,"▁demonstr":5806,"▁rose":5807,"otten":5808,"▁underst":5809,"aked":5810,"owl":5811,"▁Service":5812,"▁album":5813,"▁benefits":5814,"▁(N":5815,"ript":5816,"where":5817,"lick":5818,"▁broke":5819,"▁afford":5820,"▁multiple":5821,"ait":5822,"▁winner":5823,"▁actions":5824,"▁again.":5825,"▁consist":5826,"▁killing":5827,"▁neighbor":5828,"==":5829,"▁som":5830,"▁continues":5831,"▁schedul":5832,"▁images":5833,"▁mental":5834,"▁Friday,":5835,"▁crash":5836,"▁Sil":5837,"▁reflect":5838,"a>":5839,"▁finding":5840,"▁2011,":5841,"bn":5842,"▁wood":5843,"▁confirm":5844,"▁Invest":5845,"▁Camer":5846,"▁funds":5847,"▁haven":5848,"▁exchange":5849,"▁€":5850,"31":5851,"▁allegations":5852,"▁onto":5853,"▁thanks":5854,"board":5855,"▁knows":5856,"en's":5857,"ae":5858,"▁Sn":5859,"▁slight":5860,"▁surger":5861,"▁Monday,":5862,"▁2007,":5863,"▁Church":5864,"▁Ver":5865,"gypt":5866,"▁alongside":5867,"ours":5868,"▁п":5869,"craft":5870,"▁injury":5871,"▁Sar":5872,"▁der":5873,"▁Trump,":5874,"....":5875,"▁chairman":5876,"▁style":5877,"▁facilities":5878,"▁Den":5879,"▁her.":5880,"▁St.":5881,"▁AC":5882,"▁supply":5883,"TV":5884,"▁helping":5885,"▁sitting":5886,"μÐ":5887,"▁truth":5888,"-pro":5889,"▁45":5890,"▁confident":5891,"▁Bern":5892,"unning":5893,"▁Mod":5894,"▁losing":5895,"▁mission":5896,"▁connect":5897,"▁hopes":5898,"▁NS":5899,"▁resources":5900,"▁%":5901,"▁Mag":5902,"mine":5903,"▁eyes":5904,"▁conclud":5905,"ricult":5906,"▁gra":5907,"▁2007":5908,"LL":5909,"ar,":5910,"49":5911,"php?":5912,"▁amid":5913,"▁00":5914,"▁flow":5915,"▁Cle":5916,"▁Econom":5917,"atever":5918,"cohol":5919,"onald":5920,"▁out,":5921,"▁frequ":5922,"▁willing":5923,"▁remind":5924,"▁Down":5925,"▁flat":5926,"▁month.":5927,"eter":5928,"▁acknow":5929,"▁effects":5930,"▁wound":5931,"▁Dr.":5932,"▁express":5933,"▁direction":5934,"▁extremely":5935,"▁placed":5936,"▁older":5937,"ress.":5938,"▁Putin":5939,"lor":5940,"▁Barcel":5941,"▁ones":5942,"▁Big":5943,"mat":5944,"▁epis":5945,"▁Work":5946,"▁Thursday,":5947,"tered":5948,"-B":5949,"▁Saudi":5950,"▁bul":5951,"ps":5952,"▁animal":5953,"▁Wednesday,":5954,"▁collection":5955,"▁environmental":5956,"▁doubt":5957,"iced":5958,"▁presented":5959,"▁cred":5960,"▁Sir":5961,"▁dropped":5962,"▁fuel":5963,"▁decad":5964,"▁consequ":5965,"▁opportunities":5966,"▁affected":5967,"-P":5968,"▁Italy":5969,"▁limited":5970,"▁incred":5971,"▁increasingly":5972,"▁setting":5973,"lad":5974,"▁district":5975,"ilty":5976,"▁season,":5977,"▁measure":5978,"put":5979,"▁internet":5980,"ador":5981,"▁Liver":5982,"▁wealth":5983,"▁task":5984,"ase.":5985,"▁Str":5986,"▁normal":5987,"▁champion":5988,"▁Out":5989,"les.":5990,"▁veter":5991,"▁motor":5992,"ton,":5993,"▁reportedly":5994,"▁writing":5995,"▁technical":5996,"▁Chief":5997,"▁boss":5998,"▁providing":5999,"is.":6000,"▁destroy":6001,"▁businesses":6002,"▁linked":6003,"▁stopped":6004,"▁monitor":6005,"▁expressed":6006,"aries":6007,"▁cool":6008,"ata":6009,"▁href":6010,"▁delay":6011,"▁Tay":6012,"▁Daily":6013,"▁actor":6014,"▁lived":6015,"▁excell":6016,"▁Found":6017,"▁housing":6018,"ation:":6019,"▁cold":6020,"▁(P":6021,"▁FBI":6022,"isher":6023,"▁abuse":6024,"▁Northern":6025,"▁However":6026,"▁infrastruct":6027,"▁Child":6028,"▁quiet":6029,"ра":6030,"ils":6031,"▁nice":6032,"H,":6033,"▁Prot":6034,"izz":6035,"▁status":6036,"▁'We":6037,"ili":6038,"▁Egypt":6039,"woman":6040,"▁bought":6041,"▁worse":6042,"7)":6043,"▁radio":6044,"▁existing":6045,"▁yourself":6046,"▁Texas":6047,"▁Sol":6048,"▁here.":6049,"▁4.":6050,"vant":6051,"▁too.":6052,"▁colleag":6053,"▁investors":6054,"▁produced":6055,"ns":6056,"▁oppon":6057,"▁comfortable":6058,"▁guests":6059,"▁knowledge":6060,"▁article":6061,"▁Wal":6062,"ighter":6063,"▁feature":6064,"</a>":6065,"▁trail":6066,"rig":6067,"▁perm":6068,"▁consid":6069,"▁Steve":6070,"▁welcome":6071,"▁standing":6072,"▁Camp":6073,"▁statement.":6074,"▁rich":6075,"▁developing":6076,"pper":6077,"▁now.":6078,"▁feed":6079,"▁resign":6080,"▁Win":6081,"▁snow":6082,"bol":6083,"▁sides":6084,"▁2006,":6085,"▁crew":6086,"▁Sanders":6087,"',":6088,"▁accus":6089,"▁vehicle":6090,"sid":6091,"▁programme":6092,"PI":6093,"▁work.":6094,"▁university":6095,"▁Supreme":6096,"18":6097,"rif":6098,"▁Institute":6099,"▁accommod":6100,"▁industrial":6101,"▁defence":6102,"▁mer":6103,"▁Mail":6104,"bre":6105,"hew":6106,"▁equipment":6107,"1)":6108,"▁dangerous":6109,"▁Fer":6110,"▁evening":6111,"▁girls":6112,"▁Wat":6113,"▁Cam":6114,"▁pra":6115,"▁piece":6116,"▁science":6117,"▁\"R":6118,"▁Middle":6119,"▁hero":6120,"▁resolution":6121,"▁owner":6122,"▁Liverpool":6123,"itutional":6124,"▁McG":6125,"▁Join":6126,"▁max":6127,"▁markets":6128,"▁you.":6129,"fl":6130,"▁stuff":6131,"inh":6132,"▁tight":6133,"▁walking":6134,"itely":6135,"▁Rod":6136,"▁defeat":6137,"▁circum":6138,"▁Kh":6139,"orting":6140,"▁princip":6141,"aire":6142,"▁fit":6143,"▁proud":6144,"▁Ev":6145,"▁presence":6146,"▁withd":6147,"▁Yet":6148,"▁Det":6149,"▁guilty":6150,"ulate":6151,"ка":6152,"▁finish":6153,"▁faith":6154,"▁Hel":6155,"▁creating":6156,"36":6157,"▁communities":6158,"▁opinion":6159,"▁location":6160,"▁Jim":6161,"38":6162,"och":6163,"▁world,":6164,"▁Centre":6165,"▁possibility":6166,"riff":6167,"anging":6168,"▁feet":6169,"▁photograph":6170,"▁married":6171,"▁supported":6172,"ogue":6173,"el,":6174,"▁liv":6175,"/2016":6176,"▁decades":6177,"ad.":6178,"▁tournament":6179,"▁Ell":6180,"▁Coast":6181,"▁pound":6182,"▁treated":6183,"-n":6184,"met":6185,"▁mone":6186,"▁Unknown":6187,"▁strength":6188,"▁banks":6189,"▁2000":6190,"ework":6191,"▁truck":6192,"▁guard":6193,"▁2016.":6194,"▁debut":6195,"▁jour":6196,"▁tast":6197,"▁Nic":6198,"▁Francis":6199,"▁Des":6200,"▁struck":6201,"▁Cur":6202,"▁watching":6203,"▁\"n":6204,"▁mostly":6205,"▁Bul":6206,",\"\"":6207,"▁neighbour":6208,"ivery":6209,"▁operations":6210,"an's":6211,"17":6212,"▁amend":6213,"▁remained":6214,"▁spect":6215,"▁century":6216,"▁Windows":6217,"▁stick":6218,"▁Earth":6219,"▁Bur":6220,"▁way.":6221,"▁kitchen":6222,"▁covered":6223,"▁Thank":6224,"▁lines":6225,"▁largely":6226,"estin":6227,"▁Fre":6228,"▁bedroom":6229,"▁<a":6230,"▁voice":6231,"▁Rom":6232,"▁mic":6233,"▁faces":6234,"itz":6235,"▁traffic":6236,"▁Human":6237,"hens":6238,"▁(I":6239,"▁pil":6240,"▁easily":6241,"▁Rad":6242,"ices,":6243,"▁magaz":6244,"▁'s":6245,"▁overse":6246,"▁prompt":6247,"▁memor":6248,"ka":6249,"▁catch":6250,"▁Queens":6251,"ko":6252,"▁'S":6253,"makers":6254,"▁RE":6255,"▁Jeff":6256,"▁coff":6257,"▁say,":6258,"rie":6259,"▁male":6260,"▁vul":6261,"hered":6262,"▁solid":6263,"ova":6264,"▁Social":6265,"▁athlet":6266,"ST":6267,"lass":6268,"▁2013,":6269,"ists,":6270,"▁alone":6271,"▁amaz":6272,"▁explos":6273,"ensions":6274,"----":6275,"▁Haw":6276,"▁interested":6277,"▁refused":6278,"▁up,":6279,"ideo":6280,"▁plays":6281,"▁produce":6282,"37":6283,"▁keeping":6284,"▁Us":6285,"▁Jer":6286,"▁night,":6287,"anda":6288,"▁stars":6289,"▁union":6290,"AP":6291,"▁Nick":6292,"▁32":6293,"▁rid":6294,"andon":6295,"▁Sur":6296,"▁yester":6297,"▁estimated":6298,"▁fired":6299,"▁politics":6300,"▁nom":6301,"arch":6302,"-a":6303,"▁allegedly":6304,"▁aged":6305,"la":6306,"-the":6307,"▁steps":6308,"▁Wales":6309,"▁drugs":6310,"▁on.":6311,"▁you,":6312,"ism,":6313,"ss":6314,"▁India":6315,"▁illegal":6316,"▁debt":6317,"standing":6318,"44":6319,"▁digital":6320,"▁2014.":6321,"▁doctors":6322,"▁Pri":6323,"▁survey":6324,"!\"":6325,"▁behavi":6326,"▁youth":6327,"▁25,":6328,"byn":6329,"▁cry":6330,"erved":6331,"▁Daniel":6332,"▁URL":6333,"▁dismiss":6334,"look":6335,"▁instit":6336,"▁reasons":6337,"▁internal":6338,"▁fra":6339,"▁nar":6340,"otted":6341,"▁stress":6342,"▁Federal":6343,"▁basic":6344,"▁row":6345,"▁Before":6346,"▁Atlant":6347,"▁diagn":6348,"ecution":6349,"▁CEO":6350,"fortun":6351,"▁liter":6352,"▁Thomas":6353,"▁lands":6354,"▁Cast":6355,"▁Images":6356,"word":6357,"ville":6358,"in.":6359,"ache":6360,"▁heat":6361,"▁arrang":6362,"echan":6363,"▁declared":6364,"▁weapons":6365,"▁nor":6366,"uing":6367,"▁36":6368,"▁signs":6369,"A,":6370,"▁Ap":6371,"▁negative":6372,"@@":6373,"▁introduced":6374,"▁Like":6375,"▁winter":6376,"▁Internet":6377,"▁aren't":6378,"▁stories":6379,"▁Develop":6380,"upp":6381,"oted":6382,"ordin":6383,"▁votes":6384,"▁aircraft":6385,"▁pulled":6386,"ining":6387,"▁Public":6388,"▁secure":6389,"oz":6390,"▁northern":6391,"▁twice":6392,"▁Williams":6393,"▁terrorist":6394,"▁alcohol":6395,"▁note":6396,"▁Mont":6397,"▁glass":6398,"▁relax":6399,"▁2012,":6400,"▁Instead":6401,"8)":6402,"▁capacity":6403,"▁renew":6404,"urric":6405,"▁tend":6406,"▁\"I'm":6407,"▁faced":6408,"▁advoc":6409,"ocol":6410,"ous,":6411,"▁Commissioner":6412,"▁standards":6413,"▁Ann":6414,"▁Meanwhile,":6415,"ini":6416,"▁country,":6417,"lease":6418,"▁actual":6419,"▁curren":6420,"ism.":6421,"9)":6422,"▁luck":6423,"▁murd":6424,"▁Turkish":6425,"▁Organ":6426,"▁Association":6427,"▁Florida":6428,"▁actress":6429,"▁????":6430,"▁west":6431,"▁Zeal":6432,"▁fifth":6433,"▁Fam":6434,"ors.":6435,"▁transl":6436,"▁identified":6437,"▁Canber":6438,"▁giant":6439,"ingly":6440,"▁Kn":6441,"▁hall":6442,"▁clin":6443,"▁please":6444,"resa":6445,"▁analysis":6446,"▁bottom":6447,"▁conflict":6448,"▁'A":6449,"▁ele":6450,"roc":6451,"enced":6452,"▁decisions":6453,"▁section":6454,"▁wrot":6455,"▁loved":6456,"▁22,":6457,"°Ð":6458,"▁user":6459,"▁Britain's":6460,"▁fort":6461,"▁emph":6462,"▁unable":6463,"▁occup":6464,"▁Pak":6465,"▁Its":6466,"▁declined":6467,"▁religious":6468,"▁lux":6469,"▁decide":6470,"▁Fair":6471,"▁disease":6472,"can":6473,"▁us.":6474,"▁gain":6475,"▁severe":6476,"ancing":6477,"▁breat":6478,"rov":6479,"▁importance":6480,"▁Museum":6481,"▁complain":6482,"▁Women":6483,"▁interests":6484,"-le":6485,"▁deleg":6486,"▁rival":6487,"racy":6488,"iny":6489,"▁resol":6490,"under":6491,"▁tells":6492,"▁thr":6493,"▁shar":6494,"▁\"g":6495,"olit":6496,"▁Armenia":6497,"acing":6498,"▁refugees":6499,"▁comed":6500,"los":6501,"▁fish":6502,"▁execut":6503,"▁exhibition":6504,"▁Rock":6505,"imin":6506,"▁gent":6507,"▁\"He":6508,"rawn":6509,"▁Africa":6510,"▁rally":6511,"nces":6512,"▁paying":6513,"▁Corbyn":6514,"▁stret":6515,"▁ice":6516,"ero":6517,"time":6518,"abb":6519,"mosp":6520,"▁missed":6521,"▁focused":6522,"▁advantage":6523,"▁van":6524,"▁Amaz":6525,"▁Any":6526,"▁reserv":6527,"▁Zealand":6528,"atically":6529,"▁spark":6530,"▁allowing":6531,"alse":6532,"▁Sunday,":6533,"▁Media":6534,"▁names":6535,"▁Because":6536,"▁Gal":6537,"▁bathroom":6538,"▁̧Ð":6539,"▁democ":6540,"com/":6541,"▁conservative":6542,"▁(G":6543,"ill,":6544,"▁satis":6545,"▁maybe":6546,"ress,":6547,"▁novel":6548,"▁estate":6549,"ivity":6550,"icon":6551,"▁initial":6552,"▁Tour":6553,"▁gar":6554,"ario":6555,"▁payment":6556,"▁Techn":6557,"▁2006":6558,"▁vulner":6559,"▁bird":6560,"iest":6561,"ivered":6562,"▁guy":6563,"▁Old":6564,"▁organis":6565,"▁proceed":6566,"▁life,":6567,"▁grew":6568,"formation":6569,"-ch":6570,"▁popul":6571,"▁corporate":6572,"▁Card":6573,"u,":6574,"▁weak":6575,"▁feels":6576,"▁Roman":6577,"▁suic":6578,"▁suspect":6579,"▁2017,":6580,"▁carrying":6581,"▁east":6582,"duction":6583,"ias":6584,"▁inquir":6585,"▁all,":6586,"ado":6587,"▁highlight":6588,"▁coup":6589,"▁controll":6590,"▁Jam":6591,"uly":6592,"▁ordered":6593,"ota":6594,"▁Lew":6595,"able,":6596,"▁Club":6597,"▁lock":6598,"ban":6599,"▁rising":6600,"46":6601,"phone":6602,"▁pleas":6603,"▁Mat":6604,"▁command":6605,"▁River":6606,"▁haven't":6607,"ley,":6608,"▁Belg":6609,"▁reporters":6610,"nings":6611,"opp":6612,"▁Come":6613,"▁Author":6614,"▁Real":6615,"▁Canberra":6616,"▁belong":6617,"▁scheduled":6618,"▁visitors":6619,"▁recall":6620,"▁Louis":6621,"▁wedd":6622,"▁subm":6623,"19":6624,"▁Stephen":6625,"▁Nav":6626,"angers":6627,"▁Os":6628,"MT":6629,"ula":6630,"▁nearby":6631,"ID":6632,"▁tele":6633,"▁artist":6634,"▁expensive":6635,"▁About":6636,"▁Fund":6637,"▁scientists":6638,"ads":6639,"▁explained":6640,"▁learned":6641,"▁scr":6642,"▁scand":6643,"▁circumst":6644,"▁penal":6645,"▁teach":6646,"▁sudd":6647,"ossible":6648,"▁museum":6649,"▁5.":6650,"▁Board":6651,"▁District":6652,"▁pap":6653,"▁apply":6654,"▁behaviour":6655,"▁rub":6656,"▁dial":6657,"▁virt":6658,"utch":6659,"iment":6660,"exp":6661,"47":6662,"▁300":6663,"▁negotiations":6664,"▁commitment":6665,"▁village":6666,"▁33":6667,"▁Former":6668,"▁southern":6669,"▁healthy":6670,"essions":6671,"oured":6672,"▁Joined:":6673,"▁absolutely":6674,"istics":6675,"▁missile":6676,"▁delivered":6677,"▁tear":6678,"▁tow":6679,"▁remov":6680,"▁incom":6681,"▁associated":6682,"▁click":6683,"▁Also":6684,"▁\"In":6685,"▁Ma":6686,"owed":6687,"▁corner":6688,"▁Rights":6689,"▁Sk":6690,"▁Bush":6691,"▁Chelsea":6692,"▁Beach":6693,"▁pray":6694,"▁Japanese":6695,"▁announcement":6696,"▁Harry":6697,"ant,":6698,"▁tick":6699,"▁elections":6700,"▁'H":6701,"▁balance":6702,"▁aimed":6703,"▁emp":6704,"wide":6705,"at,":6706,"tained":6707,"▁passengers":6708,"▁candidates":6709,"▁resist":6710,"▁company's":6711,"▁NSW":6712,"aug":6713,"▁visited":6714,"▁contain":6715,"ighters":6716,"action":6717,"▁participants":6718,"▁session":6719,"respond":6720,"▁Av":6721,"▁attended":6722,"▁cuts":6723,"y.\"":6724,"=http://":6725,"▁pled":6726,"▁oblig":6727,"▁Jord":6728,"▁Research":6729,"▁selling":6730,"▁Way":6731,"▁Friday.":6732,"▁options":6733,"▁approved":6734,"▁reading":6735,":10":6736,"▁entertain":6737,"▁advice":6738,"▁map":6739,"▁trading":6740,"▁in.":6741,"agon":6742,"jan":6743,"▁involve":6744,"▁excellent":6745,"▁Irish":6746,"equ":6747,"▁GOP":6748,"▁sty":6749,"▁Dar":6750,"itect":6751,"▁atmosp":6752,"▁Rio":6753,"erous":6754,"forum":6755,"stein":6756,"▁stood":6757,"ception":6758,"ge,":6759,"▁Mexico":6760,"▁academ":6761,"▁professor":6762,"lies":6763,"▁completed":6764,"▁justice":6765,"▁”":6766,"▁Jes":6767,"▁wear":6768,"▁kne":6769,"▁sav":6770,"▁Only":6771,"▁customer":6772,"▁removed":6773,"ite,":6774,"▁Saturday,":6775,"▁@":6776,"▁dollar":6777,"▁Director":6778,"▁sources":6779,"▁plenty":6780,"▁worry":6781,"anch":6782,"▁mort":6783,"▁bringing":6784,"▁Test":6785,"igg":6786,"uts":6787,"▁$1.":6788,"▁Book":6789,"▁Tuesday.":6790,"▁reported.":6791,"ource:":6792,"▁background":6793,"illa":6794,"▁one.":6795,"▁Bruss":6796,"▁this,":6797,"▁supposed":6798,"▁larger":6799,"r.":6800,"▁voting":6801,"▁long-term":6802,"▁forecast":6803,"-R":6804,"▁sought":6805,"▁essential":6806,"▁camera":6807,"▁hack":6808,"▁plane":6809,"ise,":6810,"▁chemical":6811,"-T":6812,"▁appearance":6813,"▁We're":6814,"▁Pac":6815,"▁what's":6816,"▁RT":6817,"▁ticket":6818,"▁ISIS":6819,"▁ce":6820,"▁Wel":6821,"▁Queensland":6822,"▁Gra":6823,"▁Monday.":6824,"▁apolog":6825,"-L":6826,"▁behalf":6827,"▁learning":6828,"-on":6829,"▁Ukraine":6830,"el.":6831,"▁interesting":6832,"▁frust":6833,"bon":6834,"▁fant":6835,"AL":6836,"athan":6837,"wise":6838,"▁sudden":6839,"▁experienced":6840,"▁tradition":6841,"▁univers":6842,"▁centur":6843,"▁Nations":6844,"auc":6845,"ducing":6846,"▁Credit":6847,"▁types":6848,"▁Three":6849,"icated":6850,"▁Show":6851,"▁pointed":6852,"▁case,":6853,"▁Hospital":6854,"▁hasn't":6855,"▁Sing":6856,"▁abus":6857,"▁rough":6858,"▁perman":6859,"▁Adam":6860,"lege":6861,"issions":6862,"▁prefer":6863,"▁Profess":6864,"▁independence":6865,"▁anti":6866,"▁•":6867,"▁women's":6868,"reek":6869,"amin":6870,"▁beauty":6871,"▁nomine":6872,"▁Josh":6873,"▁institutions":6874,"▁becomes":6875,"▁Ale":6876,"▁Palestin":6877,"):":6878,"▁agend":6879,"▁write":6880,"▁Moore":6881,"▁Brad":6882,"▁enforcement":6883,"▁Bo":6884,"▁Wednesday.":6885,"▁pal":6886,"▁Ari":6887,"▁anc":6888,"▁Joe":6889,"▁pitch":6890,"▁master":6891,"▁mechan":6892,"▁hurt":6893,"evin":6894,"▁Mu":6895,"abled":6896,"▁Bal":6897,"▁Once":6898,"▁sand":6899,"astern":6900,"▁streets":6901,"iversary":6902,"oking":6903,"▁web":6904,"▁valu":6905,"▁determined":6906,"▁crack":6907,"▁elected":6908,"▁there,":6909,"▁***":6910,"▁Madrid":6911,"▁captain":6912,"▁Arsen":6913,"▁Berlin":6914,"▁months.":6915,"▁prove":6916,"▁China's":6917,"▁suggests":6918,"▁optim":6919,"▁complic":6920,"▁emphas":6921,"▁Lib":6922,"▁turning":6923,"atre":6924,"▁migrants":6925,"▁younger":6926,"95":6927,"keep":6928,"▁conducted":6929,"▁Vol":6930,"iger":6931,"▁Pu":6932,"itarian":6933,"▁potentially":6934,"▁Thursday.":6935,"care":6936,"▁34":6937,"ite.":6938,"▁today.":6939,"▁Who":6940,"▁Pen":6941,"OS":6942,"▁(D":6943,"▁Theresa":6944,"otic":6945,"itte":6946,"▁closer":6947,"▁Ash":6948,"▁client":6949,"▁(T":6950,"▁$3":6951,"▁retire":6952,"▁place.":6953,"▁Best":6954,"▁3,":6955,"ay,":6956,"ola":6957,"os,":6958,"▁Business":6959,"▁server.":6960,"▁fundament":6961,"▁Murray":6962,"fit":6963,"line.":6964,"▁shel":6965,"▁marriage":6966,"▁square":6967,"▁goods":6968,"▁bodies":6969,"atures":6970,"ED":6971,"▁mountain":6972,"▁equal":6973,"ellow":6974,"▁Speaking":6975,"▁discussed":6976,"▁lawyer":6977,"▁children,":6978,"▁Bor":6979,"▁kil":6980,"iy":6981,"▁consumer":6982,"▁suffering":6983,"▁Leg":6984,"▁device":6985,"▁armed":6986,"▁Pict":6987,"▁С":6988,"▁supporting":6989,"▁broken":6990,"▁maintain":6991,"▁Top":6992,"▁Canada":6993,"▁agricult":6994,"▁says,":6995,"▁ru":6996,"BA":6997,"▁ruling":6998,"▁Jere":6999,"▁challenges":7000,"▁iPh":7001,"▁Airport":7002,"▁vehicles":7003,"▁recorded":7004,"▁rom":7005,"ah,":7006,"▁21,":7007,"lusion":7008,"▁definitely":7009,"▁bigger":7010,"▁immediate":7011,"▁sustain":7012,"▁thousand":7013,"▁Brook":7014,"▁urged":7015,"▁\"They":7016,"olic":7017,"▁—":7018,"ро":7019,"▁criticism":7020,"▁Fil":7021,"idden":7022,"▁college":7023,"▁entered":7024,"65":7025,"▁accounts":7026,"▁forc":7027,"▁celeb":7028,"▁disappoint":7029,"▁Oh":7030,"▁way,":7031,"▁Fest":7032,"▁whatever":7033,"iverse":7034,"▁gradu":7035,"▁2005":7036,"ife,":7037,"▁regarding":7038,"▁bright":7039,"ennis":7040,"▁alternative":7041,"▁remaining":7042,"▁fly":7043,"urban":7044,"▁transp":7045,"ат":7046,"▁mut":7047,"▁ge":7048,"▁NHS":7049,"▁shopping":7050,"▁injuries":7051,"▁Academ":7052,"▁Squ":7053,"▁attorney":7054,"rist":7055,"▁etc":7056,"▁rapid":7057,"▁remove":7058,"▁footage":7059,"or's":7060,"▁condem":7061,"▁acknowled":7062,"▁symbol":7063,"▁Max":7064,"amp;":7065,"▁split":7066,"▁home,":7067,"▁reporting":7068,"▁starts":7069,"▁Fire":7070,"ace.":7071,"▁historic":7072,"▁London,":7073,"aped":7074,"▁Feder":7075,"▁filed":7076,"▁38":7077,"▁fraud":7078,"▁programm":7079,"osition":7080,"▁colleagues":7081,"▁dinner":7082,"▁failure":7083,"▁appropriate":7084,"▁self-":7085,"▁Young":7086,"▁Canadian":7087,"▁gather":7088,"▁Gen":7089,"▁colour":7090,"▁partnership":7091,"▁Kelly":7092,"▁Van":7093,"▁NFL":7094,"▁Four":7095,"ube":7096,"osing":7097,"▁Lee":7098,"▁work,":7099,"▁seriously":7100,"▁Hen":7101,"▁programs":7102,"▁changing":7103,"▁system.":7104,"▁Affairs":7105,"▁understanding":7106,"acu":7107,"▁Follow":7108,"▁minute":7109,"▁coalition":7110,"▁magn":7111,"▁individuals":7112,"▁singer":7113,"▁diss":7114,"▁vice":7115,"]>":7116,"allery":7117,"▁controversial":7118,"▁www":7119,"▁loan":7120,"ked":7121,"ais":7122,"▁away.":7123,"ia)":7124,"▁Spec":7125,"▁thus":7126,"▁sites":7127,"▁Ol":7128,"▁generation":7129,"▁adopted":7130,"▁walked":7131,"▁minimum":7132,"▁greatest":7133,"▁familiar":7134,"alu":7135,"onom":7136,"▁Bob":7137,"▁Ener":7138,"▁down.":7139,"▁Edin":7140,"▁burn":7141,"▁wake":7142,"ras":7143,"▁Dub":7144,"▁uses":7145,"▁veget":7146,"▁non-":7147,"▁Deb":7148,"▁leaves":7149,"uction":7150,"▁back.":7151,"aks":7152,"▁cheap":7153,"▁cy":7154,"▁welcom":7155,"▁consumers":7156,"▁Foot":7157,"▁then,":7158,"gu":7159,"▁Sum":7160,"▁context":7161,"▁though,":7162,"▁Pakistan":7163,"▁sentence":7164,"idency":7165,"IT":7166,"▁repeatedly":7167,"embly":7168,"▁unus":7169,"14":7170,"▁infrastructure":7171,"▁vast":7172,"▁wine":7173,"▁Luc":7174,"▁tom":7175,"onym":7176,"acts":7177,"▁government's":7178,"▁́":7179,"gers":7180,"▁odd":7181,"ace,":7182,"▁vision":7183,"▁crucial":7184,"ogan":7185,"77":7186,"▁smaller":7187,"▁Road":7188,"▁Du":7189,"▁Beij":7190,"▁View":7191,"-sc":7192,"▁restaurants":7193,"▁king":7194,"ternal":7195,"▁gentle":7196,"▁Anth":7197,"++":7198,"aming":7199,"ory.":7200,"▁fruit":7201,"▁picked":7202,"ists.":7203,"▁editor":7204,"▁emerged":7205,"▁days.":7206,"▁eating":7207,"▁Australia's":7208,"▁reporter":7209,"AM":7210,"▁reduced":7211,"▁boot":7212,"▁do.":7213,"▁I'll":7214,"▁AP":7215,"▁registered":7216,"ORE":7217,"▁discussion":7218,"ius":7219,"▁initially":7220,"▁rein":7221,"▁Sat":7222,"▁Coll":7223,"▁Sports":7224,"▁extrem":7225,"▁children.":7226,"rible":7227,"▁values":7228,"unte":7229,"ika":7230,"▁Israeli":7231,"▁newspaper":7232,"▁politicians":7233,"▁you've":7234,"▁drivers":7235,"▁Dou":7236,"▁variety":7237,"▁Las":7238,"▁contem":7239,"▁D.":7240,"▁Sea":7241,"▁Naz":7242,"▁download":7243,"▁apprec":7244,"▁Championship":7245,"▁this.":7246,"▁www.":7247,"▁Barcelona":7248,"ada":7249,"-mon":7250,"▁harass":7251,"▁festival":7252,"ena":7253,"▁falling":7254,"▁Cruz":7255,"▁impossible":7256,"▁2005,":7257,"▁false":7258,"▁guys":7259,"eline":7260,"85":7261,"▁representatives":7262,"▁fact,":7263,"▁Kat":7264,"uan":7265,"▁lob":7266,"▁Carolina":7267,"▁hoping":7268,"▁subsid":7269,"▁instr":7270,"▁Edinburgh":7271,"▁dry":7272,"▁it,\"":7273,"ship":7274,"/h":7275,"▁slightly":7276,"ive.":7277,"aine":7278,":20":7279,"▁Walk":7280,"▁diet":7281,"▁Sl":7282,"▁helps":7283,"▁promised":7284,"▁all.":7285,"am,":7286,"но":7287,"▁Tony":7288,"▁anniversary":7289,"▁compar":7290,"tr":7291,"▁du":7292,"▁guest":7293,"▁Love":7294,"▁honest":7295,"▁Free":7296,"▁Rem":7297,"▁books":7298,"adow":7299,"▁$5":7300,"▁boat":7301,"▁marg":7302,"▁mentioned":7303,"attle":7304,"▁atmosphere":7305,"▁Care":7306,"▁rapp":7307,"▁Among":7308,"ise.":7309,"▁photograp":7310,"▁lad":7311,"▁Ker":7312,"▁Mount":7313,"utes":7314,"▁accepted":7315,"▁convention":7316,"▁occurred":7317,"▁Queen":7318,"▁Please":7319,"▁Back":7320,"▁Chicago":7321,"▁nav":7322,"▁dollars":7323,"ifying":7324,"▁surprise":7325,"▁37":7326,"на":7327,"▁studies":7328,"▁breakfast":7329,"▁Long":7330,"▁MPs":7331,"abinet":7332,"ner,":7333,"rier":7334,"▁Sunday.":7335,"▁Asia":7336,"es.\"":7337,"-G":7338,"▁on,":7339,"▁occasion":7340,"▁Company":7341,"▁animals":7342,"aces":7343,"▁intended":7344,"ancell":7345,"▁posts":7346,"k,":7347,"▁promote":7348,"▁Ram":7349,"▁egg":7350,"▁Barack":7351,"▁Penn":7352,"ated,":7353,"inct":7354,"▁penalty":7355,"����":7356,"▁arms":7357,"▁forg":7358,"▁Ly":7359,"-called":7360,"▁adjust":7361,"▁well,":7362,"▁emotional":7363,"00,000":7364,"▁15,":7365,"▁arriv":7366,"▁(F":7367,"▁20,":7368,"▁Matthew":7369,"▁pushed":7370,"▁army":7371,"▁framework":7372,"13":7373,"▁widely":7374,"▁Fed":7375,"▁purpose":7376,"▁Hou":7377,"▁items":7378,"▁Exp":7379,"▁acting":7380,"▁shift":7381,"ter,":7382,"▁uncertain":7383,"▁architect":7384,"▁laugh":7385,"azz":7386,"▁concer":7387,"▁proved":7388,"▁Alexander":7389,"▁x":7390,"raph":7391,"etic":7392,"▁Community":7393,"▁48":7394,"▁Bell":7395,"usal":7396,"▁causing":7397,"▁Week":7398,"ING":7399,"▁chain":7400,"▁employment":7401,"▁surrounding":7402,"usion":7403,"▁Plan":7404,"selv":7405,"▁trouble":7406,"▁transition":7407,"▁squad":7408,"employ":7409,"ocratic":7410,"▁Vlad":7411,"▁game,":7412,"▁you'll":7413,"▁Time":7414,"▁Comp":7415,"▁Bet":7416,"TA":7417,"▁involving":7418,"▁code":7419,"▁judg":7420,"▁Kl":7421,"▁pit":7422,"gr":7423,"▁hotels":7424,"ilton":7425,"▁ideas":7426,"ixt":7427,"▁Medic":7428,"▁troops":7429,"▁sanctions":7430,"rip":7431,"iveness":7432,"▁decade":7433,"▁unlikely":7434,"▁understood":7435,"▁(B":7436,"▁agent":7437,"▁yards":7438,"assador":7439,"▁spokeswoman":7440,"-4":7441,"▁bound":7442,":15":7443,"icious":7444,"▁surve":7445,"▁stands":7446,"▁agencies":7447,"▁ongoing":7448,"▁Where":7449,"▁Saturday.":7450,"▁household":7451,"▁proposals":7452,"▁again,":7453,"▁selection":7454,"▁Stand":7455,"▁Kevin":7456,"inem":7457,"million":7458,"▁Jeremy":7459,"iat":7460,"▁Video":7461,"▁Price":7462,"▁exclusive":7463,"▁championship":7464,"ishes":7465,"ca":7466,"▁replace":7467,"lands":7468,"▁sick":7469,"▁deputy":7470,"▁days,":7471,"▁Rober":7472,"▁generally":7473,"▁hat":7474,"▁Dun":7475,"▁messages":7476,"▁delivery":7477,"▁Whe":7478,"▁garden":7479,"▁Elect":7480,"▁recovery":7481,"▁records":7482,"▁195":7483,"▁regulation":7484,"▁6.":7485,"▁Stadium":7486,"▁leads":7487,"▁Ali":7488,"▁labor":7489,"▁mal":7490,"▁devast":7491,"▁coun":7492,"-month":7493,"▁correspond":7494,"▁happens":7495,"▁Sen.":7496,"▁bare":7497,"ase,":7498,"▁heads":7499,"▁Chair":7500,"▁panel":7501,"ov.":7502,"▁more.":7503,"▁(the":7504,"▁Development":7505,"▁ruled":7506,"▁ven":7507,"▁soldiers":7508,"▁Arch":7509,"▁considering":7510,"▁concent":7511,"▁relatively":7512,"▁eld":7513,"▁'t":7514,"▁Rub":7515,"▁parent":7516,"▁bra":7517,"▁family.":7518,"▁desper":7519,"itors":7520,"▁revenue":7521,"▁gap":7522,"▁Jac":7523,"ugby":7524,"▁concept":7525,"▁Celt":7526,"▁wrote.":7527,"▁die":7528,"▁Osc":7529,"▁easier":7530,"▁Sub":7531,"oses":7532,"▁calc":7533,"▁gender":7534,"▁deals":7535,"▁collabor":7536,"12":7537,"▁abandon":7538,"▁Jenn":7539,"m,":7540,"▁termin":7541,"▁lov":7542,"▁listed":7543,"▁mad":7544,"▁sees":7545,"▁truly":7546,"▁machine":7547,"▁prepar":7548,"iev":7549,"▁(p":7550,"▁settlement":7551,"▁1990":7552,"oked":7553,"91;":7554,"▁governments":7555,"land,":7556,"▁scientific":7557,"▁PC":7558,"▁man,":7559,"s)":7560,"▁forget":7561,"▁Arsenal":7562,"▁index":7563,"▁therap":7564,"urricane":7565,"▁doctor":7566,"▁pattern":7567,"▁so-called":7568,"▁requirements":7569,"▁know,":7570,"▁accord":7571,"▁watched":7572,"▁requires":7573,"gent":7574,"OM":7575,"▁Mir":7576,"▁journey":7577,"▁stores":7578,"▁risks":7579,"▁Dam":7580,"▁ABC":7581,"ortion":7582,"▁ideal":7583,"▁fill":7584,"▁Educ":7585,"▁discrim":7586,"32":7587,"▁Brisb":7588,"▁Stock":7589,"▁plants":7590,"▁&#91;":7591,"▁predict":7592,"verse":7593,"▁months,":7594,"▁numerous":7595,"ugh":7596,"▁maximum":7597,"▁euro":7598,"98":7599,"▁Philipp":7600,"▁pension":7601,"▁es":7602,"▁buildings":7603,"▁disaster":7604,"▁implementation":7605,"FP":7606,"OT":7607,"▁receiving":7608,"en/":7609,"▁concert":7610,"▁golf":7611,"▁city's":7612,"▁withdraw":7613,"93;":7614,"▁($":7615,"ian,":7616,"ette":7617,"imir":7618,"fall":7619,"▁Mun":7620,"▁furn":7621,"▁plus":7622,"igned":7623,"▁Head":7624,"esters":7625,"▁blog":7626,"▁resort":7627,"ita":7628,"▁mir":7629,"▁authority":7630,"order":7631,"▁Veg":7632,"▁ring":7633,"▁sad":7634,"▁USA":7635,"▁Cameron":7636,"▁&#93;":7637,"▁75":7638,"rison":7639,"▁Hay":7640,"▁neck":7641,"▁spring":7642,"▁cert":7643,"▁Boy":7644,"▁Uber":7645,"▁Jackson":7646,"▁College":7647,"▁enjoyed":7648,"▁here,":7649,"▁river":7650,"▁corruption":7651,"▁wedding":7652,"tery":7653,"▁desire":7654,"▁reput":7655,"▁struggling":7656,"▁backed":7657,"cean":7658,"▁mand":7659,"oh":7660,"▁unless":7661,"▁Pan":7662,"▁Russia,":7663,"▁forest":7664,"▁depend":7665,"▁tests":7666,"▁rating":7667,":40":7668,"▁compens":7669,"ilit":7670,"▁co-":7671,"▁explo":7672,"▁competitive":7673,"▁transform":7674,"▁ride":7675,"▁spr":7676,"▁weapon":7677,"▁Commun":7678,"mony":7679,"▁Labor":7680,"▁materials":7681,"▁в":7682,"▁serving":7683,"34":7684,"▁Jess":7685,"urge":7686,"▁Anthony":7687,"▁mum":7688,"▁sugar":7689,"▁midfield":7690,"▁Sky":7691,"▁sympt":7692,"▁exercise":7693,"▁sharehold":7694,"▁wins":7695,"▁̧Ñ":7696,"ype":7697,"osen":7698,"▁Agency":7699,"▁Charles":7700,"▁one,":7701,"▁election.":7702,"▁Champions":7703,"▁territory":7704,"▁Page":7705,"ader":7706,"▁lawsuit":7707,"▁us,":7708,"bai":7709,"▁<<":7710,"▁deaths":7711,"▁anx":7712,"▁Azer":7713,"▁Cath":7714,"▁Ric":7715,"▁revolution":7716,"▁motiv":7717,"▁Editing":7718,"▁accompan":7719,"▁150":7720,"-min":7721,"▁argued":7722,"cer":7723,"▁charity":7724,"▁cup":7725,"▁skills":7726,"66":7727,"bull":7728,"forum/":7729,"▁Prog":7730,"▁responded":7731,"▁27,":7732,"▁Taylor":7733,"▁CBS":7734,"▁Town":7735,"▁adopt":7736,"▁McD":7737,"IA":7738,"▁Miam":7739,"place":7740,"\",":7741,"▁bench":7742,"een":7743,"▁sky":7744,"▁Second":7745,"▁Army":7746,"▁initiative":7747,"▁boys":7748,"▁Get":7749,"iate":7750,"illy":7751,"▁regions":7752,"▁ties":7753,"▁threatened":7754,"sewhere":7755,"▁horse":7756,"ard,":7757,"▁Michel":7758,"▁volunte":7759,"▁grown":7760,"▁Tal":7761,"▁23,":7762,":50":7763,"▁division":7764,"-10":7765,"▁rejected":7766,"▁determine":7767,"▁18,":7768,"▁behavior":7769,"▁possibly":7770,"-he":7771,"esh":7772,"▁Energy":7773,"▁Steven":7774,"▁A.":7775,"uild":7776,"N.":7777,"SP":7778,"▁captured":7779,"-5":7780,"▁impressive":7781,"▁team.":7782,"▁assum":7783,"▁Look":7784,"▁guarantee":7785,"▁meetings":7786,"ela":7787,"▁societ":7788,"▁Senator":7789,"isa":7790,"▁Fort":7791,"PI)":7792,"▁performed":7793,"▁lunch":7794,"▁conversation":7795,"▁congress":7796,"▁reli":7797,"▁gang":7798,"▁Wild":7799,"▁Ten":7800,"▁pip":7801,"▁structure":7802,"▁Glas":7803,"▁entirely":7804,"▁Photo:":7805,"▁argument":7806,"▁Reuters":7807,"▁vital":7808,"▁7.":7809,"▁narrow":7810,"oviet":7811,"▁historical":7812,"▁Force":7813,"▁enh":7814,"▁Conn":7815,"▁turns":7816,"▁future.":7817,"▁buying":7818,"▁closely":7819,"▁amazing":7820,"▁Catal":7821,"ylum":7822,"▁western":7823,"▁flex":7824,"▁they've":7825,"▁Lake":7826,"▁belief":7827,"▁eastern":7828,"▁drag":7829,"▁$2":7830,"▁attempted":7831,"▁Marc":7832,"▁violent":7833,"then":7834,"▁cloud":7835,"/d":7836,"▁publicly":7837,"ifer":7838,"▁(K":7839,"▁contrac":7840,"▁immigrants":7841,"▁area.":7842,"▁19,":7843,"▁convinc":7844,"▁inspired":7845,"▁abro":7846,"IM":7847,"IP":7848,"ary,":7849,"▁error":7850,"▁drawn":7851,"rate":7852,"▁4,":7853,"abilities":7854,"▁prin":7855,"▁hate":7856,"▁returning":7857,"▁notice":7858,"▁gat":7859,"▁wore":7860,"▁alt":7861,"resents":7862,"▁Well":7863,"▁shortly":7864,"▁too,":7865,"ory,":7866,"▁suspended":7867,"▁24,":7868,"▁identify":7869,"▁distance":7870,"▁houses":7871,"▁claiming":7872,"rative":7873,"▁Bol":7874,"▁Children":7875,"ervation":7876,"▁statements":7877,"▁Anton":7878,"▁investigating":7879,"rant":7880,"▁extended":7881,"▁26,":7882,"▁surgery":7883,"▁Trump.":7884,"▁Blo":7885,"▁a.m.":7886,"▁wonderful":7887,"/11":7888,"ре":7889,"▁Som":7890,"▁worried":7891,"amic":7892,"▁regime":7893,"▁none":7894,"▁neighborhood":7895,"achel":7896,"▁Bost":7897,"▁Asian":7898,"inning":7899,"▁Victoria":7900,"▁Professor":7901,"agg":7902,"▁deploy":7903,"▁banned":7904,"▁55":7905,"▁coin":7906,"▁terrorism":7907,"▁(UPI)":7908,"▁Location:":7909,"▁hy":7910,"▁Game":7911,"▁enterpr":7912,"quar":7913,"ids":7914,"▁clubs":7915,"▁ast":7916,"▁bear":7917,"▁solutions":7918,"den":7919,"-out":7920,"▁Oper":7921,"▁TH":7922,"▁moments":7923,"▁intention":7924,"▁targeted":7925,"▁10H,":7926,"▁roy":7927,"▁filled":7928,"▁advance":7929,"▁Saf":7930,"▁mos":7931,"▁encourage":7932,"▁Rog":7933,"▁с":7934,"▁favourite":7935,":12":7936,"▁Cost":7937,"▁million.":7938,"▁sending":7939,"▁bask":7940,"▁Mass":7941,"and,":7942,"▁Fur":7943,"pson":7944,"▁fears":7945,"▁yesterday":7946,"▁Hear":7947,":45":7948,"▁Web":7949,"itzer":7950,"icit":7951,"▁apparently":7952,"▁expans":7953,"▁color":7954,"▁struggle":7955,"▁tun":7956,"orry":7957,"▁Each":7958,"▁instruct":7959,"org/":7960,"▁*":7961,"▁Kong":7962,"▁obviously":7963,"iable":7964,"▁tank":7965,"▁dedicated":7966,"uses":7967,"▁height":7968,"▁Water":7969,"col":7970,"▁earli":7971,"▁accur":7972,"▁Bir":7973,"▁owned":7974,"▁manufacturer":7975,"▁af":7976,"EL":7977,"▁coffee":7978,"lers":7979,"▁core":7980,"ching":7981,"▁trick":7982,"▁matters":7983,"▁offensive":7984,"▁degree":7985,"▁2017.":7986,"whel":7987,"▁her,":7988,"▁N.":7989,"igan":7990,"▁insisted":7991,"▁::":7992,"▁sweet":7993,"▁reaction":7994,"▁Hong":7995,"▁embr":7996,"▁vent":7997,"▁evacu":7998,"ie.":7999,"▁likes":8000,"ни":8001,"▁combined":8002,"▁substant":8003,"outs":8004,"▁Ra":8005,"▁Brussels":8006,"gow":8007,"▁edge":8008,"▁$4":8009,"▁detailed":8010,"bro":8011,"▁campaign.":8012,"▁enem":8013,"▁continuing":8014,"▁'M":8015,"▁blow":8016,"▁holds":8017,"related":8018,"▁ble":8019,"▁Article":8020,"▁2013.":8021,"▁relevant":8022,"▁Azerbai":8023,"▁friendly":8024,"▁Turnbull":8025,"▁recon":8026,"▁powers":8027,"▁Kurd":8028,"▁gay":8029,"▁‘":8030,"▁earned":8031,"▁Sa":8032,"lets":8033,"▁in,":8034,"lov":8035,"▁firms":8036,"▁comprom":8037,"/2009":8038,"▁Economic":8039,"▁manage":8040,"ль":8041,"Source:":8042,"-D":8043,"▁connected":8044,"azazazaz":8045,"▁devices":8046,"ria":8047,"▁city.":8048,"ated:":8049,"88":8050,"▁suspected":8051,"▁raising":8052,"то":8053,"▁improved":8054,"▁referred":8055,"▁recover":8056,"▁Ross":8057,"▁28,":8058,"iana":8059,"▁combat":8060,"▁samp":8061,"▁testing":8062,"▁17,":8063,"▁(L":8064,"▁family,":8065,"▁suc":8066,"▁priority":8067,"▁cutting":8068,"▁neither":8069,"▁luxury":8070,"ews":8071,"▁detect":8072,"▁driven":8073,"▁assistance":8074,"▁spotted":8075,":11":8076,"izes":8077,"▁attacked":8078,"▁Power":8079,"▁compon":8080,"▁Greec":8081,"nic":8082,"g.":8083,"▁Vladimir":8084,"weight":8085,"▁16,":8086,"▁2020":8087,"▁Earlier":8088,"erer":8089,"abeth":8090,">>>":8091,"▁communication":8092,"▁attempts":8093,"▁Conservative":8094,"▁heading":8095,"emble":8096,"ive,":8097,"▁government.":8098,"DP":8099,"p.":8100,"▁Stan":8101,"-sp":8102,"▁nut":8103,"▁Afghanistan":8104,"▁stake":8105,"▁discover":8106,"▁aggressive":8107,"▁suicide":8108,"▁files":8109,"▁sight":8110,"▁surviv":8111,"▁pages":8112,"▁liberal":8113,"▁represents":8114,"▁sharing":8115,"▁asylum":8116,"▁payments":8117,"▁facility":8118,"umber":8119,"▁package":8120,"▁route":8121,"▁mere":8122,"▁ultimately":8123,"ateral":8124,"▁market.":8125,"▁contributed":8126,"▁ment":8127,"▁artic":8128,"▁fundamental":8129,"otal":8130,"▁cha":8131,"▁Shar":8132,"▁Jordan":8133,"▁scale":8134,"▁stab":8135,"▁Tem":8136,"▁dealing":8137,"ourc":8138,"idity":8139,"▁Jesus":8140,"▁Di":8141,"rance":8142,"inent":8143,"▁Land":8144,"▁entry":8145,"ates,":8146,"CC":8147,"▁contrast":8148,"▁Soviet":8149,"96":8150,"▁Southern":8151,"▁Ohio":8152,"▁listen":8153,"▁useful":8154,"ness,":8155,"▁parking":8156,"▁earn":8157,"▁Polit":8158,"▁system,":8159,"▁Kate":8160,"▁passing":8161,"cious":8162,"igrant":8163,"▁cart":8164,"▁off.":8165,"win":8166,"▁landsc":8167,"▁metres":8168,"▁informed":8169,"essed":8170,"▁\"What":8171,"▁plastic":8172,"▁Treat":8173,"▁contains":8174,"IV":8175,"▁prepare":8176,"ina.":8177,"amber":8178,"heme":8179,"▁1980":8180,"▁Indust":8181,"▁links":8182,"atar":8183,"▁broadcast":8184,"-6":8185,"PA":8186,"▁Py":8187,"▁coverage":8188,"▁Somet":8189,"▁Jewish":8190,"▁mainly":8191,"▁Management":8192,"▁forms":8193,"▁relief":8194,"▁Ford":8195,"▁tiny":8196,"▁dating":8197,"eds":8198,"▁delight":8199,"▁ing":8200,"▁permanent":8201,"▁lots":8202,"▁Ba":8203,"index":8204,"бр":8205,"▁busy":8206,"▁ceremony":8207,"▁bon":8208,"▁memory":8209,"ez":8210,"▁Mid":8211,"▁Die":8212,"▁ski":8213,"▁unusual":8214,":17":8215,"▁degre":8216,"▁seconds":8217,"▁Clinton's":8218,"▁applied":8219,"▁DN":8220,"▁Now,":8221,"▁deeply":8222,"▁button":8223,"▁handed":8224,"MA":8225,"▁rural":8226,"▁democracy":8227,"▁Jers":8228,"▁clients":8229,"▁assets":8230,"▁waste":8231,"▁Lind":8232,"icy":8233,"orne":8234,"▁marked":8235,"▁obvious":8236,"rav":8237,"▁creation":8238,"▁spoken":8239,"▁featured":8240,"▁30,":8241,"-run":8242,"acc":8243,"ordinary":8244,"TS":8245,"▁divor":8246,"▁Lo":8247,"▁conven":8248,"▁talked":8249,"▁newly":8250,"▁System":8251,"▁efficient":8252,"▁protests":8253,"▁films":8254,"▁Cro":8255,"▁tackle":8256,"▁5,":8257,"▁Watch":8258,"▁fewer":8259,"▁organisation":8260,"▁ancient":8261,"▁factor":8262,"▁jack":8263,"▁2004":8264,"▁Portug":8265,"▁Academy":8266,"▁Pres":8267,"▁Enter":8268,"▁regularly":8269,"▁Life":8270,"▁Russia's":8271,"hus":8272,"rehens":8273,"kins":8274,"▁AN":8275,"▁Though":8276,"▁retired":8277,"▁respective":8278,"▁moder":8279,"▁flying":8280,"pay":8281,"▁See":8282,"▁organizations":8283,"▁duty":8284,"▁trig":8285,"▁achieved":8286,"▁we'll":8287,"fe":8288,"ba":8289,"▁Judge":8290,"▁Ren":8291,"orial":8292,"▁happening":8293,"▁NAT":8294,"▁GMT":8295,"▁brings":8296,"▁Eliz":8297,"▁Amazon":8298,"▁Bang":8299,"▁swimming":8300,"▁visiting":8301,"▁Est":8302,"▁44":8303,"▁Cop":8304,"ASE":8305,"▁Defense":8306,"3⁄4Ñ":8307,"soft":8308,"▁J.":8309,"ails":8310,"▁nations":8311,"FA":8312,"rell":8313,"▁refugee":8314,"▁report.":8315,"▁approval":8316,"ala":8317,"▁ID":8318,"▁pregnant":8319,"▁findings":8320,"▁channel":8321,"▁effectively":8322,"▁Der":8323,"▁convicted":8324,"▁magazine":8325,"▁Pros":8326,"▁States,":8327,"▁Conference":8328,"▁'B":8329,"▁vulnerable":8330,"▁icon":8331,"▁he'd":8332,"▁gathered":8333,"rows":8334,"▁purchase":8335,"▁headed":8336,"▁(0":8337,"-k":8338,"▁writer":8339,"▁creative":8340,"▁tomorrow":8341,"imp":8342,"▁myster":8343,"▁China,":8344,"▁iPhone":8345,"▁Next":8346,"▁Sarah":8347,"▁weren't":8348,"gen":8349,"▁Reporting":8350,"▁assistant":8351,"▁institution":8352,"1⁄4":8353,"▁persp":8354,"url":8355,"▁Eric":8356,"▁dyn":8357,"▁Read":8358,"▁depos":8359,"▁citizen":8360,"▁Ox":8361,"▁stated":8362,"▁Armenian":8363,"▁originally":8364,"▁hung":8365,"▁Space":8366,"▁Ever":8367,"ness.":8368,"▁Food":8369,"▁dozens":8370,"▁Iraqi":8371,"▁Fall":8372,"▁tweeted":8373,"▁ham":8374,"asy":8375,"▁classic":8376,"▁subsequ":8377,"▁(00:01":8378,"▁Glasgow":8379,"▁company,":8380,"▁Abd":8381,"▁65":8382,"▁conce":8383,"▁\"When":8384,"net/":8385,":16":8386,"▁videos":8387,"▁morning,":8388,"▁Palestinian":8389,"▁rum":8390,"▁elimin":8391,"asp":8392,"▁14,":8393,"▁surprised":8394,"ipping":8395,"▁trop":8396,"▁heavily":8397,"▁outd":8398,"°Ñ":8399,"▁pushing":8400,"▁grab":8401,"▁49":8402,"▁mouth":8403,"ist.":8404,"In":8405,"▁Ball":8406,"▁Leices":8407,"bury":8408,"▁identity":8409,"▁adults":8410,"▁shape":8411,"▁veteran":8412,"▁<<<":8413,"▁Palace":8414,"▁nation's":8415,"▁representative":8416,"▁lift":8417,"▁Bru":8418,"▁tact":8419,"real":8420,"▁seats":8421,"uine":8422,"▁appointed":8423,"▁element":8424,"▁(\"":8425,"▁reference":8426,"▁summit":8427,"▁failing":8428,"▁acts":8429,"▁episode":8430,"▁strengthen":8431,"▁Global":8432,"rob":8433,"eph":8434,"▁usual":8435,"▁laid":8436,"▁Administ":8437,"ownt":8438,"▁passion":8439,"▁2018":8440,"▁Six":8441,"▁coordin":8442,"za":8443,"39":8444,"▁Photograph":8445,"FC":8446,"▁=":8447,"▁ped":8448,"▁Santa":8449,"▁keen":8450,"▁studio":8451,"▁Playing:":8452,"uster":8453,"th,":8454,"▁Independ":8455,"▁isol":8456,"▁Simon":8457,"▁NBC":8458,"▁tech":8459,"▁grap":8460,"▁chosen":8461,"▁advanced":8462,"▁otherwise":8463,"▁models":8464,"▁unp":8465,"aled":8466,"▁wife,":8467,"▁Services":8468,"▁Bas":8469,"▁taxes":8470,"▁campaign,":8471,"▁today,":8472,"UR":8473,"▁empt":8474,"▁Supp":8475,":25":8476,"▁causes":8477,"ers'":8478,"▁manufacturing":8479,"asters":8480,"eman":8481,"▁exit":8482,"ри":8483,"▁Mot":8484,"▁history.":8485,"▁pover":8486,"▁sharp":8487,"▁switch":8488,"▁contribution":8489,"eler":8490,"▁matches":8491,"Ð3⁄4Ð":8492,"▁capable":8493,":14":8494,"▁scheme":8495,"▁ministers":8496,"▁Treas":8497,"▁Jason":8498,"▁Log":8499,"apping":8500,"fire":8501,"▁Sep":8502,"▁\"l":8503,"IL":8504,"▁\"in":8505,"▁countries.":8506,"▁clas":8507,"▁strategic":8508,"-E":8509,"▁tied":8510,");":8511,"eing":8512,"▁rescue":8513,"▁musical":8514,"-elect":8515,"ella":8516,"▁'It's":8517,"▁Call":8518,"▁moves":8519,"▁Blue":8520,"eur":8521,"▁arrival":8522,":13":8523,"▁dramatic":8524,"▁incredible":8525,"▁directed":8526,"▁pilot":8527,"▁president,":8528,"apse":8529,"▁fulf":8530,"▁threats":8531,"uls":8532,"▁Square":8533,"eral":8534,"▁Obama's":8535,"▁radical":8536,"worth":8537,"▁Channel":8538,"▁steel":8539,"▁thinks":8540,"▁signing":8541,"▁celebrate":8542,"▁Cook":8543,"euters":8544,"▁insist":8545,"▁Hom":8546,"▁register":8547,"▁decre":8548,"▁wave":8549,"▁opposed":8550,"▁Beijing":8551,"▁silver":8552,"ancial":8553,"▁lit":8554,"▁42":8555,"ureau":8556,"▁defensive":8557,"▁significantly":8558,"▁Ok":8559,"▁plot":8560,"><":8561,"▁breaking":8562,":19":8563,"icken":8564,"▁Sav":8565,"▁surge":8566,"/10":8567,"▁gained":8568,"▁stadium":8569,"▁chances":8570,"▁morning.":8571,"▁democratic":8572,"ages.":8573,".com.":8574,"▁finance":8575,"▁Special":8576,"▁Members":8577,"▁discip":8578,"▁positions":8579,"▁decor":8580,"▁surface":8581,"▁construct":8582,"itals":8583,"▁meat":8584,":21":8585,"ers\"":8586,"ylvan":8587,"his":8588,"laim":8589,"▁39":8590,"fol":8591,"▁Radio":8592,"icer":8593,"▁IT":8594,"▁Pay":8595,".A.":8596,"▁Houston":8597,"▁Family":8598,"▁replaced":8599,"▁400":8600,"▁satisf":8601,"▁soul":8602,"▁Ariz":8603,"▁together.":8604,"▁properties":8605,"acks":8606,"unction":8607,"▁fallen":8608,"▁Pacific":8609,"ed.\"":8610,"▁regulations":8611,"▁extensive":8612,"enez":8613,"▁cards":8614,"▁Georgia":8615,"▁Greek":8616,"▁\"That":8617,"▁government,":8618,"▁procedure":8619,"▁sac":8620,"▁artists":8621,"▁Brisbane":8622,"▁parliamentary":8623,"▁aver":8624,"inals":8625,"antic":8626,"ence,":8627,"▁sets":8628,"-minute":8629,"ooth":8630,"▁promise":8631,"▁Viet":8632,"▁Elizabeth":8633,"▁virus":8634,"▁Deputy":8635,"▁show.":8636,"▁dance":8637,"rific":8638,"ge.":8639,"ano":8640,"▁unemploy":8641,"▁election,":8642,"▁consequences":8643,"▁drama":8644,"▁Argent":8645,"acement":8646,"▁hits":8647,"▁liqu":8648,"how":8649,"▁pieces":8650,"▁times.":8651,"▁(s":8652,"▁Eastern":8653,"rum":8654,"▁Davis":8655,"▁NATO":8656,"▁End":8657,":35":8658,"▁drinking":8659,"▁invited":8660,"iro":8661,"▁founder":8662,"▁province":8663,"▁percent.":8664,"▁themselv":8665,"▁(and":8666,"▁crimes":8667,"▁Princ":8668,"▁agenda":8669,"▁percent,":8670,"▁Tory":8671,"▁electronic":8672,"ie's":8673,"▁engaged":8674,"-2012,":8675,"itu":8676,".html":8677,"▁breast":8678,"▁href=http://":8679,"▁States.":8680,"▁Such":8681,"▁kilomet":8682,"’t":8683,",000.":8684,"▁preparing":8685,"▁lin":8686,"sylvan":8687,"▁Science":8688,"▁trib":8689,"▁\"J":8690,"▁overwhel":8691,"▁solar":8692,"▁Hung":8693,"▁clar":8694,"▁tourist":8695,"▁Hist":8696,"▁Ak":8697,"isk":8698,"▁Sus":8699,"▁6,":8700,"▁12,":8701,"P)":8702,"▁scandal":8703,"▁dozen":8704,"▁upset":8705,"▁Ah":8706,"lock":8707,"▁entit":8708,"▁founded":8709,"▁adult":8710,"▁money.":8711,"▁people's":8712,"/06":8713,"▁Micro":8714,"agh":8715,"▁team,":8716,"▁girlfriend":8717,"▁Francisco":8718,"rence":8719,"stone":8720,"▁Associated":8721,":18":8722,"ato":8723,"▁paint":8724,"▁applications":8725,"▁pictured":8726,"▁lawyers":8727,"▁cod":8728,"CD":8729,"ether":8730,"▁Dod":8731,"ibilities":8732,"▁knock":8733,"▁brill":8734,"▁pleased":8735,"▁unw":8736,"▁11,":8737,"ence.":8738,"▁presc":8739,"▁stability":8740,"-re":8741,"▁orders":8742,"▁combination":8743,"▁'d":8744,"▁formal":8745,"▁death.":8746,"78":8747,"▁excess":8748,"▁like,":8749,"▁Conf":8750,"week":8751,"▁demands":8752,"imal":8753,"▁puts":8754,"▁Merk":8755,"bar":8756,"▁basket":8757,"grad":8758,"-hour":8759,"▁medium":8760,"▁returns":8761,"▁Virginia":8762,"ilateral":8763,"▁Celtic":8764,"ively":8765,"▁genuine":8766,"▁phil":8767,"n,":8768,"▁currency":8769,"▁FA":8770,"lan":8771,"▁mob":8772,"ports":8773,"▁fake":8774,"▁case.":8775,"▁America's":8776,"▁Games":8777,"▁Valley":8778,"awn":8779,"-N":8780,"▁others.":8781,"▁Iv":8782,"▁indeed":8783,":06":8784,"▁supporter":8785,"▁stunning":8786,"▁granted":8787,"aya":8788,"▁climb":8789,"▁Bab":8790,"▁Rose":8791,"▁elsewhere":8792,"-H":8793,"▁approx":8794,"▁passenger":8795,":05":8796,"▁41":8797,"▁factors":8798,"▁Cra":8799,"▁species":8800,"▁Greg":8801,":23":8802,"▁She's":8803,"▁(W":8804,"μÑ":8805,"▁Sever":8806,"▁so,":8807,"▁strongly":8808,"▁iron":8809,"76":8810,"▁overt":8811,"▁Dev":8812,"▁sixth":8813,"adel":8814,"▁Festival":8815,"▁city,":8816,"▁London.":8817,"▁birthday":8818,"bo":8819,"▁AT":8820,"▁mistake":8821,"▁Justin":8822,"▁monitoring":8823,"▁enthus":8824,"▁guide":8825,"▁characters":8826,"▁diplomatic":8827,"ET":8828,"▁wrote:":8829,"▁8.":8830,"▁Wein":8831,"west":8832,"▁10.":8833,"owned":8834,"▁tree":8835,"▁nurs":8836,"▁prospect":8837,"▁lawmakers":8838,"ranch":8839,"▁Vill":8840,"▁ec":8841,"enses":8842,"▁ourselves":8843,"vious":8844,"▁talent":8845,"▁concerning":8846,"▁arrive":8847,"▁Balt":8848,"▁cos":8849,"▁principle":8850,"rete":8851,"▁dies":8852,"▁typically":8853,"▁Equ":8854,"▁2012.":8855,"▁remote":8856,"▁evalu":8857,"RA":8858,"▁Broad":8859,"▁Vietn":8860,":04":8861,"repre":8862,"/2":8863,"▁affair":8864,"using":8865,"▁circumstances":8866,"▁jury":8867,"licop":8868,"born":8869,"▁labour":8870,"▁update":8871,"▁reduction":8872,"away":8873,"▁hun":8874,"▁roof":8875,"▁Award":8876,"▁satell":8877,"bel":8878,"iciency":8879,"▁string":8880,"▁temporary":8881,"▁spons":8882,"uration":8883,"▁reaching":8884,"▁accommodation":8885,"rik":8886,"▁Lewis":8887,"▁women,":8888,"▁tickets":8889,"-F":8890,"▁Abb":8891,"________":8892,"▁procedures":8893,"▁Switzer":8894,"▁lies":8895,"▁children's":8896,"▁riv":8897,"▁suffer":8898,"▁и":8899,"reprene":8900,"raid":8901,"▁Indones":8902,"▁points,":8903,"p=":8904,"▁Oscar":8905,"▁memb":8906,"esperson":8907,"/G":8908,"▁Ven":8909,":26":8910,"▁unclear":8911,"▁JSC":8912,"▁sole":8913,"▁forth":8914,"all,":8915,"▁Moham":8916,"▁Dutch":8917,"▁о":8918,"▁helicop":8919,"▁Hor":8920,"▁down,":8921,"▁vess":8922,"▁elements":8923,"irty":8924,"▁marketing":8925,"▁change.":8926,"▁temperatures":8927,"▁stuck":8928,"▁punish":8929,"-K":8930,"▁group,":8931,"▁profile":8932,"▁imagine":8933,"▁everybody":8934,"zh":8935,"▁follows":8936,"mates":8937,"▁attack.":8938,"▁Carl":8939,"vision":8940,"▁process.":8941,"▁critics":8942,"▁sch":8943,"▁Fe":8944,"stream":8945,"▁participation":8946,"▁Official":8947,"▁begins":8948,"▁Nob":8949,"▁wheel":8950,"heast":8951,"ates.":8952,"▁struggled":8953,"▁succeed":8954,"▁Ð3⁄4Ð":8955,"▁surprising":8956,"▁Ret":8957,"▁obst":8958,"▁Foundation":8959,"▁selected":8960,"▁Andre":8961,"▁equipped":8962,"▁Information":8963,":44":8964,"iture":8965,"▁Mem":8966,"▁Common":8967,"▁awarded":8968,"▁submitted":8969,"▁flu":8970,"те":8971,"▁scoring":8972,"▁cricket":8973,"ancellor":8974,"hire":8975,"ativ":8976,"▁personnel":8977,"▁shots":8978,"▁jur":8979,"+0":8980,"▁Marg":8981,"▁conver":8982,"▁intense":8983,"▁1970":8984,"▁stepped":8985,"iano":8986,"oma":8987,"▁bes":8988,"▁later.":8989,"▁state.":8990,"▁Girl":8991,"▁show,":8992,"▁But,":8993,"▁Mess":8994,"▁hal":8995,":03":8996,"▁complet":8997,":22":8998,"ко":8999,"icing":9000,"-v":9001,"ologist":9002,"▁totally":9003,"▁enorm":9004,"▁York,":9005,"▁incor":9006,"▁Bry":9007,"▁fro":9008,"▁semi":9009,"▁hoped":9010,"▁voc":9011,"▁chose":9012,"▁zone":9013,"assy":9014,"▁anonym":9015,"strong":9016,"▁extent":9017,"▁Bow":9018,"▁Financial":9019,"▁metal":9020,"▁sentenced":9021,"▁comprehens":9022,"-game":9023,"▁Pot":9024,"GB":9025,"▁46":9026,"▁\"un":9027,"▁Having":9028,"▁pup":9029,"bled":9030,"-class":9031,"▁Night":9032,"▁extension":9033,"▁Men":9034,"-cent":9035,"▁Instead,":9036,"▁stayed":9037,"▁protected":9038,"▁urban":9039,"▁casual":9040,"▁entering":9041,"itage":9042,"▁unn":9043,":55":9044,"▁Federation":9045,"pton":9046,"eld":9047,"▁yn":9048,"▁Education":9049,"▁43":9050,"▁qual":9051,"▁royal":9052,"enders":9053,"▁gift":9054,"▁Project":9055,"43":9056,"eping":9057,"▁Jen":9058,"bec":9059,"▁precise":9060,"▁ÐμÐ":9061,"▁closing":9062,"▁Poland":9063,"▁Environment":9064,"▁They're":9065,"▁fought":9066,"etary":9067,"▁recip":9068,"▁association":9069,"▁EUR":9070,"▁outs":9071,"duce":9072,"▁tonight":9073,"▁Venez":9074,"▁countries,":9075,"-foot":9076,"▁profession":9077,"▁Tit":9078,"▁Kir":9079,"▁spokesperson":9080,"▁reports.":9081,"arrass":9082,"▁back,":9083,"▁protesters":9084,"way,":9085,"▁inquiry":9086,"▁brut":9087,"-W":9088,"ages,":9089,"▁left,":9090,"oster":9091,"▁nerv":9092,"▁to.":9093,":08":9094,"▁Cz":9095,"▁provid":9096,"anna":9097,"▁membership":9098,"▁militants":9099,"▁stronger":9100,"▁(£":9101,"ifi":9102,":41":9103,"▁Little":9104,"▁joining":9105,"▁times,":9106,"▁We've":9107,"▁aspects":9108,"▁president's":9109,":42":9110,"▁pace":9111,"▁senator":9112,"▁Holl":9113,"▁native":9114,"▁snap":9115,"▁mother,":9116,"▁honour":9117,"ham,":9118,"▁Amb":9119,"▁Program":9120,"▁legend":9121,"▁(00:04":9122,"▁Morgan":9123,"▁musc":9124,"▁fol":9125,":31":9126,"▁Trade":9127,"▁escape":9128,"▁rang":9129,"▁print":9130,"earing":9131,"acter":9132,"%.":9133,"▁right,":9134,"▁So,":9135,"▁export":9136,"▁angry":9137,"elfare":9138,":28":9139,"NP":9140,"▁7,":9141,"▁Mach":9142,"▁excited":9143,"▁Team":9144,"acle":9145,"uce":9146,"uy":9147,"▁agents":9148,"▁ends":9149,"▁athletes":9150,"▁saved":9151,"▁Till":9152,"file":9153,":07":9154,"line,":9155,"▁Swiss":9156,"▁games.":9157,"▁persons":9158,"0000":9159,"▁hang":9160,"▁Related:":9161,"▁Washington,":9162,"▁represented":9163,"okes":9164,"son's":9165,"aret":9166,"▁distribution":9167,"▁increases":9168,":54":9169,"▁Convention":9170,"▁Golden":9171,":43":9172,":37":9173,"▁faster":9174,"▁Still,":9175,"▁Euro":9176,"▁drove":9177,"▁Aud":9178,"▁successfully":9179,"▁outr":9180,"▁Following":9181,":34":9182,"▁opposite":9183,"▁bow":9184,"▁2003":9185,"eded":9186,"▁Gord":9187,"▁Medical":9188,"▁journalists":9189,"urities":9190,"▁Leicester":9191,":27":9192,"▁Bat":9193,"cts":9194,"ли":9195,":59":9196,"▁drew":9197,"▁state's":9198,"▁decline":9199,"vil":9200,"▁father,":9201,"nest":9202,"▁comment.":9203,"▁anywhere":9204,"▁Leon":9205,"ibrary":9206,"▁referring":9207,"▁Alab":9208,"eller":9209,"▁Д":9210,"▁finds":9211,"▁sli":9212,"▁strict":9213,"uted":9214,"/2017":9215,"pret":9216,"▁humanitarian":9217,"▁teachers":9218,"\".":9219,"▁business.":9220,"▁tie":9221,"▁Australia,":9222,"▁activists":9223,"▁emissions":9224,"▁governor":9225,"▁targets":9226,"▁nights":9227,"▁shout":9228,"▁practical":9229,":39":9230,"▁shif":9231,"▁improving":9232,"ihad":9233,"orough":9234,"ain,":9235,"▁mayor":9236,"▁law.":9237,"▁anticip":9238,"▁Liberal":9239,"▁Nik":9240,"anny":9241,"▁Kingdom":9242,"▁Ul":9243,"▁officially":9244,"▁deliber":9245,"▁dad":9246,"▁Europe,":9247,"ovic":9248,"▁staying":9249,"▁tap":9250,"▁borrow":9251,"boy":9252,"▁(00:03":9253,"▁Robin":9254,"▁mixed":9255,"▁Venezuel":9256,"▁prosecutors":9257,"▁exposed":9258,"▁producer":9259,"▁manner":9260,"merican":9261,"▁Id":9262,"las":9263,"▁1,000":9264,":36":9265,"life":9266,"▁bik":9267,"▁tools":9268,"▁fixed":9269,"ani":9270,"▁travelling":9271,"force":9272,"▁sevent":9273,"86":9274,"▁media.":9275,":49":9276,"▁Crown":9277,"▁habit":9278,"▁Andy":9279,"-related":9280,"▁units":9281,"▁Ukrainian":9282,"▁Philip":9283,"▁Hart":9284,":52":9285,"▁elder":9286,"▁smoke":9287,"▁managing":9288,"▁upcoming":9289,"▁before.":9290,"▁Click":9291,"▁ending":9292,"▁allies":9293,"▁YouT":9294,"▁Macron":9295,"▁Transport":9296,"▁Local":9297,"▁GP":9298,"▁well-":9299,"usalem":9300,"-like":9301,"▁Gian":9302,"▁Room":9303,"▁opens":9304,":38":9305,"▁Brian":9306,"▁Vice":9307,"▁roughly":9308,"heim":9309,"oles":9310,"▁politician":9311,"▁que":9312,"▁percentage":9313,"▁notes":9314,"▁hyd":9315,"mo":9316,"▁Anderson":9317,"▁Mexican":9318,"▁Network":9319,"ni":9320,"▁reward":9321,"▁blast":9322,"▁Jean":9323,"▁extraordinary":9324,"▁Exper":9325,"tar":9326,"▁Civil":9327,"▁undert":9328,"ounced":9329,"▁Europe.":9330,"▁Don't":9331,"sey":9332,"▁auction":9333,"▁yield":9334,"fax":9335,"▁shadow":9336,"▁advent":9337,"▁advertising":9338,"-7":9339,"▁extend":9340,"▁(00:02":9341,":33":9342,"▁tested":9343,":32":9344,"▁area,":9345,"▁welcomed":9346,"▁ratio":9347,"mad":9348,"▁$10":9349,"▁Clevel":9350,"▁fitness":9351,"▁carbon":9352,"▁Burn":9353,"▁saving":9354,"▁endors":9355,"?'":9356,"▁blame":9357,"▁Take":9358,"-back":9359,"▁dut":9360,"▁Toront":9361,"▁Perhaps":9362,"ector":9363,"▁Maria":9364,"writ":9365,"▁establishment":9366,":29":9367,"▁Azerbaijan":9368,"▁Hamilton":9369,"▁skill":9370,"▁bail":9371,"▁Patrick":9372,"▁$6":9373,"endar":9374,"▁formed":9375,"ker":9376,"▁pink":9377,"▁Did":9378,"-11":9379,"▁provision":9380,"▁sequ":9381,"▁tourists":9382,"▁category":9383,"era":9384,"▁hitting":9385,"▁region.":9386,"hetic":9387,"▁improvement":9388,"▁shouldn't":9389,"▁legit":9390,"▁barrel":9391,"▁specifically":9392,"▁Chairman":9393,"ansas":9394,"▁READ":9395,"▁Major":9396,"▁Color":9397,"▁mail":9398,"▁Columb":9399,"▁lights":9400,"▁Mour":9401,"▁brilliant":9402,"▁adapt":9403,"itable":9404,"▁reducing":9405,"km":9406,"▁datab":9407,"▁supports":9408,"▁Several":9409,"iences":9410,"▁recommended":9411,":48":9412,"wan":9413,"▁Roberts":9414,"gage":9415,"▁upper":9416,"”,":9417,"▁Asked":9418,"▁congrat":9419,"▁traged":9420,"/16":9421,":02":9422,"▁&amp;":9423,"▁minutes.":9424,"appy":9425,"CA":9426,"▁law,":9427,"▁Disney":9428,"▁Vis":9429,"▁Wars":9430,"no":9431,"▁П":9432,"▁participate":9433,"▁stable":9434,"▁(1)":9435,"▁2001":9436,"▁tort":9437,"-style":9438,"lix":9439,"▁harder":9440,"OL":9441,"▁Jerusalem":9442,":24":9443,"wick":9444,"ney,":9445,"espread":9446,"▁suddenly":9447,"▁seg":9448,"▁gym":9449,"▁fighters":9450,"▁Reporter":9451,"▁sufficient":9452,"▁Football":9453,"▁fees":9454,"▁unve":9455,"▁newspap":9456,"▁sup":9457,"▁NAS":9458,"▁Ty":9459,"▁touchdown":9460,"▁perfectly":9461,"▁distribut":9462,"▁inflation":9463,"▁Mold":9464,"▁destroyed":9465,":09":9466,"▁Writ":9467,"▁prize":9468,"▁point,":9469,"▁13,":9470,"▁\"My":9471,"▁Kent":9472,"change":9473,"▁knowing":9474,"dog":9475,"▁fab":9476,"idelines":9477,"▁theme":9478,"▁Czech":9479,"▁Further":9480,"▁CD":9481,"▁fee":9482,"▁outcome":9483,"▁revel":9484,":51":9485,"▁Travel":9486,"▁fasc":9487,"▁shirt":9488,"▁reputation":9489,"▁Journal":9490,"▁cent.":9491,"▁tur":9492,"break":9493,"-free":9494,"▁alert":9495,"▁hand,":9496,"▁Cooper":9497,"▁recognition":9498,"▁obtained":9499,"ga":9500,"▁ministry":9501,"▁Music":9502,"bling":9503,"▁pump":9504,"▁publish":9505,"ighth":9506,"▁column":9507,":53":9508,"anded":9509,"▁Ky":9510,"ет":9511,"▁Nev":9512,"emen":9513,"▁yellow":9514,"aling":9515,"▁office.":9516,"▁Perth":9517,"cho":9518,"▁room,":9519,"▁franch":9520,"▁Cat":9521,"▁legislative":9522,"▁settle":9523,"▁(Reuters":9524,"▁issue.":9525,":56":9526,"▁milk":9527,"▁(E":9528,"umer":9529,"▁agreements":9530,"▁unto":9531,"aza":9532,"▁(00:05":9533,"▁asset":9534,"▁Sean":9535,"▁be.":9536,"▁controlled":9537,"▁collaps":9538,"▁Start":9539,"▁embarrass":9540,"▁era":9541,"▁Cambr":9542,"▁Microsoft":9543,"ov,":9544,"▁discussions":9545,":46":9546,"▁concluded":9547,"▁Ut":9548,"iot":9549,"am.":9550,"▁pin":9551,"▁##":9552,"os.":9553,"▁'O":9554,"▁blind":9555,"▁Market":9556,"water":9557,":47":9558,"war":9559,"▁perspective":9560,"▁ye":9561,"adelph":9562,"▁Roy":9563,"uros":9564,"▁equival":9565,"▁Gall":9566,"▁Joseph":9567,"▁Swedish":9568,"▁assessment":9569,"▁enjoying":9570,"▁consp":9571,"▁Thanks":9572,"▁ju":9573,"▁week's":9574,"rd":9575,"▁Ill":9576,"sex":9577,"DA":9578,"▁fighter":9579,"▁PR":9580,":57":9581,"ervatives":9582,"▁cyber":9583,"▁afraid":9584,"mm":9585,"▁UK's":9586,"▁Hard":9587,"expected":9588,"ears":9589,"▁Alepp":9590,"▁Scient":9591,"▁km/h":9592,"way.":9593,"▁was,":9594,"▁Jose":9595,"▁overnight":9596,"50,000":9597,"▁29,":9598,"▁objects":9599,"▁Chap":9600,"▁dogs":9601,"ibb":9602,"hatt":9603,"ernand":9604,"▁lap":9605,"▁taste":9606,"▁47":9607,"itud":9608,"▁healthcare":9609,"▁Guardian":9610,"▁old,":9611,"▁Craig":9612,"▁typical":9613,"▁honor":9614,"▁bom":9615,"▁organized":9616,"tting":9617,"▁Mit":9618,"▁is.":9619,"41":9620,"▁Rangers":9621,"▁Pop":9622,"▁tries":9623,"▁Five":9624,"▁lie":9625,"▁thrown":9626,":58":9627,"▁suggesting":9628,"▁peak":9629,"▁demonst":9630,"▁external":9631,"▁dressed":9632,"▁downt":9633,"▁Live":9634,"▁weeks.":9635,"▁investigators":9636,".php?":9637,"iform":9638,"▁interact":9639,"oming":9640,"▁civilian":9641,"▁constant":9642,"▁expansion":9643,"igen":9644,"rah":9645,"▁Flyn":9646,"▁Lin":9647,"yon":9648,"▁quarterback":9649,"/2010":9650,"▁dismissed":9651,"▁reveals":9652,"▁women.":9653,"▁Hun":9654,"▁sounds":9655,"▁proport":9656,"olen":9657,"▁judges":9658,"▁Short":9659,"rive":9660,"▁Arm":9661,"▁threw":9662,"▁questioned":9663,"eed,":9664,"▁taxpay":9665,"▁Korea's":9666,"▁Rev":9667,"▁frag":9668,"▁Mayor":9669,"▁Holy":9670,"▁announce":9671,"eland":9672,"▁prohib":9673,"/A":9674,"▁peaceful":9675,"▁caf":9676,"▁Ins":9677,"▁rapport":9678,"▁earnings":9679,"[/":9680,"▁boyfriend":9681,"▁widespread":9682,"▁Philadelph":9683,"▁keeps":9684,"▁cited":9685,"▁Catholic":9686,"▁knee":9687,"ho":9688,"▁Mother":9689,"▁intens":9690,"▁exciting":9691,"▁Assembly":9692,"▁dialogue":9693,"▁Les":9694,"▁re-":9695,"55":9696,"▁branch":9697,"aze":9698,"ulating":9699,"▁remarks":9700,"▁banking":9701,"▁Boston":9702,"tering":9703,"▁experiences":9704,"▁Serge":9705,"taining":9706,"reement":9707,"▁m2":9708,"▁rig":9709,"▁pock":9710,"▁featuring":9711,"orous":9712,"AF":9713,"zb":9714,"▁Iranian":9715,"▁Russia.":9716,"▁collapse":9717,"▁volume":9718,"▁it?":9719,"▁handle":9720,"iscal":9721,"quarters":9722,"97":9723,"▁Represent":9724,"erto":9725,"vin":9726,"lights":9727,"▁overs":9728,"▁prompted":9729,"ter.":9730,"▁drawing":9731,"opher":9732,"▁Miami":9733,"▁output":9734,"▁trees":9735,"ically,":9736,"▁label":9737,"\",\"":9738,"▁unknown":9739,"▁tennis":9740,"▁sensitive":9741,"▁chat":9742,"▁premium":9743,"▁MORE":9744,"▁City,":9745,"▁\"th":9746,"▁Saint":9747,"▁principles":9748,"▁installed":9749,"market":9750,"UN":9751,"ishop":9752,"▁Clark":9753,"▁polls":9754,"-J":9755,"▁Main":9756,"▁#2":9757,"▁son,":9758,"▁Alan":9759,"▁Kenned":9760,"▁dict":9761,"▁analysts":9762,"▁planet":9763,"▁fantastic":9764,"▁constantly":9765,"▁replacement":9766,"▁innoc":9767,"▁terrible":9768,"▁wire":9769,"-pl":9770,"▁party's":9771,"▁Attorney":9772,"▁Cust":9773,"isan":9774,"▁aims":9775,"ogether":9776,"▁explore":9777,"▁Orig":9778,"▁cells":9779,"▁Nether":9780,"-half":9781,"▁acknowledged":9782,"▁exceed":9783,"▁format":9784,"▁Son":9785,"▁stone":9786,"▁worker":9787,"▁pill":9788,"umin":9789,"▁Div":9790,"▁U.N.":9791,"▁Mah":9792,"▁Bowl":9793,"▁Ray":9794,"▁Aven":9795,"ranean":9796,"▁Jay":9797,"▁unfortun":9798,"▁France,":9799,"▁mood":9800,"▁side.":9801,"▁toile":9802,"▁place,":9803,"брь":9804,"▁May,":9805,"▁(Reuters)":9806,"▁amendments":9807,"aser":9808,"▁playoff":9809,"hes,":9810,"▁Vegas":9811,"▁routine":9812,"▁exchang":9813,"▁repeal":9814,"▁\"We're":9815,"less,":9816,"▁technologies":9817,"▁raid":9818,"▁viewers":9819,"▁fled":9820,"▁counsel":9821,"▁31,":9822,"▁possible.":9823,"rors":9824,"▁Marsh":9825,"pass":9826,"▁Trust":9827,"▁compete":9828,"▁Laur":9829,"▁photographer":9830,"▁hidden":9831,"▁airline":9832,"▁Tes":9833,"▁wider":9834,"▁tum":9835,"▁ethnic":9836,"▁complaints":9837,"▁prominent":9838,"▁Hold":9839,"▁resul":9840,"▁9.":9841,"ses":9842,"▁deport":9843,"▁doors":9844,"▁Inf":9845,"▁expectations":9846,"▁64":9847,"▁begun":9848,"▁enable":9849,"oric":9850,"▁AS":9851,"aution":9852,"oration":9853,"umes":9854,"oker":9855,"▁electricity":9856,"▁Low":9857,"▁deficit":9858,"▁deadly":9859,"▁Mourinh":9860,"▁Ronald":9861,"▁journalist":9862,"▁lowest":9863,"====":9864,"▁clothing":9865,"▁methods":9866,"▁Niger":9867,"-long":9868,"oned":9869,"▁properly":9870,"ali":9871,"▁state,":9872,"▁losses":9873,"▁Never":9874,"▁not.":9875,"▁joy":9876,"▁Barb":9877,"iamond":9878,"list":9879,"▁Hy":9880,"▁Gary":9881,"ities.":9882,"▁favorite":9883,"ame.":9884,"▁Maybe":9885,"man's":9886,"▁million,":9887,"▁welfare":9888,"▁Dur":9889,"▁Photograph:":9890,"OC":9891,"▁tail":9892,"▁entreprene":9893,"▁argue":9894,"▁phen":9895,"▁divid":9896,"▁company.":9897,"▁pure":9898,"▁slam":9899,"▁communications":9900,"▁scrutin":9901,"-point":9902,"▁Spring":9903,"▁menu":9904,"▁Beck":9905,"▁hadn't":9906,"/f":9907,"vy":9908,"▁Latin":9909,"▁Administration":9910,"uma":9911,"▁Tro":9912,"▁Yere":9913,"▁emails":9914,"iere":9915,"▁apartments":9916,"▁consumption":9917,"▁energ":9918,"▁Mosul":9919,"ны":9920,"▁childhood":9921,"▁appl":9922,"▁instrument":9923,"100":9924,"▁cent,":9925,"▁tab":9926,"2Ñ":9927,"▁operate":9928,"wered":9929,"▁police.":9930,"▁adviser":9931,"▁12/":9932,"▁reforms":9933,"▁outstanding":9934,"oping":9935,"▁roads":9936,"▁sid":9937,"▁facts":9938,"▁Rest":9939,"▁permission":9940,"▁Es":9941,"▁guess":9942,"▁McK":9943,"▁cinem":9944,"▁wrest":9945,"▁complaint":9946,"▁registration":9947,"▁songs":9948,"▁school,":9949,"ules":9950,"▁Merkel":9951,"▁sustainable":9952,"aed":9953,"▁Ian":9954,"▁loud":9955,"da":9956,"ved.":9957,"▁Class":9958,"▁barely":9959,"▁forum":9960,"▁Birming":9961,"▁Lyn":9962,"ulous":9963,"ant.":9964,"▁tourism":9965,"▁words,":9966,"va":9967,"alle":9968,"▁expos":9969,"rs":9970,"▁chap":9971,"▁Picture":9972,"▁frequently":9973,"▁indicated":9974,"▁penalt":9975,"▁Hurricane":9976,"alling":9977,"▁waters":9978,"▁clim":9979,"▁high-":9980,"▁bowl":9981,"▁burd":9982,"▁gard":9983,"▁opponent":9984,"oir":9985,"▁bree":9986,"dll":9987,"▁implic":9988,"ifest":9989,"▁UK,":9990,"▁calm":9991,"▁surrounded":9992,"osis":9993,"%,":9994,"▁minority":9995,"▁craz":9996,"▁alarm":9997,"ately,":9998,"▁beating":9999,"stal":10000,"▁Current":10001,"flix":10002,"▁schem":10003,"▁Capital":10004,"▁Key":10005,"▁intervention":10006,"▁market,":10007,"▁К":10008,"▁Rick":10009,"▁Wilson":10010,"▁Jane":10011,"▁Jonathan":10012,"▁Lady":10013,"▁toler":10014,"▁Hamp":10015,"ellect":10016,"▁reviews":10017,"▁250":10018,"▁(3":10019,"▁OK":10020,"▁disag":10021,"▁je":10022,"onnell":10023,"-for":10024,"ardash":10025,"▁consecutive":10026,"td":10027,"mann":10028,"▁relation":10029,"▁Cult":10030,"▁trained":10031,"▁jun":10032,"/12":10033,"▁Ha":10034,"▁departure":10035,"▁celebrated":10036,"▁interpret":10037,"▁explan":10038,"rical":10039,"▁clothes":10040,"▁agricultural":10041,"▁chef":10042,"▁hyp":10043,"▁Muslims":10044,"e:":10045,"rich":10046,"▁Luk":10047,"▁not,":10048,"▁Lam":10049,"olitan":10050,"▁solve":10051,"▁services.":10052,"▁8,":10053,"ington":10054,"▁Cross":10055,"▁diversity":10056,"▁inaug":10057,"▁electoral":10058,"nc":10059,"▁Manhatt":10060,"▁Australia.":10061,"▁stocks":10062,"▁Antonio":10063,"iterranean":10064,"▁Corn":10065,"-20":10066,"▁Society":10067,"▁accordance":10068,"▁Astan":10069,"▁fract":10070,"▁strikes":10071,"▁cock":10072,"▁chest":10073,"▁repair":10074,"▁job.":10075,"▁calendar":10076,"▁episod":10077,"▁Ð°Ð":10078,"▁stretch":10079,"▁id":10080,"▁Fri":10081,"il,":10082,"▁(O":10083,"▁integration":10084,"onduct":10085,"▁encouraged":10086,"▁convinced":10087,"/2015":10088,"▁(00:00":10089,"▁dispute":10090,"▁infection":10091,"utt":10092,"▁stro":10093,"▁mo":10094,"▁courts":10095,"argo":10096,"▁hardly":10097,"▁do,":10098,"▁Harvey":10099,"▁Tillerson":10100,"acare":10101,"▁tar":10102,"▁requests":10103,"▁right.":10104,"rett":10105,"▁investigate":10106,"▁contribute":10107,"/s":10108,"▁ladies":10109,"▁worldwide":10110,"▁д":10111,"maker":10112,"▁medal":10113,"▁vacc":10114,"▁tribute":10115,"▁coc":10116,"▁Li":10117,"▁posed":10118,"iner":10119,"▁harassment":10120,"▁teaching":10121,"▁comprehensive":10122,"▁Gab":10123,"▁defender":10124,"▁divided":10125,"▁Tele":10126,"aron":10127,"▁bike":10128,"▁involvement":10129,"▁pollution":10130,"PR":10131,"iti":10132,"▁homeless":10133,"▁poverty":10134,"C,":10135,"▁Getty":10136,"▁Executive":10137,"osh":10138,"▁loyal":10139,"acking":10140,"▁processing":10141,"▁Jersey":10142,"ewhat":10143,"▁accompl":10144,"▁Sweden":10145,"▁group.":10146,"▁personality":10147,"▁Therefore":10148,"▁nominee":10149,"▁contacted":10150,"▁Peters":10151,"▁120":10152,"▁say.":10153,"▁S.":10154,"▁Tower":10155,"comfort":10156,"▁speaks":10157,"chell":10158,"▁по":10159,"▁Stew":10160,"ico":10161,"▁phenomen":10162,"▁mainten":10163,"▁tor":10164,"▁Graham":10165,"▁interior":10166,"▁Michelle":10167,"▁signal":10168,"▁Alp":10169,"::::":10170,"▁ACT":10171,"ances.":10172,"▁uniform":10173,"▁Sport":10174,"▁jet":10175,"▁Kardash":10176,"▁avo":10177,"▁fault":10178,"▁conclusion":10179,"▁Germany,":10180,"▁Cas":10181,"▁celebration":10182,"▁designer":10183,"▁]]>":10184,"it,":10185,"▁marks":10186,"▁concrete":10187,"▁dump":10188,"▁who's":10189,"▁thick":10190,"▁lifest":10191,"▁moral":10192,"▁wing":10193,"▁resulted":10194,"▁fier":10195,"▁scenes":10196,"▁producers":10197,"▁Cleveland":10198,"▁praised":10199,"▁lucky":10200,"▁performing":10201,"agan":10202,"▁situated":10203,"▁dim":10204,"▁quant":10205,"▁enormous":10206,"eding":10207,"▁defined":10208,"a)":10209,"▁Teleg":10210,"enger":10211,"▁clash":10212,"▁Mediterranean":10213,"▁Protection":10214,"▁meal":10215,"▁Cy":10216,"▁Harris":10217,"ities,":10218,"▁ensuring":10219,"RE":10220,"k.":10221,"▁Doug":10222,"▁reass":10223,"▁earthqu":10224,"▁Through":10225,"▁52":10226,"300":10227,"itary":10228,"▁Welsh":10229,"▁Front":10230,"▁\"K":10231,"ography":10232,"▁consistent":10233,"▁Well,":10234,"do":10235,"gered":10236,"▁media,":10237,"viewtop":10238,"▁practices":10239,"▁Lim":10240,"▁Puerto":10241,"▁56":10242,"▁Jamie":10243,"rolled":10244,"▁citing":10245,"▁employee":10246,"▁recruit":10247,"▁overseas":10248,"▁kinds":10249,"point":10250,"▁fields":10251,"▁Bak":10252,"▁water.":10253,"▁profits":10254,"▁'I'm":10255,"▁\"to":10256,"▁rebel":10257,"▁motion":10258,"▁school.":10259,"yang":10260,"▁deal.":10261,"▁aside":10262,"▁nin":10263,"▁Film":10264,"▁inev":10265,"▁Policy":10266,"▁weigh":10267,"▁careful":10268,"▁ow":10269,"▁teenag":10270,"▁EC":10271,"▁Edward":10272,"-right":10273,"▁statement,":10274,"▁comedy":10275,"zy":10276,"▁persu":10277,"▁innovative":10278,"▁Switzerland":10279,"▁differences":10280,"▁\"st":10281,"▁Colomb":10282,"wo":10283,"▁thoughts":10284,"▁program.":10285,"▁office,":10286,"t=":10287,"▁partly":10288,"▁airlines":10289,"BO":10290,"▁fer":10291,"▁clock":10292,"dict":10293,"▁saying,":10294,"▁scores":10295,"▁#5":10296,"▁2002":10297,"▁challenging":10298,"▁nobody":10299,"▁empty":10300,"▁necessarily":10301,"▁inner":10302,"▁introduction":10303,"▁points.":10304,"▁tens":10305,"▁Tok":10306,"▁transg":10307,"▁damaged":10308,"▁jailed":10309,"ва":10310,"▁fishing":10311,"▁updated":10312,"▁absence":10313,"ois":10314,"▁documentary":10315,"ardo":10316,"law":10317,"▁Construction":10318,"▁bridge":10319,"▁blowing":10320,"▁Comey":10321,"▁Belgium":10322,"▁carri":10323,"arry":10324,"iration":10325,"▁2011.":10326,"▁personally":10327,"▁approximately":10328,"-12":10329,"▁tip":10330,"▁chocol":10331,"▁detention":10332,"▁industry.":10333,"▁Aber":10334,"usted":10335,"▁rebound":10336,"▁grounds":10337,"▁efficiency":10338,"▁misc":10339,"ateful":10340,"abet":10341,"▁Totten":10342,"▁addressed":10343,"▁backing":10344,"▁self-d":10345,"▁hosp":10346,"▁ske":10347,"▁over.":10348,"▁introduce":10349,"viewtopic.":10350,"▁Nich":10351,"▁Sept.":10352,"▁business,":10353,"▁ho":10354,"▁intent":10355,"▁farmers":10356,"▁etc.":10357,"▁Treaty":10358,"▁opponents":10359,"▁transm":10360,"▁Right":10361,"▁Find":10362,"▁carefully":10363,"uous":10364,"▁Govern":10365,"▁promoting":10366,"LA":10367,"▁Jacob":10368,"▁divorce":10369,"▁cul":10370,"▁somebody":10371,"▁everywhere":10372,"▁ambassador":10373,"/Getty":10374,"▁Newcast":10375,"▁toll":10376,"▁warn":10377,"▁amounts":10378,"▁stim":10379,"▁Brooklyn":10380,"▁rape":10381,"▁Henry":10382,"▁Fairfax":10383,"▁history,":10384,"wear":10385,"▁IP":10386,"▁Netflix":10387,"▁end,":10388,"▁weekend.":10389,"▁CC":10390,"▁party.":10391,"ittee,":10392,"42":10393,"▁striking":10394,"II":10395,"▁elev":10396,"lah":10397,"▁blamed":10398,"▁51":10399,"▁party,":10400,"▁detained":10401,"▁entertainment":10402,"thing.":10403,"ime,":10404,"▁other.":10405,"▁describe":10406,"▁proof":10407,"▁Pass":10408,"mb":10409,"87":10410,"▁\"not":10411,"▁kiss":10412,"▁Tai":10413,"▁Hug":10414,"▁savings":10415,"▁eleg":10416,"▁Laure":10417,"▁Father":10418,"▁twe":10419,"▁(AP)":10420,"▁66":10421,"▁restrictions":10422,"▁jumped":10423,"-star":10424,"▁spin":10425,"▁demanding":10426,"▁service.":10427,"uz":10428,"▁Gard":10429,"-2013,":10430,"id,":10431,"▁processes":10432,"▁contracts":10433,"▁UK.":10434,"▁#3":10435,"▁\"Our":10436,"aired":10437,"▁president.":10438,"▁acceler":10439,"▁symp":10440,"viewtopic.php?":10441,"▁AFL":10442,"▁mel":10443,"beat":10444,"▁stem":10445,"▁illness":10446,"▁stations":10447,"▁illust":10448,"▁>":10449,"shop":10450,"▁winners":10451,"▁problem.":10452,"▁philos":10453,"▁strange":10454,"▁????????":10455,"ties":10456,"▁alive":10457,"▁retirement":10458,"▁equivalent":10459,"▁taught":10460,"▁́Ð":10461,"anes":10462,"ikh":10463,"▁spectac":10464,"▁study,":10465,"▁cancel":10466,"▁Norm":10467,"▁Oxford":10468,"▁men,":10469,"▁Staff":10470,"▁Eve":10471,"On":10472,"▁shap":10473,"▁room.":10474,"▁smile":10475,"▁diagnosed":10476,"à:":10477,"▁Dall":10478,"▁organisations":10479,"▁Fred":10480,"▁stressed":10481,"▁investments":10482,"▁handling":10483,"stra":10484,"▁\"As":10485,"▁Rome":10486,"▁away,":10487,"▁fatal":10488,"▁ingred":10489,"▁Vi":10490,"erm":10491,"erg":10492,"▁entitled":10493,"▁confront":10494,"icking":10495,"igation":10496,"rators":10497,"▁so.":10498,"▁racing":10499,"▁requirement":10500,"ow,":10501,"▁glo":10502,"jp":10503,"▁line.":10504,"▁brown":10505,"▁suspic":10506,"-part":10507,"▁flav":10508,"▁incidents":10509,"▁noticed":10510,"▁together,":10511,"▁depth":10512,"▁Pennsylvan":10513,"▁operator":10514,"▁disturb":10515,"▁automatically":10516,"▁corn":10517,"race":10518,"▁contemporary":10519,"▁water,":10520,"wich":10521,"ics,":10522,"▁legs":10523,"▁breach":10524,"▁wage":10525,"▁weeks,":10526,"▁85":10527,"▁Ry":10528,"▁\"U":10529,"▁Obamacare":10530,"▁offices":10531,"▁storage":10532,"▁addition,":10533,"ancer":10534,"▁contained":10535,"▁specialist":10536,"▁California,":10537,"▁structures":10538,"▁house,":10539,"ions,":10540,"▁Arabia":10541,"xy":10542,"die":10543,"ucky":10544,"reens":10545,"ions.":10546,"▁expects":10547,"▁privile":10548,"▁representing":10549,"ingu":10550,"▁Domin":10551,"▁Leag":10552,"▁Prov":10553,"»Ð":10554,"{\"":10555,"▁Doct":10556,"box":10557,"▁writes":10558,"▁rugby":10559,"▁Luke":10560,"▁quot":10561,"▁MORE:":10562,"▁IC":10563,"▁Light":10564,"▁approached":10565,"▁incredibly":10566,"▁attack,":10567,"▁ordinary":10568,"▁B.":10569,"▁Ext":10570,"▁Stewart":10571,"▁scar":10572,"▁\"re":10573,"▁Jennifer":10574,"▁hole":10575,"▁Malays":10576,"▁Friend":10577,"▁normally":10578,"▁Whether":10579,"umph":10580,"anka":10581,"ttps":10582,"▁recovered":10583,"▁economy.":10584,"▁subsc":10585,"▁collected":10586,"▁report,":10587,"▁Hell":10588,"ja":10589,"▁Meet":10590,"▁http://t":10591,"▁Swan":10592,"▁(f":10593,"sters":10594,"onna":10595,"ensus":10596,"▁blocked":10597,"bal":10598,"▁foundation":10599,"▁Rand":10600,"ione":10601,"▁Syria,":10602,"▁latter":10603,"▁Phill":10604,".ru/":10605,"rates":10606,"”.":10607,"▁Cav":10608,"▁tall":10609,"▁educational":10610,"▁directive":10611,"▁win.":10612,"▁sexually":10613,"▁covering":10614,"▁cabinet":10615,"▁(00:06":10616,"▁crude":10617,"▁000":10618,"▁Bes":10619,"▁Khan":10620,"▁basketball":10621,"▁$US":10622,"▁found.":10623,"▁civilians":10624,"▁Russell":10625,"ttps://":10626,"▁unfair":10627,"um,":10628,"iser":10629,"▁steal":10630,"-to-":10631,"ographic":10632,"!'":10633,"▁Priv":10634,"▁sparked":10635,"rous":10636,"▁awareness":10637,"mans":10638,"▁vote.":10639,"▁woman,":10640,"ime.":10641,"▁exclud":10642,"loyd":10643,"▁winds":10644,"▁Send":10645,"▁95":10646,"ances,":10647,"▁inning":10648,"▁limits":10649,"▁Sher":10650,"▁gif":10651,"▁rivals":10652,"▁surveill":10653,"▁criticized":10654,"▁(5":10655,"▁describes":10656,"▁Leban":10657,"▁equally":10658,"▁Pap":10659,"▁shr":10660,"▁valid":10661,"▁promises":10662,"▁Bron":10663,"▁threatening":10664,"▁Ò":10665,"gor":10666,"▁ST":10667,"▁clip":10668,"comm":10669,"▁Pent":10670,"▁compensation":10671,"▁greet":10672,"EP":10673,"bell":10674,"▁jew":10675,"▁gall":10676,"▁Zika":10677,"apore":10678,"with":10679,"ency.":10680,"800":10681,"child":10682,"▁symptoms":10683,"▁inject":10684,"▁more,":10685,"▁gentlemen":10686,"▁renov":10687,"rapped":10688,"▁Yes,":10689,"uper":10690,"▁\"no":10691,"▁Greece":10692,"▁tea":10693,"▁shops":10694,"▁Taj":10695,"accept":10696,"▁Imm":10697,"▁equality":10698,"istol":10699,"▁blond":10700,"▁implemented":10701,"▁Neil":10702,"IR":10703,"-season":10704,"▁objective":10705,"▁Kurdish":10706,"▁suspects":10707,"▁migration":10708,"ctic":10709,"▁Treasury":10710,"▁Date":10711,"▁Lions":10712,"▁Cow":10713,"-level":10714,"burn":10715,"▁raw":10716,"▁presidency":10717,"▁outdoor":10718,"▁Without":10719,"▁thing.":10720,"▁beer":10721,"-born":10722,"▁engagement":10723,"▁Dave":10724,"▁Navy":10725,"▁relationships":10726,"ло":10727,"▁Pub":10728,"▁power.":10729,"onz":10730,"▁time:":10731,"▁Had":10732,"▁criticised":10733,"▁Reporter:":10734,"icks":10735,"▁appointment":10736,"▁hosts":10737,"▁striker":10738,"it.":10739,"▁Sometimes":10740,"▁Ðo":10741,"▁protecting":10742,"▁somewhat":10743,"▁phase":10744,"▁says:":10745,"annon":10746,"▁house.":10747,"▁'D":10748,"▁IN":10749,"▁1960":10750,"▁attacking":10751,"▁guid":10752,"▁visits":10753,"▁Flynn":10754,"▁disrupt":10755,"▁bars":10756,"▁E.":10757,"▁saying:":10758,"▁THE":10759,"▁Miller":10760,"▁Iow":10761,"▁side,":10762,"▁Kal":10763,"▁Prosecut":10764,"▁issues.":10765,"▁crop":10766,"▁enl":10767,"▁Awards":10768,"▁Corpor":10769,"▁ballot":10770,"▁Ð¿":10771,"▁57":10772,"▁crashed":10773,"▁privacy":10774,"▁falls":10775,"elaide":10776,"emed":10777,"ver,":10778,"▁(in":10779,"▁Gov.":10780,"▁testim":10781,"▁expecting":10782,"▁rarely":10783,"▁Street,":10784,"▁movies":10785,"▁vig":10786,"mail":10787,"▁(wh":10788,"▁investigation.":10789,"▁somewhere":10790,"ourse":10791,"zen":10792,"▁affairs":10793,"rump":10794,"▁AFP":10795,"▁pharm":10796,"▁defended":10797,"▁good.":10798,"▁hur":10799,"irm":10800,"▁(J":10801,"▁meters":10802,"▁12.":10803,"▁11.":10804,"SA":10805,"▁stolen":10806,"olly":10807,"▁unexpected":10808,"▁Gill":10809,"▁factory":10810,"▁portray":10811,"ier,":10812,"▁intellect":10813,"▁visible":10814,"▁hel":10815,"pted":10816,"▁explains":10817,"agic":10818,"▁satellite":10819,"▁Scotland's":10820,"▁resulting":10821,"▁shocked":10822,"▁better.":10823,"▁engage":10824,"preced":10825,"▁Previous":10826,"▁team's":10827,"åì":10828,"▁valuable":10829,"▁Crime":10830,"▁obtain":10831,"▁rhet":10832,"▁recording":10833,"utral":10834,"▁letters":10835,"▁reasonable":10836,"omer":10837,"▁attempting":10838,"ar.":10839,"▁ramp":10840,"▁displayed":10841,"▁containing":10842,"▁Corp":10843,"-be":10844,"▁acquis":10845,"▁gains":10846,"▁substantial":10847,"▁Westmin":10848,"▁driv":10849,"▁alloc":10850,"ora":10851,"co.":10852,"▁machines":10853,"-round":10854,"▁kicked":10855,"▁cameras":10856,"▁House,":10857,"▁prol":10858,"▁residence":10859,"▁Rubio":10860,"▁desperate":10861,"agen":10862,"eople":10863,"▁Nov.":10864,"▁constitutional":10865,"▁passes":10866,"▁Very":10867,"▁(H":10868,"▁criter":10869,"▁engineering":10870,"▁escal":10871,"▁Bridge":10872,"ito":10873,"▁Near":10874,"▁Tottenham":10875,"▁preparation":10876,"▁UC":10877,"▁LA":10878,"orious":10879,"rating":10880,"▁hours.":10881,"▁Griff":10882,"▁consol":10883,"mal":10884,"▁lying":10885,"▁cream":10886,"ing\"":10887,"ать":10888,"riving":10889,"iller":10890,"▁York.":10891,"▁Seven":10892,"▁pod":10893,"▁What's":10894,"▁theory":10895,"lete":10896,"▁estimates":10897,"▁О":10898,"▁event.":10899,"▁Bulgar":10900,"▁(pict":10901,"▁seventh":10902,"caster":10903,"asks":10904,"▁things.":10905,"▁Po":10906,"▁anger":10907,"ira":10908,"▁resolve":10909,"▁Charlie":10910,"не":10911,"▁Amend":10912,"▁dish":10913,"▁death,":10914,"TM":10915,"▁mine":10916,"tail":10917,"▁Which":10918,"▁scream":10919,"▁Adelaide":10920,"▁liked":10921,"▁precip":10922,"▁dates":10923,"arity":10924,"-final":10925,"▁elig":10926,"ke,":10927,"▁Pit":10928,"--------":10929,"▁telephone":10930,"hors":10931,"▁Budget":10932,"▁fiscal":10933,"▁today's":10934,"▁compos":10935,"▁January,":10936,"▁University,":10937,"▁Check":10938,"▁20th":10939,"ayev":10940,"▁\"She":10941,"▁hosted":10942,"▁Rep.":10943,"▁minister,":10944,"▁centres":10945,"▁awards":10946,"oj":10947,"▁serves":10948,"▁NE":10949,"ch,":10950,"▁cann":10951,"▁prospects":10952,"▁flash":10953,"▁Singapore":10954,"▁Ref":10955,"▁networks":10956,"▁schedule":10957,"▁before,":10958,"arre":10959,"▁filmed":10960,"▁Was":10961,"▁depending":10962,"itious":10963,"▁Turke":10964,"▁9,":10965,"▁Fif":10966,"▁theatre":10967,"▁result,":10968,"▁Tel":10969,"▁Make":10970,"▁mini":10971,"▁\"Y":10972,"▁Cho":10973,"odd":10974,"▁baseball":10975,"▁scan":10976,"▁information.":10977,"▁Access":10978,"▁riding":10979,"▁seasons":10980,"iley":10981,"▁lives.":10982,"ки":10983,"▁merely":10984,"MS":10985,"s/":10986,"▁beaten":10987,"host":10988,"▁games,":10989,"▁defending":10990,"▁walls":10991,"▁Ð1⁄2Ð":10992,"▁counts":10993,"▁added,":10994,"ye":10995,"▁techniqu":10996,"▁racial":10997,"/2011":10998,"▁administrative":10999,"uis":11000,"▁America,":11001,"▁\"very":11002,"▁affili":11003,"oen":11004,"▁Brid":11005,"lessly":11006,"▁ans":11007,"▁career.":11008,"▁viewed":11009,"▁attractive":11010,"OW":11011,"▁rot":11012,"▁executives":11013,"▁grass":11014,"▁cases,":11015,"▁region,":11016,"▁emerging":11017,"▁adds":11018,"▁Mitchell":11019,"▁marij":11020,"▁Oct.":11021,"▁Bernie":11022,"▁Pence":11023,"▁Inn":11024,"▁script":11025,"▁distinct":11026,"hi":11027,"iscons":11028,"mate":11029,"▁Has":11030,"com.":11031,"▁shoulder":11032,"???":11033,"ants,":11034,"▁attitude":11035,"▁sorry":11036,"▁borders":11037,"▁Pyong":11038,"▁stream":11039,"▁academic":11040,"▁54":11041,"▁Later":11042,"▁point.":11043,"uana":11044,"▁overlook":11045,"▁Brazilian":11046,"▁play.":11047,"▁glad":11048,"▁Benn":11049,"▁visa":11050,"▁buyers":11051,"▁transparen":11052,"▁param":11053,"ila":11054,"▁rapporteur":11055,"▁(pictured":11056,"▁hip":11057,"▁Constitution":11058,"elle":11059,"shore":11060,"zing":11061,"▁roles":11062,"▁$2.":11063,"ulous.":11064,"olved":11065,"▁Pack":11066,"▁capture":11067,"ointing":11068,"▁community.":11069,"▁services,":11070,"▁others,":11071,"inking":11072,"▁level.":11073,"▁bonds":11074,"▁remarkable":11075,"▁'c":11076,"▁imposed":11077,"▁England's":11078,"▁pounds":11079,"▁0%":11080,"▁Hans":11081,"▁hors":11082,"▁covers":11083,"▁railway":11084,"ings,":11085,"▁loans":11086,"▁residential":11087,"▁Tax":11088,"▁warrant":11089,"▁Marine":11090,"game":11091,"▁NBA":11092,"▁custody":11093,"▁Diego":11094,"▁Sunday's":11095,"▁Ted":11096,"URL":11097,"▁invent":11098,"▁Malcol":11099,"▁expected,":11100,"▁Bureau":11101,"▁reun":11102,"▁oldest":11103,"▁portfol":11104,"ary.":11105,"ATA":11106,"imm":11107,"oub":11108,"▁reception":11109,"▁court.":11110,"▁disappointed":11111,"▁Researcher":11112,"▁sporting":11113,"▁manifest":11114,"▁accompanied":11115,"olas":11116,"▁description":11117,"▁stom":11118,"▁(2":11119,"▁Pyongyang":11120,"▁Gulf":11121,"▁Field":11122,"▁Morning":11123,"▁connections":11124,"▁festiv":11125,"▁'f":11126,"▁surely":11127,"▁summer.":11128,"▁M.":11129,"▁Oak":11130,"▁colon":11131,"▁event,":11132,"▁possession":11133,"▁rely":11134,"▁Emer":11135,"▁March,":11136,"▁sear":11137,"▁disappear":11138,"▁Gordon":11139,"▁service,":11140,"▁href=\"":11141,"▁pleaded":11142,"uzz":11143,"▁Form":11144,"sung":11145,"▁Cos":11146,"I.":11147,"hr":11148,"▁spir":11149,"▁C.":11150,"▁Kas":11151,"▁hide":11152,"▁mosqu":11153,"▁actors":11154,"▁smooth":11155,"▁Òåì":11156,"ords":11157,"▁producing":11158,"▁Atlantic":11159,"ins,":11160,"▁loose":11161,"▁pursue":11162,"▁money,":11163,"▁McL":11164,"▁thorough":11165,"▁Again":11166,"▁man.":11167,"▁Master":11168,"/3":11169,"▁spell":11170,"▁lip":11171,"eath":11172,"▁Clar":11173,"▁SNP":11174,"▁Jong":11175,"▁Spirit":11176,"▁period.":11177,"▁encouraging":11178,"GO":11179,"athy":11180,"by,":11181,"▁Today,":11182,"▁Alexand":11183,"▁settled":11184,"▁obser":11185,"▁Lisa":11186,"▁answers":11187,"▁Bond":11188,"▁Sud":11189,"▁modest":11190,"▁soph":11191,"▁constitu":11192,"▁Others":11193,"▁China.":11194,"▁#4":11195,"▁cycle":11196,"▁regardless":11197,"▁maintenance":11198,"front":11199,"▁hell":11200,"▁Patri":11201,"во":11202,"▁mans":11203,"▁Given":11204,"part":11205,"▁Organization":11206,"▁cable":11207,"▁tag":11208,"▁congressional":11209,"▁done.":11210,"▁June,":11211,"▁Òåìà:":11212,"▁Bad":11213,"▁hired":11214,"▁program,":11215,"▁breeze":11216,"▁Cre":11217,"jud":11218,"▁wounded":11219,"in's":11220,"ay.":11221,"D.":11222,"▁attracted":11223,"ер":11224,"ockey":11225,"▁£2":11226,"▁off,":11227,"▁rental":11228,"ry.":11229,"aga":11230,"arks":11231,"ilst":11232,"▁dining":11233,"hent":11234,"▁'N":11235,"▁summer,":11236,"▁destruction":11237,"▁fairly":11238,"▁News.":11239,"▁earning":11240,"▁(6":11241,"kh":11242,"▁Boris":11243,"ines,":11244,"▁'C":11245,"▁excit":11246,"▁sovere":11247,"▁Shan":11248,"▁unemployment":11249,"▁discrimination":11250,"xic":11251,"▁exports":11252,"▁multi":11253,"▁Gun":11254,"▁incent":11255,"▁landed":11256,"▁Dal":11257,"▁Tri":11258,"▁searching":11259,"▁seized":11260,"mother":11261,"tle":11262,"▁visual":11263,"▁Munich":11264,"▁innovation":11265,"▁painting":11266,"▁Gib":11267,"та":11268,"▁'You":11269,"weet":11270,"▁Stone":11271,"▁Malcolm":11272,"ard.":11273,"▁YouTube":11274,"otte":11275,"▁(4":11276,"▁dub":11277,"▁58":11278,"▁spiritual":11279,"▁diverse":11280,"▁Snow":11281,"▁advised":11282,"▁Arizona":11283,"isp":11284,"▁li":11285,"▁Samsung":11286,"▁answered":11287,"▁managers":11288,"▁collective":11289,"▁suitable":11290,"▁Oil":11291,"▁Here's":11292,"▁virtual":11293,"▁slowly":11294,"].":11295,"▁degrees":11296,"ura":11297,"▁stun":11298,"▁junior":11299,"▁outcom":11300,"▁problems.":11301,"▁Control":11302,"▁investigations":11303,"▁weird":11304,"#p":11305,"man.":11306,"▁Ib":11307,"▁generated":11308,"▁locked":11309,"▁imper":11310,"▁programmes":11311,"▁lady":11312,"▁things,":11313,"▁shell":11314,"▁instance,":11315,"▁Leader":11316,"ught":11317,"▁pig":11318,"▁Nad":11319,"▁complicated":11320,"▁Conc":11321,"▁controls":11322,"▁Buck":11323,"▁targeting":11324,"▁Bed":11325,"▁Link":11326,"irts":11327,"▁Unfortun":11328,"▁$7":11329,"hes.":11330,"log":11331,"▁realise":11332,"▁Warren":11333,"▁sustained":11334,"▁Toky":11335,"itol":11336,"▁Kings":11337,"▁finger":11338,"ycle":11339,"▁Everton":11340,"isive":11341,"eals":11342,"▁(c":11343,"▁Circ":11344,"▁primarily":11345,"▁discovery":11346,"ropolitan":11347,"▁ultimate":11348,"▁zero":11349,"▁(V":11350,"▁swing":11351,"▁Kyr":11352,"▁ownership":11353,"@@@@":11354,"anted":11355,"▁craft":11356,"▁till":11357,"▁Theatre":11358,"-200":11359,"▁owns":11360,"▁babies":11361,"▁are,":11362,"▁resistance":11363,"▁abroad":11364,"▁Ton":11365,"▁53":11366,"▁mutual":11367,"▁exem":11368,"-winning":11369,"▁Princess":11370,"▁license":11371,"▁Agreement":11372,"u.":11373,"▁midfielder":11374,"▁1.5":11375,"▁locations":11376,"▁And,":11377,"▁daughter,":11378,"▁Birmingham":11379,"▁Eth":11380,"ounce":11381,"▁mun":11382,"DF":11383,"▁name,":11384,"▁publ":11385,"▁club's":11386,"▁regulatory":11387,"▁Whit":11388,"▁disabled":11389,"▁Minnes":11390,"▁showc":11391,"▁far,":11392,"▁Jan.":11393,"▁elite":11394,"▁glam":11395,"rait":11396,"▁distract":11397,"▁toug":11398,"▁joke":11399,"▁discl":11400,"iece":11401,"▁recalled":11402,"▁Olympics":11403,"uset":11404,"▁certific":11405,"▁Jr.":11406,"▁abandoned":11407,"▁burst":11408,"▁devastating":11409,"icate":11410,"▁men's":11411,"▁Dick":11412,"▁highlighted":11413,"▁film,":11414,"▁go.":11415,"▁194":11416,"▁Detro":11417,"▁possess":11418,"▁September,":11419,"▁execution":11420,"▁Put":11421,"▁rushed":11422,"1⁄4Ð":11423,"▁uncertainty":11424,"▁industry,":11425,"ale,":11426,"▁broader":11427,"▁destination":11428,"▁cease":11429,"▁spectacular":11430,"▁Serb":11431,"▁trem":11432,"▁but,":11433,"▁Kardashian":11434,"▁proven":11435,"▁pledged":11436,"index.php?":11437,"▁Saturday's":11438,"precedented":11439,"▁performances":11440,"▁contr":11441,"▁fold":11442,"▁Disc":11443,"▁attending":11444,"▁aer":11445,"▁dust":11446,"▁Hit":11447,"▁experim":11448,"▁Aren":11449,"ashes":11450,"▁Rh":11451,"▁abortion":11452,"▁sits":11453,"▁W.":11454,"▁involves":11455,"▁Bon":11456,"▁brothers":11457,"▁PS":11458,"▁seemingly":11459,"▁mining":11460,"▁promising":11461,"▁helicopter":11462,"▁phones":11463,"eries":11464,"▁phr":11465,"onia":11466,"ava":11467,"▁repli":11468,"▁Christopher":11469,"loved":11470,"▁hospitals":11471,"▁ocean":11472,"▁Sessions":11473,"▁perce":11474,"-led":11475,"▁drinks":11476,"▁reck":11477,"▁help.":11478,"ency,":11479,"▁fortun":11480,"▁Thail":11481,"achuset":11482,"▁packed":11483,"▁Dec.":11484,"E,":11485,"enth":11486,"▁teenager":11487,"▁romantic":11488,"▁simpl":11489,"▁story.":11490,"▁crown":11491,"▁war.":11492,"m)":11493,"▁Rail":11494,"-yard":11495,"▁evil":11496,"▁Bruce":11497,"▁humidity":11498,"▁to,":11499,"▁shareholders":11500,"▁bacter":11501,"▁cleared":11502,"▁point:":11503,"istan,":11504,"▁Have":11505,"▁autumn":11506,"124":11507,"▁(or":11508,"▁+0000":11509,"▁Exchange":11510,"▁reserve":11511,"▁pret":11512,"▁humans":11513,"▁Ast":11514,"ials":11515,"▁McDonald":11516,"▁bread":11517,"▁Researchers":11518,"father":11519,"▁conspir":11520,"▁Review":11521,"▁2010.":11522,"▁Series":11523,"atural":11524,"400":11525,"▁organised":11526,"▁topic":11527,"▁sons":11528,"har":11529,"agu":11530,"▁discount":11531,"inder":11532,"▁demanded":11533,"▁sin":11534,"▁headquarters":11535,"erse":11536,"-American":11537,"iac":11538,"▁DNA":11539,"▁amendment":11540,"▁firef":11541,"government":11542,"▁micro":11543,"bie":11544,"▁prosecution":11545,"igenous":11546,"rones":11547,"▁rall":11548,"▁horror":11549,"▁MS":11550,"▁Ltd":11551,"▁book,":11552,"▁Newcastle":11553,"▁tensions":11554,"▁А":11555,"▁Garden":11556,"▁'This":11557,"▁terrorists":11558,"▁guidelines":11559,"▁narr":11560,"▁perpet":11561,"▁predicted":11562,"▁celebrity":11563,"▁NY":11564,"▁that,\"":11565,"▁Albert":11566,"▁Kenn":11567,"▁Authorities":11568,"▁arriving":11569,"▁burning":11570,"▁impression":11571,"▁flaw":11572,"▁relating":11573,"ling,":11574,"▁car.":11575,"▁Wright":11576,"▁handful":11577,"▁ambul":11578,"cott":11579,"ication":11580,"▁declar":11581,"▁badly":11582,"▁probe":11583,"-tr":11584,"▁rocket":11585,"▁Mas":11586,"▁colleg":11587,"▁Build":11588,"ious,":11589,"▁bold":11590,"aven":11591,"▁quoted":11592,"▁weekend,":11593,"▁realised":11594,"iki":11595,"▁throwing":11596,"▁Oli":11597,"▁accusations":11598,"▁Chancellor":11599,"▁drunk":11600,"▁windows":11601,"▁Warri":11602,"fers":11603,"▁Unt":11604,"▁website.":11605,"▁Az":11606,"▁friendship":11607,"▁Ts":11608,"▁schol":11609,"▁support.":11610,"▁Iron":11611,"TON":11612,"▁husband,":11613,"▁Forum":11614,"▁America.":11615,"▁blank":11616,"-8":11617,"▁(b":11618,"▁Zh":11619,"inations":11620,"▁£3":11621,"▁grateful":11622,"▁employe":11623,"▁femin":11624,"-week":11625,"-profile":11626,"▁#6":11627,"▁chicken":11628,"▁minutes,":11629,"▁photographs":11630,"▁Aaron":11631,"▁appreciate":11632,"GA":11633,"▁Hampshire":11634,"▁Aberde":11635,"▁tracks":11636,"pat":11637,"▁Fal":11638,"▁survived":11639,"▁Jimmy":11640,"▁overwhelming":11641,"▁rehab":11642,"ually,":11643,"▁conscious":11644,"▁maintained":11645,"▁ceremon":11646,"▁bull":11647,"\";":11648,"▁Eag":11649,"▁McM":11650,"▁secured":11651,"▁disclos":11652,"▁Telegraph":11653,"▁Oklah":11654,"▁Toronto":11655,"rection":11656,"▁Gam":11657,"▁prost":11658,"▁Ow":11659,"▁elderly":11660,"▁repeat":11661,"▁unnecess":11662,"▁transgender":11663,"▁Reserve":11664,"▁considerable":11665,"▁followers":11666,"▁somehow":11667,"▁body.":11668,"▁Fle":11669,"▁golden":11670,"▁10H":11671,"▁recru":11672,"▁urgent":11673,"dam":11674,"▁surveillance":11675,"▁Park,":11676,"iated":11677,"▁Design":11678,"▁prote":11679,"▁rapidly":11680,"▁68":11681,"▁rememb":11682,"at.":11683,"▁quit":11684,"▁jihad":11685,"▁Line":11686,"▁600":11687,"▁Sad":11688,"▁Madam":11689,"hess":11690,"▁Soph":11691,"etime":11692,"▁Women's":11693,"ison,":11694,"▁desk":11695,"▁Pow":11696,"▁recommendations":11697,"▁Ban":11698,"▁experience.":11699,"keeper":11700,"▁for.":11701,"ima":11702,"▁Holland":11703,"▁vit":11704,"▁'P":11705,"rets":11706,"▁stages":11707,"▁tired":11708,"▁\"sh":11709,"▁ease":11710,"▁В":11711,"▁maps":11712,"▁moment,":11713,"▁Astana":11714,"▁propag":11715,"▁Polish":11716,"▁HIV":11717,"▁fires":11718,"▁Ay":11719,"▁extract":11720,"▁politically":11721,"▁Ho":11722,"▁Everyone":11723,"▁police,":11724,"▁policy.":11725,"rise":11726,"▁Tar":11727,"▁recognise":11728,"▁grey":11729,"▁gri":11730,"▁stamp":11731,"▁nomination":11732,"▁City.":11733,"▁bol":11734,"▁compound":11735,"▁petition":11736,"▁Brother":11737,"IF":11738,"▁entrance":11739,"▁lovely":11740,"itut":11741,"▁Model":11742,"▁suburb":11743,"▁deal,":11744,"▁Storm":11745,"▁supplies":11746,"▁Technology":11747,"▁safet":11748,"▁complained":11749,"▁dew":11750,"ulations":11751,"▁studied":11752,"ings.":11753,"▁brows":11754,"▁himself.":11755,"ests.":11756,"▁lobby":11757,"▁qualified":11758,"▁bottle":11759,"▁end.":11760,"▁comput":11761,"onder":11762,"▁expression":11763,"▁glob":11764,"aved":11765,"▁helpful":11766,"▁\"we":11767,"licit":11768,"rep":11769,"▁expanded":11770,"▁authors":11771,"▁Belarusian":11772,"▁signature":11773,"inating":11774,"▁essentially":11775,"verning":11776,"orge":11777,"▁frame":11778,"▁NASA":11779,"за":11780,"▁overcome":11781,"▁creates":11782,"ife.":11783,"▁fo":11784,"▁outfit":11785,"▁decent":11786,"▁root":11787,"▁US,":11788,"▁Report":11789,"▁advertis":11790,"inity":11791,"▁Weinstein":11792,"▁facilit":11793,"-cont":11794,"▁blocks":11795,"▁Arts":11796,"▁Freedom":11797,"▁dominated":11798,"▁Additional":11799,"oon,":11800,"▁literally":11801,"dale":11802,"▁72":11803,"▁BM":11804,"▁drops":11805,"omed":11806,"▁Cole":11807,"▁provisions":11808,"ulpt":11809,"▁<!":11810,"St":11811,"▁(a":11812,"▁reliable":11813,"▁teenage":11814,"▁lect":11815,"▁developments":11816,"▁moderate":11817,"reck":11818,"▁buff":11819,"▁themselves.":11820,"▁October,":11821,"-wing":11822,"▁bills":11823,"raf":11824,"ster,":11825,"-one":11826,"abs":11827,"apol":11828,"▁exha":11829,"▁intim":11830,"▁Lith":11831,"▁deny":11832,"▁>>>":11833,"▁proportion":11834,"▁iconic":11835,"est,":11836,"▁Xi":11837,"bles":11838,"▁Hu":11839,"mir":11840,"▁cents":11841,"▁admit":11842,"▁observ":11843,"▁Australians":11844,"▁67":11845,"▁progressive":11846,"▁Data":11847,"1⁄2Ñ":11848,"r,":11849,"▁AL":11850,"ovsk":11851,"▁first,":11852,"▁functions":11853,"▁artific":11854,"▁https://":11855,"▁arguing":11856,"▁Tam":11857,"▁moon":11858,"▁Independent":11859,"itar":11860,"lash":11861,"▁Angela":11862,"▁estimate":11863,"▁aspect":11864,"▁Opp":11865,"▁dealt":11866,"▁restore":11867,"▁thin":11868,"▁odds":11869,"enh":11870,"▁Petersburg":11871,"▁integrated":11872,"▁own.":11873,"▁survive":11874,"▁Secret":11875,"ls":11876,"opping":11877,"▁acquired":11878,"cript":11879,"▁House.":11880,"▁Ur":11881,"▁leader,":11882,"▁Set":11883,"king":11884,"▁interf":11885,"thur":11886,"▁Cry":11887,"▁Roll":11888,"▁promotion":11889,"▁towns":11890,"▁Address":11891,"inding":11892,"▁change,":11893,"67":11894,"bing":11895,"▁consideration":11896,"▁smoking":11897,"▁mortgage":11898,"▁holidays":11899,"▁Anna":11900,"▁activist":11901,"▁margin":11902,"cd":11903,"▁59":11904,"▁Action":11905,"▁mainstream":11906,"▁companies,":11907,"▁Tan":11908,"▁action.":11909,"го":11910,"▁controversy":11911,"▁Syria.":11912,"▁compromise":11913,"▁Yan":11914,"▁filming":11915,"▁attached":11916,"▁yard":11917,"▁discussing":11918,"▁1999":11919,"▁Lad":11920,"▁liquid":11921,"▁philosoph":11922,"▁\"For":11923,"▁monthly":11924,"▁let's":11925,"▁language:":11926,"▁М":11927,"▁decision.":11928,"▁euros":11929,"▁Tun":11930,"HP":11931,"▁edition":11932,"▁GDP":11933,"▁components":11934,"/01":11935,"▁10,000":11936,"lects":11937,"▁intellectual":11938,"▁Vin":11939,"▁basically":11940,"▁adequ":11941,"▁funny":11942,"igious":11943,"▁Within":11944,"▁ground.":11945,"▁Hills":11946,"▁leather":11947,"▁friends,":11948,"▁they'll":11949,"▁cig":11950,"▁lessons":11951,"oca":11952,"▁breaks":11953,"▁Bloom":11954,"▁finishing":11955,"http://www.":11956,"▁exception":11957,"▁\"an":11958,"▁Bull":11959,"ati":11960,"▁brands":11961,"z.":11962,"▁Box":11963,"▁depends":11964,"ION":11965,"lades":11966,"▁revers":11967,"remlin":11968,"▁hopeful":11969,"▁\"There's":11970,"▁friends.":11971,"▁equity":11972,"▁stomach":11973,"▁Unit":11974,"liminary":11975,"▁burg":11976,"▁rush":11977,"▁trains":11978,"▁enhance":11979,"▁Latest":11980,"▁trips":11981,"▁appearing":11982,"GBT":11983,"CDATA":11984,"rowing":11985,"▁booking":11986,"iary":11987,"▁deserve":11988,"▁earthquake":11989,"ician":11990,"[CDATA":11991,"[CDATA[":11992,"▁online.":11993,"▁<![CDATA[":11994,"-found":11995,"▁clinical":11996,"▁Stu":11997,"▁Non":11998,"▁kidn":11999,"▁Duke":12000,"▁Indeed,":12001,"ney.":12002,"▁classes":12003,"▁Quest":12004,"▁Evans":12005,"▁Does":12006,"▁landscape":12007,"▁loves":12008,"▁Yorkshire":12009,"▁downtown":12010,"ville,":12011,"hand":12012,"▁'He":12013,"▁'F":12014,"aver":12015,"▁Assad":12016,"zed":12017,"D,":12018,"▁transferred":12019,"K.":12020,"▁sed":12021,"▁past,":12022,"ия":12023,"▁tone":12024,"▁CB":12025,"ator,":12026,"▁\"I've":12027,"wealth":12028,"imore":12029,"egu":12030,"▁Hawai":12031,"▁affordable":12032,"▁firing":12033,"▁process,":12034,"▁forever":12035,"anth":12036,"thing,":12037,"▁&apos;t":12038,"▁experiment":12039,"▁Philadelphia":12040,"over,":12041,"▁autonom":12042,"▁categories":12043,"J.":12044,"▁Here:":12045,"▁Insp":12046,"▁England,":12047,"▁April,":12048,"▁Bos":12049,"▁man's":12050,"author":12051,"lu":12052,"rot":12053,"▁bump":12054,"olph":12055,"merce":12056,"▁fabric":12057,"▁terrif":12058,"▁availability":12059,"▁craw":12060,"▁speculation":12061,"▁meets":12062,"▁Tajik":12063,"▁Officials":12064,"ved,":12065,"▁gross":12066,"active":12067,"▁he'll":12068,"▁Blair":12069,"▁listening":12070,"▁crossing":12071,"▁overh":12072,"▁Partners":12073,"▁Country":12074,"],":12075,"▁fing":12076,"ista":12077,"teen":12078,"▁Ep":12079,"ame,":12080,"▁Forest":12081,"▁courses":12082,"▁outrage":12083,"▁Woman":12084,"]]>":12085,"▁noting":12086,"▁attribut":12087,"▁wanting":12088,"▁flew":12089,"▁forcing":12090,"▁teeth":12091,"▁spaces":12092,"▁Talib":12093,"astrop":12094,"▁recognize":12095,"▁prosecutor":12096,"▁portfolio":12097,"▁Online":12098,"▁constitution":12099,"▁treas":12100,"▁knocked":12101,"ocument":12102,"UT":12103,"▁merc":12104,"▁landing":12105,"▁recognized":12106,"▁Picture:":12107,"▁Roger":12108,"▁Qual":12109,"forum/index.php?":12110,"▁astron":12111,"▁Tru":12112,"ao":12113,"▁Var":12114,"▁preced":12115,"▁momentum":12116,"▁'L":12117,"/4":12118,"▁на":12119,"▁19th":12120,"▁pulling":12121,"▁subsequent":12122,"andom":12123,"ifies":12124,"▁Mourinho":12125,"▁salary":12126,"10.":12127,"▁Ped":12128,"ixture":12129,"▁£5":12130,"▁hire":12131,"▁chronic":12132,"▁Beat":12133,"health":12134,"▁Dream":12135,"▁highlights":12136,"▁feelings":12137,"▁seed":12138,"▁arts":12139,"▁universities":12140,"▁assert":12141,"▁lifted":12142,"▁touched":12143,"▁actively":12144,"▁delighted":12145,"▁celebrating":12146,"▁barri":12147,"▁knife":12148,"▁race.":12149,"▁Bash":12150,"ches.":12151,"▁deposit":12152,"▁Bart":12153,"▁shower":12154,"▁comparison":12155,"▁Dor":12156,"▁Jessica":12157,"▁frequent":12158,"▁Election":12159,"▁ambitious":12160,"▁family's":12161,"▁publication":12162,"cu":12163,"▁Break":12164,"▁Tig":12165,"▁м":12166,"-18":12167,"▁database":12168,"▁waves":12169,"▁Wiscons":12170,"inf":12171,"&p=":12172,"▁premiere":12173,"▁neutral":12174,"°C,":12175,"▁past.":12176,"ifications":12177,"▁gig":12178,"▁crisis.":12179,"▁July,":12180,"▁predecess":12181,"▁vowed":12182,"▁Kus":12183,"▁November,":12184,"conn":12185,"▁Iss":12186,"▁Lev":12187,"▁ads":12188,"▁London's":12189,"▁Use":12190,"▁alliance":12191,"▁Dak":12192,"viewtopic.php?t=":12193,"▁Defence":12194,"▁group's":12195,"68":12196,"▁weaken":12197,"▁explosion":12198,"izarre":12199,"ally.":12200,"▁wealthy":12201,"▁studying":12202,"bul":12203,"▁siz":12204,"▁shed":12205,"▁buck":12206,"remulous.":12207,"▁Abbott":12208,"▁800":12209,"eva":12210,"EM":12211,"▁Easter":12212,"▁thre":12213,"▁chocolate":12214,"▁unaccept":12215,"▁You're":12216,"тя":12217,"▁ridic":12218,"▁Kennedy":12219,"▁Alabama":12220,"remulous.net/":12221,"▁Row":12222,"arest":12223,"▁weekly":12224,"▁integr":12225,"▁taxi":12226,"▁DLL":12227,"▁CO":12228,"▁Abu":12229,"ouri":12230,"▁Safety":12231,"roid":12232,"▁installation":12233,"▁May's":12234,"rator":12235,"▁condemned":12236,"...+":12237,"▁Costa":12238,"aching":12239,"▁Sel":12240,"▁Let's":12241,"aro":12242,"▁Gil":12243,"▁http://tremulous.net/":12244,"▁desert":12245,"▁bilateral":12246,"▁competing":12247,"you":12248,"▁Pope":12249,"▁county":12250,"▁dispos":12251,"▁economy,":12252,"▁Howard":12253,"ures,":12254,"▁admits":12255,"▁Latv":12256,"uther":12257,"▁solo":12258,"▁21st":12259,"-bed":12260,"▁site.":12261,"▁delayed":12262,"▁conversations":12263,"▁AR":12264,"▁noise":12265,"▁sectors":12266,"▁ignored":12267,"▁blonde":12268,"▁pose":12269,"▁face.":12270,"▁information,":12271,"▁incorpor":12272,"▁http://tremulous.net/forum/index.php?":12273,"▁Clinton,":12274,"▁Origin":12275,"▁march":12276,"pc":12277,"▁Pear":12278,"▁[the":12279,"ications":12280,"▁(New":12281,"▁Mand":12282,"▁caution":12283,"▁unprecedented":12284,"▁volunt":12285,"▁porn":12286,"▁overd":12287,"▁Nation":12288,"ches,":12289,"▁Sev":12290,"arth":12291,"▁power,":12292,"▁Cardiff":12293,"▁Views":12294,"▁relatives":12295,"▁gest":12296,"▁scared":12297,"lining":12298,"600":12299,"ogs":12300,"▁attorne":12301,"▁Vik":12302,"ems":12303,"▁regret":12304,"▁Hand":12305,"▁cake":12306,"▁car,":12307,"itched":12308,"▁Sex":12309,"▁ric":12310,"▁compliance":12311,"▁governing":12312,"▁transparency":12313,"▁Laura":12314,"▁Korea,":12315,"▁closest":12316,"▁hook":12317,"ines.":12318,"aria":12319,"▁Snap":12320,"▁asks":12321,"▁inapp":12322,"▁delivering":12323,"▁Barn":12324,"▁realize":12325,"▁God,":12326,"▁public.":12327,"▁areas.":12328,"▁anymore":12329,"▁issues,":12330,"▁deemed":12331,"▁Banglades":12332,"▁fundra":12333,"▁coinc":12334,"▁temperature,":12335,"▁preferred":12336,"▁existence":12337,"▁Bud":12338,"▁repro":12339,"▁players.":12340,"▁Desc":12341,"▁authent":12342,"▁lung":12343,"▁Full":12344,"▁battery":12345,"jo":12346,"▁F.":12347,"▁Dead":12348,"▁Belgian":12349,"ants.":12350,"▁Adv":12351,"▁happened.":12352,"isms":12353,"▁lesson":12354,"▁insists":12355,"▁men.":12356,"enna":12357,"▁purpos":12358,"▁club.":12359,"▁defeated":12360,"°C;":12361,"borne":12362,"ibbean":12363,"▁Dallas":12364,"acre":12365,"900":12366,"▁food,":12367,"ious.":12368,"/08":12369,"▁god":12370,"lean":12371,"▁cabin":12372,"ouch":12373,"▁Victorian":12374,"-15":12375,"▁Michigan":12376,"▁war,":12377,"▁Metro":12378,"▁Lux":12379,"▁lake":12380,"▁colleague":12381,"page":12382,"▁with.":12383,"9/2017":12384,"▁salt":12385,"▁franchise":12386,"94":12387,"▁definition":12388,"leep":12389,"Ne":12390,"encing":12391,"▁wrong.":12392,"B.":12393,"urse":12394,"▁diabet":12395,"▁capital,":12396,"▁night's":12397,"▁eighth":12398,"-qu":12399,"▁Emb":12400,"▁strip":12401,"▁legacy":12402,"▁demonstrated":12403,"▁bust":12404,"low":12405,"arb":12406,"▁Should":12407,"▁revealing":12408,"▁Hon":12409,"▁Bright":12410,"▁feared":12411,"SE":12412,"▁Person":12413,"▁Han":12414,"▁did.":12415,"▁eru":12416,"▁Hend":12417,"▁Pel":12418,"▁voter":12419,"▁December,":12420,"-law":12421,"▁confron":12422,"▁#7":12423,"▁hours,":12424,"▁long,":12425,"▁Soft":12426,"attered":12427,"▁hik":12428,"rin":12429,"▁balcon":12430,"▁arrangement":12431,"▁painful":12432,"▁burden":12433,"▁care.":12434,"▁everyday":12435,"▁gathering":12436,"onic":12437,"oto":12438,"▁Watson":12439,"▁Croat":12440,"▁Capitol":12441,"▁Nine":12442,"▁lean":12443,"▁nick":12444,"▁Lithuan":12445,"▁conviction":12446,"▁Feb.":12447,"▁subjects":12448,"▁principal":12449,"▁about.":12450,"▁pointing":12451,"▁eligible":12452,"▁adap":12453,"▁examples":12454,"▁prosper":12455,"▁bombing":12456,"▁Mrs.":12457,"▁Ott":12458,"▁'b":12459,"thening":12460,"▁Od":12461,"▁series,":12462,"stad":12463,"oln":12464,"▁smugg":12465,"▁(2)":12466,"df":12467,"▁Crim":12468,"▁Qatar":12469,"▁Hous":12470,"▁underground":12471,"▁Moon":12472,"▁enough.":12473,"▁satisfact":12474,"▁Dean":12475,"▁August,":12476,"hedral":12477,"▁leak":12478,"▁Kremlin":12479,"▁Rodrig":12480,"▁argu":12481,"▁champions":12482,"▁recognised":12483,"rition":12484,"▁assume":12485,"▁difficulties":12486,"▁incident.":12487,"▁focusing":12488,"▁describing":12489,"▁trapped":12490,"▁sleeping":12491,"▁Bernard":12492,"▁Eur":12493,"▁presents":12494,"mitt":12495,"▁Cli":12496,"on't":12497,"▁Anne":12498,"▁cooking":12499,"new":12500,"▁Atlanta":12501,"▁Hann":12502,"▁Living":12503,"▁letting":12504,"club":12505,"mont":12506,"▁carries":12507,"▁seeks":12508,"▁Lisb":12509,"▁venue":12510,"▁hub":12511,"▁Pa":12512,"▁hospital.":12513,"▁players,":12514,"inois":12515,"▁2018.":12516,"▁brid":12517,"▁Station":12518,"land.":12519,"▁which,":12520,"▁part,":12521,"▁high-profile":12522,"▁vs.":12523,"▁Hope":12524,"odox":12525,"gged":12526,"▁marijuana":12527,"▁Alt":12528,"orse":12529,"▁moment.":12530,"organ":12531,"▁Cabinet":12532,"='":12533,"▁suppli":12534,"wy":12535,"▁meeting,":12536,"▁History":12537,"▁period,":12538,"▁prisoners":12539,"%)":12540,"▁interviews":12541,"▁briefly":12542,"▁cow":12543,"▁Ca":12544,"▁dying":12545,"▁Baltimore":12546,"▁shoes":12547,"▁Westminster":12548,"▁reluct":12549,"▁absor":12550,"▁memories":12551,"▁sne":12552,"▁billionaire":12553,"▁Fisher":12554,"▁'h":12555,"▁fastest":12556,"ra,":12557,"ecurity":12558,"-mail":12559,"▁\"No":12560,"ford,":12561,"▁hanging":12562,"▁LGBT":12563,"2017":12564,"▁reflected":12565,"▁currenc":12566,"▁password":12567,"▁stance":12568,"▁Oreg":12569,"▁accessible":12570,"▁Thompson":12571,"▁situation.":12572,"▁sanction":12573,"▁bub":12574,"▁Until":12575,"▁D.C.":12576,"▁Aug.":12577,"ribed":12578,".48":12579,"▁manip":12580,"▁interven":12581,"▁recre":12582,"▁employed":12583,"iatric":12584,"▁inequ":12585,"math":12586,"▁urge":12587,"▁priorities":12588,"▁name.":12589,"▁confirmation":12590,"▁campaigns":12591,"ania":12592,"aughters":12593,"▁Kyle":12594,"▁narrative":12595,"▁Fact":12596,"▁Cambridge":12597,"-01":12598,"▁­":12599,"aments":12600,"▁Nas":12601,"▁scope":12602,"/07":12603,"S,":12604,"▁February,":12605,"borough":12606,"▁echo":12607,"-O":12608,"anim":12609,"una":12610,"▁citizenship":12611,"▁Caribbean":12612,"/05":12613,"▁posting":12614,"oup":12615,"▁purchased":12616,"aware":12617,"▁statistics":12618,"▁plate":12619,"▁silence":12620,"▁12/9/2017":12621,"y\"":12622,"▁tons":12623,"▁escap":12624,"▁Resp":12625,"▁other,":12626,"▁singing":12627,"▁transportation":12628,"▁policy,":12629,"▁Seattle":12630,"▁Merc":12631,"▁convict":12632,"▁matching":12633,"▁sophistic":12634,"aux":12635,"▁scene.":12636,"star":12637,"▁hunt":12638,"▁checks":12639,"▁me,\"":12640,"▁Governor":12641,"▁uncomfort":12642,"▁Total":12643,"▁stir":12644,"bourn":12645,"lav":12646,"▁bin":12647,"▁financing":12648,"▁Exc":12649,"▁'G":12650,"img":12651,"▁Ka":12652,"▁fierce":12653,"▁tweets":12654,"▁Investig":12655,"▁disappeared":12656,"▁overhaul":12657,"eling":12658,"▁Region":12659,"▁languages":12660,"▁Nathan":12661,"-backed":12662,"iership":12663,"▁Krist":12664,"▁sculpt":12665,"▁acted":12666,"▁articles":12667,"▁offshore":12668,"▁infect":12669,"▁video,":12670,"▁alone.":12671,"▁reverse":12672,"▁Carter":12673,"▁Smith,":12674,"▁Brand":12675,"▁condemn":12676,"▁customs":12677,"-I":12678,"▁plung":12679,"»Ñ":12680,"▁consolid":12681,"\":{\"":12682,"▁gear":12683,"oga":12684,"▁expanding":12685,"outheast":12686,"▁61":12687,"▁fare":12688,"arted":12689,"▁who,":12690,"▁wooden":12691,"▁Dj":12692,"co.uk":12693,"▁airports":12694,"▁Danny":12695,"▁hill":12696,"ures.":12697,"▁conditions.":12698,"▁forward.":12699,"▁Intelligence":12700,"▁190":12701,"▁theat":12702,"▁Dubai":12703,"▁itself.":12704,"▁DE":12705,"▁indicate":12706,"▁good,":12707,"▁transact":12708,"▁brutal":12709,"▁list.":12710,"▁municip":12711,"▁breath":12712,"▁genetic":12713,"▁mask":12714,"▁Europe's":12715,"▁DV":12716,"-14":12717,"▁meanwhile,":12718,"▁publisher":12719,"els,":12720,"▁medicine":12721,"▁guidance":12722,"ler,":12723,"▁boom":12724,"▁realized":12725,"▁turb":12726,"▁Murph":12727,"\"s":12728,"▁religion":12729,"▁Then,":12730,"▁#.48":12731,"▁#.48#":12732,"▁Winter":12733,"▁ET":12734,"▁January.":12735,"▁Charlotte":12736,"▁races":12737,"▁May.":12738,"▁\"pro":12739,"▁criteria":12740,"chang":12741,"▁upgrad":12742,"▁plain":12743,"enz":12744,"▁Il":12745,"▁Cond":12746,"▁Buff":12747,"▁happen.":12748,"▁Linc":12749,"▁tension":12750,"▁versions":12751,"▁inhab":12752,"▁eager":12753,"ane,":12754,"▁preliminary":12755,"▁robot":12756,"▁Ald":12757,"▁dynamic":12758,"▁director,":12759,"▁disg":12760,"></a>":12761,"▁gre":12762,"▁devoted":12763,"▁readers":12764,"ley.":12765,"▁disord":12766,"▁Ku":12767,"/8":12768,"▁retain":12769,"▁exposure":12770,"last":12771,"▁(200":12772,"▁anxiety":12773,"▁demonstrate":12774,"▁precisely":12775,"▁Emma":12776,"▁urging":12777,"▁pedest":12778,"▁walks":12779,"▁scenario":12780,"▁tatt":12781,"▁person.":12782,"▁Pier":12783,"▁generate":12784,"▁collaboration":12785,"▁afternoon.":12786,"▁wages":12787,"▁Raid":12788,"▁race,":12789,"▁delegation":12790,"▁62":12791,"▁therapy":12792,"▁September.":12793,"▁ank":12794,"▁heritage":12795,"-16":12796,"▁removal":12797,"▁Age":12798,"▁2,000":12799,"▁verdict":12800,"▁Airlines":12801,"▁Harv":12802,"/03":12803,"ла":12804,"nik":12805,"istle":12806,"▁Austria":12807,"▁Hop":12808,"▁Ing":12809,"▁acquisition":12810,"▁steady":12811,"▁77":12812,"▁expense":12813,"hers":12814,"▁anybody":12815,"▁ratings":12816,"▁negotiating":12817,"▁\"Every":12818,"▁unveiled":12819,"▁longest":12820,"▁longtime":12821,"▁audio":12822,"▁objectives":12823,"▁vote,":12824,"▁vary":12825,"azazazazazazazaz":12826,"▁errors":12827,"bank":12828,"▁France's":12829,"▁(00:07":12830,"▁tragedy":12831,"▁Ferg":12832,"▁Summer":12833,"▁Bath":12834,"▁Vietnam":12835,"▁Cele":12836,"kes":12837,"▁Sheriff":12838,"acy.":12839,"▁AG":12840,"▁pron":12841,"▁soil":12842,"▁Heath":12843,"▁pregnancy":12844,"▁offense":12845,"▁gal":12846,"▁virtually":12847,"▁random":12848,"▁job,":12849,"▁papers":12850,"▁cub":12851,"▁Hal":12852,"▁guns":12853,"▁automatic":12854,"lay":12855,"▁Oliver":12856,"▁dign":12857,"▁investigated":12858,"▁Posted":12859,"▁states.":12860,"▁flour":12861,"▁future,":12862,"▁control.":12863,"▁rebuild":12864,"▁tragic":12865,"▁republic":12866,"▁insurer":12867,"▁streak":12868,"▁EU.":12869,"▁picking":12870,"▁63":12871,"▁body,":12872,"▁be,":12873,"▁imprison":12874,"▁triumph":12875,"▁WA":12876,"▁poison":12877,"left":12878,"▁campus":12879,"orted":12880,"jpg":12881,"▁permit":12882,"▁enthusi":12883,"64":12884,"▁Tenness":12885,"▁level,":12886,"▁#8":12887,"▁inher":12888,"▁legitimate":12889,"-third":12890,"▁appearances":12891,"▁Emir":12892,"▁SP":12893,"▁$8":12894,"▁funeral":12895,"▁Thailand":12896,"▁Standard":12897,"▁Commonwealth":12898,"▁alter":12899,"▁you'd":12900,"▁Commons":12901,"/2008":12902,"▁Kansas":12903,"▁NH":12904,"▁Coal":12905,"▁persist":12906,"▁Esp":12907,"▁ships":12908,"▁murdered":12909,"▁71":12910,"▁frustration":12911,"▁Hunt":12912,"▁deployed":12913,"rans":12914,"▁spray":12915,"124;":12916,"▁butter":12917,"▁Warner":12918,"▁tiss":12919,"▁File":12920,"▁&#124;":12921,"▁Host":12922,"▁reign":12923,"rorism":12924,"▁Simpson":12925,"▁ranked":12926,"▁contributions":12927,"▁reflects":12928,"▁rolled":12929,"▁funded":12930,"b.":12931,"▁head.":12932,"▁Dodgers":12933,"▁travelled":12934,"▁Bah":12935,"▁professionals":12936,"▁heating":12937,"▁List":12938,"/2013":12939,"▁guaranteed":12940,"▁prest":12941,"▁from:":12942,"▁maintaining":12943,"rient":12944,"eps":12945,"▁tariff":12946,"▁(7":12947,"ised.":12948,"▁McGreg":12949,"▁Chamber":12950,"▁contrad":12951,"▁Walker":12952,"▁achievement":12953,"▁library":12954,"▁regarded":12955,"▁bell":12956,"▁Around":12957,"▁Scar":12958,"▁underlying":12959,"vet":12960,"▁Joy":12961,"▁Yah":12962,"▁Obs":12963,"▁Hot":12964,"▁monument":12965,"▁Alb":12966,"▁initiatives":12967,"▁Ta":12968,"▁Overview":12969,"ahu":12970,"▁Rachel":12971,"▁judicial":12972,"▁diver":12973,"elson":12974,"▁boast":12975,"▁CS":12976,"▁2009.":12977,"▁scrap":12978,"▁forec":12979,"▁racist":12980,"▁nervous":12981,"▁mile":12982,"E.":12983,"▁Amster":12984,"▁flexible":12985,"▁Authority":12986,"ley's":12987,"▁emotion":12988,"▁triggered":12989,"▁shame":12990,"olo":12991,"▁low-":12992,"▁discrimin":12993,"▁physically":12994,"amm":12995,"▁courage":12996,"▁damaging":12997,"▁Kushn":12998,"▁memorial":12999,"▁else.":13000,"▁father's":13001,"HO":13002,"▁syn":13003,"▁checked":13004,"rod":13005,"▁Minsk":13006,"▁Oliv":13007,"▁Rou":13008,"▁Ocean":13009,"▁barg":13010,"▁Netherlands":13011,"uer":13012,"-down":13013,"▁Pant":13014,"▁wis":13015,"eters":13016,"ologists":13017,"▁Prim":13018,"▁100%":13019,"▁explicit":13020,"▁relie":13021,"1]":13022,"▁por":13023,"▁June.":13024,"asion":13025,"-making":13026,"▁pipeline":13027,"▁artificial":13028,"▁ur":13029,"▁Cuba":13030,"▁Gi":13031,"▁poet":13032,"imbled":13033,"▁misconduct":13034,"▁Download":13035,"-man":13036,"▁injury.":13037,"▁Stuart":13038,"▁Bristol":13039,"iliation":13040,"abbing":13041,"-million":13042,"▁'m":13043,"neg":13044,"▁parad":13045,"▁infected":13046,"▁November.":13047,"▁Keith":13048,"▁\"wh":13049,"▁bizarre":13050,"oche":13051,"▁convenient":13052,"▁trigger":13053,"▁Collins":13054,"▁nominated":13055,"-sex":13056,"▁Susan":13057,"▁Pitts":13058,"blog":13059,"awa":13060,"▁prevention":13061,"▁Silver":13062,"▁pour":13063,"▁associate":13064,"afe":13065,"▁mothers":13066,"ле":13067,"gate":13068,"▁operators":13069,"▁manufacturers":13070,"rust":13071,"▁impose":13072,"▁Investment":13073,"▁tempor":13074,"▁Jews":13075,"▁psychological":13076,"▁bot":13077,"▁awa":13078,"eneral":13079,"▁wishes":13080,"mph":13081,"▁Much":13082,"▁stops":13083,"▁field.":13084,"▁suspicion":13085,"▁sail":13086,"▁76":13087,"▁Cher":13088,"▁Da":13089,"▁Allen":13090,"▁robber":13091,"▁Kos":13092,"▁Point":13093,"▁aftermath":13094,"topic":13095,"▁Merced":13096,"rand":13097,"▁Crit":13098,"▁Talk":13099,"▁\"All":13100,"▁Aleppo":13101,"▁operational":13102,"▁carpet":13103,"hill":13104,"▁sheet":13105,"▁bitter":13106,"▁hin":13107,"▁����":13108,"▁bags":13109,"▁commander":13110,"oop":13111,"▁Bra":13112,"▁rebels":13113,"idem":13114,"▁assemb":13115,"▁providers":13116,"/09":13117,"▁cler":13118,"▁tears":13119,"▁news.":13120,"▁grave":13121,"▁killer":13122,"▁project,":13123,"▁shocking":13124,"▁islands":13125,"▁securities":13126,"erves":13127,"▁caps":13128,"▁formally":13129,"▁Traff":13130,"▁2004,":13131,"\")":13132,"▁youngest":13133,"▁release.":13134,"▁Grant":13135,"▁rook":13136,"▁tasks":13137,"ailed":13138,"▁measured":13139,"elong":13140,"▁Senior":13141,"▁child,":13142,"▁legally":13143,"▁commod":13144,"▁Britain,":13145,"▁Detroit":13146,"▁Wimbled":13147,"▁stage.":13148,"otherap":13149,"ests,":13150,"▁gram":13151,"▁130":13152,"▁tradem":13153,"▁kg":13154,"▁fert":13155,"open":13156,"▁Mov":13157,"live":13158,"▁court,":13159,"▁project.":13160,"▁tower":13161,"▁FI":13162,"icts":13163,"▁Fel":13164,"▁landmark":13165,"▁Finance":13166,"▁much.":13167,"▁Dian":13168,"▁Rugby":13169,"▁2008.":13170,"henko":13171,"▁1998":13172,"▁Contact":13173,"▁Finn":13174,"▁ambition":13175,"▁classified":13176,"▁2.5":13177,"anmar":13178,"▁diseases":13179,"▁venture":13180,"▁Tob":13181,"▁delays":13182,"/2014":13183,"▁engineer":13184,"▁precipitation":13185,"ua/":13186,"arents":13187,"▁Charlott":13188,"▁interviewed":13189,"▁directors":13190,"▁ly":13191,"▁1950":13192,"▁mirror":13193,"▁pre-":13194,"▁polling":13195,"urop":13196,"▁praise":13197,"▁wed":13198,"fa":13199,"▁Engine":13200,"▁couples":13201,"ussia":13202,"▁Myanmar":13203,"▁distric":13204,"▁Cold":13205,"▁Russians":13206,"▁Lead":13207,"▁Boe":13208,"▁enterprises":13209,"▁bombs":13210,"▁Denmark":13211,"▁secondary":13212,"▁Dom":13213,"▁protocol":13214,"▁Egyptian":13215,"▁crazy":13216,"▁Hammond":13217,"▁Wolf":13218,"▁hand.":13219,"▁Gray":13220,"▁instruments":13221,"▁Ron":13222,"▁appropri":13223,"▁lifestyle":13224,"▁stead":13225,"▁affects":13226,"▁co-found":13227,"▁Mack":13228,"▁cancell":13229,"▁missiles":13230,"▁69":13231,"▁situations":13232,"▁remembered":13233,"▁arguments":13234,"▁employers":13235,"▁rolling":13236,"▁soldier":13237,"▁beds":13238,"▁Made":13239,"▁Garc":13240,"ASH":13241,"▁Massachuset":13242,"▁reconst":13243,"▁Hod":13244,"▁drone":13245,"▁solidarity":13246,"▁presentation":13247,"▁presum":13248,"▁les":13249,"▁d'":13250,"arn":13251,"▁Event":13252,"▁decades.":13253,"▁bout":13254,"▁Dy":13255,"▁launching":13256,"▁Len":13257,"▁DC":13258,"▁person,":13259,"▁them,\"":13260,"▁grandmother":13261,"........":13262,"▁Dig":13263,"▁billions":13264,"▁substance":13265,"▁cheaper":13266,"▁Ambassador":13267,"?v":13268,"▁observed":13269,"▁resigned":13270,"▁Р":13271,"▁hopefully":13272,"ophob":13273,"▁line,":13274,"▁renewable":13275,"rities":13276,"▁tables":13277,"▁Gabri":13278,"▁investor":13279,"RC":13280,"ghai":13281,"▁$20":13282,"▁Yerev":13283,",000,":13284,"es\"":13285,"zbek":13286,"▁IM":13287,"▁pleasure":13288,"▁suspension":13289,"▁chaos":13290,"▁Fut":13291,"▁demonstration":13292,"▁raises":13293,"▁brave":13294,"▁L.A.":13295,"▁pays":13296,"▁titles":13297,"▁Nig":13298,"▁are.":13299,"▁pupils":13300,"▁strengthening":13301,"▁buried":13302,"isure":13303,"▁career,":13304,"▁Marco":13305,"-century":13306,"▁twin":13307,"/2012":13308,"▁consistently":13309,"\"><":13310,"▁enlarg":13311,"encies":13312,"▁poly":13313,"▁Ð3⁄4Ñ":13314,"▁Н":13315,"ferences":13316,"▁thou":13317,"els.":13318,"▁beneath":13319,"▁regards":13320,"▁died.":13321,"gallery":13322,"▁ÐμÑ":13323,"▁threaten":13324,"▁depress":13325,"▁eggs":13326,"erving":13327,"▁swift":13328,"▁naturally":13329,"xual":13330,"▁Fab":13331,"▁dropping":13332,"kward":13333,"▁\"Wh":13334,"▁invested":13335,"rying":13336,"▁Erd":13337,"▁toxic":13338,"▁Emp":13339,"uv":13340,"▁halt":13341,"▁Benj":13342,"▁arrangements":13343,"emit":13344,"▁ward":13345,"▁adj":13346,"▁\"V":13347,"▁Beyon":13348,"▁Dark":13349,"grade":13350,"?v=":13351,"▁results.":13352,"zone":13353,"▁crossed":13354,"eff":13355,"▁load":13356,"▁witnesses":13357,"▁collapsed":13358,"▁Division":13359,"ily,":13360,"▁fet":13361,"▁impressed":13362,"▁shopp":13363,"ducts":13364,"▁universal":13365,"through":13366,"▁upload":13367,"▁judgment":13368,"▁furniture":13369,"▁Giants":13370,"ology,":13371,"▁daughters":13372,"▁triple":13373,"▁migrant":13374,"▁products,":13375,"alifornia)":13376,"▁Brun":13377,"▁groups,":13378,"▁Alliance":13379,"▁unh":13380,"▁Modern":13381,"▁alien":13382,"▁shake":13383,"/04":13384,"aceut":13385,"-by":13386,"▁Pers":13387,"▁chip":13388,"▁KASE":13389,"▁gallery":13390,"▁camps":13391,"▁child.":13392,"▁they'd":13393,"▁78":13394,"name":13395,"▁time,\"":13396,"▁Mars":13397,"▁interview.":13398,"▁outlook":13399,"aying":13400,"▁companies.":13401,"▁wet":13402,"▁ax":13403,"▁180":13404,"▁Manager":13405,"▁March.":13406,"ussian":13407,"▁squee":13408,"▁mountains":13409,"▁Terry":13410,"ante":13411,"▁particular,":13412,"ones,":13413,"/02":13414,"▁safegu":13415,"▁volunteers":13416,"▁Dublin":13417,"▁popularity":13418,"▁bonus":13419,"▁default":13420,"/or":13421,"▁inches":13422,"▁woman's":13423,"▁humidity:":13424,"asty":13425,"▁http://f":13426,"▁patrol":13427,"▁(California)":13428,"▁meals":13429,"▁Case":13430,"▁Barcelon":13431,"▁bless":13432,"▁coastal":13433,"▁duties":13434,"▁Rams":13435,"▁choices":13436,"mund":13437,"▁flexibility":13438,"▁bure":13439,"▁cous":13440,"▁inspect":13441,"▁fate":13442,"ags":13443,"▁ignore":13444,"▁states,":13445,"▁meeting.":13446,"▁Pittsburgh":13447,"▁Sturge":13448,"-19":13449,"ocks":13450,"▁gate":13451,"▁trillion":13452,"▁Re:":13453,"▁delegates":13454,"▁Unlike":13455,"eness":13456,"▁Thous":13457,"▁convert":13458,"th.":13459,"▁Offic":13460,"▁dramatically":13461,"▁terrace":13462,"weg":13463,"ably,":13464,"▁conspiracy":13465,"▁restored":13466,"▁13.":13467,"orey":13468,"-bedroom":13469,"▁coaches":13470,"▁batter":13471,"uits":13472,"▁Metropolitan":13473,"▁reloc":13474,"▁ranks":13475,"▁beloved":13476,"▁Fitz":13477,"▁choosing":13478,"▁Duc":13479,"asse":13480,"acco":13481,"▁position.":13482,"iang":13483,"▁Na":13484,"▁preserve":13485,"▁hosting":13486,"▁Death":13487,"▁cleaning":13488,"▁PA":13489,"▁£1.":13490,"▁universe":13491,"▁warnings":13492,"▁billion.":13493,"▁minim":13494,"▁vocal":13495,"▁lod":13496,"bow":13497,"▁areas,":13498,"▁thy":13499,"▁rescued":13500,"▁age,":13501,"▁Palmer":13502,"▁Being":13503,"id.":13504,"▁shelter":13505,"▁displ":13506,"▁headlines":13507,"ogg":13508,"▁cancelled":13509,"▁plug":13510,"▁'w":13511,"▁Flo":13512,"▁harsh":13513,"▁Lloyd":13514,"▁tunnel":13515,"▁elegant":13516,"▁assembly":13517,"▁licens":13518,"▁capabilities":13519,"▁innocent":13520,"▁fights":13521,"▁beaches":13522,"▁73":13523,"▁rhetoric":13524,"er:":13525,"▁treatment.":13526,"lovak":13527,"▁shore":13528,"▁Sign":13529,"▁mechanism":13530,"▁unnecessary":13531,"topic=":13532,"ics.":13533,"▁poore":13534,"news":13535,"ences.":13536,"▁Wayne":13537,"▁explained.":13538,"▁rounds":13539,"▁veterans":13540,"▁antib":13541,"aceutical":13542,"rc":13543,"▁Run":13544,"▁ages":13545,"▁evolution":13546,"▁Germany's":13547,"▁community,":13548,"/5":13549,"▁Manhattan":13550,"▁opted":13551,"▁slipped":13552,"▁jacket":13553,"▁democrac":13554,"kov":13555,"▁Mom":13556,"mak":13557,"▁theater":13558,"▁Kerry":13559,"▁Golf":13560,"▁\"These":13561,"▁robust":13562,"P.":13563,"▁cruise":13564,"▁decades,":13565,"▁ty":13566,"▁supermarket":13567,"ee.":13568,"ucks":13569,"▁consent":13570,"▁centers":13571,"▁Farm":13572,"▁Shanghai":13573,"▁divers":13574,"▁series.":13575,"mes":13576,"▁eleph":13577,"s,'":13578,"▁Richmond":13579,"▁Norway":13580,"▁websites":13581,"▁challenged":13582,"mel":13583,"▁escaped":13584,"▁success.":13585,"▁CCTV":13586,"▁was.":13587,"▁yet.":13588,"▁Everything":13589,"▁consists":13590,"▁Expl":13591,"▁deadline":13592,"▁Yemen":13593,"++++":13594,"▁env":13595,"▁Third":13596,"-17":13597,"▁senators":13598,"▁Steel":13599,"atherine":13600,"▁(201":13601,"▁Portugal":13602,"▁around.":13603,"ethe":13604,"▁over,":13605,"▁stylish":13606,"▁leag":13607,"▁Perry":13608,"▁CH":13609,"▁Campbell":13610,"▁chann":13611,"▁'There":13612,"▁nurse":13613,"oenix":13614,"▁events.":13615,"▁thing,":13616,"oft":13617,"▁Morris":13618,"▁disch":13619,"▁Uzbek":13620,"▁fu":13621,"agger":13622,"▁tips":13623,"▁Ye":13624,"▁Scotland,":13625,"▁1997":13626,"▁risen":13627,"▁development.":13628,"▁#9":13629,"▁space.":13630,"▁Pric":13631,"▁consensus":13632,"▁Johnson,":13633,"▁#10":13634,"▁SC":13635,"▁Emerg":13636,"▁mother's":13637,"▁cab":13638,"▁Bever":13639,"▁torn":13640,"mart":13641,"▁Arn":13642,"▁Oklahoma":13643,"by.":13644,"iah":13645,"▁Could":13646,"▁elabor":13647,"▁sho":13648,"▁investing":13649,"▁Slo":13650,"▁transparent":13651,"▁Cuban":13652,"▁structural":13653,"▁Presidency":13654,"▁foss":13655,"IG":13656,"▁parents,":13657,"▁Trib":13658,"▁bloc":13659,"▁witnessed":13660,"ucc":13661,"▁14.":13662,"▁industries":13663,"▁experience,":13664,"▁we'd":13665,"▁preventing":13666,"▁portion":13667,"89":13668,"▁arbit":13669,"▁announcing":13670,"anne":13671,"▁slip":13672,"▁Sab":13673,"▁fleet":13674,"▁depression":13675,"PS":13676,"▁smell":13677,"▁Ko":13678,"▁Using":13679,"▁Ult":13680,"▁Argentina":13681,"lett":13682,"manuel":13683,"▁Blake":13684,"▁testimony":13685,"ives,":13686,"thodox":13687,"▁violation":13688,"▁Univers":13689,"&amp;":13690,"▁Regional":13691,"▁Melbourn":13692,"▁explaining":13693,"▁Scientists":13694,"-05":13695,"▁releas":13696,"▁plan.":13697,"▁pocket":13698,"▁starring":13699,"mith":13700,"ues.":13701,"QL":13702,"▁contacts":13703,"▁renewed":13704,"84":13705,"▁Kr":13706,"immer":13707,"lie":13708,"▁Villa":13709,"▁100,000":13710,"▁Sanche":13711,"▁NEW":13712,"####":13713,"▁96":13714,"children":13715,"▁operated":13716,"▁Barry":13717,"▁crowds":13718,"▁Ve":13719,"▁passport":13720,"▁Proper":13721,"▁openly":13722,"roph":13723,"▁comply":13724,"▁traum":13725,"ot,":13726,"▁spotlight":13727,"▁conclus":13728,"▁submit":13729,"▁Writing":13730,"▁symptom":13731,"▁compat":13732,"▁Castle":13733,"▁birds":13734,"rome":13735,"▁Margaret":13736,"тябрь":13737,"▁Isa":13738,"▁flowers":13739,"▁suggestion":13740,"TO":13741,"▁chamber":13742,"▁spare":13743,"▁enemy":13744,"esy":13745,"▁accurate":13746,"-per":13747,"▁addressing":13748,"▁undermin":13749,"▁Regist":13750,"▁Amy":13751,"ed\"":13752,"-in-law":13753,"▁embrace":13754,"▁Sydney's":13755,"▁ballistic":13756,"▁Upd":13757,"▁Apart":13758,"74":13759,"▁Moroc":13760,"▁twenty":13761,"▁Cass":13762,"▁Chicag":13763,"▁Poll":13764,"▁catastrop":13765,"▁streaming":13766,"▁Conservatives":13767,"▁Co.":13768,"▁beef":13769,"▁FC":13770,"luding":13771,"-owned":13772,"▁refuse":13773,"▁http://tremulous.net/forum/index.php?topic=":13774,"▁feedback":13775,"icians":13776,"▁products.":13777,"▁cheek":13778,"plete":13779,"berry":13780,"▁website,":13781,"▁grav":13782,"▁chart":13783,"abe":13784,"▁applies":13785,"-high":13786,"▁October.":13787,"▁writers":13788,"▁Inc.":13789,"ier.":13790,"▁stabbed":13791,"oret":13792,"▁priz":13793,"▁improvements":13794,"▁voices":13795,"▁explanation":13796,"▁Calif":13797,"▁evening,":13798,"▁Along":13799,"▁3D":13800,"▁airst":13801,"▁cro":13802,"alyst":13803,"▁purposes":13804,"▁technological":13805,"ultane":13806,"▁hed":13807,"▁attitud":13808,"▁Revolution":13809,"▁spots":13810,"▁10th":13811,"▁semi-final":13812,"▁lists":13813,"▁possibilities":13814,"▁Raf":13815,"▁education,":13816,"▁component":13817,"▁15.":13818,"▁Iowa":13819,"▁strang":13820,"▁74":13821,"▁groups.":13822,"▁evening.":13823,"arer":13824,"▁Angeles,":13825,"▁butt":13826,"▁haz":13827,"▁denies":13828,"n.":13829,"▁afterward":13830,"▁Arthur":13831,"▁jobs.":13832,"UM":13833,"▁tremend":13834,"▁III":13835,"▁removing":13836,"▁she'd":13837,"▁architecture":13838,"oded":13839,"▁soccer":13840,"▁Lincoln":13841,"▁Restaur":13842,"▁bedrooms":13843,"x,":13844,"▁Native":13845,"UL":13846,"▁'If":13847,"▁anthe":13848,"▁disappointing":13849,"EA":13850,"▁assured":13851,"▁Gro":13852,"▁makeup":13853,"ailing":13854,"▁Area":13855,"INGTON":13856,"81":13857,"▁Beaut":13858,"▁Shel":13859,"ordination":13860,"▁Washington.":13861,"▁Haz":13862,"▁monetary":13863,"▁refusing":13864,"▁strongest":13865,"▁Furthermore":13866,"▁deeper":13867,"upplied":13868,"▁influential":13869,"▁health.":13870,"-02":13871,"▁Fergus":13872,"▁Leave":13873,"▁Bund":13874,"▁health,":13875,"▁Budd":13876,"▁Greens":13877,"▁Juan":13878,"▁plan,":13879,"We":13880,"▁Industry":13881,"▁scrutiny":13882,"ci":13883,"▁politics.":13884,"▁advocates":13885,"▁presid":13886,"▁mm":13887,"▁abst":13888,"▁Yerevan,":13889,"ful,":13890,"▁synd":13891,"▁broadcaster":13892,"▁artistic":13893,"▁Portal":13894,"▁Finally,":13895,"uccess":13896,"▁pledge":13897,"▁conflicts":13898,"▁guilt":13899,"▁coaching":13900,"XP":13901,"▁Amendment":13902,"▁Chile":13903,"ass.":13904,"▁Would":13905,"▁Officer":13906,"▁\"it":13907,"▁Moldova":13908,"(s)":13909,"▁intend":13910,"urned":13911,"opard":13912,"herent":13913,"chers":13914,"▁Lawrence":13915,"▁Express":13916,"▁Phoenix":13917,"▁awkward":13918,"▁Brend":13919,"▁talented":13920,"▁story,":13921,"-com":13922,"▁Fashion":13923,"▁crackdown":13924,"▁Guardiol":13925,"ues,":13926,"-scale":13927,"state":13928,"▁Colorado":13929,"▁intimid":13930,"▁Dim":13931,"▁expenses":13932,"▁1st":13933,"ass,":13934,"▁cope":13935,"▁Small":13936,"▁collision":13937,"▁utter":13938,"▁Chelse":13939,"▁another.":13940,"▁Mountain":13941,"▁matter.":13942,"▁impress":13943,"▁gut":13944,"▁fool":13945,"▁[1]":13946,"▁Fernand":13947,"▁backs":13948,"▁202":13949,"▁tent":13950,"▁Pere":13951,"▁painted":13952,"▁Jr":13953,"▁gotten":13954,"ateur":13955,"▁People's":13956,"▁himself,":13957,"▁config":13958,"ooking":13959,"▁Nazi":13960,"▁steep":13961,"▁it.\"":13962,"▁orche":13963,"▁T-sh":13964,"▁Liam":13965,"▁staff,":13966,"about":13967,"▁know.":13968,"▁adul":13969,"▁sauce":13970,"ami":13971,"▁mode":13972,"▁growth.":13973,"▁play,":13974,"▁victory.":13975,"ocking":13976,"isons":13977,"▁subsequently":13978,"▁Philippines":13979,"▁Lisbon":13980,"▁bully":13981,"▁foods":13982,"▁+2.":13983,"▁sights":13984,"▁Kit":13985,"▁(d":13986,"▁kilometres":13987,"▁approve":13988,"▁profound":13989,"▁sib":13990,"▁unanim":13991,"▁arrives":13992,"▁McConnell":13993,"3Ð":13994,"▁Bishop":13995,"▁leaked":13996,"▁Order":13997,"ampton":13998,"ling.":13999,"▁dressing":14000,"▁Taiwan":14001,"▁pride":14002,"▁hora":14003,"▁finals":14004,"▁Mans":14005,"▁violence.":14006,"92":14007,"▁injuries.":14008,"▁go,":14009,"K,":14010,"▁Lear":14011,"▁consultation":14012,"▁conventional":14013,"ori":14014,"▁nowhere":14015,"angel":14016,"71":14017,"-election":14018,"omp":14019,"▁traveling":14020,"▁stopping":14021,"▁Eight":14022,"▁mit":14023,"▁/gallery":14024,"▁array":14025,"▁Nicole":14026,"▁speaker":14027,"▁frustrated":14028,"'r":14029,"▁Blues":14030,"▁course.":14031,"▁routes":14032,"▁ranging":14033,"▁cheer":14034,"ire,":14035,"▁evident":14036,"▁England.":14037,"▁\"That's":14038,"quis":14039,"▁trainer":14040,"▁movements":14041,"▁periods":14042,"▁Taliban":14043,"▁donations":14044,"▁afternoon,":14045,"oli":14046,"▁refers":14047,"▁Nat":14048,"▁hearts":14049,"▁survivors":14050,"▁issue,":14051,"▁resource":14052,"▁whilst":14053,"▁attacks.":14054,"▁India,":14055,"▁acceptable":14056,"▁stup":14057,"és":14058,"▁Maur":14059,"▁catal":14060,"field,":14061,"ollar":14062,"▁toilet":14063,"▁mandate":14064,"▁flooding":14065,"▁exceptional":14066,"▁Medicaid":14067,"R.":14068,"▁treating":14069,"▁cam":14070,"▁Belf":14071,"iga":14072,"dy":14073,"issa":14074,"▁optimistic":14075,"▁Pentagon":14076,"ede":14077,"▁locals":14078,"-03":14079,"▁dead.":14080,"EF":14081,"▁Eddie":14082,"re,":14083,"uten":14084,"▁Italy,":14085,"ish,":14086,"▁conducting":14087,"▁vacation":14088,"acht":14089,"▁supplement":14090,"-ed":14091,"▁Spenc":14092,"▁comeback":14093,"ан":14094,"▁16.":14095,"▁Number":14096,"▁waited":14097,"▁Emergency":14098,"rend":14099,"▁negotiate":14100,"▁make-up":14101,"▁\"But":14102,"▁“The":14103,"▁acknowledge":14104,"▁imports":14105,"▁disorder":14106,"▁ensemble":14107,"▁participating":14108,"wing":14109,"▁computers":14110,"▁promoted":14111,"▁bullet":14112,"▁anch":14113,"▁'p":14114,"▁incident,":14115,"oner":14116,"pm.":14117,"armed":14118,"▁considers":14119,"▁isolated":14120,"▁Si":14121,"▁yes,":14122,"▁converted":14123,"aco":14124,"ello":14125,"s;":14126,"▁LOR":14127,"▁auto":14128,"▁agriculture":14129,"▁(10":14130,"oning":14131,"▁worn":14132,"▁replic":14133,"▁bureauc":14134,"ton's":14135,"▁administration.":14136,"▁Raj":14137,"▁Sha":14138,"▁Orland":14139,"▁punishment":14140,"▁bankrupt":14141,"▁rights.":14142,"▁Tories":14143,"▁Also,":14144,"erman":14145,"▁swept":14146,"▁mac":14147,"▁phrase":14148,"▁appeals":14149,"▁backlash":14150,"▁think,":14151,"▁Connect":14152,"▁sessions":14153,"▁examine":14154,"▁quarter.":14155,"▁Maj":14156,"▁cuis":14157,"/p":14158,"▁refund":14159,"▁France.":14160,"abil":14161,"▁mistakes":14162,"▁US.":14163,"▁gradually":14164,"▁capital.":14165,"▁horiz":14166,"▁integrity":14167,"▁institutional":14168,"▁Catalan":14169,"orate":14170,"▁unacceptable":14171,"▁McCain":14172,"▁25H,":14173,"▁transaction":14174,"▁\"is":14175,"▁maker":14176,"DER":14177,"acon":14178,"▁Prom":14179,"▁horario":14180,"▁Canada,":14181,"▁140":14182,"bod":14183,"▁Twitter.":14184,"▁Private":14185,"▁generations":14186,"▁es:":14187,"▁huso":14188,"▁CIA":14189,"▁schools,":14190,"▁trends":14191,"▁Gram":14192,"▁watchdog":14193,"▁\"People":14194,"aley":14195,"ida":14196,"▁Billy":14197,"▁December.":14198,"▁provoc":14199,"rahim":14200,"▁hug":14201,"iott":14202,"▁wrapped":14203,"▁Denver":14204,"▁offences":14205,"▁Code":14206,"▁entrepreneur":14207,"▁Tuesday's":14208,"-hand":14209,"▁booked":14210,"▁Word":14211,"▁technique":14212,"▁Almost":14213,"▁Minnesota":14214,"▁gown":14215,"▁Toy":14216,"▁'E":14217,"rade":14218,"Next":14219,"▁Heart":14220,"▁notion":14221,"▁Nap":14222,"▁respected":14223,"▁unfold":14224,"▁magic":14225,"-go":14226,"▁distingu":14227,"▁participated":14228,"▁dubbed":14229,"ose,":14230,"▁midnight":14231,"▁Eston":14232,"ables,":14233,"▁Jones,":14234,"owski":14235,"▁SA":14236,"▁Castro":14237,"wind":14238,"▁Reut":14239,"▁mind.":14240,"▁Search":14241,"▁Colin":14242,"▁assass":14243,"n’t":14244,"ige":14245,"▁eliminate":14246,"▁juris":14247,"▁Ivan":14248,"olor":14249,"▁left.":14250,"▁mild":14251,"▁pleasant":14252,"▁goal.":14253,"▁motorc":14254,"axy":14255,"run":14256,"▁diamond":14257,"▁prices.":14258,"▁prevented":14259,"▁examined":14260,"▁club,":14261,"▁Netany":14262,"▁proceedings":14263,"▁Lav":14264,"▁responsibilities":14265,"▁Name":14266,"▁cancer.":14267,"edy":14268,"▁Prize":14269,"▁organic":14270,"▁implementing":14271,"▁timing":14272,"▁landscap":14273,"▁Fac":14274,"+00":14275,"▁Peace":14276,"iche":14277,"▁instructions":14278,"▁Wy":14279,"L.":14280,"▁$100":14281,"▁kingdom":14282,"▁disease.":14283,"mers":14284,"▁“I":14285,"▁spo":14286,"oken":14287,"stanbul":14288,"▁Lukas":14289,"63":14290,"▁convince":14291,"▁edit":14292,"▁Bi":14293,"▁Ministers":14294,"issipp":14295,"▁investigation,":14296,"▁problems,":14297,"▁site,":14298,"brid":14299,"▁Florida,":14300,"▁Scots":14301,"▁Avenue":14302,"▁Warriors":14303,"▁accusing":14304,"▁Vo":14305,"▁music,":14306,"▁workforce":14307,"▁Looking":14308,"▁fright":14309,"▁pizz":14310,"orship":14311,"▁Jake":14312,"▁firmly":14313,"▁use.":14314,"▁rif":14315,"▁old.":14316,"▁P.":14317,"▁Year's":14318,"▁\"At":14319,"▁Mercedes":14320,"▁exists":14321,"700":14322,"▁Gat":14323,"conf":14324,"▁exclusively":14325,"▁reconc":14326,"bers":14327,"zo":14328,"▁thro":14329,"▁Gas":14330,"▁cord":14331,"▁wreck":14332,"▁fire.":14333,"athon":14334,"▁data.":14335,"ovo":14336,"▁cannab":14337,"▁Photos":14338,"▁Legal":14339,"▁tob":14340,"intend":14341,"▁Ent":14342,"lack":14343,"▁administration's":14344,"▁define":14345,"▁superior":14346,"▁manager,":14347,"▁Maryland":14348,"▁generous":14349,"▁Dyl":14350,"▁July.":14351,"▁stored":14352,"▁ther":14353,"▁(left":14354,"▁performance.":14355,"▁GM":14356,"▁Bald":14357,"▁society.":14358,"▁ingredients":14359,"▁99":14360,"▁Tue":14361,"▁cheese":14362,"▁dishes":14363,"▁militant":14364,"▁Hond":14365,"▁Environmental":14366,"LE":14367,"▁irre":14368,"▁qualify":14369,"▁22.":14370,"▁ally":14371,"▁brother,":14372,"▁Mult":14373,"▁assign":14374,"▁establishing":14375,"▁Korea.":14376,"▁Finland":14377,"ppers":14378,"▁Season":14379,"▁musician":14380,"▁Speaker":14381,"cz":14382,"▁embassy":14383,"viously":14384,"akespe":14385,"ravel":14386,"▁obes":14387,"▁ninth":14388,"▁Ess":14389,"Ar":14390,"▁specialists":14391,"amous":14392,".\"\"":14393,"▁navig":14394,"▁Dow":14395,"▁have,":14396,"▁Ark":14397,"▁Cand":14398,"▁Japan,":14399,"▁Published":14400,"▁Japan's":14401,"▁weakness":14402,"▁rhy":14403,"▁fed":14404,"▁util":14405,"▁outbreak":14406,"▁bic":14407,"▁une":14408,"▁satisfied":14409,"▁Tokyo":14410,"▁age.":14411,"▁semin":14412,"▁care,":14413,"▁declare":14414,"Source:S":14415,"▁staff.":14416,"akespeare":14417,"▁duo":14418,"▁Brent":14419,"▁tape":14420,"TC":14421,"icked":14422,"▁explosive":14423,"iginal":14424,"rations":14425,"▁Milan":14426,"istant":14427,"▁immune":14428,"▁President-elect":14429,"olt":14430,"▁Crystal":14431,"▁screening":14432,"eli":14433,"▁members,":14434,"▁Thousands":14435,"▁techniques":14436,"▁oppose":14437,"▁Seb":14438,"▁breathing":14439,"▁Ath":14440,"▁L.":14441,"▁dimin":14442,"▁done,":14443,"▁provider":14444,"▁tex":14445,"▁holes":14446,"▁inevit":14447,"wall":14448,"01.":14449,"-Ch":14450,"▁Place":14451,"\"}":14452,"▁vs":14453,"alo":14454,"▁lone":14455,"▁sorts":14456,"gyz":14457,"▁pursuit":14458,"▁Pennsylvania":14459,"▁grat":14460,"-U":14461,"▁Swift":14462,"T.":14463,"▁dancing":14464,"▁ESP":14465,"▁briefing":14466,"cot":14467,"▁long-":14468,"▁resignation":14469,"▁Sain":14470,"▁recently,":14471,"PM":14472,"anches":14473,"Ad":14474,"▁warming":14475,"▁Hus":14476,"▁\"he":14477,".ru":14478,"girl":14479,"▁treatments":14480,"▁retreat":14481,"▁interim":14482,"▁18th":14483,"▁reminded":14484,"▁Istanbul":14485,"▁consc":14486,"shot":14487,"▁Committee,":14488,"▁lengthy":14489,"▁grabbed":14490,"vo":14491,"rock":14492,"▁development,":14493,"▁condition.":14494,"▁R.":14495,"▁Portugues":14496,"▁Erdogan":14497,"73":14498,"atching":14499,"▁order.":14500,"▁horses":14501,"▁perceived":14502,"▁toy":14503,"▁(m":14504,"▁Clear":14505,"▁simultane":14506,"▁luxur":14507,"▁Motor":14508,"▁withdrawal":14509,"eor":14510,"▁burned":14511,"▁different.":14512,"▁inspiration":14513,"ASHINGTON":14514,"▁violations":14515,"▁responding":14516,"son.":14517,"▁bone":14518,"▁horm":14519,"▁°C":14520,"▁drum":14521,"▁TM":14522,"▁enough,":14523,"▁century.":14524,"▁\"He's":14525,"▁Communist":14526,"▁neighbourhood":14527,"▁dual":14528,"▁united":14529,"▁USS":14530,"▁Nord":14531,"▁show's":14532,"▁determination":14533,"-life":14534,"-30":14535,"▁Twitter,":14536,"po":14537,"▁orange":14538,"▁Drug":14539,"▁paralle":14540,"▁mystery":14541,"▁operates":14542,"▁difficulty":14543,
[...]
