#version: 0.2 - Trained by `huggingface/tokenizers`
▁ п
с т
▁ в
▁ с
е н
р а
о в
▁ н
▁ о
н о
т о
▁ и
к о
р е
р о
г о
л и
▁п о
н и
е т
▁ д
л ь
▁н а
к а
р и
н ы
л а
▁ м
т е
з а
н а
е р
т а
▁ б
ен и
д а
к и
л е
т ь
в а
▁ ч
л о
▁ у
т и
▁н е
с я
ц и
▁ ко
▁ за
р у
м и
в о
д и
ст а
в и
▁ "
ов а
е м
▁п ро
▁ ра
▁с о
▁ а
▁ В
л я
с с
▁ П
▁ э
н е
д е
▁ С
▁ -
м а
ст и
▁ к
▁о б
с ко
▁о т
▁ч то
▁д о
п о
м о
▁ го
▁ г
▁ К
▁п ри
р ы
ч а
ч е
б о
д у
▁п ре
▁в о
▁ М
е й
▁ 2
ч и
ст о
▁ Р
ов о
ж е
▁ 1
с ки
▁ Н
х о
▁в ы
▁ т
▁ ре
ени я
ны х
▁ е
но й
▁ ка
те ль
в е
п а
▁ то
л у
с е
к у
д о
но го
▁и з
с ь
г а
ш и
▁б ы
г и
ж и
ст в
м е
н у
▁ О
▁ А
щ и
▁м о
▁ ф
▁э то
сс и
а н
о б
р ов
м ен
з и
ю т
ени е
ны е
▁ (
е ре
ны й
ци и
с и
ст ь
▁ те
▁ та
м у
т у
▁ Д
▁ Т
н я
п и
▁ко то
о н
▁ И
к ов
▁2 0
▁П о
т ы
щ е
ш е
р я
ст ра
▁по д
▁б о
▁ Б
м ,
▁д е
▁м е
ет ся
с а
▁ра з
а р
б и
л ю
▁ Г
п е
н ов
▁пре д
ж а
ни я
л ов
▁Р о
л ен
" ,
о р
▁ з
▁ ста
▁м а
р ова
к е
у д
ско й
т ов
▁м и
ц е
▁д ля
е к
с у
▁и н
ка за
в ы
▁в се
ст ва
с по
ств ен
с ле
б ы
▁п ере
▁ ли
г ра
л ет
▁ я
▁с во
ско го
ны м
м ы
▁Н а
ж но
п у
▁Ро сси
п ро
▁ ро
▁ У
д ы
ст во
а к
д ен
▁ Е
▁с а
е з
щ а
▁кото ры
▁н о
▁ко н
в ер
о на
▁20 1
▁с и
ра в
▁ка к
а ль
▁ ру
ть ся
ни е
на я
▁та к
" .
▁н и
с к
но е
б а
б е
но м
▁ Л
0 0
ти в
ле й
▁во з
к ра
г у
з ы
с ка
с о
ни и
ч ен
▁ко м
▁го да
ц ен
но сти
т ся
▁ хо
▁с е
▁в е
▁п ра
у р
ф и
ст у
▁е го
л ся
ов ы
ени и
ш а
ски й
и з
д ер
ж ен
ски х
▁со об
▁ Ф
▁ 3
ре м
▁ стра
ль ко
▁ра бо
ста в
▁ сто
▁ «
▁с у
ра н
к с
ю щи
ци я
e r
▁ З
хо ди
▁о н
ст ро
▁Росси и
▁до л
▁ Э
▁б уд
п ре
м ер
ли сь
ж ет
х а
i n
ц а
▁ жи
ст ви
г да
и н
▁по сле
ко й
з у
▁д а
▁ же
ну ю
л ,
но сть
т ра
ет и
л ения
д ни
л ы
▁п ер
▁буд ет
▁М о
▁ч е
м .
ет а
я т
ни ма
. .
ро д
▁по лу
▁в и
п ри
ста ви
▁ч а
▁п а
е в
o n
ре д
й ,
р ен
▁в рем
▁ Ч
с ли
ло сь
сто я
▁бо ль
▁о д
п рав
▁ф и
▁ t
a n
▁ ш
▁о с
▁д ру
ж да
ди н
я ви
з на
▁с ов
▁в а
ро м
г ла
ен ь
п ер
ни к
ф ор
▁а в
да р
в я
▁г ла
▁ лю
з ова
▁К о
в ши
в у
к т
▁б у
ски е
ри и
e n
ств у
▁ 4
р га
▁ра сс
▁так же
ени ю
в ет
▁по ли
▁К а
▁у же
▁д и
ма н
ют ся
ру п
но ,
▁ 5
▁ 0
те р
▁это м
ла сти
ле е
б ли
▁с лу
то р
ко м
▁м ы
▁го ду
хо д
ем у
▁у ча
ст ре
▁а к
▁бы ло
▁ро сси
▁врем я
▁об ра
х ,
е ,
л ова
то м
е с
▁В о
▁о рга
▁З а
▁че лов
▁ру б
▁ Х
зи ден
ци ю
▁об ъ
ко но
ла сь
▁п ла
ны ми
▁бы л
▁и ли
▁ч ем
зы ва
б у
▁б ез
h e
▁ цен
ни ка
o r
д ова
с ы
▁п ров
▁ Я
▁и х
п ы
ко н
те ля
ти че
р ово
го ,
▁т ы
2 0
ж ду
в ро
ци он
▁то лько
те лей
г ово
г е
в ля
ени й
ст е
▁м л
▁ч и
e s
▁п ар
▁которы е
▁з на
д ет
▁ком па
ци аль
к ры
▁про из
ска я
▁на ча
) .
ть ,
a r
с ов
л ение
▁М а
▁мо жет
▁Н о
▁у с
р ь
не й
ни й
▁г ра
р т
▁г ово
▁что бы
не е
р та
ду т
▁т ре
т ри
ти я
▁росси й
го д
▁ав то
▁ A
▁м у
ц ы
а з
) ,
ж д
▁ лет
▁е ще
я б
▁С о
▁д ан
ста нов
ско м
▁ 6
▁п у
▁1 9
ен е
те ли
▁п и
т ре
▁М и
▁с ле
▁с по
▁ ле
▁ S
▁20 0
ш ен
ва ть
a t
▁бо лее
▁са мо
▁П ри
су дар
ни ков
a l
▁ T
ен т
▁о ни
▁к у
▁ х
▁ P
она ль
▁кото ро
ш ения
▁ра с
▁ —
я ,
п ла
чи та
* *
т ,
▁ Ш
i s
ь ю
▁и спо
ш ение
▁с лова
▁бы ли
по л
▁1 0
▁за яви
ка н
▁У кра
▁К ак
▁которы й
з о
ли ,
▁ 7
▁пре зиден
▁орга ни
▁ M
до м
а ли
е д
▁А ле
к ово
с ла
e d
ло ги
▁с вя
▁пра ви
▁ре ги
▁Мо ск
▁сооб ща
ени ем
х .
▁ Ц
у т
о т
▁сво и
з да
▁э ти
ти н
ло ж
▁по мо
▁Укра и
ль та
▁с каза
▁гово ри
▁Р а
т ру
i t
ки ,
ет ,
фор ма
н ова
с ку
▁Э то
▁Г о
ч но
▁ –
ми ,
ре ди
о не
▁" С
сту п
▁го судар
▁Т а
▁во про
▁д ей
▁Б о
п ра
ст ве
▁е сть
▁те р
▁с пе
▁полу чи
▁и м
Ш А
с лу
м ети
ем ы
▁сооб щи
▁е е
к лю
де ла
▁ме жду
л ли
▁от но
▁К и
▁то го,
▁об ласти
▁С а
й .
чен ь
тель но
ов ,
коно ми
▁в ер
▁в з
s t
▁С ША
ки х
ча с
мо жно
▁Н е
ч ет
▁ I
год ня
▁ 8
ю ,
то ра
▁рабо та
▁Р Ф
o u
▁по л
ни ст
б ра
20 1
х и
ло м
ей час
р д
▁челов ек
я в
- то
бо р
▁го ро
во д
де ра
▁ко ман
▁ h
с .
пе ра
▁пред стави
▁к ра
▁А н
▁об о
тру дни
ни ки
▁дру ги
ст ы
▁ко гда
зу льта
: 0
мен та
▁Але кс
▁это го
ми .
▁п е
▁со зда
▁ре зульта
щ ен
я с
▁и сто
▁бу дут
па с
ла ди
ве ст
то му
ро н
▁В а
▁е сли
▁и г
▁б ан
▁ ры
ше го
став ля
ль но
яб ря
к ла
ч ения
ль зова
▁с чита
гра м
▁б а
▁про ек
▁О б
▁ це
o m
▁о чень
.. .
▁ин форма
тель ства
▁я вля
▁де ла
▁э кс
на ко
пу бли
у ю
▁ ки
▁ ж
▁при ня
стро и
ч ение
це в
ла га
▁о ста
те ри
н ет
ств ова
ов .
ц у
▁" Р
▁ C
ш ей
▁д ень
ки е
▁мо жно
▁то м,
▁с ред
гу т
ко го
до л
▁органи за
ово й
ф е
▁те х
▁слу ча
н .
▁ ст
дер жа
▁ра й
r e
▁ 9
▁раз ви
▁В лади
▁г руп
н ,
ря д
ш о
▁со трудни
▁д ет
▁а д
▁бы ла
▁г де
▁ч ет
▁в с
▁го д
▁Н и
ка ,
на ,
▁С и
▁ w
де ль
▁н овы
б ле
▁" М
ме ри
ре с
лов и
▁бы ть
з ва
ра бо
▁С ер
: 1
ва ет
▁фи на
▁т у
▁об ще
н ер
▁1 2
не с
▁1 5
▁с уд
▁б е
ции ,
▁про ш
▁ c
▁Е вро
▁э кономи
l e
ре мен
с ков
то ры
▁н у
ем о
▁не ско
ве сти
▁ма т
▁от мети
▁си ст
се да
▁по з
сс а
т ро
▁воз можно
▁ R
▁и ме
ло жи
r u
е .
с мо
ски м
ре к
▁а р
ка х
на ли
▁по ка
де й
во й
н ь
▁ N
▁ Ю
е дера
ве д
би ра
▁в стре
ч ь
▁П у
▁С е
ши х
ан д
м ни
ны ,
рова н
▁ s
en t
к ова
▁О н
▁о на
ту а
▁п ов
▁П ро
▁дол ж
▁ру ково
▁ a
▁пере да
мен т
▁со гла
▁П а
▁по до
ни стра
ш ь
▁руб лей
▁не об
л .
и т
ци й
▁Влади ми
ющи х
i c
▁жи з
▁на с
▁м ного
▁Т ак
▁гла в
при я
▁Д а
▁ Ж
▁гра жда
ки .
▁м ар
▁и ю
лу ч
щ ей
▁с мо
▁пров е
▁t he
стра н
ен а
рова ть
с но
ри я
▁ты ся
▁Т е
стви я
б я
▁Т о
▁ L
ль ного
▁ B
т я
но му
ж ения
▁п ло
▁компа нии
т вер
▁про грам
ль ный
к ,
и ,
ко ло
ется ,
▁у да
▁чем пи
▁от кры
▁" П
на род
▁1 1
тель ство
де ли
пи са
▁д у
▁ F
▁" В
▁да же
▁с дела
▁д ву
ч у
▁уча ст
б ер
▁д ва
ь я
ри й
▁сто ро
▁у прав
▁о дин
- за
▁те ле
▁Алекс анд
ла н
с об
▁сообща ет
▁" А
▁про тив
ру к
▁И н
▁с ер
t t
▁про бле
ри то
▁си туа
й те
/ /
ни ю
▁М ы
ны .
ли ч
▁боль ше
▁пра во
▁ ю
▁по бе
ско е
ем ,
м ет
▁В и
▁необ ходи
▁Б а
in g
ющи й
▁по ч
ст ов
во ди
▁ко р
▁во ен
д ов
▁О д
▁о фи
▁ G
ции .
▁се годня
л ле
▁о п
▁н ово
ро й
▁" К
▁со б
я ть
дер ж
▁В се
▁ #
▁ф ор
▁мл рд
▁со стоя
▁Д о
▁ни х
▁мо гут
: 3
ла ,
б ур
ще го
ва ли
▁ко ми
▁с ко
ме ча
▁про дол
сс -
▁тер рито
т ен
м ени
ере з
▁ин те
▁н ет
▁В ы
пу та
▁ка ж
▁м ен
▁с ейчас
ле дова
ка .
ци ональ
ч ер
▁при зна
не го
▁ме ст
▁мл н
▁челов е
ра к
вши й
▁в ла
▁" Н
▁К у
х ра
▁все х
ра я
т .
▁пер вы
▁руб .
р ти
ж ден
▁М е
▁ми лли
сту пи
a y
▁уча сти
че ской
ка зыва
ж ение
мери кан
: 2
ки м
ст ей
a s
мо би
ше л
▁это т
▁ p
на .
▁неско лько
▁у ров
▁фина н
н ен
от вет
▁ос нов
з я
ющи е
o t
но -
да ,
и мо
▁т ри
▁до ро
н ем
▁года .
▁явля ется
- 1
ла го
▁после д
▁т ран
ли я
▁ком п
▁это й
▁са мы
▁И з
ст я
▁Б е
e l
ми нистра
ли чи
ро ме
щ ения
б ова
▁те м
▁т ра
▁ f
▁на ходи
▁вы со
▁о коло
▁про да
й ти
▁ жен
ль ной
и с
▁о че
ста н
▁2 5
▁с ем
ль ных
ни тель
ску ю
▁к то
▁по каза
▁ме сто
▁о пера
i l
ет е
ть .
▁1 8
▁ты с.
▁кото рая
tt p
▁О т
: //
ль я
▁вы бо
жд ения
▁ b
▁во с
▁и с
▁п рово
че ских
▁А р
▁1 4
▁о каза
▁ строи
лен ы
▁Е сли
» ,
▁сказа л
- лет
▁г а
г ли
▁в то
н ения
▁б ли
к .
ва ют
ру ет
▁пре сс-
ю д
i m
ти и
▁расс каза
ш ении
ту ры
▁ D
▁го тов
▁сво е
пра ви
о пас
ши н
▁из вест
▁за щи
▁э ле
ности ,
▁то р
▁Л и
▁т ру
ttp ://
▁авто моби
: 4
▁е вро
▁ W
▁" Б
▁которы х
▁до ку
▁мо ло
▁сле ду
▁все го
▁ры н
ну т
ра з
че ство
г ов
▁1 3
▁ме ся
ре й
е ва
ут бо
та ,
▁об ла
к ре
▁се бя
я за
r o
▁у станов
▁В е
▁а г
ф ер
▁Р е
▁ луч
▁произ о
i on
го тов
▁из -за
▁ч ерез
но ги
сту па
▁1 6
▁3 0
в ра
д ь
▁го род
ки й
з е
яс ни
▁Н ово
пи та
an d
▁г аз
▁" И
▁П ре
по мни
▁ф ак
ще е
▁Од нако
▁с бор
, 5
a c
▁мен я
че ского
▁201 6
▁201 4
▁у ве
▁поз во
▁пер во
то ч
в но
▁со ответ
▁горо да
▁во й
▁тыся ч
к ру
▁то м
ход я
ми на
▁до ма
▁По сле
▁заяви л
▁испо льзова
ют ,
ты ,
e t
▁у кра
в ле
с пе
▁на д
▁к ри
▁э та
▁к руп
ф он
▁сво ю
н ению
o f
. ru
▁слова м
» .
▁сов ер
▁дву х
▁про сто
т р
: 5
▁ста ть
ци ей
▁1 7
ду к
▁к ва
▁хо ро
▁э к
тов ,
▁ин тер
ло го
▁про це
▁ди рек
a m
▁в ласти
l y
у н
ность ю
мен но
▁б и
▁за коно
▁ m
▁ф а
▁" Д
▁к лу
▁и то
стро й
▁а мерикан
▁ре шение
▁по с
▁Г ла
▁за нима
не ш
▁поли ти
▁на прав
▁д ви
ра ,
▁с ы
ствен ной
o w
▁г .
л ении
бо й
жи да
ет ер
▁с ни
ан к
▁а н
о ру
▁у го
чи на
▁" Т
▁офи циаль
▁де пута
▁201 3
▁от вет
▁К он
▁без опас
▁чемпи она
ес пе
▁об ви
щ ение
с ке
▁ш ко
▁на ру
юд жет
ш ли
▁п рав
▁ H
▁за яв
▁ф утбо
▁долж ны
▁ E
▁ус лови
ния ,
э тому
ем а
жи ва
▁М ин
и .
▁де я
▁об яза
но .
ци а
▁между народ
▁ ему
▁ n
▁б из
▁в ме
пре де
о то
ь ер
▁пло ща
с ова
▁и но
▁и гра
▁Владими р
та .
▁201 5
▁" О
ши е
▁то ,
▁чи сле
▁пере д
ти е
▁ ц
▁ста л
▁( 1
u r
ч ной
▁об еспе
▁сво ей
▁ма тери
С С
ров .
лен о
г ей
w w
к ну
вши х
ле м
▁К роме
ка я
▁Росси я
ни ем
ле з
пер ь
▁раз ме
▁С ов
ф ф
слу ж
▁Д е
▁ви де
ков ,
де сь
▁ /
▁с ро
▁экс пер
▁" Г
▁ми нист
▁за клю
▁ $
лен а
a d
▁с пи
ствен ного
▁пре до
▁рабо ты
па д
▁П ер
ко е
он ов
п ло
к си
▁произ вод
т ета
▁ча ст
▁кон ку
▁ад министра
▁201 2
▁не го
▁ on
н ва
ка ми
▁ж ур
к ти
▁дру го
ци али
ы ,
▁свя зи
ра .
▁необходи мо
▁б юджет
ка б
▁дей стви
ти й
ь е
ходи т
▁испо л
ти ть
▁по ги
▁Д ми
н ди
▁Моск ве
a g
ли м
▁дол жно
▁де ло
o l
▁помо щ
▁ч у
▁на стоя
▁б лаго
▁T he
▁эле кт
ли .
ль ные
ви а
ва я
▁Сер гей
ри о
▁ка че
▁от меча
ту р
▁ ци
▁му ж
▁Росси й
▁ре ши
▁Александ р
▁2 1
▁Дми три
ра зи
▁су ще
▁Украи ны
▁укра ин
▁про дук
▁результа те
овы х
ша я
та й
▁2 2
гра ни
ри та
ва ется
ли н
▁не ко
▁руково ди
▁президен т
▁оче ред
▁дея тель
▁я нва
▁ну жно
▁ра спо
ч ных
етер бур
▁дан ным
ы х
пу сти
▁г у
▁ +
▁h ttp://
не ,
▁ре жи
▁по тре
▁жиз ни
у ,
▁ус пе
щи х
▁ of
- 2
▁которо й
▁пла ни
▁гражда н
на д
▁м ноги
▁ d
ков .
▁не ф
за ции
▁ is
па рта
▁ко лле
▁про ис
п ей
во з
▁не за
▁други х
т ки
в шего
ров ,
▁с ек
▁ in
▁го ло
▁гла ва
▁с ент
ру жи
▁у ли
ско му
▁ ,
ст рук
▁Ч то
▁ ше
▁и ск
тиче ски
вы е
сти ту
▁Ан д
▁стра ны
при мер
▁Д ля
▁ак тив
▁ли шь
ло жен
ства .
▁за кон
▁де каб
ши й
▁со стави
u s
к та
ща я
ка м
х ов
ства ,
▁на у
ке ,
▁ ла
▁Р у
▁Л а
овы е
▁t o
ди ть
ль зу
▁на зва
▁у би
▁ча сть
▁свои х
▁президен та
лось ,
▁кон тро
тов .
по зи
▁к реди
▁уго лов
ствен ных
▁слу ж
▁террито рии
▁" Л
▁продол жа
▁т рен
ло н
помни м,
с ,
▁за ко
т ет
и л
е дин
▁"Р о
ст ри
▁обра зова
▁за пре
е ха
и м
су т
▁со циаль
е ль
ра х
▁до ба
▁полу ча
▁ J
▁С та
ев ра
о м
ы ре
▁до гово
- 201
▁под держ
▁бу ду
▁свя за
▁о кт
▁пре ступ
▁2 3
▁ф едера
ц ей
▁жен щи
лим пи
▁м ене
де л
▁ ша
▁на м
▁з ем
▁которо го
ло г
▁На помним,
▁по да
▁за да
? ?
м я
▁пред по
▁ко ли
ра ви
▁спо соб
▁зна чи
▁де ся
▁дет ей
▁под готов
те м
ля р
▁сообщи л
▁Моск вы
▁в ра
▁у г
▁Ф едера
т ных
u n
▁тран спо
▁о су
▁ре али
▁дол ла
не .
▁су м
▁ку ль
▁N o
▁а пре
щ ем
▁Г а
сс ледова
рабо та
▁ф он
▁об су
ч ный
ме сти
ви си
▁фи ль
▁у ч
я .
▁2 4
▁сле д
ово го
▁с чет
ру ю
▁Ра нее
к то
д ви
i d
ер ы
▁ра м
р ту
▁к ли
во р
▁" З
▁П ред
ж у
▁на се
▁ино стран
▁ ри
ку ,
ер т
ра м
t er
че ские
га н
ния .
▁поли тиче
▁сво бо
ке .
ч ные
▁лю ди
▁ми ну
▁объ ек
▁п овы
ши м
▁со ставля
▁пре ду
стви е
▁у ни
▁в клю
▁ме ди
▁врем ени
▁пред прия
▁вы пол
б ан
. 0
▁дол жен
▁говори т
▁аг ент
▁по зи
ф а
▁и менно
▁По д
щи й
смо т
▁ф евра
▁т ур
▁пе рио
д ,
▁у твер
▁пров ед
▁ма ши
н ение
В Д
па да
ни цу
▁с ез
то й
▁ **
o st
▁Л у
c om
стра да
пример ,
▁201 1
▁об ы
▁на зыва
▁года ,
ству ет
ен о
▁до сти
▁тре бова
: 00
ка з
ч ного
▁Л е
▁случа е
д я
но логи
e w
й дет
▁чет ыре
▁" Ъ
c h
▁участи е
▁та м
▁М ар
ро по
▁поч ти
▁за вер
М И
▁Ф ран
▁хо де
▁а виа
▁пресс- служ
▁п ы
▁К ры
▁под чер
▁о преде
мы ш
ен но
▁го спо
▁спе циали
▁ча сти
овы й
чен ы
▁м ет
▁ста ло
▁с ра
е ща
ш ем
чи ть
▁к ла
▁о жида
си ли
▁рам ках
▁по яви
▁из мен
▁м не
▁з десь
▁переда ет
▁ро ди
▁д аль
ю .
▁О О
д но
▁т я
▁н ор
ю щей
не ц
ч ки
▁1 00
▁разви тия
▁чет вер
ст ер
▁С у
▁соб ствен
ды ,
мо й
▁ре й
▁О ни
до б
▁цен тра
▁м нению
сси и
▁не м
ко ла
▁жур нали
. 1
че ский
▁Ми ха
не ч
▁кон це
щ ении
ти рова
▁сов ет
▁компа ния
ь ез
ва ться
л ению
▁обра зо
▁од ной
▁од нако
▁Х а
с ло
▁безопас ности
ро б
г ля
▁по тому
▁ and
▁под твер
▁пров ер
▁неко торы
фер ен
▁ ло
▁в нима
ни ца
▁мо мент
▁са м
▁исто ч
▁на за
▁сво й
че го
ни цы
▁вопро с
e p
фф ек
ни х
▁Ч е
▁ос об
▁су б
гра фи
ен си
▁на циональ
ту ра
▁Так же
▁матери а
ене ра
▁по ку
▁иг ро
▁д ня
ше е
сс е
▁ме ста
▁ ти
▁ .
▁за ня
тель ных
▁ле г
я вля
▁пред седа
б лю
▁пре м
о ло
ти во
▁ми ра
▁г ру
▁на зна
▁С МИ
▁при чи
жа й
тель ной
▁ре с
▁у вер
▁от каза
▁к ур
▁не о
e m
▁отно шении
бер на
▁ U
▁од ного
г ,
▁Пу тин
ро прия
▁з да
ш ки
ды .
▁ста н
▁доку мен
▁та кой
да .
▁эти х
та м
▁при мер
▁5 0
ж ных
мыш лен
▁за седа
▁К ра
▁бо е
И А
▁ста ли
▁услови я
ре в
и на
▁возможно сть
o o
▁слова м,
▁по страда
н ных
▁комп ле
▁на де
▁Д ж
до й
з ер
▁реги она
▁сторо ны
▁ре б
ны м,
▁се бе
▁рес публи
▁пре кра
▁при нима
▁ни ка
лет а
чи ты
ю щего
▁о кру
▁Го с
▁пар ла
▁ ха
ку .
вши е
▁о г
▁те м,
▁ав гу
ство м
▁иск лю
▁ V
с ан
i g
% .
▁ра нее
i r
▁пред лага
г .
▁на до
▁боль шо
м ов
▁заяви л,
/ 201
ч ем
в ен
▁Г ер
▁ве дом
▁финан с
▁( 00
▁руково д
▁к ру
▁прави тельства
ва л
▁спе циаль
▁п я
▁Те ле
и гра
ты .
▁Ново сти
ски ми
▁М у
▁ ря
▁при вле
▁ус лу
▁то же
▁ K
т но
и тся
▁С ейчас
▁в ремен
ре ва
▁ка р
c t
ен ы
ста на
▁россий ских
▁о грани
▁про цен
ма три
ри н
▁э нер
з ов
▁об на
▁со кра
▁ка нди
▁2 6
▁канди да
рова ния
ж ной
▁t h
▁и сследова
▁стра н
▁Х о
▁с ре
▁ме роприя
▁сто ли
▁рублей .
▁рабо ту
▁про г
ро ри
▁свое го
▁г и
▁все гда
▁Ка за
▁Се годня
▁янва ря
н ю
д .
▁Ко м
▁2 8
▁день ги
▁кон тра
▁тре х
▁с реди
ро т
▁мат че
об ра
▁сент ября
▁первы й
ви д
▁2 7
▁управ ления
▁до пол
ла .
ш ло
ди на
▁про фе
ч ка
кон ча
н ской
▁ O
▁бо рь
▁пра ва
▁России .
пу ска
ствова ть
▁находи тся
▁то гда
р .
▁е ди
▁в не
ет ь
s .
▁пере гово
▁и де
▁пы та
▁до ста
к са
▁сер ьез
на ча
▁Пре зиден
▁окт ября
ствен ный
▁ру сс
д ра
▁** **
жд ение
▁про д
▁ин вести
o p
▁ос нова
я н
▁те перь
Т А
▁Дмитри й
е ди
ющи м
▁сбор ной
▁по ня
▁А в
рабо т
▁A M
e .
х ва
▁пред лож
до ров
▁19 9
▁од но
▁реги ональ
сс о
▁б ра
▁ [
▁вер ну
▁сред ств
му ще
▁ф ото
со м
▁т ова
ку ра
▁и дет
мо н
▁доба ви
▁со бра
▁декаб ря
ли т
ви дет
тель ные
та р
i v
▁во т
вер си
во е
/ 1
▁Б у
▁б ес
▁п ря
▁Д у
▁говори тся
▁те чение
бо ль
▁про тиво
▁ию ля
▁стра на
л ют
ес публи
▁бли жай
▁но ября
ш ений
▁гла вы
то к
ц ени
▁уве личи
те ,
▁г е
▁законо да
ности .
5 0
▁груп пы
н ные
h t
▁рай она
ча ст
▁рай оне
при нима
про ек
▁сист емы
▁на мер
▁Теле фон
▁при бы
▁подчер кну
и ть
ня я
▁за кры
▁ли ц
дни м
▁Ме жду
па ра
А О
ш ла
▁России ,
вы х
▁сто имо
лен ных
ез д
н ского
▁рассказа л
▁апре ля
▁ре гу
- П
▁э ффек
▁организа ции
▁которо е
▁ра ди
л ением
▁прово ди
ко ,
▁ию ня
во бо
щи е
▁Р еспубли
▁д ене
▁тех нологи
к ет
сси я
▁по се
мо сти
▁по нима
▁я зы
▁а э
▁ре ко
▁други е
▁ сти
та ми
▁ин ф
▁уда лось
▁ш та
▁М ВД
▁су де
▁с сы
хо да
те лем
сла в
га м
▁поги б
▁за держа
▁ду ма
ни ть
▁хо зя
тель ного
ри ю
▁В ер
сса жи
ко .
▁обо ро
▁м я
▁по па
▁ква рти
▁Е в
▁н ы
▁не до
▁по ряд
и ч
неч но,
▁(00 :0
▁с ло
▁д ве
▁лю дей
то ров
▁Ми нист
ти ,
▁201 0
ь ,
▁тур ни
▁вме сте
▁а ре
стви и
▁же ла
▁э ту
ку ю
i a
ско ль
▁не де
▁Гос ду
▁с па
ль ная
ве з
▁февра ля
ме ст
▁подо з
▁со бира
▁он .
▁м ень
ма ,
▁за мести
▁на род
дер жи
публи кова
▁# 1
▁тре ть
▁пу бли
▁С ан
▁Ни кола
▁пар т
пы т
ще ств
▁с мер
С К
▁пу н
▁та ких
▁дей ствия
▁вы ступа
▁де ле
п рово
▁по р
▁ре шения
▁с анк
▁сра зу
▁биз нес
па нии
ри л
мен а
▁о цен
▁отмети л
▁Т ур
▁вер си
в ,
та ли
% ,
▁по став
▁са й
▁подо б
, 2
▁кото ром
д ж
▁по этому
▁сем ь
ш у
фи ка
▁то т
ло ,
▁P M
ж ении
ри ть
ш ую
▁П ет
▁4 0
▁Гла в
р ения
ше д
ни н
▁Гер ма
▁прем ьер
▁человек .
▁ли дер
ени й,
▁рабо т
▁х у
▁200 9
п ере
тель ный
му ,
ф о
об ре
▁со бы
и ли
▁из да
▁го с
▁И ва
ды й
3 0
▁ответ ствен
▁по льзова
ние ,
▁обра ти
▁Б ы
х ран
▁пра з
▁оп пози
▁гу берна
▁у че
ы .
▁вс ем
▁мене е
ов е
▁тех ни
▁спо рт
об ще
▁конку р
▁тя же
▁име ет
u t
то н
▁каче стве
ж де
стоя н
б ро
че ра
▁( 2
▁новы х
▁кон ф
b er
▁коли чество
▁на шей
▁ l
▁произ води
▁тер рори
▁и ни
са ,
▁чи нов
▁году .
▁инте рес
а т
▁2 9
▁сов ремен
▁нача ла
▁на ходя
▁уг ро
▁представи тель
яб ре
▁че го
▁инте ре
▁с рав
▁раз ре
бо ро
▁челове ка
▁гово ря
▁А л
▁человек ,
▁пар тии
u m
ход ят
ed :
к тор
▁Е С
те ра
at ion
▁ка пита
▁воз ду
ча т
сколь ку
ля ет
▁му зы
▁эти м
▁ »
▁Е го
в .
▁п енси
п ли
▁со ста
▁" У
▁па ссажи
но мо
ы е
▁во ди
▁на блю
фи ци
к ро
ль ным
▁ стре
ш ет
ди и
▁ту ри
▁со став
▁ново го
- го
сто й
емы х
▁Си рии
▁сдела ть
ру ют
▁ста ла
▁М ак
р ю
u l
г ру
▁то го
▁програм мы
▁совер шен
▁ан ти
▁мо сков
▁в нут
▁спо р
▁меди ци
ну ,
ру ется
▁Ко гда
▁ни чего
▁са йте
es t
▁воз ра
▁Пу ти
▁под писа
рова ли
ф ак
▁хо тя
жа ть
▁Ве ли
▁раз лич
фор ми
▁" Е
ен та
▁Р ИА
▁евро пей
▁проек т
ж ного
то го
ова я
ры ,
▁счита ет
▁ме сте
▁пред ложи
▁отмети л,
v er
▁уби й
че й
то чно
щи т
▁информа ции
▁сво ем
▁дирек тор
▁горо де
- 0
▁помо щи
но к
▁ф ун
▁ре аль
ль ное
са .
, 3
▁а нали
▁та кие
, 6
▁мар та
▁сообщи ли
▁мат ча
▁боль шин
▁ ши
a p
ве ден
чи л
▁вы да
. com
ва ри
▁ма я
ву ю
▁200 8
теля м
▁получи л
▁расс мо
▁не по
▁ак ти
▁конф ли
▁послед ние
▁ско ро
на л
▁г енера
▁ма сс
/ 0
щ ую
▁россий ского
▁сто ит
▁пред ставля
лимпи й
▁при мен
▁из бира
▁авгу ста
▁ссы л
, 4
зи и
▁у каза
▁ка са
▁на и
▁вто рой
▁ми ре
, 7
▁ жа
▁ди а
пы та
▁про те
▁х и
▁пред став
▁по ясни
▁о ружи
▁ро д
▁ч лен
▁жиз нь
лен ные
▁пробле мы
▁лет .
ня ть
▁долж на
▁прави тельство
▁п ять
▁новы й
▁проце сс
▁по -
ми и
▁P ost
▁Алекс ей
▁при н
▁от ра
▁ны неш
▁Анд рей
▁п ово
на ми
н ский
▁рас про
▁"Ъ "
▁част ности,
▁о цени
▁воз вра
▁201 7
_ _
к ва
ем он
▁о пас
ем е
▁трен ер
▁внут рен
▁вз ры
ва ются
▁м э
▁Д и
▁3 1
▁сто л
▁Мо сков
▁расс ледова
▁нача ле
е сти
▁настоя щее
▁кото рую
▁аэ ропо
▁те а
ло й
o s
ствен ные
▁муж чи
ты й
▁новы е
▁по том
си ть
ну ть
▁Евро пы
к ви
р ко
. 201
▁I n
из вест
▁од на
, 8
т ова
ч ета
т ной
▁С ле
▁"И н
▁государ ства
▁отно шения
ди л
вед ения
це -
▁б ло
▁исто рии
▁де л
▁не й
▁увер ен
▁вы пла
▁допол нитель
▁информа цию
ма .
би ли
-лет ний
, 1
▁и ,
▁" Ф
ро с
▁со хра
▁профе сси
ру дова
▁И го
▁получи ть
Т О
▁воз бу
▁поли цей
ться ,
вы й
▁ини циа
▁Президен т
▁пред принима
▁тре бу
▁О на
e b
▁от де
ю з
▁милли онов
▁кон ц
▁вы с
▁наза д
▁хоро шо
▁и ску
▁По этому
▁ста нет
e x
▁Т у
ци па
▁тра ди
▁ста в
ду ,
▁вз я
▁по пу
▁на чина
▁у точ
▁К ар
▁проек та
ю за
▁коми тета
▁ст рук
о хра
▁на писа
че ства
▁пра к
ж ные
▁чемпиона та
о ни
▁Со гла
▁коман ды
яс ня
▁ стро
▁Ц ен
ствен но
▁по жа
▁t im
▁ми р
▁Ев г
не в
▁самы х
▁стра не
тра ф
▁вклю ча
▁по ме
▁т рав
ш ению
▁осу ществ
ни це
▁с ла
▁при обре
o c
▁ве сь
▁го р
▁биз не
▁С то
▁по скольку
л ений
▁к ни
б ов
a v
ей ,
ди ли
▁Сер ге
телей ,
▁о публикова
▁пи са
ты х
▁соответ ству
▁виде о
° C
с ем
лы х
ло ру
че ски
▁вопро сы
рова ние
сси й
м "
сть ю
▁со сто
▁воз мо
чи с
л ер
▁испо льзу
▁ха рак
▁не да
▁об у
▁ча сов
00 0
▁многи е
▁( в
ра ми
▁Бо ль
▁кри зи
▁интер нет
води т
ну .
ри ан
с "
ag e
▁со держа
▁прош лого
ль ,
▁нор ма
▁площа д
ное ,
▁лю де
ция ,
▁законо проек
▁сов мест
▁"Н а
▁ки но
▁д ней
▁вопро са
▁Л ю
▁ми ни
▁сред ства
▁в за
▁" Э
▁т р
ма р
▁Т ем
теля ми
▁Б и
спе к
▁пол ностью
▁луч ше
ве ро
сте п
▁С К
ш та
ро е
д ется
▁прог но
ч ем,
▁насе ления
▁с цен
И Д
ww w
со бо
/ 2
▁исто ри
▁на ши
▁нача ль
нии ,
▁з доров
▁са ми
ти рует
ка р
▁н ов
▁по стоян
▁объ яви
те .
▁ва с
цион ных
ч то
▁это му
▁во ору
че ская
у .
▁друго й
▁жи во
▁рас ши
▁составля ет
с ер
▁то н
▁п ят
га зи
▁получи ли
ч ении
▁вы ра
" :
во ка
▁с ка
▁на пример,
▁в неш
т ные
си л
и х
дни й
у м
▁утвер жда
ле ва
- ли
чен о
▁до ступ
в шей
до ро
▁реб ен
ни ц
▁ми рово
к се
▁ю ри
та лья
▁иностран ных
▁расс казыва
г ен
ж ный
ра и
ться .
ри на
▁ g
вести я
▁эффек тив
тель ным
▁под пи
▁за бо
a z
▁работа ть
▁чи та
▁Р аз
▁ :
ль ном
▁Ш а
спо н
по ли
▁ва м
▁па ра
ля ть
над ле
▁из мени
ть я
ве л
тер фак
▁Во з
▁по ст
ки н
▁д ово
es s
▁россий ской
▁ни ко
▁О с
ou n
ша ть
▁не у
▁клу ба
▁ито гам
▁перио д
▁обо рудова
▁сы гра
▁а ва
▁праз дни
ди ви
▁ re
▁чу в
▁а л
ре ги
▁ве дь
спон ден
мо м
▁ни м
те ги
ль щи
▁ссыл кой
▁во обще
рова л
▁б ро
мы е
e ,
▁П ере
▁за во
e c
▁у бе
▁прош лом
ы м
▁А на
су р
да ря
▁цен тре
▁М ед
▁ф ран
ре е
ников ,
ник ,
те че
▁а рен
▁встре ча
ле в
▁мо г
во го
та х
в ети
гра д
цион ной
1 0
▁M ay
▁те ку
кла д
за щит
▁милли ар
▁при надле
▁наблю да
▁иску с
▁каж дый
с мен
▁году ,
▁право охра
в ли
▁пре вы
▁к ре
▁ре з
на х
стави ть
си я
держ ан
▁6 0
т ный
▁Ки та
- й
▁служ бы
▁лю би
▁це ль
▁фа й
▁меся цев
▁ка кой
, 9
al l
▁тор гов
ле ,
▁деятель ности
▁дол го
▁внима ние
ев ,
с ро
▁г ен
▁свои м
в ета
та рь
лы й
▁уч ре
▁вы ступи
▁О ле
пер вые
▁эк спо
ба ты
▁само лет
▁транспо рт
▁Во сто
▁дви жения
▁Гла ва
▁бан ков
н ный
▁Каза х
▁"П о
га ,
▁представи тели
ей .
▁по те
ди т
▁от прави
www .
▁отно си
-П етербур
▁го ды
▁мо щ
▁помощ ью
▁по про
▁обви ня
or t
▁П и
ни ципа
со к
▁ситуа ции
сь ,
д ово
А СС
г ре
▁Р и
▁д ере
▁по лож
▁ос вобо
ва ,
в ью
▁Е ще
бо лее
▁про мышлен
▁по и
ст ров
ству ют
▁ви це-
▁ч ер
▁мень ше
т ря
▁сист ема
▁с видет
ет .
жи т
кт -Петербур
▁"Г аз
▁б ере
▁да в
тив ных
▁ X
▁встре чи
▁обла ст
па ния
▁которы м
би н
▁произо шло
▁на ших
▁при гово
▁возможно сти
▁прак тически
▁к ры
▁ста нов
▁ ряд
▁е дин
▁спе ц
▁Минист ер
▁пи сь
▁о дним
▁го лов
ется .
▁дан ные
▁по ра
▁от сут
пу ск
a .ru
▁вс ей
▁предпо лага
▁распо ложен
телей .
ни ком
ou r
▁По ли
ж ем
▁ОО Н
▁участ ников
▁ситуа ция
▁пя ти
я тся
ч ная
тре ть
ле .
ка ну
ж ды
▁Г у
▁неско ль
ди я
▁нет .
▁па м
▁Ч ер
▁вос станов
ю щая
▁в лия
ной ,
по ра
е л
ре ц
▁" Я
ци й,
▁не ме
т ят
▁ро ст
▁рей тин
ка "
▁за м
▁о конча
▁финан си
про чем,
▁се ль
го род
л ки
ве ча
▁про кура
▁хозя й
ти ю
▁( "
▁органи зова
▁пос ети
▁ни кто
▁ш о
▁за виси
▁ва риан
р ,
те рес
ти ли
i f
▁у чи
▁ли бо
▁администра ции
п ря
▁I t
▁бли з
▁Цен тра
▁от да
▁Сов ет
цион ного
▁за тем
- ми
▁при водит
ду ма
▁фи зи
▁сло жно
▁вы став
ф ере
▁ча сто
▁кра й
▁по лови
▁уров ень
▁по не
▁on :
▁су да
ести ва
▁аре ст
п ов
с ен
ность ,
▁объ ем
▁д ер
▁само м
о логи
▁по хо
л ово
мы х
те й
ни м
▁пи шет
▁провед ения
▁ста р
г ры
▁завер ши
про с
▁му ниципа
▁при ходи
▁даль ней
▁конку рен
и ла
ер ов
▁М ИД
▁уни верси
ре ,
▁не боль
на м
▁Ч а
▁кон ца
ве де
r ent
▁со пер
▁И с
щ у
ев .
ки ми
▁сле дова
▁« С
л ка
s ,
▁вы игра
ни й,
. R
те го
▁воз гла
▁ком му
т "
▁явля ются
▁а у
▁под держа
▁ви д
▁пред вари
▁ <
▁Л о
▁Согла сно
▁R ep
▁па ла
▁ули це
▁а п
▁на каза
ни л
н ему
▁о станов
▁доста точно
▁вы зва
ч ным
▁ж ерт
ск рес
▁фор ма
▁ш траф
я х
ма тиче
▁о ши
▁ве ли
нии .
▁Так ,
▁т ен
уд ен
▁перво м
▁200 7
цию ,
▁поли ции
на ла
нов ,
▁ка кие
▁перво го
▁области .
▁что ,
цу з
▁интер вью
▁предприя тия
▁коман да
▁пе ча
▁сов ета
▁Г ен
▁до м
▁у зна
з ем
▁вы ше
мы ,
l o
▁ма гази
ко ми
▁парт нер
▁росси я
▁минист р
са д
▁Кра сно
▁футбо ли
▁ва жно
▁иг ры
н ной
▁Миха ил
▁Между народ
▁Сан кт-Петербур
▁побе ди
▁7 0
ла й
▁вы ступ
▁та ким
▁Т и
▁Россий ской
▁Мед веде
▁ве ду
▁на ч
т ного
▁элект ро
▁ко нечно,
▁ху до
▁минист ер
▁попу ляр
▁лю бо
▁суде б
га .
ми р
▁ли ца
▁Республи ки
▁лет ,
ве сто
▁от дель
in d
- м
▁фун к
па р
▁дан ных
▁мат ч
сто ч
▁по станов
▁а та
▁стра теги
ве ли
▁неза кон
▁круп ней
r i
ы й
▁ка м
▁доку мента
▁по ки
▁Украи не
▁по льзу
▁ма кси
ша ет
ба й
▁обсу жда
по р
емо кра
▁де лу
▁куль туры
ова ,
▁компа ний
▁прави тель
▁w as
▁поку па
ре .
ка тери
н ется
лся ,
▁О ба
ar t
▁про йдет
▁г лу
▁с ли
ни з
▁бюджет а
о й
▁П ар
▁Б ар
▁поч ему
▁П етербур
▁за пла
ре з
г ети
▁при о
▁п си
a b
к "
▁сни зи
a k
н г
▁особ енно
▁а ль
▁голо сова
▁на ш
ре спонден
▁ Y
л га
▁груп па
ж ар
то ром
▁образо м
▁мо гли
- 3
ко б
▁у па
▁пре тен
▁поги бли
кану не
▁рын ка
▁клу б
▁Федера ции
те х
▁Те перь
▁с ети
че ским
▁теле ка
▁tim e
ство ,
б ере
▁им ени
▁Владими ра
6 ,
▁ог ром
▁со бой
ва р
че ское
▁ка та
нов .
▁в ся
▁си м
▁Ч и
ро ят
▁с ме
▁Post ed:
▁чи сло
▁уров ня
▁не е
▁с ере
▁моло де
▁госпо дин
би р
▁во л
▁т ут
▁Г е
ю щее
▁ ей
▁реко мен
▁большо й
д ения
с ной
▁бы стро
> >
ра б
6 0
▁пер вую
▁уголов ное
▁ма ло
▁поне дель
▁расс матри
▁ин ститу
▁О АО
▁в тор
Ч С
дни х
в ей
▁строи тельство
ду .
ка де
ль зя
▁И ра
не ф
▁та кого
u b
во к
▁n ow
▁ОО О
▁бо ле
▁пример но
кла ды
▁у строй
по д
▁ка тего
▁кли ен
▁образо м,
▁ ...
ро к
▁рай он
▁пер вой
▁прин ци
4 0
ви ч
▁вы ход
▁меся ца
▁о пла
тель ное
▁та кое
▁в ну
▁прове сти
▁http:// www.
ля ,
▁каж до
▁площа ди
▁н овой
▁от прав
ние .
▁жи телей
▁хо те
▁помощ ь
▁неза виси
▁Се вер
ты е
хо ды
▁некоторы е
▁ро ста
ни ли
▁за держан
▁ре мон
▁рабо чи
▁ф естива
▁действи тельно
▁Б ер
▁ито ге
> <
▁рын ке
▁с фере
х у
▁с лож
▁и муще
▁про ходи
▁до би
▁0 1
▁сро к
▁по ступи
▁пробле ма
▁ра за
▁Rep ly
▁f or
рев нова
цию .
▁е же
ту ру
л ла
▁0 9
ным .
ля .
ци ден
▁0 4
▁измен ения
▁го сти
▁многи х
м б
шен ко
о з
▁со л
▁из у
▁нико гда
пре д
▁а на
▁тыся чи
▁от веча
▁с к
то м,
▁Ма й
▁Сов ета
ent a.ru
▁S t
▁на ло
до к
▁дей ству
д ца
ва ния
▁очеред ь
c e
по мина
▁за р
▁Ре ги
▁на йти
▁сто рон
▁сотрудни ки
к ли
▁ре сур
▁од ном
тель но,
▁бан к
▁стра ны.
▁д ра
▁б ар
▁ква рта
▁спо рта
▁L enta.ru
сов ,
▁элект рон
▁ v
▁успе ш
▁про па
▁на рко
▁b e
8 0
▁в первые
▁при сут
▁поте ря
▁ко с
▁стоимо сть
▁ста ту
за ция
▁зар пла
о ны
▁суб бо
▁парла мента
вы м
коб рита
сле д
▁во скрес
▁ин весто
▁ад вока
q u
▁вы рази
▁Александ ра
▁де ву
▁уров не
▁с ъ
▁от вети
▁сек ре
цион ный
с лов
ника ми
▁воз ник
▁9 0
▁фор ми
▁пос вя
бо ра
▁Н у
▁дела ть
д жи
▁ y
ем ся
си т
o d
▁объ яв
▁сооб щении
▁о р
СК А
▁о казыва
ш ком
с шта
▁при гла
Т П
▁ни з
ш ка
ль .
▁ве че
▁Во л
▁правоохра нитель
▁ва ж
ку ро
ль ную
- А
▁ко ло
▁вза имо
▁сотрудни ков
ников .
▁фи гу
▁замести тель
▁з оло
▁с ня
▁га за
во м
ди й
▁б аз
ча й
▁о зна
ту ,
ur rent
▁не воз
▁председа тель
▁Ж и
▁М ЧС
▁соста ве
щи м
▁каса ется
▁б рита
▁ ль
▁при зва
▁Ф е
▁Мак си
▁И р
▁К ри
▁бан ка
▁пла н
ина мо
▁Е катери
но стей
чен ных
▁те х,
▁м ер
ч ное
с она
▁ра ск
1 2
t h
▁компле кс
▁на ро
тре б
к ер
лимпи а
▁о то
▁об е
во сто
▁находя тся
▁стра х
▁авто бу
▁Иго рь
▁моло ды
▁продол жи
▁смо жет
▁си лу
▁професси ональ
▁М ур
овы м
емы й
▁"З ени
▁спорт смен
▁0 8
▁ни же
▁пят ницу
▁до каза
▁на ко
▁Э кс
▁цен тр
▁к лю
▁д емон
▁ш ан
▁отмеча ет
ку т
н д
▁суд ь
ем .
▁разме ре
- К
ти ва
▁з ри
ш ением
▁обна ружи
▁га ран
▁ми нистра
яб рь
▁не извест
емы е
ст ру
▁мероприя тия
▁ка за
▁3 5
▁Т АСС
p p
▁В прочем,
▁де парта
▁со ревнова
▁ви ди
▁несколь ких
▁ра кет
▁тру д
▁х ва
▁строи тельства
▁а б
▁т ро
▁рабо те
▁ре чь
в шая
▁с пу
▁си х
де ,
▁П рави
▁вы де
▁от став
ско лько
▁П е
▁Г ре
▁Во т
ри а
по рт
лись ,
▁8 0
▁Вели кобрита
▁по лага
реги стри
▁т ю
▁ак ции
ро го
▁ци тирует
▁о хра
б ка
ст ов,
▁у луч
▁тем пера
ро ссий
▁прове ден
ч ную
ци й.
▁Со чи
А С
▁сов сем
▁с да
ш лось
▁же лез
▁Сле д
▁бес пла
a il
▁"Ин терфак
▁след стви
▁обще ствен
▁в нес
▁" Ч
лы е
Н Р
кре п
ча ть
▁м еры
емо го
▁С уд
▁агент ство
▁заяв ление
▁что -то
▁ i
▁То гда
▁акти ви
▁сегодня ш
▁обна ру
вши м
▁работа ет
▁тр ени
смот ря
▁У К
▁Ин тер
лен ный
ника м
▁пра кти
▁хо к
▁Та ким
▁На циональ
лов ,
▁г ро
▁США ,
▁состо ится
▁ зи
ход ов
▁наи более
де .
з ор
че скую
▁смо гут
лет и
▁Анд ре
?? ??
рем ьер
oo k
il l
▁использова ть
▁помо га
▁о собо
емо й
▁четыре х
▁руководи тель
▁Ц СКА
ж ей
▁Бо ри
ц ов
лся .
▁буд ем
▁предо став
▁счита ет,
тель ная
▁об еща
o v
лы ,
▁приня ть
5 ,
▁ар хи
▁нача ли
▁та й
▁люде й,
об е
▁c urrent
сов .
▁кор респонден
▁име ют
▁поряд ка
▁мл н.
ми мо
▁глав ный
▁бое ви
▁пун к
▁о ч
▁ме то
ги п
лом ет
ко логи
▁вс ю
б ло
▁по ко
▁реги оне
▁х ра
с он
ку ль
▁не смотря
ню ю
ги и
▁с пра
ссо циа
▁ста ди
ши ть
▁0 7
▁( 3
ин терес
й дут
▁области ,
▁фран цуз
▁пол номо
те лю
пре дели
тив ной
▁поз д
▁пресс-служ бе
пол не
мен ь
▁( М
▁соответ ствии
▁преду пре
▁по ру
▁сто лич
▁россий ские
▁требова ния
▁Я по
▁высо ко
▁цен ы
▁потре би
▁Из раи
▁с вет
ления ,
▁ре кла
во ри
▁С реди
г ер
нь ше
▁за пи
ма я
▁обяза н
ги ,
▁под держи
ht m
2 2
▁с кан
▁дан ный
▁current ly
▁приня то
▁Т рам
▁ар ти
en d
н ских
▁Ф ото
ме ,
▁п ес
▁теа тра
▁следу ет
▁россий ский
дер жива
фи на
▁« М
▁газ ета
▁подоз рева
▁0 2
- та
▁с кры
▁Г ру
▁благо даря
▁меся ц
▁( К
▁тран с
сти .
кру г
▁не льзя
сть ,
▁ди пло
з ь
▁кон кре
чен ко
▁бе спо
▁ши ро
▁вы ясни
▁раз работ
▁"Р у
▁колле к
з ма
▁ра ньше
▁ге ро
во лю
нов ь
▁самы м
не е,
er s
т ни
p r
▁само го
ения ,
ш ему
▁мар ш
▁а т
▁воскрес ень
з ей
вед ли
▁представи телей
об и
▁сай т
ений .
ли й
▁обеспе чи
я сь
ци она
▁извест но,
▁ви зи
▁по ложи
▁экс -
▁от ды
▁неме ц
▁ст уден
- С
▁раз ных
мы й
▁сум му
▁с дел
▁согла си
▁за би
▁вы ну
▁ва лют
ле ко
▁верси и
▁со се
▁по ста
ч ном
▁На пример,
▁Д ТП
▁ми тин
▁инф ра
▁оста ется
▁Росси ю
▁о но
▁фото графи
▁о про
цион ные
▁ку да
h ttp://
рован ных
▁"С парта
▁по тен
▁в чера
is t
. 00
ров ки
д жа
▁боле льщи
▁до бы
▁официаль ный
зыва ет
▁регу ляр
ew s
▁рублей ,
▁ми гра
▁пенси он
▁д ли
▁с мы
лись .
▁пря мо
П Р
▁ре а
ной .
ля х
щ ему
мо сков
▁пов е
▁пре жде
▁пу те
ни ,
▁та н
▁свобо д
▁долла ров
▁ки тай
л "
▁Але ксе
▁управ ля
▁( В
▁с ет
▁готов ы
мы .
▁цен а
▁же ,
▁Серге я
p e
▁сообщи л,
▁проце ду
▁согла сно
сти ,
ла ру
ти л
▁в ов
▁Н А
▁Го судар
а в
▁вз гля
▁Ва ле
тив ные
▁энер гети
▁не с
го р
▁дви га
▁( с
ность .
▁да вно
СС Р
▁А д
▁во сто
▁выбо рах
▁ка рти
▁слу чи
▁В В
ме .
▁вы ро
▁си рий
э нер
ли и
э кономи
ж о
▁м ета
▁спи сок
интерес ова
▁5 00
▁организа ция
▁у си
▁сли шком
▁полномо чи
.ru /
ствен ная
▁за явля
рова ны
▁мо мен
▁инфра струк
▁ “
▁по ле
▁дру г
жд ении
▁Л ени
ar d
▁реали зации
▁Евро пе
▁" в
оне ц
▁журнали ста
▁кор пора
▁об слу
▁ st
▁не при
стана вли
▁ко го
сто м
▁А мери
▁ре да
▁ве роят
▁ну ж
▁дости г
▁Вер хов
ствен ным
▁с про
▁руб. ,
▁Ар м
▁на гра
ку п
▁0 3
▁условия х
▁ап пара
жден о
н ного
er e
▁при дется
▁комп ью
ло .
▁при еха
▁ка рь
че стве
лен ь
▁чемпи он
е го
p h
ну л
▁все го,
▁автомоби лей
▁ки ломет
б ран
лов .
ра баты
те к
та "
▁пробле м
▁Г У
▁0 5
ло т
пу щен
личи е
ез да
то м.
9 9
цы ,
▁в новь
▁кор руп
с матри
▁прове л
▁пам ят
▁депута т
▁проис ше
▁в полне
▁По ч
ова .
▁це лом
▁го н
ва .
▁пере во
▁С ССР
ров и
▁произо шел
ферен ции
▁з рения
▁разви тие
▁ад рес
су ль
▁до б
or d
ло у
▁" не
т ром
. 2
цев ,
▁T h
▁О ль
же ,
▁ степ
▁ме ха
i k
▁ма сшта
ти ка
▁бу ма
▁о ри
▁ро ль
▁т вор
тив ного
е ра
▁вы бра
▁с нова
▁Го спо
▁объ ясни
▁раз работа
ста ти,
▁полити ки
▁фи р
r a
▁в спо
' s
▁мо гу
а й
htm l
▁ Ъ
▁же ст
х ан
-ми нист
▁производ ства
▁пресс-служ ба
ди рек
смот рен
е шь
7 0
▁о к
ры .
▁у ви
▁оборо ны
▁Никола й
▁расс читы
▁от мен
▁нару шения
▁Е сть
▁дан ным,
▁защи т
О С
ar e
▁год .
▁г ри
лу а
му .
▁( Н
▁д ети
▁марш ру
▁Евг ений
▁Д ру
Х Л
един ен
▁( С
-ли бо
▁ника ких
ти ровать
он до
▁милли она
▁Бе лару
▁де вя
нача ла
▁"Ро с
▁си л
ч ению
▁пово ду
▁на пад
ко м,
ез жа
щ ер
▁некоторы х
▁n ot
ово м
стро ен
▁экономи ки
▁не дели
▁за регистри
▁По ка
ся т
фор м
▁пла те
▁орга нов
▁на прави
ло б
п ру
▁0 6
▁зако на
се дни
▁образова ния
вши сь
сле дова
▁ме ж
ю щую
▁заседа нии
ig ht
▁Госду мы
▁во до
▁уче б
▁позво ля
▁мини му
▁вла дель
ью -
▁говори ть
б уд
▁ф ору
▁свидет ель
▁дирек тора
▁"М ы
ника ,
▁вы гля
▁д ове
▁поддерж ку
▁« Н
▁Г ор
▁макси ма
ю щем
▁И сточ
▁" по
▁посвя щен
▁ал кого
ко мо
пи ть
▁от чет
▁созда ть
ва ла
▁потре б
ч ку
▁Что бы
▁обла да
кой ,
▁к м
▁об стоя
▁ше сть
▁иг ру
▁приня ли
▁т .
▁мо би
▁за па
▁те к
▁Д он
▁ак ций
▁Ц Б
▁ц ер
му ю
▁« А
▁дома ш
▁источ ник
ри ф
▁в у
▁Н овый
▁уни что
▁обра ща
ль е
▁то му
▁стра ны,
▁уве ли
▁но чь
▁Это т
▁по го
▁стан дар
▁А ф
▁вла стей
▁по рта
ри т
ста ,
▁юри ди
▁хо чет
▁д во
▁Ко ми
о с
▁выбо ров
▁"И з
ъ ек
гру з
д ят
▁тор г
ро не
▁при шлось
▁О лимпиа
ва ние
▁сообщи ла
сс ер
спе кти
-та ки
▁срав нению
я м
▁член ов
▁приня л
ство .
- М
тив ный
к нов
лан д
at e
▁цель ю
▁сказа ть,
▁невоз можно
2 ,
▁Моск ва
▁забо лева
▁раз гово
▁США .
э н
▁ра вно
со лют
▁деся ти
▁само й
▁с вер
▁Евро пей
▁с ве
in e
i an
г на
▁так ,
▁но мер
▁К рем
ти ки
▁ин циден
▁неф ти
▁Ви ктор
- х
▁Ми но
ла х
▁м ере
▁Д онец
▁С тра
▁сез она
▁оказа лся
▁самы й
▁« П
2 5
▁ря дом
r an
▁у во
▁националь ной
▁бо й
ва лись
▁А б
▁« В
▁"Газ про
ч ением
▁сез оне
a st
ющих ся
▁му зе
▁запре щен
1 1
▁Э ти
▁R e
▁Та м
▁3 00
о л
▁пред ы
▁Ю рий
на "
▁в ет
ou t
▁с ю
▁столи це
▁за пад
▁о доб
▁но ме
▁про сь
т ви
▁воен ных
▁скан да
▁Б ан
че ском
▁у чены
▁Пред стави
▁ближай шее
▁во круг
▁арест ова
▁вой ны
▁ско рее
▁ба л
▁w h
п луа
▁плани руется
▁П рав
ч ью
▁"Д инамо
▁поясни л
▁ме д
▁ре ша
▁Бе лору
ви ли
▁воору жен
▁К ур
тель ств
▁ме да
шин г
▁бы вший
ления .
▁Ф и
▁реги стра
▁куль тур
▁си лы
чен а
▁вы во
▁назва л
▁пи та
рии ,
▁Мур ман
u p
ро де
▁ры нок
▁пред ъ
▁Оле г
к ло
▁Ш и
▁преды ду
▁на пря
ни тар
▁ком мента
▁И тали
▁о пыт
▁Л ондо
▁ст .
▁К ор
ца м
▁Ки ев
пе чат
d ay
▁случа й
р ского
▁по жар
▁ана логи
▁различ ных
▁за хва
мо сть
▁г ре
2 4
пе л
▁Х от
д ру
се кре
▁дере в
гу ли
спо соб
ль чи
▁пу ти
▁поку п
▁то чки
к тора
▁председа теля
ствен ное
▁нача л
▁" Х
▁на лог
2 1
ко р
▁за интересова
▁при ве
▁может е
▁сем ей
▁теле фон
▁дово льно
▁позво ляет
ти на
▁Ч у
Э С
▁со бе
▁пси хо
▁перегово ры
▁лю бой
▁груп пи
f or
▁подчеркну л
▁включа я
▁по тер
ту аль
▁Фран ции
▁работа ют
▁Г ри
▁од ну
▁жи тели
▁и ска
▁Д об
▁смер ти
▁Все го
▁печа ти
▁большин ство
б ри
▁С об
▁рассмо тр
▁конц ер
та н
гово й
▁ли кви
о хран
▁Кон стан
▁на й
▁хо тят
▁коми ссии
▁на шего
ни ку
▁у сили
▁ситуа цию
▁Бо лее
▁Герма нии
▁встре че
▁об нов
▁ми нут
▁преду смотрен
▁губерна тора
▁парла мент
ща ть
▁бы вшего
гли й
▁пре вра
▁по об
ко бы
дви жи
▁По ль
ме д
▁о предели
х е
it h
▁з ву
па н
▁з дра
▁фон да
▁собы тия
э й
▁Н ов
г ро
▁Евро со
▁об щей
д ение
▁росси ян
▁актив но
сто рон
▁то л
▁« К
▁НА ТО
▁время ,
стави ли
О В
нов ремен
▁интернет -
▁распро стран
▁объ ясня
ед ь
▁фон д
кой .
▁про тя
▁о де
▁де во
▁( 4
▁выну жден
тся ,
▁которо му
и муще
▁М не
▁позво лит
▁a m
▁согла шения
▁ком мер
ро м,
ло к
А З
▁ r
ско -
▁игра ть
▁Д ени
▁от ли
ствова ли
▁д емокра
▁По ро
▁позво ли
ва н
ли га
▁не движи
▁бо лез
ющи ми
-минист р
стра и
▁А ль
▁гла за
:3 0
сла м
▁сер ви
▁( на
ро ст
▁сист ему
▁привле ка
o g
▁ц вет
▁доро ги
ли ги
▁Б ез
▁выбо ры
ж ением
▁ци ф
▁РФ .
▁транспо рта
до р
. html
▁результа ты
▁обнару жен
▁ко ро
▁О дин
а ,
▁Ана то
▁свои ми
л н
▁от дела
em ber
▁я дер
▁недо ста
▁нем ного
▁с лов
дов лет
▁глав ного
▁информа ция
▁авто ма
� �
▁програм ма
де кс
1 5
ля ется
▁государ ственной
▁у щер
▁вто ром
ен са
А Н
▁до став
▁деятель ность
▁государ ство
го м
ла д
▁экс плуа
▁газ ет
▁по езд
▁первы е
ми н
ру бе
лы ша
▁Пути на
▁кра е
▁вну три
▁клю че
▁и талья
▁обслу жива
▁ e
▁со жа
▁Н овые
▁контра кт
та к
го й
▁И менно
▁з вез
та я
▁о лимпий
г ни
рова но
▁неде лю
ский ,
▁фак ту
▁за мети
▁совершен но
▁у мер
▁дума ю,
. ,
▁3 3
▁республи ки
▁у довлет
▁вопроса м
чи ли
▁им еть
▁4 5
сан т
▁ви нов
▁шко лы
- о
2 3
▁борь бе
▁мет ро
▁раз мер
ни .
▁состоя нии
= =
▁"З а
▁коми тет
▁даль ше
▁к роме
▁со м
▁собе седни
▁( 0
▁само е
ле ц
▁встре ти
лен ного
▁столи цы
▁про стран
дет ь
m ent
1 6
▁ди с
▁состави л
▁Т ре
▁Ва си
ча ет
ко м.
ходи ть
▁постоян но
▁ли дера
тель ную
▁по ло
▁ско лько
Р -
u g
1 7
с ных
l d
ри ли
▁очеред ь,
▁под раз
▁распо ря
▁ка д
▁чу ть
▁Украи на
▁19 8
сти ческой
▁th is
▁н ет,
▁та кая
ня ет
▁аб солют
▁защи ты
ере мо
▁на пада
т ран
▁действи й
в тра
▁Ир кут
▁оказа лись
▁челове ка,
▁пер спекти
▁по смо
▁понедель ник
ня т
▁участи я
▁Е гип
мы м
▁я кобы
И К
н ении
▁Н ес
▁груп п
▁прави ла
▁"Б а
пе ри
▁муж чина
= "
▁( Р
▁за ве
▁си льно
ры в
▁проис ходит
▁процен тов
▁социаль ной
ения .
▁Реги он
шо й
▁чемпиона те
4 5
▁Источ ник
лось .
▁ Й
▁С ко
х ар
ение ,
▁под роб
▁па ци
▁мо й
u st
зи н
▁контро ли
▁отно шений
спо рт
▁само лета
▁дене г
тся .
▁по со
ра й
▁хо ло
▁потре бова
те ле
▁ис пыта
▁ар ми
▁о щу
on e
▁при со
▁а каде
▁ 000
▁на помина
▁у по
-лет него
▁уголов ного
ж нему
п ле
▁ре сто
▁ради о
ер у
" )
ac k
▁неда вно
лен ной
вы ,
▁за слу
▁З десь
▁круп ных
▁мест ных
▁основ ном
▁на помни
▁сере ди
▁гос пита
▁предо ставля
▁принадле жа
▁Моск ву
ни на
▁смо гли
▁оче вид
не ра
▁сдела л
▁би лет
ль ской
▁ли цен
▁у тра
▁Г аз
▁В то
▁здра во
▁" за
▁м но
дово ль
▁п ак
an t
it y
мен тирова
▁пока зыва
▁зда ния
г е,
▁млрд .
мен ты
▁" о
▁пре имуще
▁" с
ТА СС
▁ро ли
▁По лу
га ми
r om
▁террито ри
▁вы дви
▁пло хо
мо тря
▁руковод ство
ление ,
▁По з
R L
ний .
ют .
▁международ ных
▁предложи л
▁по пыт
▁плани рует
▁В ме
га ни
▁взры в
▁на кануне
ные ,
зо м
е ве
▁не про
▁про ходит
ти ру
ными .
▁зна мени
▁Э та
▁M ar
! !
▁Кры м
▁раз де
пре зиден
or g
▁про куро
▁ма лень
▁из бе
▁спа са
▁согла сова
▁рассказыва ет
▁сез он
el l
▁соб лю
▁э кологи
4 8
ль ского
▁во ро
▁самы е
▁то пли
▁с че
ге .
▁по рт
▁о тече
▁с х
про тив
к лон
ствова л
▁все ,
▁ма стер
▁худо ж
▁Са м
▁говоря т
цев .
ри тет
▁мирово й
▁ме ч
▁то й
▁оши б
ст ов.
▁лю дя
▁C h
▁( по
▁вме сто
стави л
▁э пи
▁обра з
/2 00
3 ,
▁ребен ка
1 )
▁реши ли
▁департа мента
- е
р ги
▁филь м
▁прода жи
▁отды ха
ва лся
▁в ступи
▁побе ду
▁Па в
▁Ко нечно,
▁3 2
▁бо га
▁у ро
ре гули
ТА Р-
oun d
▁ин стру
о ну
стя х
▁больше ,
▁води тель
ну ли
▁ф оне
га х
▁кон струк
5 )
об раз
▁вс ему
ча ется
▁обеспе чения
да н
ез де
ТАР- ТАСС
__ __
▁участ ники
▁пер сона
▁Об ще
- -
▁оп ти
▁Ф а
стя ми
▁ми кро
▁« Р
▁каждо го
▁ро ждения
на у
▁П ла
фи кси
▁опера ции
.com /
ли на
▁мо р
тиче ской
▁продолжа ет
лению ,
рем я
▁возможно ,
▁раз ру
▁возду ш
▁состави ла
▁И ТАР-ТАСС
ко му
▁Хот я
▁то чно
▁г ер
▁у доб
▁под ня
▁с ложи
ни ки,
▁здраво охран
чен ные
▁мо мента
▁под ряд
.R U
▁ста би
▁об и
▁по хи
▁сов еща
▁совер ши
▁поддерж ки
▁ it
ва ку
за цию
л :
▁за рубе
az az
му ли
▁ли нии
с ".
▁ау ди
ро м.
1 3
▁Москов ской
с ного
ра т
▁ка ких
▁неф те
▁ста ра
щ ению
зер бай
▁получи ла
ров ер
ов ер
I I
▁ра ст
▁м нение
▁взаимо дей
▁род ствен
▁продук ции
▁я р
ци они
▁распро стра
▁станов ится
ю сь
▁харак тер
▁послед нее
▁про фи
▁Ф С
▁им я
▁с не
па са
▁со юз
▁сообща лось,
▁помо чь
▁руководи теля
та ции
▁созда ния
▁вече ром
▁ре ак
да ть
ты м
▁дви жение
а ла
▁еже год
▁те рак
ст ры
▁преду сматри
▁в ете
u d
▁предлож ения
▁неде ле
▁исклю чи
ре за
▁3 6
▁В едь
▁по ступа
▁вер то
▁про ком
си бир
▁согла шение
▁при ем
пре жнему
▁У же
сс ы
▁правоохранитель ных
вших ся
▁реко рд
рии .
▁с конча
2 )
су льта
▁управ ление
▁опера тив
▁С пе
▁испол нитель
▁на вер
▁ра в
▁стать и
▁мнению ,
▁A n
тель ству
ствен но,
▁И х
s e
▁обви нения
с ред
да м
з ву
т ка
ро з
▁ком на
ный ,
и гры
▁обла сть
▁го л
▁ре зер
1 8
p ort
▁По л
▁прош ло
ту .
бан ка
▁услу г
▁сист ем
ph p
н ская
▁само стоя
▁за фикси
▁програм м
9 0
▁су пру
но доро
▁втор ник
2 .
н ная
▁все -таки
▁ма льчи
р ение
▁ни ми
▁основ е
ров :
Й ор
▁авиа ком
ца ,
▁при вы
i e
▁Ос нов
▁счита ют
раз до
же ла
о ,
▁РФ ,
▁услу ги
▁приходи тся
м ей
▁С мо
д ной
▁Глав ный
▁подчеркну л,
зи рован
▁Украи ны.
за й
рово й
▁первы х
▁Пер вый
тель ность
▁у читы
▁а ссоциа
ью- Йор
▁сцен а
зи й
▁возгла вля
з вать
▁201 8
▁экономи ческого
ку р
ста и
▁сооб щения
ле га
▁Ро с
д ро
▁объ един
▁Ва шинг
▁Ра бо
1 4
▁долла ров.
▁сим во
▁2009 ,
▁я в
ту ре
a -
▁суще ству
▁филь ма
▁за каз
▁запла ни
ъ ем
ку па
А Р
▁Ку бка
но слу
▁На ва
▁Ка ли
▁при чина
▁во спо
▁си ль
▁разви тию
▁ве сти
пусти ть
мени ть
▁компании ,
▁Да ,
се ло
▁нео дно
l l
▁возбу ждено
▁пере се
▁за бы
ти сти
▁ ]
▁"Ъ ",
▁Росси ей
да х
o in
▁закон чи
▁инициа ти
▁Экс пер
ово е
▁написа л
▁Па ри
▁Из вестия
▁жи ли
▁Ч ем
вший ся
тели ,
▁М оби
▁необходимо сти
▁регу ли
▁ту ра
a .
▁вы пуска
on t
▁Нес мотря
▁се ку
▁предлага ет
ца ми
н бур
▁би р
v i
Д Д
▁созда ние
▁Мино боро
▁после дний
▁кра я
▁Ш у
▁по- прежнему
▁у мень
ста не
д ри
т ная
▁суб ъек
аль ной
▁на шли
▁по прав
▁ше сти
аль ного
▁государ ств
▁Дон ба
▁э кра
▁мо шен
▁музы ка
▁со хран
д ва
зи рова
▁то му,
▁к в.
▁То лько
ти т
▁лег ко
н с
но м,
▁Интер нет
- 5
кон струк
▁борь бы
▁ли чно
▁про жива
▁ру бе
▁ре волю
▁добави л
▁пар ти
л -
ция х
сто ит
a in
▁ц еремо
▁Новости .
▁э ваку
з м
ноги е
▁у казыва
ст ных
тиче ского
▁ста рт
7 7
▁за меча
об нов
▁З на
▁да ть
ви т
о .
▁( А
ти м
▁за тра
диви ду
▁в пере
▁Г ра
▁прове ли
▁госпо дина
▁счита ют,
▁де ше
ж ная
1 9
уд ов
▁выс каза
- 4
п ят
жа ет
▁реши л
▁прог ре
▁пооб еща
стве .
ными ,
са х
▁ф рон
▁у строи
ева ,
▁Д аль
▁вто рого
▁подтвер ди
▁предлож ение
▁по пыта
▁первы м
▁с на
ются ,
▁за вод
▁" Ш
▁уче том
▁В я
▁ли тера
▁пов ре
ем ь
▁О лимпий
▁про то
▁у ника
▁лю бы
▁Россий ская
теля ,
▁сент ябре
▁Та тья
▁П ра
а м
▁за про
▁с нима
▁th at
сс у
▁" на
▁b y
▁На де
▁З ем
▁со прово
▁w ith
▁3 4
▁декаб ре
Б К
▁меха низ
▁относи тельно
▁мо жем
▁аэропо рта
фи циаль
хо де
▁тю рь
▁сто я
▁Прав да,
▁коман ду
▁"Р е
▁стан ции
вшего ся
▁пар тия
▁извест но
▁сре ду
▁Кры ма
▁степ ени
▁президен том
ви н
▁пере воз
▁вос пита
▁зада ча
ки па
▁го раздо
. php
▁свобо ды
▁федера льного
▁б ю
▁депута тов
▁город ской
▁у станавли
▁ан глий
▁кри ти
▁сооб ще
▁состави т
▁раск ры
▁специали сты
▁не га
▁ at
ри ца
мер сант
▁производ ство
Ф А
▁универси тета
g le
▁со ц
e ar
▁кру г
мо жен
▁компле кса
▁мно же
ж ению
▁Е лена
▁Поч ему
▁бо ро
я ми
▁это ,
э та
ье ра
▁сказа л,
лась .
▁России "
▁ жда
▁да л
аль ных
▁ми ли
▁ми ров
▁вы бор
ни ей
▁ведом ства
▁ав тор
▁из ъ
▁люди ,
тель ном
▁с бо
▁до ход
▁деле га
вы ше
▁энер го
▁обеспе чить
▁кто -то
▁Моби льный
▁пов ер
▁турни ра
▁случа е,
▁" Ю
▁Д ень
▁о пы
▁д вое
▁во сь
r ou
▁во ды
▁Ф он
▁пре ми
▁Г и
тиче ских
лож ение
▁по то
▁пози ции
зи т
ника .
▁ко смо
▁объек тов
▁дер жа
▁"Е ди
о до
▁гла ве
▁э фи
▁Под роб
▁200 6
▁под вер
ра с
▁происше ствия
▁За пад
eb ook
▁региональ ного
▁у ва
▁из обра
▁бизне са
вед ение
▁провер ки
▁Украи ны,
д не
▁жа ло
▁ч рез
ди м
ре а
▁после дних
▁кур с
ского ,
▁то ч
▁д ни
▁С вет
▁сче том
сто к
▁за й
▁пла т
▁хок ке
буд ь
▁та риф
▁Ъ -
▁учре ждения
▁спе кта
▁Во роне
▁Ко ре
▁К ер
▁Ле они
▁аг ре
▁"М о
д нев
▁Тур ции
ко торы
▁« Д
▁про шед
ско р
▁ //
ст рова
сы ,
▁раз но
▁Ки еве
ю сь,
▁б ри
ac ebook
ска зыва
▁янва ре
▁Ка на
▁в ру
▁воз обнов
▁публи ка
▁ответствен ность
▁нов ую
▁Ц ент
▁ин дивиду
▁шко ль
▁спо кой
▁стол кнов
▁Ки тай
▁кос ми
▁о форм
▁Арм ении
▁сторо ны,
▁орга ны
▁ро зы
ла ми
ци оне
С .
- ни
▁началь ник
▁"Из вестия
▁до ме
▁ген дирек
▁и ми
▁про шел
▁ he
▁в печат
▁у л.
▁ответствен ности
ния х
▁по пада
▁по лез
нослу жа
▁государ ственного
▁воен нослужа
▁по ро
▁реали зова
▁"Л о
▁Бо лга
ки "
4 )
▁перво е
л дин
▁реги он
7 5
, 0
лась ,
▁на пи
ж ан
▁реги онов
▁з во
лай н
▁проком ментирова
цион ер
▁догово ри
▁"С о
▁край не
▁за работа
и ча
▁страна х
▁програм му
ми ра
▁"Динамо "
▁кла сси
A S
▁сторо ну
▁Ла в
▁ч лена
секре тарь
▁Т ю
▁Д ан
мо с
▁15 0
▁к вали
▁Па вел
▁контро ль
▁финан сов
am e
ники .
рова ла
▁ре фор
▁"М а
▁значи т,
! "
▁жи ву
▁конфли к
че скими
▁ка на
г ент
▁заяв ления
▁Оль га
▁обще го
новремен но
▁да ет
▁ближай шие
▁контра к
▁участи ем
▁год ,
▁весь ма
o b
▁принима ть
3 )
▁по сла
мен я
н ным
▁губерна тор
▁вла де
▁фак тически
▁с лово
ст ,
е ц
ский .
▁тон н
▁кра си
▁го ря
▁вы шел
▁С лу
▁вла сть
▁должно сть
че в
▁санк ции
▁вырази л
▁у креп
or e
▁ре лиги
чи к
го ло
то е
▁вы ру
лож ения
▁дру га
6 )
▁No v
▁автомоби ля
▁О р
▁1 ,5
▁четвер г
▁протя жении
▁на ша
▁" у
▁го стей
▁ту рец
та ря
▁мя ч
▁и д
▁програм ме
▁слу ша
▁агент ства
▁СК Р
▁миниму м
▁те ,
▁я по
a ,
▁инф ля
Т И
▁От мети
▁чи сла
▁ко раб
рга ни
▁ле кар
▁про смот
▁коми сси
▁Х у
▁перегово ров
▁3 8
▁ко ле
▁воскресень е
▁буду щем
▁ка чество
ка ми,
▁сожа лению,
И Б
▁М К
▁Че ля
▁жи тель
▁Б рази
- си
▁( Ф
▁Кон ститу
▁прош ли
▁Э р
▁эк стре
▁за дол
▁прио станов
▁други ми
▁зна ко
▁нача ть
▁сказа ла
▁отра сли
▁воен ной
▁ k
▁се рии
т ков
▁по явля
мо ,
▁б ед
▁хва та
▁по ря
▁стать е
▁полу чения
▁ми ра.
▁"Н е
▁значи тельно
▁с ма
жд ений
▁Медведе в
▁глав ным
ющие ся
▁хи ми
▁дву мя
▁намер ен
ц ем
▁гра ду
▁Макси м
4 ,
жи ть
▁пресс- кон
▁внутрен них
▁ф рак
ow n
▁А к
▁состоя ние
▁Дж он
▁2008 ,
r y
▁F acebook
▁I m
▁Вя че
▁вы йти
▁еди но
▁в веден
▁суще ствует
▁По мимо
ет е,
▁на стро
▁бе лору
▁ком фор
▁Г енера
еди ни
▁комп енса
▁« О
▁Х ар
я р
▁сред нем
с пи
▁автомоби ль
▁провед ение
▁официаль но
▁при шли
г ова
▁ча ще
к ри
льно му
▁экспер ты
▁государ ственных
ня ется
▁суббо ту
▁заяви ла
▁желез нодоро
▁К то
щи ков
ско ре
▁Ива н
2 6
▁у ж
▁погиб ших
▁с выше
стой чи
▁сотрудни чества
▁М ногие
м би
▁следу ющий
▁испол ни
▁Р ез
▁Ли ги
ти фика
▁В чера
▁у тром
▁об стре
▁депута ты
▁це ло
н ские
но си
▁С бер
▁масшта б
с ные
▁( И
▁организа ций
▁Ис пании
да ми
2 8
ер шен
-ни будь
▁К стати,
тер на
гу ,
ли ть
▁международ ного
ма на
us s
ная ,
▁прово дить
▁пред стоит
мерсант ъ
▁A pp
ща ется
▁неф ть
дер ни
ма й
- про
- Д
▁пов ед
тель стве
▁Ру ково
▁преступ ления
а .
▁по лет
ор дина
на че
мо р
зи ровать
▁элект ри
▁вы пуск
▁3 7
▁деся ть
▁Да же
▁Поро шенко
▁С вя
▁проек тов
▁Но ,
▁экономи ческой
▁женщи на
▁причи ной
▁са ма
▁боль шая
стя м
▁ли шения
▁от казыва
▁"В е
▁баз е
▁« Б
▁представи теля
кова ,
с лен
по да
▁за мет
▁пре пара
▁непо сред
▁Ни ки
▁Фото :
▁экспер ти
▁пред мет
▁Со трудни
жда ет
▁Мо л
те ц
es ,
▁при ро
▁пи ло
▁ра н
▁Ком пания
▁проце сса
▁ре д
an g
▁най ден
▁з лоу
▁ВВ П
iv e
ном .
▁ком мен
С ,
би тра
▁зависи мости
▁вы нес
▁Дмитри я
▁мар те
б анк
ши ми
▁д нем
ги .
▁ро з
ск ,
i o
▁использова ния
▁ста тисти
т ным
▁Вол го
▁компании .
▁нео жида
ются .
▁осу жден
ж ным
ствен ном
▁у регули
▁за втра
▁G oo
7 )
▁дипло ма
▁мигра н
▁про игра
▁а кт
▁результа т
▁спекта к
▁от рица
▁каж ется,
▁на бра
▁политиче ской
▁хоте л
н ском
▁пред стоя
▁кон сульта
▁Отмети м,
▁смо г
▁ве с
▁э кипа
▁Ка ра
▁следстви я,
▁сол да
▁задержа ли
ных ,
▁ Q
▁сем ья
▁города .
▁Вале рий
▁обще ственного
▁хо чу
▁Са мо
- В
▁о го
▁каче ства
e e
▁бе жен
▁воз ника
а на
▁при чем
▁догово рен
▁пол но
▁неодно кра
▁госпита ли
▁груп пе
▁Источник :
▁Ду ма
▁по яв
▁ре ферен
Г У
▁у дар
▁при бли
ре ли
n et
▁побе ды
▁маши ны
▁Алексе я
ти ем
би на
▁Екатери нбур
вы чай
▁дирек торов
▁в клад
3 5
а л
ди тель
1 ,
▁К ан
ку да
▁вз ять
▁лю б
it e
бо к
▁исто рия
▁Н ью-Йор
▁ресто ра
му т
/ a
ща ет
ма нитар
▁Воз можно
▁i P
в то
▁по строи
▁мо дель
▁докумен ты
▁социаль ных
an k
ствен ную
▁поли ция
▁жизни .
▁под с
▁по кры
▁вос емь
га ть
▁раз о
▁год ов
▁те пло
ма "
▁политиче ских
▁добави л,
▁коман де
ля ют
▁было .
й п
▁ча са
▁ге о
▁ are
▁s er
▁Я ро
▁Ви тали
ру ,
ор ги
ка ми.
ar y
ни ю,
▁Н ор
с ный
▁други м
щ ений
▁f rom
▁мо ря
.php ?
▁ги бе
▁при част
ти "
▁о став
.. ..
▁ря да
ви л
не сти
▁дру з
▁суще ствова
▁но ябре
ше в
сс ор
в шую
ви ть
▁ми нима
▁окт ябре
▁за ра
ль ными
▁сказа ть
▁Л ит
▁к ров
▁исследова ния
▁4 00
▁мест ного
▁ч лены
▁ново е
ен ти
▁сам ми
▁молоды х
▁тру да
чен ный
▁законопроек т
▁середи не
▁сто лько
сто по
чи ков
ль ский
▁Ав то
ста .
▁со юза
▁О ргани
▁вы яв
де кса
▁В ласти
▁ль го
▁челове ка.
▁Ин форма
лы м
т ное
▁путе ше
чи т
▁у диви
ind ow
▁ко рот
▁А зербай
▁Ро ман
▁с ена
▁Де пута
▁украин ских
ж ений
сти ть
ра зу
н си
▁обще ства
▁Ново сибир
▁ч т
це п
▁неф тя
▁с ведения
▁ди зай
9 )
▁конфли кта
ча сть
▁американ ских
-лет и
▁руковод ством
▁ката стро
ска ,
▁окру жа
жно м
да ции
▁работа л
х уд
су ди
▁луч ших
▁мест ные
▁Миноборо ны
▁пар тий
▁по жи
▁Ва лен
▁коман д
▁мо дерни
▁очеред ной
▁С П
▁Минист р
▁А .
▁"Рос неф
▁сооб щение
▁направ ления
▁законода тельства
▁без у
▁г лоб
▁воен ные
▁б рен
▁подготов ки
▁С па
▁ €
▁Ка ж
av e
▁он ,
чно -
▁ры но
▁при род
▁с начала
8 )
и Ф
▁пре дела
▁о прав
▁Со об
▁сни жение
▁ an
▁россий ским
се к
▁Э кономи
▁ма е
▁Y ou
▁ли ч
▁"К о
пи н
▁до мов
▁ва йп
цион ное
▁М ер
▁д ы
▁жи ть
▁новы м
▁p m
▁ад ре
▁п лю
▁появи лась
▁детей ,
h er
▁П обе
Д Р
▁Ива нов
та ль
чу в
▁ логи
▁нару шение
▁"Б о
▁на сто
▁на ме
сс кой
э т
▁Министер ство
▁служ ба
▁ре конструк
▁И ль
▁сист еме
▁требу ет
▁изъ я
▁Ф или
▁просмот ров:
К О
▁С ем
рова нию
ста ми
:1 0
▁рассказа ла
▁подписа л
▁воен ного
▁200 5
▁сум ма
которы е
▁семь и
▁"В о
▁про дви
▁стол кну
ко ном
▁Goo gle
▁У прав
▁мет ров
▁тру дно
▁пун кта
▁само у
▁U n
i -
▁с пас
▁е сте
▁боль ницу
t op
ги е
Т Б
▁5 5
▁международ ной
▁стоимо сти
к за
-1 0
мо го
▁ин жен
ти й,
▁много чис
▁сегодняш ний
it ter
▁ 00
▁Ш та
н ово
ева .
э ль
▁"С и
те ре
▁занима ться
▁Прави тельство
▁абсолют но
▁подраз де
▁сто ль
▁е з
▁Р ы
▁оружи я
▁о стров
▁про йти
▁За тем
п -
▁ко му
ова ть
ж ской
▁не му
2 7
ково й
/201 6
▁режи м
▁Ф ин
▁глу бо
▁$ 1
▁пров ин
▁Ин ститу
бе ра
цией ,
▁Ро стов
▁мо дели
▁про жи
▁дру гу
▁рассказа ли
.R u
4 .
▁дела ет
жно сти
▁бан ки
гово го
ка х,
▁занима ет
▁распо лага
ч .
▁ве щи
▁бы ть,
▁обы чно
▁жи ль
▁направ лении
- Б
3 3
▁сокра ти
н ное
ни цей
цен тра
▁7 5
та ть
до м.
▁но мина
▁на нес
бо м
рь е
сов ершен
▁з оне
▁Белару си
▁( 5
▁ сту
но п
rou p
▁э мо
си ла
чи ,
▁со бо
▁апре ле
▁Р БК
▁пострада вших
тель ности
▁СМИ ,
-2 00
▁прода ж
же б
▁А мерикан
▁при зы
щих ся
▁теку щего
ro s
▁стре ми
▁заседа ния
▁"А н
ко с
сси в
▁возду ха
▁це ли
▁ре бя
с нова
ри сти
рабо тки
▁призва л
▁П ремьер
i z
▁конкур са
▁Пред седа
ла м
ба ров
▁доб рово
▁Андре я
▁обстоя тельства
ма ти
ни то
че к
▁су ме
вле ка
▁основ ных
▁потер пе
▁с чета
л ке
▁Е е
ва ми
▁"А р
▁предпо ложи
о боро
▁отде ления
с ена
▁не вы
▁Ни ж
про из
▁ лу
▁Бы вший
фи н
ст .
▁тра ге
▁произо шед
▁се ми
▁Т имо
▁вице- п
▁1 .
▁T w
▁ТАСС .
- на
▁бар ре
▁и дут
is h
▁И Г
ст ные
▁Вме сте
▁P r
▁санк ций
▁февра ле
▁это м,
▁раз бира
▁ди ск
i al
▁посо ль
▁"М и
▁Министер ства
▁ва ш
▁хо ть
▁вз ят
▁дела м
▁вов се
▁( о
ков ых
▁Я ну
▁K P
▁раз ные
▁( П
▁до ля
▁контро ля
▁совмест но
: :
▁ле том
▁Под москов
п .
рова нии
▁кла сс
i p
▁произо шла
▁про йдут
s p
▁рас чет
▁Великобрита нии
хо ждения
ф она
▁ат мос
re f
▁обяза тельно
▁па три
▁здоров ья
т ную
▁Де ло
ди но
▁по тра
on g
i es
▁цен т
▁В ене
к ей
ИБ ДД
еха л
▁"К а
в шем
▁да леко
пер вы
▁« Т
▁гу манитар
▁С Н
▁реда к
▁ар мии
▁ве дет
▁вы бира
▁y ou
▁в ъ
▁ л
▁E n
▁следу ющем
▁пере ста
▁миллиар дов
сты ,
циона ли
▁основ ной
▁ин вали
en c
▁про голо
▁4 8
▁прош лой
▁вы сказыва
▁в ряд
г но
▁"Ло комо
▁мо гла
▁подчер ки
▁Мо жет
▁рабочи х
▁бо рту
вшие ся
▁но чью
от но
▁20 00
▁стра ш
▁конфли кт
▁a s
цией .
▁женщи н
▁App le
▁ка ким
▁у видет
▁бизнес мен
▁По тому
as h
▁большо е
ция м
▁се веро
▁предприя тий
▁W indow
▁которы ми
▁стра да
▁собира ется
ду ет
аль ный
9 5
▁экс пери
▁сдела ли
▁с форми
▁ра нен
ту ю
▁Вто рой
ду ш
▁пред на
▁паци ен
ан та
зы ,
▁Ла тви
▁мэ ра
▁заяви ли,
ви зи
▁об мен
- 8
▁за хо
▁вз рос
▁корреспонден т
▁к ро
га ли
▁по дели
▁прокура туры
on d
▁п ле
ова л
э ро
▁примен я
▁реб ено
▁после дова
▁евро .
▁с мен
▁откры ть
▁лидер ов
▁настоя щий
▁"Ро ссия
▁зависи т
те сь
И Н
▁какой -то
▁чрез вычай
▁d e
▁кры м
▁гра ницы
B C
▁конце п
бли о
▁на шу
▁Ма ри
б лаго
▁прош ла
▁з о
▁тор же
6 5
ul t
▁заседа ние
▁и м.
ру .
▁гру зов
▁U RL
▁А О
▁уточ ни
▁ди нами
▁секу н
▁должно сти
теля .
ст но
▁ка мер
▁сма рт
▁Б лаго
▁Пет р
▁Б ли
▁ин нова
н ки
▁пре пода
рован ные
град ской
▁Р об
го ра
пи сы
ка м,
▁На ча
▁На талья
▁до кла
▁информа ции,
t ion
тех ни
ков ы
▁мошен ни
▁М ан
4 3
▁KP .RU
▁бизнес -
▁площа дь
▁заклю чения
▁противо стоя
▁находи лся
▁ al
▁А ли
▁ид ти
пра ведли
з бе
по нен
▁сбор ная
▁опти ми
мен тов
▁террито рию
▁послед ствия
▁потен циаль
9 8
▁Во -
▁под клю
▁Свет ла
▁мо з
мен те
▁эта пе
▁верну ться
▁Констан тин
▁уча ствовать
▁называ ют
ol d
▁« З
▁игро ков
▁с ви
▁у бы
ца .
▁ти па
ча я
ция ми
ка х.
▁появи лись
▁Д э
▁ограни чи
▁авгу сте
▁приобре т
▁крупней ших
▁С те
▁Ма т
" ),
▁все ми
▁Ма рия
▁живо тных
▁связа но
▁акаде ми
▁экстре ми
до х
▁"С е
▁па мя
по м
ле жа
▁европей ских
ж ь
▁Мо жно
▁Б рю
▁назна чен
▁це ле
▁обнаружи ли
▁законода тельство
▁спра ведли
до м,
" ).
шен ных
▁за то
▁неоднокра тно
▁у м
▁Д ей
▁Все мир
▁Ф ор
▁оп ровер
▁Яну ков
▁задол жен
▁кла сса
▁время .
▁б рон
▁обрати лся
вшей ся
▁стре ль
▁су пер
▁Ми р
ра чи
▁Ве сти
▁ю го
a x
▁город ского
▁оказа лась
▁пре ж
част ли
o y
▁компью тер
▁увеличи ть
▁вы зыва
▁вы шли
стов ер
ща ться
) ;
▁созда нии
▁Ю жной
▁мета л
сто ро
▁Миха ила
▁П ес
▁Лу ка
▁на сколько
▁бу ква
▁спец служ
▁какие -то
▁пу тем
▁пресс-служ бы
▁представля ет
лу б
ба л
D A
▁кам пании
▁ущер б
▁режи ссер
▁осуществ ля
▁лю бов
▁Однако ,
з он
▁пример у,
ми ни
се ,
▁б ен
▁та кую
ар ди
: 20
▁кор пу
к ров
▁чемпиона т
▁ну жда
▁возра сте
▁в ку
▁ко али
▁догово р
му р
▁ра нения
С Е
▁При чем
▁Подроб нее
го лов
▁"Э то
▁пу ть
▁американ ского
▁Анато лий
▁Север ной
га з
▁« И
▁не ма
ша ют
ц о
ри ,
▁при вести
▁пре бы
▁особ ен
п ет
▁есть ,
▁О де
▁детей .
▁ми ра,
▁фи ли
ступ ления
▁режи ма
▁жи лья
стви ем
ек ре
▁выбо ра
▁в ан
▁прави ло,
▁отказа лся
▁опреде лен
▁пов то
▁хо да
▁люде й.
э р
▁до пусти
ги на
ен ,
ста м
6 .
▁н овая
▁Б рита
▁архи тек
▁та ком
▁p r
▁спу стя
▁верну ть
▁Ш е
▁кон ститу
▁инфраструк туры
би й
▁пассажи ров
▁ри ск
e le
▁установ ить
▁н ена
▁докумен тов
с ей
▁от дел
▁Витали й
e ct
▁това ри
▁оста лись
ен ко
3 7
▁зда ние
p l
▁кон ференции
▁J oin
▁недвижи мости
▁мо л
ac h
▁ради ка
▁обы гра
▁ру ки
по те
▁Т ри
▁рассказа л,
▁рас ходы
с ю
жа л
▁воз ле
▁за мен
s h
стве ,
▁нача ло
o k
▁сек тора
▁чита йте
▁на стаи
цы .
▁сообща ется
чи ки
▁психо логи
ска .
▁расследова ния
по рта
▁ава рии
▁ Z
▁началь ника
ва йте
u ter
тиче ские
or k
ва стопо
▁у до
▁выступ ления
▁у ста
▁После д
▁ч .
u e
ва лась
at ed
▁3 9
▁выпол ня
? "
ва ть,
ция .
▁об станов
▁ФС Б
к -
▁трен ера
▁че сть
▁поз же
▁за мо
▁вне д
▁ис че
3 8
▁Ан гли
▁"П ро
▁дан ном
▁горо да,
▁Join ed:
▁Ш ве
▁потен циа
▁раз би
то на
▁показа тель
з нец
▁раз вед
▁з ер
qu est
▁и наче
▁во д
▁Не которые
▁в из
▁У част
▁объяви л
▁различ ные
▁от личие
ь ев
▁теле фо
▁ша х
▁у ме
▁исключи тельно
▁вете ра
▁И рина
▁( О
▁помо жет
рова ться
аль ные
▁О м
▁глав ных
▁ию не
га р
з ра
▁ново м
ской ,
▁Газ ета
▁бе се
▁Москве .
ри ка
▁каж дой
▁прось бой
▁кра сно
▁получи т
защит ник
-лет няя
▁ограни чения
лей ,
зя й
▁у з
▁попа л
▁Дж о
▁вопро су
▁Лу ган
▁Татья на
▁В ен
▁торгов ли
▁отсут ствие
▁анали ти
▁руковод ства
▁f ound
2 9
▁нако нец
▁Ж е
▁полож ение
▁вой ск
ле г
▁д ета
▁го сс
▁отно шение
▁прокомментирова л
т вори
▁ста ры
▁В ар
▁призна л
▁ма й
ске ,
▁г ром
▁глав ное
▁на си
▁потому ,
▁под рост
▁выступи л
ac e
ди о
▁финанс овых
▁полицей ские
▁Tw itter
▁официаль ном
Н ДР
▁Ген на
ово сти
▁под ъ
▁исто рию
нито рин
▁депута та
г ло
▁се вер
▁о хо
▁поддерж ке
▁ча с
▁Im age
@ @
▁Д же
ва ем
▁предвари тельным
▁при зыва
▁Лени н
▁де фици
стро м
▁па ру
▁област ной
▁в ин
▁"К у
▁м ан
▁С тро
зо ра
▁по шли
▁та лан
▁И м
▁по пы
u re
ма т
▁Д ональ
▁аэропо рту
▁уч ени
▁пострада ли
на б
т но,
▁Ге орги
u al
ва рд
▁повы шение
▁прави л
▁проводи тся
чи .
▁ве ло
цион ная
збе ки
▁с еть
▁Не извест
% ),
▁пре се
▁проголо сова
▁у худ
▁ко не
▁худо же
▁инвести ций
▁На м
▁при шел
▁услови й
ма х
ч ,
▁зна ю,
ка ж
▁но ,
▁"К ом
с ор
▁ника к
▁с прави
▁груп пу
▁друго го
▁а но
ь и
▁2007 ,
р ной
тив но
▁предна зна
▁Ком мерсантъ
% )
▁реши ть
▁по стро
та ри
▁использова ние
▁4 6
н но
▁от лич
- 20
ств ,
▁ж дет
▁часть ю
▁доби ться
▁сотрудни к
▁вы год
▁сохра нить
▁украин ской
гу .
▁стра н,
▁поряд ке
▁министер ства
по й
П К
▁Об ъ
▁ос на
▁из бран
в ов
ложи ть
▁тре тий
▁музы кан
▁поря док
с уд
▁из би
▁сосе д
вы .
е ли
б ез
▁религи оз
да го
▁заяви ли
ва ет,
▁c om
че ству
s c
▁из бра
▁Ж ен
щ ением
щи к
▁катего рии
▁нару ши
▁года х
▁в ходит
вей ца
▁боль шие
▁повы шения
ПР Ф
▁прибы ли
▁Ж К
▁материа ле
б -
го ре
▁на шим
▁6 5
▁прибы ль
д ный
▁хо тели
) :
▁неда в
кова .
хо м
▁Ко ро
▁гра фи
ник .
▁ду хов
▁коли чества
▁про ходят
▁Аф гани
▁говоря т,
▁ту да
▁чи сто
щен ы
▁наказа ние
▁кандида тов
for um
▁он лайн
спо л
са "
▁миллиар да
▁И но
▁дополнитель ные
▁стра ну
▁времени .
▁став ки
▁намер ены
▁2 .
▁стату с
▁бло ки
▁област ного
те ры
▁любо м
▁4 4
▁ли ши
1 .
▁пла нет
▁противо ре
▁Г ИБДД
▁Из -за
▁специаль но
▁в ста
▁с би
- 7
▁говори л
го ро
зи ть
▁Г он
рован ный
блио те
▁вариан т
▁со зна
▁М он
▁из готов
▁украин ского
▁Экспер ты
▁увидет ь
▁о держа
▁региона х
▁h ref
▁ино гда
▁получа ть
▁Ки рил
▁" Ж
▁страх ова
▁в вести
▁Р ей
▁Д жа
▁американ ской
▁женщи ны
▁жили щ
▁ф ло
▁кризи са
▁Ч ерез
сту ю
▁ка би
▁находи лись
▁вер х
▁19 6
▁кварта ле
за ,
мет ров
ver .
ко -
▁вы рос
▁вспо мина
▁х ран
▁сообщи ли,
▁инициа тив
нее .
▁экспо рт
сов ет
▁боль шую
т вра
▁ра ун
▁хозяй ства
▁вы дели
▁за ви
ла я
▁до мо
▁К НДР
▁ жду
▁пала ты
▁прогно з
▁Дума ю,
▁Г ово
шен ы
▁вой ска
▁ию ле
▁доба вля
з ен
шен о
▁продук тов
es .
▁Мо ло
то рии
▁на груз
▁руб ля
та лия
▁времен ем
3 .
▁телека на
▁оппози ции
щи ми
▁на шем
▁Ан тон
▁200 4
еха ть
▁п етербур
▁расследова ние
ц ,
▁печати )
▁« Л
▁A r
▁бра ть
зи я
i b
▁кон ферен
да "
▁Россий ский
ень ю
▁спу т
▁сво ему
▁полу о
▁ава рий
ст ка
аль но
▁по степ
▁О соб
▁У збеки
▁Х ри
▁ого нь
▁** *
▁Гри го
▁ос ве
▁сер д
▁струк туры
▁со тни
▁те п
▁постав ки
ш ко
▁Казах стан
▁москов ского
▁мо ск
▁вы хода
▁Г руп
ске .
▁На кануне
▁мероприя тий
ни ке
▁на личи
▁ог ня
▁ули ца
▁слу жеб
▁О фициаль
▁О чень
e g
рова на
▁премьер -министр
▁подоб ные
над ца
А К
- восто
▁та бли
▁сотрудни чество
▁Са ма
▁повер х
▁по ез
▁зна чение
p er
▁Пред по
▁с фер
ду мы
ля нди
▁доку мент
▁Москве ,
▁на чи
▁теле вид
▁Ан на
лей .
▁отмети ть,
▁Бори с
▁J un
] >
▁пак ет
▁Со юза
ва лось
▁ма шин
▁финанс овой
▁Оба ма
▁вице- президен
ление .
но с
р г
ди те
▁объ еди
▁коман ди
▁занима ется
▁гру з
▁про ка
▁о со
х ин
ш ан
н ений
▁дома ,
▁эта па
▁жизни ,
▁эксплуа та
▁ &
▁сохра ни
ли л
- 6
▁Се вастопо
фика ции
▁ви ру
▁соц с
▁на сле
▁друз ья
тора я
▁н рави
▁уси лия
▁пер спек
▁ис пы
гова ри
▁откры тия
▁верто лет
▁мо ре
ст ю
▁измен ений
▁Итали и
▁деву ш
▁ку ро
са м
▁обязан ности
▁со дей
стан ции
▁те бя
о пера
▁Г ар
▁собы тий
ди ,
▁19 7
▁по един
сти н
▁П ан
то ров,
▁Ви кто
▁ау к
▁боль ницы
▁генера льный
ви га
▁не из
ко ма
▁пре одо
▁О ста
ла "
ги я
▁раз ве
▁од новременно
▁Трам п
хо зяй
▁республи кан
▁предо твра
▁"Р ИА
m an
кла сс
▁власти ,
▁назва ние
▁да лее
▁до стой
▁ла гер
▁ le
д ю
▁место ро
▁со держи
▁проис ходи
▁ар битра
▁Window s
▁обще ственных
▁Т ру
▁приня тия
▁раз ы
▁результа там
▁воспо льзова
с ля
▁по й
▁п лен
▁защи те
го да
▁до сто
▁эпи зо
▁К ПРФ
▁наза д,
▁Ба й
▁при ят
▁стра не.
ци пли
▁газет ы
▁замести теля
▁иг ре
▁универси тет
т рен
▁лиц ,
▁запре т
в шему
ра "
спо ко
▁ди ску
▁у ступи
ка ли
▁пози цию
▁Про ек
▁на ше
▁Из вест
▁д вор
▁200 6,
▁ре шений
▁электро энер
▁полицей ских
се .
▁неу да
п ове
▁боль шим
▁подтвер жда
▁региональ ных
▁о пол
не й,
О Н
▁T im
▁материа лы
б .
▁раз у
пол номо
▁Т ор
▁мо ей
▁мене е,
▁избе жать
▁Р К
▁пресс- секретарь
ва ти
▁Укра ин
▁из дели
▁ак тер
▁нач нется
E R
с ",
▁удовлет во
▁Та тар
▁рабо то
▁лю дь
▁ИТАР-ТАСС .
▁ста нут
▁Э сто
as s
▁соста ва
▁p ro
▁пред ложен
▁Ка м
▁с часть
▁по га
+ +
4 4
▁адвока т
▁A ir
▁ин форми
▁права м
▁коло нии
▁ули цы
▁го това
ть "
▁Во ло
▁"И слам
▁комму ника
▁пер вая
▁и сла
% ).
ф ы
имо сть
▁кон цу
▁успеш но
y /
▁встре чу
▁газ о
▁ассоциа ции
бы ,
▁re quest
▁воз му
▁ком пози
▁ку пи
▁тради цион
▁принадле жит
обра зова
▁2 ,5
▁те ло
▁h ave
лено ,
▁М ен
▁пар ков
▁необходи мые
▁ф ла
▁зем е
▁тен ден
▁появи тся
▁цер кви
▁4 3
▁прио ритет
ч ке
▁О Б
▁ак туаль
▁Ра с
-1 5
▁здравоохран ения
▁дет ь
ж ную
▁вме ша
▁нарко ти
п ен
▁( 8
▁девя ть
▁Евг ения
T A
▁это го,
са ми
▁во шли
:4 0
н та
▁темпера тура
▁у стойчи
▁( Г
▁интере сы
▁К ХЛ
▁мо ра
▁суб си
▁Та кое
▁беспо ряд
▁Возможно ,
▁появи лся
▁дол г
▁4 7
▁три бу
▁N ew
ic k
▁ве чер
ни верси
▁ко пи
▁ти ту
▁пер ено
i le
▁ре е
▁пре следова
жа ли
▁каж ды
▁у ди
▁би о
▁т рое
ры ва
▁пе ше
▁по ля
▁ко ордина
▁ша й
▁до сро
▁множе ство
▁со ли
▁ст ен
▁"О б
сты х
▁Б уд
▁технологи и
▁пассажи р
ле кт
▁ра до
▁хода тай
▁ква дра
▁подготов ке
▁по зна
▁работ ников
▁государ ства.
▁предъ яв
д "
▁"Д о
▁Трам па
р ных
▁молоде жи
▁эта п
▁при мет
▁подоб ных
▁пер вен
▁ба зы
ш вили
ю н
хо з
▁ку пить
н ением
▁на ми
▁объ ема
▁сторо на
▁белору сс
ou s
▁матче й
▁"Интерфак с".
чи ка
▁з е
▁продолжа ют
ки на
▁S un
▁Со ответ
- би
ь .
▁сро ки
▁ника кого
▁уверен ,
▁Вяче слав
н ную
▁моло до
стви й
▁се г
▁поня ть,
тив ным
▁право защит
▁свидет е
емон стри
▁за строй
▁воз дей
▁измени ть
▁4 2
▁Ро ди
▁состо ит
▁проек ты
▁СН Г
ба ,
г руп
▁по н
▁после ду
▁рез ко
▁Ав стра
▁н ер
▁заво да
ви ча
нию .
ров ка
▁Фин лянди
▁До л
▁Дж ей
▁жерт в
▁мене дж
жи л
▁автомоби ли
▁глав ной
▁ser ver.
▁лег ен
▁аль терна
▁окру га
▁сбор ную
нача льно
н ном
▁хо ч
▁Со единен
об ла
▁самостоя тельно
▁г ран
▁бю ро
▁назна чения
▁пыта ются
ч о
▁памя ти
а ка
▁об ру
▁ито ги
▁мо на
▁"Л и
▁наза д.
▁( 6
▁было ,
▁пов тор
▁с ки
ме ра
▁установ лен
ема я
▁долго сро
▁бо я
▁из о
сть .
▁воз ро
▁10 ,
▁те ря
▁футбо лу
▁в зы
бур г
кон тро
▁G roup
ту ри
▁ви дов
▁случа ях
▁как -то
▁о тец
▁праз д
ц ар
ч ений
▁про ф
▁в роде
▁потре бу
▁Евросо юза
ше к
▁Пере д
▁Ре чь
o .
про дук
ц кий
на ру
ц ер
▁мо ниторин
▁Ра й
▁пре з
▁4 9
▁Ж у
спо рта
▁ка кое
▁на ционали
н ка
рован ной
▁по сту
▁Дени с
г ри
▁Б анк
ря з
▁"У ра
▁п ля
в шее
ово ль
▁гражда н,
▁отмеча ют
▁ •
▁боль нице
▁обяза тельства
▁"Б ар
▁проте ста
лен но
Б У
▁Япо нии
▁Ки ров
▁под нима
▁полити ка
:1 5
▁регистра ции
▁request ed
▁да ли
/a >
че скому
▁( у
▁город ов
▁россий ском
▁и мен
▁конкур с
ро ни
▁россий ская
▁насто лько
▁демон стри
но по
▁« Г
▁голосова ния
б ек
▁учены е
▁ве ка
▁вопро сов
▁нача лась
▁п ласти
▁Пра во
▁та можен
не сли
▁пол ной
▁про чи
▁расс чита
ко л
▁Кры му
▁хо лдин
▁Н ет
▁ва го
s k
первы х,
▁п ти
▁Представи тели
▁провед ении
же .
▁по мимо
▁клиен тов
▁об лига
дру г
▁Со лн
▁Re uter
ст ки
▁С ред
▁трен е
▁авиаком пании
▁прод емонстри
▁ц вета
че стер
▁связа нные
▁Сотрудни ки
▁извест ный
▁вось ми
▁Каж дый
▁( Б
▁це лях
▁упо треб
4 9
▁A l
▁рекомен ду
▁оста нется
▁Т ер
ре до
▁ша г
▁фигу ран
▁гла вой
▁Ал тай
▁лет а
▁влия ние
▁това ров
▁w ww
▁полити ке
▁о чи
вать .
▁оста лся
га ет
▁чемпи онов
▁ Щ
▁I I
▁убий ства
▁журналиста м
▁м /
Ж Д
▁оста ются
▁те му
▁C om
ot e
▁друго м
3 6
▁не дель
▁те о
▁с частли
▁к г
▁вы лет
▁рейтин г
▁Д ва
▁а ф
▁обра бо
н т
an c
пи она
▁Лу ч
▁В ТБ
l in
▁в скоре
▁ро да
▁гражда не
емы м
▁компа ний,
сс ей
▁заяв лении
▁не совершен
▁Р АН
l ine
▁вопро с,
▁би блиоте
ic e
лле к
▁Председа тель
ва й
зи ру
▁жи вет
тив ное
of t
▁буква льно
▁пись мо
oo d
▁ку ри
▁На до
про м
у строй
▁ве ще
8 ,
▁сы н
▁она .
жд ению
то ру
▁фестива ля
▁суще ственно
▁пе даго
д лов
▁ лен
▁" про
бло ки
▁парт не
га л
▁на звать
▁Од на
▁И лья
▁Н П
▁язы к
▁не прави
▁пере ход
:1 2
ну тся
▁У ра
▁оп ять
М С
▁поме щения
ot el
▁фак т
▁A ug
вы бор
▁ремон т
▁Фили п
▁под держива
▁Му ж
▁В .
▁Кита я
р те
ов ет
ся тся
▁б ур
:5 0
▁ =
▁прав ления
▁технологи й
▁испол ня
ст рен
▁При чи
ти те
▁Представи тель
се ль
▁од ному
▁пыта лись
▁сообщении .
▁пла тить
▁ки ев
▁при нес
9 ,
7 ,
▁пре мии
▁Са ра
▁ба лан
ско м,
сти ческих
▁ф ер
то логи
▁( Т
▁вто рое
▁города х
чен ного
▁А х
▁s h
к реди
▁Д НР
ОС ТИ
▁Ф ер
▁комму на
ве ре
ю щему
▁переда чи
▁реа ги
▁предлага ют
▁Ш вейца
▁Х и
энер го
▁акт ри
▁и сте
▁представи телями
▁фа на
▁ш у
▁испы ты
жден ы
▁право слав
▁тен ни
▁шо у
▁Ха баров
▁о ставля
▁выгля дит
▁ )
▁А зи
▁о сад
▁деньги ,
▁рас преде
▁О кт
n ews
▁С вер
▁дей ствовать
▁выступа ет
ря ду
▁Ва сили
▁воро та
тив ная
▁S ep
:1 .
▁гро зит
▁пол ном
▁обра щения
▁"С а
ex t
▁сложно сти
вы ми
Б Р
вя за
овы ми
▁эфи ре
▁ю би
▁иг р
▁в ред
▁за ле
ен ный
▁Ру сс
лов ых
чно .
лы .
▁дома .
▁цер ков
ен ных
# #
▁ре шению
▁ус лов
▁коми ссия
▁1 20
▁Мо с
▁Н ем
▁благо твори
- а
▁Па ра
▁бо р
▁взры ва
▁Красно дар
ль ник
жен ы
▁основа нии
н ета
▁струк тур
▁е ха
вро по
▁6 00
▁дела ют
▁собеседни к
тель ными
▁пыта ется
▁привле чь
▁су тки
▁людя м
▁попа сть
▁мар ки
▁з до
▁пои ск
▁"М е
▁необ ы
▁пре пят
дя тся
s /
ен ные
▁нару шений
▁з оны
▁Ф Р
▁c h
un d
▁по ясня
ская ,
▁< a
▁каж дом
▁По том
▁от каз
:4 5
▁о строва
4 7
▁Гру зии
Е Л
▁чинов ников
▁ст ек
▁м нения
▁на ра
▁си лови
ющий ся
▁ле чения
ч ными
с во
▁отдель ных
ст ся
▁боро ться
▁об а
жен ных
▁финанси рования
▁о писа
n e
f f
▁исче з
▁сконча лся
д же
▁19 5
▁Казах ста
is s
▁От меча
сер ва
▁стра нице
▁a b
▁со с
▁взгля д,
ша ется
▁плат фор
▁Поли ция
▁Экономи ка
и ться
▁www .
▁" Ц
ки й,
ти ла
щи ки
▁при ступи
▁эваку и
▁харак тери
▁D ec
▁Леони д
▁получа т
▁па дения
▁O ct
ation al
▁ строй
- Л
▁В ла
води ть
▁до бра
▁бы ,
ду м
▁бри га
ля ли
▁специали стов
ри ев
при ят
▁по слу
▁с прав
т ном
▁ЖК Х
▁2010 ,
▁послед него
▁ликви ди
▁деся тки
▁С ы
▁случа ев
ic h
▁ко ль
▁Азербай джа
▁К э
▁отмеча ется
▁Иркут ской
▁отказа ться
▁Москвы .
▁ка з
дж ан
▁грузов и
ль ги
▁кварти ры
пре сс
▁за бра
▁связа нных
▁плани руют
▁я вно
o x
▁игра ет
▁попа ли
▁О публикова
ча сти
▁гибе ли
пи сь
ю ри
▁кон та
ски ,
▁J an
▁мирово го
то ре
▁дости жения
▁ лы
м бу
▁му суль
раз ви
top ic
▁Та й
▁телека нала
▁с ва
рту га
ь ет
▁раз вер
▁режи ссе
▁доро жного
▁назва нием
▁президен ту
при ня
со м,
з д
▁номе ра
▁серьез ные
ск ет
▁у страи
▁пу сть
▁предо ставить
▁О тече
▁ р
▁сдел ки
▁оста льные
▁день ,
▁при езжа
▁убий стве
▁неко то
▁по сад
▁Ва м
▁м ск
сс ель
▁провер я
▁Б ра
▁буду щего
▁Т ы
" ><
▁2016 ,
id e
▁взы ска
▁на личие
▁выясни лось,
▁тяже ло
▁Та джи
▁озна ча
слов но,
o ver
▁г. ,
▁проводи т
▁дей ствует
▁Да ге
пе ди
▁сред него
▁д рев
▁са мая
▁свя щен
▁скоро сть
кан чи
▁до лю
▁Ви ктора
▁отно шению
си н
▁За па
am p
▁оста лось
▁И ,
ре т
тиче ский
▁о дино
▁заяви ла,
ми ли
▁ла бора
▁"Еди ной
▁по бы
▁напомина ет
▁поли ции,
▁прода же
▁борь бу
си в
▁региона .
▁выро сла
▁регу ля
▁тех ники
▁лицен зи
▁его ,
▁пои ска
▁( Д
пра во
▁пожа ра
▁подоз ре
жа ют
▁пресс-кон ференции
▁зи м
ж ер
О М
хо дом
▁высо кой
▁под чи
▁ку х
▁сопрово жда
▁не лега
▁25 0
▁ли ш
▁ле чение
▁о ке
▁подтвер дил
▁К ова
▁со ба
▁проце ссе
▁состоя лась
▁по я
4 6
▁воен но-
ч но,
▁промышлен ности
▁сти хи
▁те ра
ств .
▁счита ется
▁"П ри
▁г им
▁смер ть
вши ми
▁не бо
▁К лин
гово р
▁се ле
▁рабо ты,
▁попро сил
▁энер ги
▁года м
▁не пре
▁работы .
▁от ка
▁догово ра
че ред
▁из ба
▁ре зо
▁журнали стов
т ли
▁поправ ки
▁Ре шение
О ,
▁Ч ет
▁ОБ СЕ
▁С ла
▁< <
▁у доволь
▁фор ме
р ению
ния )
▁повы шен
▁по жела
. d
▁режи ме
▁уво ль
▁не пло
▁подпи сан
тора ми
▁Никола я
▁контра кта
▁пам ять
▁е в
r am
re m
но лет
▁дис ципли
▁бы стре
▁фай л
▁стаби ль
▁увели чение
▁Ба л
м ма
э коном
▁получа ют
▁заво ева
▁у жа
▁A pr
▁вы шла
▁сни жения
ствен ными
▁бое вых
▁достиг ну
▁ j
▁сек су
▁и поте
:1 1
.2 00
or ld
▁За коно
▁Васи ль
▁до жд
▁установ и
▁бо мб
▁п лей
бе ль
н це
▁демон стра
▁Москвы ,
▁раз .
- министра
▁и щ
▁компа нией
▁о по
▁основ ные
▁пре де
▁за ка
▁Ка та
▁U S
ова ли
a i
▁при з
ла т
▁Таджи ки
д ного
▁Ф утбо
▁пла ны
▁ин ду
▁за куп
н ью
▁исследова ний
▁о скор
▁времени ,
▁орга на
▁фор му
▁рас ходов
▁А рави
гра ф
▁препода ва
▁по дума
▁"Зени т"
си бо
▁фрак ции
нова ,
со м.
Т С
▁района х
▁в друг
en ce
сты е
▁отстав ку
о ном
forum /
▁говори т,
пусти ли
ле б
▁ко нец
▁п ры
▁2011 ,
рован ного
▁милли он
ж ,
▁Ц ена
▁иска ть
▁На и
▁до пуска
▁доста точ
▁нынеш него
▁два дца
▁вспо мни
vi ew
3 9
▁суд ья
▁выпол нен
▁пожа лу
▁предложи ли
за .
ти й.
ев у
▁нуж ны
▁средств ,
▁э по
▁т во
▁L oc
▁до ходов
▁максима льно
▁оконча ния
по став
.1 0
▁резо лю
мо е
▁раз ъ
лу ю
▁пыта лся
▁дан ной
про кура
▁муниципа льных
та ми,
▁Си м
▁Л ь
▁го дом
ба х
▁приня ла
ква рти
▁ >>
▁му зей
вают ,
▁У да
▁уда стся
▁З АО
▁Хо ро
8 .
▁К е
т вор
▁свя зь
▁Н ХЛ
▁А са
▁изда ние
▁p l
▁на став
▁у ско
▁прове дет
▁до бро
▁банк рот
▁служ бу
▁След ственного
▁в ходят
▁M on
▁20 20
▁ос мо
▁З е
▁националь ного
▁моло дой
▁право нару
▁Г али
▁Я ку
ло га
▁ре гла
ar g
▁требова ний
▁прода жу
▁Сто ит
▁пригово р
▁ин спек
▁не зна
▁Вашинг то
Т В
▁Петербур ге
▁необходимо сть
емо м
щен ко
▁несовершен нолет
▁ни ж
- ин
▁Челя бин
▁Та кие
▁вы зывает
шин ство
▁кра со
▁сообща ют
▁Ко ман
▁органи з
▁ска ж
▁Ка в
ст ной
▁дальней шем
▁5 6
▁iP h
▁заби л
▁во кза
▁п аль
ли за
▁де кла
▁конц ерт
▁террито рия
▁причи н
▁говоря ,
И З
▁Донец кой
п ова
▁чи слен
▁Аф ри
▁от клю
л л
го н
▁площад ью
▁при вет
▁вы игры
ков ского
▁А й
▁Казах стана
▁Иго ря
▁состоя лся
▁спи ске
-о фф
▁разре шения
ь те
▁власти .
▁внеш не
▁смы сле
ста я
▁направ лен
▁М В
до ль
▁оказа лось
д ки
▁мужчи н
▁со ору
▁кур са
▁ ово
▁гри вен
▁In ter
▁дет ских
ку пи
▁му ль
▁3 .
▁И ли
▁вы стре
▁получа ет
▁роди тели
▁обрати ться
om e
▁пред выбор
т ете
т овой
▁присо едини
▁ребено к
д ные
s s
ли в
▁пере смо
▁из раи
▁ре шением
▁мя г
▁потреби тель
▁о гра
- Н
▁веду щих
▁аг ен
у льта
▁шан сы
▁треть ем
▁4 1
▁бе сс
▁четвер ть
жно е
▁безопасности .
г ну
ск ва
▁обви нение
▁Лю ди
▁за работ
▁полу го
ё т
▁угро зы
▁по строен
▁стра н.
по след
▁стра не,
б ю
▁навер ное,
▁до чь
▁прово ка
▁место ,
▁оцен ки
▁обеспе чение
д ем
▁Т ра
▁се риа
▁Кали нин
жа ,
цион ную
▁ч ере
▁199 0
ма нов
▁Са удов
9 6
▁от мет
▁мо де
p ro
де в
рова ,
ля ции
▁ар мей
▁a ct
▁пере вод
си ст
▁визи та
д ов,
▁превы шает
ли з
a ir
▁дан ного
▁Ку знец
▁е два
▁иде я
▁эк за
ния ми
▁Ф ина
▁серьез но
ги стра
▁счита ю,
▁Россий ские
▁институ та
▁те бе
л ений,
▁Ф И
▁Соб я
▁выпла ты
▁соверши л
▁Екатери на
тель ,
лов е
▁5 7
▁хок кей
▁Сто имость
▁жела ние
▁сум мы
▁Че ч
м ",
▁американ ский
ст р
azaz azaz
▁круп ные
ig n
ни ла
▁буд то
Т Р
▁С во
ка :
it t
▁"Л у
▁телека нал
ш ений,
▁те ма
▁И ран
▁боеви ков
▁попы тки
▁Т ро
▁я с
▁кандида та
▁те ла
▁мо и
з гла
▁у пла
▁экономи ческих
▁внима ния
▁день .
▁( 7
ж ур
м ского
▁американ ские
▁кризи с
по лу
m er
то ри
▁лиц о
ц .
▁руководи телей
А Д
▁федера ции
▁вра ча
ты ми
:0 5
▁зем ли
ла б
▁взя л
▁про яви
- с
▁эк стрен
ru /
▁Институ та
фи ль
мен ед
чен ко,
▁вос принима
▁ка кая
▁поступи ло
▁процен та
▁минист ров
Д ПР
▁оборудова ния
▁Фе до
▁д овер
▁дополнитель ных
▁за канчи
▁М ор
▁пора жение
▁Ну жно
3 2
чи ться
▁выро сли
▁соб ственной
▁S p
▁D e
▁места х
▁25 ,
▁меньше ,
▁С ин
▁прави льно
рово го
ar k
▁пора жения
ва ется,
са й
▁до ли
▁Гре ции
ни тельно
== ==
▁прод оволь
▁Се веро
▁роз ни
▁гра ницу
чен ной
▁к ле
:1 4
▁Б ен
▁по ставля
-201 4
▁у де
▁успе ха
м с
ou ld
▁во ло
▁фина ла
▁жур на
▁ст рем
▁плей -офф
де ром
▁вы яви
▁хоро ший
:1 7
o -
ща ют
▁ф ра
▁полномочи й
▁От кры
▁Нор ве
▁Миха й
▁ис па
зо к
▁про явля
▁6 4
▁С начала
▁сторо не
з ,
ком му
▁An d
▁И о
за х
▁5 8
▁Б ор
▁наро да
▁Л юд
р ного
▁сти мули
си и
▁"О т
= http://
▁о паса
ж ом
▁от личи
э к
ё м
▁от ста
▁Ч П
▁Э ль
oun t
▁Ю лия
▁по э
▁боль ших
▁Вели кой
▁зна чения
▁ф ар
▁премьер -министра
жа .
▁п ен
▁С но
ти ви
▁Благо даря
▁Ф о
▁охра ны
▁аэропо рт
▁пла не
▁источ ники
▁ ―
▁8 5
▁чинов ники
▁М О
▁инте гра
▁h as
▁примен ения
▁отмети ли
▁В ан
▁предусматри вает
▁ар мя
▁пользова телей
▁уточ ня
ве зда
я "
u c
по треб
▁жду т
▁обсу ждения
▁Боль шо
▁Украи ну
▁провер ку
▁действи е
▁организа ции,
▁На ша
▁имуще ства
К С
:2 5
▁У и
▁мог ло
▁за дей
ри к
▁Рез ульта
y .
▁рекла м
▁Светла на
де б
▁Пре сс-
▁Ан то
▁Сирии .
об рази
▁отли ча
сы .
▁противо дей
▁по грани
лья нов
▁мину те
▁гра нице
ля ются
▁актив ов
+ 0
▁ба ссей
▁Красно яр
▁русс кого
▁( и
▁заклю чи
▁У ниверси
▁за тя
▁материа лов
▁пол тора
▁ лож
▁откры то
▁обра щение
▁оп ере
▁Про грам
на в
▁ма те
▁ф ин
берна тор
▁серд це
▁200 3
▁сра жение
▁разме щен
▁разме щения
пусти л
▁про с
▁зако ном
▁нача лись
▁мо я
▁б лю
▁У голов
▁Отмеча ется,
▁построи ть
▁на в
▁Ма ка
▁О бра
▁начина ет
▁результа тов
▁поста вок
▁ожида ется
▁о зву
▁8 00
▁петербур г
▁сто ят
цион еров
▁Ле бе
▁не со
▁медици нской
сер ви
▁ф о
к ета
▁назва ли
▁" и
/ d
▁два жды
▁s a
▁про спек
▁"Е сли
т -
▁В стре
ан честер
сла ва
у с
ря с
u a
▁нало гов
▁к ем
▁раз ,
▁церемо нии
▁неболь шой
ек си
▁регуляр но
▁государ ства,
▁на лого
ва ющих
ча ли
▁состоя нию
▁писа л
▁Государ ственной
▁ме л
▁уча сток
▁десяти лети
А .
:1 3
ation :
▁при но
▁са ло
▁Про сто
▁вы ходи
▁возра ста
▁Влади восто
▁претен ден
дол го
▁продук ты
▁пон рави
▁люб ви
▁инжен ер
▁дипло матиче
-К а
▁(В ер
▁долла ра
▁Ба ра
▁генера льного
▁Мер ке
▁П ен
▁провин ции
▁зем лю
.1 2
к л
▁д вер
▁мужчи ны
▁д лин
▁х ристи
▁террори з
▁сай та
▁за пол
▁задержа ны
б ря
с мена
▁част ных
▁проф со
▁же сто
ностью .
▁про ду
▁дело ,
▁место .
▁луч ший
▁меч та
чен ко.
жда я
ра сно
▁раз обра
и су
ри ла
▁возду х
▁ис прави
ж ки
ко ле
по к
▁при мут
щи ка
▁Ни же
▁цен е
▁об следова
лен ным
▁при вати
▁Свер длов
ди ла
▁представи ть
▁СМИ .
▁пси хи
▁электрон ной
▁край ней
А Г
:2 3
▁восто ке
▁от ме
▁ме сту
вед ений
▁С пи
▁Ста вропо
▁ка ком
ны "
▁Белару сь
▁посмо треть
х ова
▁счет у
▁проис ходя
▁по ступ
▁ра сту
▁шко ле
▁сотрудни ками
:1 6
▁не доволь
▁позд рави
org /
▁нача лся
а х
▁по пол
▁с ей
▁за бро
▁вице-п ремьер
▁от вер
:1 9
▁"Г о
▁ну жен
▁фотографи и
": "
▁предлага ется
в торы
▁Ю рия
▁ника кой
ла мент
▁"Спарта к"
▁плани ру
▁упа л
▁w ill
▁подразде ления
тов ых
б я,
▁празд нова
3 1
▁На род
послед ствии
ло грам
лю би
ных .
▁снизи ть
скет бо
▁кар тин
нов ения
ри те
▁капита ла
▁E x
▁сель ского
▁премьер -ли
▁об ез
▁прокура тура
/200 9
ль ва
▁непосред ственно
▁ ????
аль ное
▁вы вод
l and
р ва
▁постеп енно
.201 7
лу ,
▁ли бера
▁фак т,
▁кон так
▁до ходы
▁с лыша
▁пере чис
▁Белору ссии
М ВД
▁поддержи вает
▁Участ ники
un g
▁до про
ков ые
▁То м
лова ,
ди а
▁соответ ствует
▁Опубликова но
▁злоу мышлен
▁Б ур
за н
м ся
Р О
▁обще ство
▁в д
фе ра
З а
▁дав ление
▁спра ши
▁уже сто
город ской
i re
at ing
▁200 5,
▁направ лены
▁продолжа ть
▁стро го
м ета
▁W ed
р "
▁украин ские
▁(Вер сия
на до
▁раз рабаты
▁след ствия
▁заня л
▁выигра л
▁А гент
▁Ал та
до н
л лер
н ю,
▁т ща
▁по тери
▁тре во
▁Вер сия
▁пообеща л
▁нынеш нем
o ,
да ет
▁экспер т.
▁живу т
▁международ ный
▁вероят но,
▁каби нет
▁э ми
:2 1
д ных
▁теа тр
рь я
▁<< <
▁Х ан
▁" до
▁фестива ль
л лет
▁"Б е
щ ем,
ь ков
▁Проек т
▁мире .
ги н
▁пере жи
▁спи ска
▁"А ль
гре сс
во с
▁по соб
▁тя ж
▁обо зна
разви тия
зо й
▁отмеча ет,
▁кни ги
▁интере су
:1 8
т ово
▁группи ровки
▁побе да
▁финанс ового
▁и мена
▁рас стоя
▁тр лн
▁вело си
▁Че хи
-201 2,
- Р
▁напря жен
ко ль
▁об жа
▁ежегод но
з ю
M T
▁луч шим
▁tim es
▁Ад вока
▁профи ла
▁Стро и
▁маши на
9 7
с наб
▁взя ли
▁финанси рование
▁мо но
▁Пет ра
▁хокке и
▁объясня ет
▁безопас ности,
▁Васили й
▁вра чи
▁убий ство
▁журнали ст
▁О П
▁полу чение
да п
▁З у
▁фи кси
вей цар
▁поки нуть
▁(Р о
Ф О
то лог
▁L a
▁вооружен ных
ри .
▁плю с
▁И гра
▁Спе циали
▁сентября .
▁поли ции.
▁(Н овый
▁причи ны
▁финанс овые
ена ,
▁непри ят
ба .
▁голо сов
▁вынужден ы
▁ведом ство
▁"Зени та"
▁кор рек
▁( за
▁ра сти
тив ную
гла вы
▁S h
▁доро го
▁Са в
ка ",
▁бо м
▁однако ,
▁ка нала
on s
▁вс ё
лет ряс
▁устрой ства
:3 5
▁о пер
▁ up
▁пер ен
▁сы на
:0 1
▁отказа лись
t r
▁Поль ши
▁Боль шинство
ind ex
ф ан
▁ведом ства.
▁сю жет
▁Европы .
бы .
▁име л
ки н.
▁с мени
▁Л ДПР
▁м ете
▁официаль ного
▁кон ста
:0 .
▁Ко ло
▁оправ да
▁масс овых
▁пе ви
▁и сти
▁неме д
▁экспер тов,
▁пробле му
▁хвата ет
▁темпера туры
▁адре су
с ная
▁собра ния
▁за пуска
▁R uss
▁у полномо
▁Лав ров
су э
▁намер ена
▁5 2
п я
▁справедли во
ф у
▁верну лся
▁заклю чается
▁Украи не.
y ,
до мо
▁оста льных
▁торг овых
▁т вер
▁Ч М
▁требу ют
▁рас ход
lo g
▁от кро
▁И сто
лен ная
▁обо снова
ствова ла
▁музе я
▁зна ком
▁пун кт
▁роди лся
▁показа ть
:3 2
▁рассмотр ение
с л
т но.
▁напад ения
тин г
▁ситуа ции,
▁сотрудни честве
▁полож ения
▁Оле га
▁о кон
▁200 1
▁ка кую
б ,
▁вы бро
▁кра т
лет ы
▁будет .
▁Доб ав
▁поддержа ть
▁част ности
▁собствен ности
▁ ще
▁ко л
▁гендирек тор
▁Предпо лага
o e
▁испол нения
э ффек
▁колле кти
▁5 1
▁ка ф
▁коман ды.
▁Неизвест ное
▁город ских
▁ es
▁професси она
▁Ни дер
▁пере кры
4 1
ющей ся
- Ф
ич ,
▁съ ем
▁не бе
▁"Ру сс
▁по мни
▁креди това
▁Д ар
▁до хода
▁Т В
▁ф аль
F A
▁мар та,
▁заклю чение
▁гла ву
▁Ли дер
▁защи ту
▁та м,
Н К
щ ё
▁б рази
▁под ход
▁у йти
жа я
зы .
▁дву сторон
▁под зем
▁управ лении
▁управ лением
▁дол га
▁говори ли
▁со против
ково го
▁безопас ность
▁прово дят
▁бомб арди
▁луч шие
▁Мос гор
▁ли це
▁а бо
▁разре ши
ного ,
▁сро ка
вторы х,
▁пропа ган
▁с вета
▁по клон
▁О п
▁Националь ного
н ными
▁да ют
▁так си
▁зда нии
ль но,
▁це лый
над зор
▁От вет
▁Ки ева
▁выбра ть
▁фай ла
▁ру ках
▁(00:0 1
:0 6
л ку
▁И ю
▁пере ме
,5 %
▁нач нет
▁в кла
▁Т вер
▁п ья
▁Loc ation:
▁Коми тета
▁времен а
▁оружи е
▁Ген прокура
▁политиче ского
▁д вой
▁до ступа
▁колле ги
▁Х ор
▁по ль
то ,
▁P ro
пел ля
тех нологи
▁любы е
▁Ц и
▁сем ье
▁миров ых
Е Р
▁реа били
▁"Т о
▁отмети ла
▁С ент
стре бова
▁"Бар село
▁К ру
▁кар то
ви и
▁по ни
▁по ставить
-би -си
▁си г
▁без рабо
▁утвер жден
▁Н ОВ
y r
жа ется
7 .
▁К НР
▁с ан
:2 2
графи и
▁Сооб ща
▁предприя тие
▁обрати лись
▁M ic
▁показа тели
▁рекомен дова
▁С бор
▁матча х
▁ак те
▁ве дут
▁большо го
▁представ лены
▁сер тифика
▁Бе л
▁О коло
▁любо го
a h
▁ш ла
▁от мени
▁оче реди
8 5
▁атмос фер
▁и ран
▁искус ства
▁государ ственный
▁На за
▁7 00
▁моск ви
▁социаль но-
▁использова нием
c l
▁дела ,
сси ю
▁Е рева
▁с лы
▁Си би
▁тури стов
▁реали зу
▁па дение
▁Олимпий ских
▁сред ней
▁благо дар
▁кандида т
/0 6
:2 6
▁зако ну
▁правитель стве
▁Госпо дин
:3 1
▁к стати,
▁вза им
▁Сирии ,
in k
▁содержа ние
з ви
▁бюджет ных
▁Макси ма
▁полномочи я
▁ребя та
▁возможно стей
▁выпол нения
▁ото бра
▁F eb
▁Ин терфак
▁обу чения
▁На у
▁"Ан жи
ну ла
▁столкнов ения
▁связа ны
▁мат чи
ди ться
▁един ственный
- при
▁су хо
▁то п-
л лан
L L
.1 1
▁"Известия м"
с ональ
▁c ap
▁дове ри
▁B r
▁ро ман
▁ма я,
пи си
▁игро ки
▁кре п
жи м
- по
▁Поз же
▁6 6
▁пи ш
:0 4
▁прем ьера
▁у про
:2 8
▁рабо чей
▁нау чно-
▁здоров ь
▁ожида ется,
▁тру до
▁предпринима тель
▁P l
.1 3
. :
▁мо то
з рева
т ю
▁на па
▁в ходя
▁гра мо
▁принци пи
▁И ису
▁ви деть
▁оч ков
▁при готов
▁ко лон
ть е
▁соревнова ния
▁"Р а
▁та кими
▁К ре
▁Федера льной
со мо
ну лся
▁хо д
:5 5
▁Со зда
▁утвержда ет,
▁смо три
▁деся тков
:3 3
▁ ex
де я
▁Бан ка
йте сь
▁Нава льного
▁Евро пу
▁пов лия
____ ____
чи вать
▁су ти,
ан ь
о бо
▁россия не
▁теку щем
▁У чены
▁смо тре
▁Вы со
▁Регион ,
▁счита ть
▁совер шении
▁полови ны
▁S k
▁федера льных
ed ia
▁следу ющего
▁деньги .
▁выстав ки
▁о хва
▁О жида
▁полови не
▁полно цен
т ",
▁па ро
б ар
ди и,
▁порта л
▁треть его
ли зова
▁ни х,
рен а
/1 6
▁10 %
▁возмо жных
▁ак ция
▁ликви дации
▁г ар
▁боль шей
де о
▁работо да
▁о дни
▁уч ета
▁мест ной
▁осо зна
▁прав да,
об ходи
▁кад ров
▁которы е,
▁оборудова ние
▁за ме
▁отмеча ют,
▁ма я.
ля ться
▁Та и
▁макси му
▁граждан ской
▁пи сто
з нен
то рия
▁X X
▁Не сколько
AS E
ши на
▁Президен та
▁Ди рек
ти .
▁высо кий
:3 6
▁9 5
▁относи тся
▁в торы
▁от ре
▁большин стве
би ть
▁буду щее
▁правоохра ни
▁сом не
▁з ло
▁со отно
u ro
из нес
мен том
▁Г ран
▁компа нию
▁полити ку
▁пунк тов
:0 ,
▁т. д.
▁след ствие
жа т
▁С ар
▁организа ций,
▁которы й,
▁шан с
▁правительства .
▁ве дется
▁вз ор
ran s
▁д .
▁проходи ть
▁зем ля
▁нау ки
▁за ку
:2 4
▁геро и
▁говорится ,
▁Ар тем
▁през ента
▁превра ти
▁политиче ские
щи на
▁мы сли
▁Москов ского
у ма
▁сентября ,
▁кон фи
▁пятницу ,
▁До ку
▁по йти
▁ос во
▁"М анчестер
▁А ссоциа
▁С .
▁а дап
▁за каза
▁коллек тив
р ный
ay s
лья н
▁международ ным
▁h or
- m
▁предпо чита
3 4
▁много м
▁им порт
en s
▁противо по
▁Ни ка
▁ог не
ин г
▁из ви
▁За хар
▁зада чи
▁у лы
▁ди стан
работа ть
▁во лон
▁километ ров
▁стра хов
▁сокра тить
▁С вобо
▁Ста ни
▁октября .
и мен
ст ской
▁Бы ло
▁о хран
▁Са ака
э м
тер рори
▁Е му
ри м
▁много е
▁С ка
же ли
▁м емо
▁медици нских
го ль
▁дол ги
▁"А вто
▁вра ч
▁сла бы
ча ют
су ,
ложи л
▁дня х
:3 7
▁при лож
ж ья
еха ли
ми т
▁Ка кие
▁За то
ф ек
▁оцен ке
▁Боль ше
▁ва шего
б ре
▁дней .
▁Генна дий
▁находи ться
▁Соответ ству
▁согла с
▁B l
▁де пози
:5 3
▁мар та.
ение .
▁об народ
▁современ ных
жи н
▁соб ственных
▁S at
жения ,
ли ли
▁рай онов
▁об щий
▁г г.
▁ве се
▁вз но
▁сер дца
▁по дар
:0 7
▁октября ,
▁ре шать
нения ,
▁ки лограм
▁интере сов
▁по бере
▁приве дет
▁объ яс
▁Ва дим
:4 4
▁тер мина
▁свер х
▁нас ,
▁сотрудни ка
at ch
▁симво ли
бер г
▁Болга рии
▁воз гора
▁разви тии
▁турни р
il d
▁ рен
▁вне сти
▁Е дин
▁при вез
Е Н
▁Владими ром
с )
▁5 4
жен ный
че б
▁m an
д ве
ен .
▁под москов
д ов.
▁ *
:4 1
цион ным
▁о зе
сс ов
▁призна н
▁Международ ного
▁пере мен
цен тр
:2 7
та ми.
▁м .
- под
▁мэ р
▁М екси
▁ка фе
▁участ ка
▁по йдет
▁ко ри
▁требу ется
▁с прос
▁бра т
▁досто ин
▁F or
▁террори стической
▁а том
▁Бар нау
▁позна коми
ти ло
i pe
▁у шел
ск .
:0 3
▁ко стю
▁самоу прав
▁участ ков
▁уверен ы,
▁уве лич
аль ная
ле во
▁за блоки
▁секре тарь
жно сть
** **
▁извест ных
▁пла нах
▁мет ров.
▁Гру зи
▁Украи не,
▁от куда
/ 8
ского .
▁у пра
:5 9
▁экономи ке
▁возра ст
▁нам ного
:2 9
н ское
:4 9
▁нуж на
▁ва шей
рова я
а мерикан
▁участ ке
▁экспер тов
▁зна ет
▁( до
ка че
П П
чено ,
спо треб
▁стади она
▁и стре
▁Верхов ной
▁бы вает
▁ле ги
▁се ла
▁успе х
▁Тю мен
▁Ана ста
▁трав мы
- бе
пе ча
▁хо тим
▁сре ду,
ре дни
:3 9
▁болельщи ков
▁переда ть
▁Брю ссе
редо то
ми те
жи ли
▁перен ес
e ch
▁ракет ы
▁исла ми
▁Отече ственной
▁о ставить
er c
▁ф анта
▁начина ется
er .
▁понедель ник,
▁ сты
▁страна ми
▁принима ет
▁смо треть
▁состави ли
тиче ская
ью .
▁Не да
:5 8
▁ста дии
▁ори гина
▁производи телей
▁бу ты
▁обще ственной
ли тся
▁сейчас ,
:3 4
▁c an
▁В з
▁У Ф
:0 8
▁выступи ли
▁откры л
▁за л
л лю
ха м
▁трени ров
▁ба скетбо
▁студен тов
шки н
▁ответи л
:5 1
▁поддержи вать
д ство
▁ба бу
ко "
▁Р С
нова .
- де
▁повы сить
▁З и
▁начи ная
о ти
я х,
▁современ ной
▁ч ему
▁" от
▁клу бе
г ности
▁посе лке
▁ма ть
▁помога ет
▁стар ший
▁жда ть
▁то чка
▁юго -восто
гра н
▁подо пе
▁в ен
ью ,
▁работа ли
▁Про из
ж ье
▁утвержда ют,
▁экспер т
це ва
▁ or
▁ре шении
▁созда вать
/1 0
▁созда нию
▁скоро стью
▁порт фе
▁треть е
▁праздни к
▁200 2
ы ми
▁за прос
▁проек те
▁объек ты
▁су дей
▁П об
▁останов и
▁про зра
▁оста ться
ле сти
▁пресе чения
e. com
/ forum/
:0 2
▁ка ра
▁т рой
▁К ли
Э К
▁стади оне
▁5 9
▁кар ты
▁большин ства
▁ ров
▁ва лю
▁Ро спотреб
▁инвесто ров
▁с бы
▁То л
g e
▁Ф ак
▁выпол нять
▁столич ного
R u
ста ф
чи н
▁друго е
▁сыгра ть
▁Е Г
ма ш
▁другу ю
▁(00:0 4
▁ос енью
▁рас стре
g ame
▁ком бина
▁iPh one
▁фор вард
▁социаль ного
▁ФИ ФА
▁принци пе
ел си
м бле
▁следу ющей
▁запи си
▁Д вор
▁авто ном
▁пер сональ
▁Сер би
:0 9
▁может ,
▁кварти ре
▁вы йдет
▁строи тельстве
▁ис пан
ми я
▁Э н
▁Ира на
▁на бира
ника х
▁сокра щение
▁би ат
-лет ней
▁пода л
▁теле ви
▁" при
▁возвра ща
А М
▁инф ек
лов ые
▁филь ме
ру ются
ят ,
9 /201
бо ры
▁На пада
▁ab out
ни т
н ц
з доров
▁на оборо
▁об щем
▁профе ссор
▁6 7
ди ка
▁прекра тить
▁ла й
▁роди телей
И Л
а тра
ш ке
▁обяза тельств
▁о пусти
▁показа ли
▁фору ма
▁После дний
з .
▁Р я
▁насе ленных
/ f
▁Л ен
но ма
▁эваку а
▁5 3
▁ ца
▁напомни л,
един ения
▁визи т
▁народ ного
:3 8
▁ноября ,
▁Во- первых,
▁со чета
▁объясни л
▁по м
▁на пример
▁о стави
▁Ф АС
ля ми
▁В С
А ,
▁собира ются
▁во ин
▁части чно
�� ��
▁"Т ран
▁служ бе
▁за мед
▁Сле ду
то ров.
▁в ведения
▁нако п
дне стров
▁игра л
▁Международ ный
стви я,
▁жен а
▁зарубе жных
▁100 %
▁месте .
▁Пер вая
▁у те
лено м
у л
ча стую
сла н
ня ка
▁отно сятся
с вя
:4 6
▁нача лось
хо ждение
▁П лю
▁Ни ко
▁: :
▁ограни чен
ступ ление
▁Ка ды
▁Окт ябрь
веден ы
▁С ИЗ
▁Дж ор
ну ться
▁сказал :
ле ку
▁времен но
▁где -то
ros oft
▁C l
▁предъ яви
▁Ра сс
▁Европы ,
▁ве ществ
▁мусуль ман
▁На ши
▁стоимо стью
▁вы зов
:5 6
▁Дру гие
▁А иФ
▁спор тивных
щие ся
▁жур нала
▁маши ну
д ении
▁При мо
▁прекра сно
▁от кло
▁Во прос
▁Р ЖД
▁ц ар
А Т
ст ова
п ети
-1 2
k s
ж .
▁источ ников
▁правительства ,
▁при сво
▁ма лого
си м
▁возмо ж
мя г
▁Особ енно
▁ря де
то к.
▁приобре сти
▁некото рое
ль "
те "
▁L e
▁ве сной
:5 2
▁Ти хо
▁бло к
▁Бли ж
:4 3
▁Путин .
▁добы чи
▁муниципа ли
▁за ем
:4 7
▁вы ясня
". ..
▁су дом
▁х уд
▁( а
ве .
▁у ра
▁регуляр ного
▁у каз
▁еди ниц
▁ out
▁состоя лось
p =
in a
ту рой
▁"Спарта ка"
▁прод ю
▁« У
▁гра до
лет ний
▁име ли
е во
▁Люд ми
er ,
▁за чем
▁бло ка
▁Вене суэ
▁президент ских
▁Са ха
▁оказа ться
ar m
▁ссы ла
▁подготов ку
▁под ви
ш ку
▁ us
▁апреля .
▁публика ции
▁дене жных
ф ей
▁при ме
▁Па три
▁тек ст
▁гим на
▁хоте лось
ски .
▁гер .,
5 .
▁апреля ,
:4 2
▁обсу дили
▁составля ют
▁ноября .
жда ть
▁принима ют
▁продолжи ть
▁Би -би-си
▁Премьер -министр
▁ре зиден
▁в пло
it al
▁ори енти
▁Ц ИК
▁По стоян
т ку
▁с клады
▁дан ному
t =
▁« Е
▁включа ет
▁выход ные
▁ин декс
▁б ит
▁Nov ember
веро ят
ве ,
▁у сы
▁Петербур га
▁Н ет,
▁пита ния
▁участи и
▁(00:0 5
▁ресур сов
▁ш тра
▁С порт
▁окружа ющей
жд ением
▁девя ти
ц кого
:4 8
▁сос редото
▁ва ши
▁на бере
▁шко ла
▁ми н
та ",
▁ста били
▁разре шение
▁реши ла
со ли
▁россий скими
▁З ак
▁пара мет
▁Ми ро
▁Волго гра
лю б
лет ь
▁Европей ского
▁дет ского
▁Встре ча
▁России ",
▁Ж ур
с -
▁коман дой
▁пи ще
▁иде ю
▁Во ору
тели .
▁администра ция
▁больше .
▁да ле
ск лю
ль ф
▁долла ров,
Г аз
▁верси я
▁раз да
мни сти
эконом развития
ра ции
▁бир же
▁расс у
ный .
б ен
▁вопросы ,
ни ем,
▁правитель ству
▁су вер
▁хоро шие
▁из начально
▁з у
▁ла у
л лу
▁ку п
сы :
ля л
кре пи
р ные
ц ова
▁предпо ч
▁экспо рта
▁функ циони
▁разме сти
Е ФА
жи е
зу ,
▁зем летряс
▁форми рования
▁Владими ру
▁ш тур
t d
▁доба в
▁современ ного
- f
▁За кон
▁Ж ан
п лы
▁Герма нии,
фе ропо
▁соответству ющие
▁ве б-
▁"Ро сте
жи га
▁жи лых
▁Санкт-Петербур ге
тор ,
о ри
▁выступа ть
▁ново стей
ab le
ла в
▁турни ре
▁по чув
▁группи ров
▁иде и
▁за пу
визи он
▁ма ни
▁Про бле
▁об щую
▁То ,
:5 4
▁да вать
▁объек та
▁взаимодей ствия
▁момен т,
▁от кров
▁обжа лова
а нали
▁Депута т
▁по за
▁фир мы
▁50 %
▁наказа ния
▁пози ция
▁ма гни
:2 .
▁w ipe
▁наличи и
▁выступа л
▁Уи лья
жения .
▁сообщи ла,
▁се мина
нят но,
▁начина ют
▁Гра жда
▁убе жден
ово й,
▁экс кур
▁ва ми
▁кла д
▁использу ют
▁разви ва
▁дет ям
▁пос чита
▁за ставля
шен ные
сов ета
ва я,
▁в ходи
▁ро бо
▁6 8
▁фина ле
▁Поз д
▁че ст
▁инте ллек
▁под суди
▁о дина
▁жиз нен
:5 7
▁4 .
▁произо йдет
▁фи ло
▁Ц ер
▁пред ше
▁кон серва
i .
▁М .
ха ,
▁"К и
▁про би
ва ло
▁B BC
▁к лет
▁приеха л
▁и ден
▁авто ры
чно му
ни ми
▁независи мости
▁при дума
▁правительство м
▁H otel
- 30
▁лидер ы
▁преступ лений
си й
▁рей сы
▁Все россий
▁молоды е
▁за о
▁после дним
▁22 ,
▁плани рова
▁сегодня ,
▁отвеча ет
▁Рабо та
▁в во
▁проду кт
▁м лад
▁показа л
▁1 ,2
▁з он
▁Ин терес
▁кон тин
▁Груп па
▁Н у,
▁выступ ление
b l
лы :
▁ви ду
▁G o
▁корруп ции
▁откры тие
сте ра
о тече
▁за писа
мы ми
▁Госду му
▁пору чил
▁за рабаты
▁станов ятся
▁мину т.
ч ность
▁организа ции.
▁при ста
щен а
кра ин
▁рас чета
▁види мо,
▁в вед
▁ди ви
▁Ав тор
▁рассмо треть
▁э н
n ational
ст рии
▁пла ка
im g
▁беспла тно
▁"В а
ol l
▁к ноп
▁прово дятся
▁мы ш
отече ствен
шен а
▁ги ган
▁А каде
▁с нять
u k
▁перспекти вы
▁пла нов
▁руководи тели
ша л
▁ве личи
▁Сем ен
▁воз ме
▁смо гла
ли зации
▁объ емы
▁"Н и
ре да
▁катего ри
ли ять
▁бо кс
▁высо кие
▁ш вейцар
▁предполага ет
▁млрд ,
▁sa id
ступа ет
▁поко ления
▁опла ты
▁энергети ки
▁ лон
ско хозяй
чу к
лен ное
▁Националь ной
▁п .
▁втор ник,
реа ги
▁Й о
▁тор гово
▁ус лыша
▁6 3
▁резер в
▁c l
▁объяви ли
▁четвер г,
▁доро ге
▁Глав ная
▁ЕС ,
▁прове рить
▁сыгра л
▁ю но
O S
благо да
▁карь еру
дова ть
am s
▁вы ходит
▁Ч ис
- Х
цион ном
во л
▁кар точ
▁продол жит
▁act ual
▁s p
" ?
▁граждан ского
▁в след
▁игро к
ло м,
ail y
▁позволя ют
▁спортсмен ов
es day
▁В ра
▁эк стра
▁ко ра
▁иде ологи
▁Mic rosoft
▁пла на
▁ all
▁сла бо
▁ман да
it ion
▁вер у
на н
▁собра ть
дов и
▁за лож
▁означа ет,
▁состави ть
▁Учены е
сси и,
▁Та кой
ве ло
▁послед ней
▁7 8
▁газ ете
▁(1 )
▁пре сти
▁есть .
▁П ло
▁нало га
сты .
▁специали ст
ля т
▁часов .
▁организова ть
в ова
▁( Л
▁решение ,
ник ова
▁февраля .
▁ста рта
▁собствен ные
хо ду
▁от бы
4 2
▁Добав лено
▁се бя,
ко сть
en er
вя з
▁внеш ней
ф ло
▁занима ются
ница х
▁исклю чением
▁обо рон
стви ю
▁во стребова
ти е,
▁эти ми
▁националь ных
▁ру лем
▁20 %
▁строи ть
▁Олимпиа ды
▁нема ло
А П
▁фи ни
▁основа ния
▁« Э
▁хоч ется
▁Пер во
щи ны
▁защит ник
▁Th is
.ru .
п по
▁февраля ,
▁ви да
▁Са й
ме ется,
▁мо тива
▁"Н овости
▁специаль ные
▁"Локомо тив
▁раз работки
за виси
▁меди а
▁" а
▁деву шка
▁июня ,
вшая ся
▁свя зыва
б рав
-- --
▁хорошо ,
ва ю
жи ,
▁транс фер
▁Вороне жской
▁при шла
▁жизнь .
вя тся
▁Яро слав
▁Бори са
▁озна коми
ен ного
▁ВВ С
▁дело .
▁июля ,
▁полу чении
▁июня .
▁ма гистра
▁У ЕФА
ге ль
▁ви ну
▁опера ций
▁доро га
▁голов у
▁Я н
▁от реаги
▁(00:0 2
▁Международ ной
▁рассмотр ения
ви ль
▁акаде мии
▁конта кт
▁некоторы м
▁Н овая
▁прода ть
льно .
▁про ник
▁со отечествен
▁о форми
▁пол ный
▁" вы
▁Мин экономразвития
▁М аль
▁к рова
▁установ лены
▁ли дером
▁подо ро
▁онлайн -
де ква
писа ние
▁э ли
▁ви ды
▁Про хо
▁заня то
i ,
7 6
▁Росси я,
▁коне чно
▁под вод
▁друга я
▁Да лее
▁доро г
▁готов ится
re e
▁Израи ля
▁увели чения
ющим ся
▁транспорт ных
▁квадра тных
▁пеше ход
▁утвержда ет
▁перио да
▁характери сти
t on
▁Мен я
▁ст уд
/1 1
▁тури сти
ду ар
▁бизнес мена
▁корреспонден ту
▁постанов ление
▁вы пу
▁строи тельству
▁К уд
▁борь ба
▁ин тен
▁Вален тина
то к,
▁чт ении
ac t
▁опера тора
▁эффектив ности
▁Ар ген
▁декабря .
▁ви дит
парта мента
▁пред две
▁да ст
▁оконча тельно
▁прибли зи
▁лучше ,
▁Органи за
▁H e
▁непло хо
▁появи лось
ди .
▁Цент р
▁шта ба
с ль
▁МВ Ф
▁со ци
▁Ан ге
▁"К ры
▁традицион но
▁задей ствова
▁работу ,
▁россий ско-
▁диа лог
▁шта та
▁клуба .
▁а мнисти
▁на сили
ха чка
[ /
мо га
▁ве ща
- s
▁за г
цион еры
▁украин ский
▁треть ей
▁под ру
▁воен ный
▁убе ди
▁Да та
▁неболь шо
00 00
▁использу ется
▁НОВ ОСТИ
▁сокра щения
ag es
▁"Интерфак с"
ке "
▁cap tion
▁Да ни
▁Ба рак
▁Да ма
▁теле фона
▁русс кой
▁смарт фон
▁Россия "
▁причи не
▁компью те
- у
▁заня тия
▁на но
▁креди т
▁круп ном
ность ю,
▁"А эро
▁неда леко
▁E l
▁Б ЕЛ
▁посмо тре
про грам
▁С У
▁рейтин ге
▁чет ко
▁Т ран
▁кам па
▁Фон да
▁уве дом
▁в етер
▁Ин циден
▁И г
▁разви вать
▁кли ма
s :
▁успе л
▁анали з
▁У льянов
▁основ ным
▁зара нее
▁М э
▁министер ство
▁из мер
▁на против
▁у став
▁готов ности
▁мест е,
ко рей
ря т
▁при ба
▁имуще ство
▁прогно зи
▁при вод
ber g
ма с
ствен но.
ди к
ли :
▁y our
пи сан
▁у чения
▁зем ле
▁про смо
▁созда н
▁работу .
▁состоя ния
вер са
▁инциден та
▁сни м
▁пользова ться
▁сель скохозяй
▁отде ление
▁С ледова
▁самолет ов
▁спорт смена
▁раз во
▁а раб
▁Р яза
шен ной
▁поезд ки
▁созда на
▁поня тно,
ков ым
▁спа сти
c c
▁7 2
рова .
▁золо то
▁штра фа
.0 9
▁полу ченных
ot her
▁Побе ды
лы ми
▁глу би
▁с но
▁па тру
oc k
▁теа тре
▁со р
▁"Л а
▁прове ла
▁евро ,
й о
▁V ol
жен ные
▁орга нами
8 8
▁М ного
▁поки нул
▁декабря ,
▁"Ар сена
ту "
▁хи ру
▁изда ния
ор гани
▁конкур се
▁ка рта
▁Англи и
▁организа торы
спо р
▁по шел
▁федера льный
▁субъек тов
▁ка кого
би нской
▁мен ять
▁за пущен
▁экономи ка
▁гражда н.
d f
▁К ла
▁(1 0
▁ми ру
▁преступ ления,
▁Пес ков
▁у стран
ф аль
▁с ку
▁христи ан
▁груп пой
жи вать
тель ница
▁вс пы
го не
▁населения .
▁вой ны.
▁его .
▁зарпла ты
▁диа гности
▁от зы
▁ин струк
▁по ток
▁высо кого
▁в клады
▁прибы л
чи ла
▁объяв лен
", "
▁июля .
▁об ща
▁(с м.
да ли
▁до мой
▁сохра ня
▁социаль ные
▁бере мен
▁Го род
ли к
ва ющие
▁истре би
▁ак ционер
▁Пу шки
Р У
ла дель
▁Э дуар
лу .
▁С лова
▁агент ству
▁ск ром
▁обе их
▁официаль ных
op yr
▁игро ка
ров ых
ти вы
ших ся
opyr ight
▁по благода
▁Б изнес
... +
▁москов скому
▁у помина
▁ва жных
▁Нидер лан
▁парти и,
▁с бора
▁сами х
▁Ко ли
▁$ 2
▁Мол да
▁проблемы ,
▁содержа ния
▁футбо ла
▁нау к
▁мину ты
▁государ ственные
▁чув ству
▁дела .
▁за ба
▁срав ни
▁глав ная
ет ы
▁пись ма
▁p ost
▁Строи тельство
▁за ведения
▁инициати ве
▁преддве рии
▁О но
▁ком про
▁важно ,
▁ш вед
▁по сы
пред седа
▁увер я
▁(00:0 3
▁посе лка
▁до чер
▁подтвер дили
.com .
▁мл н,
.0 1
▁законода тельству
- b
▁объедин ения
▁сю да
▁ли ди
▁К лич
▁Кита е
хи на
▁$ 5
▁про сит
▁Во обще
▁ки сло
р ба
▁В ремя
▁пес ни
▁высоко постав
▁от вета
▁ко т
▁вице-президен т
▁3 ,5
щение ,
▁отмети ли,
▁до че
▁пере чень
над зора
▁отношения х
ст ема
ча л
▁се дь
▁Лондо не
▁выстав ка
▁месяцев .
▁Центра льной
т ки,
▁важ ней
▁Добавлено :
ное .
▁у чет
▁бы стры
▁оцени вается
▁ко декса
-1 9
че вид
лова .
▁Израи ль
▁оста ваться
▁инвести ции
цен три
▁зна ет,
:1 ,
.0 3
▁приве ло
ще стви
▁сообща л
▁реконструк ции
▁нау чных
ь "
▁вы езд
▁предостав ления
▁гражда нин
▁проте сту
▁эксплуата цию
тирова ться
▁воз ь
▁биат ло
ва ющий
ди и.
▁0 %
дне вно
▁опол чен
▁арен ду
за п
▁Е ди
▁за ложен
▁должно стных
▁леген дар
▁а пелля
ле к
▁президен та,
ная .
▁ар гу
▁вла стями
▁вто ро
▁компле к
ст ного
- ка
е вич
▁следу ющие
▁русс кий
▁судеб ных
т лан
ке ра
▁ком понен
ав то
▁] ]>
мо щ
▁коман ды,
▁же л
О .
фина нси
▁След ственный
чу ,
▁владе лец
▁Г де
▁спро са
▁сцен е
ве дом
▁су да,
▁производ ству
▁с него
▁7 7
▁w e
▁Ши ро
▁напада ющий
▁О пера
вается .
К ,
▁распростра ня
▁пен аль
жен а
ле ра
емо е
▁ка над
с :
▁Я цен
▁обу чение
ш ,
▁ни кого
▁подели лся
▁по тря
ak e
х "
▁ >
▁Н Д
▁кон ди
ком "
▁Ф Н
▁Пет ро
▁игра ли
▁Вы с
v e
▁функ ции
та м,
ве ла
/201 0
▁води теля
▁"Т е
▁подписа ли
▁о гла
▁Га га
6 6
▁кон суль
▁пос редни
▁ре пута
▁по надо
▁поясня ет
▁карти ны
▁организа цию
▁по чет
▁Об ла
ль ском
▁мо ро
▁площад ке
до не
▁откры ли
каж ется
ка ет
▁Чи та
▁W h
▁фигу ри
:1 ).
▁У с
▁винов ным
ти руют
▁ЕС .
да на
▁ор би
▁Т ут
▁народ ной
▁узна ть
▁района .
▁Санкт-Петербур га
▁возгла вил
▁потреби телей
▁го ды.
▁поддерж ка
▁БЕЛ ТА
▁жи телям
т ки.
▁ сте
ющего ся
▁оказа ть
чи сли
▁н ен
▁Поли цей
▁Евро коми
▁Га й
ри я,
▁сро ком
▁Jun e
▁Ад министра
▁нач нут
ч ки,
▁озна чает
▁"Л е
▁Ар ка
▁струк тура
▁рабочи е
or n
▁угро зу
▁международ ные
▁дальней шего
▁при ну
да л
▁бежен цев
▁де жур
▁Инциден т
емся ,
▁учре ждений
▁невозможно .
▁обо й
▁жи теля
▁завер шения
▁удалось .
▁си ла
▁фа куль
▁пенсион ер
▁Брази ли
▁С тив
oc i
▁бы вших
▁позд рав
▁объ еме
▁РФ С
▁комп ет
e :
▁во ду
пи нг
▁прокуро р
▁мо его
▁ви но
▁безу словно,
w e
▁фор мы
▁су да.
ен ной
▁договори лись
▁в ведение
.0 5
▁сыгра ет
▁Сообща ется,
▁законопроек та
I S
▁"В ы
▁G MT
▁Кирил л
▁прогно за
▁Д ет
▁русс ких
▁ини ции
▁Бе лого
пра ши
▁поста ра
▁з она
▁ч леном
▁сдела но
▁неожида нно
▁ситуа ции.
▁не ком
▁P h
▁ме ра
▁ка рт
▁раст ет
▁заклю чил
произ води
ше ,
▁ка бин
▁кли ни
не сла
▁"В и
▁Го ло
▁запад ных
ic t
▁необходи мых
вая сь
- и
▁бу к
▁соревнова ний
▁( не
▁ма сса
▁Са мар
▁ба за
о к
-201 2
▁нако пи
▁" со
▁По доб
за вод
▁T ele
▁прода в
▁требования м
▁клад би
▁велоси пе
▁обстоя тельств
▁соб ственного
▁сре ды
П Л
▁ш ту
э кс
▁б ле
▁злоу потреб
▁"Газ ет
▁Сара тов
бли зи
нием .
.0 6
▁вой ны,
▁Ку бок
ве ра
▁ви дом
▁b ut
куль п
- я
▁очевид но,
- 9
▁специаль ных
▁си лами
ти и,
▁Ц ель
▁рассмо трен
мо й.
▁правоохранитель ные
▁по лета
т ского
▁ма ма
▁мире ,
▁к рови
з во
▁наси лия
▁приеха ли
▁масс овой
▁воскресень е,
тив ном
▁"Д а
▁по яс
аль ным
тиру я
ки :
▁дости чь
▁Не обходи
▁расши рения
▁( У
▁об щая
▁ф рук
▁будет ,
▁прав я
▁« Я
▁свобо ду
ct ion
▁O p
▁на вод
▁Со юз
▁наде жду
▁За щит
-201 3,
ж ского
j ect
ти ться
су .
▁Республи ке
▁се ссии
▁диск вали
тиче ское
▁по езда
аль ную
▁"П а
▁об ма
▁став ку
т ент
▁фай лов
ба я
▁Восто чной
▁С пу
▁конц ов
у ра
/1 2
if e
▁за частую
▁угро за
▁ра сто
▁си льный
▁в ез
▁Лука шенко
▁6 9
▁Та ра
го на
хи ми
▁Яцен ю
жен о
▁квали фика
▁пособ и
▁при вел
▁устрой ство
х ен
▁чита ть
▁ра но
▁руковод ству
▁В первые
нем а
▁A d
▁"Ч елси
▁продолжа ется
▁"Н И
▁h is
▁оцен кам
▁при йти
▁инциден т
▁про пуска
ки н,
▁си гна
▁Ма гни
▁Го лы:
▁билет ы
▁Эр до
чен ным
▁шко л
▁ю ге
▁оскор б
▁пребы вания
▁обнаружен ы
▁эффек т
ству ющих
▁ис ходя
▁т рак
▁# 5
▁в но
▁креди тов
▁президен ты
▁позд нее
▁не вероят
▁Донба сс
▁о ставил
▁опера ция
н ским
сси и.
ж ными
▁доро гу
▁ново му
лен ными
▁извест ного
al th
▁Нава льный
▁кру шения
▁комп енси
▁чет веро
▁Си туа
▁ло ша
▁м/ сек
▁Во с
i ew
ков у
▁про ез
ово куп
▁созда ли
ro id
▁суббо ту,
▁эксплуа тации
▁ф из
▁юриди ческих
ки ",
▁удо стовер
▁Брази лии
▁ли ги
▁100 0
c on
▁Сим феропо
▁называ ется
.0 4
▁зри телей
ча н
▁7 6
▁авто матиче
▁"Газпро м"
▁обсу дить
▁дня .
▁ти п
▁6 2
d u
▁прода вать
▁газо прово
▁от ы
▁ро сту
▁послед ствий
▁про гу
▁показа ния
▁сторон ников
o ber
▁ло б
▁осу ществи
э то
▁# 2
▁зо о
цу ,
▁Ва с
▁дву м
чи е
▁ста рту
▁Россий ского
▁на ступи
N T
▁за ли
▁с мяг
▁П енси
▁бро ни
▁"С праведли
▁исклю ча
/ 4
▁В ин
▁у тро
▁митин г
ка ".
к ",
▁ядер ной
▁На вер
▁топли ва
▁би ологи
нов и
▁со т
k n
▁по са
▁сер де
▁про ще
▁разо ча
▁Евросо юз
▁приня т
a f
▁напря мую
▁стал ки
▁жи д
▁Б он
▁У МВД
-1 1
▁Дирек тор
▁за стре
▁Бо г
▁кварти р
▁при держива
▁Свердлов ской
▁ор ке
▁5 .
▁от рази
▁О бо
ев ремен
то ли
▁от рав
▁себя .
▁региона ,
чи ва
▁ак цию
▁С чита
▁"Ф ор
▁Мерке ль
▁стратеги и
▁свобо ды.
▁be en
i x
тора ,
▁"Л ен
сов е
▁на вы
.0 7
▁января ,
ло ри
во ,
▁ни х.
▁нача лом
▁Чис ло
▁совеща нии
▁августа ,
▁населения ,
▁a d
view topic
▁Руково дство
▁Напада ющий
▁пере йти
▁ри су
▁Сбер банка
▁набра л
▁ва шем
▁Вале рия
▁обяза ны
▁опреде ленные
▁связа н
▁кино те
▁республи ки.
▁фун да
▁останов ить
▁мет ропо
о черед
тельно .
▁оцен ку
▁Депута ты
ка та
ма ра
▁сред не
▁я ,
▁ос лаб
▁доказа тельства
▁бен зи
ва х
▁поли цию
лен ,
▁ци вили
▁уди в
▁уча ствовали
лли н
▁бро са
▁ре цеп
тирова л
торы ,
▁нор мы
▁обслужива ния
▁Ш ой
▁О бы
ге ра
▁мигран тов
▁го лки
▁зна к
▁язы ке
▁референ ду
▁отмети ла,
▁средств .
ша ли
▁объяви ла
▁"З оло
▁выигра ть
▁мест ному
▁кажды м
▁при ся
▁ю сти
” .
▁обвиня ют
э л
ложи ли
▁"Ислам ское
▁По до
вра зий
▁ку бо
oe ing
▁члена ми
▁аппара та
▁(00 :00
▁подраз дел
▁возмо жные
▁Евро па
▁М ут
▁расши рение
▁полу фина
▁обе споко
▁разработ ке
▁образова ние
▁рефор мы
▁вы ходить
▁э стаф
▁Прави тельства
▁кварти ру
▁Ростов ской
▁ма лы
▁С чет
▁и ной
▁ру ку
▁Специали сты
▁А ва
▁Санкт-Петербур г
на циональ
▁"Г ра
▁федера льном
▁воспользова ться
▁иск рен
e ed
▁про яв
▁будет е
▁"К расно
▁Б об
▁ми к
▁реали зацию
▁пове ст
ди е
▁м ерт
▁процеду ры
▁в дох
▁вла стям
ла ш
▁Поли тика
▁следова тели
▁безрабо ти
▁европей ской
▁20 ,
▁суд ов
▁экономи ки,
es s.
▁деть ми
ле ре
▁пор ,
мо нопо
er y/
▁посоль ства
▁помощ ник
▁многочис ленные
но :
▁ЕГ Э
▁са на
▁13 0
▁Пер вые
▁ви дели
▁направ лено
▁пара лле
▁Каза ни
▁медици нского
▁бе ско
▁се вере
▁це лей
ков ский
▁полага ет
▁Ки рги
рова ния,
▁Ру мы
▁суд я
▁пол года
▁обсу ждение
▁инициа тива
▁кон соли
рем ьера
л ",
▁S c
▁б лог
▁ведом ства,
▁I P
▁мен я,
▁гра на
▁о стро
▁"Я н
▁Фран ции,
на гра
▁зна ют
ли ст
▁телефо ну
т ке
▁предела ми
▁"Н о
- p
сса мбле
▁выше ,
ю р
▁внешне поли
▁скоро сти
ж еме
лен ную
▁мар кет
▁Георги й
д ная
▁компенса ции
▁тра м
▁деятель ности.
▁ос лож
▁потребова л
▁B oeing
▁К ем
▁харак те
▁на лич
жеме ся
▁поддержа ли
▁опубликова л
▁на шел
▁фа бри
▁об щем,
▁кого -то
рова ния.
▁орга нах
▁экспо зи
viewtopic .php?
▁поясни л,
ic al
ди тся
▁бое при
▁наде я
▁обрати лась
▁Т ар
▁соотно шение
▁о ф
▁ „
▁Слу ж
▁S port
▁и х,
▁режиссе ра
r ess
й ста,
▁лицен зии
че ства.
▁да т
▁от стран
▁за мы
-201 6
▁ка лен
▁F r
▁высо ких
ver y
▁проходи л
▁вы пущен
▁рекомен да
▁Латви и
▁талан тли
y st
▁бли же
▁нрави тся
▁из обре
▁Ма рина
▁раз дели
▁Ка пел
▁в ек
▁упо мя
▁сни жа
би о
▁шта те
▁(00:0 6
▁региональ ной
ди ю
.0 2
▁«Н а
о ро
ров ич
▁произ веден
▁уточ нил
▁тор мо
▁об лег
▁т руп
▁а стро
▁системы ,
▁д р.
▁Петербур г
▁произ ведения
▁предпринима телей
▁связа на
▁физи ческих
as e
▁насе ление
пи он
▁пока зывает
▁со чи
▁По скольку
▁боеви ки
▁заня ла
ша ,
▁пере хода
▁сред ства,
▁жи лье
▁ж ан
▁Ино гда
▁Ин дии
▁сопер ника
▁убе жи
лен ном
▁прото ко
▁Аб ду
с еть
▁анали за
▁гражда нам
ду ют
▁Герма ния
▁предо стави
▁мона сты
▁от ца
▁гражда нина
▁силь ней
▁мень шей
▁здо рово
▁россий ское
▁прекра щения
▁избира телей
▁впло ть
▁отдель ные
▁механиз м
▁уров не.
▁вой на
▁ба га
▁ле с
▁экспери мента
▁В ес
▁Та кая
▁Дональ д
▁в прочем,
ш траф
▁А ста
▁пов ез
▁обо их
▁за пас
ные .
▁выстав ке
▁отправи ть
ad e
▁с кла
▁Са мый
▁Пер м
▁закон ,
▁живо т
▁язы ка
▁Те х
▁центра льной
▁d o
:0 )
▁ко неч
▁при ема
▁гендирек тора
з овы
че й,
▁ба зу
▁Я ков
▁га стро
▁Р ед
▁И са
▁уч реди
сты й
ч ности
▁незна чи
▁ве ри
ма ли
▁участ никами
▁повто ря
▁экза мен
▁докумен ты,
▁X V
▁отсут ствия
.0 8
▁това ры
г ере
▁экономи ческие
▁Кри сти
▁замет но
▁обру ши
▁Госду ма
ово му
▁фран цу
р хи
▁заболева ния
▁та ки
▁извест ны
▁Причи ной
дж ер
▁Со л
▁за б
лу бы
▁Э к
-201 3
▁выступа ют
нец ,
ня ,
▁серьез ных
▁Ос ети
В .
- d
▁тю рем
п ля
▁Сбор ная
▁экономи ческий
д ка
▁дет ский
▁К ы
▁иг ры,
▁повре ждения
▁и ных
Э Б
И И
▁а льян
▁потеря л
▁военнослужа щих
ста л
▁по гово
▁Вашинг тон
▁автомоби ле
▁в последствии
же ле
▁Ш ев
в ка
▁при ви
ри кан
стей ,
.201 5
▁F ri
емо сти
▁пресс-кон ферен
мо й,
че ва
▁ре спонден
▁похо же,
М К
▁соцс ет
▁у стра
▁пар ка
▁раз говари
▁определи ть
▁недоста точ
▁кри мина
▁горо ду
▁об ре
▁За мести
ве ц
▁посети ть
▁поня ть
▁Гово ря
▁по ж
▁международ ном
▁а с
▁аль бо
▁опера цию
▁за я
▁«П о
▁Inter national
э ф
д емокра
▁пре да
▁про б
▁Д не
▁ба таль
▁м г
▁Алта пресс
9 .
▁случи лось
▁во да
▁выпол нить
▁Москов ский
▁ключе вых
▁F in
▁Dec ember
в ки
▁све то
опас ности
▁понадо би
▁израи ль
▁ин вест
▁M erc
▁Объ единен
▁х ле
фе сси
▁января .
▁избира тельных
▁поддержа л
▁сотрудни кам
▁республи ке
▁предела х
▁фор вар
▁группы ,
▁вы пи
к ен
▁О дним
▁Олимпиа де
▁председа телем
▁Ники та
▁А за
▁вто рую
▁пар к
▁Q u
▁от менить
▁хо ду
▁ри ска
▁ли чного
▁покуп ки
▁каф ед
▁муниципа льного
▁нена ви
▁спокой но
▁С ена
▁Коли чество
1 00
▁установ ки
▁за д
га ют
▁ви рту
я зы
▁Руково дитель
▁пла ты
▁потребу ется
▁19 0
п р
лу мби
▁непро сто
▁трени рово
▁по стави
▁http:// t
▁кон тек
▁деятель ности,
▁окру ге
▁также ,
▁готов и
▁квали фици
' t
ц ом
▁Луган ской
▁Па ки
жно -
▁К руп
▁арти лле
▁испол нении
▁им пера
▁Верхов ного
▁избира тельной
▁Саака швили
- Г
▁К лю
▁футбо льного
▁при у
▁( +
▁августа .
▁Мин фин
▁До ро
8 6
▁полови ной
▁при ходят
▁На ш
▁"П ар
▁из -под
▁пи тер
n al
▁стади он
▁с кульп
▁голо с
▁наоборо т,
▁о сторо
▁журнали сты
жи вает
▁Управ ления
▁S er
▁зам министра
▁по бо
▁други е.
▁от ря
▁Про кура
▁зем ель
▁Ки м
▁по ми
▁фило со
▁Об щая
▁воспита н
▁199 8
▁каких -либо
чи й
▁оцени ть
oun ter
ка к
лов ек
▁предложи ть
▁воз награ
▁в торая
▁все х,
с ную
▁от боро
▁Чем пиона
▁ны не
▁недоста точно
▁извест ен
▁призна ть
▁у год
▁до ктор
ли ться
▁фина л
▁умень ши
▁замети л
▁In d
▁Гу бернатор
▁С ере
▁А нали
▁полови на
▁мя со
▁у ль
▁возвра щения
▁пого ды
▁Влади слав
▁рын ке.
▁ло зу
▁отли чается
д ением
▁Н КО
ни те
ля ция
▁па спорт
▁" ко
▁за вое
▁про зву
тов ые
▁Р П
▁за мени
▁е щё
▁Во й
▁нико му
I M
▁в ступления
▁су ток
▁интеллек туаль
▁по ставил
▁меда ли
▁деву шки
▁бу х
Газ ета
:0 ).
▁"Т а
t ember
▁восстанов ления
▁за по
ся ,
▁мы ,
▁с де
-на -Д
▁18 0
пове дни
▁лица ,
▁А зии
▁вы па
▁Раз мер
. 30
▁про спе
▁законопроек т,
▁До м
▁официаль ным
▁Федера льного
▁поя вятся
▁у держа
▁направи л
▁до ставили
К он
ва нии
сто н
зи ди
▁сирий ской
▁созда ет
▁футбо л
▁перспекти ве
▁интернет е
▁суще ствуют
▁Глав ное
-201 5
▁h ad
▁важ ным
" ;
▁А ЭС
жи х
▁30 %
▁рассматри вать
< /a>
▁акти вы
ля н
▁име ется
▁подозрева емого
▁полуо стров
▁проблемы .
▁каждо му
▁гости ницы
▁Сочи .
ск ры
▁эффектив ность
▁быстре е
▁вызва ли
▁партнер ов
▁Поб еди
ве ду
▁меда ль
▁специаль ный
▁к во
▁Ви це-
▁госс екре
▁о за
=" http://
▁на ци
ков ич
▁заяв лением
▁199 9
▁ско рой
▁диви ден
це ден
▁Жи тели
▁Су ще
▁провер ка
▁во -
▁м ной
с ное
су а
ш ви
мо ж
▁президен та.
▁мя ча
▁попро бова
▁агре ссив
▁подвер г
▁21 ,
▁товари ще
▁не ви
ло м.
▁Aug ust
▁энер гии
▁Фран ция
▁представи л
▁рын ка,
▁# 3
жи й
▁отмеча ется,
▁мо ду
▁поддержи вают
▁согласи лся
▁внутрен ней
та ре
м :
ш но
ли лся
со образ
▁ве щей
▁мето ди
▁подоз рению
▁Sep tember
го роде
▁участ никам
▁верси ю
прово ци
▁намер ении
▁прода жа
▁впере д
▁Ъ- Газета
ена .
▁G u
▁In st
▁незакон но
▁у бра
▁Бер ли
рован ная
▁игра ют
▁ответи ть
шен ко.
И Ч
▁С т
че й.
▁взят ки
▁наи боль
▁восстанов ить
▁о теля
▁Д жу
т ".
▁И сследова
▁России ".
ри нов
▁корпора ции
▁вол ну
▁коман дова
▁Бо й
▁пода ть
▁огром ное
▁Во роб
▁каза х
▁неболь шие
га ре
▁допол нительно
▁террори стов
за ции.
▁сере бря
▁мэ рии
▁облада ет
▁футболи ст
▁виде л
▁говори л,
▁прин ципа
▁за креп
шие ся
▁покупа ть
▁благо устрой
▁оста лась
▁реб ят
▁( при
▁интере сах
▁россий скую
▁и ллю
▁6 1
▁любов ь
▁гра ниц
▁источ ника
▁Пав ла
ку "
▁рейтин га
▁предупре жда
▁един ственным
▁"П ер
▁уточни л,
▁"Се вер
▁са нитар
▁пригово рен
▁о штраф
▁отда ть
▁улица х
▁Неда вно
▁транспорт ной
▁ту ре
▁(2 00
▁измен ение
▁бес пре
▁ка рту
▁Де каб
ко на
ком пле
/ p
▁запре тить
▁отра сле
О Р
▁ка нал
▁При днестров
▁со циали
▁"Анжи "
▁спи кер
▁побе дил
е дет
▁спо собо
▁аре ста
▁ор ден
▁конкре тных
▁добавля ет
п ,
сть я
i ews
г ром
че го,
л та
▁г ек
▁администра тивных
▁Бе ль
/ 3
▁докумен тов,
▁о кре
▁нас читы
▁ш ут
5 5
эф фици
▁дет ской
▁ра ско
▁Ни кто
▁м ,
за ции,
▁занима л
▁пере шел
▁ю жно
▁( от
▁дене г,
▁пожа лова
- Т
▁ФР Г
▁Моск ва,
▁е гип
▁2017 ,
▁16 0
▁следу ющих
- У
▁интен сив
▁москов ских
▁гражда ни
▁дол л.
▁ак ционе
▁расши ря
ете сь
ении ,
▁контроли ровать
▁ча сы
▁способ ствовать
мен т,
▁посети телей
▁рассматри вает
▁удовлет вор
шь ,
▁Поч ти
▁закры тия
ста во
▁заклю ченных
▁прокуро ра
▁диа гно
▁привле чения
▁E uro
▁Об ъем
▁институ т
▁автома тически
▁зада ч
▁Саудов ской
на вли
▁Таи лан
су "
▁колле г
нема то
▁про игры
▁т ка
▁смы сла
▁X I
▁став ка
▁Вме сто
▁обеспечи вает
▁суд .
▁оста навли
▁след ственного
▁любо е
ров ые
▁ш ли
▁"Е вро
▁Верхов ный
▁парт нера
▁дирек тором
▁суд на
▁Януков ича
▁полага ют,
▁жи л
▁Вен г
цен т
цион но-
▁беспо ко
мо м,
▁му со
▁Же лез
▁рын ка.
▁о кра
▁еже дневно
▁д из
▁Челя бинской
▁деше вле
▁дове рия
▁требова нием
▁Доб а
▁шта б
ле вой
▁судь и
▁влия ния
▁солда т
▁во шел
▁Пла ни
▁попыт ка
▁П я
▁над зор
e v
▁те сти
▁произошед шего
▁"М К
▁оказа лось,
ла мента
на си
▁в ни
7 8
▁Сте па
▁нор ве
▁наши ми
▁кри тери
▁A re
▁благо прият
▁представля ют
▁Извест но,
▁сек тор
▁подоб ного
ста на,
мо м.
▁нер в
▁зам главы
▁смы сл
▁распоря жении
ха .
▁приня тие
▁Тур ция
ешь ,
▁Новости "
f er
▁"Ро ссий
▁исследова тель
то способ
▁a g
ро ма
▁за гру
▁направи ть
▁опро шенных
▁готов ность
▁пер ене
▁попа ла
▁Ш ан
▁повед ение
▁спор тивной
▁J u
▁образова ния,
▁информа ционной
▁су ди
um ber
но р
U RL
▁но си
▁проголосова ли
▁компаний .
▁фла г
▁моби льных
▁ло ка
▁Мо ро
▁го ды,
ри з
▁реализова ть
▁" ре
▁Донба сса
▁процен тов.
▁станов и
пара ти
▁Ж о
▁арми я
те ро
ней .
▁c opyright
▁Ро го
▁води телей
▁сле дить
▁в ар
▁комму нист
зи в
▁эмо циональ
en a
▁25 H
▁Подмосков ье
▁Э д
▁агент ства.
▁11 0
▁тра ссе
▁ enc
▁у бор
▁ново сти
▁Фон д
▁с провоци
▁ди п
▁ '
та щи
▁7 3
се в
▁S u
▁L og
▁уда ра
лю ка
▁защи тить
▁СМИ :
▁покуп ку
▁Ско лько
▁Фи ль
▁тради ции
▁Бар село
A N
▁зна ете,
▁о ка
▁мини стром
▁"Еди ная
▁новы ми
▁тран зи
▁ки немато
▁постав щи
▁глав ное,
▁нара щи
тельно му
▁экономи ки.
▁призна ли
▁ту а
стоя ние
т ности
▁Госпо дь
o ot
ма ть
▁вне зап
▁выпол нение
▁Росси ю.
с па
▁ду ши
▁ори ен
▁ л.
тран спорт
▁Н .
▁з вание
▁пиш ут
▁топ- менед
▁информа цией
▁Ку б
ру я
▁Oct ober
- И
▁магази на
▁О С
▁ото зва
Е К
▁з ону
▁рассчиты вать
▁О чевид
▁пар ке
▁«З ени
ну лись
▁$ 3
▁значи т
▁немед ленно
u x
▁полу защит
▁ж юри
з е,
ше ль
▁способ ны
▁клу бов
▁С тре
▁Боль шой
н овой
▁След ствие
▁евро зо
▁вой не
▁арен ды
▁про сят
▁the y
▁трене ром
▁пои сков
▁заня ть
▁О бе
▁уни верса
▁успе ли
▁широ ко
▁болез ни
▁оп понен
та м.
A R
▁замести телем
▁информи рует
▁Мар к
▁уголов ных
▁вызва л
▁преимуще ство
▁анти монопо
▁шо ссе
▁активи сты
▁8 6
▁Со ко
▁мере ,
▁ре ки
▁цен у
▁осуществ ляется
▁Л ев
не восто
▁ле д
▁дей ствуют
▁капита л
▁Адвока т
а ра
за кон
▁возника ет
то .
▁Мо й
▁ред ко
▁СК А
▁бо лга
▁о жи
▁мошенни честве
во й,
▁па у
тов ый
▁пря мой
▁соответ ственно.
▁And roid
ди с
▁"П ра
▁подозрева емых
▁го ре
▁( S
▁Ис па
▁сообщи ло
▁Ожида ется,
▁молодо го
▁террори сти
.201 3
▁чем -то
▁Мин ю
▁Ка пита
▁числе ,
▁в реза
s on
д зе
▁от сле
▁поли кли
▁Ли ге
▁не вер
▁А стра
он ер
▁Ш о
на йте
▁обще е
у да
▁состоя нии.
зи ли
▁собра лись
ти к
▁какое -то
бу ю
▁траге дии
▁Р им
▁партии .
▁компро ми
пи ра
▁кон центра
▁инициатив у
▁"Роснеф ти"
▁слу хи
▁проходи ли
▁пере ми
▁си н
▁Бо га
▁Солн ца
iv ate
▁раз ум
▁п рова
▁е жемеся
о сква
▁ми ссии
▁чет ы
▁навер няка
но ми
▁зада чу
▁ата ки
▁зна ют,
▁На ко
▁установ лена
▁а мби
▁е ё
до к.
ком пании
▁ци р
ему ю
▁физи ческой
▁A m
строй ки
▁модерни зации
en g
▁ок на
▁2012 ,
▁патри ар
▁они ,
▁С ур
чен ых
ова ла
но "
▁ООН ,
са ли
▁едино ро
▁совет ских
ту ра,
▁На зва
▁опреде ля
р ский
▁тогда ,
▁электроэнер ги
▁стар ше
▁Х ил
-А нд
▁заверши ть
▁аналити к
▁пенси и
▁сол не
p g
▁нынеш ней
▁лег че
▁экипа жа
▁сум ме
▁Б ерез
▁Арген ти
да в
▁задолжен ности
▁рабо той
▁инициати вы
▁Генера льный
▁Г К
▁К с
▁официаль ные
▁парламент ских
▁За яв
▁Амери ки
▁об щения
ми лли
▁про езд
▁m e
▁наконец ,
▁въ езд
▁7 4
г "
л ков
нения .
▁F ran
- t
▁футболи ста
▁про ин
/201 5
зи ат
▁ули ц
▁оп ья
▁потенциа л
▁предлож ений
▁доброво ль
▁Послед ние
води тся
▁Л НР
▁согла сен
▁м м
▁1 ,3
▁установ или
▁способ ен
▁помощи .
са л
▁Г уд
▁ис прав
▁револю ции
▁нало говой
# p
ри ке
▁им му
▁переда че
ении .
▁месяца .
▁Росси ю,
▁пода чи
op le
▁ ru
1 ]
▁оказа ния
▁карь ере
▁официаль ной
▁еди ного
че ства,
▁по рой
▁вероят ность
▁техни ческих
▁судеб ного
▁По каза
коле п
ту да
ба ни
нача ль
▁государ ству
▁wh o
▁на по
▁вы го
та ".
▁дере вя
с ным
▁площад ки
▁мест ный
▁C N
▁перегово рах
▁Стани слав
▁коммен тировать
▁лон до
▁муль ти
▁за дума
фе сти
ри ровать
▁установ лено,
▁москов ском
▁Смо лен
▁д нев
▁кра я.
▁делега ции
▁любы х
= 0
▁Г лу
▁спе ци
▁15 ,
▁Замести тель
▁ск ло
▁на пол
▁о пу
▁зе лены
▁ве чера
▁х ак
▁б ак
e y
▁терак та
▁Коро лев
▁здесь ,
▁Ча сть
▁дефици т
жду ю
▁пол ную
▁бере гу
▁у пор
бай ка
▁неиз бе
▁бизне са,
kn own
▁Центра льного
▁Во- вторых,
над зо
▁осад ков
▁ч ьи
▁кабин ета
▁полага ет,
▁попыта лся
▁поли т
▁Это ,
i um
▁Спу стя
) )
▁я ви
▁круп ный
▁самолет ы
▁жиз нью
м ".
▁Ча й
▁Тимо шенко
▁появ ления
ent s
х ла
ams ung
▁Постоян ный
▁вин ова
▁по ставили
би т
ур ман
▁Полу защитник
▁самоу бий
теля м,
▁Результа ты
▁соб рав
▁буду чи
▁разгово р
▁ры ба
▁сообще ства
б р
▁по стоя
▁хо тите
▁понима ю,
- му
тери а
до й,
▁проек ту
▁освобо ждения
ю ми
▁помо гут
ша т
▁голо са
▁Чер ного
▁ шел
▁Ма тви
▁ошиб ки
▁воен ную
▁транспо рти
▁нару шении
лет е
▁рассчиты вает
▁социально- экономи
▁(1 9
▁политиче ский
/ b
▁жи в
▁все .
▁( «
▁ро ско
▁ак ционеров
▁граду сов
▁примен ение
▁европей ские
▁рез она
▁покуп ке
▁с овокуп
▁С разу
▁го су
▁практи ке
▁Ба шки
▁к ня
▁се рию
▁дово ль
▁претен зии
▁Лебе де
a if
▁W orld
▁мили ции
▁вызва ло
▁усы нов
▁судь ба
▁подроб но
▁сист емой
▁ме ло
▁разви ваться
it ed
▁сцена ри
-1 6
▁1 ,6
▁глаза х
▁ un
▁Оба мы
па рти
▁приходи лось
▁Ро жде
▁c on
▁наблю дения
▁мнение ,
▁испол нение
▁в вер
га "
га я
▁зна ем,
▁продук цию
▁ги б
▁карти на
▁Пари же
▁встрети лся
▁результа том
▁сре дний
▁трав ма
пе ц
▁услу г,
▁во пло
▁Б ес
- c
le t
▁электрон ных
▁Ку ль
▁пол ного
▁бес пи
▁И спол
проек т
▁вы бран
▁Донба ссе
▁инфля ции
▁шко лу
▁Украи ной
▁информа ции.
▁зна ю
▁B M
▁ре чи
▁профила кти
▁и слам
▁жерт вами
▁появ ление
▁Серге ем
е "
▁памят ник
▁Европей ский
▁А м
▁кли ента
T ub
▁оби та
▁>> >
▁Ста р
▁По страда
▁все об
ж ут
▁б ер
▁организа торов
▁дав ления
▁места ,
- За
▁H ere
▁мину с
фести ва
▁групп ового
П С
▁пожи знен
:1 )
▁решения ,
▁при мени
▁д ней,
▁отвеча ть
▁самми та
st r
▁сет ей
▁маши не
н скую
ствен ному
▁переда л
▁назна чил
▁перспек тив
ф ото
▁ка ли
▁совет у
з "
прово згла
▁лау реа
ри ти
▁участ ки
g r
▁су до
▁к рово
ot a
°C ,
- н
▁авто доро
▁« Ф
▁Наде жда
▁Мин фи
▁наде юсь,
▁реаль но
гре сса
▁Новости ,
▁И гна
or s
at h
▁закры ть
▁содержи т
та в
▁И ри
▁Эсто нии
жение ,
▁огром ный
▁зда ний
▁цент ров
▁пар тию
▁под ходит
▁ожида ет
▁мир ных
▁фа ми
▁"Рос бал
▁I II
▁Вести .Ru
▁Кра сной
жа ла
▁проте ст
▁дол гов
▁месяц .
-2 5
▁ру к
о ке
▁вид но,
ва ющей
▁те пла
▁Предполага ется,
▁При мер
▁Ша ра
тора .
▁гра ницей
-1 8
к ле
▁18 ,
▁Ассоциа ции
▁до пустить
▁пу ска
▁катего рия
▁мото ци
▁вов ле
▁Б ла
лен .
держ ки
а ми
▁"М ета
ро пера
lo om
▁филь мов
▁изба ви
▁( C
▁фору ме
▁авто ритет
▁недвижи мость
▁коали ции
▁приня ты
▁199 1
ч кой
ul l
▁enc ounter
Г Б
▁ра нее,
г де
▁креди тных
▁при вели
▁запла тить
▁отказа лась
та х,
▁каких -то
т ность
▁и ст
▁генера л-
▁стро я
▁c ont
▁о лига
▁за менить
▁у ка
сты м
▁За й
▁вой ну
▁Север ного
▁Сент ябрь
▁бизне са.
▁пере о
▁Un known
▁занима лся
/ 9/201
▁перед ви
▁ко ме
▁Чита йте
ми л
▁ребен ка.
▁обра щении
ба ми
▁у ченых
▁банков ской
▁использова нии
▁мо их
▁района ,
щен о
▁ско р
▁пол ков
наси лова
index .php?
▁пре сс
▁Ан ка
▁S amsung
▁Ц ар
тельство м
▁звез ды
шен ко,
▁"В се
▁до казыва
▁х ло
▁полити ки,
▁N ews
▁С БУ
▁(Ро ссия
o ol
▁яс но,
▁про хо
▁до клад
▁па да
▁экс педи
▁вспомина ет
▁Обще ство
▁Сбер бан
▁при су
▁совершен ствова
▁Россия :
e ople
▁Ли ва
▁нынеш ний
▁ле к
▁( Е
» :
▁жизнь ,
ik e
▁основ ы
▁контроли ру
▁гол ланд
цу .
▁«Р о
▁лю блю
▁ ·
▁С ту
▁выступи ть
▁добра ться
▁взя ла
▁стату са
▁B ank
▁дру зей
ль ность
▁дру ж
▁пов стан
ч ую
▁Клин тон
▁де ко
▁культуры ,
▁мо лит
▁М С
▁Федера ции.
▁па не
-С и
▁федера льной
r al
▁реги о
▁редак ции
▁поясни ли
ностей ,
▁попыт ке
▁Кер ри
▁"А к
▁Экс -
ми ть
▁обеспе чению
▁семь и,
▁Ла ри
▁полу защитник
▁ожида ния
я х.
▁" под
▁"Газпро ма"
ру с
▁Ju ly
лей бо
т с
▁ва жный
пу ль
u ary
▁возглавля л
л ё
▁Дж она
▁Л ин
▁появля ется
▁па спорта
▁Дэ вид
▁билет ов
/201 3
▁тем пы
чи в
▁Пре жде
▁независи мо
▁а м
▁транспорт ного
да ча
тру д
▁Sk y
▁когда -то
▁и бо
▁изда ния,
▁ней тра
▁тариф ов
▁поли толог
▁Пути ну
▁оке а
ла :
▁по ложен
▁послед нем
▁You Tub
де ц
▁чемпи оном
▁Merc ed
▁Егип та
▁А мур
-1 7
▁игра х
ну лась
▁иностран ные
▁ре форма
▁ли ней
и ло
до й.
▁людь ми
▁уров нем
▁коммента рии
▁пресс- рели
▁R es
▁прове дут
-2 4
▁валют ы
▁ведом стве
▁заверши лся
▁Анаста сия
▁СИЗ О
▁пись мен
▁Людми ла
▁- -
▁= >
▁свя зей
▁сказа ли,
▁круп ного
▁военнослужа щи
▁ми мо
▁случай но
▁Муж чина
емо сть
▁съ емо
▁сель хоз
туры ,
▁га ра
▁14 0
▁дня ,
▁цело м,
▁опти ма
▁а ги
▁хо дить
▁Н ы
лет него
▁регионе .
▁ре шен
▁самы ми
▁пригово рил
ш ков
y le
жи .
▁горо жан
▁звез д
-Анд желе
▁ребен ка,
▁литера тур
▁доказа тельств
вшим ся
▁эле мента
ро ны
▁представ ление
э лект
▁тури зма
▁со у
▁соб ран
▁на зем
▁Националь ный
тии .
▁сами м
▁выигра ла
▁публи ку
▁коро лев
▁Ар хи
▁ x
▁высказа л
▁обеща ет
стей .
▁тра ги
ка ун
▁им пор
loom berg
▁мероприя тие
ст рий
▁км /
▁r es
▁Совет ского
j pg
▁тех ника
▁свидетель ствует
e tt
жу .
▁арестова н
▁не ред
▁про бе
▁Официаль ный
▁" об
▁защи ща
▁по ртуга
▁по рази
▁сдела ла
▁заинтересова н
f ter
▁Б ре
▁расс ка
▁перио ди
” ,
▁Ба ш
▁объек т
р мо
на й
▁побе д
re en
да я
▁созда л
то п
▁со тен
▁основ ного
▁ли чной
м -
▁дета ли
▁высо кую
▁верто лета
▁D aily
пра вок
▁игры .
▁Ро ском
▁уча ствуют
▁Януков ич
ма л
▁пре вос
▁коли честву
п еть
▁от пуска
ш ер
▁"Аэро фло
▁госпитали зирова
до ра
▁Ир лан
ль з
▁Програм ма
▁тури з
▁Ш ар
▁призы в
▁террито рий
во .
▁Э й
▁За пада
▁Ме сси
▁кварта л
ди да
▁владель цев
тиче ским
▁h ow
▁при ходит
▁хозя ева
▁З оло
▁месторо ждения
▁принима ли
▁здоров ье
▁из насилова
▁заяв ку
▁I T
▁обви нили
в ку
▁бо ли
▁жела ющих
▁сю р
▁восстанов ление
а тр
▁современ ные
▁ущер ба
ни н.
▁Мурман ск
-лети ю
▁Со лов
рен ко
▁обо йти
▁свя зя
▁народ ных
▁Информа ционное
▁выро сло
▁само провозгла
▁благо полу
тия ,
д ля
,4 %
▁3 50
▁всему ,
ни чество
▁испыта ния
▁ ступ
▁учи ли
▁собствен ный
▁свидетель ствуют
r c
ени н
▁гра ни
▁действия х
▁Наде юсь,
▁исклю чено,
▁Гос де
▁Тре тья
д ром
▁За м
Кон так
▁ин дий
П о
▁использова ли
▁информа ционных
▁< !
▁ремон та
▁в ход
струк тури
▁d es
▁хорошо .
▁ва жные
▁Ха й
l ic
▁ка б
▁# 4
▁кандида туру
▁работ ники
▁Прокура тура
▁задержан ных
▁спи рт
ма ты
▁владе ет
аль ном
▁8 8
И .
▁вра чей
▁попро сили
▁производ стве
вшую ся
▁у тили
ou s.
тя тся
▁с ете
▁# 6
да ние
тив но-
▁выпла тить
став ка
же к
▁сек торе
стя за
ностей .
▁воздуш ного
АСС "
ed .
▁по гру
ти фици
▁У люка
▁коли честве
▁Го д
ш тей
вести й
▁З о
▁9 00
▁ка нц
ad d
▁район ный
▁продук ции,
▁я й
▁выступа я
▁( или
r on
▁при шло
з е.
▁предлож ением
▁в доль
▁свя з
тически ми
▁Jan uary
▁име я
▁ли чных
т лети
▁Та можен
▁href =http://
▁с ке
▁остров е
▁автобу с
▁поз дно
▁столицы .
▁се парати
▁актив ности
▁зам пред
ро и
зи л
▁пред приня
▁обра тно
▁B loomberg
▁ж ар
in t
▁К ва
▁от пуск
▁сообща лось
▁П ента
▁посе ща
▁Ива на
▁обо рот
▁у хода
▁ко роб
▁з везда
ли ган
▁под ходя
▁Хо дор
ль ская
▁К ей
И М
▁авто ров
▁стать я
▁боепри па
▁силь нее
▁T u
▁одно зна
▁7 1
г ов,
▁Федера ции,
DA TA
▁действу ющего
лений .
▁встре ч
I N
▁"Ба ва
▁в близи
▁Ю найте
▁Бы ли
▁бо рт
▁спо н
▁На сколько
тиче ском
▁Да нии
▁у лич
▁Защит ник
▁куро рт
▁ ro
▁2014 ,
▁системы .
▁предвари тельной
▁Глав ного
п си
ев ского
рован ным
▁напад ение
▁патри о
▁сред няя
▁долго е
▁за га
▁оказыва ть
▁запи сь
▁ин спе
▁прекра щении
▁памят ника
[ C
▁о чка
▁сва дь
▁мо е
▁Наи более
▁Ниже городской
▁использу ет
▁Новости ".
▁Але ппо
▁Сер дю
▁ата ку
т :
▁деле ,
▁Сно уден
▁Госду ме
ров ку
▁близ кий
▁затра ты
▁Дэ ви
ш ки,
▁про ходя
▁суд ,
▁M an
куль тур
▁зоо пар
б ак
▁предложи ла
▁подготов ка
ши ли
▁отправи лся
▁о ча
▁ле жит
▁к е
▁прав да
▁О каза
▁высо ким
C ,
▁ко эффици
ни н,
разу ме
▁тща тельно
▁лег кой
▁жало бу
ia ,
Е Д
ро й,
▁Законо да
▁на ка
▁обнаружен о
▁юсти ции
▁Пет ров
ня ют
,7 %
ки й.
▁банков ских
er r
▁на логи
▁простран ство
▁ресто ран
▁Р ань
▁ги дро
▁серьез ный
▁выдели ть
▁гру зи
▁уви дел
чи ком
▁pr ivate
се гда
▁дру же
▁рубе жо
▁сво евремен
▁бю ллет
▁сфер ы
] ]>
▁специаль ной
▁авиа ции
▁подс чета
▁раньше ,
▁Мат ч
▁про чита
▁защит ника
▁Пути на,
it e.
▁желез ной
▁ев рей
▁" го
▁называ ет
▁заг ряз
▁Су пер
в уд
▁смо жем
▁учиты вая
▁об я
▁оконча нии
▁использу ются
▁А бра
ст ят
▁мг нов
▁пак ета
жно ,
▁( об
▁нов ин
▁полови ну
▁номина ции
▁Фран цуз
▁не ре
▁юби лей
▁По хо
▁на тура
▁m 2
[C DATA
се л
▁работа ющих
▁постанов ления
▁культур ного
▁по совет
▁<! [CDATA
▁решение .
▁B e
▁об мена
▁поступи л
▁Конститу ции
- Э
про куро
▁форма те
ess age
▁находя щихся
▁с хва
▁по у
▁народ ов
▁гос за
▁сохран ения
▁нов ей
▁ко фе
тор .
▁требова ние
▁Мурман ской
▁И еру
▁право м
▁за с
▁моно поли
b r
▁процеду ру
▁40 %
▁фра г
▁ка ме
▁посети л
▁суме л
▁мета лли
▁подвер га
▁объем ов
▁километ рах
п то
▁проведен а
▁пользу ются
▁" мо
▁ри ски
▁разме ра
▁наблюда ется
/9/201 7
▁Од но
▁со ю
▁необходи мую
я )
▁ис ход
▁совмест ной
▁<![CDATA [
ст ен
▁заклю чен
▁Му зы
▁зна ть
▁об л
ко сти
▁информацию ,
▁партнер ы
▁"Б у
▁реда ктор
▁прокура туру
s o
пе до
▁Твер ской
▁M ail
▁Зна чи
▁цен ных
e /
▁бал ло
ж у,
▁кон тр
кова ть
▁космо нав
▁про писа
▁Пло ща
за цией
▁И зда
▁совет ской
▁улуч шить
▁причаст ности
▁( 9
▁карь ер
▁Коман да
▁12 /9/2017
▁уро жен
▁рей с
▁непо да
▁бума ги
▁вла жности
▁обраща ться
▁во йти
▁многи м
▁ново год
▁опровер г
yst em
▁Сав ченко
си ло
▁По жар
▁жи лого
▁кли ент
еха ла
▁челове ку
▁"Т АСС"
▁угро зой
rem ul
▁стать ю
ль ше
▁"Т ор
ен ное
▁при дет
▁ш ка
▁о пе
▁2 -3
▁Крем ля
▁статьи :
ка м.
▁Нов горо
▁само му
тора м
▁запре та
▁писа тель
▁оказыва ется
доро ж
▁соответ ственно,
▁ветера нов
▁9 6
▁отмети в,
▁по меня
чу .
▁полуо строва
▁( M
▁вид ят
▁па ри
▁де бю
▁рас ста
▁вторы м
па ри
▁Ю жно
▁на бор
▁активи стов
▁Европе .
▁соответству ющих
▁ла гере
▁следу ющим
▁ря ду
▁вы ходе
▁Ситуа ция
сто го
▁О кса
▁специали зирован
▁арти ст
▁производи тель
▁мощ ностью
▁хоро шая
▁оши бо
▁италья н
c he
строи ть
з дра
▁люб ят
▁И .
▁о кажется
ро ли
▁m y
сс он
ного .
▁внутрен него
▁сх ема
▁Большо го
▁Ро нал
▁Суд я
до к,
▁У станов
▁BM W
та ция
▁н рав
▁позволи ть
▁y ear
▁представ лен
▁МВД .
ди я,
▁информацию .
g l
▁ма сло
▁популяр ных
ди лся
сс кого
▁По ртуга
▁се л
▁раз ным
▁освобо дить
К Р
▁актив ность
▁постав ку
y n
▁опас ности
▁футболи стов
▁В ьет
▁рын ке,
му ля
▁По нома
an ce
▁защи щать
▁МВД ,
- три
▁Л ы
▁8 2
▁фа ши
▁дер жать
▁За по
▁преде лы
v el
lo ad
▁извест ные
▁Миха и
▁Mar ch
▁процесс у
▁помога ть
▁теле визион
▁24 ,
▁соцс ети
▁Ю ри
ющи х,
▁осуществ лять
▁изу чения
▁Here :
▁мо тиви
:3 .
▁понима ть,
▁Коре и
▁аэ род
да ра
▁помога ют
,1 %
▁ст ена
▁b u
re at
▁доб ры
▁вы жи
▁кварти ра
▁уголов ной
▁вопро сом
▁w ere
▁Роб ер
▁Ка лу
▁страхова ния
▁направ ление
▁( P
▁вы вести
▁7 9
нен ко
▁специаль ного
m itt
▁Александ ру
ты "
▁С обра
▁ри сков
▁Навер ное,
▁граждан ских
▁представ ления
лен ко
един ение
ва ли,
▁заво де
з не
▁зави сеть
пра ве
▁табли це
▁де лом
▁неком мер
▁составля ла
стя ми.
▁Ро ст
▁Ту льской
▁помощь .
р э
▁ба ш
& p=
С Ж
▁договорен ности
▁гек та
▁разработ ку
ad a
ствен но-
▁вос станавли
▁Кали фор
▁Ви ль
▁освобо жден
▁го сте
▁com p
▁вд вое
▁при каз
▁в вод
▁спортсмен ы
▁выс шего
▁подчи нен
▁себе ,
▁п ан
▁плате жей
▁http:// f
▁основ ная
▁Дональ да
viewtopic.php? t=
▁учеб ных
▁ак ва
▁работа ла
▁4 ,5
л овой
▁к м.
▁владель ца
ова н
▁Ви део
ди ло
,3 %
▁реа нима
▁указыва ет
▁педаго ги
▁оппози ция
▁вы звать
ко го,
▁Ж а
ня ми
▁жало бы
ло гов
▁исследова ние
▁ка ждая
▁та кому
к су
ров ке
▁договори ться
ству ющие
до бы
- Ш
▁ре структури
ord er
▁( A
▁ти ра
i er
▁8 3
▁не благо
S .
зна ча
▁дет ские
сти ли
▁под разуме
▁магази нов
▁или ,
▁име ющих
▁Ар хан
▁докумен те
ста на.
▁алкого ля
/201 4
▁появи ться
▁Ю го
рова ть,
▁ситуа цию,
▁у ходит
▁( е
▁сна б
remul ous.
▁обсужда ть
net /forum/
▁ка ждую
▁ранения .
ов ую
▁бокс ер
▁обви нитель
же в
▁хра ни
▁за лог
▁отправи ли
g h
▁произо шли
▁Европе ,
▁территории ,
▁да та
▁вели колеп
▁" ,
ды "
ч ки.
▁действу ющих
Н Е
сла ви
▁Фран суа
▁референ дума
ере мет
▁болельщи ки
▁гон ки
▁жа лова
а у
ol og
▁Ри о
▁бюджета .
▁the ir
▁J ul
▁принима л
▁задержа ния
an n
том "
▁и .
г ов.
И С
▁ро стом
▁заклю чении
▁пробле м,
▁движения ,
▁дене г.
▁вступи л
▁офи с
▁199 2
▁меха ни
К .
▁устрои ли
▁И спо
▁разно гла
ко ман
▁Хар ьков
ска ла
▁"Ре а
▁внима тельно
▁уди вля
▁Ди а
▁согла шений
▁Информа ция
▁ува жа
▁позволи ло
▁россий скому
▁с пло
▁откры тии
▁ту ропера
▁о ру
▁основ у
▁Ду мы
▁ищ ут
▁пере жива
▁нес ет
▁зако на,
в ена
▁Ком мента
▁случа и
▁В скоре
▁Запад ной
aif .ru/
▁специали стов,
ст ет
▁Ко з
▁программы ,
? !
▁про пусти
▁E d
▁http://t remulous.
▁по де
▁16 ,
net/forum/ index.php?
▁отмен ы
▁О Н
▁23 ,
▁m ore
ров ы
▁показа теля
▁по правок
ди ци
▁Ста мбу
▁обу слов
▁W e
ing s
▁использу я
▁фили ала
▁до м,
цен тре
▁Вар ша
ен ная
▁аг ро
дри д
▁1 ,
▁выпла т
▁Мо и
▁пос ред
▁9 9
▁взгля д
▁Жур нали
▁( $
▁полу тора
▁мо л,
▁людя м,
▁холо д
про мышлен
▁увер енно
▁подроб ности
▁пож ерт
▁"Ин тер
▁http://tremulous. net/forum/index.php?
де ся
▁Ро ссель
пи ты
▁конкурен ции
▁огне стре
▁те ме
▁тор гового
▁каж ется
e р
▁доро гах
▁достав лены
▁лиц ом
▁буду ще
▁госпо жа
▁Ме ль
ст ере
ев ро
▁на сла
Н .
▁По со
▁та ба
▁ме га
▁[ 1]
▁хран ения
▁h er
▁уча ствовал
▁с бе
▁ин декса
▁Само е
▁много кварти
▁природ ных
▁дево чка
ф те
ща ются
▁помо гли
or y
▁защи та
па ,
▁из ы
га да
▁снизи лся
▁гуманитар ной
▁М ГУ
▁гео графи
▁четвер тый
▁разно образ
ка я,
▁П ово
°C ;
ко мен
ст ря
▁представля ть
▁еди ной
-лети я
▁ас фаль
▁Д нем
▁Клич ко
▁места ми
▁голосова ние
▁автобу са
чи лись
▁on e
▁раз гро
стан ово
▁зарегистри ровано
▁ко декс
▁дене жные
▁Пу сть
▁заверши лась
ов "
▁дела ли
,6 %
▁нару шением
▁обеща ют
▁"От кры
ча не
▁образова тельных
▁лич ности
▁люби т
ле с
▁обще ственный
▁Про да
,8 %
/0 7
▁организа ций.
▁Слова ки
▁улуч шения
ла ри
▁ду ющий
▁Пути ным
▁русс кие
▁потреб ления
▁"С Э
▁неред ко
▁обви нил
ре кт
▁нельзя .
▁слов но
▁расши рен
▁столкну лись
тив ными
▁много ,
▁автомобилей ,
▁экономи ку
еди нок
▁На й
▁R i
a w
▁о стры
▁раза .
вшем ся
нов ы
▁+ 0000
▁соревнова ниях
▁о здоров
▁коммента риев
▁Герма нии.
то й.
▁ро сы:
▁T oy
ли во
our nal
▁вет eр
▁Ленин градской
▁" чер
▁Финлянди и
▁Нача ло
▁D LL
п ти
ли ц
▁бе ло
ir st
т ными
▁напомни л
▁те ст
▁проис хождения
▁Рань ше
▁за тро
▁фло та
ч ени
щий ся
▁нео преде
▁По жа
н ет,
▁на лади
▁ве л
▁провед ению
▁информа ция,
▁недо пусти
▁суд но
груп пы
▁обще жи
▁х рам
S ,
президен т
ри фа
▁мо ги
▁C ap
▁как ,
▁показа телей
. 48
▁особо е
▁г р
ско смо
▁пись ме
▁вариан ты
те с
▁одержа л
▁С ен
▁пере работ
▁в реда
▁под контро
▁"Локомо тива
! ",
▁Д ня
▁зай мет
▁C on
▁Соединен ных
▁сти ле
▁вчера ш
▁пациен тов
не "
▁микро рай
▁преми ю
▁серви с
f o
▁предъяв лено
ur s
▁вы вез
▁оружи я.
тя ги
ун к
▁ста вок
▁раз дра
ди кт
▁лозу н
▁масс ового
an s
▁а деква
▁"Ъ ".
т ник
▁действи я,
er m
▁a pp
▁фаль си
▁то чку
▁коммер ческих
▁разработа ть
▁не рав
▁противоре чи
ба лан
три т
▁ба ра
▁региональ ные
▁отстав ке
▁П ров
/0 1
▁наш ему
▁I D
▁ак тера
В АЗ
▁внима ние,
▁при ез
▁Май да
▁«С парта
▁москов ской
▁Про дол
на м,
▁органи зу
▁внес ен
▁вопро сов,
▁декла ра
▁об щи
▁конкурен тоспособ
ри с
▁получа ется
▁пого да
▁ди визи
▁фер мер
▁Б ере
▁або нен
▁объяв ления
вшее ся
ска зу
▁заяв ки
▁St re
▁пу сты
▁Ско рее
▁процеду ра
▁Бы л
▁карь еры
du ct
▁мор ской
ee k
▁про анали
▁дом ов,
произ вод
▁ка нику
▁19 80
▁состави ло
вы м.
▁погиб шего
▁види м
▁Жи ринов
▁ав стра
▁Чи нов
▁тяже лом
па ти
▁Полицей ские
▁и р
▁Ви ди
ман ,
▁приобре та
ен ность
ц ов,
▁объ явля
▁обой дется
▁при да
рот вор
ката стро
ста р
▁да ла
▁Ан ти
▁ре став
sc he
▁так .
▁Бо ло
ды ва
c k
▁заработ ной
▁помо г
▁деятель ностью
▁исполнитель ной
▁ру х
▁T rans
▁егип ет
▁искус ств
▁отстав ки
▁С мир
▁митин га
▁пар ень
▁француз ского
▁набере жной
em ent
ки на,
▁Е ме
▁Спа сибо
-С порт
▁Путин ,
▁не хва
,2 %
▁призна лся,
▁тюрь мы
▁направ ля
▁хоро шей
▁техни ческого
▁Коми тет
- О
▁си льные
▁брита н
▁на сы
на :
▁мо ди
▁вопро се
▁ду х
▁колле га
▁Т от
нь ,
▁мероприятия ,
▁"Челси "
▁Сегодня ,
O R
ль ности
ха й
▁материа ла
▁Цент ро
▁не и
▁замо ро
▁Во дитель
▁по год
▁Пер вое
▁Подмосков ья
▁почему -то
и ми
▁студен ты
▁вз лет
▁диа па
▁инстру мента
▁Э л
▁отече ственных
▁во рот
▁Капел ло
▁Тюмен ской
▁ходатай ство
▁зна ния
▁"Локомотив "
▁обвиня емого
▁m essage
lo b
ar io
▁ра ды
▁проек тов,
!! !
▁реги оны
▁ры б
▁отда л
ре б
▁Нов город
▁попыта лись
▁изо ля
ет ра
▁обслужива ние
▁мастер -
▁го ском
▁мест ным
▁ва ших
▁две ри
▁за чет
▁из вле
▁метропо лит
ме ся
▁фак ты
▁пожалу й,
▁199 6
▁Ц РУ
▁27 ,
▁Восто ке
вы м,
▁люди .
▁man y
▁говори ть,
▁кораб ля
▁магази н
к лу
▁т ремя
▁Ма го
▁Бай ка
фи м
▁тра ссы
▁м не,
▁есте ственно,
▁за пуск
с каза
▁перво нача
▁приобрет ение
▁Исто рия
▁сюр при
▁199 7
▁я сно
к ".
▁участ ник
▁Ар с
▁мощ ности
▁сыгра ли
▁победи тель
▁от нес
гу ш
▁И знача
▁веду щий
зо ло
▁бое вой
▁метал лу
▁гиган т
▁# 7
▁Про тив
▁нео сторо
▁сезона .
▁готов ит
ской .
▁чинов ник
жи ссер
▁Д ю
▁Ве чер
П Ч
▁упа ла
▁во ды,
▁ры бо
▁5 %
▁организа цией
▁ре пре
▁оцени л
теля ми,
▁ст ены
▁контро лем
▁Э ту
ра до
▁преодо ле
ком пания
▁студ ент
▁ста ро
▁Reuter s
▁19 ,
▁женщи ну
та х.
▁игро ком
Г К
▁Азербай джан
▁категори чески
▁уча ствова
W W
▁Д жи
.201 4
▁не от
▁подготов ить
▁гри п
на ",
▁ли к
лов у
▁встрети ться
▁g o
б юджет
▁ре шено
ar l
▁пов лиять
▁интере са
сова я
кур с
▁хозя ев
▁свобод ной
▁аппара т
▁выра жении
▁фору м
▁заня ли
▁степ ень
▁слов у,
: 6
ни о
т ового
льги й
▁разобра ться
ва нием
▁Пресс- секретарь
ни на,
▁секре таря
, "
ри ей
▁G r
▁до пущен
▁У читы
▁властей ,
▁объ единен
▁Y ork
,9 %
▁сиг нал
▁са хар
▁ду мы
▁ли ния
▁комфор тно
▁орга нов,
ста би
▁дизай нер
▁ве ка.
▁Австра ли
ва и
▁"Лу ч
at er
▁Дру гой
▁Роб ерт
▁пол ное
▁то п
мен ова
пла тель
ду ман
▁оч ков.
▁Е лиза
▁C or
▁футболи сты
ва нию
al t
▁при зывает
я м,
▁Анато лия
▁Си лу
хи м
▁европей ского
▁А виа
▁позволя т
пре ки
▁Мир :
▁возглавля ет
▁администра тивного
ру "
ст ный
▁спец на
▁зако ны
▁профессиональ ного
▁уда ется
▁Обще ственной
мен е
▁проспек те
жд ений,
▁титу л
▁го ри
▁1 ,4
н "
кри зи
▁сказа ли
ница ,
те ров
▁пере ры
▁се рий
ш .
i y
▁Т рен
П О
ic a
тро й
ag en
▁ста вит
▁за му
▁s u
▁не жела
▁ап те
▁" во
▁авто ра
▁мирово м
▁199 4
▁зво н
▁201 9
▁особен ности
▁способ ность
it s
си ,
▁«И з
з вез
▁поздрави л
is c
▁М М
▁проис ходят
▁предостав лении
ан ов
▁финанс овый
▁мень шин
▁под нять
▁тех ники.
▁чинов ника
▁Tim es
▁уров не,
▁субси ди
▁оператив но
с ет
▁во т,
▁конкре тные
▁дево чки
▁Мин ске
чи лся
▁расши рить
▁сх емы
▁Про ис
for m
▁возвра щение
▁« Ч
▁O n
▁спорта ,
▁по о
▁их .
▁столи цу
▁крат ко
ме ль
▁состоя тся
▁руб ль
ру ющих
▁ву зов
▁достав лен
де лец
ствен ность
▁ли нию
▁На с
▁о тель
▁"В Контак
▁ситуа цией
▁брита нского
▁ле гали
▁Уда ль
▁заяв лений
▁не в
▁правонару шения
▁по йдут
▁оцен ка
▁(2 )
▁воспо мина
▁# .48
▁#.48 #
l ed
▁Ф К
▁ху же
▁секу нд
▁налог овых
/201 2
▁s he
▁циф ры
▁возмо жным
▁праздни ка
▁post s
▁у вле
▁подписа ния
▁8 7
▁ве сен
ца ми,
▁инвесто ры
▁Спе циаль
щен ных
ей с
доб ро
▁госс лу
▁уви дели
▁В ТО
ня ться
▁писа ли
▁Ф ри
▁Может ,
ж мите
▁бух гал
▁При меча
▁m in
▁6 .
ссор ти
▁профессиональ ных
▁предусмотрен о
▁прем ье
▁урегули рования
▁Суд ья
▁кра ю
▁Бе ло
▁Аб ха
ющи х.
t o
тин ской
▁Merced es
▁реали зация
▁са ха
▁ядер ного
▁Од новременно
▁капита н
▁Казах стане
▁упра ж
! »
▁заве ри
▁у то
▁"Бо ль
▁предприя тий,
щего ся
▁простран ства
зи и,
▁соответ ственно
▁маши но
▁счасть ю,
▁У р
NT ER
s )
ово й.
▁Серге ю
I T
▁кар дина
▁добави ть
b g
▁многочис ленных
8 7
ро жден
▁сотрудни честву
х э
▁п ье
▁s o
▁добави в,
▁задолжен ность
▁ли чные
▁откры т
▁бли ж
▁Александ ром
▁кни га
▁предпринима тельства
▁0 ,5
слу ши
▁выбо ров.
▁ли чный
▁бра тья
▁(С ША
▁прав овой
▁земе льных
сть ян
▁истории ,
▁ви жу
▁Го ллан
▁ито г
▁ви на
рово к
▁прош лый
- B
▁те мы
▁запре те
▁ва кан
▁транспо р
▁пря мых
та :
▁17 0
▁s rc
▁вы пусти
al k
▁Совет ский
/201 1
▁актри са
▁Азербайджа на
▁Ку зь
▁при став
▁тор говой
▁Собя нин
кова л
▁еже днев
ваться .
вич ,
▁Арм ения
▁ве дения
▁ближай ших
▁Амери ке
▁церемо ния
▁ im
▁на с.
▁А ни
▁оза бо
▁школь ников
▁недели .
▁управ лять
▁находи лась
ру ющие
▁сдела ет
▁Шве ции
ч ков
▁юго -за
▁не ве
▁взаимо отно
▁Фе дор
▁рабо т,
▁Ро са
▁д ре
▁Е вразий
▁мо нет
▁(00:0 7
д во
▁охра не
▁более ,
▁бума г
▁са мую
▁высо ком
▁писа ть
▁Медведе ва
▁Com p
▁ак каун
/0 5
▁ф у
▁ано ним
▁выбо ров,
ов и
▁наркоти ков
ре сур
▁супру га
▁кро сс
▁так :
▁с кам
▁не го,
▁Основ ной
▁"С овет
▁с экономи
ер ьез
ши ,
▁электроэнер гии
▁обра тить
▁Восто ка
▁нынеш них
▁Констан ти
▁ги пер
▁ри ску
▁Д ер
▁пре зиди
.201 6
▁соответству ющий
▁посо л
▁облига ций
▁креди ты
▁проводи ли
▁с работа
v est
▁В ИЧ
▁одна жды
га на
azazazaz azazazaz
д жет
▁Пар тии
▁присут ствие
теля ми.
▁Ал ла
▁расположен ы
▁ре форми
▁принци п
по рти
те л
▁Ба ша
▁n umber
вен ту
▁непода леку
▁Ру слан
ло ге
▁Евросо ю
▁Доку мент
▁Н ур
▁менедж ер
▁жур нал
▁руководи телем
▁возмо жной
▁Ме сто
▁фор мули
▁при ка
I P
▁же ле
ва л,
▁дво их
▁о на,
обе лев
ра я,
▁собы тие
-201 7
/0 3
▁зи мой
▁«М ы
▁просто й
▁предприятия ,
би л
▁получи лось
ч ре
▁заве ду
▁крити ку
▁Ка б
▁p eople
кра ина
▁преступ ления.
▁На ры
▁расс е
▁ров но
▁американ ским
▁техни ческой
▁разме щение
▁преимуще ственно
▁Ме ж
▁К об
▁С ей
▁25 %
▁бесе де
▁пода ли
▁"С ан
▁госпо д
сс кий
▁увеличи лось
▁совер шить
К Б
мо к
▁смо тря
▁им пе
▁S end
▁проек та,
▁Apr il
ра д
▁нужда ется
▁ниж ней
▁Авто моби
▁страна х,
▁а гра
▁предостав ление
▁ста вить
▁много .
▁распоря жение
▁се рия
▁больницу .
▁но сит
стоя щему
▁победи телем
▁1 ,1
▁ст ер
▁написа ла
▁па виль
▁C he
▁си лы,
▁увеличи лся
▁стратеги ческих
рован ное
▁гор но
ля "
ка нец
▁решения .
▁брита нской
▁сейчас .
▁но чи
▁Сиби ри
▁А пре
▁спор тивные
▁"Ф АК
ing ,
▁выде лено
▁яр мар
▁Ю р
▁основа ний
▁А Н
▁подтверди л,
▁влия ет
а с
▁T r
▁ма не
▁взрос лых
▁Доба ви
▁ста циона
пет ров
▁K ASE
f t
▁«Д инамо
жен ной
▁еди ный
ти е.
▁бан ков,
▁пози ций
▁кварта ла
▁производи тели
▁часов ,
▁лю бую
▁подозрева емый
▁ра ду
▁распростран ения
at a
▁сообще ство
п ремьер
▁**** **
жа ться
льно -
▁Ин доне
▁Со ло
▁Ко лумби
▁обще стве
▁продук ции.
▁мер ы,
▁( к
▁молоде жной
лю ,
▁фа мили
▁подписа ть
▁пере вести
▁аэропо р
▁погиб ши
▁форми рование
- Ж
▁готов ятся
▁опубликова н
▁сни жению
▁со ч
( 1)
▁да ты
▁Са мые
▁пользова тели
▁месяцев ,
▁тыся ча
бо ров
E S
/0 8
сшта б
▁отмен е
▁специ фи
▁объ емом
▁заклю ча
▁справи ться
▁откры ты
йте ,
стя ми,
▁интер нета
▁бан ке
▁чу де
▁проек т,
▁посред ством
a ut
▁17 ,
▁совет ского
ву ,
на р
▁фа вори
▁ак ци
▁са д
▁высо кая
▁о писы
▁" бо
ваться ,
▁А ла
▁Но ябрь
▁эта же
▁Ж ене
▁a fter
▁госпитали зи
I n
▁пострада вши
мо де
▁выступи ла
рова нием
▁поме щении
▁исполнитель ный
▁оружи я,
ро ,
▁ев ре
▁казах стан
▁рез юми
▁до су
▁победи телей
▁элект рос
▁"Роснеф ть"
кос нов
▁8 4
▁До пол
чи ков,
▁мину т,
зу .
▁това р
г коми
▁Егип ет
▁п ровали
▁данных ,
▁архитек тур
ца ми.
▁"Е в
то й,
▁возможно м
▁состоя ться
▁сооб щению
▁кни гу
▁фили а
л кну
▁# 8
▁удо сто
▁Вести.Ru :
▁ле чеб
▁раз вле
▁отсут ствии
▁русс ком
▁му сор
▁сан ти
▁запрещен о
▁запре ща
▁спон со
.d ll
ть ев
▁созда ны
▁предыду щих
▁Григо рий
▁на брав
▁игро ков,
ско н
▁ле ст
▁Нью-Йор ке
сти ческого
g all
▁то т,
цион ному
вает .
▁вопро с.
▁сказа но
▁под лежа
▁Па м
▁огром ные
▁Васи лье
▁вы но
▁спектак ль
▁Сочи ,
▁пере у
▁средства ми
▁вдох нов
▁под лин
▁ин стан
ви з
▁(1 6
▁кор зи
▁И талия
▁фунда мента
▁пре образова
▁иностран ным
▁199 3
▁тео ре
▁о пыта
▁Крем ле
▁Росси ей.
▁В аль
во й.
▁минист р.
▁ИГ ИЛ
та ж
▁Ка и
▁w ould
▁рас писа
▁снизи лась
▁за вы
- ю
▁мет ров,
▁сирий ского
▁бюджет е
▁Ста ли
▁интерес но
▁арен да
= '
▁ко ти
▁руб ля.
▁шко лах
▁вопрос :
▁соб ак
▁скаж ем,
▁Ар те
с ман
▁у ходи
ская .
▁1 ,8
▁масс овые
at t
▁потеря ли
▁одоб рен
▁максиму м
кра тный
С Р
▁И сла
▁и ные
▁посмо три
▁налого об
▁поясни ла
▁вы ставо
▁В ся
▁т вит
▁уров ню
▁пи ро
▁агент ства,
▁чув ство
▁Чу ва
▁специали зи
▁ка кими
ar i
П .
▁уточ няет
▁место м
▁гаран ти
▁сообща ется,
up er
▁тем па
ц вета
▁О л
▁Фран ции.
▁Ма хачка
▁сохран ение
ма ни
▁ба лет
ак ци
▁оста нутся
▁политиче скую
▁но ги
▁эффектив но
▁с .
i ence
▁обра зу
▁пря мые
га рд
▁собра ние
▁меся це
▁пеналь ти
▁тра сс
▁глав ные
▁настоя щего
▁коле ба
а ну
▁согла сия
▁при зем
▁на вига
▁гово рю
▁анти террори
▁Управ ление
▁принадлежа т
ми "
▁обыгра л
ла ден
бе ,
▁заинтересова ны
тель ского
▁ру ко
▁Ма ло
▁Не у
▁Й ем
▁претен зий
х ",
2 00
▁Буд ет
▁широ кий
▁управля ющий
гра фа
▁обрати л
▁специали ста
▁80 %
▁помощи ,
▁анали тики
ст ских
▁P re
▁тру бо
▁I NTER
▁цен тром
▁назна чение
▁понима ют,
▁нефте газ
▁поверх ности
T M
не ва
▁вов ремя
ra w
▁Ц а
o h
▁движения .
▁дума ть
ни циа
▁автома ти
▁обрабо тки
▁Интерфак с.
▁пере хва
▁упла ты
▁Следова тели
▁ма сла
▁рекомен дации
▁лик вид
▁A ll
▁шта т
▁американ ском
▁Рос ста
▁(Россия )
▁кру га
▁соответству ющим
▁мест ,
▁выво ду,
▁верну лись
▁инду стри
рова лись
▁содержи тся
▁телеви зо
▁музе е
▁Reuter s.
▁Боль шая
▁спец опера
▁развития ,
▁Ка ре
▁Куб ке
▁иг но
▁За байка
▁кра я,
! ".
▁прод лится
▁Ав гу
ле том
▁А С
▁устрой ств
▁Ко с
▁бан ка,
▁россия н,
▁Оста льные
▁мо ста
▁199 5
Ru "
▁ста рей
▁проек тирова
▁A ss
▁ки бер
у по
▁него .
▁эк зем
ж ский
▁конеч ном
▁9 8
▁не ис
▁10 5
▁Ны неш
-201 8
▁Ос нова
▁за горе
▁"Интерфак су"
ic es
▁политиче ским
▁получа ли
▁во ды.
дца ть
▁сде лок
про петров
▁п ев
▁гор до
▁Позд нее
▁времен ного
▁одоб рил
▁при ложения
бу ,
ль д
▁ограни чений
p t
сс ен
ig h
▁прочи х
▁раз влека
▁Воору женных
▁Г роз
▁аэ ро
▁план шет
▁рекла мы
Ф Р
▁примен ять
▁Ар кти
▁обвиня ется
▁совмест ных
▁Оп пози
▁нес част
ow er
▁тера кт
ша .
▁мир ного
▁стра жей
▁продю сер
▁мероприя тий,
▁подраздел ений
▁Викто рия
▁буду щих
▁г вар
▁сообща ет,
▁условия х,
ди ни
▁владель цы
@@ @@
ст е,
▁побе дить
▁вырази ли
▁мест .
▁группы .
▁Ра зу
▁нау к,
▁поня л,
прави тель
▁мик роб
▁введ ении
▁город ,
▁серви са
де шь
▁XI X
▁слу жа
ен ным
▁видео за
▁сто й
вает е
▁ op
▁кон вер
▁О ве
▁от стаи
▁Д ра
▁устойчи во
гра да
▁кино фестива
▁Иль и
▁Хоро шо
▁э лит
▁выступи т
▁8 9
▁со стяза
ли сты
▁пере вер
U S
▁в низ
▁А ТО
▁автомобилей .
▁во ссо
▁де л,
▁чув ства
▁появля ются
хо й
▁"Со юз
news /
▁го мо
▁ски д
▁переда ны
▁опреде ления
ха ни
▁попу ля
▁ро к-
>> >
ров ым
▁жи тельства
▁спорта .
▁вы ве
▁бо го
▁Дей стви
▁при кры
дер ов
▁су ти
▁связи ,
ству ,
▁Бо гда
▁Австра лии
вя н
▁Д ем
▁по к
▁s e
▁ото п
▁ново сть
жа х
▁Ч ере
II I
▁ищ ет
▁Ф БР
▁тариф ы
ы з
▁чрезвычай но
сы па
▁возник ли
▁выигра ли
▁строи тельных
▁ж ени
▁пи к
uss y
▁харак тера
▁муниципали тет
▁Гран -при
ша ла
▁увеличи лась
сто м,
▁"А тлети
емы ми
рован ную
ли ца
▁подчерки вает
▁центра льного
▁авиаком па
▁карти ну
▁до ж
▁от зыва
▁прину ди
▁веду тся
▁про сро
▁вклю чены
▁завер шен
▁домаш ний
▁зарпла ту
▁привати зации
▁влажности :
▁перевоз ки
▁ча й
▁2 ,
це ле
ско па
▁региональ ном
рова ло
▁олимпий ского
▁до стовер
▁зада чей
. g
▁28 ,
сон ,
д мира
▁wh ich
В О
▁сегодняш него
сс ан
▁северо -за
▁фир ма
▁Ниж нем
▁случа ю
ся н
▁род ной
п ры
▁говори ли,
▁Леони да
▁оты гра
▁ду ше
▁Т я
▁техни ческие
тиче скую
▁Э лект
▁призна ны
▁ло д
▁M ot
▁выбра ли
▁выво ды
▁оде жду
ри ть,
▁К ен
▁объясни ть
▁Чет вер
▁При чина
▁виз у
FA X
▁родствен ников
жу тся
▁австра лий
жение .
▁старту ет
a j
▁направ лений
▁" T
▁кораб ль
▁собствен ную
▁Е же
▁бы вшей
комму ника
▁у мира
▁гер .
ru ary
▁у споко
▁струк туру
▁американ ская
/0 4
▁бомбарди ров
6 8
▁" ма
▁мол ча
▁опы том
ва емых
▁нефте продук
▁По ля
/ ru/
▁10 H
▁1 ,7
▁права х
▁количество м
▁сегодня .
▁предполага ется
е ви
кс ен
▁прожива ния
▁кладби ще
▁ча стей
мы слен
▁У вер
▁пово д
скор пора
▁отмет ки
▁полити к
▁государ ством
▁8 1
▁(о коло
▁мужчи на,
▁составля л
▁уль тра
▁улуч ши
▁Д ви
вя зыва
▁со рат
▁ограни чение
▁Си мо
▁ген ети
▁не дово
▁фар ма
FAX .RU
▁совет ник
▁70 %
-0 1
▁лучше .
▁меньше .
▁внеш них
▁дан ное
▁Оказа лось,
▁вы держа
▁G al
▁Re :
▁занима ют
▁столич ных
▁необходи мы
▁В ну
▁оцени ли
▁развития .
▁от туда
▁лиц .
▁Сбер банк
▁совеща ния
ра ди
▁ско ром
▁Республи кан
▁Ра м
▁знако мы
▁олига р
▁от пу
▁в праве
тель ский
▁Алтай ского
▁докла де
- экономи
▁вы ходят
ть ю
▁Ло с
▁холдин га
▁Ве роят
art ic
▁газа ,
▁неизвест ные
▁при каза
▁затра т
▁м уд
▁сы нов
▁усили ть
▁Ф евра
▁следстви ем
▁не эффек
▁с м
▁маши ны,
▁Feb ruary
▁кон тей
жен ность
пла ни
- па
▁все мир
ро да
туры .
▁музы ки
▁По нятно,
▁INTER FAX.RU
▁(1 5
▁брон з
▁повы шению
ему ,
ль ских
▁Н ова
▁ми нера
▁Ri ot
▁Само лет
▁на це
-1 4
кре пить
▁экстра ди
▁Необходи мо
▁отды х
▁си ловых
▁К ни
▁тре ти
ing .
чен ная
▁поме щение
▁Всемир ного
▁реабили та
▁нав сегда
▁соблю дать
▁по- на
▁мальчи ка
▁воздей ствия
▁производ ства.
▁администра тивной
стя х,
▁напи сан
add ing
▁на йдет
▁кото рая,
▁также :
▁ре пети
▁олимпий ский
▁целе сообраз
ж ды,
ен ко.
▁вс ерьез
сек су
ч ет,
▁( N
▁бу н
▁за гово
ря н
▁еха ть
▁диа лога
▁В торая
▁истории .
▁квали фикации
▁спа ль
▁на ве
сю да
фи ли
▁объяв лено
▁ав стрий
▁Даль него
▁обу ча
▁пробле мой
▁народ ный
▁наси ль
▁ба лета
▁Х ер
ня ли
▁объ едини
▁д емо
b le
▁рын ках
is e
▁мо били
▁ожида ть
▁выбира ть
▁w r
▁нео бо
▁представ лена
ва т
▁(К али
▁сторо ны.
▁pl ay
▁+ 22
▁дела л
з ов,
▁Ад рес
▁раз ница
▁да ,
▁полицей ский
▁подозре вают
▁рее стр
чо к
▁а сси
ницы ,
▁К С
▁3 D
ев ский
ника ми,
▁филь мы
▁зарпла та
▁Май кл
U R
▁част ные
▁молоде жь
n y
▁отде лении
▁немец кого
▁вмеша тельства
▁9 7
▁выра щи
▁опас ность
▁мониторин га
▁опро са
▁президен т.
▁на ряду
m s
▁неу доб
▁розы гры
▁реаль ной
ваются .
▁гла з
▁Ц е
с ном
▁" кра
ти но
▁СССР ,
▁подпи сы
▁награ ды
▁техни ку
▁сме шан
▁горо жа
▁( K
зд рав
▁ди кта
▁реаль ных
ления ми
▁призна ки
.ru ,
▁ло кали
▁государство "
▁Кэ ме
▁Пути на.
фе дера
▁здесь .
▁клу бы
▁называ ть
мо л
▁(на пример,
▁мальчи к
▁ранее .
смо три
▁подоб ное
▁фун тов
▁газа .
▁ды ха
▁в скры
▁офи цер
▁материа л
▁заня ться
ю ще
▁име ются
▁уголов ному
вер пу
ровать .
г вар
ри е
▁бан ка.
▁То ки
▁пере кре
▁распростран ение
▁за купа
▁Т ере
хи е
▁обнарод ова
ров ский
▁"Т ере
▁Самар ской
▁церков ь
▁" пере
▁дети ,
ло су
in e,
▁действу ющий
▁ве щ
▁раск рити
▁нео фициаль
▁финансов ую
лет ел
▁2013 ,
▁ко опера
re t
ag ram
ли ш
ше ствия
▁проведен ы
теле м,
▁особо го
▁нега тивно
▁рабо чего
▁А кти
л лей
▁обще ства,
▁мо ю
▁Чеч ни
ле м.
▁во лейбо
ша ются
ки ".
▁женщи н,
▁26 ,
▁за те
▁Яро сла
▁следу ющую
▁Швейца рии
▁на ла
▁в ступа
▁Ц ены
▁Ан дер
▁заработа ть
▁меся цы
▁Ми ло
▁примен ением
E N
▁( Ш
▁опера тор
he alth
▁попыт ку
▁опреде ленных
▁турни рной
▁хва тило
▁выдви ну
▁кур сы
А Л
сса ,
гово е
▁С ло
▁пода вля
▁дости гли
▁вос питы
▁управ лению
▁занято сти
▁предвыбор ной
▁кон гресс
▁обви нению
f r
ro w
{ "
▁сувер ени
▁адвока та
▁Филь м
▁потенциаль ных
▁Волго градской
де ми
▁Лу и
▁регион ов,
>< /a>
▁ми ротвор
▁Бара ка
▁На таль
▁бу льва
▁мето ды
▁сто ить
os e
хо зна
▁ми но
▁луч шего
и ка
верси я
▁го но
▁места .
▁вызва ла
нов ых
ap s
▁ус лы
до ,
▁заявля л,
▁нау чной
▁отправи л
еремет ье
▁столич ной
▁па ры
▁катастро фы
▁внутрен ние
▁Ом ской
▁Ове чки
зо м.
▁совер шения
▁благо да
▁свое образ
▁осуществ ления
▁об ши
▁Мин фина
обо рот
го град
▁П ря
го е
ца х
? v
спе ча
▁ат лети
▁Б ри
▁мужчи ну
бу .
▁жа лоб
▁территории .
▁центра льных
▁слу жить
▁"По ч
▁бюджета ,
▁Сов ете
▁w ork
▁Нов и
▁проек та.
▁ ов
▁Са ми
тирова ли
▁за стави
- ти
▁ °C
▁2015 ,
▁зафикси ровано
▁Н еме
▁россия нин
▁Берез ов
лет ов
ци о
▁департа мент
▁Об ви
▁шан сов
▁Гали на
в каз
он ного
▁пробле м.
▁ге рой
▁граду сов.
▁консульта ции
ры й
▁установ ил
▁про ме
:2 ,
вают .
▁V iews
Ф К
▁зи мни
▁американ цы
▁политиче ская
▁демон стран
▁по-на стоящему
▁"Ш ах
▁Добави м,
лен д
▁Поэтому ,
:: ::
▁Th u
▁вы бе
▁Ге ра
▁вра тарь
▁за помни
▁здоров ью
▁си льного
ья н
▁э мб
al s
▁возбу ждении
-0 2
▁столич ном
▁регули рования
ж ей.
▁круп ной
▁кре по
▁числен ность
▁ша ги
▁сложно .
▁отре мон
▁Ба х
▁"Газет е.
▁с каз
ны ",
▁отли чно
го .
▁П ов
гов е
▁зая вок
▁запад ные
▁дости гла
▁ни чь
▁сцена рий
▁середи ны
▁ра кета
▁Бу ду
▁Ба ла
▁побе дой
-В о
▁барре ль.
во рец
▁сооб ра
зербай джан
▁та рифа
▁гра м
▁Мин здра
==== ====
▁полу ченные
ast er
▁произо йти
за щи
el y
▁вер нется
мости ,
▁повед ения
▁техни ки,
▁республи ки,
▁по кон
▁на строен
▁Евро пар
ц вет
▁мощ ность
ет у
▁отече ственного
го цен
▁Д ве
▁Бо го
▁14 ,
▁орга н
▁h us
▁кален дар
▁торг овые
▁Вто рое
▁посе щения
-ми ни
▁рубе жом
▁ак креди
▁воен ным
▁жа лу
▁совершен о
▁близ ки
ж ники
▁бой цов
▁соверши ли
w agen
▁за ставить
шен ный
▁рын ки
▁регла мен
▁Го сти
▁хи щения
▁проин форми
ро й.
▁назва ла
▁приу ро
▁стар шего
▁пунк ты
▁цело ст
ни в
▁китай ских
▁внес ении
▁7 .
6 7
ству .
▁выру чка
▁руково дя
▁восстанов и
▁терак тов
▁Т им
un t
▁s ub
▁сро ков
▁порт ре
мар кет
▁Вы бор
▁существова ния
гра жда
▁рассказа ть
on y
▁истори ческих
▁спо рту
▁С ре
▁Д ети
цион ными
▁Л я
▁P ussy
▁пода рок
хи ,
▁# 9
▁дела ть,
лин ской
ж ей,
▁мо ст
▁вы шед
▁ме бе
▁вооружен ные
▁"Из вестий
▁"НИ "
ше го,
▁про работа
▁Узбеки стана
▁публи чно
▁показа ла
▁Пер ми
▁ма нев
▁Обы чно
▁сто ян
пере воз
ц ов.
бу с
ждение ,
жен ного
▁предоставля ет
▁напротив ,
- ко
га пу
:0 ;
▁Ра ды
▁Цер кви
▁п ли
im e
▁гибе ль
▁вс ем,
ment s
▁урегули рованию
▁опас ных
▁доче ри
оке ан
▁людь ми,
из нь
о ль
▁полити ков
▁воз держа
гово ры
ско м.
▁насле дия
▁возмо жного
▁со мни
▁представи ли
▁веще ства
ж ений,
лет ней
▁Пожа лу
▁пере пи
▁государ ственным
▁призна ет
▁называ ли
▁И мя
▁город ские
?v =
▁Ни ге
▁упа ков
ear ch
ти лся
ту ре,
▁отде льно
▁тяже лой
▁чинов ников,
на ми,
бов ь
▁а рт
▁Ч ар
▁нау чный
▁возник ла
▁вы лета
▁Декаб рь
▁смен ы
рова лся
▁водо снаб
gall ery/
▁сро чно
че е
▁ограни чить
▁красно -бе
▁направ лена
▁производ ства,
▁четверть фина
ча ,
▁практи ку
▁находя сь
▁подпи сей
▁самми те
▁ино мар
▁Кова ль
▁Очевид но,
▁француз ской
▁Американ ский
кова ли
▁улы б
▁впере ди
▁рас хо
▁профессиональ ной
▁сотрудни чать
▁юго-восто ке
▁Russ ia
▁жи лой
▁"К ак
зах стан
- ч
▁реаль ные
надца ть
▁Мут ко
▁в акци
▁ф е
▁опера торов
▁глав ную
ov e
amp ;
▁Тро и
▁тру б
▁до шко
▁соответству ющее
▁услу г.
▁ООН .
▁ар хе
▁премьер-ли ги
▁бан ди
p adding
▁ди на
▁"Фор му
▁Ма х
▁явля лся
▁Па ла
д ли
▁???? ????
▁ ar
ks wagen
le ct
▁под ве
▁st yle
▁реги стри
в ри
▁маркет ин
▁мо н
-го лубы
▁луч шей
ot al
▁готов ят
▁учеб ного
▁зна ть,
▁бе г
▁( то
▁Ново го
▁из бы
▁бы вшим
▁Итали и,
▁Росси ей,
по сто
▁Агент ство
▁с дви
▁ситуа цию.
▁оператив но-
▁( Ч
▁бар ьер
▁практи ка
▁Е сте
мо ни
▁ожида ют
фесси ональ
▁следстви е,
▁обще ства.
▁Великобрита нии,
▁страх овых
▁РФ ПЛ
▁сможет е
ре о
▁представи ла
▁Ро д
▁Ч лен
▁Пробле ма
л ло
▁удовлетво рен
▁Площа дь
за ми
▁га лере
▁зер ка
▁" раз
▁предыду щего
▁соци ологи
в ени
▁спаса тели
▁Шу ва
дов е
▁И то
/0 2
▁челове ком
▁момен ту
▁Х е
▁дво ре
▁заплани ровано
▁"Газ ета
▁Про це
▁собра л
▁Дан ные
▁дела ется
▁хоте ла
▁образова ния.
▁Ио си
▁стабиль ности
обла да
ня ются
ор да
ционе ра
▁ли ф
▁чи слу
▁сы рье
▁упомя ну
▁ранен ы
▁сканда л
▁первен ства
▁Государ ственного
ше б
▁тон н.
▁ста ви
▁приве ла
▁д жи
▁М юн
ту зи
▁пово ро
▁фестива ле
▁Констан тина
▁м урман
склю зив
гла сно
▁рын ков
▁украин ским
▁характер .
▁Интерес но,
▁юби ле
▁p h
-0 5
▁лекар ства
▁в езде
▁Шой гу
-1 3
▁От веча
▁преступ ление
▁подс чита
▁наде жды
▁способ ствует
▁необо снова
▁случи вшегося
в ла
▁переда ли
i el
▁Е ль
b ack
▁до пин
▁стан ций
▁За вер
▁шко лы,
▁Ф ила
▁Моск вой
▁взаимодей ствие
▁Ма ли
▁при бе
▁деко ра
▁хи щении
ap h
▁"Газпро м
r es
▁снима ть
▁попробова ть
▁бе льгий
▁действи й,
▁Хо л
▁прогре ме
/200 8
з ри
▁откры том
▁направ ленные
▁су дить
▁К ин
▁москов ский
▁сро к.
▁ре ль
▁ди верси
▁М Г
▁Де партамента
▁Toy ota
▁ре шет
▁име ем
▁штраф ы
▁P age
▁Х э
▁пря мом
▁транспо рте
▁Хил лари
▁поддерж кой
▁Не льзя
▁сто лети
▁профе ссо
▁поо щ
▁Ри ча
▁улуч шение
▁причина м
т ров
▁о ставили
C O
▁сооб щений
▁НП Ф
▁г ей
▁( Ц
▁рабо т.
▁со еди
▁Пар ламент
▁Стив ен
я зви
▁пра й
▁уда ры
▁П рак
реги ональ
▁обще ственные
▁режи ма.
▁Б Р
▁откры вает
надца ти
▁орга нов.
▁т рем
▁За чем
▁"С та
▁собира ть
▁компет ен
y pe
▁Че ловек
▁моде лей
ника ми.
сен ко
▁поряд ке.
кос ми
п ов,
при меча
▁пала та
▁го ла
▁Бу ря
▁рассмо тре
▁Краснодар ского
▁предпоч т
▁проек том
er t
▁Фе доров
ков ый
▁процен т
▁насе лением
▁низ кой
▁голов ы
та рем
▁1 /8
а ней
▁Ки ри
▁Пер вой
▁аф рикан
▁разъ яс
I A
N ext
▁фанта сти
▁женщи ны,
▁слова ми,
▁вариан тов
▁B ar
▁"На род
▁китай ской
▁к рем
▁раз ор
▁"А м
▁"Р аз
▁счет е
▁15 %
▁вз ло
▁у шли
▁доби ваться
▁изобра жения
▁сна ря
ро на
▁бо ну
▁Кав каз
▁6 :4
▁слож ных
▁за пустить
▁"Ре ала
м ов.
▁б ла
▁Н овой
▁призна л,
тра к
▁"П у
▁Основ ные
П ,
▁фон дов
▁е е,
▁полити ки.
▁покупа телей
▁родствен ники
▁принци пу
н ена
▁столкну лся
стру и
▁ба таре
▁на м,
по льзова
▁ка бе
▁че ш
▁Ми тро
▁H y
▁привлека ть
▁Хри ста
▁пострада л
си .
▁пожар ной
▁че чен
- ма
ан т
▁of f
▁крае вого
▁С к
▁П сков
▁О рен
▁(Кали фор
▁объек тов,
- со
▁бли зо
▁получи в
▁Крем ль
▁Ж ерт
▁Назва ние
▁использова ться
жен е
▁призна лся
▁Op en
.1 5
▁в зи
▁подтвер ждает
▁кандида том
▁стату се
вен ции
▁интегра ции
▁ма ра
дирек тор
бр нау
▁по ры
▁семь и.
▁P o
▁пры ж
▁оказыва ет
▁уда ров
▁след ственные
▁до ставля
▁Ла й
▁ лей
го судар
▁"Ру бин
▁об ли
же шь
кор руп
-С а
▁ресур сы
▁важно сть
▁захо рон
▁де вело
▁лич ность
▁( да
▁лагер я
▁уби т
▁ю вели
▁«З а
▁очеред ного
▁камер ы
▁( 201
лю ми
видет ель
▁м нением
▁гон ке
ди в
▁с му
▁удоволь ствием
▁куль туре
▁Бе лый
▁ОН Ф
.... ....
▁оде жды
▁им порта
▁" де
▁част ного
ор га
▁дерев не
▁сем ью
▁коммуника ций
ющая ся
", —
▁показыва ет,
M S
▁#1 0
▁упа ли
-0 3
▁Фер нан
▁де б
▁иг рой
- во
▁сторон ники
▁нес праведли
-на-Д ону
▁маршру т
▁Аса да
▁ма кро
▁гео поли
▁прово згла
▁поко ление
▁совеща ние
▁B rent
▁/ gallery/
тель ских
▁"С у
▁чемпион ов.
▁действия ми
ва м
▁al so
▁предотвра тить
/ ?
у краин
▁"М ар
▁+ 2.
0 c
▁от дох
▁"Гра жда
ши ны
▁Sun day
▁Федера льная
▁В неш
▁" ка
▁напада ющего
▁Вечер ний
▁отмети ть
д но,
▁ста ри
ap p
ку ля
т »
▁о теле
▁косми ческой
▁Ком пании
▁зако не
точ ный
неф те
al e
▁пригово ра
щен ные
▁Мар тин
▁бое вые
▁с бере
▁к м,
▁коллек ции
▁Солн це
▁дополнитель ного
▁Т били
▁тро их
▁Vol kswagen
ль ские
▁услови я,
▁креди тной
▁В етер
▁источник .
▁В М
T E
▁коман да,
с ети
▁C ar
▁Со фи
▁пожалу йста,
▁ qu
до мости
▁не стаби
▁опубликова ла
▁нача лу
▁v iew
▁уча ствует
▁встрети тся
Н а
▁Пер вым
▁с ур
▁По лон
▁Пол тав
▁разре шить
▁Лю би
▁отправи лись
дова л
▁ро жда
сто ри
▁ва ше
▁Си ль
▁пере имен
▁парла менте
▁написа ть
▁Си ти
▁об щих
▁фак тор
▁реаль ного
▁пограни ч
г рева
en z
С У
▁знако мый
са ло
ком па
▁П О
▁увер ены
▁ссыла ясь
▁Ве че
▁предъ явля
ч ка,
со т
▁основа тель
▁про сил
▁планет ы
ма не
▁под ра
▁хоро шего
▁Основ ная
бе .
▁Ра спеча
▁Тур ции,
пу ляр
▁Ру сской
▁"СЭ "
стра хова
▁вызыва ют
str ong
▁проходи ла
▁назна чении
▁продолжи л
▁в рио
▁и ду
▁дома х
▁помощ ь,
▁Поль ше
▁вещи ,
▁"Ба ш
рен е
▁практи ки
ub lic
▁юриди ческой
▁М эр
▁результа т.
▁ар ген
▁руб рике
▁Н Б
y s
▁Дру ги
▁в ступ
▁Кар ло
▁тера пи
ст ным
▁Иеру сали
▁послед нюю
▁пи лот
сом нен
▁обществен ности
▁"Ян декс
▁требова ть
▁спа сибо
пы ,
но ",
▁различ ными
▁откры тым
▁генера л
▁года х.
▁ниже ,
▁финанс ово
n er
▁за ла
▁ %
з ов.
ш ени
▁пере ходе
▁голо сов.
▁Татар стана
B A
▁спор тивного
ttp s
▁Жен щина
▁Лен об
▁возника ют
са ",
▁на шла
▁торгов ле
▁им ми
▁F ord
▁мани пу
▁П рово
пе ль
▁ри тей
▁(Калифор ния)
▁Ли ви
▁недоволь ство
▁ДТП ,
▁Пе ки
▁продол жение
▁у ход
▁круп ным
▁(1 8
мен ты,
▁Р ак
▁вы шло
▁госпо ди
▁День ги
▁зри тели
- кон
лю .
▁во дой
▁Ха л
▁опла ту
▁худож ника
▁ху лиган
▁Эдуар д
▁про й
▁ак се
▁дом ов.
▁и ного
S t
▁иностран ного
ву .
▁Изнача льно
▁кни г
▁th ere
iss an
стра ция
▁геро ев
▁способо м
анк циони
▁круг лосу
▁пода ла
▁по шла
▁" бе
▁С паса
▁футбо льных
▁рабочи й
▁При бы
▁Мин тран
-2 2
ле ги
▁ка сс
▁пред ста
жд ений.
▁мо нта
▁счита ем,
▁сет ях
▁10 .
▁п ру
▁ма ри
▁hor a
▁Чехи и
▁Кан дида
свя зи
▁инвести ционных
▁es :
ло к,
▁hus o
▁на казыва
▁с фе
▁hor ario
▁лоб би
▁алкого льного
▁разгово ре
ли "
▁районе .
▁двер ь
▁s ite
& amp;
▁предше ствен
▁"Мо сква
▁преодо леть
тель .
▁француз ский
▁СССР .
и сследова
▁служ б
▁у ступа
▁культуры .
▁Гон кон
▁расши р
▁s ec
ed ,
▁наблюда телей
ми :
▁янва рь
▁Д ву
ную ,
▁Кита я,
▁Афгани ста
▁уви де
▁с пря
▁Распеча тать
ш лись
ки е,
▁пере ло
ttps ://
-1 "
▁нефтя ной
▁разу меется,
▁Без опасности
▁компания м
▁позволи ли
▁проигра л
i- F
▁потребова ли
та »
▁Ближ нем
▁инфля ция
▁ка п
▁вете рина
▁задержа нии
лого м
▁Не зависи
▁во р
▁преимуще ства
ми нали
▁косми ческого
M A
▁женщи на,
зи рует
стя х.
▁хра ма
▁И бра
▁несколь кими
▁Ар битра
▁вреза лся
▁n ew
am es
▁тай ме
▁ба й
▁един ственная
▁переда чу
▁Мино брнау
ше ва
щей ся
l ash
▁разгово ра
▁партне рами
▁работа ть.
▁R ena
▁вку с
▁сред ство
us .
▁"С вобо
▁Cap ital
к вали
▁ди ссер
▁Республи ка
▁рассмо трит
▁но сить
▁журнали стов,
▁трав му
▁укреп ления
▁Политика :
▁с клад
▁$ 4
▁Без у
▁За щи
▁беспла тный
c .
▁Ко ко
▁Патри ар
▁похо рон
Е В
▁приня ло
-2 1
▁собствен ность
▁сдела ть,
▁реак ция
та на
▁"Ч ер
us e
▁веду щие
▁ку ра
▁замети л,
К ОС
v ent
-лет нюю
▁аль бом
▁нор м
▁Михай лов
▁стре л
\ u
сы ла
б- кварти
▁организова нной
▁ано нси
▁90 %
▁топли во
▁участ ках
▁Ц К
▁особ ый
▁обра баты
:2 ).
▁"Я бло
▁ак ку
w ord
▁рас пла
▁Медведе в.
че к,
логи и
▁ки но,
▁утвер ждения
▁жела нии
▁Кто -то
▁полуго дии
ic s
▁Леноб ласти
▁работа ть,
e am
▁резолю ции
▁тыся чу
▁клуба ,
▁пре ем
▁В ЭБ
▁кубо метров
▁аналоги чный
ро .
▁О ре
▁необходи мым
▁учиты вать
ка »
▁при ложение
▁« Х
v en
▁3 ,
▁порта ле
▁( 20
▁( http://
▁обы чных
е дут
▁стары х
▁ог нем
▁довер я
лез нова
▁неожида н
рг ыз
▁Д емокра
▁Ав торы
мести ть
▁Види мо,
за "
▁удовлет вори
▁американ цев
▁ щи
▁"Ислам ского
▁ули цу
▁вне дорож
▁расположен ных
ь я,
▁находи лось
▁искус ство
▁го скорпора
▁об ходи
▁преступ лений,
▁Си стема
▁Кам чат
game /
▁не сти
▁че стно
▁агре га
▁смен у
▁си л,
▁ис чер
ш ов
фи зи
▁откры тый
▁близ ких
▁Великобрита ния
▁полицей ского
▁найден ы
▁вкла дов
▁A ud
▁А ксен
▁условия х.
▁креди та
га нди
▁це ля
▁задержа ла
▁каким -то
ман .
▁Мин пром
▁разы ски
▁А бу
▁ ?
vi ous
▁выра стет
▁домаш них
▁референ дум
▁Г А
++ ++
мы с
7 4
ве с
▁А у
▁журна ле
▁коммен тирует
▁му же
▁тысяч .
▁пои ски
▁под ъем
▁от работа
▁к ов
▁сня л
▁b order
ско е,
▁п ь
ле м,
▁ле га
▁корпора ция
▁Nov in
g y
бра сы
▁"Ме га
▁Ле ви
▁«И н
а три
ваются ,
▁Москву ,
▁эксперти зы
▁с хо
▁пользу ется
▁" ско
▁у ши
▁Ро мана
▁В рачи
▁пре сто
▁отсут ствует
кто ров
а "
во да
че ,
- 40
▁Аль бер
▁"Ю венту
ка ть
▁об ер
▁е ю
вали .
▁корпу са
▁поме щений
▁приобре л
▁Я нва
▁видео ,
▁Ерева н,
ма ",
▁тре й
▁г -н
p .
▁С рок
iv ers
▁"Ве домо
▁Лит вы
▁Т ан
▁от кли
▁перево ро
▁дав лением
7 9
.1 4
▁житель ница
▁проводи ться
▁по единок
лли вуд
▁дальней шей
▁Чет ыре
▁да ту
▁ко рен
▁"Л ю
ши л
хозна д
▁ос пари
ссамбле и
у з
▁офи ц
ено ци
нача лу
▁Тю мени
▁"Ру би
са мб
▁колле гами
▁сент ябрь
▁Ка д
00 :00
▁при зер
▁з в
▁а ут
▁сопер ник
точ ного
ски м,
▁пла тят
▁Ар ша
/ .
▁год ов.
▁(М и
▁Екатеринбур ге
▁Лос -Анджеле
э ш
▁пере с
▁вни чью
▁укреп ление
▁Международ ная
▁пере стре
▁Коре я
▁Ц вет
▁19 70
▁существу ющих
▁страна х.
▁транс ля
▁д жа
▁сдел ку
▁зако нов
▁З ю
▁приобре тен
М "
▁перио дом
▁те ат
▁з ени
ждение .
▁ва м,
▁L ife
▁дра ма
▁кратко сро
▁гол овой
▁не добро
▁тер мо
▁клу бом
▁над пись
r ed
▁программы .
▁Хор ва
▁комисси ю
▁месяца ,
ди оз
l t
▁"Д е
- ф
▁за труд
▁г ря
нитель ные
▁я бло
▁самоуправ ления
▁Ки р
рия .
▁тран сли
▁на чис
чи м
▁ин три
▁спе кт
▁комму ни
▁тради ционных
▁вра таря
▁преступ ной
▁молоды м
▁хоро шим
▁Novin ite.
н ем,
ви ва
▁вклю чить
▁"Ч то
▁заработа л
▁up d
▁возможность ю
▁по эта
▁О М
▁то рга
▁северо -восто
ми ",
▁довери е
▁пока жет
▁п ова
▁источ ник,
▁возник новения
- g
ф ,
гу р
▁С лов
▁(1 2
-За пад
▁па тро
▁част ной
▁МЧС .
il es
▁регионе ,
▁де пре
▁сту дии
▁«Р у
▁имен ем
▁спор тивный
▁Шта ты
▁Газета .Ru
▁ ем
▁д ар
▁Универси а
▁в вели
▁Novinite. bg
- ре
▁кам пания
▁клиен там
▁просмо тра
▁Акаде мии
▁про хождения
▁t r
▁Ма л
ж ений.
▁парла мен
▁ду м
▁воору жения
▁кому -то
▁про ща
▁неис прав
▁потра тить
▁поки нули
служ ба
▁показыва ют
▁Нако нец,
▁одно имен
▁э тни
▁занима лись
▁сложи вшейся
▁поедин ке
▁деся тка
I D
▁пе ри
▁промышлен ных
▁зна л,
▁пере рыва
▁сов пада
▁много дет
▁аналоги чным
▁9 3
▁поблагода рил
▁немец кой
▁рассказа ли,
▁не что
▁случа й,
▁украин ская
ков :
▁рей сов
▁про ро
▁C ent
▁эле менты
▁коммента ри
▁M ac
▁Ма ке
▁отчет ности
▁па ле
▁это .
! )
▁об щаться
теле м.
-Ка и
▁музы ку
▁област ном
▁милли оны
й ского
▁С О
▁до но
▁ОС АГ
россий ских
p df
▁выбора х.
ле вых
▁соответству ют
▁сби л
▁де л.
▁вы мога
▁предпочита ют
дова я
▁националь ный
▁компле кта
▁хо ти
▁обла стях
▁зай м
▁направи ли
▁оцени вают
▁инфраструк тур
▁избави ться
▁ближай шем
▁стра ной
▁60 %
дни к
С )
▁балан с
▁сда ть
▁( W
▁м ладен
во ро
a u
▁соли дар
▁не су
▁выда чи
▁судеб ной
▁рассматри вается
▁ва ша
▁каждо е
▁предоставля ть
▁пере числи
ю :
▁ко рей
▁гражда нами
щения ,
ч ку,
▁вопросы .
он ный
▁угро жа
стви е,
▁компле ксе
▁Х ель
▁сня ли
▁кредитова ния
▁прод лить
▁компа кт
▁"Справедли вой
▁Су мма
по луч
▁жи телей,
ению ,
R O
рова ние,
▁С ви
▁объедин ение
+ 00:00
ли ва
▁4 50
▁взрос лы
▁име ющие
▁"В ол
ня л
ро ди
ur n
▁ск лон
▁Tu esday
▁переда ча
▁далее .
пу га
▁мо им
▁При мор
п ов.
▁Чер но
▁трубо прово
▁M edia
▁транспорта ,
▁"Д и
▁На ц
▁ва с,
▁му жа
емо му
▁П РО
▁Тем пера
ou se
в ремен
сто м.
▁ликви да
▁(в се
▁сто ять
▁слова ,
▁струк туре
▁обо га
▁За втра
▁Никола ев
▁Ви талия
▁пенсион ных
▁карто фе
▁правила м
▁управ лен
▁созда ют
▁Facebook .
▁режи ме.
▁правя щей
щи ков,
▁( м
▁ни куда
▁Си ти"
▁Интернет е
▁дра гоцен
▁двадца ти
▁какая -то
▁ме шает
чения ,
▁актив ное
▁о жо
▁за кс
▁запа сы
▁Тре ть
▁до лей
▁представи телям
е том
▁Органи зации
▁тро ллей
▁обеща л
ряд ка
▁Ана логи
ью- Д
д ном
ри мина
▁сдел ка
▁мину вшую
▁ез дить
▁брать ев
▁коми тете
▁гори зон
▁style ="
▁К ов
-М ан
▁циф ра
▁программ ного
графи я
▁закс обра
▁Мин ск
ad y
▁холо ди
us in
ни лся
▁"Б ору
х ень
▁называ емый
Е С
▁Си рий
▁природ ного
▁л. с.
▁До ма
▁об щим
▁коммен тируя
▁Кс ения
▁iP ad
ра ст
▁продук ция
▁Пре ду
▁Ч ен
▁Же ла
▁я х
▁пов лек
пере да
▁Сно уд
▁К лим
та к,
▁Л ей
рия "
▁Россель хознад
▁высоко технологи
▁контрак ты
пу т
▁Г ро
topic =
▁меня .
ен ко,
▁г ло
▁заб лу
▁"Тор педо
▁ле со
ров ень
▁технологи я
▁боль ных
ме да
▁МК АД
▁Киров ской
п пара
▁бога т
▁инфраструк туру
▁заве рил
▁Примеча тельно,
▁теле веду
▁месяц ,
▁спецслуж б
пе в
?? ?
▁наро ду
6 3
▁условия м
▁Дар ья
▁"В ести
id ay
▁у влека
▁A mer
▁Кер жа
▁на ступа
▁( ко
▁под да
▁согласи е
▁И ме
▁Норве ги
▁регион ов.
▁продолжи тельность
▁г ряду
▁Gu ard
▁беспоряд ков
▁добы чу
ер ма
▁важно е
▁контро лю
▁вос хи
ка у
ней ший
▁досто примеча
▁вет ра
▁отече ственной
▁показа ли,
▁депута тов,
▁догово ров
▁жен ской
▁писто лет
▁вос приня
▁хоро шее
▁9 2
теля м.
▁"Б и
8 9
мен ко
стви е.
го с
по н
▁установ ления
▁не жели
▁колле гии
- мо
дру го
▁си гаре
▁Кра сного
▁Во ро
▁вице- гу
би рко
▁Ино стран
▁поиска х
▁усили й
▁реак ции
▁P ol
▁утвержда ют
би у
▁ди станции
▁себе .
▁вы страи
▁Таджики стана
ши не
▁"О ска
▁до мини
▁при несли
▁худож ник
▁неболь ших
▁при сла
o le
▁" боль
▁со по
▁до пинг
▁подоз ри
▁по пе
▁содей ствие
▁компроми сс
▁откры тых
▁"Ъ" )
▁Ма рии
балан си
▁неизвест но.
▁болез нь
▁концеп ции
▁шо сс
буд ет
▁го лово
▁Мо я
▁исклю чить
▁глубо ко
▁прожи вает
ск )
▁О тель
▁"Ку бан
▁и рак
▁коррек ти
▁долла р
▁Ра ду
ф то
ot os
▁трав м
▁спут ник
те том
▁Ин гуш
▁сер б
▁И нициа
▁говорит :
▁собо й.
▁ over
▁шо кола
▁Inst agram
▁ ство
па де
▁Ви но
▁В у
▁ве ка,
▁Па лести
▁путеше ствен
▁ра вен
▁представи тельства
▁холо дной
▁Ве сь
▁Ка кой
▁Смо три
▁8 .
▁Боло тной
▁посети ли
▁На д
▁В О
▁жи телей.
▁аук цион
▁пере игра
▁моби льного
▁моз га
- k
▁от чета
▁сообща ли
▁пенсион ного
ГУ П
ж ском
▁жиз не
▁гаран тии
▁h ttps://
▁направ ленных
▁жела ния
▁http://www. m
▁состоя нии,
▁платфор мы
▁И рак
▁доступ ны
▁соответ ствие
▁собо лезнова
o z
▁спецслуж бы
▁осо бой
▁а парта
▁ма лых
ть ",
it ch
▁Ро й
▁воздуш ных
▁перене сти
▁инвали дов
- v
▁з рели
▁Да вид
▁Д еву
▁мероприя тии
▁Rena ult
▁нес анкциони
▁авиаком пания
▁совет ские
▁"А л
▁Stre et
▁I V
▁"К он
▁ос ени
ку си
▁уступи л
то н,
▁M ore
▁Лю бо
▁4 ,
-0 -
▁стоя л
▁зна ли,
▁Баша ра
▁Кана ды
▁воен ное
чи ков.
р ма
а ри
▁наде ется
▁заба стов
▁анти до
▁Арка дий
П И
▁ло я
▁реко р
▁фигу р
ни ком,
л. ,
▁при лега
▁С ти
ца м,
▁голки пер
▁П хень
▁государ ственном
▁чув ствует
▁от ве
n esday
▁оста льное
▁стан ция
it ies
ш кой
▁О тец
▁ру ками
▁зрения ,
▁R T
▁(1 1
▁ответствен ности.
▁топли в
▁CN N
те рии
ссо ции
▁участ ника
▁развед ки
▁про стых
▁Организа торы
▁а зиат
▁с со
▁ву за
▁пу ль
▁проек ты,
▁+ 7
▁полож ении
б л
▁Wed nesday
▁побе де
▁W i-F
▁визи том
ст ное
▁певи ца
ста точно
ло д
▁бере т
▁адресу :
▁Обла сть
▁Ко АП
▁го тово
▁разви тием
держи вать
▁распо ложи
▁ми ло
▁наблюда ть
фи нал
▁счет ов
▁ос ен
ди нов
pr ess
▁дерев ни
▁цело м.
Ц Б
▁экзем пля
▁ре форм
▁вклю чен
▁Д вое
▁Ме стные
дру же
▁"Локомотива "
▁инстру мент
▁вы ,
▁k n
и "
▁предприятия .
▁ни м.
▁Полу ча
ви на
▁стреми тся
т филь
сь .
▁ведом ств
▁нет ",
▁поез дов
▁убе дить
▁Кур с
▁сер вер
e f
▁(К а
urs day
▁мер у
фо л
▁от ряд
▁уча щихся
▁h our
▁знамени того
▁бо ятся
▁м ра
▁религиоз ных
▁ме ль
▁пред писа
▁Вече ром
» )
▁ш тор
▁ос ень
▁забо ле
▁тенден ция
▁двига ться
▁Th ursday
▁ if
она ,
▁Джор дж
ру сс
▁Москву .
▁трав ми
ком на
▁момен ты
▁тра тить
▁постоян ной
ению .
▁купи л
▁Даль нем
▁суме ли
-2 "
е вой
нитель ной
▁не во
▁ц ве
▁километ ров.
▁http://tremulous.net/forum/index.php? topic=
▁"П ре
▁оппози ции,
▁учи ться
▁Бе льги
▁Ге ро
▁подпи с
6 4
▁ни что
▁инвести ционного
▁указа л
▁нов ов
ман да
▁пар ково
от лан
▁службы ,
▁незакон ной
▁фарма цев
▁спро сил
▁A ut
се днев
▁Гор ь
ж ников
▁зарпла т
▁партнер ства
▁жест ко
▁( Х
▁завер шении
моде дово
▁ви дно
▁Пи тер
▁независи мость
▁прока т
▁Ле том
▁бир жи
▁сег менте
▁коммер ческой
▁Джей мс
▁"Ев рови
▁Законо проект
▁делега ция
▁Да вайте
▁Дне пропетров
ем ле
▁региональ ный
▁Акти ви
▁сол нце
▁Ингуш ети
ка л
шо у
▁ознакоми ться
er n
▁Сто л
▁Ира ке
▁эк склюзив
id ent
▁с кон
▁иностран ной
▁непо д
▁с бро
ia .
▁Согла шение
▁кон тен
▁Ком му
▁Соединен ные
▁верх ней
▁ак кура
▁( версия
▁кон ь
▁подтвер ждения
▁контек сте
▁банков ского
▁чер ный
▁металлу рги
▁президен те
▁премьер -мини
▁большо м
ш ти
▁относи ться
▁ради а
▁стра ницу
▁гаран тий
▁вне очеред
▁Ира ка
▁Ро скосмо
▁издели й
▁разме стить
▁мор ских
▁диску ссии
▁Ю лии
▁"Ро стов
при н
▁четвер том
▁посад ку
▁"Мета ллу
▁0 ,2
▁T ue
ницы .
▁ор гкоми
▁розы ск
ech n
▁опубликова нном
▁стра ница
▁со сла
▁"Г оло
▁Гон ча
▁Брюссе ле
▁Кав каза
T I
▁призна ние
▁а зербайджан
▁К ро
▁утвер дил
▁япо н
▁мы сль
▁други х.
▁Л ет
▁бюро кра
▁Васи лия
▁со зыва
▁«А иФ
▁хо дят
▁мате мати
▁Кады ров
et ro
▁си льных
ны не
г лу
цион но
▁социаль но
▁за груз
▁луч шую
▁По рт
▁ку б.
▁Красно да
▁немец кий
e k
▁тяже лые
▁декаб рь
▁пострада вшим
3 a
ч ё
▁руб ля,
▁По льзова
▁12 ,
▁цент ры
▁особ ых
▁ка да
пла н
▁оформ ления
▁пожерт вова
▁По и
слу ги
▁форма льно
6 9
ся .
▁а люми
▁С дела
-0 9
▁М У
▁диа мет
га ла
т т
▁судеб ные
д рав
ча ла
Ц И
▁бле стя
▁Qu ote
▁Ка й
in al
▁футбо льный
▁РП Ц
▁подпи си
тив ность
▁по ступления
▁По клон
▁б рю
▁государств ,
▁числен ности
▁Н ар
▁обнов ления
▁крупней шим
▁Р ек
▁официаль ное
▁M ach
▁стары е
▁популяр ность
▁Ц у
▁авиа катастро
▁а ссоции
- P
чи х
/06 /16
▁дру га.
▁тенни си
▁чи стой
▁и дей
▁созда но
▁сцен у
▁пре у
▁Глав ным
пет чер
ру ется,
▁службы .
▁до жда
▁теку щий
▁оружи ем
лер ов
▁Д жен
▁под дель
▁сцен ы
▁с ведений
▁( E
▁ни чем
▁у йдет
▁вы ставля
▁бюджет ные
▁Все ,
▁Г ей
▁жен ы
▁судь бу
▁первы ми
▁Н обелев
- п
▁с ква
▁К П
▁сооб щ
▁выступа ли
▁опреде ленный
!! !!
▁пункта х
ле кс
▁расс ле
▁Егип те
▁получа л
▁ведом стве.
▁Зем ли
▁демокра тии
▁на след
вич .
▁Д .
▁"Р -Спорт
▁барре лей
▁For b
ми нист
▁f irst
▁изъя ли
га ми,
пред стави
▁данные ,
▁ситуа ция,
▁вер хов
▁противодей ствия
▁полет ов
▁Ко л
▁рабо те.
▁ле то
▁прове рок
▁юри с
льщи ки
pr ess.
▁П ровер
▁Фа био
▁би лета
▁Муж чи
▁Т ова
▁Ку ли
▁назна чено
жива ния
▁wh en
▁высказыва ния
ня .
▁А тлан
▁хва тит
▁автомоби лем
▁двадца ть
▁состоя лись
▁люби телей
▁Ма ла
▁плен ар
▁Иг р
▁года ",
▁"Т у
г нуть
▁евро ку
▁годов щи
▁район ного
х ов.
▁рождения .
▁получи тся
▁уби ты
▁пересмо треть
▁мен ю
ды ду
▁а ссорти
▁бри фин
▁оши бка
▁Ф естива
жи те
▁у са
▁Ор лов
▁защи щен
▁Есте ственно,
▁спи ски
рито ри
▁знамени тый
▁сти му
▁выбора х,
▁де ва
ка мер
▁налого платель
▁Ни чего
▁про сти
▁так ти
▁под ы
▁Об щий
▁30 ,
ва ющего
ру шение
▁по ле.
▁па па
▁теку щей
▁дальней шее
▁каза лось,
▁собра ли
▁Действи тельно,
▁Ма лай
▁в водить
▁По ги
▁ка толи
▁подозре вается
▁та тар
▁уг ле
▁золо та
▁Вяче слава
▁домо й.
▁това ров,
▁внес ены
л- демокра
▁д ро
▁а ви
ская "
ши т
▁Б ек
▁си лой
гла ва
▁компа ния,
▁нач нутся
▁произ во
▁Ва ди
-лет ним
ч не
▁тру да,
ча к
▁J ournal
▁президент ской
па ли
▁экспо на
▁Амур ской
-у част
▁от стра
▁откро ется
▁четвер того
▁Мурман ска
▁Василь ев
▁( F
▁Ма ма
▁до сту
жден а
▁дефици та
▁бло ге
хо ро
▁футбо льной
та цию
стан дар
то за
▁9 1
▁раз ными
▁инте гри
▁раун да
пол ков
ur l
▁экипа ж
▁истори ческого
pl ay
▁подготов и
▁Н ТВ
▁Наза рба
▁пере рас
▁Ле он
▁пред мета
▁жен ой
R ating
▁по ле,
▁Twitter .
▁призна ния
▁развива ющихся
▁бы вшему
▁России :
▁#1 1
▁"Ф и
▁министер стве
мб уд
▁надежду ,
▁а спек
▁он кологи
▁хоро шую
▁обсужда ли
▁сформи ровать
▁свой ства
▁Ль вов
▁+ 21
▁подоб ный
▁откры лся
▁крупней ший
▁П К
▁свет е
▁высказа лся
▁пов реди
▁В ЕД
▁мину вшем
▁у язви
▁уда рил
▁функ циональ
ши сь
▁ни м,
▁х рони
▁х леб
з ма,
▁дополнитель ной
ран же
▁намер ения
▁Тур ции.
▁корруп цией
▁за ря
▁нем ноги
матиче ских
▁причи нен
▁происходи ло
▁a cc
▁дости гает
▁Арави и
O N
▁МЧС ,
▁выгля дят
че в.
▁бы вшие
▁зарубе жные
▁разбира тельства
▁повы шении
▁Темпера тура
▁Новосибир ской
▁респонден тов
ation s
зи и.
▁пору чение
ной "
▁дальше .
▁A g
▁депута том
▁предусмотрен ного
▁ду шу
▁учи тель
▁ра ство
▁+ 20
▁совмест ного
ты ся
▁" пре
▁поступи ли
▁извест ной
▁охра ня
▁конферен ция
▁паци ент
▁значи тельной
▁га джет
х ов,
▁опла чи
▁г ряз
▁кори до
л ".
▁сол н
▁хими ческого
ь ба
▁Ско ро
▁A s
к )
▁да вали
парта мент
▁производи ть
▁мину тах
▁согласи лись
▁заболева ний
c o
▁пыта лась
▁И талья
▁Ц зи
▁Бу да
▁москви чей
▁тор ги
▁брита нский
▁кризи са.
▁хиру рги
▁русс ко
▁по гре
▁соответству ющего
▁свобод ного
▁( B
▁Мин энерго
▁фрон та
мет ри
д ное
▁в воз
▁хо дом
▁доказа ть
▁шта б-кварти
▁па лести
матиче ского
▁разде ле
▁да дут
▁сти ль
▁пов седнев
▁чу ж
▁"Баш неф
▁Га м
-лет нему
▁от чис
▁нен у
▁"М у
▁противоре чит
▁федера льным
чи кам
▁И А
▁называ емой
im ent
:3 ,
▁W ay
▁Ростов е
▁пол ным
-0 6
▁треть им
гна ть
▁Са мым
/1 3
▁С пор
▁налог овые
чи во
▁Запо ро
▁ве рить
▁законодательство м
▁К .
▁члена м
▁несовершеннолет них
▁пес ню
▁Би рю
▁кораб лей
▁аук циона
▁государ ственную
▁коло сс
▁ко пе
▁указа нных
▁силови ки
▁спектак ля
▁К рав
-м лад
россий ского
бо рон
▁расс ы
▁Мар га
▁ОП ЕК
▁си л.
▁способ ности
▁исследова ния,
▁YouTub e
▁зна л
▁пере из
▁Ма ну
▁Ав ст
▁Из мен
▁приеха ть
▁смарт фона
▁я рко
▁поде ше
▁тен ге
▁хоро ши
▁претенден тов
▁( со
▁у кло
▁беспо кой
ер ,
▁Вер х
▁предупре ждения
▁космо дро
▁разви вается
▁b et
сти ческая
▁ск ри
▁ключе вой
те ста
ol or
ра ми,
▁Б ей
▁$ 10
да ",
▁Александ ров
▁актив ных
▁налади ть
▁ми ру.
▁c al
▁рассу ждает
▁вер тика
-0 4
▁англий ского
at s
▁доро гой
▁слова .
л д
▁i OS
▁опо зна
▁в хода
▁жда ли
▁Пи са
▁ en
▁фаль ши
▁по ту
ль цы
▁0 ,1
▁властей .
▁Син гапу
▁рассказа ла,
-0 7
▁примен ении
▁диа ло
началь ника
е сть
▁( как
▁s c
▁выс шей
▁офи се
▁защит ники
▁име ла
▁ФС ИН
▁прошед шие
▁выясни ть,
▁с енса
▁возбу дили
ми та
▁Ю АР
тя ну
▁близ кие
де ев
▁рождения ,
▁пога шения
ё л
тра кт
T C
-2 7
х :
usin ess
▁мо ре.
▁Бель гии
▁политиче ское
ма гази
смо тре
▁Ро ма
▁собствен ному
▁воен ном
▁сети .
▁ито гов
▁арми и,
- 50
ствова ло
▁Щ ер
ше лся
▁пыта ясь
▁вице-п ремьера
▁ок купи
▁напад ении
▁контрак тов
ж ка
▁руб. ).
▁Ника ких
: 6,
▁обязан ностей
ки на.
▁"Тран с
сси я,
▁ты с
▁поступи ла
▁ан нули
▁кос мети
▁за бира
▁пос ет
▁выпла чи
▁получи лся
▁вме ши
▁про дела
A DA
ез жать
▁нов ич
▁"Ли верпу
▁постоян ного
▁Уилья м
▁бюджет у
▁с горе
▁доро же
▁Моло де
она блю
ря ть
▁отрасли .
▁периоди чески
н ений,
ля тся
▁способ на
ский "
ри на,
▁поступа ть
▁ре зи
ствова ния
▁докумен тов.
▁по лю
веден о
-0 8
▁партне ром
▁результа тах
▁сканда ла
▁ан самб
▁за мер
▁ниже город
з ма.
▁( из
▁показыва ть
▁Фина н
▁дово лен
▁вы езжа
▁пассажи ры
сти ческие
▁де ли
▁M r
▁площади .
▁сопер ников
О К
ско п
▁игру .
ъ юн
▁ба лла
▁форма т
▁го стях
ше к,
/ s
▁п ет
▁пенси оне
▁разгово ры
▁избе жа
▁"А иФ
▁кни ге
▁(4 9
▁Ра фа
ру ющий
▁(1 3
▁дорого стоя
зова я
блю да
▁при хо
▁готов ить
▁вы езде
▁трав мы.
▁чрез мер
ением ,
▁предположи ть,
▁запре тили
▁мир ,
▁j ust
парти й
▁Матви енко
▁Серби и
▁су ть
P .
▁пред при
▁нужно ,
▁ска жет
▁инвести ционной
▁нефтя ных
▁граждан ства
▁па с
▁сообщи ть
▁предвари тельного
▁улы ба
▁пя тый
▁ба на
▁устрои ть
▁отмен я
▁вслед ствие
▁полет ы
▁оцен кам,
▁аф ган
▁O r
▁пожа ре
▁Ка мен
m p
▁По пов
▁призва ли
ab l
▁види м,
к »
▁при шед
▁Guard ian
▁Уголов ное
i ent
▁доро жно-
фика ция
ением .
▁V is
▁подпи сь
▁Я ма
▁форвар да
фор д
▁Клю че
▁P ar
▁Де ся
▁вспомни ть
▁ко пей
обе седни
▁о спо
▁пред сказа
ро га
▁про цвета
▁9 4
▁мето д
▁докла да
да ль
▁( R
▁совер ша
▁об щие
▁потря са
▁заяв лению
▁пассажи ров.
▁ли тов
▁завоева л
▁выясни ли,
▁не яс
хо лдин
▁15 9
▁Волго град
▁способ ы
▁учи теля
▁Х ью
▁Мин экономи
▁Башки рии
b y
▁У сть
ном ет
▁actual ly
▁сети ,
▁мест ными
▁экологи и
▁по кой
▁Russ ian
lob al
▁Сов ремен
ль ев
▁Па ссажи
в ят
чи ками
▁ли хо
▁уровня .
▁действи й.
▁роди лась
▁се стра
АС Е
▁об лом
▁Ибра ги
▁побе жда
жива ние
▁пре р
▁автомоби льных
▁тон не
▁процен та.
▁Ме роприя
▁гомо сексу
▁Ал ма
-1 00
▁площади ,
▁происшествия .
▁Сай т
▁ВЕД ОМ
▁прось бе
▁потреб ности
▁АиФ .ru
▁получи ло
▁гривен .
▁Ленин град
P ,
▁ВЕДОМ ОСТИ
▁сред ства.
▁действи тель
▁с пад
▁пресс-служ бу
we en
ор дини
▁ду б
▁мя са
▁Севастопо ля
▁муж ской
▁сме ш
▁мат чем
▁ма дрид
▁экскур си
▁Ю жная
▁О черед
па л
▁сдела н
▁клиен ты
фор мули
▁Ли вии
▁слож ной
М .
▁за пусти
▁наи менова
▁домаш него
▁Кы ргыз
▁приобрет ения
▁сы рь
▁ан гли
▁(0 )
б ет
▁Соответству ющее
▁о пор
ing ton
▁l ike
▁промышлен ности,
жно му
▁предлага ли
▁рас цени
▁пропа ганди
▁(М осква
ен ности
секре таря
▁ава рия
▁геро я
▁ауди о
▁уверен ность
ля я
▁до хо
os s
▁вне сли
▁атом ной
са эро
▁занима ть
▁многи ми
▁посе л
▁г ля
▁пред ме
▁Гор ба
5 8
▁Мурман ске
at or
▁пассажи ров,
▁туа лет
ч ку.
2 :00
мен тов,
▁«Из вестия
▁приро до
▁Ка ри
▁аре сте
чения .
▁Т ек
жа ются
▁горо дом
▁посвящен ный
пи на
▁Си рию
ion s
▁твер до
▁градо строи
▁Па па
▁а мери
▁перио д,
▁порта ла
▁кар те
▁с м.
▁районе ,
▁кампа нию
лья нс
▁доро ги,
▁журналиста м,
▁Л ан
▁причаст ность
▁не чего
▁производи теля
▁"На фто
▁3 -4
▁да вайте
▁ку па
▁хо рео
▁Фран к
ов :
э ля
▁зимни х
▁Вьет на
▁голо дов
▁малень ких
▁остав шихся
▁подопе чные
▁телекана лу
▁при город
▁во преки
▁пере клю
▁ак цен
че л
▁победи ла
i j
хи х
▁"в се
u y
да )
S J
▁разработ ка
▁раньше .
ве ри
▁бер ут
▁а нима
▁органи зм
▁ресур са
w ay
▁на град
oin t
▁не кий
▁избира телей.
с »
ir l
▁Во скрес
▁тех но
▁презента ции
▁ра стя
смо треть
▁крае вой
▁Ниж него
▁ю мо
▁настоя щим
ка на
ника м,
▁Еме лья
5 %
▁ле са
▁L td
▁болга р
▁железнодоро жного
▁соблю да
▁предлага ем
▁1 %
▁стара ются
▁комисси и,
▁Саратов ской
on ,
▁сро к,
▁а ку
▁распростра няется
▁то чек
▁Со ро
▁t w
ви тие
▁бро си
mitt ed:
▁соглас ны
▁Ва й
ми ль
▁Ста лин
▁Ио ан
▁д зю
.com. ua
▁и. о.
то ка
▁Екатеринбур га
▁Среди зем
▁настав ник
▁при способ
▁S he
▁запрещен а
▁же лу
▁права ,
р пи
▁со единения
▁2 ,2
ри ться
лены .
▁судь бе
▁Во ен
▁право по
▁выпол няет
▁Афгани стане
▁Ч лены
▁бра та
тов и
▁Право охра
▁"Новости ".
▁на жмите
▁T V
▁арми и.
▁ко де
▁план ета
▁дел овой
▁функ ций
▁управления ,
▁данных .
▁с жи
▁Север ная
▁Лени на
▁какой -либо
▁пер ви
▁информа ционного
▁участи ю
▁подо бра
▁реали зовы
▁хоро ших
▁Тур к
▁кора бли
▁компенса цию
▁У Н
кс ем
▁отказыва ется
▁рай оны
▁О ллан
▁зарегистри рованных
▁прай мери
▁Ва ш
▁Н К
▁матча .
▁брига ды
▁пала те
ри сова
▁консоли ди
▁похо же
anc ial
▁суд ы
7 3
▁докумен т,
▁о хла
▁при нести
▁россия н.
▁дополнитель ный
5 6
▁неф ти,
▁ФР С
▁Ма лы
▁пя тер
ви ду
▁Ма я
▁" из
▁настаи вает
▁вы р
en n
▁год овом
ши н.
▁ки но.
▁депута т.
▁превы сил
▁Гер ман
▁сена тор
нов е
▁Кита й,
▁по гло
▁(1 4
▁но г
й ской
▁следу ющее
н ке
▁впере д.
A .
тия .
▁рыно к,
▁за думы
▁п р.
ци оз
сси ей
▁дизай н
▁планиру ем
▁МО К
▁место на
▁стра ну.
▁зако на.
▁домаш нем
▁ле жа
▁Ме дин
▁сторо ной
▁оборо не
▁Испании ,
▁Р А
▁Министер стве
▁обнов ление
ли зация
▁24 ".
ле в.
5 3
▁с фера
▁an y
▁за поведни
ру г
▁from :
▁леги тим
▁Д зю
▁ак ции,
▁это м.
▁ли шение
▁мет ра
▁Европей ской
▁соблю дения
▁ма стера
▁плат форма
▁Ка лаш
▁назва ния
▁сложи лась
▁при клю
▁собо й,
ан ти
▁ц ени
▁подня лся
on .
▁жерт вой
▁Чер номо
▁кноп ку
▁( бо
нов ич
▁экспер ты.
▁Япо ния
▁бизнес ,
▁компания ми
▁архи те
х ло
▁Му зе
▁сэкономи ть
▁Вы боры
▁мани фе
▁ба лли
▁маршру ту
▁графи к
ated .
▁чув стви
▁работа ем
▁слож ные
as ed
▁жилищ но-
▁экономи чески
▁ча са.
▁поряд ке,
▁11 ,
re ak
▁дви жении
▁персона ла
▁серьез ное
▁Бал тий
щен ный
▁ти хо
▁немец ких
Т У
▁Хо чу
▁владель цем
▁исправи ть
▁возвра щении
▁пользова тель
▁отправи ться
м ский
- носи
▁против ном
ло кон
▁Пре дыду
▁N issan
▁друго е.
▁тяже лых
▁тюрь ме
▁обвиня емых
▁страна м
овы вать
ереметье во
▁Иису с
▁"П ере
зо м,
▁установ лено
▁ жд
▁твор чества
▁луч шее
▁не сут
лен ность
▁g et
▁Уголов ного
▁сирий ских
н ному
▁p age
▁ und
e ad
▁Му зей
▁англий ском
▁рыно чной
9 3
▁ему ,
▁изда нию
▁бы вают
▁беспи лот
▁Ф ур
▁проводи лись
▁И дея
le y
ь е,
▁выбра л
▁М ень
▁рее стра
ков ской
▁наде жда
▁факуль тета
▁во ле
▁строго го
▁раз обла
▁пово дом
роне ж
▁Американ ские
▁проспе кт
▁деву шек
▁слуша ния
жи в
▁голов е
▁проме жу
ти лись
▁С кан
ни ться
▁заплани рован
▁деб ют
▁Пред лага
▁Буд ем
▁от сро
▁спро си
▁сведения м
▁бесе ды
▁оборудова ния,
▁выбо ры,
▁серьез ным
▁православ ной
▁магази нах
▁Пример но
▁роско ш
▁ча с.
▁src ="http://
▁изда ние.
▁старт овал
▁на ход
▁спас ения
▁части ,
▁ре органи
▁проек тов.
▁Дени са
▁присут ствия
am il
▁те ми
▁5 ,5
▁ию нь
▁объяви ть
▁обра за
▁Ката ло
▁по- друго
ф унк
▁направлении .
▁Окса на
-2 9
▁мину вшей
▁" п
▁ген прокуро
ка ют
▁дела ть.
▁О собо
-К у
части е
▁Ис пания
▁кон ъюн
ф ли
▁ста рин
▁расследова нию
▁неизвест ный
тер ,
ще ,
▁эпо хи
ны :
▁попада ют
▁Л об
▁участ ником
▁су тки.
▁раза ,
▁не раз
▁стать ям
▁эмб ар
▁Юнайте д"
▁С ток
▁уника льный
▁«Динамо »
▁представи т
▁оппози ционер
▁процесс ы
комму на
▁И де
▁вы купа
▁отрасли ,
▁ко ля
▁сосе дних
▁предпринима теля
▁Бори сов
▁фигуран тов
▁ка мен
▁удовлетво рил
▁действу ющим
▁развер ну
▁ба зи
го м,
▁при ми
▁э скала
▁ве ке
▁пи щи
▁митин гу
▁эк зо
де ре
▁мете о
с лом
▁Вален ти
▁не пред
▁цен ные
▁побере жья
▁приня тии
▁перед вига
▁У тром
нов ые
▁запо до
▁догово ры
▁програм ми
▁тра сса
▁повы си
м ов,
▁С ети
▁19 60
▁медици нские
▁за били
▁меди ки
▁Раз ве
▁за бе
▁сле ды
▁анти корруп
▁парламента ри
▁призна нии
▁ри т
▁прият но
▁Ре б
▁стра ну,
▁сыгра ют
▁воору жений
▁электрон ные
- n
▁Всемир ной
▁Дви жение
▁И слам
ст ке
▁зда ния,
▁пере са
кова я
▁принципи ально
О )
су гу
▁называ емых
▁5 ,
▁нав стре
▁F all
пло ща
▁В Г
▁офи са
▁националь ную
▁деся т
жен ным
▁про езда
ИК С
▁уг луб
▁Би ля
▁высо те
▁Би р
.html "><
▁раз гла
▁за печат
▁го лу
▁эле ментов
▁оставля ет
r ic
ссо й
пар хи
▁дерев ья
че лове
▁автомоби ль,
▁П ять
су л
▁ф лага
▁возгла вить
▁Pl ay
▁ово щи
▁супру ги
бий ство
▁зна ли
А Э
▁перево зок
▁мину ту
▁сна й
▁обла сть,
▁над зо
на ми.
▁G old
▁раз го
▁Гре ция
▁с бли
▁пла та
▁Те атра
▁Трен ер
▁Дмитри ем
▁финанс овым
▁" се
▁МК С
▁Сла вян
▁Ass oci
▁составля ть
▁друго му
▁v al
▁Бе ля
мен тировать
▁Ю жного
▁дополнитель ную
▁истори ческой
▁Fran ce
тоза ме
▁мониторин г
▁разы гра
▁турни ра.
▁страх овой
▁пла ту
▁тру дом
▁оружи е,
ц кая
▁сообща л,
▁транспорта .
▁Мо у
▁энергети ческой
-Р и
г ко
ном ер
▁Пу га
▁привле чение
мед ли
▁заверши л
▁близ ко
▁автомоби ля.
ё р
ров ый
▁паци ента
▁госпитали зирован
о па
▁обеспечи вать
дца ти
▁пере шли
▁показа л,
ью-Д жер
▁сег мента
▁откры вается
▁проблема ми
▁осуществля ться
▁аксе ссу
▁на несли
▁важ ную
д овы
то рию
▁ф лан
прия тие
▁тор гу
▁перио де
▁Ли шь
▁осуществи ть
▁узна ть,
▁ £
▁"М ор
▁вице- спи
▁Mon day
ча тся
ту ра.
▁Му хам
Р К
ра спо
но к,
▁промышлен ного
ста н,
▁связи .
▁введен ы
▁внут рь
▁останов ки
▁уг лево
▁Кар л
▁прош лым
щая сь
▁освобо ждение
▁сда чи
\u 0
▁издели я
ст ная
▁универси тете
om an
▁труд овой
ты :
▁стоит .
▁гри в
ш ка,
▁В с
▁оцени вает
▁обла стей
▁мо тор
▁" са
▁(00:0 8
" >
▁клиен тов,
▁Подо зрева
ра м,
end ar
▁Чемпиона т
▁ш ум
▁пригла сил
▁зву чит
▁В ит
▁Пар тия
▁ре д.
▁бере гов
▁располага ет
▁шах ма
▁игно ри
▁опусти тся
▁одно сторон
▁2 20
▁голосова ть
w ard
▁Па у
▁за вед
▁побере жье
▁"Ком мерсантъ
то рий
▁предприя тии
▁Т е,
▁"Д он
▁профсо ю
▁технологи й,
▁П лан
▁профсо юз
▁Ки ев,
▁зато п
+0 2:00
▁представи телем
▁попро сила
▁выс ших
бо кса
▁( T
▁Да вы
▁с формули
лич ные
ция )
at es
кла сса
НЕ СК
▁возмож ны
] [
▁Г ан
ik i
ки в
▁автомоби ля,
м »
al d
▁трудо устрой
▁профила к
▁ль ду
▁од новремен
▁"П и
-2 8
▁пострада л.
▁"О н
▁обы чной
▁с писа
▁о ре
▁Ба ку
▁обнару жения
▁кот те
▁Ве ду
па .
жи ла
▁Pr ess
си муще
▁расс каз
нен ы
id th
▁обжалова ть
▁отношения .
▁потеря ла
▁катастро ф
чи нов
▁ша гом
▁ other
▁с ход
рев .
▁поня тие
▁Говоря т,
▁Вашингто не
▁гаран тировать
u z
▁Бы ла
▁Б лат
она .
▁радио станции
▁э волю
▁независи мых
▁in ter
▁современ ным
▁незакон ном
▁И так,
сев до
▁вой дут
-Ж аней
▁группи ровка
▁экза мена
▁то ро
▁ма сси
. aif.ru/
▁предыду щие
дирек тора
ни ей,
▁индивиду альных
▁уровня ,
▁Е ро
▁Рио -де
▁Б ру
▁неделю .
ль ят
▁p art
▁моби льный
▁разру ши
▁Чува ши
чный ,
▁Ф ГУП
▁подрост ков
▁полузащит ника
▁эк вива
▁Ре жиссер
▁мощ ный
ча .
ни с
▁ла м
▁эквива лен
▁инте лли
▁M c
▁креди там
▁У э
▁виде онаблю
▁хо л
▁доброво льно
▁простран стве
▁уси ление
▁необходи ма
▁экспер ты,
ш ки.
▁ее .
▁"Се годня
ку с
▁о до
▁Ан тона
▁администра ции.
▁привле чены
▁без на
▁жест кой
▁рас пи
▁троллей бу
ни ком.
ня тся
▁Х ей
▁неизвест но,
и ска
▁выбо ре
▁24 0
: 7
▁подписа но
▁муниципали тета
▁социаль ную
▁задействова ны
▁дан ными
▁Кирги зии
▁Пес ков.
лена .
д ению
▁Ста тья
▁опас ения
▁раз ли
▁прогре сс
▁"Тран саэро
▁маши н,
ству ющий
▁B ut
▁Центра льный
▁Кры ма.
▁под ле
▁дости жение
▁ our
▁ра да
▁s ome
▁Ста н
▁Ба гда
▁ци кла
▁буду щей
▁отда ли
▁Н ИИ
▁замен у
▁ово щей
▁<![CDATA[ R
Т ,
▁современ ном
▁артилле рий
▁Россия не
▁принци пы
▁кана ле
▁Извест ный
▁Пари ж
▁Разу меется,
▁" золо
▁маши н.
▁фир мен
у ме
а ни
▁n o
▁твор чество
е да
▁назна чена
u ch
▁требова ли
▁реша ется
▁Ду б
▁узна ли
▁( это
▁Е лены
▁фон ды
з ур
▁роди телей,
▁НАТО ,
▁Экспер т
▁Свя то
▁жилья .
▁Эти м
▁С ни
▁при вяза
хра нили
▁Ф ору
▁х ро
▁Х Х
▁Крем ля.
▁оче ви
▁(1 99
id =
G ,
▁лидера ми
▁Нача льник
▁затя ну
▁на строй
▁Норве гии
▁момент .
▁1990 -х
кну л
g ram
▁центра .
▁бан ком
▁ч ей
▁кров ь
▁лагер ь
▁запи сы
▁" па
▁Вы ясни
то "
▁года ).
▁материа лов,
▁дополнитель ное
▁встречи .
▁bet ween
▁брита нских
▁беспре цеден
i et
▁норма льно
▁прото кол
▁нет ер
▁ very
▁болез нен
en ,
▁заяви в,
▁Вален тин
▁от ъ
▁сво я
▁за держ
▁литера туры
к :
го м.
▁настоя щей
▁состав ят
▁«П ро
▁актив ного
▁трени ровки
▁награ ду
тин ента
▁До ля
▁город ском
▁направи ла
пи с
▁производ ственных
▁позволи л
▁(Г ерма
▁добави ла
▁Ю КОС
org an
слу ша
▁<![CDATA[R e:
се де
▁рабо те,
▁те ми,
▁ру мы
ут бу
▁Брита нии
▁П АО
▁Л ева
▁буд ь
▁вся ком
▁теле коммуника
▁объясня ется
на х,
ще в
▁"Реала "
▁настро ения
ково е
в зо
▁под ро
▁стратеги ческого
строй ство
▁(1 7
▁перво му
▁сре дних
ь ев.
▁при гро
▁хоккей ной
▁выпуск ников
▁барре ль
▁поч те
▁Рио-де -Жаней
▁сало не
▁по бу
▁призна на
▁позво нил
▁ка нали
▁рен та
▁n ut
▁вы яс
▁игро ков.
+0 3
▁контей нер
▁бен зин
▁содей ствия
▁петербург ского
▁диск римина
▁цен ности
▁и сков
▁каза лось
▁сх ему
▁Pre vious
▁Значи т,
▁#1 2
▁Оль ги
▁использова л
б рен
▁акти ве
▁ро сте
з ре
▁интер на
▁го ры
▁испол нять
▁пожа ров
▁непри коснов
сова ,
▁источ ника,
▁"Реа л"
▁полу чен
▁от мы
▁С вое
▁что б
фа на
▁хра нили
▁премьер-мини стром
жи вают
▁ре ли
▁действи тельности
▁называ емые
д ным
ту ре.
▁Мо дель
▁исполни лось
▁подоб ной
▁Произ вод
щен ко.
▁источ ником
▁от клады
▁во де
роб анк
▁Д НК
▁привез ли
▁про ч
▁вы йдут
▁оппози ции.
game 3a
game3a .com/
▁у мышлен
▁12 5
▁попада ет
▁внезап но
ин не
▁"На циональ
ра х,
▁домо й,
▁Ю НЕСК
▁глоб альной
ры з
▁198 9
( s)
▁Ар тур
▁у шла
▁мо ре,
дни ми
▁собы тий,
▁коман де.
ж ку
▁счита ются
▁ко е
▁Мин сель
▁конъюн к
▁несо гла
▁красно дар
▁до м.
▁собира лись
▁юрис дик
▁И орда
▁правоохрани тели
Б а
тив ному
▁W all
▁рассказыва л
▁иден тифика
▁возгора ния
p x
▁пла ти
ру ково
▁публи чных
ки ну
▁Ш отлан
▁вылет ел
▁принима ются
▁француз ских
▁прогноза м
▁убра ть
▁коман ду.
9 4
▁Астра хан
▁Ми ла
▁крым ских
▁при м.
▁д ю
▁Ча сто
▁с гово
▁бал лов
▁три лли
▁сна ряд
ТР К
▁биатло нист
▁отлича ются
сс ар
▁собствен ным
▁сла д
▁«Н е
▁13 ,
▁" S
рии "
▁" ин
▁городе ,
▁Свя того
▁опер ы
▁согла шению
▁вто ри
▁ха в
▁Кры ма,
▁самопровозгла шенной
▁ лого
▁при води
▁готов иться
- м.
шь .
▁маши ны.
▁Ру си
льным .
▁площад ку
из у
▁арестова ли
▁отка зе
▁Мол дова
▁суде .
▁получа ется,
▁оказа ние
▁"Ве домости
▁15 00
▁То ма
v o
▁с казыва
▁ру ка
▁води тели
▁досро чно
▁"В оз
▁"Газета .Ru
▁м яс
▁потеря ть
▁запа сов
O n
▁за ряд
ску с
-1 99
И Р
▁2 ,3
▁предмет ы
▁иг ровой
▁опреде ляет
▁может .
▁холдин г
▁столи цы,
▁понима ет,
▁Институ т
▁санти мет
▁мину вшие
▁призыва ют
▁о мбуд
лова я
▁прод лении
▁мошенни чество
▁"П ор
▁По рту
▁предупре ди
ков и
▁На гор
▁Украин ские
во к,
ка пита
▁от ры
▁« по
▁соответству ющей
▁оказыва ют
▁быстры й
▁продолжа ются
▁пенси ю
▁внеш него
▁п ей
▁демонстри рует
▁ви тами
▁поли цией
▁бан кро
▁над лежа
k z
▁присут ствии
▁Ку да
се зон
▁П раз
ступ ен
▁благо со
▁достав ки
▁штраф ов
▁восто р
▁реак цию
▁привод ят
▁Хо к
▁контак ты
▁ЦБ ,
ми ну
щения .
▁Мар т
▁игру ,
▁собра нии
това ,
П )
▁незакон ного
▁гро з
▁ ����
▁Ф ар
▁стоя ли
▁заня тий
▁террори стических
▁вопроса х
▁Стра ница
▁2 %
▁бо ев
техни ческого
▁ЦСКА ,
▁планирова лось
А ЭС
▁свобо дно
ро к,
▁похи тили
▁эн тузи
▁положи тельно
▁прино сит
▁С обеседни
▁рас хода
ма ".
мо на
b log
▁ме кси
▁комплекс ов
▁недобро сове
▁места х,
▁Б ак
▁быстро го
▁назна чить
▁промышлен ной
ри "
▁з ов
жи на
▁Ав стрии
▁положи тельные
▁ВМ Ф
▁А фи
▁Лю бовь
▁номер ов
▁возвра щается
це пи
▁хран ение
су да
us ic
▁Венесуэ лы
I C
евро пей
▁Кор респонден
▁став ят
▁проведен о
хо т
▁мо ем
▁Плю с
▁прогре ется
лли ной
▁та ли
▁разработа н
▁серьез ной
▁ограничен ными
е га
▁вы би
▁наде емся,
▁набра ть
▁бан кома
▁проводи л
▁опубликова но
▁мероприятия .
ad .
▁Са мая
▁Екатеринбур г
▁год овы
▁"М ак
5 7
▁улице ,
▁неосторо жности
ха я
ром "
▁парламента .
ном "
▁процен тов,
мер ть
▁присоедини ться
▁wh at
▁не сомнен
▁заклю чить
▁преследова ния
- l
ден циаль
▁си деть
▁опера тивного
▁предусмотрен ных
▁пре ссе
у тся
▁обо ст
▁лицензи ю
н юд
Q L
▁дове сти
▁в лож
▁поли цию.
▁язык :
▁ави али
▁th an
▁тогда ш
▁"Рубин "
▁ag ain
▁разме ром
▁льго т
▁реаль ности
▁мет рах
ф ар
▁и ко
▁вы ку
▁Нью-Йор к
та лки
ник ова,
▁G ener
▁Вы ру
▁R ed
фе ев
▁международ ная
▁Си л
работ ка
▁оформи ть
b e
▁Я р
то ром,
▁опреде ленной
▁увелич ению
ков ь
▁двусторон них
▁брен да
▁гру бо
▁Органи зация
ходя тся
пре мон
чу ть
▁лабора тории
▁подтверди ла
▁Цент робанк
▁вы са
▁ку по
▁до говари
▁граждан ство
an y
▁Тра ди
▁мемо ран
▁про сили
/d iv
▁Изда ние
▁Молда вии
▁Т Э
▁Дмитри ю
▁серьез ную
ста ми,
▁понима ние
▁россия нина
▁у сугу
▁с лия
ew s.
▁дева льва
▁В АЗ
▁Зю га
го "
▁« не
▁it s
▁дра й
▁от чита
▁италья нского
▁ре ке
▁+22 °C
▁тру да.
▁националь ные
▁расположен а
зо не
▁обы ски
ста били
▁нет рез
▁I B
▁успе хов
▁коммуна льных
ко п
▁" си
▁ци та
▁со председа
▁интерес ова
▁Администра ция
ст ными
▁след ственных
▁поез док
▁вы ехал
▁н ю
▁отправи тся
▁съ ез
▁наро да,
▁ли шить
фа бри
▁In t
вши сь,
▁контра бан
▁предвари тельно
▁захва ты
▁дру га,
га ми.
▁"Аль -Каи
ка нал
▁конфлик та.
▁отмени л
▁современ ный
▁пес ня
r ist
▁расположен ного
▁Его р
▁ава н
▁Безу словно,
го та
▁пло до
▁сме ло
▁Пар ламента
▁противостоя ния
oci et
▁Сток голь
че к.
тон "
▁Спа ллет
▁отра сль
бир ком
з ли
▁до ми
▁О конча
▁по спе
▁7 ,5
▁чер ного
I F
ты -Ман
▁материа лах
▁"А дмира
▁Од ной
▁обнаружи л
8 4
нов ым
▁прогно зы
▁причи ну
▁S uper
▁рей са
▁Ф ай
c el
зи нг
▁популяр ности
▁научно- исследова
▁аг ента
▁Ель ци
▁Эрдо ган
▁мар т
▁ответи ли
▁оптими сти
P ro
▁большо му
▁опу хо
-2 6
▁регуля тор
▁мол дав
▁с мена
▁дан ная
▁cal endar
ум ф
▁прошло год
▁на нести
▁раз мыш
▁приступи ли
▁за т
▁те мой
▁обвиня емый
▁У ровень
▁намер ено
▁со ж
▁технологи и,
▁справи лся
▁при пар
мен ять
▁физи чески
т нер
▁второ му
▁2 ,4
▁недав него
▁П ДД
▁ли в
▁стреми тельно
▁сказа ла,
▁возможно е
▁уби л
▁Кри сто
ла ",
▁"Н овый
ты-Ман сий
c b
▁О си
▁неблаго прият
▁Та ган
▁прошед ших
▁ответ ы
▁расстоя нии
▁Не о
бер ку
▁копе ек
ти п
▁m aps
ложен ы
гла в
▁Ве ра
▁фор м
▁сы рья
▁во шла
он ,
рован ными
▁смартфон ов
▁горно лы
▁УФ С
ра ми.
по нима
▁Ф у
▁жилищно- коммуна
нюд ь
▁#1 5
▁Ра да
▁За держан
▁международ ное
▁Лондо н
▁Анге ла
▁при вер
рую щего
▁про бу
▁пригла сили
▁сдела ны
▁реаль ный
смо тра
▁ЦСКА .
▁стихи й
▁ди ри
▁скам ей
▁С ю
▁действия .
com m
▁заби ть
▁голо сов,
▁парамет ры
▁соболезнова ния
▁пробле ме
▁кризи са,
▁Г ит
▁завер ша
▁href ="
▁впечат ление,
▁Ф СК
▁противо прав
▁Ки пра
▁федера льные
▁землетряс ения
▁НД С
/a ><
▁нару шает
▁е жене
▁материа лам
▁посоль ство
р эн
▁Н ей
▁кур се
▁виру с
8 3
Ф Л
▁На биу
▁специаль ная
▁облада ют
Г "
▁внутрен ний
T V
▁крупней шей
c ess
но ч
▁собствен ное
И ,
▁рубежо м.
▁Б рай
ч ур
-то ,
▁"Н ор
▁выда че
▁вступи ть
▁руководи л
▁труд ности
▁проведен ного
й дя
▁полуфина ле
▁кри тики
▁крупней шего
нский ,
▁ве сом
▁об щение
▁по сте
▁потер пел
▁сопо стави
▁с держива
▁рестав ра
▁ро ма
▁побе ду.
ст "
ще .
▁интерес ные
▁корпу с
▁зна ний
▁прочи е
▁ю р
▁Ма рио
▁ко д
▁и м,
▁Да ви
ra in
▁Ра сследова
▁един ственной
▁д ем
квали фици
ла з
▁Кра й
ot h
▁метал ло
▁банкрот ства
▁не форма
▁предложен о
▁Москов ском
▁импор тозаме
] [/
▁при ш
▁Ан глий
▁сдела ть.
▁опла тить
▁Биля лет
кс "
▁эми тен
▁Mach ine,
▁По м
▁архи в
▁неви нов
▁расту т
тив ности
▁ста рой
▁10 :00
▁значи тельные
▁04 /06/16
рин г
▁c raw
▁ва жен
▁депута тами
▁под по
▁окре стно
▁1 -2
▁ус мо
▁освобо ждении
▁выде ля
▁южно корей
▁про мо
мы сли
▁счита ю
▁син х
▁воен ная
▁строи тельной
▁муль тфиль
▁раз личи
ниц ,
▁осмо тре
▁срав нении
▁С Ф
▁пода вать
▁за ново
▁десятилети я
▁клиен тов.
▁при во
▁кажды е
▁вол шеб
▁Way back
кто ром
▁дисципли на
▁дет ства
▁9 .
ю "
▁ва шим
▁опера ции,
▁Кузнец ов
матиче ские
▁торг овый
▁архе ологи
▁сократи лся
▁ки рпи
▁Б юджет
er y
▁В МС
▁М я
▁И К
щен ко,
▁са да
бер ут
▁невозможно ,
▁стра жу
▁подчеркну ла
▁гер ман
ж ени
▁с вети
▁у бира
▁ти пи
ав каз
▁с баланси
▁рабо чая
▁гра ф
Б .
не дель
▁год овой
▁Генна дия
▁за ре
про цен
▁возможно стями
▁Е .
▁лю бая
▁сни жении
▁необходимо е
▁номе ре
▁противопо лож
? »
▁путеше ствия
▁каса ющиеся
▁газопрово да
▁осуществ ляет
▁le g
ight s
▁обо зрева
os c
▁оши бок
▁сов мести
▁сре де
▁Осети и
▁прием ле
▁Волгогра де
▁пес ен
▁R E
▁"Б ра
▁брази ль
▁пока жут
▁заклю чению
▁Bl ack
▁устрои л
▁госслу жа
▁выгля деть
▁В сем
▁Ли пец
▁По смотри
▁говори м
▁сом нения
▁прово ци
▁бой ко
▁upd ated.
▁присо еди
щ ан
▁D r
▁теря ет
▁Ла за
▁обу в
▁НАТО .
▁" A
ar s
o tt
▁ощу ти
▁экстре ма
▁сериа ла
▁ка премон
▁пи ть
▁пя теро
▁"А ван
▁подряд .
ющими ся
▁компенси ровать
до .
▁выбо рам
ди я.
▁Б ил
▁ле сных
al ly
▁T op
▁к рес
▁сх еме
▁Лю ксем
▁слова ми
▁3 %
▁эле ктора
▁craw led
▁космодро ма
ены .
▁потреб ление
▁М она
м э
▁ухуд ши
со й
▁Калинин градской
лено й
▁проблема х
▁"МК "
▁« в
▁Ми ллер
▁препара тов
ки х,
▁у кры
▁Х им
▁выда вать
▁празднова ния
▁нау чного
▁забра ть
гра де
▁включа ть
▁the m
▁губерна тором
▁побы вал
▁на ц
▁С екре
▁У чи
▁оппози ционных
▁животных ,
▁расположен ный
▁П АСЕ
▁организова ли
▁китай ского
▁нефти .
▁англий ский
▁Коммента рии
▁договорен ностей
▁конструк ции
▁атмосфер у
▁бы л,
▁обра зе
▁у трен
▁гру зо
el iv
▁зна комо
▁адвока тов
▁челове ческого
▁инвали д
▁здоровь я,
▁з ря
ру ем
▁Причи ны
▁слу жит
▁приро ды
▁Су б
▁неде ле.
▁косми ческих
▁юно ше
▁хо дь
▁Си ри
▁Су да
▁л ё
о ра
те гра
▁Н ью
прав ля
▁Лондо на
▁нагруз ки
-Во сто
▁Вы ставка
▁отсут ствием
▁П рес
▁масс у
▁ну жд
▁подо р
▁полити ке,
мо ло
экс пер
▁сообща ется.
▁понима ем,
▁сезона ,
▁ш ар
▁женщи н.
▁ал лер
▁миров ые
- S
▁M in
нов ение
▁неза медли
▁пригла шение
▁похо ж
▁но утбу
▁продол жения
ст ского
▁Пер мского
▁рассмотр ении
▁хак ер
ск ова
▁писто лета
▁характер ,
▁пале стин
▁завоева ла
▁откры того
": {"
▁выво да
▁Вз рыв
▁style=" padding
▁обы чные
▁за им
▁сель ских
▁отношений .
тов ы
▁Ком сомо
п п
▁ш пиона
▁подготов или
artic le
катери нбур
▁заявля ют,
▁возду хе
6 2
я рского
▁Ко ма
▁этого .
▁верну лась
▁чисто е
▁ви ны
▁захва тили
▁Общество :
ru it
▁сохра нять
▁То локон
▁дела ем
▁Даге стана
▁Я ,
▁поу ча
▁"Д ля
▁Те ха
- бан
▁запрещен ных
ла к
▁креди торов
▁худож ников
ф т
▁центра ,
▁про мы
▁им пуль
▁прежде времен
рова в
▁Ре бя
▁логи сти
рово м
▁гра би
▁перево да
два рд
ен ты
▁со при
▁ли ний
▁затра ги
▁Previous 1
▁З им
el f
▁П ак
▁баталь она
й м
лов ым
▁экологи ческой
▁К реди
пла ты
▁написа ли
▁связыва ют
▁со един
▁ру ки,
▁L ada
▁ли ,
ж ды.
▁у крепи
▁Получа ется,
- м,
▁Мин здрав
▁стрель бу
▁Пово дом
▁взи ма
▁рассматри вают
▁неиз мен
▁при я
▁Виль ню
ш ор
ang e
▁норве ж
▁го лова
▁контин ента
er v
▁производи т
▁стрем ление
д му
▁ра ска
лу ско
▁учени ков
▁озе ра
9 2
▁напа ли
▁большин ством
▁силы .
▁Рабо ты
▁причина х
▁однозна чно
m in
▁ра стра
▁похо ро
▁ск воз
ден а
▁ме ду
▁Мин ком
н ю.
гу ра
▁жиль я,
▁республикан ского
ман д
▁пересе чении
▁дисквали фици
▁к г.
▁ребен ком
▁жест кие
▁малень кий
▁но кау
▁боль шими
▁Г ур
- Ч
▁раз рыв
▁сотрудни ков,
гове щен
▁бюллет ен
▁жи телями
▁обра щений
▁при зе
▁откры той
▁выру чки
▁попро сту
▁заве домо
▁"ВКонтак те"
( а
▁бан ков.
▁материа лы,
▁плани ровали
▁сезоне .
▁Ж изнь
▁от нюдь
▁озна ком
▁отчет е
▁объясня ют
▁рай ону
▁можно ,
▁конкре тно
▁демонстра ции
le x
▁журналиста ми
▁Универси тета
▁Т .
▁остав шиеся
l es
▁При ня
▁беско не
▁насе лению
▁обы кнов
▁Ал жи
▁снизи лись
▁10 -15
▁да вал
▁рыно к.
▁права .
▁коммента рия
▁Суще ствует
ле в,
▁вопро сов.
▁Си бир
▁с менить
▁пере лом
▁же .
дей стви
▁управля ющих
ейс бу
▁ко жи
▁полномочи ями
▁продук тов,
тера пи
▁на ря
▁счет .
---- ----
▁Су м
па в
▁"К рас
▁не пол
▁а ,
▁Ах мет
ни на.
▁Ма дри
жде ствен
▁матча ,
▁жилищ ного
▁Минобрнау ки
▁21 0
▁S m
ри н,
▁администра цию
▁производи тся
▁узна л
▁авто ром
▁Н овым
▁Ново е
▁труд овых
▁ядер ных
▁А ра
▁С аль
диви тельно,
▁П М
▁из лиш
▁семь ей
T 0
▁повре жден
▁гран диоз
▁дальше ,
▁ЕС ПЧ
▁Джей м
/0 9
▁микро авто
▁Роспотреб надзора
▁"Красно дар
ж ник
де сят
▁Защи та
▁До гово
▁услу ги,
▁"Мо сков
▁пре фек
▁приеха ла
▁пов ле
▁магази не
▁Те ль
▁выяв лено
▁верси и,
▁дво рец
▁сне г
▁призна ла
▁Мо роз
▁зри телей.
▁шай бу
▁about :
год но
▁распо зна
▁#1 3
▁кре а
▁Луч ше
▁погибли ,
▁сим пто
дова ли
▁продолжа т
▁мо рского
▁провер ке
▁исклю чения
▁раун де
Б О
▁XX I
▁В Д
▁тер ра
▁мо ну
▁Пред вари
▁реконструк цию
лин ского
▁кру шение
▁осужден ных
▁0 ,3
▁следу ет,
▁международ ными
▁Пер вого
▁Молда ви
▁про си
▁сто и
▁силу .
▁Б .
▁при менить
▁комфортно ;
▁будущем .
▁Кри шти
und ai
▁уточ нили
гов и
▁три жды
▁установ ка
▁выступ лений
▁льго ты
▁ма хина
▁Гла вы
▁Жо зе
▁У ил
▁прогно зиру
▁инициати вой
gl ish
▁па вод
▁вы зова
▁тури стов,
▁год ов,
▁Бер луско
ски м.
▁региона х,
▁актив ной
▁мед вед
▁попы ток
________ ________
▁не лег
▁На чина
▁экономи ческая
прав ки
▁Со ю
▁устанавли вать
▁род ном
▁кандида ты
хо ждении
▁тем но
▁о чки
▁от се
▁собира лся
▁хокке ю
IM G
▁санк ции,
▁отправ ки
▁по хва
▁э коном
▁здравоохран ения,
ри н.
▁впере д,
▁редак цию
▁присут ствует
sp an
▁Цен три
i ed
зи на
▁мужчи н,
▁окон чил
▁Ъ- Н
▁Мосгор суд
A ,
▁инвести ровать
▁Са д
▁серьез ная
ры "
▁Цар на
пре да
▁пита ния,
▁N AS
рав ни
▁це по
▁I S
▁уголов ные
▁опреде ление
▁6 ,5
ден ь
▁результа та
▁про пуск
▁искус ства,
▁арестова ны
▁Г .
▁Бе лоу
▁случа я
▁испыта ний
F C
▁Э двард
▁сокра щению
▁непри емле
▁не д
ску ,
▁та мож
▁обо шлось
у "
▁правительство ,
▁наро да.
A C
▁s ee
us h
▁вол на
▁какие -либо
▁ки ше
▁откров енно
7 2
▁представля ется
▁разно образи
- э
▁офи це
▁объек тов.
▁предлага л
▁у станово
▁( D
/1 4
▁ йо
торы .
▁катего рий
▁инстру ментов
▁в вел
▁види мости,
▁прото кола
▁мер ,
▁деше вые
▁откры лась
гля ды
▁затя ги
▁С лово
▁команди р
▁инспе ктор
▁меди ка
▁Лит ви
▁Увер ен,
▁"Газете. Ru"
▁е пархи
▁ру ки.
за к
▁ °
▁под защит
▁ж у
са ".
▁подо шел
▁Спорт :
▁экономи ческим
▁поступа ют
▁Нау ка
▁осуществ ление
▁ар сена
▁эта жа
▁отправ ля
▁А стана
▁изу чить
▁Мо ги
▁законодательства .
ти тся
▁отправ лен
ж ли
▁п севдо
▁дальней ших
▁захва т
▁ос ла
▁живо тные
▁Э ква
ё н
▁фи к
▁меня ется
▁" ра
▁19 41
▁Сред няя
▁чемпиона ту
▁п ени
▁о телей
▁поня ли,
ва емые
▁s ay
▁уме ет
Р ,
▁опубликова ны
▁свидетель ства
▁Подоб ные
▁Ху до
▁ги бри
▁Агент ства
▁( L
▁Мар ти
▁коллекти ва
▁По станов
▁присо единения
▁Ронал ду
▁администра цией
▁пенсион еров
▁«К а
▁памят ников
энерго "
▁выво ду
▁Ва жно
▁прожи вают
▁какую -то
▁вы пустил
▁p er
▁стрем ятся
от тен
▁арген тин
▁су ток.
▁отвеча я
▁ф она
▁Сво ю
▁стра ницы
раз ному
▁больнице .
▁Т О
▁называ емого
▁механиз ма
▁переста ли
те лось
▁ок но
▁пути .
▁по чита
▁http:// s
▁в енти
▁раз вали
▁умень шить
▁мекси кан
▁бан кам
бы л
▁гос програм
каж ут
▁s ays
▁Магни тского
▁глав ка
▁Воен но-
▁постав щиков
ки м,
▁реши ли,
▁пя того
▁«Е ди
во му
▁Д ПС
▁вз ве
Р о
▁( под
▁резона н
к луб
чен ность
▁продук ты,
▁Во про
▁**** *
▁займ ется
▁12 :00
ходи ли
▁начина ть
▁М ТС
▁самми т
▁неде ли,
россий ской
▁симво л
▁(Ф ран
▁Учиты вая
▁"Ч е
▁Япо нии,
▁объеди нить
да й
▁регистра цию
▁стра на,
▁истори ческий
▁I s
▁фини ши
че в,
▁учре ждение
▁Интерфак с
▁( Я
▁те сно
▁ва жной
ю к
b all
▁зем ли,
зы ск
▁T ur
ш у,
) <
▁брен д
▁дет ек
▁заставля ет
▁скон центри
ных "
▁отно шений,
▁си дя
на »
▁"З вез
▁С Б
▁Бо жи
▁бюджет ной
▁указыва ют
▁Те гера
▁медици нское
▁глаза ми
▁генера ла
▁з вер
▁превос ход
▁Мо гу
▁территория х
▁Кон тро
▁избира телей,
▁Чи ка
▁животных .
▁[ URL
жда ют
▁ка ран
▁Сту ден
▁вы пустить
▁Русс кая
ющее ся
▁свобо ды,
▁площад ка
▁коммента рий
. c
▁прямо го
▁организова на
▁отлич ный
URL ]
▁гаран тирова
▁Абра мов
▁глу по
▁Послед нее
▁Fr iday
▁I '
▁замо роз
у са
э ропо
▁сов ме
▁това ро
▁Кита я.
▁ори ента
▁тек сте
▁кра са
це ,
▁хозя ин
▁с ен
▁все х.
▁мест ное
▁подразде ление
▁С по
ска х
▁глуби не
▁Дан ный
▁[URL =http://
ру н
▁пило та
▁челове ком,
▁оборо та
▁у езжа
хо жу
ку ",
▁заявил :
▁возник нуть
▁измен ении
▁Ря дом
5 4
▁Fin ancial
▁связя м
][/ URL]
ur es
▁коман ду,
▁чемпион ка
▁иностран ными
▁ма рок
▁осна щен
ба м
щи ков.
▁рабо чем
▁" су
ж ор
ция ми,
▁под топ
▁На жать
ст рем
▁ф ено
▁происходя щее
▁Саудов ская
▁тер ми
▁эвакуа ции
▁Са мой
▁о лимпиа
▁мед лен
▁в первы
▁русско язы
ме дици
▁Узбеки стан
▁П аль
лен ов
▁Б ин
▁опера ционной
▁ра д
рую щей
▁террори сты
▁Вашинг тона
▁распростран ен
ле ш
ску ю,
чь его
▁бра у
▁таможен ных
▁ма тер
лении .
▁U K
▁наличи я
▁о са
▁говори лось
▁l ast
▁убежи ща
▁ди стри
▁Air lin
▁с лан
▁Зе лан
▁во- вторых,
ну "
ент р
.00 .
▁И наче
▁заявля л
▁зна ем
▁пунк те
▁О АЭ
▁Шта тов
▁арбитра жный
▁де ль
▁культур ных
ствен ное,
ла ти
ство м.
▁b ack
▁использова ны
гу ля
p art
▁прекра щение
▁экономи ческую
▁проблема м
ста ми.
Т .
▁Токи о
▁обществен ное
гота вли
▁Г ЭС
▁привы к
▁тыс. ,
er a
▁обеспечи вают
▁достиг ло
▁ощу щение
▁сопротив ление
цен а
▁акку муля
▁стра жи
6 1
▁По мо
▁мене дже
iment o
▁инте рак
▁Га джи
▁Ф ло
▁Х ру
▁ID :
▁матче й,
▁фак торов
▁моби льные
▁Спе ц
▁минист ру
-201 0
▁уда ром
г ка
▁внед рения
▁от ходов
▁на бо
ан га
▁рекоменду ется
а д
▁незакон ным
ке ",
▁до льше
ши н,
▁созда ется
▁фак тов
▁отказыва ются
▁Спа си
▁увелич ении
ко зи
ре е,
▁собствен но
▁при клад
ку ли
E D
▁низ кий
▁разве дыва
▁окт ябрь
▁рав ных
▁интере сам
▁Цена :
ат ю
▁существова ние
▁от бор
р ная
▁отно ся
▁ря ды
▁слож ный
▁тем пов
ху а
ова ри
▁государств .
- R
ва ле
▁Ка ро
▁разме щены
▁оправ ды
▁пострада вшие
ста н.
▁о дних
дер ы
▁призна ков
▁бо и
▁газ ,
▁ва шу
▁чи стая
▁нау чные
▁возмо жен
тор г
▁сфер у
▁ма лыша
▁оста н
ет ро
точ ных
▁струк ту
▁многокварти рных
▁выступ ят
▁семья м
▁"Ура л
re am
▁"Си би
б ки
▁раз ного
ши те
▁пользова ния
▁Кришти ану
▁прояви ть
▁М ей
▁ощу ща
▁ак ты
▁гр н.
три о
▁экономи ческом
ть кив
▁подтверди ли,
▁веб- стра
▁рас предели
▁граду сов,
▁приблизи тельно
▁опреде ляется
▁"Ж и
▁до ме,
▁исклю чает
▁выпла ту
▁сме сь
▁рам ки
▁измен я
у и
ствен ности
▁уби ли
▁специаль ную
▁уг ля
▁ско рей
▁Tim es.
▁организова н
▁пенси й
▁ок купа
т ет,
▁иностран цев
▁претен довать
▁вырази ть
▁механиз мы
▁Хан ты-Мансий
n ess
ха лин
▁ми тро
g et
▁за трудни
ено к
▁сне га
▁( G
▁ново рожден
▁услов но
▁возгла вит
▁клуб ,
▁уничто жить
▁раз ря
▁город .
ur day
▁макро экономи
▁ ©
▁об меня
▁Д ню
▁Ша х
▁незакон ных
▁Е й
▁Па с
▁Реги ональ
▁Го л
▁предстоя щих
▁взаимоотно шения
▁Ст эн
▁Го сс
:2 )
▁зву ча
▁ч ь
▁диз е
▁свобод ное
▁концер та
▁Fall imento
▁C o
▁заслу ги
▁«Л о
▁вокза ла
▁пере бра
▁послед няя
▁смерти .
ва л.
▁« Ш
▁во е
▁широ кой
▁РБК .
▁телеви зор
▁фи кса
ов ич
▁О писание
▁Б рат
раз вед
▁исследова тели
▁ощу щение,
ды ха
▁по лот
ды е
▁обсужда ют
▁тан цева
▁по езде
▁под хода
▁гости нице
▁характери зу
ник "
▁пере за
▁зависи мость
▁90 -х
ан ья
▁юриди ческого
▁аксессу а
▁ата ке
▁запа де
ющи е,
▁У ай
ру м
▁Спи сок
▁"Б ер
▁Филип п
-2 3
▁защит ников
▁рассказыва ют
суд ят
▁мину вший
▁у ходят
▁сов ете
▁Арс ений
ви ди
▁ч ья
▁увеличи тся
▁съем ки
▁Б ро
- M
ло е
▁турец ких
▁чув ствовать
▁юри ст
▁впечат ление
ба сс
кон струи
▁учены х,
▁Тре тий
ка и
▁результа т,
кой "
▁входя щих
▁о пуска
ма ту
▁"О борон
▁вся кий
сы лка
▁концер на
ка )
▁ли шен
▁прод лил
▁проведен ных
▁миров ым
▁изобра жение
▁Конститу ционный
ов ед
▁украин цев
▁школы .
▁Зу б
о ре
▁F T
рова ны.
▁поня тия
l a
▁Хот я,
▁де стабили
▁фана тов
▁действия м
▁расто р
▁Ви лла
▁Дру гое
▁свидете лей
к еры
лены ,
▁(" С
▁Пен зен
▁дей ствовали
▁страда ет
▁земе льного
▁p o
▁городе .
▁заканчи вается
▁пользова теля
▁горя чей
▁инду стрии
▁ лов
▁до ктора
▁"Д ет
▁прода л
▁авиа уда
▁ОМ ОН
▁услови и
▁про и
об еспе
ня х
▁фи т
▁Роса виа
▁вы тащи
en .
▁Га а
▁арен е
▁На та
ря ет
▁помощ ника
▁Великобрита нии.
▁О в
точ ные
▁о тор
▁х ар
8 2
▁у ехал
▁а не
бе ди
▁ак тов
три бу
▁согласова ния
да ".
▁цен ой
▁авто производи
▁конфи денциаль
▁пере вез
▁авиа би
ри на.
▁Яценю к
▁#1 4
▁пе хо
▁ли чном
▁извест ным
▁IP O
▁вы явля
▁A F
▁кры ла
▁12 .
шки на
д ную
▁1 ,9
▁выпуска ть
v -
▁китай ские
▁куро р
▁ключе вые
▁( 30
▁больницу ,
▁Куль тура
я м.
cl ud
комо тив
ле л
▁Про гно
▁Л ар
ция х,
ин спек
▁положи тельный
▁"Золо той
▁п шени
▁выбо рами
▁пообеща ли
▁ис чис
▁хра ме
▁Фак тически
▁дет ском
▁радо сть
▁интерес ных
▁противостоя ть
но ж
▁компет ент
ка ра
▁инвесто ров,
▁ту пи
▁Лари са
▁администра ции,
▁патри оти
▁http://www. g
▁при це
би ,
▁опера ции.
▁россия нам
▁Акаде ми
▁РФ ).
▁олимпий ской
▁Ниже город
▁четвер ти
▁Sat urday
▁сконча лась
▁п нев
▁объеди ня
▁w idth
▁ша м
▁филосо фи
▁совмест ные
▁Оде сс
▁б ь
▁спут ников
▁чт ения
▁возвра та
▁за крепи
.201 2
▁по сты
чи ная
▁свобод ных
▁ребен ку
▁во- первых,
▁парков ки
▁италья нской
▁у ходя
▁уго л
▁чита телей
▁Не за
▁неправи льно
▁управления .
▁Следу ющий
▁Ко ль
▁Сейчас ,
▁пор но
▁по- разному
▁ву лка
▁Е ЦБ
▁капита на
▁без виз
▁Пресс- служба
▁государ ственная
▁необходимо й
▁учреждения х
ма териа
▁сокра щении
▁3 ,2
▁Шара пова
▁2 ,1
▁магази ны
▁конкре тного
▁встрети лись
▁Запа де
▁( про
▁Москов ская
▁зда ния.
▁прибы тия
▁Кэме рон
▁Т ема
▁мест ном
▁профессиональ ный
▁Дол го
▁положи ть
▁шо ки
▁реаги ровать
▁украин скими
ложен о
▁лица ми
ня к
▁C it
▁пробле ма,
тор гов
фа ,
▁провер ять
▁вели кого
▁Ра спо
▁деятель ность,
▁Север ном
▁невы пол
▁д вена
▁"Т и
▁матч ,
▁су вени
▁сохра няется
го рит
рен ы
▁кварти ры,
▁улице .
ook ing
▁я ро
▁запад ной
av el
чи к,
▁институ тов
▁са мар
▁пара ш
▁европей ским
▁акти ва
▁позволи ла
▁эфи р
кри мини
9 1
▁х во
▁подтвер ждение
▁дороги е
▁располага ется
P S
я на
▁по интересова
▁у ходе
▁За ха
▁случа ев,
▁переда ч
▁профсо юза
▁Ку ри
▁экспер та,
▁д не
▁Вы ступа
▁процесс ,
▁2 ,7
▁дей ствова
▁предмет ов
▁кон чи
▁1 :0.
st ad
▁Ма стер
ic an
▁действу ющие
способ ности
▁гу ля
▁при рост
▁фа ке
▁мето дов
де ста
▁си льным
▁сбо ры
5 2
▁Р ан
▁Ол ланд
▁маши не,
▁выше .
▁предусмотрен ы
▁уро жай
воз мо
▁буду щий
▁северо корей
▁завери л,
▁Де ми
▁в люб
дель фи
▁пока з
лена ,
▁набира ет
па ть
▁си ноп
▁тео рии
▁П ы
▁F l
▁созда нием
▁автобу сов
▁куль туру
зова ть
▁c ould
ти -
▁H ome
▁девело пер
▁призна ется
к ля
▁посе щение
▁а пло
▁строительства ,
▁низ ким
▁Ц ы
ou th
▁собы тий.
▁пол ча
▁Генера льной
▁неодно зна
льщи ков
