{"<s>":0,"<pad>":1,"</s>":2,"<unk>":3,"<mask>":4,"!":5,"\"":6,"#":7,"$":8,"%":9,"&":10,"'":11,"(":12,")":13,"*":14,"+":15,",":16,"-":17,".":18,"/":19,"0":20,"1":21,"2":22,"3":23,"4":24,"5":25,"6":26,"7":27,"8":28,"9":29,":":30,";":31,"<":32,"=":33,">":34,"?":35,"@":36,"A":37,"B":38,"C":39,"D":40,"E":41,"F":42,"G":43,"H":44,"I":45,"J":46,"K":47,"L":48,"M":49,"N":50,"O":51,"P":52,"Q":53,"R":54,"S":55,"T":56,"U":57,"V":58,"W":59,"X":60,"Y":61,"Z":62,"[":63,"\\":64,"]":65,"^":66,"_":67,"`":68,"a":69,"b":70,"c":71,"d":72,"e":73,"f":74,"g":75,"h":76,"i":77,"j":78,"k":79,"l":80,"m":81,"n":82,"o":83,"p":84,"q":85,"r":86,"s":87,"t":88,"u":89,"v":90,"w":91,"x":92,"y":93,"z":94,"{":95,"}":96,"~":97,"":98,"":99,"¡":100,"¢":101,"£":102,"¤":103,"¥":104,"¦":105,"§":106,"©":107,"«":108,"¬":109,"­":110,"®":111,"°":112,"±":113,"¶":114,"·":115,"»":116,"¿":117,"À":118,"Á":119,"Â":120,"Ã":121,"Ä":122,"Å":123,"Æ":124,"Ç":125,"È":126,"É":127,"Ê":128,"Ë":129,"Ì":130,"Í":131,"Î":132,"Ï":133,"Ð":134,"Ñ":135,"Ò":136,"Ó":137,"Ô":138,"Õ":139,"Ö":140,"×":141,"Ø":142,"Ù":143,"Ú":144,"Û":145,"Ü":146,"Ý":147,"Þ":148,"ß":149,"à":150,"á":151,"â":152,"ã":153,"ä":154,"å":155,"æ":156,"ç":157,"è":158,"é":159,"ê":160,"ë":161,"ì":162,"í":163,"î":164,"ï":165,"ð":166,"ñ":167,"ò":168,"ó":169,"ô":170,"õ":171,"ö":172,"÷":173,"ø":174,"ù":175,"ú":176,"û":177,"ü":178,"ý":179,"þ":180,"ÿ":181,"Ā":182,"ā":183,"ă":184,"ą":185,"ć":186,"Č":187,"č":188,"đ":189,"Ē":190,"ē":191,"Ė":192,"ė":193,"ę":194,"ě":195,"ğ":196,"ģ":197,"Ī":198,"ī":199,"į":200,"İ":201,"ı":202,"Ķ":203,"ķ":204,"ĸ":205,"ļ":206,"ľ":207,"Ł":208,"ł":209,"ń":210,"ņ":211,"ň":212,"ō":213,"ő":214,"œ":215,"Ř":216,"ř":217,"Ś":218,"ś":219,"Ş":220,"ş":221,"Š":222,"š":223,"ţ":224,"ť":225,"Ū":226,"ū":227,"ů":228,"ų":229,"ź":230,"Ż":231,"ż":232,"Ž":233,"ž":234,"ș":235,"ț":236,"ə":237,"́":238,"̄":239,"̆":240,"̈":241,"̊":242,"̧":243,"Α":244,"Β":245,"Γ":246,"Δ":247,"Ε":248,"Η":249,"Ι":250,"Κ":251,"Λ":252,"Μ":253,"Ν":254,"Ο":255,"Π":256,"Ρ":257,"Σ":258,"Τ":259,"Υ":260,"Φ":261,"Χ":262,"Ω":263,"ά":264,"έ":265,"ή":266,"ί":267,"α":268,"β":269,"γ":270,"δ":271,"ε":272,"ζ":273,"η":274,"θ":275,"ι":276,"κ":277,"λ":278,"μ":279,"ν":280,"ξ":281,"ο":282,"π":283,"ρ":284,"ς":285,"σ":286,"τ":287,"υ":288,"φ":289,"χ":290,"ω":291,"ϊ":292,"ό":293,"ύ":294,"ώ":295,"Ё":296,"Ђ":297,"Є":298,"Ѕ":299,"І":300,"Ї":301,"Ј":302,"Ў":303,"Џ":304,"А":305,"Б":306,"В":307,"Г":308,"Д":309,"Е":310,"Ж":311,"З":312,"И":313,"Й":314,"К":315,"Л":316,"М":317,"Н":318,"О":319,"П":320,"Р":321,"С":322,"Т":323,"У":324,"Ф":325,"Х":326,"Ц":327,"Ч":328,"Ш":329,"Щ":330,"Ъ":331,"Ы":332,"Ь":333,"Э":334,"Ю":335,"Я":336,"а":337,"б":338,"в":339,"г":340,"д":341,"е":342,"ж":343,"з":344,"и":345,"й":346,"к":347,"л":348,"м":349,"н":350,"о":351,"п":352,"р":353,"с":354,"т":355,"у":356,"ф":357,"х":358,"ц":359,"ч":360,"ш":361,"щ":362,"ъ":363,"ы":364,"ь":365,"э":366,"ю":367,"я":368,"ё":369,"є":370,"і":371,"ї":372,"ј":373,"ў":374,"ѣ":375,"ѳ":376,"Ґ":377,"ґ":378,"Ғ":379,"ғ":380,"Қ":381,"қ":382,"ң":383,"Ү":384,"ү":385,"Ұ":386,"ұ":387,"ҳ":388,"Ә":389,"ә":390,"Ө":391,"ө":392,"Ա":393,"Գ":394,"Դ":395,"Ե":396,"Կ":397,"Հ":398,"Մ":399,"Ն":400,"Ո":401,"Ս":402,"Վ":403,"Ր":404,"ա":405,"բ":406,"գ":407,"դ":408,"ե":409,"զ":410,"ը":411,"թ":412,"ի":413,"լ":414,"խ":415,"ծ":416,"կ":417,"հ":418,"ձ":419,"ղ":420,"մ":421,"յ":422,"ն":423,"շ":424,"ո":425,"պ":426,"ջ":427,"ռ":428,"ս":429,"վ":430,"տ":431,"ր":432,"ց":433,"ւ":434,"ք":435,"א":436,"ב":437,"ד":438,"ה":439,"ו":440,"ט":441,"י":442,"ל":443,"ם":444,"מ":445,"נ":446,"ס":447,"ע":448,"פ":449,"ק":450,"ר":451,"ש":452,"ת":453,"أ":454,"ا":455,"ب":456,"ة":457,"ت":458,"ج":459,"ح":460,"د":461,"ر":462,"س":463,"ش":464,"ص":465,"ع":466,"ف":467,"ق":468,"ك":469,"ل":470,"م":471,"ن":472,"ه":473,"و":474,"ي":475,"َ":476,"ُ":477,"ِ":478,"ّ":479,"ْ":480,"ی":481,"ं":482,"र":483,"ा":484,"ि":485,"्":486,"ං":487,"ක":488,"ග":489,"ට":490,"ඩ":491,"ත":492,"ද":493,"න":494,"ප":495,"බ":496,"ම":497,"ය":498,"ර":499,"ල":500,"ව":501,"ස":502,"හ":503,"ළ":504,"ා":505,"ැ":506,"ි":507,"ු":508,"ෙ":509,"ේ":510,"ො":511,"ก":512,"ค":513,"ง":514,"ต":515,"ท":516,"น":517,"บ":518,"ป":519,"ม":520,"ย":521,"ร":522,"อ":523,"ั":524,"า":525,"ิ":526,"เ":527,"ა":528,"ე":529,"ი":530,"‍":531,"‎":532,"‏":533,"‐":534,"‒":535,"–":536,"—":537,"―":538,"‘":539,"’":540,"‚":541,"“":542,"”":543,"„":544,"‟":545,"†":546,"•":547,"‪":548,"‬":549,"‭":550,"‰":551,"′":552,"‹":553,"›":554,"⁄":555,"€":556,"₴":557,"←":558,"↑":559,"→":560,"↓":561,"−":562,"∙":563,"√":564,"∞":565,"≈":566,"≤":567,"≥":568,"≪":569,"≫":570,"⋅":571,"⌘":572,"─":573,"│":574,"▁":575,"█":576,"▓":577,"■":578,"▪":579,"▬":580,"►":581,"▼":582,"◄":583,"●":584,"★":585,"♥":586,"♦":587,"✓":588,"✔":589,"❤":590,"❧":591,"➊":592,"➋":593,"➌":594,"➍":595,"➎":596,"➏":597,"➧":598,"『":599,"』":600,"い":601,"こ":602,"し":603,"す":604,"て":605,"と":606,"な":607,"に":608,"の":609,"れ":610,"を":611,"ん":612,"ア":613,"ィ":614,"イ":615,"カ":616,"ク":617,"グ":618,"シ":619,"ス":620,"タ":621,"ッ":622,"ト":623,"ド":624,"フ":625,"ブ":626,"ラ":627,"リ":628,"ル":629,"レ":630,"ロ":631,"ン":632,"・":633,"ー":634,"一":635,"三":636,"上":637,"下":638,"业":639,"东":640,"中":641,"主":642,"之":643,"亚":644,"亞":645,"亡":646,"产":647,"人":648,"什":649,"伊":650,"会":651,"体":652,"保":653,"信":654,"傲":655,"像":656,"先":657,"克":658,"公":659,"兹":660,"军":661,"击":662,"刀":663,"分":664,"利":665,"加":666,"动":667,"努":668,"匠":669,"卡":670,"卫":671,"及":672,"反":673,"发":674,"受":675,"可":676,"司":677,"合":678,"吼":679,"告":680,"咆":681,"和":682,"品":683,"哈":684,"哮":685,"嗜":686,"器":687,"国":688,"在":689,"地":690,"坤":691,"城":692,"堕":693,"塑":694,"塔":695,"墨":696,"墮":697,"士":698,"多":699,"大":700,"天":701,"失":702,"头":703,"女":704,"妃":705,"姆":706,"子":707,"孤":708,"学":709,"守":710,"客":711,"家":712,"寧":713,"寶":714,"封":715,"将":716,"將":717,"小":718,"尔":719,"岡":720,"工":721,"巨":722,"市":723,"师":724,"希":725,"帝":726,"年":727,"库":728,"应":729,"式":730,"引":731,"志":732,"忘":733,"恐":734,"惡":735,"意":736,"慍":737,"慢":738,"憎":739,"懼":740,"戈":741,"战":742,"户":743,"托":744,"护":745,"拉":746,"擊":747,"攻":748,"数":749,"文":750,"斯":751,"新":752,"无":753,"日":754,"普":755,"暗":756,"會":757,"有":758,"本":759,"机":760,"杰":761,"林":762,"柯":763,"格":764,"梅":765,"梭":766,"楚":767,"模":768,"機":769,"死":770,"泉":771,"洛":772,"海":773,"滅":774,"满":775,"滿":776,"潘":777,"灵":778,"热":779,"煞":780,"爾":781,"特":782,"狱":783,"獄":784,"獨":785,"王":786,"珀":787,"瑪":788,"生":789,"用":790,"电":791,"登":792,"的":793,"皇":794,"目":795,"相":796,"眼":797,"石":798,"破":799,"碎":800,"神":801,"稷":802,"穹":803,"納":804,"索":805,"縛":806,"纳":807,"缚":808,"罗":809,"羅":810,"翁":811,"翻":812,"翼":813,"老":814,"考":815,"者":816,"联":817,"聖":818,"艾":819,"苏":820,"英":821,"茲":822,"莫":823,"萊":824,"萨":825,"落":826,"葛":827,"蕾":828,"薩":829,"蝎":830,"螳":831,"血":832,"行":833,"衛":834,"表":835,"衫":836,"西":837,"語":838,"諾":839,"議":840,"诅":841,"译":842,"诺":843,"豐":844,"賈":845,"贡":846,"败":847,"赫":848,"軍":849,"达":850,"迦":851,"迪":852,"達":853,"遺":854,"邪":855,"里":856,"金":857,"釜":858,"鋒":859,"鋼":860,"鐵":861,"钢":862,"铁":863,"锋":864,"長":865,"隆":866,"雄":867,"雙":868,"雷":869,"靈":870,"領":871,"顱":872,"领":873,"風":874,"馬":875,"马":876,"魂":877,"魔":878,"鲁":879,"黑":880,"齊":881,"龍":882,"가":883,"갈":884,"강":885,"거":886,"결":887,"곤":888,"공":889,"괴":890,"교":891,"구":892,"국":893,"군":894,"굶":895,"그":896,"기":897,"나":898,"너":899,"노":900,"다":901,"대":902,"덴":903,"돈":904,"두":905,"둥":906,"들":907,"디":908,"라":909,"락":910,"람":911,"랙":912,"러":913,"레":914,"령":915,"로":916,"록":917,"론":918,"루":919,"르":920,"리":921,"린":922,"림":923,"만":924,"말":925,"메":926,"멜":927,"모":928,"무":929,"바":930,"박":931,"받":932,"블":933,"비":934,"빛":935,"사":936,"샤":937,"성":938,"션":939,"셴":940,"속":941,"수":942,"술":943,"쉬":944,"스":945,"시":946,"십":947,"쌍":948,"쓰":949,"아":950,"암":951,"에":952,"엘":953,"영":954,"왕":955,"용":956,"우":957,"울":958,"원":959,"위":960,"유":961,"은":962,"의":963,"이":964,"잊":965,"자":966,"잘":967,"장":968,"잿":969,"저":970,"전":971,"제":972,"주":973,"즈":974,"지":975,"진":976,"철":977,"코":978,"쿤":979,"퀀":980,"크":981,"클":982,"타":983,"토":984,"파":985,"판":986,"펑":987,"품":988,"퓨":989,"프":990,"피":991,"헬":992,"혀":993,"호":994,"혼":995,"황":996,"회":997,"흑":998,"":999,"":1000,"":1001,"":1002,"️":1003,"�":1004,"▁п":1005,"ст":1006,"▁в":1007,"▁с":1008,"ен":1009,"ра":1010,"ов":1011,"▁н":1012,"▁о":1013,"но":1014,"то":1015,"▁и":1016,"ко":1017,"ре":1018,"ро":1019,"го":1020,"ли":1021,"▁по":1022,"ни":1023,"ет":1024,"▁д":1025,"ль":1026,"▁на":1027,"ка":1028,"ри":1029,"ны":1030,"ла":1031,"▁м":1032,"те":1033,"за":1034,"на":1035,"ер":1036,"та":1037,"▁б":1038,"ени":1039,"да":1040,"ки":1041,"ле":1042,"ть":1043,"ва":1044,"▁ч":1045,"ло":1046,"▁у":1047,"ти":1048,"▁не":1049,"ся":1050,"ци":1051,"▁ко":1052,"▁за":1053,"ру":1054,"ми":1055,"во":1056,"ди":1057,"ста":1058,"ви":1059,"▁\"":1060,"ова":1061,"ем":1062,"▁про":1063,"▁ра":1064,"▁со":1065,"▁а":1066,"▁В":1067,"ля":1068,"сс":1069,"▁П":1070,"▁э":1071,"не":1072,"де":1073,"▁С":1074,"▁-":1075,"ма":1076,"сти":1077,"▁к":1078,"▁об":1079,"ско":1080,"▁от":1081,"▁что":1082,"▁до":1083,"по":1084,"мо":1085,"▁го":1086,"▁г":1087,"▁К":1088,"▁при":1089,"ры":1090,"ча":1091,"че":1092,"бо":1093,"ду":1094,"▁пре":1095,"▁во":1096,"▁М":1097,"ей":1098,"▁2":1099,"чи":1100,"сто":1101,"▁Р":1102,"ово":1103,"же":1104,"▁1":1105,"ски":1106,"▁Н":1107,"хо":1108,"▁вы":1109,"▁т":1110,"▁ре":1111,"ения":1112,"ных":1113,"▁е":1114,"ной":1115,"▁ка":1116,"тель":1117,"ве":1118,"па":1119,"▁то":1120,"лу":1121,"се":1122,"ку":1123,"до":1124,"ного":1125,"▁из":1126,"сь":1127,"га":1128,"ши":1129,"▁бы":1130,"ги":1131,"жи":1132,"ств":1133,"ме":1134,"ну":1135,"▁О":1136,"▁А":1137,"щи":1138,"▁мо":1139,"▁ф":1140,"▁это":1141,"сси":1142,"ан":1143,"об":1144,"ров":1145,"мен":1146,"зи":1147,"ют":1148,"ение":1149,"ные":1150,"▁(":1151,"ере":1152,"ный":1153,"ции":1154,"си":1155,"сть":1156,"▁те":1157,"▁та":1158,"му":1159,"ту":1160,"▁Д":1161,"▁Т":1162,"ня":1163,"пи":1164,"▁кото":1165,"он":1166,"▁И":1167,"ков":1168,"▁20":1169,"▁По":1170,"ты":1171,"ще":1172,"ше":1173,"ря":1174,"стра":1175,"▁под":1176,"▁бо":1177,"▁Б":1178,"м,":1179,"▁де":1180,"▁ме":1181,"ется":1182,"са":1183,"▁раз":1184,"ар":1185,"би":1186,"лю":1187,"▁Г":1188,"пе":1189,"нов":1190,"▁пред":1191,"жа":1192,"ния":1193,"лов":1194,"▁Ро":1195,"лен":1196,"\",":1197,"ор":1198,"▁з":1199,"▁ста":1200,"▁ма":1201,"рова":1202,"ке":1203,"уд":1204,"ской":1205,"тов":1206,"▁ми":1207,"це":1208,"▁для":1209,"ек":1210,"су":1211,"▁ин":1212,"каза":1213,"вы":1214,"▁все":1215,"ства":1216,"спо":1217,"ствен":1218,"сле":1219,"бы":1220,"▁пере":1221,"▁ли":1222,"гра":1223,"лет":1224,"▁я":1225,"▁сво":1226,"ского":1227,"ным":1228,"мы":1229,"▁На":1230,"жно":1231,"пу":1232,"▁Росси":1233,"про":1234,"▁ро":1235,"▁У":1236,"ды":1237,"ство":1238,"ак":1239,"ден":1240,"▁Е":1241,"▁са":1242,"ез":1243,"ща":1244,"▁которы":1245,"▁но":1246,"▁кон":1247,"вер":1248,"она":1249,"▁201":1250,"▁си":1251,"рав":1252,"▁как":1253,"аль":1254,"▁ру":1255,"ться":1256,"ние":1257,"ная":1258,"▁так":1259,"\".":1260,"▁ни":1261,"ск":1262,"ное":1263,"ба":1264,"бе":1265,"ном":1266,"▁Л":1267,"00":1268,"тив":1269,"лей":1270,"▁воз":1271,"кра":1272,"гу":1273,"зы":1274,"ска":1275,"со":1276,"нии":1277,"чен":1278,"▁ком":1279,"▁года":1280,"цен":1281,"ности":1282,"тся":1283,"▁хо":1284,"▁се":1285,"▁ве":1286,"▁пра":1287,"ур":1288,"фи":1289,"сту":1290,"▁его":1291,"лся":1292,"овы":1293,"ении":1294,"ша":1295,"ский":1296,"из":1297,"дер":1298,"жен":1299,"ских":1300,"▁сооб":1301,"▁Ф":1302,"▁3":1303,"рем":1304,"▁стра":1305,"лько":1306,"▁рабо":1307,"став":1308,"▁сто":1309,"▁«":1310,"▁су":1311,"ран":1312,"кс":1313,"ющи":1314,"ция":1315,"er":1316,"▁З":1317,"ходи":1318,"▁он":1319,"стро":1320,"▁России":1321,"▁дол":1322,"▁Э":1323,"▁буд":1324,"пре":1325,"мер":1326,"лись":1327,"жет":1328,"ха":1329,"in":1330,"ца":1331,"▁жи":1332,"стви":1333,"гда":1334,"ин":1335,"▁после":1336,"кой":1337,"зу":1338,"▁да":1339,"▁же":1340,"ную":1341,"л,":1342,"ность":1343,"тра":1344,"ети":1345,"ления":1346,"дни":1347,"лы":1348,"▁пер":1349,"▁будет":1350,"▁Мо":1351,"▁че":1352,"м.":1353,"ета":1354,"ят":1355,"нима":1356,"..":1357,"род":1358,"▁полу":1359,"▁ви":1360,"при":1361,"стави":1362,"▁ча":1363,"▁па":1364,"ев":1365,"on":1366,"ред":1367,"й,":1368,"рен":1369,"▁врем":1370,"▁Ч":1371,"сли":1372,"лось":1373,"стоя":1374,"▁боль":1375,"▁од":1376,"прав":1377,"▁фи":1378,"▁t":1379,"an":1380,"▁ш":1381,"▁ос":1382,"▁дру":1383,"жда":1384,"дин":1385,"яви":1386,"зна":1387,"▁сов":1388,"▁ва":1389,"ром":1390,"гла":1391,"ень":1392,"пер":1393,"ник":1394,"фор":1395,"▁ав":1396,"дар":1397,"вя":1398,"▁гла":1399,"▁лю":1400,"зова":1401,"▁Ко":1402,"вши":1403,"ву":1404,"кт":1405,"▁бу":1406,"ские":1407,"рии":1408,"en":1409,"ству":1410,"▁4":1411,"рга":1412,"▁расс":1413,"▁также":1414,"ению":1415,"вет":1416,"▁поли":1417,"▁Ка":1418,"▁уже":1419,"▁ди":1420,"ман":1421,"ются":1422,"руп":1423,"но,":1424,"▁5":1425,"▁0":1426,"тер":1427,"▁этом":1428,"ласти":1429,"лее":1430,"бли":1431,"▁слу":1432,"тор":1433,"ком":1434,"▁мы":1435,"▁году":1436,"ход":1437,"ему":1438,"▁уча":1439,"стре":1440,"▁ак":1441,"▁было":1442,"▁росси":1443,"▁время":1444,"▁обра":1445,"х,":1446,"е,":1447,"лова":1448,"том":1449,"ес":1450,"▁Во":1451,"▁орга":1452,"▁За":1453,"▁челов":1454,"▁руб":1455,"▁Х":1456,"зиден":1457,"цию":1458,"▁объ":1459,"коно":1460,"лась":1461,"▁пла":1462,"ными":1463,"▁был":1464,"▁или":1465,"▁чем":1466,"зыва":1467,"бу":1468,"▁без":1469,"he":1470,"▁цен":1471,"ника":1472,"or":1473,"дова":1474,"сы":1475,"▁пров":1476,"▁Я":1477,"▁их":1478,"пы":1479,"кон":1480,"теля":1481,"тиче":1482,"рово":1483,"го,":1484,"▁ты":1485,"20":1486,"жду":1487,"вро":1488,"цион":1489,"▁только":1490,"телей":1491,"гово":1492,"ге":1493,"вля":1494,"ений":1495,"сте":1496,"▁мл":1497,"▁чи":1498,"es":1499,"▁пар":1500,"▁которые":1501,"▁зна":1502,"дет":1503,"▁компа":1504,"циаль":1505,"кры":1506,"▁произ":1507,"ская":1508,"▁нача":1509,").":1510,"ть,":1511,"ar":1512,"сов":1513,"ление":1514,"▁Ма":1515,"▁может":1516,"▁Но":1517,"▁ус":1518,"рь":1519,"ней":1520,"ний":1521,"▁гра":1522,"рт":1523,"▁гово":1524,"▁чтобы":1525,"нее":1526,"рта":1527,"дут":1528,"▁тре":1529,"три":1530,"тия":1531,"▁россий":1532,"год":1533,"▁авто":1534,"▁A":1535,"▁му":1536,"цы":1537,"аз":1538,"),":1539,"жд":1540,"▁лет":1541,"▁еще":1542,"яб":1543,"▁Со":1544,"▁дан":1545,"станов":1546,"ском":1547,"▁6":1548,"▁пу":1549,"▁19":1550,"ене":1551,"тели":1552,"▁пи":1553,"тре":1554,"▁Ми":1555,"▁сле":1556,"▁спо":1557,"▁ле":1558,"▁S":1559,"▁200":1560,"шен":1561,"вать":1562,"at":1563,"▁более":1564,"▁само":1565,"▁При":1566,"судар":1567,"ников":1568,"al":1569,"▁T":1570,"ент":1571,"▁они":1572,"▁ку":1573,"▁х":1574,"▁P":1575,"ональ":1576,"▁которо":1577,"шения":1578,"▁рас":1579,"▁—":1580,"я,":1581,"пла":1582,"чита":1583,"**":1584,"т,":1585,"▁Ш":1586,"is":1587,"ью":1588,"▁испо":1589,"шение":1590,"▁слова":1591,"▁были":1592,"пол":1593,"▁10":1594,"▁заяви":1595,"кан":1596,"▁Укра":1597,"▁Как":1598,"▁который":1599,"зо":1600,"ли,":1601,"▁7":1602,"▁президен":1603,"▁органи":1604,"▁M":1605,"дом":1606,"али":1607,"ед":1608,"▁Але":1609,"ково":1610,"сла":1611,"ed":1612,"логи":1613,"▁свя":1614,"▁прави":1615,"▁реги":1616,"▁Моск":1617,"▁сообща":1618,"ением":1619,"х.":1620,"▁Ц":1621,"ут":1622,"от":1623,"▁свои":1624,"зда":1625,"▁эти":1626,"тин":1627,"лож":1628,"▁помо":1629,"▁Украи":1630,"льта":1631,"▁сказа":1632,"▁говори":1633,"▁Ра":1634,"тру":1635,"it":1636,"ки,":1637,"ет,":1638,"форма":1639,"нова":1640,"ску":1641,"▁Это":1642,"▁Го":1643,"чно":1644,"▁–":1645,"ми,":1646,"реди":1647,"оне":1648,"▁\"С":1649,"ступ":1650,"▁государ":1651,"▁Та":1652,"▁вопро":1653,"▁дей":1654,"▁Бо":1655,"пра":1656,"стве":1657,"▁есть":1658,"▁тер":1659,"▁спе":1660,"▁получи":1661,"▁им":1662,"ША":1663,"слу":1664,"мети":1665,"емы":1666,"▁сообщи":1667,"▁ее":1668,"клю":1669,"дела":1670,"▁между":1671,"лли":1672,"▁отно":1673,"▁Ки":1674,"▁того,":1675,"▁области":1676,"▁Са":1677,"й.":1678,"чень":1679,"тельно":1680,"ов,":1681,"кономи":1682,"▁вер":1683,"▁вз":1684,"st":1685,"▁США":1686,"ких":1687,"час":1688,"можно":1689,"▁Не":1690,"чет":1691,"▁I":1692,"годня":1693,"▁8":1694,"ю,":1695,"тора":1696,"▁работа":1697,"▁РФ":1698,"ou":1699,"▁пол":1700,"нист":1701,"бра":1702,"201":1703,"хи":1704,"лом":1705,"ейчас":1706,"рд":1707,"▁человек":1708,"яв":1709,"-то":1710,"бор":1711,"▁горо":1712,"вод":1713,"дера":1714,"▁коман":1715,"▁h":1716,"с.":1717,"пера":1718,"▁представи":1719,"▁кра":1720,"▁Ан":1721,"▁обо":1722,"трудни":1723,"ники":1724,"▁други":1725,"сты":1726,"▁когда":1727,"зульта":1728,":0":1729,"мента":1730,"▁Алекс":1731,"▁этого":1732,"ми.":1733,"▁пе":1734,"▁созда":1735,"▁результа":1736,"щен":1737,"яс":1738,"▁исто":1739,"▁будут":1740,"пас":1741,"лади":1742,"вест":1743,"тому":1744,"рон":1745,"▁Ва":1746,"▁если":1747,"▁иг":1748,"▁бан":1749,"▁ры":1750,"шего":1751,"ставля":1752,"льно":1753,"ября":1754,"кла":1755,"чения":1756,"льзова":1757,"▁счита":1758,"грам":1759,"▁ба":1760,"▁проек":1761,"▁Об":1762,"▁це":1763,"om":1764,"▁очень":1765,"...":1766,"▁информа":1767,"тельства":1768,"▁явля":1769,"▁дела":1770,"▁экс":1771,"нако":1772,"публи":1773,"ую":1774,"▁ки":1775,"▁ж":1776,"▁приня":1777,"строи":1778,"чение":1779,"цев":1780,"лага":1781,"▁оста":1782,"тери":1783,"нет":1784,"ствова":1785,"ов.":1786,"цу":1787,"▁\"Р":1788,"▁C":1789,"шей":1790,"▁день":1791,"кие":1792,"▁можно":1793,"▁том,":1794,"▁сред":1795,"гут":1796,"кого":1797,"дол":1798,"▁организа":1799,"овой":1800,"фе":1801,"▁тех":1802,"▁случа":1803,"н.":1804,"▁ст":1805,"держа":1806,"▁рай":1807,"re":1808,"▁9":1809,"▁разви":1810,"▁Влади":1811,"▁груп":1812,"н,":1813,"ряд":1814,"шо":1815,"▁сотрудни":1816,"▁дет":1817,"▁ад":1818,"▁была":1819,"▁где":1820,"▁чет":1821,"▁вс":1822,"▁год":1823,"▁Ни":1824,"ка,":1825,"на,":1826,"▁Си":1827,"▁w":1828,"дель":1829,"▁новы":1830,"бле":1831,"▁\"М":1832,"мери":1833,"рес":1834,"лови":1835,"▁быть":1836,"зва":1837,"рабо":1838,"▁Сер":1839,":1":1840,"вает":1841,"▁фина":1842,"▁ту":1843,"▁обще":1844,"нер":1845,"▁12":1846,"нес":1847,"▁15":1848,"▁суд":1849,"▁бе":1850,"ции,":1851,"▁прош":1852,"▁c":1853,"▁Евро":1854,"▁экономи":1855,"le":1856,"ремен":1857,"сков":1858,"торы":1859,"▁ну":1860,"емо":1861,"▁неско":1862,"вести":1863,"▁мат":1864,"▁отмети":1865,"▁сист":1866,"седа":1867,"▁поз":1868,"сса":1869,"тро":1870,"▁возможно":1871,"▁R":1872,"▁име":1873,"ложи":1874,"ru":1875,"е.":1876,"смо":1877,"ским":1878,"рек":1879,"▁ар":1880,"ках":1881,"нали":1882,"▁пока":1883,"дей":1884,"вой":1885,"нь":1886,"▁N":1887,"▁Ю":1888,"едера":1889,"вед":1890,"бира":1891,"▁встре":1892,"чь":1893,"▁Пу":1894,"▁Се":1895,"ших":1896,"анд":1897,"мни":1898,"ны,":1899,"рован":1900,"▁s":1901,"ent":1902,"кова":1903,"▁Он":1904,"▁она":1905,"туа":1906,"▁пов":1907,"▁Про":1908,"▁долж":1909,"▁руково":1910,"▁a":1911,"▁переда":1912,"мент":1913,"▁согла":1914,"▁Па":1915,"▁подо":1916,"нистра":1917,"шь":1918,"▁рублей":1919,"▁необ":1920,"л.":1921,"ит":1922,"ций":1923,"▁Владими":1924,"ющих":1925,"ic":1926,"▁жиз":1927,"▁нас":1928,"▁много":1929,"▁Так":1930,"▁глав":1931,"прия":1932,"▁Да":1933,"▁Ж":1934,"▁гражда":1935,"ки.":1936,"▁мар":1937,"▁ию":1938,"луч":1939,"щей":1940,"▁смо":1941,"▁прове":1942,"▁the":1943,"стран":1944,"ена":1945,"ровать":1946,"сно":1947,"рия":1948,"▁тыся":1949,"▁Те":1950,"ствия":1951,"бя":1952,"▁То":1953,"▁L":1954,"льного":1955,"▁B":1956,"тя":1957,"ному":1958,"жения":1959,"▁пло":1960,"▁компании":1961,"твер":1962,"▁програм":1963,"льный":1964,"к,":1965,"и,":1966,"коло":1967,"ется,":1968,"▁уда":1969,"▁чемпи":1970,"▁откры":1971,"▁\"П":1972,"народ":1973,"▁11":1974,"тельство":1975,"дели":1976,"писа":1977,"▁ду":1978,"▁F":1979,"▁\"В":1980,"▁даже":1981,"▁сдела":1982,"▁дву":1983,"чу":1984,"▁участ":1985,"бер":1986,"▁два":1987,"ья":1988,"рий":1989,"▁сторо":1990,"▁управ":1991,"▁один":1992,"-за":1993,"▁теле":1994,"▁Александ":1995,"лан":1996,"соб":1997,"▁сообщает":1998,"▁\"А":1999,"▁против":2000,"рук":2001,"▁Ин":2002,"▁сер":2003,"tt":2004,"▁пробле":2005,"рито":2006,"▁ситуа":2007,"йте":2008,"//":2009,"нию":2010,"▁Мы":2011,"ны.":2012,"лич":2013,"▁больше":2014,"▁право":2015,"▁ю":2016,"▁побе":2017,"ское":2018,"ем,":2019,"мет":2020,"▁Ви":2021,"▁необходи":2022,"▁Ба":2023,"ing":2024,"ющий":2025,"▁поч":2026,"стов":2027,"води":2028,"▁кор":2029,"▁воен":2030,"дов":2031,"▁Од":2032,"▁офи":2033,"▁G":2034,"ции.":2035,"▁сегодня":2036,"лле":2037,"▁оп":2038,"▁ново":2039,"рой":2040,"▁\"К":2041,"▁соб":2042,"ять":2043,"держ":2044,"▁Все":2045,"▁#":2046,"▁фор":2047,"▁млрд":2048,"▁состоя":2049,"▁До":2050,"▁них":2051,"▁могут":2052,":3":2053,"ла,":2054,"бур":2055,"щего":2056,"вали":2057,"▁коми":2058,"▁ско":2059,"меча":2060,"▁продол":2061,"сс-":2062,"▁террито":2063,"тен":2064,"мени":2065,"ерез":2066,"▁инте":2067,"▁нет":2068,"▁Вы":2069,"пута":2070,"▁каж":2071,"▁мен":2072,"▁сейчас":2073,"ледова":2074,"ка.":2075,"циональ":2076,"чер":2077,"▁призна":2078,"него":2079,"▁мест":2080,"▁млн":2081,"▁челове":2082,"рак":2083,"вший":2084,"▁вла":2085,"▁\"Н":2086,"▁Ку":2087,"хра":2088,"▁всех":2089,"рая":2090,"т.":2091,"▁первы":2092,"▁руб.":2093,"рти":2094,"жден":2095,"▁Ме":2096,"▁милли":2097,"ступи":2098,"ay":2099,"▁участи":2100,"ческой":2101,"казыва":2102,"жение":2103,"мерикан":2104,":2":2105,"ким":2106,"стей":2107,"as":2108,"моби":2109,"шел":2110,"▁этот":2111,"▁p":2112,"на.":2113,"▁несколько":2114,"▁уров":2115,"▁финан":2116,"нен":2117,"ответ":2118,"▁основ":2119,"зя":2120,"ющие":2121,"ot":2122,"но-":2123,"да,":2124,"имо":2125,"▁три":2126,"▁доро":2127,"нем":2128,"▁года.":2129,"▁является":2130,"-1":2131,"лаго":2132,"▁послед":2133,"▁тран":2134,"лия":2135,"▁комп":2136,"▁этой":2137,"▁самы":2138,"▁Из":2139,"стя":2140,"▁Бе":2141,"el":2142,"министра":2143,"личи":2144,"роме":2145,"щения":2146,"бова":2147,"▁тем":2148,"▁тра":2149,"▁f":2150,"▁находи":2151,"▁высо":2152,"▁около":2153,"▁прода":2154,"йти":2155,"▁жен":2156,"льной":2157,"ис":2158,"▁оче":2159,"стан":2160,"▁25":2161,"▁сем":2162,"льных":2163,"нитель":2164,"скую":2165,"▁кто":2166,"▁показа":2167,"▁место":2168,"▁опера":2169,"il":2170,"ете":2171,"ть.":2172,"▁18":2173,"▁тыс.":2174,"▁которая":2175,"ttp":2176,"▁От":2177,"://":2178,"лья":2179,"▁выбо":2180,"ждения":2181,"▁b":2182,"▁вос":2183,"▁ис":2184,"▁прово":2185,"ческих":2186,"▁Ар":2187,"▁14":2188,"▁оказа":2189,"▁строи":2190,"лены":2191,"▁Если":2192,"»,":2193,"▁сказал":2194,"-лет":2195,"▁га":2196,"гли":2197,"▁вто":2198,"нения":2199,"▁бли":2200,"к.":2201,"вают":2202,"рует":2203,"▁пресс-":2204,"юд":2205,"im":2206,"тии":2207,"▁рассказа":2208,"шении":2209,"туры":2210,"▁D":2211,"▁готов":2212,"▁свое":2213,"прави":2214,"опас":2215,"шин":2216,"▁извест":2217,"▁защи":2218,"▁эле":2219,"ности,":2220,"▁тор":2221,"▁Ли":2222,"▁тру":2223,"ttp://":2224,"▁автомоби":2225,":4":2226,"▁евро":2227,"▁W":2228,"▁\"Б":2229,"▁которых":2230,"▁доку":2231,"▁моло":2232,"▁следу":2233,"▁всего":2234,"▁рын":2235,"нут":2236,"раз":2237,"чество":2238,"гов":2239,"▁13":2240,"▁меся":2241,"рей":2242,"ева":2243,"утбо":2244,"та,":2245,"▁обла":2246,"кре":2247,"▁себя":2248,"яза":2249,"ro":2250,"▁установ":2251,"▁Ве":2252,"▁аг":2253,"фер":2254,"▁Ре":2255,"▁луч":2256,"▁произо":2257,"ion":2258,"готов":2259,"▁из-за":2260,"▁через":2261,"ноги":2262,"ступа":2263,"▁16":2264,"▁30":2265,"вра":2266,"дь":2267,"▁город":2268,"кий":2269,"зе":2270,"ясни":2271,"▁Ново":2272,"пита":2273,"and":2274,"▁газ":2275,"▁\"И":2276,"▁Пре":2277,"помни":2278,"▁фак":2279,"щее":2280,"▁Однако":2281,"▁сбор":2282,",5":2283,"ac":2284,"▁меня":2285,"ческого":2286,"▁2016":2287,"▁2014":2288,"▁уве":2289,"▁позво":2290,"▁перво":2291,"точ":2292,"вно":2293,"▁соответ":2294,"▁города":2295,"▁вой":2296,"▁тысяч":2297,"кру":2298,"▁том":2299,"ходя":2300,"мина":2301,"▁дома":2302,"▁После":2303,"▁заявил":2304,"▁использова":2305,"ют,":2306,"ты,":2307,"et":2308,"▁укра":2309,"вле":2310,"спе":2311,"▁над":2312,"▁кри":2313,"▁эта":2314,"▁круп":2315,"фон":2316,"▁свою":2317,"нению":2318,"of":2319,".ru":2320,"▁словам":2321,"».":2322,"▁совер":2323,"▁двух":2324,"▁просто":2325,"тр":2326,":5":2327,"▁стать":2328,"цией":2329,"▁17":2330,"дук":2331,"▁ква":2332,"▁хоро":2333,"▁эк":2334,"тов,":2335,"▁интер":2336,"лого":2337,"▁проце":2338,"▁дирек":2339,"am":2340,"▁власти":2341,"ly":2342,"ун":2343,"ностью":2344,"менно":2345,"▁би":2346,"▁законо":2347,"▁m":2348,"▁фа":2349,"▁\"Д":2350,"▁клу":2351,"▁ито":2352,"строй":2353,"▁американ":2354,"▁решение":2355,"▁пос":2356,"▁Гла":2357,"▁занима":2358,"неш":2359,"▁полити":2360,"▁направ":2361,"▁дви":2362,"ра,":2363,"▁сы":2364,"ственной":2365,"ow":2366,"▁г.":2367,"лении":2368,"бой":2369,"жида":2370,"етер":2371,"▁сни":2372,"анк":2373,"▁ан":2374,"ору":2375,"▁уго":2376,"чина":2377,"▁\"Т":2378,"▁официаль":2379,"▁депута":2380,"▁2013":2381,"▁ответ":2382,"▁Кон":2383,"▁безопас":2384,"▁чемпиона":2385,"еспе":2386,"▁обви":2387,"щение":2388,"ске":2389,"▁шко":2390,"▁нару":2391,"юджет":2392,"шли":2393,"▁прав":2394,"▁H":2395,"▁заяв":2396,"▁футбо":2397,"▁должны":2398,"▁E":2399,"▁услови":2400,"ния,":2401,"этому":2402,"ема":2403,"жива":2404,"▁Мин":2405,"и.":2406,"▁дея":2407,"▁обяза":2408,"но.":2409,"циа":2410,"▁международ":2411,"▁ему":2412,"▁n":2413,"▁биз":2414,"▁вме":2415,"преде":2416,"ото":2417,"ьер":2418,"▁площа":2419,"сова":2420,"▁ино":2421,"▁игра":2422,"▁Владимир":2423,"та.":2424,"▁2015":2425,"▁\"О":2426,"шие":2427,"▁то,":2428,"▁числе":2429,"▁перед":2430,"тие":2431,"▁ц":2432,"▁стал":2433,"▁(1":2434,"ur":2435,"чной":2436,"▁обеспе":2437,"▁своей":2438,"▁матери":2439,"СС":2440,"ров.":2441,"лено":2442,"гей":2443,"ww":2444,"кну":2445,"вших":2446,"лем":2447,"▁Кроме":2448,"кая":2449,"▁Россия":2450,"нием":2451,"лез":2452,"перь":2453,"▁разме":2454,"▁Сов":2455,"фф":2456,"служ":2457,"▁Де":2458,"▁виде":2459,"ков,":2460,"десь":2461,"▁/":2462,"▁сро":2463,"▁экспер":2464,"▁\"Г":2465,"▁минист":2466,"▁заклю":2467,"▁$":2468,"лена":2469,"ad":2470,"▁спи":2471,"ственного":2472,"▁предо":2473,"▁работы":2474,"пад":2475,"▁Пер":2476,"кое":2477,"онов":2478,"пло":2479,"кси":2480,"▁производ":2481,"тета":2482,"▁част":2483,"▁конку":2484,"▁администра":2485,"▁2012":2486,"▁него":2487,"▁on":2488,"нва":2489,"ками":2490,"▁жур":2491,"кти":2492,"▁друго":2493,"циали":2494,"ы,":2495,"▁связи":2496,"ра.":2497,"▁необходимо":2498,"▁бюджет":2499,"каб":2500,"▁действи":2501,"тий":2502,"ье":2503,"ходит":2504,"▁испол":2505,"тить":2506,"▁поги":2507,"▁Дми":2508,"нди":2509,"▁Москве":2510,"ag":2511,"лим":2512,"▁должно":2513,"▁дело":2514,"ol":2515,"▁помощ":2516,"▁чу":2517,"▁настоя":2518,"▁благо":2519,"▁The":2520,"▁элект":2521,"ли.":2522,"льные":2523,"виа":2524,"вая":2525,"▁Сергей":2526,"рио":2527,"▁каче":2528,"▁отмеча":2529,"тур":2530,"▁ци":2531,"▁муж":2532,"▁Россий":2533,"▁реши":2534,"▁Александр":2535,"▁21":2536,"▁Дмитри":2537,"рази":2538,"▁суще":2539,"▁Украины":2540,"▁украин":2541,"▁продук":2542,"▁результате":2543,"овых":2544,"шая":2545,"тай":2546,"▁22":2547,"грани":2548,"рита":2549,"вается":2550,"лин":2551,"▁неко":2552,"▁руководи":2553,"▁президент":2554,"▁очеред":2555,"▁деятель":2556,"▁янва":2557,"▁нужно":2558,"▁распо":2559,"чных":2560,"етербур":2561,"▁данным":2562,"ых":2563,"пусти":2564,"▁гу":2565,"▁+":2566,"▁http://":2567,"не,":2568,"▁режи":2569,"▁потре":2570,"▁жизни":2571,"у,":2572,"▁успе":2573,"щих":2574,"▁of":2575,"-2":2576,"▁которой":2577,"▁плани":2578,"▁граждан":2579,"над":2580,"▁многи":2581,"▁d":2582,"ков.":2583,"▁неф":2584,"зации":2585,"▁is":2586,"парта":2587,"▁колле":2588,"▁проис":2589,"пей":2590,"воз":2591,"▁неза":2592,"▁других":2593,"тки":2594,"вшего":2595,"ров,":2596,"▁сек":2597,"▁in":2598,"▁голо":2599,"▁глава":2600,"▁сент":2601,"ружи":2602,"▁ули":2603,"скому":2604,"▁,":2605,"струк":2606,"▁Что":2607,"▁ше":2608,"▁иск":2609,"тически":2610,"вые":2611,"ститу":2612,"▁Анд":2613,"▁страны":2614,"пример":2615,"▁Для":2616,"▁актив":2617,"▁лишь":2618,"ложен":2619,"ства.":2620,"▁закон":2621,"▁декаб":2622,"ший":2623,"▁состави":2624,"us":2625,"кта":2626,"щая":2627,"кам":2628,"хов":2629,"ства,":2630,"▁нау":2631,"ке,":2632,"▁ла":2633,"▁Ру":2634,"▁Ла":2635,"овые":2636,"▁to":2637,"дить":2638,"льзу":2639,"▁назва":2640,"▁уби":2641,"▁часть":2642,"▁своих":2643,"▁президента":2644,"лось,":2645,"▁контро":2646,"тов.":2647,"пози":2648,"▁креди":2649,"▁уголов":2650,"ственных":2651,"▁служ":2652,"▁территории":2653,"▁\"Л":2654,"▁продолжа":2655,"▁трен":2656,"лон":2657,"помним,":2658,"с,":2659,"▁зако":2660,"тет":2661,"ил":2662,"един":2663,"▁\"Ро":2664,"стри":2665,"▁образова":2666,"▁запре":2667,"еха":2668,"им":2669,"сут":2670,"▁социаль":2671,"ель":2672,"рах":2673,"▁доба":2674,"▁получа":2675,"▁J":2676,"▁Ста":2677,"евра":2678,"ом":2679,"ыре":2680,"▁догово":2681,"-201":2682,"▁поддерж":2683,"▁буду":2684,"▁связа":2685,"▁окт":2686,"▁преступ":2687,"▁23":2688,"▁федера":2689,"цей":2690,"▁женщи":2691,"лимпи":2692,"▁мене":2693,"дел":2694,"▁ша":2695,"▁нам":2696,"▁зем":2697,"▁которого":2698,"лог":2699,"▁Напомним,":2700,"▁пода":2701,"▁зада":2702,"??":2703,"мя":2704,"▁предпо":2705,"▁коли":2706,"рави":2707,"▁способ":2708,"▁значи":2709,"▁деся":2710,"▁детей":2711,"▁подготов":2712,"тем":2713,"ляр":2714,"▁сообщил":2715,"▁Москвы":2716,"▁вра":2717,"▁уг":2718,"▁Федера":2719,"тных":2720,"un":2721,"▁транспо":2722,"▁осу":2723,"▁реали":2724,"▁долла":2725,"не.":2726,"▁сум":2727,"▁куль":2728,"▁No":2729,"▁апре":2730,"щем":2731,"▁Га":2732,"сследова":2733,"работа":2734,"▁фон":2735,"▁обсу":2736,"чный":2737,"мести":2738,"виси":2739,"▁филь":2740,"▁уч":2741,"я.":2742,"▁24":2743,"▁след":2744,"ового":2745,"▁счет":2746,"рую":2747,"▁Ранее":2748,"кто":2749,"дви":2750,"id":2751,"еры":2752,"▁рам":2753,"рту":2754,"▁кли":2755,"вор":2756,"▁\"З":2757,"▁Пред":2758,"жу":2759,"▁насе":2760,"▁иностран":2761,"▁ри":2762,"ку,":2763,"ерт":2764,"рам":2765,"ter":2766,"ческие":2767,"ган":2768,"ния.":2769,"▁политиче":2770,"▁свобо":2771,"ке.":2772,"чные":2773,"▁люди":2774,"▁мину":2775,"▁объек":2776,"▁повы":2777,"шим":2778,"▁составля":2779,"▁преду":2780,"ствие":2781,"▁уни":2782,"▁вклю":2783,"▁меди":2784,"▁времени":2785,"▁предприя":2786,"▁выпол":2787,"бан":2788,".0":2789,"▁должен":2790,"▁говорит":2791,"▁агент":2792,"▁пози":2793,"фа":2794,"▁именно":2795,"▁Под":2796,"щий":2797,"смот":2798,"▁февра":2799,"▁тур":2800,"▁перио":2801,"д,":2802,"▁утвер":2803,"▁провед":2804,"▁маши":2805,"нение":2806,"ВД":2807,"пада":2808,"ницу":2809,"▁сез":2810,"той":2811,"▁**":2812,"ost":2813,"▁Лу":2814,"com":2815,"страда":2816,"пример,":2817,"▁2011":2818,"▁обы":2819,"▁называ":2820,"▁года,":2821,"ствует":2822,"ено":2823,"▁дости":2824,"▁требова":2825,":00":2826,"каз":2827,"чного":2828,"▁Ле":2829,"▁случае":2830,"дя":2831,"нологи":2832,"ew":2833,"йдет":2834,"▁четыре":2835,"▁\"Ъ":2836,"ch":2837,"▁участие":2838,"▁там":2839,"▁Мар":2840,"ропо":2841,"▁почти":2842,"▁завер":2843,"МИ":2844,"▁Фран":2845,"▁ходе":2846,"▁авиа":2847,"▁пресс-служ":2848,"▁пы":2849,"▁Кры":2850,"▁подчер":2851,"▁опреде":2852,"мыш":2853,"енно":2854,"▁госпо":2855,"▁специали":2856,"▁части":2857,"овый":2858,"чены":2859,"▁мет":2860,"▁стало":2861,"▁сра":2862,"еща":2863,"шем":2864,"чить":2865,"▁кла":2866,"▁ожида":2867,"сили":2868,"▁рамках":2869,"▁появи":2870,"▁измен":2871,"▁мне":2872,"▁здесь":2873,"▁передает":2874,"▁роди":2875,"▁даль":2876,"ю.":2877,"▁ОО":2878,"дно":2879,"▁тя":2880,"▁нор":2881,"ющей":2882,"нец":2883,"чки":2884,"▁100":2885,"▁развития":2886,"▁четвер":2887,"стер":2888,"▁Су":2889,"▁собствен":2890,"ды,":2891,"мой":2892,"▁рей":2893,"▁Они":2894,"доб":2895,"▁центра":2896,"▁мнению":2897,"ссии":2898,"▁нем":2899,"кола":2900,"▁журнали":2901,".1":2902,"ческий":2903,"▁Миха":2904,"неч":2905,"▁конце":2906,"щении":2907,"тирова":2908,"▁совет":2909,"▁компания":2910,"ьез":2911,"ваться":2912,"лению":2913,"▁образо":2914,"▁одной":2915,"▁однако":2916,"▁Ха":2917,"сло":2918,"▁безопасности":2919,"роб":2920,"гля":2921,"▁потому":2922,"▁and":2923,"▁подтвер":2924,"▁провер":2925,"▁некоторы":2926,"ферен":2927,"▁ло":2928,"▁внима":2929,"ница":2930,"▁момент":2931,"▁сам":2932,"▁источ":2933,"▁наза":2934,"▁свой":2935,"чего":2936,"ницы":2937,"▁вопрос":2938,"ep":2939,"ффек":2940,"них":2941,"▁Че":2942,"▁особ":2943,"▁суб":2944,"графи":2945,"енси":2946,"▁националь":2947,"тура":2948,"▁Также":2949,"▁материа":2950,"енера":2951,"▁поку":2952,"▁игро":2953,"▁дня":2954,"шее":2955,"ссе":2956,"▁места":2957,"▁ти":2958,"▁.":2959,"▁заня":2960,"тельных":2961,"▁лег":2962,"явля":2963,"▁председа":2964,"блю":2965,"▁прем":2966,"оло":2967,"тиво":2968,"▁мира":2969,"▁гру":2970,"▁назна":2971,"▁СМИ":2972,"▁причи":2973,"жай":2974,"тельной":2975,"▁рес":2976,"▁увер":2977,"▁отказа":2978,"▁кур":2979,"▁нео":2980,"em":2981,"▁отношении":2982,"берна":2983,"▁U":2984,"▁одного":2985,"г,":2986,"▁Путин":2987,"роприя":2988,"▁зда":2989,"шки":2990,"ды.":2991,"▁стан":2992,"▁докумен":2993,"▁такой":2994,"да.":2995,"▁этих":2996,"там":2997,"▁пример":2998,"▁50":2999,"жных":3000,"мышлен":3001,"▁заседа":3002,"▁Кра":3003,"▁бое":3004,"ИА":3005,"▁стали":3006,"▁условия":3007,"рев":3008,"ина":3009,"▁возможность":3010,"oo":3011,"▁словам,":3012,"▁пострада":3013,"нных":3014,"▁компле":3015,"▁наде":3016,"▁Дж":3017,"дой":3018,"зер":3019,"▁региона":3020,"▁стороны":3021,"▁реб":3022,"ным,":3023,"▁себе":3024,"▁республи":3025,"▁прекра":3026,"▁принима":3027,"▁ника":3028,"лета":3029,"читы":3030,"ющего":3031,"▁окру":3032,"▁Гос":3033,"▁парла":3034,"▁ха":3035,"ку.":3036,"вшие":3037,"▁ог":3038,"▁тем,":3039,"▁авгу":3040,"ством":3041,"▁исклю":3042,"▁V":3043,"сан":3044,"ig":3045,"%.":3046,"▁ранее":3047,"ir":3048,"▁предлага":3049,"г.":3050,"▁надо":3051,"▁большо":3052,"мов":3053,"▁заявил,":3054,"/201":3055,"чем":3056,"вен":3057,"▁Гер":3058,"▁ведом":3059,"▁финанс":3060,"▁(00":3061,"▁руковод":3062,"▁кру":3063,"▁правительства":3064,"вал":3065,"▁специаль":3066,"▁пя":3067,"▁Теле":3068,"игра":3069,"ты.":3070,"▁Новости":3071,"скими":3072,"▁Му":3073,"▁ря":3074,"▁привле":3075,"▁услу":3076,"▁тоже":3077,"▁K":3078,"тно":3079,"ится":3080,"▁Сейчас":3081,"▁времен":3082,"рева":3083,"▁кар":3084,"ct":3085,"ены":3086,"стана":3087,"▁российских":3088,"▁ограни":3089,"▁процен":3090,"матри":3091,"рин":3092,"▁энер":3093,"зов":3094,"▁обна":3095,"▁сокра":3096,"▁канди":3097,"▁26":3098,"▁кандида":3099,"рования":3100,"жной":3101,"▁th":3102,"▁исследова":3103,"▁стран":3104,"▁Хо":3105,"▁сре":3106,"▁мероприя":3107,"▁столи":3108,"▁рублей.":3109,"▁работу":3110,"▁прог":3111,"рори":3112,"▁своего":3113,"▁ги":3114,"▁всегда":3115,"▁Каза":3116,"▁Сегодня":3117,"▁января":3118,"ню":3119,"д.":3120,"▁Ком":3121,"▁28":3122,"▁деньги":3123,"▁контра":3124,"▁трех":3125,"▁среди":3126,"рот":3127,"▁матче":3128,"обра":3129,"▁сентября":3130,"▁первый":3131,"вид":3132,"▁27":3133,"▁управления":3134,"▁допол":3135,"ла.":3136,"шло":3137,"дина":3138,"▁профе":3139,"чка":3140,"конча":3141,"нской":3142,"▁O":3143,"▁борь":3144,"▁права":3145,"▁России.":3146,"пуска":3147,"ствовать":3148,"▁находится":3149,"▁тогда":3150,"р.":3151,"▁еди":3152,"▁вне":3153,"еть":3154,"s.":3155,"▁перегово":3156,"▁иде":3157,"▁пыта":3158,"▁доста":3159,"кса":3160,"▁серьез":3161,"нача":3162,"▁Президен":3163,"▁октября":3164,"ственный":3165,"▁русс":3166,"дра":3167,"▁****":3168,"ждение":3169,"▁прод":3170,"▁инвести":3171,"op":3172,"▁основа":3173,"ян":3174,"▁теперь":3175,"ТА":3176,"▁Дмитрий":3177,"еди":3178,"ющим":3179,"▁сборной":3180,"▁поня":3181,"▁Ав":3182,"работ":3183,"▁AM":3184,"e.":3185,"хва":3186,"▁предлож":3187,"доров":3188,"▁199":3189,"▁одно":3190,"▁региональ":3191,"ссо":3192,"▁бра":3193,"▁[":3194,"▁верну":3195,"▁средств":3196,"муще":3197,"▁фото":3198,"сом":3199,"▁това":3200,"кура":3201,"▁идет":3202,"мон":3203,"▁добави":3204,"▁собра":3205,"▁декабря":3206,"лит":3207,"видет":3208,"тельные":3209,"тар":3210,"iv":3211,"▁вот":3212,"верси":3213,"вое":3214,"/1":3215,"▁Бу":3216,"▁бес":3217,"▁пря":3218,"▁Ду":3219,"▁говорится":3220,"▁течение":3221,"боль":3222,"▁противо":3223,"▁июля":3224,"▁страна":3225,"лют":3226,"еспубли":3227,"▁ближай":3228,"▁ноября":3229,"шений":3230,"▁главы":3231,"ток":3232,"цени":3233,"▁увеличи":3234,"те,":3235,"▁ге":3236,"▁законода":3237,"ности.":3238,"50":3239,"▁группы":3240,"нные":3241,"ht":3242,"▁района":3243,"част":3244,"▁районе":3245,"принима":3246,"проек":3247,"▁системы":3248,"▁намер":3249,"▁Телефон":3250,"▁прибы":3251,"▁подчеркну":3252,"ить":3253,"няя":3254,"▁закры":3255,"▁лиц":3256,"дним":3257,"▁Между":3258,"пара":3259,"АО":3260,"шла":3261,"▁России,":3262,"вых":3263,"▁стоимо":3264,"ленных":3265,"езд":3266,"нского":3267,"▁рассказал":3268,"▁апреля":3269,"▁регу":3270,"-П":3271,"▁эффек":3272,"▁организации":3273,"▁которое":3274,"▁ради":3275,"лением":3276,"▁проводи":3277,"ко,":3278,"▁июня":3279,"вобо":3280,"щие":3281,"▁Республи":3282,"▁дене":3283,"▁технологи":3284,"кет":3285,"ссия":3286,"▁посе":3287,"мости":3288,"▁понима":3289,"▁язы":3290,"▁аэ":3291,"▁реко":3292,"▁другие":3293,"▁сти":3294,"тами":3295,"▁инф":3296,"▁удалось":3297,"▁шта":3298,"▁МВД":3299,"▁суде":3300,"▁ссы":3301,"хода":3302,"телем":3303,"слав":3304,"гам":3305,"▁погиб":3306,"▁задержа":3307,"▁дума":3308,"нить":3309,"▁хозя":3310,"тельного":3311,"рию":3312,"▁Вер":3313,"ссажи":3314,"ко.":3315,"▁оборо":3316,"▁мя":3317,"▁попа":3318,"▁кварти":3319,"▁Ев":3320,"▁ны":3321,"▁недо":3322,"▁поряд":3323,"ич":3324,"нечно,":3325,"▁(00:0":3326,"▁сло":3327,"▁две":3328,"▁людей":3329,"торов":3330,"▁Минист":3331,"ти,":3332,"▁2010":3333,"ь,":3334,"▁турни":3335,"▁вместе":3336,"▁аре":3337,"ствии":3338,"▁жела":3339,"▁эту":3340,"кую":3341,"ia":3342,"сколь":3343,"▁неде":3344,"▁Госду":3345,"▁спа":3346,"льная":3347,"вез":3348,"▁февраля":3349,"мест":3350,"▁подоз":3351,"▁собира":3352,"▁он.":3353,"▁мень":3354,"ма,":3355,"▁замести":3356,"▁народ":3357,"держи":3358,"публикова":3359,"▁#1":3360,"▁треть":3361,"▁публи":3362,"▁Сан":3363,"▁Никола":3364,"▁парт":3365,"пыт":3366,"ществ":3367,"▁смер":3368,"СК":3369,"▁пун":3370,"▁таких":3371,"▁действия":3372,"▁выступа":3373,"▁деле":3374,"прово":3375,"▁пор":3376,"▁решения":3377,"▁санк":3378,"▁сразу":3379,"▁бизнес":3380,"пании":3381,"рил":3382,"мена":3383,"▁оцен":3384,"▁отметил":3385,"▁Тур":3386,"▁верси":3387,"в,":3388,"тали":3389,"%,":3390,"▁постав":3391,"▁сай":3392,"▁подоб":3393,",2":3394,"▁котором":3395,"дж":3396,"▁поэтому":3397,"▁семь":3398,"шу":3399,"фика":3400,"▁тот":3401,"ло,":3402,"▁PM":3403,"жении":3404,"рить":3405,"шую":3406,"▁Пет":3407,"▁40":3408,"▁Глав":3409,"рения":3410,"шед":3411,"нин":3412,"▁Герма":3413,"▁премьер":3414,"▁человек.":3415,"▁лидер":3416,"ений,":3417,"▁работ":3418,"▁ху":3419,"▁2009":3420,"пере":3421,"тельный":3422,"му,":3423,"фо":3424,"обре":3425,"▁собы":3426,"или":3427,"▁изда":3428,"▁гос":3429,"▁Ива":3430,"дый":3431,"30":3432,"▁ответствен":3433,"▁пользова":3434,"ние,":3435,"▁обрати":3436,"▁Бы":3437,"хран":3438,"▁праз":3439,"▁оппози":3440,"▁губерна":3441,"▁уче":3442,"ы.":3443,"▁всем":3444,"▁менее":3445,"ове":3446,"▁техни":3447,"▁спорт":3448,"обще":3449,"▁конкур":3450,"▁тяже":3451,"▁имеет":3452,"ut":3453,"тон":3454,"▁качестве":3455,"жде":3456,"стоян":3457,"бро":3458,"чера":3459,"▁(2":3460,"▁новых":3461,"▁конф":3462,"ber":3463,"▁количество":3464,"▁нашей":3465,"▁l":3466,"▁производи":3467,"▁террори":3468,"▁ини":3469,"са,":3470,"▁чинов":3471,"▁году.":3472,"▁интерес":3473,"ат":3474,"▁29":3475,"▁современ":3476,"▁начала":3477,"▁находя":3478,"▁угро":3479,"▁представитель":3480,"ябре":3481,"▁чего":3482,"▁интере":3483,"▁срав":3484,"▁разре":3485,"боро":3486,"▁человека":3487,"▁говоря":3488,"▁Ал":3489,"▁человек,":3490,"▁партии":3491,"um":3492,"ходят":3493,"ed:":3494,"ктор":3495,"▁ЕС":3496,"тера":3497,"ation":3498,"▁капита":3499,"▁возду":3500,"чат":3501,"скольку":3502,"ляет":3503,"▁музы":3504,"▁этим":3505,"▁»":3506,"▁Его":3507,"в.":3508,"▁пенси":3509,"пли":3510,"▁соста":3511,"▁\"У":3512,"▁пассажи":3513,"номо":3514,"ые":3515,"▁води":3516,"▁наблю":3517,"фици":3518,"кро":3519,"льным":3520,"▁стре":3521,"шет":3522,"дии":3523,"▁тури":3524,"▁состав":3525,"▁нового":3526,"-го":3527,"стой":3528,"емых":3529,"▁Сирии":3530,"▁сделать":3531,"руют":3532,"▁стала":3533,"▁Мак":3534,"рю":3535,"ul":3536,"гру":3537,"▁того":3538,"▁программы":3539,"▁совершен":3540,"▁анти":3541,"▁москов":3542,"▁внут":3543,"▁спор":3544,"▁медици":3545,"ну,":3546,"руется":3547,"▁Когда":3548,"▁ничего":3549,"▁сайте":3550,"est":3551,"▁возра":3552,"▁Пути":3553,"▁подписа":3554,"ровали":3555,"фак":3556,"▁хотя":3557,"жать":3558,"▁Вели":3559,"▁различ":3560,"форми":3561,"▁\"Е":3562,"ента":3563,"▁РИА":3564,"▁европей":3565,"▁проект":3566,"жного":3567,"того":3568,"овая":3569,"ры,":3570,"▁считает":3571,"▁месте":3572,"▁предложи":3573,"▁отметил,":3574,"ver":3575,"▁убий":3576,"чей":3577,"точно":3578,"щит":3579,"▁информации":3580,"▁своем":3581,"▁директор":3582,"▁городе":3583,"-0":3584,"▁помощи":3585,"нок":3586,"▁фун":3587,"▁реаль":3588,"льное":3589,"са.":3590,",3":3591,"▁анали":3592,"▁такие":3593,",6":3594,"▁марта":3595,"▁сообщили":3596,"▁матча":3597,"▁большин":3598,"▁ши":3599,"ap":3600,"веден":3601,"чил":3602,"▁выда":3603,".com":3604,"вари":3605,"▁мая":3606,"вую":3607,"▁2008":3608,"телям":3609,"▁получил":3610,"▁рассмо":3611,"▁непо":3612,"▁акти":3613,"▁конфли":3614,"▁последние":3615,"▁скоро":3616,"нал":3617,"▁генера":3618,"▁масс":3619,"/0":3620,"щую":3621,"▁российского":3622,"▁стоит":3623,"▁представля":3624,"лимпий":3625,"▁примен":3626,"▁избира":3627,"▁августа":3628,"▁ссыл":3629,",4":3630,"зии":3631,"▁указа":3632,"▁каса":3633,"▁наи":3634,"▁второй":3635,"▁мире":3636,",7":3637,"▁жа":3638,"▁диа":3639,"пыта":3640,"▁проте":3641,"▁хи":3642,"▁представ":3643,"▁поясни":3644,"▁оружи":3645,"▁род":3646,"▁член":3647,"▁жизнь":3648,"ленные":3649,"▁проблемы":3650,"▁лет.":3651,"нять":3652,"▁должна":3653,"▁правительство":3654,"▁пять":3655,"▁новый":3656,"▁процесс":3657,"▁по-":3658,"мии":3659,"▁Post":3660,"▁Алексей":3661,"▁прин":3662,"▁отра":3663,"▁нынеш":3664,"▁Андрей":3665,"▁пово":3666,"нами":3667,"нский":3668,"▁распро":3669,"▁\"Ъ\"":3670,"▁частности,":3671,"▁оцени":3672,"▁возвра":3673,"▁2017":3674,"__":3675,"ква":3676,"емон":3677,"▁опас":3678,"еме":3679,"▁тренер":3680,"▁внутрен":3681,"▁взры":3682,"ваются":3683,"▁мэ":3684,"▁Ди":3685,"▁31":3686,"▁стол":3687,"▁Москов":3688,"▁расследова":3689,"▁начале":3690,"ести":3691,"▁настоящее":3692,"▁которую":3693,"▁аэропо":3694,"▁теа":3695,"лой":3696,"os":3697,"ственные":3698,"▁мужчи":3699,"тый":3700,"▁новые":3701,"▁потом":3702,"сить":3703,"нуть":3704,"▁Европы":3705,"кви":3706,"рко":3707,".201":3708,"▁In":3709,"извест":3710,"▁одна":3711,",8":3712,"това":3713,"чета":3714,"тной":3715,"▁Сле":3716,"▁\"Ин":3717,"▁государства":3718,"▁отношения":3719,"дил":3720,"ведения":3721,"це-":3722,"▁бло":3723,"▁истории":3724,"▁дел":3725,"▁ней":3726,"▁уверен":3727,"▁выпла":3728,"▁дополнитель":3729,"▁информацию":3730,"ма.":3731,"били":3732,"-летний":3733,",1":3734,"▁и,":3735,"▁\"Ф":3736,"рос":3737,"▁сохра":3738,"▁професси":3739,"рудова":3740,"▁Иго":3741,"▁получить":3742,"ТО":3743,"▁возбу":3744,"▁полицей":3745,"ться,":3746,"вый":3747,"▁инициа":3748,"▁Президент":3749,"▁предпринима":3750,"▁требу":3751,"▁Она":3752,"eb":3753,"▁отде":3754,"юз":3755,"▁миллионов":3756,"▁конц":3757,"▁выс":3758,"▁назад":3759,"▁хорошо":3760,"▁иску":3761,"▁Поэтому":3762,"▁станет":3763,"ex":3764,"▁Ту":3765,"ципа":3766,"▁тради":3767,"▁став":3768,"ду,":3769,"▁взя":3770,"▁попу":3771,"▁начина":3772,"▁уточ":3773,"▁Кар":3774,"▁проекта":3775,"юза":3776,"▁комитета":3777,"▁струк":3778,"охра":3779,"▁написа":3780,"чества":3781,"▁прак":3782,"жные":3783,"▁чемпионата":3784,"они":3785,"▁Согла":3786,"▁команды":3787,"ясня":3788,"▁стро":3789,"▁Цен":3790,"ственно":3791,"▁пожа":3792,"▁tim":3793,"▁мир":3794,"▁Евг":3795,"нев":3796,"▁самых":3797,"▁стране":3798,"траф":3799,"▁включа":3800,"▁поме":3801,"▁трав":3802,"шению":3803,"▁осуществ":3804,"нице":3805,"▁сла":3806,"▁приобре":3807,"oc":3808,"▁весь":3809,"▁гор":3810,"▁бизне":3811,"▁Сто":3812,"▁поскольку":3813,"лений":3814,"▁кни":3815,"бов":3816,"av":3817,"ей,":3818,"дили":3819,"▁Серге":3820,"телей,":3821,"▁опубликова":3822,"▁писа":3823,"тых":3824,"▁соответству":3825,"▁видео":3826,"°C":3827,"сем":3828,"лых":3829,"лору":3830,"чески":3831,"▁вопросы":3832,"рование":3833,"ссий":3834,"м\"":3835,"стью":3836,"▁состо":3837,"▁возмо":3838,"чис":3839,"лер":3840,"▁использу":3841,"▁харак":3842,"▁неда":3843,"▁обу":3844,"▁часов":3845,"000":3846,"▁многие":3847,"▁(в":3848,"рами":3849,"▁Боль":3850,"▁кризи":3851,"▁интернет":3852,"водит":3853,"ну.":3854,"риан":3855,"с\"":3856,"age":3857,"▁содержа":3858,"▁прошлого":3859,"ль,":3860,"▁норма":3861,"▁площад":3862,"ное,":3863,"▁люде":3864,"ция,":3865,"▁законопроек":3866,"▁совмест":3867,"▁\"На":3868,"▁кино":3869,"▁дней":3870,"▁вопроса":3871,"▁Лю":3872,"▁мини":3873,"▁средства":3874,"▁вза":3875,"▁\"Э":3876,"▁тр":3877,"мар":3878,"▁Тем":3879,"телями":3880,"▁Би":3881,"спек":3882,"▁полностью":3883,"▁лучше":3884,"веро":3885,"степ":3886,"▁СК":3887,"шта":3888,"рое":3889,"дется":3890,"▁прогно":3891,"чем,":3892,"▁населения":3893,"▁сцен":3894,"ИД":3895,"www":3896,"собо":3897,"/2":3898,"▁истори":3899,"▁наши":3900,"▁началь":3901,"нии,":3902,"▁здоров":3903,"▁сами":3904,"тирует":3905,"кар":3906,"▁нов":3907,"▁постоян":3908,"▁объяви":3909,"те.":3910,"▁вас":3911,"ционных":3912,"что":3913,"▁этому":3914,"▁воору":3915,"ческая":3916,"у.":3917,"▁другой":3918,"▁живо":3919,"▁расши":3920,"▁составляет":3921,"сер":3922,"▁тон":3923,"▁пят":3924,"гази":3925,"▁получили":3926,"чении":3927,"▁выра":3928,"\":":3929,"вока":3930,"▁ска":3931,"▁например,":3932,"▁внеш":3933,"тные":3934,"сил":3935,"их":3936,"дний":3937,"ум":3938,"▁утвержда":3939,"лева":3940,"-ли":3941,"чено":3942,"▁доступ":3943,"вшей":3944,"доро":3945,"▁ребен":3946,"ниц":3947,"▁мирово":3948,"ксе":3949,"▁юри":3950,"талья":3951,"▁иностранных":3952,"▁рассказыва":3953,"ген":3954,"жный":3955,"раи":3956,"ться.":3957,"рина":3958,"▁g":3959,"вестия":3960,"▁эффектив":3961,"тельным":3962,"▁подпи":3963,"▁забо":3964,"az":3965,"▁работать":3966,"▁чита":3967,"▁Раз":3968,"▁:":3969,"льном":3970,"▁Ша":3971,"спон":3972,"поли":3973,"▁вам":3974,"▁пара":3975,"лять":3976,"надле":3977,"▁измени":3978,"тья":3979,"вел":3980,"терфак":3981,"▁Воз":3982,"▁пост":3983,"кин":3984,"▁дово":3985,"ess":3986,"▁российской":3987,"▁нико":3988,"▁Ос":3989,"oun":3990,"шать":3991,"▁неу":3992,"▁клуба":3993,"▁итогам":3994,"▁период":3995,"▁оборудова":3996,"▁сыгра":3997,"▁ава":3998,"▁праздни":3999,"диви":4000,"▁re":4001,"▁чув":4002,"▁ал":4003,"реги":4004,"▁ведь":4005,"спонден":4006,"мом":4007,"▁ним":4008,"теги":4009,"льщи":4010,"▁ссылкой":4011,"▁вообще":4012,"ровал":4013,"▁бро":4014,"мые":4015,"e,":4016,"▁Пере":4017,"▁заво":4018,"ec":4019,"▁убе":4020,"▁прошлом":4021,"ым":4022,"▁Ана":4023,"сур":4024,"даря":4025,"▁центре":4026,"▁Мед":4027,"▁фран":4028,"рее":4029,"ников,":4030,"ник,":4031,"тече":4032,"▁арен":4033,"▁встреча":4034,"лев":4035,"▁мог":4036,"вого":4037,"тах":4038,"вети":4039,"град":4040,"ционной":4041,"10":4042,"▁May":4043,"▁теку":4044,"клад":4045,"защит":4046,"▁миллиар":4047,"▁принадле":4048,"▁наблюда":4049,"▁искус":4050,"▁каждый":4051,"смен":4052,"▁году,":4053,"▁правоохра":4054,"вли":4055,"▁превы":4056,"▁кре":4057,"▁рез":4058,"нах":4059,"ставить":4060,"сия":4061,"держан":4062,"▁60":4063,"тный":4064,"▁Кита":4065,"-й":4066,"▁службы":4067,"▁люби":4068,"▁цель":4069,"▁фай":4070,"▁месяцев":4071,"▁какой":4072,",9":4073,"all":4074,"▁торгов":4075,"ле,":4076,"▁деятельности":4077,"▁долго":4078,"▁внимание":4079,"ев,":4080,"сро":4081,"▁ген":4082,"▁своим":4083,"вета":4084,"тарь":4085,"лый":4086,"▁учре":4087,"▁выступи":4088,"▁Оле":4089,"первые":4090,"▁экспо":4091,"баты":4092,"▁самолет":4093,"▁транспорт":4094,"▁Восто":4095,"▁движения":4096,"▁Глава":4097,"▁банков":4098,"нный":4099,"▁Казах":4100,"▁\"По":4101,"га,":4102,"▁представители":4103,"ей.":4104,"▁поте":4105,"дит":4106,"▁отправи":4107,"www.":4108,"▁относи":4109,"-Петербур":4110,"▁годы":4111,"▁мощ":4112,"▁помощью":4113,"▁попро":4114,"▁обвиня":4115,"ort":4116,"▁Пи":4117,"ниципа":4118,"сок":4119,"▁ситуации":4120,"сь,":4121,"дово":4122,"АСС":4123,"гре":4124,"▁Ри":4125,"▁дере":4126,"▁полож":4127,"▁освобо":4128,"ва,":4129,"вью":4130,"▁Еще":4131,"более":4132,"▁промышлен":4133,"▁пои":4134,"стров":4135,"ствуют":4136,"▁вице-":4137,"▁чер":4138,"▁меньше":4139,"тря":4140,"▁система":4141,"▁свидет":4142,"ет.":4143,"жит":4144,"кт-Петербур":4145,"▁\"Газ":4146,"▁бере":4147,"▁дав":4148,"тивных":4149,"▁X":4150,"▁встречи":4151,"▁област":4152,"пания":4153,"▁которым":4154,"бин":4155,"▁произошло":4156,"▁наших":4157,"▁пригово":4158,"▁возможности":4159,"▁практически":4160,"▁кры":4161,"▁станов":4162,"▁ряд":4163,"▁един":4164,"▁спец":4165,"▁Министер":4166,"▁пись":4167,"▁одним":4168,"▁голов":4169,"ется.":4170,"▁данные":4171,"▁пора":4172,"▁отсут":4173,"пуск":4174,"a.ru":4175,"▁всей":4176,"▁предполага":4177,"▁расположен":4178,"телей.":4179,"ником":4180,"our":4181,"▁Поли":4182,"жем":4183,"▁ООН":4184,"▁участников":4185,"▁ситуация":4186,"▁пяти":4187,"ятся":4188,"чная":4189,"треть":4190,"ле.":4191,"кану":4192,"жды":4193,"▁Гу":4194,"▁несколь":4195,"дия":4196,"▁нет.":4197,"▁пам":4198,"▁Чер":4199,"▁восстанов":4200,"ющая":4201,"▁влия":4202,"ной,":4203,"пора":4204,"ел":4205,"рец":4206,"▁\"Я":4207,"ций,":4208,"▁неме":4209,"тят":4210,"▁рост":4211,"▁рейтин":4212,"ка\"":4213,"▁зам":4214,"▁оконча":4215,"▁финанси":4216,"прочем,":4217,"▁сель":4218,"город":4219,"лки":4220,"веча":4221,"▁прокура":4222,"▁хозяй":4223,"тию":4224,"▁(\"":4225,"▁организова":4226,"▁посети":4227,"▁никто":4228,"▁шо":4229,"▁зависи":4230,"▁вариан":4231,"р,":4232,"терес":4233,"тили":4234,"if":4235,"▁учи":4236,"▁либо":4237,"▁администрации":4238,"пря":4239,"▁It":4240,"▁близ":4241,"▁Центра":4242,"▁отда":4243,"▁Совет":4244,"ционного":4245,"▁затем":4246,"-ми":4247,"▁приводит":4248,"дума":4249,"▁физи":4250,"▁сложно":4251,"▁выстав":4252,"фере":4253,"▁часто":4254,"▁край":4255,"▁полови":4256,"▁уровень":4257,"▁поне":4258,"▁on:":4259,"▁суда":4260,"естива":4261,"▁арест":4262,"пов":4263,"сен":4264,"ность,":4265,"▁объем":4266,"▁дер":4267,"▁самом":4268,"ологи":4269,"▁похо":4270,"лово":4271,"мых":4272,"тей":4273,"ним":4274,"▁пишет":4275,"▁проведения":4276,"▁стар":4277,"гры":4278,"▁заверши":4279,"прос":4280,"▁муниципа":4281,"▁приходи":4282,"▁дальней":4283,"▁конкурен":4284,"ила":4285,"еров":4286,"▁МИД":4287,"▁универси":4288,"ре,":4289,"▁неболь":4290,"нам":4291,"▁Ча":4292,"▁конца":4293,"веде":4294,"rent":4295,"▁сопер":4296,"▁Ис":4297,"щу":4298,"ев.":4299,"кими":4300,"▁следова":4301,"▁«С":4302,"лка":4303,"s,":4304,"▁выигра":4305,"ний,":4306,".R":4307,"тего":4308,"▁возгла":4309,"▁комму":4310,"т\"":4311,"▁являются":4312,"▁ау":4313,"▁поддержа":4314,"▁вид":4315,"▁предвари":4316,"▁<":4317,"▁Ло":4318,"▁Согласно":4319,"▁Rep":4320,"▁пала":4321,"▁улице":4322,"▁ап":4323,"▁наказа":4324,"нил":4325,"нему":4326,"▁останов":4327,"▁достаточно":4328,"▁вызва":4329,"чным":4330,"▁жерт":4331,"скрес":4332,"▁форма":4333,"▁штраф":4334,"ях":4335,"матиче":4336,"▁оши":4337,"▁вели":4338,"нии.":4339,"▁Так,":4340,"▁тен":4341,"уден":4342,"▁первом":4343,"▁2007":4344,"цию,":4345,"▁полиции":4346,"нала":4347,"нов,":4348,"▁какие":4349,"▁первого":4350,"▁области.":4351,"▁что,":4352,"цуз":4353,"▁интервью":4354,"▁предприятия":4355,"▁команда":4356,"▁печа":4357,"▁совета":4358,"▁Ген":4359,"▁дом":4360,"▁узна":4361,"зем":4362,"▁выше":4363,"мы,":4364,"lo":4365,"▁магази":4366,"коми":4367,"▁партнер":4368,"▁россия":4369,"▁министр":4370,"сад":4371,"▁Красно":4372,"▁футболи":4373,"▁важно":4374,"▁игры":4375,"нной":4376,"▁Михаил":4377,"▁Международ":4378,"▁Санкт-Петербур":4379,"▁победи":4380,"▁70":4381,"лай":4382,"▁выступ":4383,"▁таким":4384,"▁Ти":4385,"▁Российской":4386,"▁Медведе":4387,"▁веду":4388,"▁нач":4389,"тного":4390,"▁электро":4391,"▁конечно,":4392,"▁худо":4393,"▁министер":4394,"▁популяр":4395,"▁любо":4396,"▁судеб":4397,"га.":4398,"мир":4399,"▁лица":4400,"▁Республики":4401,"▁лет,":4402,"весто":4403,"▁отдель":4404,"ind":4405,"-м":4406,"▁функ":4407,"пар":4408,"▁данных":4409,"▁матч":4410,"сточ":4411,"▁постанов":4412,"▁ата":4413,"▁стратеги":4414,"вели":4415,"▁незакон":4416,"▁крупней":4417,"ri":4418,"ый":4419,"▁кам":4420,"▁документа":4421,"▁поки":4422,"▁Украине":4423,"▁пользу":4424,"▁макси":4425,"шает":4426,"бай":4427,"▁обсужда":4428,"пор":4429,"емокра":4430,"▁делу":4431,"▁культуры":4432,"ова,":4433,"▁компаний":4434,"▁правитель":4435,"▁was":4436,"▁покупа":4437,"ре.":4438,"катери":4439,"нется":4440,"лся,":4441,"▁Оба":4442,"art":4443,"▁пройдет":4444,"▁глу":4445,"▁сли":4446,"низ":4447,"▁бюджета":4448,"ой":4449,"▁Пар":4450,"▁Бар":4451,"▁почему":4452,"▁Петербур":4453,"▁запла":4454,"рез":4455,"гети":4456,"▁прио":4457,"▁пси":4458,"ab":4459,"к\"":4460,"▁снизи":4461,"ak":4462,"нг":4463,"▁особенно":4464,"▁аль":4465,"▁голосова":4466,"▁наш":4467,"респонден":4468,"▁Y":4469,"лга":4470,"▁группа":4471,"жар":4472,"тором":4473,"▁образом":4474,"▁могли":4475,"-3":4476,"коб":4477,"▁упа":4478,"▁претен":4479,"▁погибли":4480,"кануне":4481,"▁рынка":4482,"▁клуб":4483,"▁Федерации":4484,"тех":4485,"▁Теперь":4486,"▁сети":4487,"ческим":4488,"▁телека":4489,"▁time":4490,"ство,":4491,"бере":4492,"▁имени":4493,"▁Владимира":4494,"6,":4495,"▁огром":4496,"▁собой":4497,"вар":4498,"ческое":4499,"▁ката":4500,"нов.":4501,"▁вся":4502,"▁сим":4503,"▁Чи":4504,"роят":4505,"▁сме":4506,"▁Posted:":4507,"▁число":4508,"▁уровня":4509,"▁нее":4510,"▁сере":4511,"▁молоде":4512,"▁господин":4513,"бир":4514,"▁вол":4515,"▁тут":4516,"▁Ге":4517,"ющее":4518,"▁ей":4519,"▁рекомен":4520,"▁большой":4521,"дения":4522,"сной":4523,"▁быстро":4524,">>":4525,"раб":4526,"60":4527,"▁первую":4528,"▁уголовное":4529,"▁мало":4530,"▁понедель":4531,"▁рассматри":4532,"▁институ":4533,"▁ОАО":4534,"▁втор":4535,"ЧС":4536,"дних":4537,"вей":4538,"▁строительство":4539,"ду.":4540,"каде":4541,"льзя":4542,"▁Ира":4543,"неф":4544,"▁такого":4545,"ub":4546,"вок":4547,"▁now":4548,"▁ООО":4549,"▁боле":4550,"▁примерно":4551,"клады":4552,"▁устрой":4553,"под":4554,"▁катего":4555,"▁клиен":4556,"▁образом,":4557,"▁...":4558,"рок":4559,"▁район":4560,"▁первой":4561,"▁принци":4562,"40":4563,"вич":4564,"▁выход":4565,"▁месяца":4566,"▁опла":4567,"тельное":4568,"▁такое":4569,"▁вну":4570,"▁провести":4571,"▁http://www.":4572,"ля,":4573,"▁каждо":4574,"▁площади":4575,"▁новой":4576,"▁отправ":4577,"ние.":4578,"▁жителей":4579,"▁хоте":4580,"▁помощь":4581,"▁независи":4582,"▁Север":4583,"тые":4584,"ходы":4585,"▁некоторые":4586,"▁роста":4587,"нили":4588,"▁задержан":4589,"▁ремон":4590,"▁рабочи":4591,"▁фестива":4592,"▁действительно":4593,"▁Бер":4594,"▁итоге":4595,"><":4596,"▁рынке":4597,"▁сфере":4598,"ху":4599,"▁слож":4600,"▁имуще":4601,"▁проходи":4602,"▁доби":4603,"▁01":4604,"▁срок":4605,"▁поступи":4606,"▁проблема":4607,"▁раза":4608,"▁Reply":4609,"▁for":4610,"ревнова":4611,"цию.":4612,"▁еже":4613,"туру":4614,"лла":4615,"▁09":4616,"ным.":4617,"ля.":4618,"циден":4619,"▁04":4620,"▁изменения":4621,"▁гости":4622,"▁многих":4623,"мб":4624,"шенко":4625,"оз":4626,"▁сол":4627,"▁изу":4628,"▁никогда":4629,"пред":4630,"▁ана":4631,"▁тысячи":4632,"▁отвеча":4633,"▁ск":4634,"том,":4635,"▁Май":4636,"▁Совета":4637,"enta.ru":4638,"▁St":4639,"▁нало":4640,"док":4641,"▁действу":4642,"дца":4643,"вания":4644,"▁очередь":4645,"ce":4646,"помина":4647,"▁зар":4648,"▁Реги":4649,"▁найти":4650,"▁сторон":4651,"▁сотрудники":4652,"кли":4653,"▁ресур":4654,"▁одном":4655,"тельно,":4656,"▁банк":4657,"▁страны.":4658,"▁дра":4659,"▁бар":4660,"▁кварта":4661,"▁спорта":4662,"▁Lenta.ru":4663,"сов,":4664,"▁электрон":4665,"▁v":4666,"▁успеш":4667,"▁пропа":4668,"▁нарко":4669,"▁be":4670,"80":4671,"▁впервые":4672,"▁присут":4673,"▁потеря":4674,"▁кос":4675,"▁стоимость":4676,"▁стату":4677,"зация":4678,"▁зарпла":4679,"оны":4680,"▁суббо":4681,"▁парламента":4682,"вым":4683,"кобрита":4684,"след":4685,"▁воскрес":4686,"▁инвесто":4687,"▁адвока":4688,"qu":4689,"▁вырази":4690,"▁Александра":4691,"▁деву":4692,"▁уровне":4693,"▁съ":4694,"▁ответи":4695,"▁секре":4696,"ционный":4697,"слов":4698,"никами":4699,"▁возник":4700,"▁90":4701,"▁форми":4702,"▁посвя":4703,"бора":4704,"▁Ну":4705,"▁делать":4706,"джи":4707,"▁y":4708,"емся":4709,"сит":4710,"od":4711,"▁объяв":4712,"▁сообщении":4713,"▁ор":4714,"СКА":4715,"▁оказыва":4716,"шком":4717,"сшта":4718,"▁пригла":4719,"ТП":4720,"▁низ":4721,"шка":4722,"ль.":4723,"▁вече":4724,"▁Вол":4725,"▁правоохранитель":4726,"▁важ":4727,"куро":4728,"льную":4729,"-А":4730,"▁коло":4731,"▁взаимо":4732,"▁сотрудников":4733,"ников.":4734,"▁фигу":4735,"▁заместитель":4736,"▁золо":4737,"▁сня":4738,"▁газа":4739,"вом":4740,"дий":4741,"▁баз":4742,"чай":4743,"▁озна":4744,"ту,":4745,"urrent":4746,"▁невоз":4747,"▁председатель":4748,"▁Жи":4749,"▁МЧС":4750,"▁составе":4751,"щим":4752,"▁касается":4753,"▁брита":4754,"▁ль":4755,"▁призва":4756,"▁Фе":4757,"▁Макси":4758,"▁Ир":4759,"▁Кри":4760,"▁банка":4761,"▁план":4762,"инамо":4763,"▁Екатери":4764,"ностей":4765,"ченных":4766,"▁тех,":4767,"▁мер":4768,"чное":4769,"сона":4770,"▁раск":4771,"12":4772,"th":4773,"▁комплекс":4774,"▁наро":4775,"треб":4776,"кер":4777,"лимпиа":4778,"▁ото":4779,"▁обе":4780,"восто":4781,"▁находятся":4782,"▁страх":4783,"▁автобу":4784,"▁Игорь":4785,"▁молоды":4786,"▁продолжи":4787,"▁сможет":4788,"▁силу":4789,"▁профессиональ":4790,"▁Мур":4791,"овым":4792,"емый":4793,"▁\"Зени":4794,"▁спортсмен":4795,"▁08":4796,"▁ниже":4797,"▁пятницу":4798,"▁доказа":4799,"▁нако":4800,"▁Экс":4801,"▁центр":4802,"▁клю":4803,"▁демон":4804,"▁шан":4805,"▁отмечает":4806,"кут":4807,"нд":4808,"▁судь":4809,"ем.":4810,"▁размере":4811,"-К":4812,"тива":4813,"▁зри":4814,"шением":4815,"▁обнаружи":4816,"▁гаран":4817,"▁министра":4818,"ябрь":4819,"▁неизвест":4820,"емые":4821,"стру":4822,"▁мероприятия":4823,"▁каза":4824,"▁35":4825,"▁ТАСС":4826,"pp":4827,"▁Впрочем,":4828,"▁департа":4829,"▁соревнова":4830,"▁види":4831,"▁нескольких":4832,"▁ракет":4833,"▁труд":4834,"▁хва":4835,"▁строительства":4836,"▁аб":4837,"▁тро":4838,"▁работе":4839,"▁речь":4840,"вшая":4841,"▁спу":4842,"▁сих":4843,"де,":4844,"▁Прави":4845,"▁выде":4846,"▁отстав":4847,"сколько":4848,"▁Пе":4849,"▁Гре":4850,"▁Вот":4851,"риа":4852,"порт":4853,"лись,":4854,"▁80":4855,"▁Великобрита":4856,"▁полага":4857,"регистри":4858,"▁тю":4859,"▁акции":4860,"рого":4861,"▁цитирует":4862,"▁охра":4863,"бка":4864,"стов,":4865,"▁улуч":4866,"▁темпера":4867,"россий":4868,"▁проведен":4869,"чную":4870,"ций.":4871,"▁Сочи":4872,"АС":4873,"▁совсем":4874,"▁сда":4875,"шлось":4876,"▁желез":4877,"▁След":4878,"▁беспла":4879,"ail":4880,"▁\"Интерфак":4881,"▁следстви":4882,"▁обществен":4883,"▁внес":4884,"▁\"Ч":4885,"лые":4886,"НР":4887,"креп":4888,"чать":4889,"▁меры":4890,"емого":4891,"▁Суд":4892,"▁агентство":4893,"▁заявление":4894,"▁что-то":4895,"▁i":4896,"▁Тогда":4897,"▁активи":4898,"▁сегодняш":4899,"▁обнару":4900,"вшим":4901,"▁работает":4902,"▁трени":4903,"смотря":4904,"▁УК":4905,"▁Интер":4906,"ленный":4907,"никам":4908,"▁практи":4909,"▁хок":4910,"▁Таким":4911,"▁Националь":4912,"лов,":4913,"▁гро":4914,"▁США,":4915,"▁состоится":4916,"▁зи":4917,"ходов":4918,"▁наиболее":4919,"де.":4920,"зор":4921,"ческую":4922,"▁смогут":4923,"лети":4924,"▁Андре":4925,"????":4926,"ремьер":4927,"ook":4928,"ill":4929,"▁использовать":4930,"▁помога":4931,"▁особо":4932,"емой":4933,"▁четырех":4934,"▁руководитель":4935,"▁ЦСКА":4936,"жей":4937,"▁Бори":4938,"цов":4939,"лся.":4940,"▁будем":4941,"▁предостав":4942,"▁считает,":4943,"тельная":4944,"▁обеща":4945,"ov":4946,"лы,":4947,"▁принять":4948,"5,":4949,"▁архи":4950,"▁начали":4951,"▁тай":4952,"▁людей,":4953,"обе":4954,"▁current":4955,"сов.":4956,"▁корреспонден":4957,"▁имеют":4958,"▁порядка":4959,"▁млн.":4960,"мимо":4961,"▁главный":4962,"▁боеви":4963,"▁пунк":4964,"▁оч":4965,"▁мето":4966,"гип":4967,"ломет":4968,"кологи":4969,"▁всю":4970,"бло":4971,"▁поко":4972,"▁регионе":4973,"▁хра":4974,"сон":4975,"куль":4976,"▁несмотря":4977,"нюю":4978,"гии":4979,"▁спра":4980,"ссоциа":4981,"▁стади":4982,"шить":4983,"▁07":4984,"▁(3":4985,"интерес":4986,"йдут":4987,"▁области,":4988,"▁француз":4989,"▁полномо":4990,"телю":4991,"предели":4992,"тивной":4993,"▁позд":4994,"▁пресс-службе":4995,"полне":4996,"мень":4997,"▁(М":4998,"▁соответствии":4999,"▁предупре":5000,"▁пору":5001,"▁столич":5002,"▁российские":5003,"▁требования":5004,"▁Япо":5005,"▁высоко":5006,"▁цены":5007,"▁потреби":5008,"▁Израи":5009,"▁свет":5010,"ления,":5011,"▁рекла":5012,"вори":5013,"▁Среди":5014,"гер":5015,"ньше":5016,"▁запи":5017,"мая":5018,"▁обязан":5019,"ги,":5020,"▁поддержи":5021,"htm":5022,"22":5023,"▁скан":5024,"▁данный":5025,"▁currently":5026,"▁принято":5027,"▁Трам":5028,"▁арти":5029,"end":5030,"нских":5031,"▁Фото":5032,"ме,":5033,"▁пес":5034,"▁театра":5035,"▁следует":5036,"▁российский":5037,"держива":5038,"фина":5039,"▁«М":5040,"▁газета":5041,"▁подозрева":5042,"▁02":5043,"-та":5044,"▁скры":5045,"▁Гру":5046,"▁благодаря":5047,"▁месяц":5048,"▁(К":5049,"▁транс":5050,"сти.":5051,"круг":5052,"▁нельзя":5053,"сть,":5054,"▁дипло":5055,"зь":5056,"▁конкре":5057,"ченко":5058,"▁беспо":5059,"▁широ":5060,"▁выясни":5061,"▁разработ":5062,"▁\"Ру":5063,"▁коллек":5064,"зма":5065,"▁раньше":5066,"▁геро":5067,"волю":5068,"новь":5069,"▁самым":5070,"нее,":5071,"ers":5072,"тни":5073,"pr":5074,"▁самого":5075,"ения,":5076,"шему":5077,"▁марш":5078,"▁ат":5079,"▁воскресень":5080,"зей":5081,"ведли":5082,"▁представителей":5083,"оби":5084,"▁сайт":5085,"ений.":5086,"лий":5087,"▁обеспечи":5088,"ясь":5089,"циона":5090,"▁известно,":5091,"▁визи":5092,"▁положи":5093,"▁экс-":5094,"▁отды":5095,"▁немец":5096,"▁студен":5097,"-С":5098,"▁разных":5099,"мый":5100,"▁сумму":5101,"▁сдел":5102,"▁согласи":5103,"▁заби":5104,"▁выну":5105,"▁валют":5106,"леко":5107,"▁версии":5108,"▁сосе":5109,"▁поста":5110,"чном":5111,"▁Например,":5112,"▁ДТП":5113,"▁митин":5114,"▁инфра":5115,"▁остается":5116,"▁Россию":5117,"▁оно":5118,"▁фотографи":5119,"▁опро":5120,"ционные":5121,"▁куда":5122,"http://":5123,"рованных":5124,"▁\"Спарта":5125,"▁потен":5126,"▁вчера":5127,"ist":5128,".00":5129,"ровки":5130,"джа":5131,"▁болельщи":5132,"▁добы":5133,"▁официальный":5134,"зывает":5135,"▁регуляр":5136,"ews":5137,"▁рублей,":5138,"▁мигра":5139,"▁пенсион":5140,"▁дли":5141,"▁смы":5142,"лись.":5143,"▁прямо":5144,"ПР":5145,"▁реа":5146,"ной.":5147,"лях":5148,"щему":5149,"москов":5150,"▁пове":5151,"▁прежде":5152,"▁путе":5153,"ни,":5154,"▁тан":5155,"▁свобод":5156,"▁долларов":5157,"▁китай":5158,"л\"":5159,"▁Алексе":5160,"▁управля":5161,"▁(В":5162,"▁сет":5163,"▁готовы":5164,"мы.":5165,"▁цена":5166,"▁же,":5167,"▁Сергея":5168,"pe":5169,"▁сообщил,":5170,"▁процеду":5171,"▁согласно":5172,"сти,":5173,"лару":5174,"тил":5175,"▁вов":5176,"▁НА":5177,"▁Государ":5178,"ав":5179,"▁взгля":5180,"▁Вале":5181,"тивные":5182,"▁энергети":5183,"▁нес":5184,"гор":5185,"▁двига":5186,"▁(с":5187,"ность.":5188,"▁давно":5189,"ССР":5190,"▁Ад":5191,"▁восто":5192,"▁выборах":5193,"▁карти":5194,"▁случи":5195,"▁ВВ":5196,"ме.":5197,"▁выро":5198,"▁сирий":5199,"энер":5200,"лии":5201,"экономи":5202,"жо":5203,"▁мета":5204,"▁список":5205,"интересова":5206,"▁500":5207,"▁организация":5208,"▁уси":5209,"▁слишком":5210,"▁полномочи":5211,".ru/":5212,"ственная":5213,"▁заявля":5214,"рованы":5215,"▁момен":5216,"▁инфраструк":5217,"▁“":5218,"▁поле":5219,"▁друг":5220,"ждении":5221,"▁Лени":5222,"ard":5223,"▁реализации":5224,"▁Европе":5225,"▁\"в":5226,"онец":5227,"▁журналиста":5228,"▁корпора":5229,"▁обслу":5230,"▁st":5231,"▁непри":5232,"станавли":5233,"▁кого":5234,"стом":5235,"▁Амери":5236,"▁реда":5237,"▁вероят":5238,"▁нуж":5239,"▁достиг":5240,"▁Верхов":5241,"ственным":5242,"▁спро":5243,"▁руб.,":5244,"▁Арм":5245,"▁награ":5246,"куп":5247,"▁03":5248,"▁условиях":5249,"▁аппара":5250,"ждено":5251,"нного":5252,"ere":5253,"▁придется":5254,"▁компью":5255,"ло.":5256,"▁приеха":5257,"▁карь":5258,"честве":5259,"лень":5260,"▁чемпион":5261,"его":5262,"ph":5263,"нул":5264,"▁всего,":5265,"▁автомобилей":5266,"▁километ":5267,"бран":5268,"лов.":5269,"рабаты":5270,"тек":5271,"та\"":5272,"▁проблем":5273,"▁ГУ":5274,"▁05":5275,"лот":5276,"пущен":5277,"личие":5278,"езда":5279,"том.":5280,"99":5281,"цы,":5282,"▁вновь":5283,"▁корруп":5284,"сматри":5285,"▁провел":5286,"▁памят":5287,"▁депутат":5288,"▁происше":5289,"▁вполне":5290,"▁Поч":5291,"ова.":5292,"▁целом":5293,"▁гон":5294,"ва.":5295,"▁перево":5296,"▁СССР":5297,"рови":5298,"▁произошел":5299,"ференции":5300,"▁зрения":5301,"▁развитие":5302,"▁адрес":5303,"суль":5304,"▁доб":5305,"ord":5306,"лоу":5307,"▁\"не":5308,"тром":5309,".2":5310,"цев,":5311,"▁Th":5312,"▁Оль":5313,"же,":5314,"▁степ":5315,"▁меха":5316,"ik":5317,"▁масшта":5318,"тика":5319,"▁бума":5320,"▁ори":5321,"▁роль":5322,"▁твор":5323,"тивного":5324,"ера":5325,"▁выбра":5326,"▁снова":5327,"▁Госпо":5328,"▁объясни":5329,"▁разработа":5330,"стати,":5331,"▁политики":5332,"▁фир":5333,"ra":5334,"▁вспо":5335,"'s":5336,"▁могу":5337,"ай":5338,"html":5339,"▁Ъ":5340,"▁жест":5341,"хан":5342,"-минист":5343,"▁производства":5344,"▁пресс-служба":5345,"дирек":5346,"смотрен":5347,"ешь":5348,"70":5349,"▁ок":5350,"ры.":5351,"▁уви":5352,"▁обороны":5353,"▁Николай":5354,"▁рассчиты":5355,"▁отмен":5356,"▁нарушения":5357,"▁Есть":5358,"▁данным,":5359,"▁защит":5360,"ОС":5361,"are":5362,"▁год.":5363,"▁гри":5364,"луа":5365,"му.":5366,"▁(Н":5367,"▁дети":5368,"▁маршру":5369,"▁Евгений":5370,"▁Дру":5371,"ХЛ":5372,"единен":5373,"▁(С":5374,"-либо":5375,"▁никаких":5376,"тировать":5377,"ондо":5378,"▁миллиона":5379,"▁Белару":5380,"▁девя":5381,"начала":5382,"▁\"Рос":5383,"▁сил":5384,"чению":5385,"▁поводу":5386,"▁напад":5387,"ком,":5388,"езжа":5389,"щер":5390,"▁некоторых":5391,"▁not":5392,"овом":5393,"строен":5394,"▁экономики":5395,"▁недели":5396,"▁зарегистри":5397,"▁Пока":5398,"сят":5399,"форм":5400,"▁плате":5401,"▁органов":5402,"▁направи":5403,"лоб":5404,"пру":5405,"▁06":5406,"▁закона":5407,"седни":5408,"▁образования":5409,"вшись":5410,"следова":5411,"▁меж":5412,"ющую":5413,"▁заседании":5414,"ight":5415,"▁Госдумы":5416,"▁водо":5417,"▁учеб":5418,"▁позволя":5419,"▁миниму":5420,"▁владель":5421,"ью-":5422,"▁говорить":5423,"буд":5424,"▁фору":5425,"▁свидетель":5426,"▁директора":5427,"▁\"Мы":5428,"ника,":5429,"▁выгля":5430,"▁дове":5431,"▁поддержку":5432,"▁«Н":5433,"▁Гор":5434,"▁максима":5435,"ющем":5436,"▁Источ":5437,"▁\"по":5438,"▁посвящен":5439,"▁алкого":5440,"комо":5441,"пить":5442,"▁отчет":5443,"▁создать":5444,"вала":5445,"▁потреб":5446,"чку":5447,"▁Чтобы":5448,"▁облада":5449,"кой,":5450,"▁км":5451,"▁обстоя":5452,"▁шесть":5453,"▁игру":5454,"▁приняли":5455,"▁т.":5456,"▁моби":5457,"▁запа":5458,"▁тек":5459,"▁Дон":5460,"▁акций":5461,"▁ЦБ":5462,"▁цер":5463,"мую":5464,"▁«А":5465,"▁домаш":5466,"▁источник":5467,"риф":5468,"▁ву":5469,"▁Новый":5470,"▁уничто":5471,"▁обраща":5472,"лье":5473,"▁тому":5474,"▁страны,":5475,"▁увели":5476,"▁ночь":5477,"▁Этот":5478,"▁пого":5479,"▁стандар":5480,"▁Аф":5481,"▁властей":5482,"▁порта":5483,"рит":5484,"ста,":5485,"▁юриди":5486,"▁хочет":5487,"▁дво":5488,"▁Коми":5489,"ос":5490,"▁выборов":5491,"▁\"Из":5492,"ъек":5493,"груз":5494,"дят":5495,"▁торг":5496,"роне":5497,"▁пришлось":5498,"▁Олимпиа":5499,"вание":5500,"▁сообщила":5501,"ссер":5502,"спекти":5503,"-таки":5504,"▁сравнению":5505,"ям":5506,"▁членов":5507,"▁принял":5508,"ство.":5509,"-М":5510,"тивный":5511,"кнов":5512,"ланд":5513,"ate":5514,"▁целью":5515,"▁сказать,":5516,"▁невозможно":5517,"2,":5518,"▁Москва":5519,"▁заболева":5520,"▁разгово":5521,"▁США.":5522,"эн":5523,"▁равно":5524,"солют":5525,"▁десяти":5526,"▁самой":5527,"▁свер":5528,"▁Европей":5529,"▁све":5530,"ine":5531,"ian":5532,"гна":5533,"▁так,":5534,"▁номер":5535,"▁Крем":5536,"тики":5537,"▁инциден":5538,"▁нефти":5539,"▁Виктор":5540,"-х":5541,"▁Мино":5542,"лах":5543,"▁мере":5544,"▁Донец":5545,"▁Стра":5546,"▁сезона":5547,"▁оказался":5548,"▁самый":5549,"▁«П":5550,"25":5551,"▁рядом":5552,"ran":5553,"▁уво":5554,"▁национальной":5555,"▁бой":5556,"вались":5557,"▁Аб":5558,"▁«В":5559,"▁\"Газпро":5560,"чением":5561,"▁сезоне":5562,"ast":5563,"ющихся":5564,"▁музе":5565,"▁запрещен":5566,"11":5567,"▁Эти":5568,"▁Re":5569,"▁Там":5570,"▁300":5571,"ол":5572,"▁преды":5573,"▁Юрий":5574,"на\"":5575,"▁вет":5576,"out":5577,"▁сю":5578,"▁столице":5579,"▁запад":5580,"▁одоб":5581,"▁номе":5582,"▁прось":5583,"тви":5584,"▁военных":5585,"▁сканда":5586,"▁Бан":5587,"ческом":5588,"▁учены":5589,"▁Представи":5590,"▁ближайшее":5591,"▁вокруг":5592,"▁арестова":5593,"▁войны":5594,"▁скорее":5595,"▁бал":5596,"▁wh":5597,"плуа":5598,"▁планируется":5599,"▁Прав":5600,"чью":5601,"▁\"Динамо":5602,"▁пояснил":5603,"▁мед":5604,"▁реша":5605,"▁Белору":5606,"вили":5607,"▁вооружен":5608,"▁Кур":5609,"тельств":5610,"▁меда":5611,"шинг":5612,"▁бывший":5613,"ления.":5614,"▁Фи":5615,"▁регистра":5616,"▁культур":5617,"▁силы":5618,"чена":5619,"▁выво":5620,"▁назвал":5621,"▁пита":5622,"рии,":5623,"▁Мурман":5624,"up":5625,"роде":5626,"▁рынок":5627,"▁предъ":5628,"▁Олег":5629,"кло":5630,"▁Ши":5631,"▁предыду":5632,"▁напря":5633,"нитар":5634,"▁коммента":5635,"▁Итали":5636,"▁опыт":5637,"▁Лондо":5638,"▁ст.":5639,"▁Кор":5640,"цам":5641,"▁Киев":5642,"печат":5643,"day":5644,"▁случай":5645,"рского":5646,"▁пожар":5647,"▁аналоги":5648,"▁различных":5649,"▁захва":5650,"мость":5651,"▁гре":5652,"24":5653,"пел":5654,"▁Хот":5655,"дру":5656,"секре":5657,"▁дерев":5658,"гули":5659,"способ":5660,"льчи":5661,"▁пути":5662,"▁покуп":5663,"▁точки":5664,"ктора":5665,"▁председателя":5666,"ственное":5667,"▁начал":5668,"▁\"Х":5669,"▁налог":5670,"21":5671,"кор":5672,"▁заинтересова":5673,"▁приве":5674,"▁можете":5675,"▁семей":5676,"▁телефон":5677,"▁довольно":5678,"▁позволяет":5679,"тина":5680,"▁Чу":5681,"ЭС":5682,"▁собе":5683,"▁психо":5684,"▁переговоры":5685,"▁любой":5686,"▁группи":5687,"for":5688,"▁подчеркнул":5689,"▁включая":5690,"▁потер":5691,"туаль":5692,"▁Франции":5693,"▁работают":5694,"▁Гри":5695,"▁одну":5696,"▁жители":5697,"▁иска":5698,"▁Доб":5699,"▁смерти":5700,"▁Всего":5701,"▁печати":5702,"▁большинство":5703,"бри":5704,"▁Соб":5705,"▁рассмотр":5706,"▁концер":5707,"тан":5708,"говой":5709,"▁ликви":5710,"охран":5711,"▁Констан":5712,"▁най":5713,"▁хотят":5714,"▁комиссии":5715,"▁нашего":5716,"нику":5717,"▁усили":5718,"▁ситуацию":5719,"▁Более":5720,"▁Германии":5721,"▁встрече":5722,"▁обнов":5723,"▁минут":5724,"▁предусмотрен":5725,"▁губернатора":5726,"▁парламент":5727,"щать":5728,"▁бывшего":5729,"глий":5730,"▁превра":5731,"▁пооб":5732,"кобы":5733,"движи":5734,"▁Поль":5735,"мед":5736,"▁определи":5737,"хе":5738,"ith":5739,"▁зву":5740,"пан":5741,"▁здра":5742,"▁фонда":5743,"▁события":5744,"эй":5745,"▁Нов":5746,"гро":5747,"▁Евросо":5748,"▁общей":5749,"дение":5750,"▁россиян":5751,"▁активно":5752,"сторон":5753,"▁тол":5754,"▁«К":5755,"▁НАТО":5756,"▁время,":5757,"ставили":5758,"ОВ":5759,"новремен":5760,"▁интернет-":5761,"▁распростран":5762,"▁объясня":5763,"едь":5764,"▁фонд":5765,"кой.":5766,"▁протя":5767,"▁оде":5768,"▁дево":5769,"▁(4":5770,"▁вынужден":5771,"тся,":5772,"▁которому":5773,"имуще":5774,"▁Мне":5775,"▁позволит":5776,"▁am":5777,"▁соглашения":5778,"▁коммер":5779,"ром,":5780,"лок":5781,"АЗ":5782,"▁r":5783,"ско-":5784,"▁играть":5785,"▁Дени":5786,"▁отли":5787,"ствовали":5788,"▁демокра":5789,"▁Поро":5790,"▁позволи":5791,"ван":5792,"лига":5793,"▁недвижи":5794,"▁болез":5795,"ющими":5796,"-министр":5797,"страи":5798,"▁Аль":5799,"▁глаза":5800,":30":5801,"слам":5802,"▁серви":5803,"▁(на":5804,"рост":5805,"▁систему":5806,"▁привлека":5807,"og":5808,"▁цвет":5809,"▁дороги":5810,"лиги":5811,"▁Без":5812,"▁выборы":5813,"жением":5814,"▁циф":5815,"▁РФ.":5816,"▁транспорта":5817,"дор":5818,".html":5819,"▁результаты":5820,"▁обнаружен":5821,"▁коро":5822,"▁Один":5823,"а,":5824,"▁Анато":5825,"▁своими":5826,"лн":5827,"▁отдела":5828,"ember":5829,"▁ядер":5830,"▁недоста":5831,"▁немного":5832,"▁слов":5833,"довлет":5834,"▁главного":5835,"▁информация":5836,"▁автома":5837,"��":5838,"▁программа":5839,"декс":5840,"15":5841,"ляется":5842,"▁государственной":5843,"▁ущер":5844,"▁втором":5845,"енса":5846,"АН":5847,"▁достав":5848,"▁деятельность":5849,"▁государство":5850,"гом":5851,"лад":5852,"▁эксплуа":5853,"▁газет":5854,"▁поезд":5855,"▁первые":5856,"мин":5857,"рубе":5858,"лыша":5859,"▁Путина":5860,"▁крае":5861,"▁внутри":5862,"▁ключе":5863,"▁италья":5864,"▁обслужива":5865,"▁e":5866,"▁сожа":5867,"▁Новые":5868,"▁контракт":5869,"так":5870,"гой":5871,"▁Именно":5872,"▁звез":5873,"тая":5874,"▁олимпий":5875,"гни":5876,"ровано":5877,"▁неделю":5878,"ский,":5879,"▁факту":5880,"▁замети":5881,"▁совершенно":5882,"▁умер":5883,"▁думаю,":5884,".,":5885,"▁33":5886,"▁республики":5887,"▁удовлет":5888,"▁вопросам":5889,"чили":5890,"▁иметь":5891,"▁45":5892,"сант":5893,"▁винов":5894,"▁школы":5895,"-о":5896,"23":5897,"▁борьбе":5898,"▁метро":5899,"▁размер":5900,"ни.":5901,"▁состоянии":5902,"==":5903,"▁\"За":5904,"▁комитет":5905,"▁дальше":5906,"▁кроме":5907,"▁сом":5908,"▁собеседни":5909,"▁(0":5910,"▁самое":5911,"лец":5912,"▁встрети":5913,"ленного":5914,"▁столицы":5915,"▁простран":5916,"деть":5917,"ment":5918,"16":5919,"▁дис":5920,"▁составил":5921,"▁Тре":5922,"▁Васи":5923,"чает":5924,"ком.":5925,"ходить":5926,"▁постоянно":5927,"▁лидера":5928,"тельную":5929,"▁поло":5930,"▁сколько":5931,"Р-":5932,"ug":5933,"17":5934,"сных":5935,"ld":5936,"рили":5937,"▁очередь,":5938,"▁подраз":5939,"▁распоря":5940,"▁кад":5941,"▁чуть":5942,"▁Украина":5943,"▁198":5944,"стической":5945,"▁this":5946,"▁нет,":5947,"▁такая":5948,"няет":5949,"▁абсолют":5950,"▁защиты":5951,"еремо":5952,"▁напада":5953,"тран":5954,"▁действий":5955,"втра":5956,"▁Иркут":5957,"▁оказались":5958,"▁человека,":5959,"▁перспекти":5960,"▁посмо":5961,"▁понедельник":5962,"нят":5963,"▁участия":5964,"▁Егип":5965,"мым":5966,"▁якобы":5967,"ИК":5968,"нении":5969,"▁Нес":5970,"▁групп":5971,"▁правила":5972,"▁\"Ба":5973,"пери":5974,"▁мужчина":5975,"=\"":5976,"▁(Р":5977,"▁заве":5978,"▁сильно":5979,"рыв":5980,"▁происходит":5981,"▁процентов":5982,"▁социальной":5983,"ения.":5984,"▁Регион":5985,"шой":5986,"▁чемпионате":5987,"45":5988,"▁Источник":5989,"лось.":5990,"▁Й":5991,"▁Ско":5992,"хар":5993,"ение,":5994,"▁подроб":5995,"▁паци":5996,"▁мой":5997,"ust":5998,"зин":5999,"▁контроли":6000,"▁отношений":6001,"спорт":6002,"▁самолета":6003,"▁денег":6004,"тся.":6005,"▁посо":6006,"рай":6007,"▁холо":6008,"▁потребова":6009,"теле":6010,"▁испыта":6011,"▁арми":6012,"▁ощу":6013,"one":6014,"▁присо":6015,"▁акаде":6016,"▁000":6017,"▁напомина":6018,"▁упо":6019,"-летнего":6020,"▁уголовного":6021,"жнему":6022,"пле":6023,"▁ресто":6024,"▁радио":6025,"еру":6026,"\")":6027,"ack":6028,"▁недавно":6029,"ленной":6030,"вы,":6031,"▁заслу":6032,"▁Здесь":6033,"▁крупных":6034,"▁местных":6035,"▁основном":6036,"▁напомни":6037,"▁середи":6038,"▁госпита":6039,"▁предоставля":6040,"▁принадлежа":6041,"▁Москву":6042,"нина":6043,"▁смогли":6044,"▁очевид":6045,"нера":6046,"▁сделал":6047,"▁билет":6048,"льской":6049,"▁лицен":6050,"▁утра":6051,"▁Газ":6052,"▁Вто":6053,"▁здраво":6054,"▁\"за":6055,"▁мно":6056,"доволь":6057,"▁пак":6058,"ant":6059,"ity":6060,"ментирова":6061,"▁показыва":6062,"▁здания":6063,"ге,":6064,"▁млрд.":6065,"менты":6066,"▁\"о":6067,"▁преимуще":6068,"▁\"с":6069,"ТАСС":6070,"▁роли":6071,"▁Полу":6072,"гами":6073,"rom":6074,"▁территори":6075,"▁выдви":6076,"▁плохо":6077,"мотря":6078,"▁руководство":6079,"ление,":6080,"▁Поз":6081,"RL":6082,"ний.":6083,"ют.":6084,"▁международных":6085,"▁предложил":6086,"▁попыт":6087,"▁планирует":6088,"▁Вме":6089,"гани":6090,"▁взрыв":6091,"▁накануне":6092,"ные,":6093,"зом":6094,"еве":6095,"▁непро":6096,"▁проходит":6097,"тиру":6098,"ными.":6099,"▁знамени":6100,"▁Эта":6101,"▁Mar":6102,"!!":6103,"▁Крым":6104,"▁разде":6105,"президен":6106,"org":6107,"▁прокуро":6108,"▁малень":6109,"▁избе":6110,"▁спаса":6111,"▁согласова":6112,"▁рассказывает":6113,"▁сезон":6114,"ell":6115,"▁соблю":6116,"▁экологи":6117,"48":6118,"льского":6119,"▁воро":6120,"▁самые":6121,"▁топли":6122,"▁сче":6123,"ге.":6124,"▁порт":6125,"▁отече":6126,"▁сх":6127,"против":6128,"клон":6129,"ствовал":6130,"▁все,":6131,"▁мастер":6132,"▁худож":6133,"▁Сам":6134,"▁говорят":6135,"цев.":6136,"ритет":6137,"▁мировой":6138,"▁меч":6139,"▁той":6140,"▁ошиб":6141,"стов.":6142,"▁людя":6143,"▁Ch":6144,"▁(по":6145,"▁вместо":6146,"ставил":6147,"▁эпи":6148,"▁образ":6149,"/200":6150,"3,":6151,"▁ребенка":6152,"1)":6153,"▁решили":6154,"▁департамента":6155,"-е":6156,"рги":6157,"▁фильм":6158,"▁продажи":6159,"▁отдыха":6160,"вался":6161,"▁вступи":6162,"▁победу":6163,"▁Пав":6164,"▁Конечно,":6165,"▁32":6166,"▁бога":6167,"▁уро":6168,"регули":6169,"ТАР-":6170,"ound":6171,"▁инстру":6172,"ону":6173,"стях":6174,"▁больше,":6175,"▁водитель":6176,"нули":6177,"▁фоне":6178,"гах":6179,"▁конструк":6180,"5)":6181,"образ":6182,"▁всему":6183,"чается":6184,"▁обеспечения":6185,"дан":6186,"езде":6187,"ТАР-ТАСС":6188,"____":6189,"▁участники":6190,"▁персона":6191,"▁Обще":6192,"--":6193,"▁опти":6194,"▁Фа":6195,"стями":6196,"▁микро":6197,"▁«Р":6198,"▁каждого":6199,"▁рождения":6200,"нау":6201,"▁Пла":6202,"фикси":6203,"▁операции":6204,".com/":6205,"лина":6206,"▁мор":6207,"тической":6208,"▁продолжает":6209,"лению,":6210,"ремя":6211,"▁возможно,":6212,"▁разру":6213,"▁воздуш":6214,"▁составила":6215,"▁ИТАР-ТАСС":6216,"кому":6217,"▁Хотя":6218,"▁точно":6219,"▁гер":6220,"▁удоб":6221,"▁подня":6222,"▁сложи":6223,"ники,":6224,"▁здравоохран":6225,"ченные":6226,"▁момента":6227,"▁подряд":6228,".RU":6229,"▁стаби":6230,"▁оби":6231,"▁похи":6232,"▁совеща":6233,"▁соверши":6234,"▁поддержки":6235,"▁it":6236,"ваку":6237,"зацию":6238,"л:":6239,"▁зарубе":6240,"azaz":6241,"мули":6242,"▁линии":6243,"с\".":6244,"▁ауди":6245,"ром.":6246,"13":6247,"▁Московской":6248,"сного":6249,"рат":6250,"▁каких":6251,"▁нефте":6252,"▁стара":6253,"щению":6254,"зербай":6255,"▁получила":6256,"ровер":6257,"овер":6258,"II":6259,"▁раст":6260,"▁мнение":6261,"▁взаимодей":6262,"▁родствен":6263,"▁продукции":6264,"▁яр":6265,"циони":6266,"▁распростра":6267,"▁становится":6268,"юсь":6269,"▁характер":6270,"▁последнее":6271,"▁профи":6272,"▁ФС":6273,"▁имя":6274,"▁сне":6275,"паса":6276,"▁союз":6277,"▁сообщалось,":6278,"▁помочь":6279,"▁руководителя":6280,"тации":6281,"▁создания":6282,"▁вечером":6283,"▁реак":6284,"дать":6285,"тым":6286,"▁движение":6287,"ала":6288,"▁ежегод":6289,"▁терак":6290,"стры":6291,"▁предусматри":6292,"▁вете":6293,"ud":6294,"▁предложения":6295,"▁неделе":6296,"▁исключи":6297,"реза":6298,"▁36":6299,"▁Ведь":6300,"▁поступа":6301,"▁верто":6302,"▁проком":6303,"сибир":6304,"▁соглашение":6305,"▁прием":6306,"прежнему":6307,"▁Уже":6308,"ссы":6309,"▁правоохранительных":6310,"вшихся":6311,"▁рекорд":6312,"рии.":6313,"▁сконча":6314,"2)":6315,"сульта":6316,"▁управление":6317,"▁оператив":6318,"▁Спе":6319,"▁исполнитель":6320,"▁навер":6321,"▁рав":6322,"▁статьи":6323,"▁мнению,":6324,"▁An":6325,"тельству":6326,"ственно,":6327,"▁Их":6328,"se":6329,"▁обвинения":6330,"сред":6331,"дам":6332,"зву":6333,"тка":6334,"роз":6335,"▁комна":6336,"ный,":6337,"игры":6338,"▁область":6339,"▁гол":6340,"▁резер":6341,"18":6342,"port":6343,"▁Пол":6344,"▁прошло":6345,"ту.":6346,"банка":6347,"▁услуг":6348,"▁систем":6349,"php":6350,"нская":6351,"▁самостоя":6352,"▁зафикси":6353,"▁программ":6354,"90":6355,"▁супру":6356,"нодоро":6357,"▁вторник":6358,"2.":6359,"нная":6360,"▁все-таки":6361,"▁мальчи":6362,"рение":6363,"▁ними":6364,"▁основе":6365,"ров:":6366,"Йор":6367,"▁авиаком":6368,"ца,":6369,"▁привы":6370,"ie":6371,"▁Основ":6372,"▁считают":6373,"раздо":6374,"жела":6375,"о,":6376,"▁РФ,":6377,"▁услуги":6378,"▁приходится":6379,"мей":6380,"▁Смо":6381,"дной":6382,"▁Главный":6383,"▁подчеркнул,":6384,"зирован":6385,"▁Украины.":6386,"зай":6387,"ровой":6388,"▁первых":6389,"▁Первый":6390,"тельность":6391,"▁учиты":6392,"▁ассоциа":6393,"ью-Йор":6394,"▁сцена":6395,"зий":6396,"▁возглавля":6397,"звать":6398,"▁2018":6399,"▁экономического":6400,"кур":6401,"стаи":6402,"▁сообщения":6403,"лега":6404,"▁Рос":6405,"дро":6406,"▁объедин":6407,"▁Вашинг":6408,"▁Рабо":6409,"14":6410,"▁долларов.":6411,"▁симво":6412,"▁2009,":6413,"▁яв":6414,"туре":6415,"a-":6416,"▁существу":6417,"▁фильма":6418,"▁заказ":6419,"▁заплани":6420,"ъем":6421,"купа":6422,"АР":6423,"▁Кубка":6424,"нослу":6425,"▁Нава":6426,"▁Кали":6427,"▁причина":6428,"▁воспо":6429,"▁силь":6430,"▁развитию":6431,"▁вести":6432,"пустить":6433,"менить":6434,"▁компании,":6435,"▁Да,":6436,"село":6437,"▁неодно":6438,"ll":6439,"▁возбуждено":6440,"▁пересе":6441,"▁забы":6442,"тисти":6443,"▁]":6444,"▁\"Ъ\",":6445,"▁Россией":6446,"дах":6447,"oin":6448,"▁закончи":6449,"▁инициати":6450,"▁Экспер":6451,"овое":6452,"▁написал":6453,"▁Пари":6454,"▁Известия":6455,"▁жили":6456,"▁Чем":6457,"вшийся":6458,"тели,":6459,"▁Моби":6460,"▁необходимости":6461,"▁регули":6462,"▁тура":6463,"a.":6464,"▁выпуска":6465,"ont":6466,"▁Несмотря":6467,"▁секу":6468,"▁предлагает":6469,"цами":6470,"нбур":6471,"▁бир":6472,"vi":6473,"ДД":6474,"▁создание":6475,"▁Миноборо":6476,"▁последний":6477,"▁края":6478,"▁Шу":6479,"▁по-прежнему":6480,"▁умень":6481,"стане":6482,"дри":6483,"тная":6484,"▁субъек":6485,"альной":6486,"▁нашли":6487,"▁поправ":6488,"▁шести":6489,"ального":6490,"▁государств":6491,"▁Донба":6492,"▁экра":6493,"▁мошен":6494,"▁музыка":6495,"▁сохран":6496,"два":6497,"зирова":6498,"▁тому,":6499,"▁кв.":6500,"▁Только":6501,"тит":6502,"▁легко":6503,"нс":6504,"ном,":6505,"▁Интернет":6506,"-5":6507,"конструк":6508,"▁борьбы":6509,"▁лично":6510,"▁прожива":6511,"▁рубе":6512,"▁револю":6513,"▁добавил":6514,"▁парти":6515,"л-":6516,"циях":6517,"стоит":6518,"ain":6519,"▁церемо":6520,"▁Новости.":6521,"▁эваку":6522,"зм":6523,"ногие":6524,"▁указыва":6525,"стных":6526,"тического":6527,"▁старт":6528,"77":6529,"▁замеча":6530,"обнов":6531,"▁Зна":6532,"▁дать":6533,"вит":6534,"о.":6535,"▁(А":6536,"тим":6537,"▁затра":6538,"дивиду":6539,"▁впере":6540,"▁Гра":6541,"▁провели":6542,"▁господина":6543,"▁считают,":6544,"▁деше":6545,"жная":6546,"19":6547,"удов":6548,"▁высказа":6549,"-4":6550,"пят":6551,"жает":6552,"▁решил":6553,"▁прогре":6554,"▁пообеща":6555,"стве.":6556,"ными,":6557,"сах":6558,"▁фрон":6559,"▁устрои":6560,"ева,":6561,"▁Даль":6562,"▁второго":6563,"▁подтверди":6564,"▁предложение":6565,"▁попыта":6566,"▁первым":6567,"▁сна":6568,"ются,":6569,"▁завод":6570,"▁\"Ш":6571,"▁учетом":6572,"▁Вя":6573,"▁литера":6574,"▁повре":6575,"емь":6576,"▁Олимпий":6577,"▁прото":6578,"▁уника":6579,"▁любы":6580,"▁Российская":6581,"теля,":6582,"▁сентябре":6583,"▁Татья":6584,"▁Пра":6585,"ам":6586,"▁запро":6587,"▁снима":6588,"▁that":6589,"ссу":6590,"▁\"на":6591,"▁by":6592,"▁Наде":6593,"▁Зем":6594,"▁сопрово":6595,"▁with":6596,"▁34":6597,"▁декабре":6598,"БК":6599,"▁механиз":6600,"▁относительно":6601,"▁можем":6602,"▁аэропорта":6603,"фициаль":6604,"ходе":6605,"▁тюрь":6606,"▁стоя":6607,"▁Правда,":6608,"▁команду":6609,"▁\"Ре":6610,"▁станции":6611,"вшегося":6612,"▁партия":6613,"▁известно":6614,"▁среду":6615,"▁Крыма":6616,"▁степени":6617,"▁президентом":6618,"вин":6619,"▁перевоз":6620,"▁воспита":6621,"▁задача":6622,"кипа":6623,"▁гораздо":6624,".php":6625,"▁свободы":6626,"▁федерального":6627,"▁бю":6628,"▁депутатов":6629,"▁городской":6630,"▁устанавли":6631,"▁англий":6632,"▁крити":6633,"▁сообще":6634,"▁составит":6635,"▁раскры":6636,"▁специалисты":6637,"▁нега":6638,"▁at":6639,"рица":6640,"мерсант":6641,"▁производство":6642,"ФА":6643,"▁университета":6644,"gle":6645,"▁соц":6646,"ear":6647,"▁круг":6648,"можен":6649,"▁комплекса":6650,"▁множе":6651,"жению":6652,"▁Елена":6653,"▁Почему":6654,"▁боро":6655,"ями":6656,"▁это,":6657,"эта":6658,"ьера":6659,"▁сказал,":6660,"лась.":6661,"▁России\"":6662,"▁жда":6663,"▁дал":6664,"альных":6665,"▁мили":6666,"▁миров":6667,"▁выбор":6668,"нией":6669,"▁ведомства":6670,"▁автор":6671,"▁изъ":6672,"▁люди,":6673,"тельном":6674,"▁сбо":6675,"▁доход":6676,"▁делега":6677,"выше":6678,"▁энерго":6679,"▁обеспечить":6680,"▁кто-то":6681,"▁Мобильный":6682,"▁повер":6683,"▁турнира":6684,"▁случае,":6685,"▁\"Ю":6686,"▁День":6687,"▁опы":6688,"▁двое":6689,"▁вось":6690,"rou":6691,"▁воды":6692,"▁Фон":6693,"▁преми":6694,"▁Ги":6695,"тических":6696,"ложение":6697,"▁пото":6698,"▁позиции":6699,"зит":6700,"ника.":6701,"▁космо":6702,"▁объектов":6703,"▁держа":6704,"▁\"Еди":6705,"одо":6706,"▁главе":6707,"▁эфи":6708,"▁Подроб":6709,"▁2006":6710,"▁подвер":6711,"рас":6712,"▁происшествия":6713,"▁Запад":6714,"ebook":6715,"▁регионального":6716,"▁ува":6717,"▁изобра":6718,"▁бизнеса":6719,"ведение":6720,"▁проверки":6721,"▁Украины,":6722,"дне":6723,"▁жало":6724,"▁чрез":6725,"дим":6726,"реа":6727,"▁последних":6728,"▁курс":6729,"ского,":6730,"▁точ":6731,"▁дни":6732,"▁Свет":6733,"▁счетом":6734,"сток":6735,"▁зай":6736,"▁плат":6737,"▁хокке":6738,"будь":6739,"▁тариф":6740,"▁Ъ-":6741,"▁учреждения":6742,"▁спекта":6743,"▁Вороне":6744,"▁Коре":6745,"▁Кер":6746,"▁Леони":6747,"▁агре":6748,"▁\"Мо":6749,"днев":6750,"▁Турции":6751,"которы":6752,"▁«Д":6753,"▁прошед":6754,"скор":6755,"▁//":6756,"строва":6757,"сы,":6758,"▁разно":6759,"▁Киеве":6760,"юсь,":6761,"▁бри":6762,"acebook":6763,"сказыва":6764,"▁январе":6765,"▁Кана":6766,"▁вру":6767,"▁возобнов":6768,"▁публика":6769,"▁ответственность":6770,"▁новую":6771,"▁Цент":6772,"▁индивиду":6773,"▁школь":6774,"▁спокой":6775,"▁столкнов":6776,"▁Китай":6777,"▁косми":6778,"▁оформ":6779,"▁Армении":6780,"▁стороны,":6781,"▁органы":6782,"▁розы":6783,"лами":6784,"ционе":6785,"С.":6786,"-ни":6787,"▁начальник":6788,"▁\"Известия":6789,"▁доме":6790,"▁гендирек":6791,"▁ими":6792,"▁прошел":6793,"▁he":6794,"▁впечат":6795,"▁ул.":6796,"▁ответственности":6797,"ниях":6798,"▁попада":6799,"▁полез":6800,"нослужа":6801,"▁государственного":6802,"▁военнослужа":6803,"▁поро":6804,"▁реализова":6805,"▁\"Ло":6806,"▁Болга":6807,"ки\"":6808,"4)":6809,"▁первое":6810,"лдин":6811,"▁регион":6812,"75":6813,",0":6814,"лась,":6815,"▁напи":6816,"жан":6817,"▁регионов":6818,"▁зво":6819,"лайн":6820,"▁прокомментирова":6821,"ционер":6822,"▁договори":6823,"▁\"Со":6824,"▁крайне":6825,"▁заработа":6826,"ича":6827,"▁странах":6828,"▁программу":6829,"мира":6830,"▁\"Динамо\"":6831,"▁класси":6832,"AS":6833,"▁сторону":6834,"▁Лав":6835,"▁члена":6836,"секретарь":6837,"▁Тю":6838,"▁Дан":6839,"мос":6840,"▁150":6841,"▁квали":6842,"▁Павел":6843,"▁контроль":6844,"▁финансов":6845,"ame":6846,"ники.":6847,"ровала":6848,"▁рефор":6849,"▁\"Ма":6850,"▁значит,":6851,"!\"":6852,"▁живу":6853,"▁конфлик":6854,"ческими":6855,"▁кана":6856,"гент":6857,"▁заявления":6858,"▁Ольга":6859,"▁общего":6860,"новременно":6861,"▁дает":6862,"▁ближайшие":6863,"▁контрак":6864,"▁участием":6865,"▁год,":6866,"▁весьма":6867,"ob":6868,"▁принимать":6869,"3)":6870,"▁посла":6871,"меня":6872,"нным":6873,"▁губернатор":6874,"▁владе":6875,"▁фактически":6876,"▁слово":6877,"ст,":6878,"ец":6879,"ский.":6880,"▁тонн":6881,"▁краси":6882,"▁горя":6883,"▁вышел":6884,"▁Слу":6885,"▁власть":6886,"▁должность":6887,"чев":6888,"▁санкции":6889,"▁выразил":6890,"▁укреп":6891,"ore":6892,"▁религи":6893,"чик":6894,"голо":6895,"тое":6896,"▁выру":6897,"ложения":6898,"▁друга":6899,"6)":6900,"▁Nov":6901,"▁автомобиля":6902,"▁Ор":6903,"▁1,5":6904,"▁четверг":6905,"▁протяжении":6906,"▁наша":6907,"▁\"у":6908,"▁гостей":6909,"▁турец":6910,"таря":6911,"▁мяч":6912,"▁ид":6913,"▁программе":6914,"▁слуша":6915,"▁агентства":6916,"▁СКР":6917,"▁минимум":6918,"▁те,":6919,"▁япо":6920,"a,":6921,"▁инфля":6922,"ТИ":6923,"▁Отмети":6924,"▁числа":6925,"▁кораб":6926,"ргани":6927,"▁лекар":6928,"▁просмот":6929,"▁комисси":6930,"▁Ху":6931,"▁переговоров":6932,"▁38":6933,"▁коле":6934,"▁воскресенье":6935,"▁будущем":6936,"▁качество":6937,"ками,":6938,"▁сожалению,":6939,"ИБ":6940,"▁МК":6941,"▁Челя":6942,"▁житель":6943,"▁Брази":6944,"-си":6945,"▁(Ф":6946,"▁Конститу":6947,"▁прошли":6948,"▁Эр":6949,"▁экстре":6950,"▁задол":6951,"▁приостанов":6952,"▁другими":6953,"▁знако":6954,"▁начать":6955,"▁сказала":6956,"▁отрасли":6957,"▁военной":6958,"▁k":6959,"▁серии":6960,"тков":6961,"▁появля":6962,"мо,":6963,"▁бед":6964,"▁хвата":6965,"▁поря":6966,"▁статье":6967,"▁получения":6968,"▁мира.":6969,"▁\"Не":6970,"▁значительно":6971,"▁сма":6972,"ждений":6973,"▁Медведев":6974,"▁главным":6975,"ющиеся":6976,"▁хими":6977,"▁двумя":6978,"▁намерен":6979,"цем":6980,"▁граду":6981,"▁Максим":6982,"4,":6983,"жить":6984,"▁пресс-кон":6985,"▁внутренних":6986,"▁фрак":6987,"own":6988,"▁Ак":6989,"▁состояние":6990,"▁Джон":6991,"▁2008,":6992,"ry":6993,"▁Facebook":6994,"▁Im":6995,"▁Вяче":6996,"▁выйти":6997,"▁едино":6998,"▁введен":6999,"▁существует":7000,"▁Помимо":7001,"ете,":7002,"▁настро":7003,"▁белору":7004,"▁комфор":7005,"▁Генера":7006,"едини":7007,"▁компенса":7008,"▁«О":7009,"▁Хар":7010,"яр":7011,"▁среднем":7012,"спи":7013,"▁автомобиль":7014,"▁проведение":7015,"▁официально":7016,"▁пришли":7017,"гова":7018,"▁чаще":7019,"кри":7020,"льному":7021,"▁эксперты":7022,"▁государственных":7023,"няется":7024,"▁субботу":7025,"▁заявила":7026,"▁железнодоро":7027,"▁Кто":7028,"щиков":7029,"скоре":7030,"▁Иван":7031,"26":7032,"▁уж":7033,"▁погибших":7034,"▁свыше":7035,"стойчи":7036,"▁сотрудничества":7037,"▁Многие":7038,"мби":7039,"▁следующий":7040,"▁исполни":7041,"▁Рез":7042,"▁Лиги":7043,"тифика":7044,"▁Вчера":7045,"▁утром":7046,"▁обстре":7047,"▁депутаты":7048,"▁цело":7049,"нские":7050,"носи":7051,"▁Сбер":7052,"▁масштаб":7053,"сные":7054,"▁(И":7055,"▁организаций":7056,"▁Испании":7057,"дами":7058,"28":7059,"ершен":7060,"-нибудь":7061,"▁Кстати,":7062,"терна":7063,"гу,":7064,"лить":7065,"▁международного":7066,"мана":7067,"uss":7068,"ная,":7069,"▁проводить":7070,"▁предстоит":7071,"мерсантъ":7072,"▁App":7073,"щается":7074,"▁нефть":7075,"дерни":7076,"май":7077,"-про":7078,"-Д":7079,"▁повед":7080,"тельстве":7081,"▁Руково":7082,"▁преступления":7083,"а.":7084,"▁полет":7085,"ордина":7086,"наче":7087,"мор":7088,"зировать":7089,"▁электри":7090,"▁выпуск":7091,"▁37":7092,"▁десять":7093,"▁Даже":7094,"▁Порошенко":7095,"▁Свя":7096,"▁проектов":7097,"▁Но,":7098,"▁экономической":7099,"▁женщина":7100,"▁причиной":7101,"▁сама":7102,"▁большая":7103,"стям":7104,"▁лишения":7105,"▁отказыва":7106,"▁\"Ве":7107,"▁базе":7108,"▁«Б":7109,"▁представителя":7110,"кова,":7111,"слен":7112,"пода":7113,"▁замет":7114,"▁препара":7115,"▁непосред":7116,"▁Ники":7117,"▁Фото:":7118,"▁эксперти":7119,"▁предмет":7120,"▁Сотрудни":7121,"ждает":7122,"▁Мол":7123,"тец":7124,"es,":7125,"▁приро":7126,"▁пило":7127,"▁ран":7128,"▁Компания":7129,"▁процесса":7130,"▁ред":7131,"ang":7132,"▁найден":7133,"▁злоу":7134,"▁ВВП":7135,"ive":7136,"ном.":7137,"▁коммен":7138,"С,":7139,"битра":7140,"▁зависимости":7141,"▁вынес":7142,"▁Дмитрия":7143,"▁марте":7144,"банк":7145,"шими":7146,"▁днем":7147,"ги.":7148,"▁роз":7149,"ск,":7150,"io":7151,"▁использования":7152,"▁статисти":7153,"тным":7154,"▁Волго":7155,"▁компании.":7156,"▁неожида":7157,"ются.":7158,"▁осужден":7159,"жным":7160,"ственном":7161,"▁урегули":7162,"▁завтра":7163,"▁Goo":7164,"7)":7165,"▁диплома":7166,"▁мигран":7167,"▁проигра":7168,"▁акт":7169,"▁результат":7170,"▁спектак":7171,"▁отрица":7172,"▁кажется,":7173,"▁набра":7174,"▁политической":7175,"▁хотел":7176,"нском":7177,"▁предстоя":7178,"▁консульта":7179,"▁Отметим,":7180,"▁смог":7181,"▁вес":7182,"▁экипа":7183,"▁Кара":7184,"▁следствия,":7185,"▁солда":7186,"▁задержали":7187,"ных,":7188,"▁Q":7189,"▁семья":7190,"▁города.":7191,"▁Валерий":7192,"▁общественного":7193,"▁хочу":7194,"▁Само":7195,"-В":7196,"▁ого":7197,"▁качества":7198,"ee":7199,"▁бежен":7200,"▁возника":7201,"ана":7202,"▁причем":7203,"▁договорен":7204,"▁полно":7205,"▁неоднокра":7206,"▁госпитали":7207,"▁группе":7208,"▁Источник:":7209,"▁Дума":7210,"▁появ":7211,"▁референ":7212,"ГУ":7213,"▁удар":7214,"▁прибли":7215,"рели":7216,"net":7217,"▁победы":7218,"▁машины":7219,"▁Алексея":7220,"тием":7221,"бина":7222,"▁Екатеринбур":7223,"вычай":7224,"▁директоров":7225,"▁вклад":7226,"35":7227,"ал":7228,"дитель":7229,"1,":7230,"▁Кан":7231,"куда":7232,"▁взять":7233,"▁люб":7234,"ite":7235,"бок":7236,"▁история":7237,"▁Нью-Йор":7238,"▁рестора":7239,"мут":7240,"/a":7241,"щает":7242,"манитар":7243,"▁Возможно":7244,"▁iP":7245,"вто":7246,"▁построи":7247,"▁модель":7248,"▁документы":7249,"▁социальных":7250,"ank":7251,"ственную":7252,"▁полиция":7253,"▁жизни.":7254,"▁подс":7255,"▁покры":7256,"▁восемь":7257,"гать":7258,"▁разо":7259,"▁годов":7260,"▁тепло":7261,"ма\"":7262,"▁политических":7263,"▁добавил,":7264,"▁команде":7265,"ляют":7266,"▁было.":7267,"йп":7268,"▁часа":7269,"▁гео":7270,"▁are":7271,"▁ser":7272,"▁Яро":7273,"▁Витали":7274,"ру,":7275,"орги":7276,"ками.":7277,"ary":7278,"нию,":7279,"▁Нор":7280,"сный":7281,"▁другим":7282,"щений":7283,"▁from":7284,"▁моря":7285,".php?":7286,"▁гибе":7287,"▁причаст":7288,"ти\"":7289,"▁остав":7290,"....":7291,"▁ряда":7292,"вил":7293,"нести":7294,"▁друз":7295,"▁существова":7296,"▁ноябре":7297,"шев":7298,"ссор":7299,"вшую":7300,"вить":7301,"▁минима":7302,"▁октябре":7303,"▁зара":7304,"льными":7305,"▁сказать":7306,"▁Лит":7307,"▁кров":7308,"▁исследования":7309,"▁400":7310,"▁местного":7311,"▁члены":7312,"▁новое":7313,"енти":7314,"▁самми":7315,"▁молодых":7316,"▁труда":7317,"ченный":7318,"▁законопроект":7319,"▁середине":7320,"▁столько":7321,"стопо":7322,"чиков":7323,"льский":7324,"▁Авто":7325,"ста.":7326,"▁союза":7327,"▁Органи":7328,"▁выяв":7329,"декса":7330,"▁Власти":7331,"▁льго":7332,"▁человека.":7333,"▁Информа":7334,"лым":7335,"тное":7336,"▁путеше":7337,"чит":7338,"▁удиви":7339,"indow":7340,"▁корот":7341,"▁Азербай":7342,"▁Роман":7343,"▁сена":7344,"▁Депута":7345,"▁украинских":7346,"жений":7347,"стить":7348,"разу":7349,"нси":7350,"▁общества":7351,"▁Новосибир":7352,"▁чт":7353,"цеп":7354,"▁нефтя":7355,"▁сведения":7356,"▁дизай":7357,"9)":7358,"▁конфликта":7359,"часть":7360,"▁американских":7361,"-лети":7362,"▁руководством":7363,"▁катастро":7364,"ска,":7365,"▁окружа":7366,"жном":7367,"дации":7368,"▁работал":7369,"худ":7370,"суди":7371,"▁лучших":7372,"▁местные":7373,"▁Минобороны":7374,"▁партий":7375,"▁пожи":7376,"▁Вален":7377,"▁команд":7378,"▁модерни":7379,"▁очередной":7380,"▁СП":7381,"▁Министр":7382,"▁А.":7383,"▁\"Роснеф":7384,"▁сообщение":7385,"▁направления":7386,"▁законодательства":7387,"▁безу":7388,"▁глоб":7389,"▁военные":7390,"▁брен":7391,"▁подготовки":7392,"▁Спа":7393,"▁€":7394,"▁Каж":7395,"ave":7396,"▁он,":7397,"чно-":7398,"▁рыно":7399,"▁природ":7400,"▁сначала":7401,"8)":7402,"иФ":7403,"▁предела":7404,"▁оправ":7405,"▁Сооб":7406,"▁снижение":7407,"▁an":7408,"▁российским":7409,"сек":7410,"▁Экономи":7411,"▁мае":7412,"▁You":7413,"▁лич":7414,"▁\"Ко":7415,"пин":7416,"▁домов":7417,"▁вайп":7418,"ционное":7419,"▁Мер":7420,"▁ды":7421,"▁жить":7422,"▁новым":7423,"▁pm":7424,"▁адре":7425,"▁плю":7426,"▁появилась":7427,"▁детей,":7428,"her":7429,"▁Побе":7430,"ДР":7431,"▁Иванов":7432,"таль":7433,"чув":7434,"▁логи":7435,"▁нарушение":7436,"▁\"Бо":7437,"▁насто":7438,"▁наме":7439,"сской":7440,"эт":7441,"▁Министерство":7442,"▁служба":7443,"▁реконструк":7444,"▁Иль":7445,"▁системе":7446,"▁требует":7447,"▁изъя":7448,"▁Фили":7449,"▁просмотров:":7450,"КО":7451,"▁Сем":7452,"рованию":7453,"стами":7454,":10":7455,"▁рассказала":7456,"▁подписал":7457,"▁военного":7458,"▁2005":7459,"▁сумма":7460,"которые":7461,"▁семьи":7462,"▁\"Во":7463,"▁продви":7464,"▁столкну":7465,"коном":7466,"▁Google":7467,"▁Управ":7468,"▁метров":7469,"▁трудно":7470,"▁пункта":7471,"▁самоу":7472,"▁Un":7473,"i-":7474,"▁спас":7475,"▁есте":7476,"▁больницу":7477,"top":7478,"гие":7479,"ТБ":7480,"▁55":7481,"▁международной":7482,"▁стоимости":7483,"кза":7484,"-10":7485,"мого":7486,"▁инжен":7487,"тий,":7488,"▁многочис":7489,"▁сегодняшний":7490,"itter":7491,"▁00":7492,"▁Шта":7493,"ново":7494,"ева.":7495,"эль":7496,"▁\"Си":7497,"тере":7498,"▁заниматься":7499,"▁Правительство":7500,"▁абсолютно":7501,"▁подразде":7502,"▁столь":7503,"▁ез":7504,"▁Ры":7505,"▁оружия":7506,"▁остров":7507,"▁пройти":7508,"▁Затем":7509,"п-":7510,"▁кому":7511,"овать":7512,"жской":7513,"▁нему":7514,"27":7515,"ковой":7516,"/2016":7517,"▁режим":7518,"▁Фин":7519,"▁глубо":7520,"▁$1":7521,"▁провин":7522,"▁Институ":7523,"бера":7524,"цией,":7525,"▁Ростов":7526,"▁модели":7527,"▁прожи":7528,"▁другу":7529,"▁рассказали":7530,".Ru":7531,"4.":7532,"▁делает":7533,"жности":7534,"▁банки":7535,"гового":7536,"ках,":7537,"▁занимает":7538,"▁располага":7539,"ч.":7540,"▁вещи":7541,"▁быть,":7542,"▁обычно":7543,"▁жиль":7544,"▁направлении":7545,"-Б":7546,"33":7547,"▁сократи":7548,"нное":7549,"ницей":7550,"центра":7551,"▁75":7552,"тать":7553,"дом.":7554,"▁номина":7555,"▁нанес":7556,"бом":7557,"рье":7558,"совершен":7559,"▁зоне":7560,"▁Беларуси":7561,"▁(5":7562,"▁сту":7563,"ноп":7564,"roup":7565,"▁эмо":7566,"сила":7567,"чи,":7568,"▁собо":7569,"▁апреле":7570,"▁РБК":7571,"▁пострадавших":7572,"тельности":7573,"▁СМИ,":7574,"-200":7575,"▁продаж":7576,"жеб":7577,"▁Американ":7578,"▁призы":7579,"щихся":7580,"▁текущего":7581,"ros":7582,"▁стреми":7583,"▁заседания":7584,"▁\"Ан":7585,"кос":7586,"ссив":7587,"▁воздуха":7588,"▁цели":7589,"▁ребя":7590,"снова":7591,"ристи":7592,"работки":7593,"▁призвал":7594,"▁Премьер":7595,"iz":7596,"▁конкурса":7597,"▁Председа":7598,"лам":7599,"баров":7600,"▁доброво":7601,"▁Андрея":7602,"▁обстоятельства":7603,"мати":7604,"нито":7605,"чек":7606,"▁суме":7607,"влека":7608,"▁основных":7609,"▁потерпе":7610,"▁счета":7611,"лке":7612,"▁Ее":7613,"вами":7614,"▁\"Ар":7615,"▁предположи":7616,"оборо":7617,"▁отделения":7618,"сена":7619,"▁невы":7620,"▁Ниж":7621,"произ":7622,"▁лу":7623,"▁Бывший":7624,"фин":7625,"ст.":7626,"▁траге":7627,"▁произошед":7628,"▁семи":7629,"▁Тимо":7630,"▁вице-п":7631,"▁1.":7632,"▁Tw":7633,"▁ТАСС.":7634,"-на":7635,"▁барре":7636,"▁идут":7637,"ish":7638,"▁ИГ":7639,"стные":7640,"▁Вместе":7641,"▁Pr":7642,"▁санкций":7643,"▁феврале":7644,"▁этом,":7645,"▁разбира":7646,"▁диск":7647,"ial":7648,"▁посоль":7649,"▁\"Ми":7650,"▁Министерства":7651,"▁ваш":7652,"▁хоть":7653,"▁взят":7654,"▁делам":7655,"▁вовсе":7656,"▁(о":7657,"ковых":7658,"▁Яну":7659,"▁KP":7660,"▁разные":7661,"▁(П":7662,"▁доля":7663,"▁контроля":7664,"▁совместно":7665,"::":7666,"▁летом":7667,"▁Подмосков":7668,"п.":7669,"ровании":7670,"▁класс":7671,"ip":7672,"▁произошла":7673,"▁пройдут":7674,"sp":7675,"▁расчет":7676,"▁Великобритании":7677,"хождения":7678,"фона":7679,"▁атмос":7680,"ref":7681,"▁обязательно":7682,"▁патри":7683,"▁здоровья":7684,"тную":7685,"▁Дело":7686,"дино":7687,"▁потра":7688,"ong":7689,"ies":7690,"▁цент":7691,"▁Вене":7692,"кей":7693,"ИБДД":7694,"ехал":7695,"▁\"Ка":7696,"вшем":7697,"▁далеко":7698,"первы":7699,"▁«Т":7700,"▁гуманитар":7701,"▁СН":7702,"▁редак":7703,"▁армии":7704,"▁ведет":7705,"▁выбира":7706,"▁you":7707,"▁въ":7708,"▁л":7709,"▁En":7710,"▁следующем":7711,"▁переста":7712,"▁миллиардов":7713,"сты,":7714,"ционали":7715,"▁основной":7716,"▁инвали":7717,"enc":7718,"▁проголо":7719,"▁48":7720,"▁прошлой":7721,"▁высказыва":7722,"▁вряд":7723,"гно":7724,"▁\"Локомо":7725,"▁могла":7726,"▁подчерки":7727,"▁Может":7728,"▁рабочих":7729,"▁борту":7730,"вшиеся":7731,"▁ночью":7732,"отно":7733,"▁2000":7734,"▁страш":7735,"▁конфликт":7736,"▁as":7737,"цией.":7738,"▁женщин":7739,"▁Apple":7740,"▁каким":7741,"▁увидет":7742,"▁бизнесмен":7743,"▁Потому":7744,"ash":7745,"▁большое":7746,"циям":7747,"▁северо":7748,"▁предприятий":7749,"▁Window":7750,"▁которыми":7751,"▁страда":7752,"▁собирается":7753,"дует":7754,"альный":7755,"95":7756,"▁экспери":7757,"▁сделали":7758,"▁сформи":7759,"▁ранен":7760,"тую":7761,"▁Второй":7762,"душ":7763,"▁предна":7764,"▁пациен":7765,"анта":7766,"зы,":7767,"▁Латви":7768,"▁мэра":7769,"▁заявили,":7770,"визи":7771,"▁обмен":7772,"-8":7773,"▁захо":7774,"▁взрос":7775,"▁корреспондент":7776,"▁кро":7777,"гали":7778,"▁подели":7779,"▁прокуратуры":7780,"ond":7781,"▁пле":7782,"овал":7783,"эро":7784,"▁применя":7785,"▁ребено":7786,"▁последова":7787,"▁евро.":7788,"▁смен":7789,"▁открыть":7790,"▁лидеров":7791,"▁настоящий":7792,"▁\"Россия":7793,"▁зависит":7794,"тесь":7795,"ИН":7796,"▁какой-то":7797,"▁чрезвычай":7798,"▁de":7799,"▁крым":7800,"▁границы":7801,"BC":7802,"▁концеп":7803,"блио":7804,"▁нашу":7805,"▁Мари":7806,"благо":7807,"▁прошла":7808,"▁зо":7809,"▁торже":7810,"65":7811,"ult":7812,"▁заседание":7813,"▁им.":7814,"ру.":7815,"▁грузов":7816,"▁URL":7817,"▁АО":7818,"▁уточни":7819,"▁динами":7820,"▁секун":7821,"▁должности":7822,"теля.":7823,"стно":7824,"▁камер":7825,"▁смарт":7826,"▁Благо":7827,"▁Петр":7828,"▁Бли":7829,"▁иннова":7830,"нки":7831,"▁препода":7832,"рованные":7833,"градской":7834,"▁Роб":7835,"гора":7836,"писы":7837,"кам,":7838,"▁Нача":7839,"▁Наталья":7840,"▁докла":7841,"▁информации,":7842,"tion":7843,"техни":7844,"ковы":7845,"▁мошенни":7846,"▁Ман":7847,"43":7848,"▁KP.RU":7849,"▁бизнес-":7850,"▁площадь":7851,"▁заключения":7852,"▁противостоя":7853,"▁находился":7854,"▁al":7855,"▁Али":7856,"▁идти":7857,"праведли":7858,"збе":7859,"понен":7860,"▁сборная":7861,"▁оптими":7862,"ментов":7863,"▁территорию":7864,"▁последствия":7865,"▁потенциаль":7866,"98":7867,"▁Во-":7868,"▁подклю":7869,"▁Светла":7870,"▁моз":7871,"менте":7872,"▁этапе":7873,"▁вернуться":7874,"▁Константин":7875,"▁участвовать":7876,"▁называют":7877,"old":7878,"▁«З":7879,"▁игроков":7880,"▁сви":7881,"▁убы":7882,"ца.":7883,"▁типа":7884,"чая":7885,"циями":7886,"ках.":7887,"▁появились":7888,"▁Дэ":7889,"▁ограничи":7890,"▁августе":7891,"▁приобрет":7892,"▁крупнейших":7893,"▁Сте":7894,"▁Мат":7895,"\"),":7896,"▁всеми":7897,"▁Мария":7898,"▁животных":7899,"▁связано":7900,"▁академи":7901,"▁экстреми":7902,"дох":7903,"▁\"Се":7904,"▁памя":7905,"пом":7906,"лежа":7907,"▁европейских":7908,"жь":7909,"▁Можно":7910,"▁Брю":7911,"▁назначен":7912,"▁целе":7913,"▁обнаружили":7914,"▁законодательство":7915,"▁справедли":7916,"дом,":7917,"\").":7918,"шенных":7919,"▁зато":7920,"▁неоднократно":7921,"▁ум":7922,"▁Дей":7923,"▁Всемир":7924,"▁Фор":7925,"▁опровер":7926,"▁Януков":7927,"▁задолжен":7928,"▁класса":7929,"▁время.":7930,"▁брон":7931,"▁обратился":7932,"вшейся":7933,"▁стрель":7934,"▁супер":7935,"▁Мир":7936,"рачи":7937,"▁Вести":7938,"▁юго":7939,"ax":7940,"▁городского":7941,"▁оказалась":7942,"▁преж":7943,"частли":7944,"oy":7945,"▁компьютер":7946,"▁увеличить":7947,"▁вызыва":7948,"▁вышли":7949,"стовер":7950,"щаться":7951,");":7952,"▁создании":7953,"▁Южной":7954,"▁метал":7955,"сторо":7956,"▁Михаила":7957,"▁Пес":7958,"▁Лука":7959,"▁насколько":7960,"▁буква":7961,"▁спецслуж":7962,"▁какие-то":7963,"▁путем":7964,"▁пресс-службы":7965,"▁представляет":7966,"луб":7967,"бал":7968,"DA":7969,"▁кампании":7970,"▁ущерб":7971,"▁режиссер":7972,"▁осуществля":7973,"▁любов":7974,"▁Однако,":7975,"зон":7976,"▁примеру,":7977,"мини":7978,"се,":7979,"▁бен":7980,"▁такую":7981,"арди":7982,":20":7983,"▁корпу":7984,"кров":7985,"▁чемпионат":7986,"▁нужда":7987,"▁возрасте":7988,"▁вку":7989,"▁коали":7990,"▁договор":7991,"мур":7992,"▁ранения":7993,"СЕ":7994,"▁Причем":7995,"▁Подробнее":7996,"голов":7997,"▁\"Это":7998,"▁путь":7999,"▁американского":8000,"▁Анатолий":8001,"▁Северной":8002,"газ":8003,"▁«И":8004,"▁нема":8005,"шают":8006,"цо":8007,"ри,":8008,"▁привести":8009,"▁пребы":8010,"▁особен":8011,"пет":8012,"▁есть,":8013,"▁Оде":8014,"▁детей.":8015,"▁мира,":8016,"▁фили":8017,"ступления":8018,"▁режима":8019,"▁жилья":8020,"ствием":8021,"екре":8022,"▁выбора":8023,"▁ван":8024,"▁правило,":8025,"▁отказался":8026,"▁определен":8027,"▁повто":8028,"▁хода":8029,"▁людей.":8030,"эр":8031,"▁допусти":8032,"гина":8033,"ен,":8034,"стам":8035,"6.":8036,"▁новая":8037,"▁Брита":8038,"▁архитек":8039,"▁таком":8040,"▁pr":8041,"▁спустя":8042,"▁вернуть":8043,"▁Ше":8044,"▁конститу":8045,"▁инфраструктуры":8046,"бий":8047,"▁пассажиров":8048,"▁риск":8049,"ele":8050,"▁установить":8051,"▁нена":8052,"▁документов":8053,"сей":8054,"▁отдел":8055,"▁Виталий":8056,"ect":8057,"▁товари":8058,"▁остались":8059,"енко":8060,"37":8061,"▁здание":8062,"pl":8063,"▁конференции":8064,"▁Join":8065,"▁недвижимости":8066,"▁мол":8067,"ach":8068,"▁радика":8069,"▁обыгра":8070,"▁руки":8071,"поте":8072,"▁Три":8073,"▁рассказал,":8074,"▁расходы":8075,"сю":8076,"жал":8077,"▁возле":8078,"▁замен":8079,"sh":8080,"стве,":8081,"▁начало":8082,"ok":8083,"▁сектора":8084,"▁читайте":8085,"▁настаи":8086,"цы.":8087,"▁сообщается":8088,"чики":8089,"▁психологи":8090,"ска.":8091,"▁расследования":8092,"порта":8093,"▁аварии":8094,"▁Z":8095,"▁начальника":8096,"вайте":8097,"uter":8098,"тические":8099,"ork":8100,"вастопо":8101,"▁удо":8102,"▁выступления":8103,"▁уста":8104,"▁Послед":8105,"▁ч.":8106,"ue":8107,"валась":8108,"ated":8109,"▁39":8110,"▁выполня":8111,"?\"":8112,"вать,":8113,"ция.":8114,"▁обстанов":8115,"▁ФСБ":8116,"к-":8117,"▁тренера":8118,"▁честь":8119,"▁позже":8120,"▁замо":8121,"▁внед":8122,"▁исче":8123,"38":8124,"▁Англи":8125,"▁\"Про":8126,"▁данном":8127,"▁города,":8128,"▁Joined:":8129,"▁Шве":8130,"▁потенциа":8131,"▁разби":8132,"тона":8133,"▁показатель":8134,"знец":8135,"▁развед":8136,"▁зер":8137,"quest":8138,"▁иначе":8139,"▁вод":8140,"▁Некоторые":8141,"▁виз":8142,"▁Участ":8143,"▁объявил":8144,"▁различные":8145,"▁отличие":8146,"ьев":8147,"▁телефо":8148,"▁шах":8149,"▁уме":8150,"▁исключительно":8151,"▁ветера":8152,"▁Ирина":8153,"▁(О":8154,"▁поможет":8155,"роваться":8156,"альные":8157,"▁Ом":8158,"▁главных":8159,"▁июне":8160,"гар":8161,"зра":8162,"▁новом":8163,"ской,":8164,"▁Газета":8165,"▁бесе":8166,"▁Москве.":8167,"рика":8168,"▁каждой":8169,"▁просьбой":8170,"▁красно":8171,"▁получит":8172,"защитник":8173,"-летняя":8174,"▁ограничения":8175,"лей,":8176,"зяй":8177,"▁уз":8178,"▁попал":8179,"▁Джо":8180,"▁вопросу":8181,"▁Луган":8182,"▁Татьяна":8183,"▁Вен":8184,"▁торговли":8185,"▁отсутствие":8186,"▁аналити":8187,"▁руководства":8188,"▁found":8189,"29":8190,"▁наконец":8191,"▁Же":8192,"▁положение":8193,"▁войск":8194,"лег":8195,"▁дета":8196,"▁госс":8197,"▁отношение":8198,"▁прокомментировал":8199,"твори":8200,"▁стары":8201,"▁Вар":8202,"▁признал":8203,"▁май":8204,"ске,":8205,"▁гром":8206,"▁главное":8207,"▁наси":8208,"▁потому,":8209,"▁подрост":8210,"▁выступил":8211,"ace":8212,"дио":8213,"▁финансовых":8214,"▁полицейские":8215,"▁Twitter":8216,"▁официальном":8217,"НДР":8218,"▁Генна":8219,"овости":8220,"▁подъ":8221,"▁историю":8222,"ниторин":8223,"▁депутата":8224,"гло":8225,"▁север":8226,"▁охо":8227,"▁поддержке":8228,"▁час":8229,"▁Image":8230,"@@":8231,"▁Дже":8232,"ваем":8233,"▁предварительным":8234,"▁призыва":8235,"▁Ленин":8236,"▁дефици":8237,"стром":8238,"▁пару":8239,"▁областной":8240,"▁вин":8241,"▁\"Ку":8242,"▁ман":8243,"▁Стро":8244,"зора":8245,"▁пошли":8246,"▁талан":8247,"▁Им":8248,"▁попы":8249,"ure":8250,"мат":8251,"▁Дональ":8252,"▁аэропорту":8253,"▁учени":8254,"▁пострадали":8255,"наб":8256,"тно,":8257,"▁Георги":8258,"ual":8259,"вард":8260,"▁повышение":8261,"▁правил":8262,"▁проводится":8263,"чи.":8264,"▁вело":8265,"ционная":8266,"збеки":8267,"▁сеть":8268,"▁Неизвест":8269,"%),":8270,"▁пресе":8271,"▁проголосова":8272,"▁ухуд":8273,"▁коне":8274,"▁художе":8275,"▁инвестиций":8276,"▁Нам":8277,"▁пришел":8278,"▁условий":8279,"мах":8280,"ч,":8281,"▁знаю,":8282,"каж":8283,"▁но,":8284,"▁\"Ком":8285,"сор":8286,"▁никак":8287,"▁справи":8288,"▁группу":8289,"▁другого":8290,"▁ано":8291,"ьи":8292,"▁2007,":8293,"рной":8294,"тивно":8295,"▁предназна":8296,"▁Коммерсантъ":8297,"%)":8298,"▁решить":8299,"▁постро":8300,"тари":8301,"▁использование":8302,"▁46":8303,"нно":8304,"▁отлич":8305,"-20":8306,"ств,":8307,"▁ждет":8308,"▁частью":8309,"▁добиться":8310,"▁сотрудник":8311,"▁выгод":8312,"▁сохранить":8313,"▁украинской":8314,"гу.":8315,"▁стран,":8316,"▁порядке":8317,"▁министерства":8318,"пой":8319,"ПК":8320,"▁Объ":8321,"▁осна":8322,"▁избран":8323,"вов":8324,"ложить":8325,"▁третий":8326,"▁музыкан":8327,"▁порядок":8328,"суд":8329,"▁изби":8330,"▁сосед":8331,"вы.":8332,"ели":8333,"без":8334,"▁религиоз":8335,"даго":8336,"▁заявили":8337,"вает,":8338,"▁com":8339,"честву":8340,"sc":8341,"▁избра":8342,"▁Жен":8343,"щением":8344,"щик":8345,"▁категории":8346,"▁наруши":8347,"▁годах":8348,"▁входит":8349,"вейца":8350,"▁большие":8351,"▁повышения":8352,"ПРФ":8353,"▁прибыли":8354,"▁ЖК":8355,"▁материале":8356,"б-":8357,"горе":8358,"▁нашим":8359,"▁65":8360,"▁прибыль":8361,"дный":8362,"▁хотели":8363,"):":8364,"▁недав":8365,"кова.":8366,"хом":8367,"▁Коро":8368,"▁графи":8369,"ник.":8370,"▁духов":8371,"▁количества":8372,"▁проходят":8373,"▁Афгани":8374,"▁говорят,":8375,"▁туда":8376,"▁чисто":8377,"щены":8378,"▁наказание":8379,"▁кандидатов":8380,"forum":8381,"▁онлайн":8382,"спол":8383,"са\"":8384,"▁миллиарда":8385,"▁Ино":8386,"▁дополнительные":8387,"▁страну":8388,"▁времени.":8389,"▁ставки":8390,"▁намерены":8391,"▁2.":8392,"▁статус":8393,"▁блоки":8394,"▁областного":8395,"теры":8396,"▁любом":8397,"▁44":8398,"▁лиши":8399,"1.":8400,"▁планет":8401,"▁противоре":8402,"▁ГИБДД":8403,"▁Из-за":8404,"▁специально":8405,"▁вста":8406,"▁сби":8407,"-7":8408,"▁говорил":8409,"горо":8410,"зить":8411,"▁Гон":8412,"рованный":8413,"блиоте":8414,"▁вариант":8415,"▁созна":8416,"▁Мон":8417,"▁изготов":8418,"▁украинского":8419,"▁Эксперты":8420,"▁увидеть":8421,"▁одержа":8422,"▁регионах":8423,"▁href":8424,"▁иногда":8425,"▁получать":8426,"▁Кирил":8427,"▁\"Ж":8428,"▁страхова":8429,"▁ввести":8430,"▁Рей":8431,"▁Джа":8432,"▁американской":8433,"▁женщины":8434,"▁жилищ":8435,"▁фло":8436,"▁кризиса":8437,"▁Через":8438,"стую":8439,"▁каби":8440,"▁находились":8441,"▁верх":8442,"▁196":8443,"▁квартале":8444,"за,":8445,"метров":8446,"ver.":8447,"ко-":8448,"▁вырос":8449,"▁вспомина":8450,"▁хран":8451,"▁сообщили,":8452,"▁инициатив":8453,"нее.":8454,"▁экспорт":8455,"совет":8456,"▁большую":8457,"твра":8458,"▁раун":8459,"▁хозяйства":8460,"▁выдели":8461,"▁зави":8462,"лая":8463,"▁домо":8464,"▁КНДР":8465,"▁жду":8466,"▁палаты":8467,"▁прогноз":8468,"▁Думаю,":8469,"▁Гово":8470,"шены":8471,"▁войска":8472,"▁июле":8473,"▁добавля":8474,"зен":8475,"шено":8476,"▁продуктов":8477,"es.":8478,"▁Моло":8479,"тории":8480,"▁нагруз":8481,"▁рубля":8482,"талия":8483,"▁временем":8484,"3.":8485,"▁телекана":8486,"▁оппозиции":8487,"щими":8488,"▁нашем":8489,"▁Антон":8490,"▁2004":8491,"ехать":8492,"▁петербур":8493,"▁расследование":8494,"ц,":8495,"▁печати)":8496,"▁«Л":8497,"▁Ar":8498,"▁брать":8499,"зия":8500,"ib":8501,"▁конферен":8502,"да\"":8503,"▁Российский":8504,"енью":8505,"▁спут":8506,"▁своему":8507,"▁полуо":8508,"▁аварий":8509,"стка":8510,"ально":8511,"▁постеп":8512,"▁Особ":8513,"▁Узбеки":8514,"▁Хри":8515,"▁огонь":8516,"▁***":8517,"▁Григо":8518,"▁осве":8519,"▁серд":8520,"▁структуры":8521,"▁сотни":8522,"▁теп":8523,"▁поставки":8524,"шко":8525,"▁Казахстан":8526,"▁московского":8527,"▁моск":8528,"▁выхода":8529,"▁Груп":8530,"ске.":8531,"▁Накануне":8532,"▁мероприятий":8533,"нике":8534,"▁наличи":8535,"▁огня":8536,"▁улица":8537,"▁служеб":8538,"▁Официаль":8539,"▁Очень":8540,"eg":8541,"рована":8542,"▁премьер-министр":8543,"▁подобные":8544,"надца":8545,"АК":8546,"-восто":8547,"▁табли":8548,"▁сотрудничество":8549,"▁Сама":8550,"▁поверх":8551,"▁поез":8552,"▁значение":8553,"per":8554,"▁Предпо":8555,"▁сфер":8556,"думы":8557,"лянди":8558,"▁документ":8559,"▁Москве,":8560,"▁начи":8561,"▁телевид":8562,"▁Анна":8563,"лей.":8564,"▁отметить,":8565,"▁Борис":8566,"▁Jun":8567,"]>":8568,"▁пакет":8569,"▁Союза":8570,"валось":8571,"▁машин":8572,"▁финансовой":8573,"▁Обама":8574,"▁вице-президен":8575,"ление.":8576,"нос":8577,"рг":8578,"дите":8579,"▁объеди":8580,"▁команди":8581,"▁занимается":8582,"▁груз":8583,"▁прока":8584,"▁осо":8585,"хин":8586,"шан":8587,"нений":8588,"▁дома,":8589,"▁этапа":8590,"▁жизни,":8591,"▁эксплуата":8592,"▁&":8593,"▁сохрани":8594,"лил":8595,"-6":8596,"▁Севастопо":8597,"фикации":8598,"▁виру":8599,"▁соцс":8600,"▁насле":8601,"▁друзья":8602,"торая":8603,"▁нрави":8604,"▁усилия":8605,"▁перспек":8606,"▁испы":8607,"говари":8608,"▁открытия":8609,"▁вертолет":8610,"▁море":8611,"стю":8612,"▁изменений":8613,"▁Италии":8614,"▁девуш":8615,"▁куро":8616,"сам":8617,"▁обязанности":8618,"▁содей":8619,"станции":8620,"▁тебя":8621,"опера":8622,"▁Гар":8623,"▁событий":8624,"ди,":8625,"▁197":8626,"▁поедин":8627,"стин":8628,"▁Пан":8629,"торов,":8630,"▁Викто":8631,"▁аук":8632,"▁больницы":8633,"▁генеральный":8634,"вига":8635,"▁неиз":8636,"кома":8637,"▁преодо":8638,"▁Оста":8639,"ла\"":8640,"гия":8641,"▁разве":8642,"▁одновременно":8643,"▁Трамп":8644,"хозяй":8645,"▁республикан":8646,"▁предотвра":8647,"▁\"РИА":8648,"man":8649,"класс":8650,"▁власти,":8651,"▁название":8652,"▁далее":8653,"▁достой":8654,"▁лагер":8655,"▁le":8656,"дю":8657,"▁месторо":8658,"▁содержи":8659,"▁происходи":8660,"▁арбитра":8661,"▁Windows":8662,"▁общественных":8663,"▁Тру":8664,"▁принятия":8665,"▁разы":8666,"▁результатам":8667,"▁воспользова":8668,"сля":8669,"▁пой":8670,"▁плен":8671,"▁защите":8672,"года":8673,"▁досто":8674,"▁эпизо":8675,"▁КПРФ":8676,"▁назад,":8677,"▁Бай":8678,"▁прият":8679,"▁стране.":8680,"ципли":8681,"▁газеты":8682,"▁заместителя":8683,"▁игре":8684,"▁университет":8685,"трен":8686,"▁лиц,":8687,"▁запрет":8688,"вшему":8689,"ра\"":8690,"споко":8691,"▁диску":8692,"▁уступи":8693,"кали":8694,"▁позицию":8695,"▁Проек":8696,"▁наше":8697,"▁Извест":8698,"▁двор":8699,"▁2006,":8700,"▁решений":8701,"▁электроэнер":8702,"▁полицейских":8703,"се.":8704,"▁неуда":8705,"пове":8706,"▁большим":8707,"▁подтвержда":8708,"▁региональных":8709,"▁опол":8710,"ней,":8711,"ОН":8712,"▁Tim":8713,"▁материалы":8714,"б.":8715,"▁разу":8716,"полномо":8717,"▁Тор":8718,"▁моей":8719,"▁менее,":8720,"▁избежать":8721,"▁РК":8722,"▁пресс-секретарь":8723,"вати":8724,"▁Украин":8725,"▁издели":8726,"▁актер":8727,"▁начнется":8728,"ER":8729,"с\",":8730,"▁удовлетво":8731,"▁Татар":8732,"▁работо":8733,"▁людь":8734,"▁ИТАР-ТАСС.":8735,"▁станут":8736,"▁Эсто":8737,"ass":8738,"▁состава":8739,"▁pro":8740,"▁предложен":8741,"▁Кам":8742,"▁счасть":8743,"▁пога":8744,"++":8745,"44":8746,"▁адвокат":8747,"▁Air":8748,"▁информи":8749,"▁правам":8750,"▁колонии":8751,"▁улицы":8752,"▁готова":8753,"ть\"":8754,"▁Воло":8755,"▁\"Ислам":8756,"▁коммуника":8757,"▁первая":8758,"▁исла":8759,"%).":8760,"фы":8761,"имость":8762,"▁концу":8763,"▁успешно":8764,"y/":8765,"▁встречу":8766,"▁газо":8767,"▁ассоциации":8768,"бы,":8769,"▁request":8770,"▁возму":8771,"▁компози":8772,"▁купи":8773,"▁традицион":8774,"▁принадлежит":8775,"образова":8776,"▁2,5":8777,"▁тело":8778,"▁have":8779,"лено,":8780,"▁Мен":8781,"▁парков":8782,"▁необходимые":8783,"▁фла":8784,"▁земе":8785,"▁тенден":8786,"▁появится":8787,"▁церкви":8788,"▁43":8789,"▁приоритет":8790,"чке":8791,"▁ОБ":8792,"▁актуаль":8793,"▁Рас":8794,"-15":8795,"▁здравоохранения":8796,"▁деть":8797,"жную":8798,"▁вмеша":8799,"▁наркоти":8800,"пен":8801,"▁(8":8802,"▁девять":8803,"▁Евгения":8804,"TA":8805,"▁этого,":8806,"сами":8807,"▁вошли":8808,":40":8809,"нта":8810,"▁температура":8811,"▁устойчи":8812,"▁(Г":8813,"▁интересы":8814,"▁КХЛ":8815,"▁мора":8816,"▁субси":8817,"▁Такое":8818,"▁беспоряд":8819,"▁Возможно,":8820,"▁появился":8821,"▁долг":8822,"▁47":8823,"▁трибу":8824,"▁New":8825,"ick":8826,"▁вечер":8827,"ниверси":8828,"▁копи":8829,"▁титу":8830,"▁перено":8831,"ile":8832,"▁рее":8833,"▁преследова":8834,"жали":8835,"▁кажды":8836,"▁уди":8837,"▁био":8838,"▁трое":8839,"рыва":8840,"▁пеше":8841,"▁поля":8842,"▁координа":8843,"▁шай":8844,"▁досро":8845,"▁множество":8846,"▁соли":8847,"▁стен":8848,"▁\"Об":8849,"стых":8850,"▁Буд":8851,"▁технологии":8852,"▁пассажир":8853,"лект":8854,"▁радо":8855,"▁ходатай":8856,"▁квадра":8857,"▁подготовке":8858,"▁позна":8859,"▁работников":8860,"▁государства.":8861,"▁предъяв":8862,"д\"":8863,"▁\"До":8864,"▁Трампа":8865,"рных":8866,"▁молодежи":8867,"▁этап":8868,"▁примет":8869,"▁подобных":8870,"▁первен":8871,"▁базы":8872,"швили":8873,"юн":8874,"хоз":8875,"▁купить":8876,"нением":8877,"▁нами":8878,"▁объема":8879,"▁сторона":8880,"▁белорусс":8881,"ous":8882,"▁матчей":8883,"▁\"Интерфакс\".":8884,"чика":8885,"▁зе":8886,"▁продолжают":8887,"кина":8888,"▁Sun":8889,"▁Соответ":8890,"-би":8891,"ь.":8892,"▁сроки":8893,"▁никакого":8894,"▁уверен,":8895,"▁Вячеслав":8896,"нную":8897,"▁молодо":8898,"ствий":8899,"▁сег":8900,"▁понять,":8901,"тивным":8902,"▁правозащит":8903,"▁свидете":8904,"емонстри":8905,"▁застрой":8906,"▁воздей":8907,"▁изменить":8908,"▁42":8909,"▁Роди":8910,"▁состоит":8911,"▁проекты":8912,"▁СНГ":8913,"ба,":8914,"груп":8915,"▁пон":8916,"▁последу":8917,"▁резко":8918,"▁Австра":8919,"▁нер":8920,"▁завода":8921,"вича":8922,"нию.":8923,"ровка":8924,"▁Финлянди":8925,"▁Дол":8926,"▁Джей":8927,"▁жертв":8928,"▁менедж":8929,"жил":8930,"▁автомобили":8931,"▁главной":8932,"▁server.":8933,"▁леген":8934,"▁альтерна":8935,"▁округа":8936,"▁сборную":8937,"начально":8938,"нном":8939,"▁хоч":8940,"▁Соединен":8941,"обла":8942,"▁самостоятельно":8943,"▁гран":8944,"▁бюро":8945,"▁назначения":8946,"▁пытаются":8947,"чо":8948,"▁памяти":8949,"ака":8950,"▁обру":8951,"▁итоги":8952,"▁мона":8953,"▁\"Ли":8954,"▁назад.":8955,"▁(6":8956,"▁было,":8957,"▁повтор":8958,"▁ски":8959,"мера":8960,"▁установлен":8961,"емая":8962,"▁долгосро":8963,"▁боя":8964,"▁изо":8965,"сть.":8966,"▁возро":8967,"▁10,":8968,"▁теря":8969,"▁футболу":8970,"▁взы":8971,"бург":8972,"контро":8973,"▁Group":8974,"тури":8975,"▁видов":8976,"▁случаях":8977,"▁как-то":8978,"▁отец":8979,"▁празд":8980,"цар":8981,"чений":8982,"▁проф":8983,"▁вроде":8984,"▁потребу":8985,"▁Евросоюза":8986,"шек":8987,"▁Перед":8988,"▁Речь":8989,"o.":8990,"продук":8991,"цкий":8992,"нару":8993,"цер":8994,"▁мониторин":8995,"▁Рай":8996,"▁през":8997,"▁49":8998,"▁Жу":8999,"спорта":9000,"▁какое":9001,"▁национали":9002,"нка":9003,"рованной":9004,"▁посту":9005,"▁Денис":9006,"гри":9007,"▁Банк":9008,"ряз":9009,"▁\"Ура":9010,"▁пля":9011,"вшее":9012,"оволь":9013,"▁граждан,":9014,"▁отмечают":9015,"▁•":9016,"▁больнице":9017,"▁обязательства":9018,"▁\"Бар":9019,"▁протеста":9020,"ленно":9021,"БУ":9022,"▁Японии":9023,"▁Киров":9024,"▁поднима":9025,"▁политика":9026,":15":9027,"▁регистрации":9028,"▁requested":9029,"▁дали":9030,"/a>":9031,"ческому":9032,"▁(у":9033,"▁городов":9034,"▁российском":9035,"▁имен":9036,"▁конкурс":9037,"рони":9038,"▁российская":9039,"▁настолько":9040,"▁демонстри":9041,"нопо":9042,"▁«Г":9043,"▁голосования":9044,"бек":9045,"▁ученые":9046,"▁века":9047,"▁вопросов":9048,"▁началась":9049,"▁пласти":9050,"▁Право":9051,"▁таможен":9052,"несли":9053,"▁полной":9054,"▁прочи":9055,"▁рассчита":9056,"кол":9057,"▁Крыму":9058,"▁холдин":9059,"▁Нет":9060,"▁ваго":9061,"sk":9062,"первых,":9063,"▁пти":9064,"▁Представители":9065,"▁проведении":9066,"же.":9067,"▁помимо":9068,"▁клиентов":9069,"▁облига":9070,"друг":9071,"▁Солн":9072,"▁Reuter":9073,"стки":9074,"▁Сред":9075,"▁трене":9076,"▁авиакомпании":9077,"▁продемонстри":9078,"▁цвета":9079,"честер":9080,"▁связанные":9081,"▁Сотрудники":9082,"▁известный":9083,"▁восьми":9084,"▁Каждый":9085,"▁(Б":9086,"▁целях":9087,"▁употреб":9088,"49":9089,"▁Al":9090,"▁рекоменду":9091,"▁останется":9092,"▁Тер":9093,"редо":9094,"▁шаг":9095,"▁фигуран":9096,"▁главой":9097,"▁Алтай":9098,"▁лета":9099,"▁влияние":9100,"▁товаров":9101,"▁www":9102,"▁политике":9103,"▁очи":9104,"вать.":9105,"▁остался":9106,"гает":9107,"▁чемпионов":9108,"▁Щ":9109,"▁II":9110,"▁убийства":9111,"▁журналистам":9112,"▁м/":9113,"ЖД":9114,"▁остаются":9115,"▁тему":9116,"▁Com":9117,"ote":9118,"▁другом":9119,"36":9120,"▁недель":9121,"▁тео":9122,"▁счастли":9123,"▁кг":9124,"▁вылет":9125,"▁рейтинг":9126,"▁Два":9127,"▁аф":9128,"▁обрабо":9129,"нт":9130,"anc":9131,"пиона":9132,"▁Луч":9133,"▁ВТБ":9134,"lin":9135,"▁вскоре":9136,"▁рода":9137,"▁граждане":9138,"емым":9139,"▁компаний,":9140,"ссей":9141,"▁заявлении":9142,"▁несовершен":9143,"▁РАН":9144,"line":9145,"▁вопрос,":9146,"▁библиоте":9147,"ice":9148,"ллек":9149,"▁Председатель":9150,"вай":9151,"зиру":9152,"▁живет":9153,"тивное":9154,"oft":9155,"▁буквально":9156,"▁письмо":9157,"ood":9158,"▁кури":9159,"▁Надо":9160,"пром":9161,"устрой":9162,"▁веще":9163,"8,":9164,"▁сын":9165,"▁она.":9166,"ждению":9167,"тору":9168,"▁фестиваля":9169,"▁существенно":9170,"▁педаго":9171,"длов":9172,"▁лен":9173,"▁\"про":9174,"блоки":9175,"▁партне":9176,"гал":9177,"▁назвать":9178,"▁Одна":9179,"▁Илья":9180,"▁НП":9181,"▁язык":9182,"▁неправи":9183,"▁переход":9184,":12":9185,"нутся":9186,"▁Ура":9187,"▁опять":9188,"МС":9189,"▁помещения":9190,"otel":9191,"▁факт":9192,"▁Aug":9193,"выбор":9194,"▁ремонт":9195,"▁Филип":9196,"▁поддержива":9197,"▁Муж":9198,"▁В.":9199,"▁Китая":9200,"рте":9201,"овет":9202,"сятся":9203,"▁бур":9204,":50":9205,"▁=":9206,"▁правления":9207,"▁технологий":9208,"▁исполня":9209,"стрен":9210,"▁Причи":9211,"тите":9212,"▁Представитель":9213,"сель":9214,"▁одному":9215,"▁пытались":9216,"▁сообщении.":9217,"▁платить":9218,"▁киев":9219,"▁принес":9220,"9,":9221,"7,":9222,"▁премии":9223,"▁Сара":9224,"▁балан":9225,"ском,":9226,"стических":9227,"▁фер":9228,"тологи":9229,"▁(Т":9230,"▁второе":9231,"▁городах":9232,"ченного":9233,"▁Ах":9234,"▁sh":9235,"креди":9236,"▁ДНР":9237,"ОСТИ":9238,"▁Фер":9239,"▁коммуна":9240,"вере":9241,"ющему":9242,"▁передачи":9243,"▁реаги":9244,"▁предлагают":9245,"▁Швейца":9246,"▁Хи":9247,"энерго":9248,"▁актри":9249,"▁исте":9250,"▁представителями":9251,"▁фана":9252,"▁шу":9253,"▁испыты":9254,"ждены":9255,"▁православ":9256,"▁тенни":9257,"▁шоу":9258,"▁Хабаров":9259,"▁оставля":9260,"▁выглядит":9261,"▁)":9262,"▁Ази":9263,"▁осад":9264,"▁деньги,":9265,"▁распреде":9266,"▁Окт":9267,"news":9268,"▁Свер":9269,"▁действовать":9270,"▁выступает":9271,"ряду":9272,"▁Васили":9273,"▁ворота":9274,"тивная":9275,"▁Sep":9276,":1.":9277,"▁грозит":9278,"▁полном":9279,"▁обращения":9280,"▁\"Са":9281,"ext":9282,"▁сложности":9283,"выми":9284,"БР":9285,"вяза":9286,"овыми":9287,"▁эфире":9288,"▁юби":9289,"▁игр":9290,"▁вред":9291,"▁зале":9292,"енный":9293,"▁Русс":9294,"ловых":9295,"чно.":9296,"лы.":9297,"▁дома.":9298,"▁церков":9299,"енных":9300,"##":9301,"▁решению":9302,"▁услов":9303,"▁комиссия":9304,"▁120":9305,"▁Мос":9306,"▁Нем":9307,"▁благотвори":9308,"-а":9309,"▁Пара":9310,"▁бор":9311,"▁взрыва":9312,"▁Краснодар":9313,"льник":9314,"жены":9315,"▁основании":9316,"нета":9317,"▁структур":9318,"▁еха":9319,"вропо":9320,"▁600":9321,"▁делают":9322,"▁собеседник":9323,"тельными":9324,"▁пытается":9325,"▁привлечь":9326,"▁сутки":9327,"▁людям":9328,"▁попасть":9329,"▁марки":9330,"▁здо":9331,"▁поиск":9332,"▁\"Ме":9333,"▁необы":9334,"▁препят":9335,"дятся":9336,"s/":9337,"енные":9338,"▁нарушений":9339,"▁зоны":9340,"▁ФР":9341,"▁ch":9342,"und":9343,"▁поясня":9344,"ская,":9345,"▁<a":9346,"▁каждом":9347,"▁Потом":9348,"▁отказ":9349,":45":9350,"▁острова":9351,"47":9352,"▁Грузии":9353,"ЕЛ":9354,"▁чиновников":9355,"▁стек":9356,"▁мнения":9357,"▁нара":9358,"▁силови":9359,"ющийся":9360,"▁лечения":9361,"чными":9362,"сво":9363,"▁отдельных":9364,"стся":9365,"▁бороться":9366,"▁оба":9367,"женных":9368,"▁финансирования":9369,"▁описа":9370,"ne":9371,"ff":9372,"▁исчез":9373,"▁скончался":9374,"дже":9375,"▁195":9376,"▁Казахста":9377,"iss":9378,"▁Отмеча":9379,"серва":9380,"▁странице":9381,"▁ab":9382,"▁сос":9383,"▁взгляд,":9384,"шается":9385,"▁платфор":9386,"▁Полиция":9387,"▁Экономика":9388,"иться":9389,"▁www.":9390,"▁\"Ц":9391,"кий,":9392,"тила":9393,"щики":9394,"▁приступи":9395,"▁эвакуи":9396,"▁характери":9397,"▁Dec":9398,"▁Леонид":9399,"▁получат":9400,"▁падения":9401,"▁Oct":9402,"ational":9403,"▁строй":9404,"-Л":9405,"▁Вла":9406,"водить":9407,"▁добра":9408,"▁бы,":9409,"дум":9410,"▁брига":9411,"ляли":9412,"▁специалистов":9413,"риев":9414,"прият":9415,"▁послу":9416,"▁справ":9417,"тном":9418,"▁ЖКХ":9419,"▁2010,":9420,"▁последнего":9421,"▁ликвиди":9422,"▁десятки":9423,"▁Сы":9424,"▁случаев":9425,"ich":9426,"▁коль":9427,"▁Азербайджа":9428,"▁Кэ":9429,"▁отмечается":9430,"▁Иркутской":9431,"▁отказаться":9432,"▁Москвы.":9433,"▁каз":9434,"джан":9435,"▁грузови":9436,"льги":9437,"▁квартиры":9438,"пресс":9439,"▁забра":9440,"▁связанных":9441,"▁планируют":9442,"▁явно":9443,"ox":9444,"▁играет":9445,"▁попали":9446,"▁Опубликова":9447,"части":9448,"▁гибели":9449,"пись":9450,"юри":9451,"▁конта":9452,"ски,":9453,"▁Jan":9454,"▁мирового":9455,"торе":9456,"▁достижения":9457,"▁лы":9458,"мбу":9459,"▁мусуль":9460,"разви":9461,"topic":9462,"▁Тай":9463,"▁телеканала":9464,"▁сва":9465,"ртуга":9466,"ьет":9467,"▁развер":9468,"▁режиссе":9469,"▁дорожного":9470,"▁названием":9471,"▁президенту":9472,"приня":9473,"сом,":9474,"зд":9475,"▁номера":9476,"▁серьезные":9477,"скет":9478,"▁устраи":9479,"▁пусть":9480,"▁предоставить":9481,"▁Отече":9482,"▁р":9483,"▁сделки":9484,"▁остальные":9485,"▁день,":9486,"▁приезжа":9487,"▁убийстве":9488,"▁некото":9489,"▁посад":9490,"▁Вам":9491,"▁мск":9492,"ссель":9493,"▁проверя":9494,"▁Бра":9495,"▁будущего":9496,"▁Ты":9497,"\"><":9498,"▁2016,":9499,"ide":9500,"▁взыска":9501,"▁наличие":9502,"▁выяснилось,":9503,"▁тяжело":9504,"▁Таджи":9505,"▁означа":9506,"словно,":9507,"over":9508,"▁г.,":9509,"▁проводит":9510,"▁действует":9511,"▁Даге":9512,"педи":9513,"▁среднего":9514,"▁древ":9515,"▁самая":9516,"▁священ":9517,"▁скорость":9518,"канчи":9519,"▁долю":9520,"▁Виктора":9521,"▁отношению":9522,"син":9523,"▁Запа":9524,"amp":9525,"▁осталось":9526,"▁И,":9527,"рет":9528,"тический":9529,"▁одино":9530,"▁заявила,":9531,"мили":9532,"▁лабора":9533,"▁\"Единой":9534,"▁побы":9535,"▁напоминает":9536,"▁полиции,":9537,"▁продаже":9538,"▁борьбу":9539,"сив":9540,"▁региона.":9541,"▁выросла":9542,"▁регуля":9543,"▁техники":9544,"▁лицензи":9545,"▁его,":9546,"▁поиска":9547,"▁(Д":9548,"право":9549,"▁пожара":9550,"▁подозре":9551,"жают":9552,"▁пресс-конференции":9553,"▁зим":9554,"жер":9555,"ОМ":9556,"ходом":9557,"▁высокой":9558,"▁подчи":9559,"▁кух":9560,"▁сопровожда":9561,"▁нелега":9562,"▁250":9563,"▁лиш":9564,"▁лечение":9565,"▁оке":9566,"▁подтвердил":9567,"▁Кова":9568,"▁соба":9569,"▁процессе":9570,"▁состоялась":9571,"▁поя":9572,"46":9573,"▁военно-":9574,"чно,":9575,"▁промышленности":9576,"▁стихи":9577,"▁тера":9578,"ств.":9579,"▁считается":9580,"▁\"При":9581,"▁гим":9582,"▁смерть":9583,"вшими":9584,"▁небо":9585,"▁Клин":9586,"говор":9587,"▁селе":9588,"▁работы,":9589,"▁попросил":9590,"▁энерги":9591,"▁годам":9592,"▁непре":9593,"▁работы.":9594,"▁отка":9595,"▁договора":9596,"черед":9597,"▁изба":9598,"▁резо":9599,"▁журналистов":9600,"тли":9601,"▁поправки":9602,"▁Решение":9603,"О,":9604,"▁Чет":9605,"▁ОБСЕ":9606,"▁Сла":9607,"▁<<":9608,"▁удоволь":9609,"▁форме":9610,"рению":9611,"ния)":9612,"▁повышен":9613,"▁пожела":9614,".d":9615,"▁режиме":9616,"▁уволь":9617,"▁непло":9618,"▁подписан":9619,"торами":9620,"▁Николая":9621,"▁контракта":9622,"▁память":9623,"▁ев":9624,"ram":9625,"rem":9626,"нолет":9627,"▁дисципли":9628,"▁быстре":9629,"▁файл":9630,"▁стабиль":9631,"▁увеличение":9632,"▁Бал":9633,"мма":9634,"эконом":9635,"▁получают":9636,"▁завоева":9637,"▁ужа":9638,"▁Apr":9639,"▁вышла":9640,"▁снижения":9641,"ственными":9642,"▁боевых":9643,"▁достигну":9644,"▁j":9645,"▁сексу":9646,"▁ипоте":9647,":11":9648,".200":9649,"orld":9650,"▁Законо":9651,"▁Василь":9652,"▁дожд":9653,"▁установи":9654,"▁бомб":9655,"▁плей":9656,"бель":9657,"нце":9658,"▁демонстра":9659,"▁Москвы,":9660,"▁раз.":9661,"-министра":9662,"▁ищ":9663,"▁компанией":9664,"▁опо":9665,"▁основные":9666,"▁преде":9667,"▁зака":9668,"▁Ката":9669,"▁US":9670,"овали":9671,"ai":9672,"▁приз":9673,"лат":9674,"▁Таджики":9675,"дного":9676,"▁Футбо":9677,"▁планы":9678,"▁инду":9679,"▁закуп":9680,"нью":9681,"▁исследований":9682,"▁оскор":9683,"▁времени,":9684,"▁органа":9685,"▁форму":9686,"▁расходов":9687,"▁Арави":9688,"граф":9689,"▁преподава":9690,"▁подума":9691,"▁\"Зенит\"":9692,"сибо":9693,"▁фракции":9694,"нова,":9695,"сом.":9696,"ТС":9697,"▁районах":9698,"▁вдруг":9699,"ence":9700,"стые":9701,"▁отставку":9702,"оном":9703,"forum/":9704,"▁говорит,":9705,"пустили":9706,"леб":9707,"▁конец":9708,"▁пры":9709,"▁2011,":9710,"рованного":9711,"▁миллион":9712,"ж,":9713,"▁Цена":9714,"▁искать":9715,"▁Наи":9716,"▁допуска":9717,"▁достаточ":9718,"▁нынешнего":9719,"▁двадца":9720,"▁вспомни":9721,"view":9722,"39":9723,"▁судья":9724,"▁выполнен":9725,"▁пожалу":9726,"▁предложили":9727,"за.":9728,"тий.":9729,"еву":9730,"▁нужны":9731,"▁средств,":9732,"▁эпо":9733,"▁тво":9734,"▁Loc":9735,"▁доходов":9736,"▁максимально":9737,"▁окончания":9738,"постав":9739,".10":9740,"▁резолю":9741,"мое":9742,"▁разъ":9743,"лую":9744,"▁пытался":9745,"▁данной":9746,"прокура":9747,"▁муниципальных":9748,"тами,":9749,"▁Сим":9750,"▁Ль":9751,"▁годом":9752,"бах":9753,"▁приняла":9754,"кварти":9755,"▁>>":9756,"▁музей":9757,"вают,":9758,"▁Уда":9759,"▁удастся":9760,"▁ЗАО":9761,"▁Хоро":9762,"8.":9763,"▁Ке":9764,"твор":9765,"▁связь":9766,"▁НХЛ":9767,"▁Аса":9768,"▁издание":9769,"▁pl":9770,"▁настав":9771,"▁уско":9772,"▁проведет":9773,"▁добро":9774,"▁банкрот":9775,"▁службу":9776,"▁Следственного":9777,"▁входят":9778,"▁Mon":9779,"▁2020":9780,"▁осмо":9781,"▁Зе":9782,"▁национального":9783,"▁молодой":9784,"▁правонару":9785,"▁Гали":9786,"▁Яку":9787,"лога":9788,"▁регла":9789,"arg":9790,"▁требований":9791,"▁продажу":9792,"▁Стоит":9793,"▁приговор":9794,"▁инспек":9795,"▁незна":9796,"▁Вашингто":9797,"ТВ":9798,"▁Петербурге":9799,"▁необходимость":9800,"емом":9801,"щенко":9802,"▁несовершеннолет":9803,"▁ниж":9804,"-ин":9805,"▁Челябин":9806,"▁Такие":9807,"▁вызывает":9808,"шинство":9809,"▁красо":9810,"▁сообщают":9811,"▁Коман":9812,"▁организ":9813,"▁скаж":9814,"▁Кав":9815,"стной":9816,"▁дальнейшем":9817,"▁56":9818,"▁iPh":9819,"▁забил":9820,"▁вокза":9821,"▁паль":9822,"лиза":9823,"▁декла":9824,"▁концерт":9825,"▁территория":9826,"▁причин":9827,"▁говоря,":9828,"ИЗ":9829,"▁Донецкой":9830,"пова":9831,"▁числен":9832,"▁Афри":9833,"▁отклю":9834,"лл":9835,"гон":9836,"▁площадью":9837,"▁привет":9838,"▁выигры":9839,"ковского":9840,"▁Ай":9841,"▁Казахстана":9842,"▁Игоря":9843,"▁состоялся":9844,"▁списке":9845,"-офф":9846,"▁разрешения":9847,"ьте":9848,"▁власти.":9849,"▁внешне":9850,"▁смысле":9851,"стая":9852,"▁направлен":9853,"▁МВ":9854,"доль":9855,"▁оказалось":9856,"дки":9857,"▁мужчин":9858,"▁соору":9859,"▁курса":9860,"▁ово":9861,"▁гривен":9862,"▁Inter":9863,"▁детских":9864,"купи":9865,"▁муль":9866,"▁3.":9867,"▁Или":9868,"▁выстре":9869,"▁получает":9870,"▁родители":9871,"▁обратиться":9872,"ome":9873,"▁предвыбор":9874,"тете":9875,"товой":9876,"▁присоедини":9877,"▁ребенок":9878,"дные":9879,"ss":9880,"лив":9881,"▁пересмо":9882,"▁израи":9883,"▁решением":9884,"▁мяг":9885,"▁потребитель":9886,"▁огра":9887,"-Н":9888,"▁ведущих":9889,"▁аген":9890,"ульта":9891,"▁шансы":9892,"▁третьем":9893,"▁41":9894,"▁бесс":9895,"▁четверть":9896,"жное":9897,"▁безопасности.":9898,"гну":9899,"сква":9900,"▁обвинение":9901,"▁Люди":9902,"▁заработ":9903,"▁полуго":9904,"ёт":9905,"▁угрозы":9906,"▁построен":9907,"▁стран.":9908,"послед":9909,"▁стране,":9910,"бю":9911,"▁наверное,":9912,"▁дочь":9913,"▁провока":9914,"▁место,":9915,"▁оценки":9916,"▁обеспечение":9917,"дем":9918,"▁Тра":9919,"▁сериа":9920,"▁Калинин":9921,"жа,":9922,"ционную":9923,"▁чере":9924,"▁1990":9925,"манов":9926,"▁Саудов":9927,"96":9928,"▁отмет":9929,"▁моде":9930,"pro":9931,"дев":9932,"рова,":9933,"ляции":9934,"▁армей":9935,"▁act":9936,"▁перевод":9937,"сист":9938,"▁визита":9939,"дов,":9940,"▁превышает":9941,"лиз":9942,"air":9943,"▁данного":9944,"▁Кузнец":9945,"▁едва":9946,"▁идея":9947,"▁экза":9948,"ниями":9949,"▁Фина":9950,"▁серьезно":9951,"гистра":9952,"▁считаю,":9953,"▁Российские":9954,"▁института":9955,"▁тебе":9956,"лений,":9957,"▁ФИ":9958,"▁Собя":9959,"▁выплаты":9960,"▁совершил":9961,"▁Екатерина":9962,"тель,":9963,"лове":9964,"▁57":9965,"▁хоккей":9966,"▁Стоимость":9967,"▁желание":9968,"▁суммы":9969,"▁Чеч":9970,"м\",":9971,"▁американский":9972,"стр":9973,"azazazaz":9974,"▁крупные":9975,"ign":9976,"нила":9977,"▁будто":9978,"ТР":9979,"▁Сво":9980,"ка:":9981,"itt":9982,"▁\"Лу":9983,"▁телеканал":9984,"шений,":9985,"▁тема":9986,"▁Иран":9987,"▁боевиков":9988,"▁попытки":9989,"▁Тро":9990,"▁яс":9991,"▁кандидата":9992,"▁тела":9993,"▁мои":9994,"згла":9995,"▁упла":9996,"▁экономических":9997,"▁внимания":9998,"▁день.":9999,"▁(7":10000,"жур":10001,"мского":10002,"▁американские":10003,"▁кризис":10004,"полу":10005,"mer":10006,"тори":10007,"▁лицо":10008,"ц.":10009,"▁руководителей":10010,"АД":10011,"▁федерации":10012,"▁врача":10013,"тыми":10014,":05":10015,"▁земли":10016,"лаб":10017,"▁взял":10018,"▁прояви":10019,"-с":10020,"▁экстрен":10021,"ru/":10022,"▁Института":10023,"филь":10024,"менед":10025,"ченко,":10026,"▁воспринима":10027,"▁какая":10028,"▁поступило":10029,"▁процента":10030,"▁министров":10031,"ДПР":10032,"▁оборудования":10033,"▁Федо":10034,"▁довер":10035,"▁дополнительных":10036,"▁заканчи":10037,"▁Мор":10038,"▁поражение":10039,"▁Нужно":10040,"32":10041,"читься":10042,"▁выросли":10043,"▁собственной":10044,"▁Sp":10045,"▁De":10046,"▁местах":10047,"▁25,":10048,"▁меньше,":10049,"▁Син":10050,"▁правильно":10051,"рового":10052,"ark":10053,"▁поражения":10054,"вается,":10055,"сай":10056,"▁доли":10057,"▁Греции":10058,"нительно":10059,"====":10060,"▁продоволь":10061,"▁Северо":10062,"▁розни":10063,"▁границу":10064,"ченной":10065,"▁кле":10066,":14":10067,"▁Бен":10068,"▁поставля":10069,"-2014":10070,"▁уде":10071,"▁успеха":10072,"мс":10073,"ould":10074,"▁воло":10075,"▁финала":10076,"▁журна":10077,"▁стрем":10078,"▁плей-офф":10079,"дером":10080,"▁выяви":10081,"▁хороший":10082,":17":10083,"o-":10084,"щают":10085,"▁фра":10086,"▁полномочий":10087,"▁Откры":10088,"▁Норве":10089,"▁Михай":10090,"▁испа":10091,"зок":10092,"▁проявля":10093,"▁64":10094,"▁Сначала":10095,"▁стороне":10096,"з,":10097,"комму":10098,"▁And":10099,"▁Ио":10100,"зах":10101,"▁58":10102,"▁Бор":10103,"▁народа":10104,"▁Люд":10105,"рного":10106,"▁стимули":10107,"сии":10108,"▁\"От":10109,"=http://":10110,"▁опаса":10111,"жом":10112,"▁отличи":10113,"эк":10114,"ём":10115,"▁отста":10116,"▁ЧП":10117,"▁Эль":10118,"ount":10119,"▁Юлия":10120,"▁поэ":10121,"▁больших":10122,"▁Великой":10123,"▁значения":10124,"▁фар":10125,"▁премьер-министра":10126,"жа.":10127,"▁пен":10128,"▁Сно":10129,"тиви":10130,"▁Благодаря":10131,"▁Фо":10132,"▁охраны":10133,"▁аэропорт":10134,"▁плане":10135,"▁источники":10136,"▁―":10137,"▁85":10138,"▁чиновники":10139,"▁МО":10140,"▁интегра":10141,"▁has":10142,"▁применения":10143,"▁отметили":10144,"▁Ван":10145,"▁предусматривает":10146,"▁армя":10147,"▁пользователей":10148,"▁уточня":10149,"везда":10150,"я\"":10151,"uc":10152,"потреб":10153,"▁ждут":10154,"▁обсуждения":10155,"▁Большо":10156,"▁Украину":10157,"▁проверку":10158,"▁действие":10159,"▁организации,":10160,"▁Наша":10161,"▁имущества":10162,"КС":10163,":25":10164,"▁Уи":10165,"▁могло":10166,"▁задей":10167,"рик":10168,"▁Результа":10169,"y.":10170,"▁реклам":10171,"▁Светлана":10172,"деб":10173,"▁Пресс-":10174,"▁Анто":10175,"▁Сирии.":10176,"образи":10177,"▁отлича":10178,"сы.":10179,"▁противодей":10180,"▁пограни":10181,"льянов":10182,"▁минуте":10183,"▁границе":10184,"ляются":10185,"▁активов":10186,"+0":10187,"▁бассей":10188,"▁Краснояр":10189,"▁русского":10190,"▁(и":10191,"▁заключи":10192,"▁Универси":10193,"▁затя":10194,"▁материалов":10195,"▁полтора":10196,"▁лож":10197,"▁открыто":10198,"▁обращение":10199,"▁опере":10200,"▁Програм":10201,"нав":10202,"▁мате":10203,"▁фин":10204,"бернатор":10205,"▁сердце":10206,"▁2003":10207,"▁сражение":10208,"▁размещен":10209,"▁размещения":10210,"пустил":10211,"▁прос":10212,"▁законом":10213,"▁начались":10214,"▁моя":10215,"▁блю":10216,"▁Уголов":10217,"▁Отмечается,":10218,"▁построить":10219,"▁нав":10220,"▁Мака":10221,"▁Обра":10222,"▁начинает":10223,"▁результатов":10224,"▁поставок":10225,"▁ожидается":10226,"▁озву":10227,"▁800":10228,"▁петербург":10229,"▁стоят":10230,"ционеров":10231,"▁Лебе":10232,"▁несо":10233,"▁медицинской":10234,"серви":10235,"▁фо":10236,"кета":10237,"▁назвали":10238,"▁\"и":10239,"/d":10240,"▁дважды":10241,"▁sa":10242,"▁проспек":10243,"▁\"Если":10244,"т-":10245,"▁Встре":10246,"анчестер":10247,"слава":10248,"ус":10249,"ряс":10250,"ua":10251,"▁налогов":10252,"▁кем":10253,"▁раз,":10254,"▁церемонии":10255,"▁небольшой":10256,"екси":10257,"▁регулярно":10258,"▁государства,":10259,"▁налого":10260,"вающих":10261,"чали":10262,"▁состоянию":10263,"▁писал":10264,"▁Государственной":10265,"▁мел":10266,"▁участок":10267,"▁десятилети":10268,"А.":10269,":13":10270,"ation:":10271,"▁прино":10272,"▁сало":10273,"▁Просто":10274,"▁выходи":10275,"▁возраста":10276,"▁Владивосто":10277,"▁претенден":10278,"долго":10279,"▁продукты":10280,"▁понрави":10281,"▁любви":10282,"▁инженер":10283,"▁дипломатиче":10284,"-Ка":10285,"▁(Вер":10286,"▁доллара":10287,"▁Бара":10288,"▁генерального":10289,"▁Мерке":10290,"▁Пен":10291,"▁провинции":10292,"▁землю":10293,".12":10294,"кл":10295,"▁двер":10296,"▁мужчины":10297,"▁длин":10298,"▁христи":10299,"▁террориз":10300,"▁сайта":10301,"▁запол":10302,"▁задержаны":10303,"бря":10304,"смена":10305,"▁частных":10306,"▁профсо":10307,"▁жесто":10308,"ностью.":10309,"▁проду":10310,"▁дело,":10311,"▁место.":10312,"▁лучший":10313,"▁мечта":10314,"ченко.":10315,"ждая":10316,"расно":10317,"▁разобра":10318,"ису":10319,"рила":10320,"▁воздух":10321,"▁исправи":10322,"жки":10323,"коле":10324,"пок":10325,"▁примут":10326,"щика":10327,"▁Ниже":10328,"▁цене":10329,"▁обследова":10330,"ленным":10331,"▁привати":10332,"▁Свердлов":10333,"дила":10334,"▁представить":10335,"▁СМИ.":10336,"▁психи":10337,"▁электронной":10338,"▁крайней":10339,"АГ":10340,":23":10341,"▁востоке":10342,"▁отме":10343,"▁месту":10344,"ведений":10345,"▁Спи":10346,"▁Ставропо":10347,"▁каком":10348,"ны\"":10349,"▁Беларусь":10350,"▁посмотреть":10351,"хова":10352,"▁счету":10353,"▁происходя":10354,"▁поступ":10355,"▁расту":10356,"▁школе":10357,"▁сотрудниками":10358,":16":10359,"▁недоволь":10360,"▁поздрави":10361,"org/":10362,"▁начался":10363,"ах":10364,"▁попол":10365,"▁сей":10366,"▁забро":10367,"▁вице-премьер":10368,"▁отвер":10369,":19":10370,"▁\"Го":10371,"▁нужен":10372,"▁фотографии":10373,"\":\"":10374,"▁предлагается":10375,"вторы":10376,"▁Юрия":10377,"▁никакой":10378,"ламент":10379,"▁\"Спартак\"":10380,"▁планиру":10381,"▁упал":10382,"▁will":10383,"▁подразделения":10384,"товых":10385,"бя,":10386,"▁празднова":10387,"31":10388,"▁Народ":10389,"последствии":10390,"лограм":10391,"люби":10392,"ных.":10393,"▁снизить":10394,"скетбо":10395,"▁картин":10396,"новения":10397,"рите":10398,"▁капитала":10399,"▁Ex":10400,"▁сельского":10401,"▁премьер-ли":10402,"▁обез":10403,"▁прокуратура":10404,"/2009":10405,"льва":10406,"▁непосредственно":10407,"▁????":10408,"альное":10409,"▁вывод":10410,"land":10411,"рва":10412,"▁постепенно":10413,".2017":10414,"лу,":10415,"▁либера":10416,"▁факт,":10417,"▁контак":10418,"▁доходы":10419,"▁слыша":10420,"▁перечис":10421,"▁Белоруссии":10422,"МВД":10423,"▁поддерживает":10424,"▁Участники":10425,"ung":10426,"▁допро":10427,"ковые":10428,"▁Том":10429,"лова,":10430,"диа":10431,"▁соответствует":10432,"▁Опубликовано":10433,"▁злоумышлен":10434,"▁Бур":10435,"зан":10436,"мся":10437,"РО":10438,"▁общество":10439,"▁вд":10440,"фера":10441,"За":10442,"▁давление":10443,"▁спраши":10444,"▁ужесто":10445,"городской":10446,"ire":10447,"ating":10448,"▁2005,":10449,"▁направлены":10450,"▁продолжать":10451,"▁строго":10452,"мета":10453,"▁Wed":10454,"р\"":10455,"▁украинские":10456,"▁(Версия":10457,"надо":10458,"▁разрабаты":10459,"▁следствия":10460,"▁занял":10461,"▁выиграл":10462,"▁Агент":10463,"▁Алта":10464,"дон":10465,"ллер":10466,"ню,":10467,"▁тща":10468,"▁потери":10469,"▁трево":10470,"▁Версия":10471,"▁пообещал":10472,"▁нынешнем":10473,"o,":10474,"дает":10475,"▁эксперт.":10476,"▁живут":10477,"▁международный":10478,"▁вероятно,":10479,"▁кабинет":10480,"▁эми":10481,":21":10482,"дных":10483,"▁театр":10484,"рья":10485,"▁<<<":10486,"▁Хан":10487,"▁\"до":10488,"▁фестиваль":10489,"ллет":10490,"▁\"Бе":10491,"щем,":10492,"ьков":10493,"▁Проект":10494,"▁мире.":10495,"гин":10496,"▁пережи":10497,"▁списка":10498,"▁\"Аль":10499,"гресс":10500,"вос":10501,"▁пособ":10502,"▁тяж":10503,"▁обозна":10504,"развития":10505,"зой":10506,"▁отмечает,":10507,"▁книги":10508,"▁интересу":10509,":18":10510,"тово":10511,"▁группировки":10512,"▁победа":10513,"▁финансового":10514,"▁имена":10515,"▁расстоя":10516,"▁трлн":10517,"▁велоси":10518,"▁Чехи":10519,"-2012,":10520,"-Р":10521,"▁напряжен":10522,"коль":10523,"▁обжа":10524,"▁ежегодно":10525,"зю":10526,"MT":10527,"▁лучшим":10528,"▁times":10529,"▁Адвока":10530,"▁профила":10531,"▁Строи":10532,"▁машина":10533,"97":10534,"снаб":10535,"▁взяли":10536,"▁финансирование":10537,"▁моно":10538,"▁Петра":10539,"▁хоккеи":10540,"▁объясняет":10541,"▁безопасности,":10542,"▁Василий":10543,"▁врачи":10544,"▁убийство":10545,"▁журналист":10546,"▁ОП":10547,"▁получение":10548,"дап":10549,"▁Зу":10550,"▁фикси":10551,"вейцар":10552,"▁покинуть":10553,"▁(Ро":10554,"ФО":10555,"толог":10556,"▁La":10557,"▁вооруженных":10558,"ри.":10559,"▁плюс":10560,"▁Игра":10561,"▁Специали":10562,"▁сентября.":10563,"▁полиции.":10564,"▁(Новый":10565,"▁причины":10566,"▁финансовые":10567,"ена,":10568,"▁неприят":10569,"ба.":10570,"▁голосов":10571,"▁вынуждены":10572,"▁ведомство":10573,"▁\"Зенита\"":10574,"▁коррек":10575,"▁(за":10576,"▁расти":10577,"тивную":10578,"главы":10579,"▁Sh":10580,"▁дорого":10581,"▁Сав":10582,"ка\",":10583,"▁бом":10584,"▁однако,":10585,"▁канала":10586,"ons":10587,"▁всё":10588,"летряс":10589,"▁устройства":10590,":35":10591,"▁опер":10592,"▁up":10593,"▁перен":10594,"▁сына":10595,":01":10596,"▁отказались":10597,"tr":10598,"▁Польши":10599,"▁Большинство":10600,"index":10601,"фан":10602,"▁ведомства.":10603,"▁сюжет":10604,"▁Европы.":10605,"бы.":10606,"▁имел":10607,"кин.":10608,"▁смени":10609,"▁ЛДПР":10610,"▁мете":10611,"▁официального":10612,"▁конста":10613,":0.":10614,"▁Коло":10615,"▁оправда":10616,"▁массовых":10617,"▁певи":10618,"▁исти":10619,"▁немед":10620,"▁экспертов,":10621,"▁проблему":10622,"▁хватает":10623,"▁температуры":10624,"▁адресу":10625,"сная":10626,"▁собрания":10627,"▁запуска":10628,"▁Russ":10629,"▁уполномо":10630,"▁Лавров":10631,"суэ":10632,"▁намерена":10633,"▁52":10634,"пя":10635,"▁справедливо":10636,"фу":10637,"▁вернулся":10638,"▁заключается":10639,"▁Украине.":10640,"y,":10641,"домо":10642,"▁остальных":10643,"▁торговых":10644,"▁твер":10645,"▁ЧМ":10646,"▁требуют":10647,"▁расход":10648,"log":10649,"▁откро":10650,"▁Исто":10651,"ленная":10652,"▁обоснова":10653,"ствовала":10654,"▁музея":10655,"▁знаком":10656,"▁пункт":10657,"▁родился":10658,"▁показать":10659,":32":10660,"▁рассмотрение":10661,"сл":10662,"тно.":10663,"▁нападения":10664,"тинг":10665,"▁ситуации,":10666,"▁сотрудничестве":10667,"▁положения":10668,"▁Олега":10669,"▁окон":10670,"▁2001":10671,"▁какую":10672,"б,":10673,"▁выбро":10674,"▁крат":10675,"леты":10676,"▁будет.":10677,"▁Добав":10678,"▁поддержать":10679,"▁частности":10680,"▁собственности":10681,"▁ще":10682,"▁кол":10683,"▁гендиректор":10684,"▁Предполага":10685,"oe":10686,"▁исполнения":10687,"эффек":10688,"▁коллекти":10689,"▁51":10690,"▁каф":10691,"▁команды.":10692,"▁Неизвестное":10693,"▁городских":10694,"▁es":10695,"▁профессиона":10696,"▁Нидер":10697,"▁перекры":10698,"41":10699,"ющейся":10700,"-Ф":10701,"ич,":10702,"▁съем":10703,"▁небе":10704,"▁\"Русс":10705,"▁помни":10706,"▁кредитова":10707,"▁Дар":10708,"▁дохода":10709,"▁ТВ":10710,"▁фаль":10711,"FA":10712,"▁марта,":10713,"▁заключение":10714,"▁главу":10715,"▁Лидер":10716,"▁защиту":10717,"▁там,":10718,"НК":10719,"щё":10720,"▁брази":10721,"▁подход":10722,"▁уйти":10723,"жая":10724,"зы.":10725,"▁двусторон":10726,"▁подзем":10727,"▁управлении":10728,"▁управлением":10729,"▁долга":10730,"▁говорили":10731,"▁сопротив":10732,"кового":10733,"▁безопасность":10734,"▁проводят":10735,"▁бомбарди":10736,"▁лучшие":10737,"▁Мосгор":10738,"▁лице":10739,"▁або":10740,"▁разреши":10741,"ного,":10742,"▁срока":10743,"вторых,":10744,"▁пропаган":10745,"▁света":10746,"▁поклон":10747,"▁Оп":10748,"▁Национального":10749,"нными":10750,"▁дают":10751,"▁такси":10752,"▁здании":10753,"льно,":10754,"▁целый":10755,"надзор":10756,"▁Ответ":10757,"▁Киева":10758,"▁выбрать":10759,"▁файла":10760,"▁руках":10761,"▁(00:01":10762,":06":10763,"лку":10764,"▁Ию":10765,"▁переме":10766,",5%":10767,"▁начнет":10768,"▁вкла":10769,"▁Твер":10770,"▁пья":10771,"▁Location:":10772,"▁Комитета":10773,"▁времена":10774,"▁оружие":10775,"▁Генпрокура":10776,"▁политического":10777,"▁двой":10778,"▁доступа":10779,"▁коллеги":10780,"▁Хор":10781,"▁поль":10782,"то,":10783,"▁Pro":10784,"пелля":10785,"технологи":10786,"▁любые":10787,"▁Ци":10788,"▁семье":10789,"▁мировых":10790,"ЕР":10791,"▁реабили":10792,"▁\"То":10793,"▁отметила":10794,"▁Сент":10795,"стребова":10796,"▁\"Барсело":10797,"▁Кру":10798,"▁карто":10799,"вии":10800,"▁пони":10801,"▁поставить":10802,"-би-си":10803,"▁сиг":10804,"▁безрабо":10805,"▁утвержден":10806,"▁НОВ":10807,"yr":10808,"жается":10809,"7.":10810,"▁КНР":10811,"▁сан":10812,":22":10813,"графии":10814,"▁Сообща":10815,"▁предприятие":10816,"▁обратились":10817,"▁Mic":10818,"▁показатели":10819,"▁рекомендова":10820,"▁Сбор":10821,"▁матчах":10822,"▁акте":10823,"▁ведут":10824,"▁большого":10825,"▁представлены":10826,"▁сертифика":10827,"▁Бел":10828,"▁Около":10829,"▁любого":10830,"ah":10831,"▁шла":10832,"▁отмени":10833,"▁очереди":10834,"85":10835,"▁атмосфер":10836,"▁иран":10837,"▁искусства":10838,"▁государственный":10839,"▁Наза":10840,"▁700":10841,"▁москви":10842,"▁социально-":10843,"▁использованием":10844,"cl":10845,"▁дела,":10846,"ссию":10847,"▁Ерева":10848,"▁слы":10849,"▁Сиби":10850,"▁туристов":10851,"▁реализу":10852,"▁падение":10853,"▁Олимпийских":10854,"▁средней":10855,"▁благодар":10856,"▁кандидат":10857,"/06":10858,":26":10859,"▁закону":10860,"▁правительстве":10861,"▁Господин":10862,":31":10863,"▁кстати,":10864,"▁взаим":10865,"▁Сирии,":10866,"ink":10867,"▁содержание":10868,"зви":10869,"▁бюджетных":10870,"▁Максима":10871,"▁полномочия":10872,"▁ребята":10873,"▁возможностей":10874,"▁выполнения":10875,"▁отобра":10876,"▁Feb":10877,"▁Интерфак":10878,"▁обучения":10879,"▁Нау":10880,"▁\"Анжи":10881,"нула":10882,"▁столкновения":10883,"▁связаны":10884,"▁матчи":10885,"диться":10886,"▁единственный":10887,"-при":10888,"▁сухо":10889,"▁топ-":10890,"ллан":10891,"LL":10892,".11":10893,"▁\"Известиям\"":10894,"сональ":10895,"▁cap":10896,"▁довери":10897,"▁Br":10898,"▁роман":10899,"▁мая,":10900,"писи":10901,"▁игроки":10902,"▁креп":10903,"жим":10904,"-по":10905,"▁Позже":10906,"▁66":10907,"▁пиш":10908,":04":10909,"▁премьера":10910,"▁упро":10911,":28":10912,"▁рабочей":10913,"▁научно-":10914,"▁здоровь":10915,"▁ожидается,":10916,"▁трудо":10917,"▁предприниматель":10918,"▁Pl":10919,".13":10920,".:":10921,"▁мото":10922,"зрева":10923,"тю":10924,"▁напа":10925,"▁входя":10926,"▁грамо":10927,"▁принципи":10928,"▁Иису":10929,"▁видеть":10930,"▁очков":10931,"▁приготов":10932,"▁колон":10933,"тье":10934,"▁соревнования":10935,"▁\"Ра":10936,"▁такими":10937,"▁Кре":10938,"▁Федеральной":10939,"сомо":10940,"нулся":10941,"▁ход":10942,":55":10943,"▁Созда":10944,"▁утверждает,":10945,"▁смотри":10946,"▁десятков":10947,":33":10948,"▁ex":10949,"дея":10950,"▁Банка":10951,"йтесь":10952,"▁Навального":10953,"▁Европу":10954,"▁повлия":10955,"________":10956,"чивать":10957,"▁сути,":10958,"ань":10959,"обо":10960,"▁россияне":10961,"▁текущем":10962,"▁Учены":10963,"▁смотре":10964,"▁Высо":10965,"▁Регион,":10966,"▁считать":10967,"▁совершении":10968,"▁половины":10969,"▁Sk":10970,"▁федеральных":10971,"edia":10972,"▁следующего":10973,"▁деньги.":10974,"▁выставки":10975,"▁охва":10976,"▁Ожида":10977,"▁половине":10978,"▁полноцен":10979,"т\",":10980,"▁паро":10981,"бар":10982,"дии,":10983,"▁портал":10984,"▁третьего":10985,"лизова":10986,"▁них,":10987,"рена":10988,"/16":10989,"▁10%":10990,"▁возможных":10991,"▁акция":10992,"▁ликвидации":10993,"▁гар":10994,"▁большей":10995,"део":10996,"▁работода":10997,"▁одни":10998,"▁учета":10999,"▁местной":11000,"▁осозна":11001,"▁правда,":11002,"обходи":11003,"▁кадров":11004,"▁которые,":11005,"▁оборудование":11006,"▁заме":11007,"▁отмечают,":11008,"▁мая.":11009,"ляться":11010,"▁Таи":11011,"▁максиму":11012,"▁гражданской":11013,"▁писто":11014,"знен":11015,"тория":11016,"▁XX":11017,"▁Несколько":11018,"ASE":11019,"шина":11020,"▁Президента":11021,"▁Дирек":11022,"ти.":11023,"▁высокий":11024,":36":11025,"▁95":11026,"▁относится":11027,"▁вторы":11028,"▁отре":11029,"▁большинстве":11030,"бить":11031,"▁будущее":11032,"▁правоохрани":11033,"▁сомне":11034,"▁зло":11035,"▁соотно":11036,"uro":11037,"изнес":11038,"ментом":11039,"▁Гран":11040,"▁компанию":11041,"▁политику":11042,"▁пунктов":11043,":0,":11044,"▁т.д.":11045,"▁следствие":11046,"жат":11047,"▁Сар":11048,"▁организаций,":11049,"▁который,":11050,"▁шанс":11051,"▁правительства.":11052,"▁ведется":11053,"▁взор":11054,"rans":11055,"▁д.":11056,"▁проходить":11057,"▁земля":11058,"▁науки":11059,"▁заку":11060,":24":11061,"▁герои":11062,"▁говорится,":11063,"▁Артем":11064,"▁презента":11065,"▁преврати":11066,"▁политические":11067,"щина":11068,"▁мысли":11069,"▁Московского":11070,"ума":11071,"▁сентября,":11072,"▁конфи":11073,"▁пятницу,":11074,"▁Доку":11075,"▁пойти":11076,"▁осво":11077,"▁\"Манчестер":11078,"▁Ассоциа":11079,"▁С.":11080,"▁адап":11081,"▁заказа":11082,"▁коллектив":11083,"рный":11084,"ays":11085,"льян":11086,"▁международным":11087,"▁hor":11088,"-m":11089,"▁предпочита":11090,"34":11091,"▁многом":11092,"▁импорт":11093,"ens":11094,"▁противопо":11095,"▁Ника":11096,"▁огне":11097,"инг":11098,"▁изви":11099,"▁Захар":11100,"▁задачи":11101,"▁улы":11102,"▁дистан":11103,"работать":11104,"▁волон":11105,"▁километров":11106,"▁страхов":11107,"▁сократить":11108,"▁Свобо":11109,"▁Стани":11110,"▁октября.":11111,"имен":11112,"стской":11113,"▁Было":11114,"▁охран":11115,"▁Саака":11116,"эм":11117,"террори":11118,"▁Ему":11119,"рим":11120,"▁многое":11121,"▁Ска":11122,"жели":11123,"▁мемо":11124,"▁медицинских":11125,"голь":11126,"▁долги":11127,"▁\"Авто":11128,"▁врач":11129,"▁слабы":11130,"чают":11131,"су,":11132,"ложил":11133,"▁днях":11134,":37":11135,"▁прилож":11136,"жья":11137,"ехали":11138,"мит":11139,"▁Какие":11140,"▁Зато":11141,"фек":11142,"▁оценке":11143,"▁Больше":11144,"▁вашего":11145,"бре":11146,"▁дней.":11147,"▁Геннадий":11148,"▁находиться":11149,"▁Соответству":11150,"▁соглас":11151,"▁Bl":11152,"▁депози":11153,":53":11154,"▁марта.":11155,"ение.":11156,"▁обнарод":11157,"▁современных":11158,"жин":11159,"▁собственных":11160,"▁Sat":11161,"жения,":11162,"лили":11163,"▁районов":11164,"▁общий":11165,"▁гг.":11166,"▁весе":11167,"▁взно":11168,"▁сердца":11169,"▁подар":11170,":07":11171,"▁октября,":11172,"▁решать":11173,"нения,":11174,"▁килограм":11175,"▁интересов":11176,"▁побере":11177,"▁приведет":11178,"▁объяс":11179,"▁Вадим":11180,":44":11181,"▁термина":11182,"▁сверх":11183,"▁нас,":11184,"▁сотрудника":11185,"atch":11186,"▁символи":11187,"берг":11188,"▁Болгарии":11189,"▁возгора":11190,"▁развитии":11191,"▁турнир":11192,"ild":11193,"▁рен":11194,"▁внести":11195,"▁Един":11196,"▁привез":11197,"ЕН":11198,"▁Владимиром":11199,"с)":11200,"▁54":11201,"женный":11202,"чеб":11203,"▁man":11204,"две":11205,"ен.":11206,"▁подмосков":11207,"дов.":11208,"▁*":11209,":41":11210,"ционным":11211,"▁озе":11212,"ссов":11213,"▁признан":11214,"▁Международного":11215,"▁перемен":11216,"центр":11217,":27":11218,"тами.":11219,"▁м.":11220,"-под":11221,"▁мэр":11222,"▁Мекси":11223,"▁кафе":11224,"▁участка":11225,"▁пойдет":11226,"▁кори":11227,"▁требуется":11228,"▁спрос":11229,"▁брат":11230,"▁достоин":11231,"▁For":11232,"▁террористической":11233,"▁атом":11234,"▁Барнау":11235,"▁познакоми":11236,"тило":11237,"ipe":11238,"▁ушел":11239,"ск.":11240,":03":11241,"▁костю":11242,"▁самоуправ":11243,"▁участков":11244,"▁уверены,":11245,"▁увелич":11246,"альная":11247,"лево":11248,"▁заблоки":11249,"▁секретарь":11250,"жность":11251,"****":11252,"▁известных":11253,"▁планах":11254,"▁метров.":11255,"▁Грузи":11256,"▁Украине,":11257,"▁откуда":11258,"/8":11259,"ского.":11260,"▁упра":11261,":59":11262,"▁экономике":11263,"▁возраст":11264,"▁намного":11265,":29":11266,"нское":11267,":49":11268,"▁нужна":11269,"▁вашей":11270,"ровая":11271,"американ":11272,"▁участке":11273,"▁экспертов":11274,"▁знает":11275,"▁(до":11276,"каче":11277,"ПП":11278,"чено,":11279,"спотреб":11280,"▁стадиона":11281,"▁истре":11282,"▁Верховной":11283,"▁бывает":11284,"▁леги":11285,"▁села":11286,"▁успех":11287,"▁Тюмен":11288,"▁Анаста":11289,"▁травмы":11290,"-бе":11291,"печа":11292,"▁хотим":11293,"▁среду,":11294,"редни":11295,":39":11296,"▁болельщиков":11297,"▁передать":11298,"▁Брюссе":11299,"редото":11300,"мите":11301,"жили":11302,"▁перенес":11303,"ech":11304,"▁ракеты":11305,"▁ислами":11306,"▁Отечественной":11307,"▁оставить":11308,"erc":11309,"▁фанта":11310,"▁начинается":11311,"er.":11312,"▁понедельник,":11313,"▁сты":11314,"▁странами":11315,"▁принимает":11316,"▁смотреть":11317,"▁составили":11318,"тическая":11319,"ью.":11320,"▁Неда":11321,":58":11322,"▁стадии":11323,"▁оригина":11324,"▁производителей":11325,"▁буты":11326,"▁общественной":11327,"лится":11328,"▁сейчас,":11329,":34":11330,"▁can":11331,"▁Вз":11332,"▁УФ":11333,":08":11334,"▁выступили":11335,"▁открыл":11336,"▁зал":11337,"ллю":11338,"хам":11339,"▁трениров":11340,"▁баскетбо":11341,"▁студентов":11342,"шкин":11343,"▁ответил":11344,":51":11345,"▁поддерживать":11346,"дство":11347,"▁бабу":11348,"ко\"":11349,"▁РС":11350,"нова.":11351,"-де":11352,"▁повысить":11353,"▁Зи":11354,"▁начиная":11355,"оти":11356,"ях,":11357,"▁современной":11358,"▁чему":11359,"▁\"от":11360,"▁клубе":11361,"гности":11362,"▁поселке":11363,"▁мать":11364,"▁помогает":11365,"▁старший":11366,"▁ждать":11367,"▁точка":11368,"▁юго-восто":11369,"гран":11370,"▁подопе":11371,"▁вен":11372,"ью,":11373,"▁работали":11374,"▁Произ":11375,"жье":11376,"▁утверждают,":11377,"▁эксперт":11378,"цева":11379,"▁or":11380,"▁решении":11381,"▁создавать":11382,"/10":11383,"▁созданию":11384,"▁скоростью":11385,"▁портфе":11386,"▁третье":11387,"▁праздник":11388,"▁2002":11389,"ыми":11390,"▁запрос":11391,"▁проекте":11392,"▁объекты":11393,"▁судей":11394,"▁Поб":11395,"▁останови":11396,"▁прозра":11397,"▁остаться":11398,"лести":11399,"▁пресечения":11400,"e.com":11401,"/forum/":11402,":02":11403,"▁кара":11404,"▁трой":11405,"▁Кли":11406,"ЭК":11407,"▁стадионе":11408,"▁59":11409,"▁карты":11410,"▁большинства":11411,"▁ров":11412,"▁валю":11413,"▁Роспотреб":11414,"▁инвесторов":11415,"▁сбы":11416,"▁Тол":11417,"ge":11418,"▁Фак":11419,"▁выполнять":11420,"▁столичного":11421,"Ru":11422,"стаф":11423,"чин":11424,"▁другое":11425,"▁сыграть":11426,"▁ЕГ":11427,"маш":11428,"▁другую":11429,"▁(00:04":11430,"▁осенью":11431,"▁расстре":11432,"game":11433,"▁комбина":11434,"▁iPhone":11435,"▁форвард":11436,"▁социального":11437,"▁ФИФА":11438,"▁принципе":11439,"елси":11440,"мбле":11441,"▁следующей":11442,"▁записи":11443,"▁Двор":11444,"▁автоном":11445,"▁персональ":11446,"▁Серби":11447,":09":11448,"▁может,":11449,"▁квартире":11450,"▁выйдет":11451,"▁строительстве":11452,"▁испан":11453,"мия":11454,"▁Эн":11455,"▁Ирана":11456,"▁набира":11457,"никах":11458,"▁сокращение":11459,"▁биат":11460,"-летней":11461,"▁подал":11462,"▁телеви":11463,"▁\"при":11464,"▁возвраща":11465,"АМ":11466,"▁инфек":11467,"ловые":11468,"▁фильме":11469,"руются":11470,"ят,":11471,"9/201":11472,"боры":11473,"▁Напада":11474,"▁about":11475,"нит":11476,"нц":11477,"здоров":11478,"▁наоборо":11479,"▁общем":11480,"▁профессор":11481,"▁67":11482,"дика":11483,"▁прекратить":11484,"▁лай":11485,"▁родителей":11486,"ИЛ":11487,"атра":11488,"шке":11489,"▁обязательств":11490,"▁опусти":11491,"▁показали":11492,"▁форума":11493,"▁Последний":11494,"з.":11495,"▁Ря":11496,"▁населенных":11497,"/f":11498,"▁Лен":11499,"нома":11500,"▁эвакуа":11501,"▁53":11502,"▁ца":11503,"▁напомнил,":11504,"единения":11505,"▁визит":11506,"▁народного":11507,":38":11508,"▁ноября,":11509,"▁Во-первых,":11510,"▁сочета":11511,"▁объяснил":11512,"▁пом":11513,"▁например":11514,"▁остави":11515,"▁ФАС":11516,"лями":11517,"▁ВС":11518,"А,":11519,"▁собираются":11520,"▁воин":11521,"▁частично":11522,"����":11523,"▁\"Тран":11524,"▁службе":11525,"▁замед":11526,"▁Следу":11527,"торов.":11528,"▁введения":11529,"▁накоп":11530,"днестров":11531,"▁играл":11532,"▁Международный":11533,"ствия,":11534,"▁жена":11535,"▁зарубежных":11536,"▁100%":11537,"▁месте.":11538,"▁Первая":11539,"▁уте":11540,"леном":11541,"ул":11542,"частую":11543,"слан":11544,"няка":11545,"▁относятся":11546,"свя":11547,":46":11548,"▁началось":11549,"хождение":11550,"▁Плю":11551,"▁Нико":11552,"▁::":11553,"▁ограничен":11554,"ступление":11555,"▁Кады":11556,"▁Октябрь":11557,"ведены":11558,"▁СИЗ":11559,"▁Джор":11560,"нуться":11561,"▁сказал:":11562,"леку":11563,"▁временно":11564,"▁где-то":11565,"rosoft":11566,"▁Cl":11567,"▁предъяви":11568,"▁Расс":11569,"▁Европы,":11570,"▁веществ":11571,"▁мусульман":11572,"▁Наши":11573,"▁стоимостью":11574,"▁вызов":11575,":56":11576,"▁Другие":11577,"▁АиФ":11578,"▁спортивных":11579,"щиеся":11580,"▁журнала":11581,"▁машину":11582,"дении":11583,"▁Примо":11584,"▁прекрасно":11585,"▁откло":11586,"▁Вопрос":11587,"▁РЖД":11588,"▁цар":11589,"АТ":11590,"стова":11591,"пети":11592,"-12":11593,"ks":11594,"ж.":11595,"▁источников":11596,"▁правительства,":11597,"▁присво":11598,"▁малого":11599,"сим":11600,"▁возмож":11601,"мяг":11602,"▁Особенно":11603,"▁ряде":11604,"ток.":11605,"▁приобрести":11606,"▁некоторое":11607,"ль\"":11608,"те\"":11609,"▁Le":11610,"▁весной":11611,":52":11612,"▁Тихо":11613,"▁блок":11614,"▁Ближ":11615,":43":11616,"▁Путин.":11617,"▁добычи":11618,"▁муниципали":11619,"▁заем":11620,":47":11621,"▁выясня":11622,"\"...":11623,"▁судом":11624,"▁худ":11625,"▁(а":11626,"ве.":11627,"▁ура":11628,"▁регулярного":11629,"▁указ":11630,"▁единиц":11631,"▁out":11632,"▁состоялось":11633,"p=":11634,"ina":11635,"турой":11636,"▁\"Спартака\"":11637,"▁продю":11638,"▁«У":11639,"▁градо":11640,"летний":11641,"▁имели":11642,"ево":11643,"▁Людми":11644,"er,":11645,"▁зачем":11646,"▁блока":11647,"▁Венесуэ":11648,"▁президентских":11649,"▁Саха":11650,"▁оказаться":11651,"arm":11652,"▁ссыла":11653,"▁подготовку":11654,"▁подви":11655,"шку":11656,"▁us":11657,"▁апреля.":11658,"▁публикации":11659,"▁денежных":11660,"фей":11661,"▁приме":11662,"▁Патри":11663,"▁текст":11664,"▁гимна":11665,"▁хотелось":11666,"ски.":11667,"▁гер.,":11668,"5.":11669,"▁апреля,":11670,":42":11671,"▁обсудили":11672,"▁составляют":11673,"▁ноября.":11674,"ждать":11675,"▁принимают":11676,"▁продолжить":11677,"▁Би-би-си":11678,"▁Премьер-министр":11679,"▁резиден":11680,"▁впло":11681,"ital":11682,"▁ориенти":11683,"▁ЦИК":11684,"▁Постоян":11685,"тку":11686,"▁склады":11687,"▁данному":11688,"t=":11689,"▁«Е":11690,"▁включает":11691,"▁выходные":11692,"▁индекс":11693,"▁бит":11694,"▁November":11695,"вероят":11696,"ве,":11697,"▁усы":11698,"▁Петербурга":11699,"▁Нет,":11700,"▁питания":11701,"▁участии":11702,"▁(00:05":11703,"▁ресурсов":11704,"▁штра":11705,"▁Спорт":11706,"▁окружающей":11707,"ждением":11708,"▁девяти":11709,"цкого":11710,":48":11711,"▁сосредото":11712,"▁ваши":11713,"▁набере":11714,"▁школа":11715,"▁мин":11716,"та\",":11717,"▁стабили":11718,"▁разрешение":11719,"▁решила":11720,"соли":11721,"▁российскими":11722,"▁Зак":11723,"▁парамет":11724,"▁Миро":11725,"▁Волгогра":11726,"люб":11727,"леть":11728,"▁Европейского":11729,"▁детского":11730,"▁Встреча":11731,"▁России\",":11732,"▁Жур":11733,"с-":11734,"▁командой":11735,"▁пище":11736,"▁идею":11737,"▁Воору":11738,"тели.":11739,"▁администрация":11740,"▁больше.":11741,"▁дале":11742,"склю":11743,"льф":11744,"▁долларов,":11745,"Газ":11746,"▁версия":11747,"▁разда":11748,"мнисти":11749,"экономразвития":11750,"рации":11751,"▁бирже":11752,"▁рассу":11753,"ный.":11754,"бен":11755,"▁вопросы,":11756,"нием,":11757,"▁правительству":11758,"▁сувер":11759,"▁хорошие":11760,"▁изначально":11761,"▁зу":11762,"▁лау":11763,"ллу":11764,"▁куп":11765,"сы:":11766,"лял":11767,"крепи":11768,"рные":11769,"цова":11770,"▁предпоч":11771,"▁экспорта":11772,"▁функциони":11773,"▁размести":11774,"ЕФА":11775,"жие":11776,"зу,":11777,"▁землетряс":11778,"▁формирования":11779,"▁Владимиру":11780,"▁штур":11781,"td":11782,"▁добав":11783,"▁современного":11784,"-f":11785,"▁Закон":11786,"▁Жан":11787,"плы":11788,"▁Германии,":11789,"феропо":11790,"▁соответствующие":11791,"▁веб-":11792,"▁\"Росте":11793,"жига":11794,"▁жилых":11795,"▁Санкт-Петербурге":11796,"тор,":11797,"ори":11798,"▁выступать":11799,"▁новостей":11800,"able":11801,"лав":11802,"▁турнире":11803,"▁почув":11804,"▁группиров":11805,"▁идеи":11806,"▁запу":11807,"визион":11808,"▁мани":11809,"▁Пробле":11810,"▁общую":11811,"▁То,":11812,":54":11813,"▁давать":11814,"▁объекта":11815,"▁взаимодействия":11816,"▁момент,":11817,"▁откров":11818,"▁обжалова":11819,"анали":11820,"▁Депутат":11821,"▁поза":11822,"▁фирмы":11823,"▁50%":11824,"▁наказания":11825,"▁позиция":11826,"▁магни":11827,":2.":11828,"▁wipe":11829,"▁наличии":11830,"▁выступал":11831,"▁Уилья":11832,"жения.":11833,"▁сообщила,":11834,"▁семина":11835,"нятно,":11836,"▁начинают":11837,"▁Гражда":11838,"▁убежден":11839,"овой,":11840,"▁экскур":11841,"▁вами":11842,"▁клад":11843,"▁используют":11844,"▁развива":11845,"▁детям":11846,"▁посчита":11847,"▁заставля":11848,"шенные":11849,"совета":11850,"вая,":11851,"▁входи":11852,"▁робо":11853,"▁68":11854,"▁финале":11855,"▁Позд":11856,"▁чест":11857,"▁интеллек":11858,"▁подсуди":11859,"▁одина":11860,"▁жизнен":11861,":57":11862,"▁4.":11863,"▁произойдет":11864,"▁фило":11865,"▁Цер":11866,"▁предше":11867,"▁консерва":11868,"i.":11869,"▁М.":11870,"ха,":11871,"▁\"Ки":11872,"▁проби":11873,"вало":11874,"▁BBC":11875,"▁клет":11876,"▁приехал":11877,"▁иден":11878,"▁авторы":11879,"чному":11880,"ними":11881,"▁независимости":11882,"▁придума":11883,"▁правительством":11884,"▁Hotel":11885,"-30":11886,"▁лидеры":11887,"▁преступлений":11888,"сий":11889,"▁рейсы":11890,"▁Всероссий":11891,"▁молодые":11892,"▁зао":11893,"▁последним":11894,"▁22,":11895,"▁планирова":11896,"▁сегодня,":11897,"▁отвечает":11898,"▁Работа":11899,"▁вво":11900,"▁продукт":11901,"▁млад":11902,"▁показал":11903,"▁1,2":11904,"▁зон":11905,"▁Интерес":11906,"▁контин":11907,"▁Группа":11908,"▁Ну,":11909,"▁выступление":11910,"bl":11911,"лы:":11912,"▁виду":11913,"▁Go":11914,"▁коррупции":11915,"▁открытие":11916,"стера":11917,"отече":11918,"▁записа":11919,"мыми":11920,"▁Госдуму":11921,"▁поручил":11922,"▁зарабаты":11923,"▁становятся":11924,"▁минут.":11925,"чность":11926,"▁организации.":11927,"▁приста":11928,"щена":11929,"краин":11930,"▁расчета":11931,"▁видимо,":11932,"▁введ":11933,"▁диви":11934,"▁Автор":11935,"▁рассмотреть":11936,"▁эн":11937,"national":11938,"стрии":11939,"▁плака":11940,"img":11941,"▁бесплатно":11942,"▁\"Ва":11943,"oll":11944,"▁кноп":11945,"▁проводятся":11946,"▁мыш":11947,"отечествен":11948,"шена":11949,"▁гиган":11950,"▁Акаде":11951,"▁снять":11952,"uk":11953,"▁перспективы":11954,"▁планов":11955,"▁руководители":11956,"шал":11957,"▁величи":11958,"▁Семен":11959,"▁возме":11960,"▁смогла":11961,"лизации":11962,"▁объемы":11963,"▁\"Ни":11964,"реда":11965,"▁категори":11966,"лиять":11967,"▁бокс":11968,"▁высокие":11969,"▁швейцар":11970,"▁предполагает":11971,"▁млрд,":11972,"▁said":11973,"ступает":11974,"▁поколения":11975,"▁оплаты":11976,"▁энергетики":11977,"▁лон":11978,"скохозяй":11979,"чук":11980,"ленное":11981,"▁Национальной":11982,"▁п.":11983,"▁вторник,":11984,"реаги":11985,"▁Йо":11986,"▁торгово":11987,"▁услыша":11988,"▁63":11989,"▁резерв":11990,"▁cl":11991,"▁объявили":11992,"▁четверг,":11993,"▁дороге":11994,"▁Главная":11995,"▁ЕС,":11996,"▁проверить":11997,"▁сыграл":11998,"▁юно":11999,"OS":12000,"благода":12001,"▁карьеру":12002,"довать":12003,"ams":12004,"▁выходит":12005,"▁Чис":12006,"-Х":12007,"ционном":12008,"вол":12009,"▁карточ":12010,"▁продолжит":12011,"▁actual":12012,"▁sp":12013,"\"?":12014,"▁гражданского":12015,"▁вслед":12016,"▁игрок":12017,"лом,":12018,"aily":12019,"▁позволяют":12020,"▁спортсменов":12021,"esday":12022,"▁Вра":12023,"▁экстра":12024,"▁кора":12025,"▁идеологи":12026,"▁Microsoft":12027,"▁плана":12028,"▁all":12029,"▁слабо":12030,"▁манда":12031,"ition":12032,"▁веру":12033,"нан":12034,"▁собрать":12035,"дови":12036,"▁залож":12037,"▁означает,":12038,"▁составить":12039,"▁Ученые":12040,"ссии,":12041,"▁Такой":12042,"вело":12043,"▁последней":12044,"▁78":12045,"▁газете":12046,"▁(1)":12047,"▁прести":12048,"▁есть.":12049,"▁Пло":12050,"▁налога":12051,"сты.":12052,"▁специалист":12053,"лят":12054,"▁часов.":12055,"▁организовать":12056,"вова":12057,"▁(Л":12058,"▁решение,":12059,"никова":12060,"▁февраля.":12061,"▁старта":12062,"▁собственные":12063,"ходу":12064,"▁отбы":12065,"42":12066,"▁Добавлено":12067,"▁себя,":12068,"кость":12069,"ener":12070,"вяз":12071,"▁внешней":12072,"фло":12073,"▁занимаются":12074,"ницах":12075,"▁исключением":12076,"▁оборон":12077,"ствию":12078,"▁востребова":12079,"тие,":12080,"▁этими":12081,"▁национальных":12082,"▁рулем":12083,"▁20%":12084,"▁строить":12085,"▁Олимпиады":12086,"▁немало":12087,"АП":12088,"▁фини":12089,"▁основания":12090,"▁«Э":12091,"▁хочется":12092,"▁Перво":12093,"щины":12094,"▁защитник":12095,"▁This":12096,".ru.":12097,"ппо":12098,"▁февраля,":12099,"▁вида":12100,"▁Сай":12101,"меется,":12102,"▁мотива":12103,"▁\"Новости":12104,"▁специальные":12105,"▁\"Локомотив":12106,"▁разработки":12107,"зависи":12108,"▁медиа":12109,"▁\"а":12110,"▁девушка":12111,"▁июня,":12112,"вшаяся":12113,"▁связыва":12114,"брав":12115,"----":12116,"▁хорошо,":12117,"ваю":12118,"жи,":12119,"▁трансфер":12120,"▁Воронежской":12121,"▁пришла":12122,"▁жизнь.":12123,"вятся":12124,"▁Ярослав":12125,"▁Бориса":12126,"▁ознакоми":12127,"енного":12128,"▁ВВС":12129,"▁дело.":12130,"▁июля,":12131,"▁получении":12132,"▁июня.":12133,"▁магистра":12134,"▁УЕФА":12135,"гель":12136,"▁вину":12137,"▁операций":12138,"▁дорога":12139,"▁голову":12140,"▁Ян":12141,"▁отреаги":12142,"▁(00:02":12143,"▁Международной":12144,"▁рассмотрения":12145,"виль":12146,"▁академии":12147,"▁контакт":12148,"▁некоторым":12149,"▁Новая":12150,"▁продать":12151,"льно.":12152,"▁проник":12153,"▁соотечествен":12154,"▁оформи":12155,"▁полный":12156,"▁\"вы":12157,"▁Минэкономразвития":12158,"▁Маль":12159,"▁крова":12160,"▁установлены":12161,"▁лидером":12162,"▁подоро":12163,"▁онлайн-":12164,"деква":12165,"писание":12166,"▁эли":12167,"▁виды":12168,"▁Прохо":12169,"▁занято":12170,"i,":12171,"76":12172,"▁Россия,":12173,"▁конечно":12174,"▁подвод":12175,"▁другая":12176,"▁Далее":12177,"▁дорог":12178,"▁готовится":12179,"ree":12180,"▁Израиля":12181,"▁увеличения":12182,"ющимся":12183,"▁транспортных":12184,"▁квадратных":12185,"▁пешеход":12186,"▁утверждает":12187,"▁периода":12188,"▁характеристи":12189,"ton":12190,"▁Меня":12191,"▁студ":12192,"/11":12193,"▁туристи":12194,"дуар":12195,"▁бизнесмена":12196,"▁корреспонденту":12197,"▁постановление":12198,"▁выпу":12199,"▁строительству":12200,"▁Куд":12201,"▁борьба":12202,"▁интен":12203,"▁Валентина":12204,"ток,":12205,"▁чтении":12206,"act":12207,"▁оператора":12208,"▁эффективности":12209,"▁Арген":12210,"▁декабря.":12211,"▁видит":12212,"партамента":12213,"▁преддве":12214,"▁даст":12215,"▁окончательно":12216,"▁приблизи":12217,"▁лучше,":12218,"▁Организа":12219,"▁He":12220,"▁неплохо":12221,"▁появилось":12222,"ди.":12223,"▁Центр":12224,"▁штаба":12225,"сль":12226,"▁МВФ":12227,"▁соци":12228,"▁Анге":12229,"▁\"Кры":12230,"▁традиционно":12231,"▁задействова":12232,"▁работу,":12233,"▁российско-":12234,"▁диалог":12235,"▁штата":12236,"▁клуба.":12237,"▁амнисти":12238,"▁насили":12239,"хачка":12240,"[/":12241,"мога":12242,"▁веща":12243,"-s":12244,"▁заг":12245,"ционеры":12246,"▁украинский":12247,"▁третьей":12248,"▁подру":12249,"▁военный":12250,"▁убеди":12251,"▁Дата":12252,"▁небольшо":12253,"0000":12254,"▁используется":12255,"▁НОВОСТИ":12256,"▁сокращения":12257,"ages":12258,"▁\"Интерфакс\"":12259,"ке\"":12260,"▁caption":12261,"▁Дани":12262,"▁Барак":12263,"▁Дама":12264,"▁телефона":12265,"▁русской":12266,"▁смартфон":12267,"▁Россия\"":12268,"▁причине":12269,"▁компьюте":12270,"-у":12271,"▁занятия":12272,"▁нано":12273,"▁кредит":12274,"▁крупном":12275,"ностью,":12276,"▁\"Аэро":12277,"▁недалеко":12278,"▁El":12279,"▁БЕЛ":12280,"▁посмотре":12281,"програм":12282,"▁СУ":12283,"▁рейтинге":12284,"▁четко":12285,"▁Тран":12286,"▁кампа":12287,"▁Фонда":12288,"▁уведом":12289,"▁ветер":12290,"▁Инциден":12291,"▁Иг":12292,"▁развивать":12293,"▁клима":12294,"s:":12295,"▁успел":12296,"▁анализ":12297,"▁Ульянов":12298,"▁основным":12299,"▁заранее":12300,"▁Мэ":12301,"▁министерство":12302,"▁измер":12303,"▁напротив":12304,"▁устав":12305,"▁готовности":12306,"▁месте,":12307,"корей":12308,"рят":12309,"▁приба":12310,"▁имущество":12311,"▁прогнози":12312,"▁привод":12313,"berg":12314,"мас":12315,"ственно.":12316,"дик":12317,"ли:":12318,"▁your":12319,"писан":12320,"▁учения":12321,"▁земле":12322,"▁просмо":12323,"▁создан":12324,"▁работу.":12325,"▁состояния":12326,"верса":12327,"▁инцидента":12328,"▁сним":12329,"▁пользоваться":12330,"▁сельскохозяй":12331,"▁отделение":12332,"▁Следова":12333,"▁самолетов":12334,"▁спортсмена":12335,"▁разво":12336,"▁араб":12337,"▁Ряза":12338,"шенной":12339,"▁поездки":12340,"▁создана":12341,"▁понятно,":12342,"ковым":12343,"▁спасти":12344,"cc":12345,"▁72":12346,"рова.":12347,"▁золото":12348,"▁штрафа":12349,".09":12350,"▁полученных":12351,"other":12352,"▁Победы":12353,"лыми":12354,"▁глуби":12355,"▁сно":12356,"▁патру":12357,"ock":12358,"▁театре":12359,"▁сор":12360,"▁\"Ла":12361,"▁провела":12362,"▁евро,":12363,"йо":12364,"▁Vol":12365,"женные":12366,"▁органами":12367,"88":12368,"▁Много":12369,"▁покинул":12370,"▁декабря,":12371,"▁\"Арсена":12372,"ту\"":12373,"▁хиру":12374,"▁издания":12375,"органи":12376,"▁конкурсе":12377,"▁карта":12378,"▁Англии":12379,"▁организаторы":12380,"спор":12381,"▁пошел":12382,"▁федеральный":12383,"▁субъектов":12384,"▁какого":12385,"бинской":12386,"▁менять":12387,"▁запущен":12388,"▁экономика":12389,"▁граждан.":12390,"df":12391,"▁Кла":12392,"▁(10":12393,"▁миру":12394,"▁преступления,":12395,"▁Песков":12396,"▁устран":12397,"фаль":12398,"▁ску":12399,"▁христиан":12400,"▁группой":12401,"живать":12402,"тельница":12403,"▁вспы":12404,"гоне":12405,"▁населения.":12406,"▁войны.":12407,"▁его.":12408,"▁зарплаты":12409,"▁диагности":12410,"▁отзы":12411,"▁инструк":12412,"▁поток":12413,"▁высокого":12414,"▁вклады":12415,"▁прибыл":12416,"чила":12417,"▁объявлен":12418,"\",\"":12419,"▁июля.":12420,"▁обща":12421,"▁(см.":12422,"дали":12423,"▁домой":12424,"▁сохраня":12425,"▁социальные":12426,"▁беремен":12427,"▁Город":12428,"лик":12429,"вающие":12430,"▁истреби":12431,"▁акционер":12432,"▁Пушки":12433,"РУ":12434,"ладель":12435,"▁Эдуар":12436,"лу.":12437,"▁Слова":12438,"▁агентству":12439,"▁скром":12440,"▁обеих":12441,"▁официальных":12442,"opyr":12443,"▁игрока":12444,"ровых":12445,"тивы":12446,"шихся":12447,"opyright":12448,"▁поблагода":12449,"▁Бизнес":12450,"...+":12451,"▁московскому":12452,"▁упомина":12453,"▁важных":12454,"▁Нидерлан":12455,"▁партии,":12456,"▁сбора":12457,"▁самих":12458,"▁Коли":12459,"▁$2":12460,"▁Молда":12461,"▁проблемы,":12462,"▁содержания":12463,"▁футбола":12464,"▁наук":12465,"▁минуты":12466,"▁государственные":12467,"▁чувству":12468,"▁дела.":12469,"▁заба":12470,"▁сравни":12471,"▁главная":12472,"еты":12473,"▁письма":12474,"▁post":12475,"▁Строительство":12476,"▁заведения":12477,"▁инициативе":12478,"▁преддверии":12479,"▁Оно":12480,"▁компро":12481,"▁важно,":12482,"▁швед":12483,"▁посы":12484,"председа":12485,"▁уверя":12486,"▁(00:03":12487,"▁поселка":12488,"▁дочер":12489,"▁подтвердили":12490,".com.":12491,"▁млн,":12492,".01":12493,"▁законодательству":12494,"-b":12495,"▁объединения":12496,"▁сюда":12497,"▁лиди":12498,"▁Клич":12499,"▁Китае":12500,"хина":12501,"▁$5":12502,"▁просит":12503,"▁Вообще":12504,"▁кисло":12505,"рба":12506,"▁Время":12507,"▁песни":12508,"▁высокопостав":12509,"▁ответа":12510,"▁кот":12511,"▁вице-президент":12512,"▁3,5":12513,"щение,":12514,"▁отметили,":12515,"▁доче":12516,"▁перечень":12517,"надзора":12518,"▁отношениях":12519,"стема":12520,"чал":12521,"▁седь":12522,"▁Лондоне":12523,"▁выставка":12524,"▁месяцев.":12525,"▁Центральной":12526,"тки,":12527,"▁важней":12528,"▁Добавлено:":12529,"ное.":12530,"▁учет":12531,"▁быстры":12532,"▁оценивается":12533,"▁кодекса":12534,"-19":12535,"чевид":12536,"лова.":12537,"▁Израиль":12538,"▁оставаться":12539,"▁инвестиции":12540,"центри":12541,"▁знает,":12542,":1,":12543,".03":12544,"▁привело":12545,"ществи":12546,"▁сообщал":12547,"▁реконструкции":12548,"▁научных":12549,"ь\"":12550,"▁выезд":12551,"▁предоставления":12552,"▁гражданин":12553,"▁протесту":12554,"▁эксплуатацию":12555,"тироваться":12556,"▁возь":12557,"▁биатло":12558,"вающий":12559,"дии.":12560,"▁0%":12561,"дневно":12562,"▁ополчен":12563,"▁аренду":12564,"зап":12565,"▁Еди":12566,"▁заложен":12567,"▁должностных":12568,"▁легендар":12569,"▁апелля":12570,"лек":12571,"▁президента,":12572,"ная.":12573,"▁аргу":12574,"▁властями":12575,"▁второ":12576,"▁комплек":12577,"стного":12578,"-ка":12579,"евич":12580,"▁следующие":12581,"▁русский":12582,"▁судебных":12583,"тлан":12584,"кера":12585,"▁компонен":12586,"авто":12587,"▁]]>":12588,"мощ":12589,"▁команды,":12590,"▁жел":12591,"О.":12592,"финанси":12593,"▁Следственный":12594,"чу,":12595,"▁владелец":12596,"▁Где":12597,"▁спроса":12598,"▁сцене":12599,"ведом":12600,"▁суда,":12601,"▁производству":12602,"▁снего":12603,"▁77":12604,"▁we":12605,"▁Широ":12606,"▁нападающий":12607,"▁Опера":12608,"вается.":12609,"К,":12610,"▁распространя":12611,"▁пеналь":12612,"жена":12613,"лера":12614,"емое":12615,"▁канад":12616,"с:":12617,"▁Яцен":12618,"▁обучение":12619,"ш,":12620,"▁никого":12621,"▁поделился":12622,"▁потря":12623,"ake":12624,"х\"":12625,"▁>":12626,"▁НД":12627,"▁конди":12628,"ком\"":12629,"▁ФН":12630,"▁Петро":12631,"▁играли":12632,"▁Выс":12633,"ve":12634,"▁функции":12635,"там,":12636,"вела":12637,"/2010":12638,"▁водителя":12639,"▁\"Те":12640,"▁подписали":12641,"▁огла":12642,"▁Гага":12643,"66":12644,"▁консуль":12645,"▁посредни":12646,"▁репута":12647,"▁понадо":12648,"▁поясняет":12649,"▁картины":12650,"▁организацию":12651,"▁почет":12652,"▁Обла":12653,"льском":12654,"▁моро":12655,"▁площадке":12656,"доне":12657,"▁открыли":12658,"кажется":12659,"кает":12660,"▁Чита":12661,"▁Wh":12662,"▁фигури":12663,":1).":12664,"▁Ус":12665,"▁виновным":12666,"тируют":12667,"▁ЕС.":12668,"дана":12669,"▁орби":12670,"▁Тут":12671,"▁народной":12672,"▁узнать":12673,"▁района.":12674,"▁Санкт-Петербурга":12675,"▁возглавил":12676,"▁потребителей":12677,"▁годы.":12678,"▁поддержка":12679,"▁БЕЛТА":12680,"▁жителям":12681,"тки.":12682,"▁сте":12683,"ющегося":12684,"▁оказать":12685,"числи":12686,"▁нен":12687,"▁Полицей":12688,"▁Еврокоми":12689,"▁Гай":12690,"рия,":12691,"▁сроком":12692,"▁June":12693,"▁Администра":12694,"▁начнут":12695,"чки,":12696,"▁означает":12697,"▁\"Ле":12698,"▁Арка":12699,"▁структура":12700,"▁рабочие":12701,"orn":12702,"▁угрозу":12703,"▁международные":12704,"▁дальнейшего":12705,"▁прину":12706,"дал":12707,"▁беженцев":12708,"▁дежур":12709,"▁Инцидент":12710,"емся,":12711,"▁учреждений":12712,"▁невозможно.":12713,"▁обой":12714,"▁жителя":12715,"▁завершения":12716,"▁удалось.":12717,"▁сила":12718,"▁факуль":12719,"▁пенсионер":12720,"▁Бразили":12721,"▁Стив":12722,"oci":12723,"▁бывших":12724,"▁поздрав":12725,"▁объеме":12726,"▁РФС":12727,"▁компет":12728,"e:":12729,"▁воду":12730,"пинг":12731,"▁прокурор":12732,"▁моего":12733,"▁вино":12734,"▁безусловно,":12735,"we":12736,"▁формы":12737,"▁суда.":12738,"енной":12739,"▁договорились":12740,"▁введение":12741,".05":12742,"▁сыграет":12743,"▁Сообщается,":12744,"▁законопроекта":12745,"IS":12746,"▁\"Вы":12747,"▁GMT":12748,"▁Кирилл":12749,"▁прогноза":12750,"▁Дет":12751,"▁русских":12752,"▁иниции":12753,"▁Белого":12754,"праши":12755,"▁постара":12756,"▁зона":12757,"▁членом":12758,"▁сделано":12759,"▁неожиданно":12760,"▁ситуации.":12761,"▁неком":12762,"▁Ph":12763,"▁мера":12764,"▁карт":12765,"▁растет":12766,"▁заключил":12767,"производи":12768,"ше,":12769,"▁кабин":12770,"▁клини":12771,"несла":12772,"▁\"Ви":12773,"▁Голо":12774,"▁западных":12775,"ict":12776,"▁необходимых":12777,"ваясь":12778,"-и":12779,"▁бук":12780,"▁соревнований":12781,"▁(не":12782,"▁масса":12783,"▁Самар":12784,"▁база":12785,"ок":12786,"-2012":12787,"▁накопи":12788,"▁\"со":12789,"▁Подоб":12790,"завод":12791,"▁Tele":12792,"▁продав":12793,"▁требованиям":12794,"▁кладби":12795,"▁велосипе":12796,"▁обстоятельств":12797,"▁собственного":12798,"▁среды":12799,"ПЛ":12800,"▁шту":12801,"экс":12802,"▁бле":12803,"▁злоупотреб":12804,"▁\"Газет":12805,"▁Саратов":12806,"близи":12807,"нием.":12808,".06":12809,"▁войны,":12810,"▁Кубок":12811,"вера":12812,"▁видом":12813,"▁but":12814,"кульп":12815,"-я":12816,"▁очевидно,":12817,"-9":12818,"▁специальных":12819,"▁силами":12820,"тии,":12821,"▁Цель":12822,"▁рассмотрен":12823,"мой.":12824,"▁правоохранительные":12825,"▁полета":12826,"тского":12827,"▁мама":12828,"▁мире,":12829,"▁крови":12830,"зво":12831,"▁насилия":12832,"▁приехали":12833,"▁массовой":12834,"▁воскресенье,":12835,"тивном":12836,"▁\"Да":12837,"▁пояс":12838,"альным":12839,"тируя":12840,"ки:":12841,"▁достичь":12842,"▁Необходи":12843,"▁расширения":12844,"▁(У":12845,"▁общая":12846,"▁фрук":12847,"▁будет,":12848,"▁правя":12849,"▁«Я":12850,"▁свободу":12851,"ction":12852,"▁Op":12853,"▁навод":12854,"▁Союз":12855,"▁надежду":12856,"▁Защит":12857,"-2013,":12858,"жского":12859,"ject":12860,"титься":12861,"су.":12862,"▁Республике":12863,"▁сессии":12864,"▁дисквали":12865,"тическое":12866,"▁поезда":12867,"альную":12868,"▁\"Па":12869,"▁обма":12870,"▁ставку":12871,"тент":12872,"▁файлов":12873,"бая":12874,"▁Восточной":12875,"▁Спу":12876,"▁концов":12877,"ура":12878,"/12":12879,"ife":12880,"▁зачастую":12881,"▁угроза":12882,"▁расто":12883,"▁сильный":12884,"▁вез":12885,"▁Лукашенко":12886,"▁69":12887,"▁Тара":12888,"гона":12889,"хими":12890,"▁Яценю":12891,"жено":12892,"▁квалифика":12893,"▁пособи":12894,"▁привел":12895,"▁устройство":12896,"хен":12897,"▁читать":12898,"▁рано":12899,"▁руководству":12900,"▁Впервые":12901,"нема":12902,"▁Ad":12903,"▁\"Челси":12904,"▁продолжается":12905,"▁\"НИ":12906,"▁his":12907,"▁оценкам":12908,"▁прийти":12909,"▁инцидент":12910,"▁пропуска":12911,"кин,":12912,"▁сигна":12913,"▁Магни":12914,"▁Голы:":12915,"▁билеты":12916,"▁Эрдо":12917,"ченным":12918,"▁школ":12919,"▁юге":12920,"▁оскорб":12921,"▁пребывания":12922,"▁обнаружены":12923,"▁эффект":12924,"ствующих":12925,"▁исходя":12926,"▁трак":12927,"▁#5":12928,"▁вно":12929,"▁кредитов":12930,"▁президенты":12931,"▁позднее":12932,"▁невероят":12933,"▁Донбасс":12934,"▁оставил":12935,"▁операция":12936,"нским":12937,"ссии.":12938,"жными":12939,"▁дорогу":12940,"▁новому":12941,"ленными":12942,"▁известного":12943,"alth":12944,"▁Навальный":12945,"▁крушения":12946,"▁компенси":12947,"▁четверо":12948,"▁Ситуа":12949,"▁лоша":12950,"▁м/сек":12951,"▁Вос":12952,"iew":12953,"кову":12954,"▁проез":12955,"овокуп":12956,"▁создали":12957,"roid":12958,"▁субботу,":12959,"▁эксплуатации":12960,"▁физ":12961,"▁юридических":12962,"ки\",":12963,"▁удостовер":12964,"▁Бразилии":12965,"▁лиги":12966,"▁1000":12967,"con":12968,"▁Симферопо":12969,"▁называется":12970,".04":12971,"▁зрителей":12972,"чан":12973,"▁76":12974,"▁автоматиче":12975,"▁\"Газпром\"":12976,"▁обсудить":12977,"▁дня.":12978,"▁тип":12979,"▁62":12980,"du":12981,"▁продавать":12982,"▁газопрово":12983,"▁оты":12984,"▁росту":12985,"▁последствий":12986,"▁прогу":12987,"▁показания":12988,"▁сторонников":12989,"ober":12990,"▁лоб":12991,"▁осуществи":12992,"это":12993,"▁#2":12994,"▁зоо":12995,"цу,":12996,"▁Вас":12997,"▁двум":12998,"чие":12999,"▁старту":13000,"▁Российского":13001,"▁наступи":13002,"NT":13003,"▁зали":13004,"▁смяг":13005,"▁Пенси":13006,"▁брони":13007,"▁\"Справедли":13008,"▁исключа":13009,"/4":13010,"▁Вин":13011,"▁утро":13012,"▁митинг":13013,"ка\".":13014,"к\",":13015,"▁ядерной":13016,"▁Навер":13017,"▁топлива":13018,"▁биологи":13019,"нови":13020,"▁сот":13021,"kn":13022,"▁поса":13023,"▁серде":13024,"▁проще":13025,"▁разоча":13026,"▁Евросоюз":13027,"▁принят":13028,"af":13029,"▁напрямую":13030,"▁сталки":13031,"▁жид":13032,"▁Бон":13033,"▁УМВД":13034,"-11":13035,"▁Директор":13036,"▁застре":13037,"▁Бог":13038,"▁квартир":13039,"▁придержива":13040,"▁Свердловской":13041,"▁орке":13042,"▁5.":13043,"▁отрази":13044,"▁Обо":13045,"евремен":13046,"толи":13047,"▁отрав":13048,"▁себя.":13049,"▁региона,":13050,"чива":13051,"▁акцию":13052,"▁Счита":13053,"▁\"Фор":13054,"▁Меркель":13055,"▁стратегии":13056,"▁свободы.":13057,"▁been":13058,"ix":13059,"тора,":13060,"▁\"Лен":13061,"сове":13062,"▁навы":13063,".07":13064,"▁января,":13065,"лори":13066,"во,":13067,"▁них.":13068,"▁началом":13069,"▁Число":13070,"▁совещании":13071,"▁августа,":13072,"▁населения,":13073,"▁ad":13074,"viewtopic":13075,"▁Руководство":13076,"▁Нападающий":13077,"▁перейти":13078,"▁рису":13079,"▁Сбербанка":13080,"▁набрал":13081,"▁вашем":13082,"▁Валерия":13083,"▁обязаны":13084,"▁определенные":13085,"▁связан":13086,"▁киноте":13087,"▁республики.":13088,"▁фунда":13089,"▁остановить":13090,"▁метропо":13091,"очеред":13092,"тельно.":13093,"▁оценку":13094,"▁Депутаты":13095,"ката":13096,"мара":13097,"▁средне":13098,"▁я,":13099,"▁ослаб":13100,"▁доказательства":13101,"▁бензи":13102,"вах":13103,"▁полицию":13104,"лен,":13105,"▁цивили":13106,"▁удив":13107,"▁участвовали":13108,"ллин":13109,"▁броса":13110,"▁рецеп":13111,"тировал":13112,"торы,":13113,"▁нормы":13114,"▁обслуживания":13115,"▁Шой":13116,"▁Обы":13117,"гера":13118,"▁мигрантов":13119,"▁голки":13120,"▁знак":13121,"▁языке":13122,"▁референду":13123,"▁отметила,":13124,"▁средств.":13125,"шали":13126,"▁объявила":13127,"▁\"Золо":13128,"▁выиграть":13129,"▁местному":13130,"▁каждым":13131,"▁прися":13132,"▁юсти":13133,"”.":13134,"▁обвиняют":13135,"эл":13136,"ложили":13137,"▁\"Исламское":13138,"▁Подо":13139,"вразий":13140,"▁кубо":13141,"oeing":13142,"▁членами":13143,"▁аппарата":13144,"▁(00:00":13145,"▁подраздел":13146,"▁возможные":13147,"▁Европа":13148,"▁Мут":13149,"▁расширение":13150,"▁полуфина":13151,"▁обеспоко":13152,"▁разработке":13153,"▁образование":13154,"▁реформы":13155,"▁выходить":13156,"▁эстаф":13157,"▁Правительства":13158,"▁квартиру":13159,"▁Ростовской":13160,"▁малы":13161,"▁Счет":13162,"▁иной":13163,"▁руку":13164,"▁Специалисты":13165,"▁Ава":13166,"▁Санкт-Петербург":13167,"националь":13168,"▁\"Гра":13169,"▁федеральном":13170,"▁воспользоваться":13171,"▁искрен":13172,"eed":13173,"▁прояв":13174,"▁будете":13175,"▁\"Красно":13176,"▁Боб":13177,"▁мик":13178,"▁реализацию":13179,"▁повест":13180,"дие":13181,"▁мерт":13182,"▁процедуры":13183,"▁вдох":13184,"▁властям":13185,"лаш":13186,"▁Политика":13187,"▁следователи":13188,"▁безработи":13189,"▁европейской":13190,"▁20,":13191,"▁судов":13192,"▁экономики,":13193,"ess.":13194,"▁детьми":13195,"лере":13196,"▁пор,":13197,"монопо":13198,"ery/":13199,"▁посольства":13200,"▁помощник":13201,"▁многочисленные":13202,"но:":13203,"▁ЕГЭ":13204,"▁сана":13205,"▁130":13206,"▁Первые":13207,"▁видели":13208,"▁направлено":13209,"▁паралле":13210,"▁Казани":13211,"▁медицинского":13212,"▁беско":13213,"▁севере":13214,"▁целей":13215,"ковский":13216,"▁полагает":13217,"▁Кирги":13218,"рования,":13219,"▁Румы":13220,"▁судя":13221,"▁полгода":13222,"▁обсуждение":13223,"▁инициатива":13224,"▁консоли":13225,"ремьера":13226,"л\",":13227,"▁Sc":13228,"▁блог":13229,"▁ведомства,":13230,"▁IP":13231,"▁меня,":13232,"▁грана":13233,"▁остро":13234,"▁\"Ян":13235,"▁Франции,":13236,"награ":13237,"▁знают":13238,"лист":13239,"▁телефону":13240,"тке":13241,"▁пределами":13242,"▁\"Но":13243,"-p":13244,"ссамбле":13245,"▁выше,":13246,"юр":13247,"▁внешнеполи":13248,"▁скорости":13249,"жеме":13250,"ленную":13251,"▁маркет":13252,"▁Георгий":13253,"дная":13254,"▁компенсации":13255,"▁трам":13256,"▁деятельности.":13257,"▁ослож":13258,"▁потребовал":13259,"▁Boeing":13260,"▁Кем":13261,"▁характе":13262,"▁налич":13263,"жемеся":13264,"▁поддержали":13265,"▁опубликовал":13266,"▁нашел":13267,"▁фабри":13268,"▁общем,":13269,"▁кого-то":13270,"рования.":13271,"▁органах":13272,"▁экспози":13273,"viewtopic.php?":13274,"▁пояснил,":13275,"ical":13276,"дится":13277,"▁боепри":13278,"▁надея":13279,"▁обратилась":13280,"▁Тар":13281,"▁соотношение":13282,"▁оф":13283,"▁„":13284,"▁Служ":13285,"▁Sport":13286,"▁их,":13287,"▁режиссера":13288,"ress":13289,"йста,":13290,"▁лицензии":13291,"чества.":13292,"▁дат":13293,"▁отстран":13294,"▁замы":13295,"-2016":13296,"▁кален":13297,"▁Fr":13298,"▁высоких":13299,"very":13300,"▁проходил":13301,"▁выпущен":13302,"▁рекоменда":13303,"▁Латвии":13304,"▁талантли":13305,"yst":13306,"▁ближе":13307,"▁нравится":13308,"▁изобре":13309,"▁Марина":13310,"▁раздели":13311,"▁Капел":13312,"▁век":13313,"▁упомя":13314,"▁снижа":13315,"био":13316,"▁штате":13317,"▁(00:06":13318,"▁региональной":13319,"дию":13320,".02":13321,"▁«На":13322,"оро":13323,"рович":13324,"▁произведен":13325,"▁уточнил":13326,"▁тормо":13327,"▁облег":13328,"▁труп":13329,"▁астро":13330,"▁системы,":13331,"▁др.":13332,"▁Петербург":13333,"▁произведения":13334,"▁предпринимателей":13335,"▁связана":13336,"▁физических":13337,"ase":13338,"▁население":13339,"пион":13340,"▁показывает":13341,"▁сочи":13342,"▁Поскольку":13343,"▁боевики":13344,"▁заняла":13345,"ша,":13346,"▁перехода":13347,"▁средства,":13348,"▁жилье":13349,"▁жан":13350,"▁Иногда":13351,"▁Индии":13352,"▁соперника":13353,"▁убежи":13354,"ленном":13355,"▁протоко":13356,"▁Абду":13357,"сеть":13358,"▁анализа":13359,"▁гражданам":13360,"дуют":13361,"▁Германия":13362,"▁предостави":13363,"▁монасты":13364,"▁отца":13365,"▁гражданина":13366,"▁сильней":13367,"▁меньшей":13368,"▁здорово":13369,"▁российское":13370,"▁прекращения":13371,"▁избирателей":13372,"▁вплоть":13373,"▁отдельные":13374,"▁механизм":13375,"▁уровне.":13376,"▁война":13377,"▁бага":13378,"▁лес":13379,"▁эксперимента":13380,"▁Вес":13381,"▁Такая":13382,"▁Дональд":13383,"▁впрочем,":13384,"штраф":13385,"▁Аста":13386,"▁повез":13387,"▁обоих":13388,"▁запас":13389,"ные.":13390,"▁выставке":13391,"▁отправить":13392,"ade":13393,"▁скла":13394,"▁Самый":13395,"▁Перм":13396,"▁закон,":13397,"▁живот":13398,"▁языка":13399,"▁Тех":13400,"▁центральной":13401,"▁do":13402,":0)":13403,"▁конеч":13404,"▁приема":13405,"▁гендиректора":13406,"зовы":13407,"чей,":13408,"▁базу":13409,"▁Яков":13410,"▁гастро":13411,"▁Ред":13412,"▁Иса":13413,"▁учреди":13414,"стый":13415,"чности":13416,"▁незначи":13417,"▁вери":13418,"мали":13419,"▁участниками":13420,"▁повторя":13421,"▁экзамен":13422,"▁документы,":13423,"▁XV":13424,"▁отсутствия":13425,".08":13426,"▁товары":13427,"гере":13428,"▁экономические":13429,"▁Кристи":13430,"▁заметно":13431,"▁обруши":13432,"▁Госдума":13433,"овому":13434,"▁францу":13435,"рхи":13436,"▁заболевания":13437,"▁таки":13438,"▁известны":13439,"▁Причиной":13440,"джер":13441,"▁Сол":13442,"▁заб":13443,"лубы":13444,"▁Эк":13445,"-2013":13446,"▁выступают":13447,"нец,":13448,"ня,":13449,"▁серьезных":13450,"▁Осети":13451,"В.":13452,"-d":13453,"▁тюрем":13454,"пля":13455,"▁Сборная":13456,"▁экономический":13457,"дка":13458,"▁детский":13459,"▁Кы":13460,"▁игры,":13461,"▁повреждения":13462,"▁иных":13463,"ЭБ":13464,"ИИ":13465,"▁альян":13466,"▁потерял":13467,"▁военнослужащих":13468,"стал":13469,"▁погово":13470,"▁Вашингтон":13471,"▁автомобиле":13472,"▁впоследствии":13473,"желе":13474,"▁Шев":13475,"вка":13476,"▁приви":13477,"рикан":13478,"стей,":13479,".2015":13480,"▁Fri":13481,"емости":13482,"▁пресс-конферен":13483,"мой,":13484,"чева":13485,"▁респонден":13486,"▁похоже,":13487,"МК":13488,"▁соцсет":13489,"▁устра":13490,"▁парка":13491,"▁разговари":13492,"▁определить":13493,"▁недостаточ":13494,"▁кримина":13495,"▁городу":13496,"▁обре":13497,"▁Замести":13498,"вец":13499,"▁посетить":13500,"▁понять":13501,"▁Говоря":13502,"▁пож":13503,"▁международном":13504,"▁ас":13505,"▁альбо":13506,"▁операцию":13507,"▁зая":13508,"▁«По":13509,"▁International":13510,"эф":13511,"демокра":13512,"▁преда":13513,"▁проб":13514,"▁Дне":13515,"▁баталь":13516,"▁мг":13517,"▁Алтапресс":13518,"9.":13519,"▁случилось":13520,"▁вода":13521,"▁выполнить":13522,"▁Московский":13523,"▁ключевых":13524,"▁Fin":13525,"▁December":13526,"вки":13527,"▁свето":13528,"опасности":13529,"▁понадоби":13530,"▁израиль":13531,"▁инвест":13532,"▁Merc":13533,"▁Объединен":13534,"▁хле":13535,"фесси":13536,"▁января.":13537,"▁избирательных":13538,"▁поддержал":13539,"▁сотрудникам":13540,"▁республике":13541,"▁пределах":13542,"▁форвар":13543,"▁группы,":13544,"▁выпи":13545,"кен":13546,"▁Одним":13547,"▁Олимпиаде":13548,"▁председателем":13549,"▁Никита":13550,"▁Аза":13551,"▁вторую":13552,"▁парк":13553,"▁Qu":13554,"▁отменить":13555,"▁ходу":13556,"▁риска":13557,"▁личного":13558,"▁покупки":13559,"▁кафед":13560,"▁муниципального":13561,"▁ненави":13562,"▁спокойно":13563,"▁Сена":13564,"▁Количество":13565,"100":13566,"▁установки":13567,"▁зад":13568,"гают":13569,"▁вирту":13570,"язы":13571,"▁Руководитель":13572,"▁платы":13573,"▁потребуется":13574,"▁190":13575,"пр":13576,"лумби":13577,"▁непросто":13578,"▁тренирово":13579,"▁постави":13580,"▁http://t":13581,"▁контек":13582,"▁деятельности,":13583,"▁округе":13584,"▁также,":13585,"▁готови":13586,"▁квалифици":13587,"'t":13588,"цом":13589,"▁Луганской":13590,"▁Паки":13591,"жно-":13592,"▁Круп":13593,"▁артилле":13594,"▁исполнении":13595,"▁импера":13596,"▁Верховного":13597,"▁избирательной":13598,"▁Саакашвили":13599,"-Г":13600,"▁Клю":13601,"▁футбольного":13602,"▁приу":13603,"▁(+":13604,"▁августа.":13605,"▁Минфин":13606,"▁Доро":13607,"86":13608,"▁половиной":13609,"▁приходят":13610,"▁Наш":13611,"▁\"Пар":13612,"▁из-под":13613,"▁питер":13614,"nal":13615,"▁стадион":13616,"▁скульп":13617,"▁голос":13618,"▁наоборот,":13619,"▁осторо":13620,"▁журналисты":13621,"живает":13622,"▁Управления":13623,"▁Ser":13624,"▁замминистра":13625,"▁побо":13626,"▁другие.":13627,"▁отря":13628,"▁Прокура":13629,"▁земель":13630,"▁Ким":13631,"▁поми":13632,"▁филосо":13633,"▁Общая":13634,"▁воспитан":13635,"▁1998":13636,"▁каких-либо":13637,"чий":13638,"▁оценить":13639,"ounter":13640,"как":13641,"ловек":13642,"▁предложить":13643,"▁вознагра":13644,"▁вторая":13645,"▁всех,":13646,"сную":13647,"▁отборо":13648,"▁Чемпиона":13649,"▁ныне":13650,"▁недостаточно":13651,"▁известен":13652,"▁признать":13653,"▁угод":13654,"▁доктор":13655,"литься":13656,"▁финал":13657,"▁уменьши":13658,"▁заметил":13659,"▁Ind":13660,"▁Губернатор":13661,"▁Сере":13662,"▁Анали":13663,"▁половина":13664,"▁мясо":13665,"▁уль":13666,"▁возвращения":13667,"▁погоды":13668,"▁Владислав":13669,"▁рынке.":13670,"▁лозу":13671,"▁отличается":13672,"дением":13673,"▁НКО":13674,"ните":13675,"ляция":13676,"▁паспорт":13677,"▁\"ко":13678,"▁завое":13679,"▁прозву":13680,"товые":13681,"▁РП":13682,"▁замени":13683,"▁ещё":13684,"▁Вой":13685,"▁никому":13686,"IM":13687,"▁вступления":13688,"▁суток":13689,"▁интеллектуаль":13690,"▁поставил":13691,"▁медали":13692,"▁девушки":13693,"▁бух":13694,"Газета":13695,":0).":13696,"▁\"Та":13697,"tember":13698,"▁восстановления":13699,"▁запо":13700,"ся,":13701,"▁мы,":13702,"▁сде":13703,"-на-Д":13704,"▁180":13705,"поведни":13706,"▁лица,":13707,"▁Азии":13708,"▁выпа":13709,"▁Размер":13710,".30":13711,"▁проспе":13712,"▁законопроект,":13713,"▁Дом":13714,"▁официальным":13715,"▁Федерального":13716,"▁появятся":13717,"▁удержа":13718,"▁направил":13719,"▁доставили":13720,"Кон":13721,"вании":13722,"стон":13723,"зиди":13724,"▁сирийской":13725,"▁создает":13726,"▁футбол":13727,"▁перспективе":13728,"▁интернете":13729,"▁существуют":13730,"▁Главное":13731,"-2015":13732,"▁had":13733,"▁важным":13734,"\";":13735,"▁АЭС":13736,"жих":13737,"▁30%":13738,"▁рассматривать":13739,"</a>":13740,"▁активы":13741,"лян":13742,"▁имеется":13743,"▁подозреваемого":13744,"▁полуостров":13745,"▁проблемы.":13746,"▁каждому":13747,"▁гостиницы":13748,"▁Сочи.":13749,"скры":13750,"▁эффективность":13751,"▁быстрее":13752,"▁вызвали":13753,"▁партнеров":13754,"▁Победи":13755,"веду":13756,"▁медаль":13757,"▁специальный":13758,"▁кво":13759,"▁Вице-":13760,"▁госсекре":13761,"▁оза":13762,"=\"http://":13763,"▁наци":13764,"кович":13765,"▁заявлением":13766,"▁1999":13767,"▁скорой":13768,"▁дивиден":13769,"цеден":13770,"▁Жители":13771,"▁Суще":13772,"▁проверка":13773,"▁во-":13774,"▁мной":13775,"сное":13776,"суа":13777,"шви":13778,"мож":13779,"▁президента.":13780,"▁мяча":13781,"▁попробова":13782,"▁агрессив":13783,"▁подверг":13784,"▁21,":13785,"▁товарище":13786,"▁неви":13787,"лом.":13788,"▁August":13789,"▁энергии":13790,"▁Франция":13791,"▁представил":13792,"▁рынка,":13793,"▁#3":13794,"жий":13795,"▁отмечается,":13796,"▁моду":13797,"▁поддерживают":13798,"▁согласился":13799,"▁внутренней":13800,"таре":13801,"м:":13802,"шно":13803,"лился":13804,"сообраз":13805,"▁вещей":13806,"▁методи":13807,"▁подозрению":13808,"▁September":13809,"городе":13810,"▁участникам":13811,"▁версию":13812,"провоци":13813,"▁намерении":13814,"▁продажа":13815,"▁вперед":13816,"▁Ъ-Газета":13817,"ена.":13818,"▁Gu":13819,"▁Inst":13820,"▁незаконно":13821,"▁убра":13822,"▁Берли":13823,"рованная":13824,"▁играют":13825,"▁ответить":13826,"шенко.":13827,"ИЧ":13828,"▁Ст":13829,"чей.":13830,"▁взятки":13831,"▁наиболь":13832,"▁восстановить":13833,"▁отеля":13834,"▁Джу":13835,"т\".":13836,"▁Исследова":13837,"▁России\".":13838,"ринов":13839,"▁корпорации":13840,"▁волну":13841,"▁командова":13842,"▁Бой":13843,"▁подать":13844,"▁огромное":13845,"▁Вороб":13846,"▁казах":13847,"▁небольшие":13848,"гаре":13849,"▁дополнительно":13850,"▁террористов":13851,"зации.":13852,"▁серебря":13853,"▁мэрии":13854,"▁обладает":13855,"▁футболист":13856,"▁видел":13857,"▁говорил,":13858,"▁принципа":13859,"▁закреп":13860,"шиеся":13861,"▁покупать":13862,"▁благоустрой":13863,"▁осталась":13864,"▁ребят":13865,"▁(при":13866,"▁интересах":13867,"▁российскую":13868,"▁иллю":13869,"▁61":13870,"▁любовь":13871,"▁границ":13872,"▁источника":13873,"▁Павла":13874,"ку\"":13875,"▁рейтинга":13876,"▁предупрежда":13877,"▁единственным":13878,"▁\"Пер":13879,"▁уточнил,":13880,"▁\"Север":13881,"▁санитар":13882,"▁приговорен":13883,"▁оштраф":13884,"▁отдать":13885,"▁улицах":13886,"▁Недавно":13887,"▁транспортной":13888,"▁туре":13889,"▁(200":13890,"▁изменение":13891,"▁беспре":13892,"▁карту":13893,"▁Декаб":13894,"кона":13895,"компле":13896,"/p":13897,"▁запретить":13898,"▁отрасле":13899,"ОР":13900,"▁канал":13901,"▁Приднестров":13902,"▁социали":13903,"▁\"Анжи\"":13904,"▁спикер":13905,"▁победил":13906,"едет":13907,"▁способо":13908,"▁ареста":13909,"▁орден":13910,"▁конкретных":13911,"▁добавляет":13912,"п,":13913,"стья":13914,"iews":13915,"гром":13916,"чего,":13917,"лта":13918,"▁гек":13919,"▁административных":13920,"▁Бель":13921,"/3":13922,"▁документов,":13923,"▁окре":13924,"▁насчиты":13925,"▁шут":13926,"55":13927,"эффици":13928,"▁детской":13929,"▁раско":13930,"▁Никто":13931,"▁м,":13932,"зации,":13933,"▁занимал":13934,"▁перешел":13935,"▁южно":13936,"▁(от":13937,"▁денег,":13938,"▁пожалова":13939,"-Т":13940,"▁ФРГ":13941,"▁Москва,":13942,"▁егип":13943,"▁2017,":13944,"▁160":13945,"▁следующих":13946,"-У":13947,"▁интенсив":13948,"▁московских":13949,"▁граждани":13950,"▁долл.":13951,"▁акционе":13952,"▁расширя":13953,"етесь":13954,"ении,":13955,"▁контролировать":13956,"▁часы":13957,"▁способствовать":13958,"мент,":13959,"▁посетителей":13960,"▁рассматривает":13961,"▁удовлетвор":13962,"шь,":13963,"▁Почти":13964,"▁закрытия":13965,"ставо":13966,"▁заключенных":13967,"▁прокурора":13968,"▁диагно":13969,"▁привлечения":13970,"▁Euro":13971,"▁Объем":13972,"▁институт":13973,"▁автоматически":13974,"▁задач":13975,"▁Саудовской":13976,"навли":13977,"▁Таилан":13978,"су\"":13979,"▁коллег":13980,"немато":13981,"▁проигры":13982,"▁тка":13983,"▁смысла":13984,"▁XI":13985,"▁ставка":13986,"▁Вместо":13987,"▁обеспечивает":13988,"▁суд.":13989,"▁останавли":13990,"▁следственного":13991,"▁любое":13992,"ровые":13993,"▁шли":13994,"▁\"Евро":13995,"▁Верховный":13996,"▁партнера":13997,"▁директором":13998,"▁судна":13999,"▁Януковича":14000,"▁полагают,":14001,"▁жил":14002,"▁Венг":14003,"цент":14004,"ционно-":14005,"▁беспоко":14006,"мом,":14007,"▁мусо":14008,"▁Желез":14009,"▁рынка.":14010,"▁окра":14011,"▁ежедневно":14012,"▁диз":14013,"▁Челябинской":14014,"▁дешевле":14015,"▁доверия":14016,"▁требованием":14017,"▁Доба":14018,"▁штаб":14019,"левой":14020,"▁судьи":14021,"▁влияния":14022,"▁солдат":14023,"▁вошел":14024,"▁Плани":14025,"▁попытка":14026,"▁Пя":14027,"▁надзор":14028,"ev":14029,"▁тести":14030,"▁произошедшего":14031,"▁\"МК":14032,"▁оказалось,":14033,"ламента":14034,"наси":14035,"▁вни":14036,"78":14037,"▁Степа":14038,"▁норве":14039,"▁нашими":14040,"▁критери":14041,"▁Are":14042,"▁благоприят":14043,"▁представляют":14044,"▁Известно,":14045,"▁сектор":14046,"▁подобного":14047,"стана,":14048,"мом.":14049,"▁нерв":14050,"▁замглавы":14051,"▁смысл":14052,"▁распоряжении":14053,"ха.":14054,"▁принятие":14055,"▁Турция":14056,"ешь,":14057,"▁Новости\"":14058,"fer":14059,"▁\"Россий":14060,"▁исследователь":14061,"тоспособ":14062,"▁ag":14063,"рома":14064,"▁загру":14065,"▁направить":14066,"▁опрошенных":14067,"▁готовность":14068,"▁перене":14069,"▁попала":14070,"▁Шан":14071,"▁поведение":14072,"▁спортивной":14073,"▁Ju":14074,"▁образования,":14075,"▁информационной":14076,"▁суди":14077,"umber":14078,"нор":14079,"URL":14080,"▁носи":14081,"▁проголосовали":14082,"▁компаний.":14083,"▁флаг":14084,"▁мобильных":14085,"▁лока":14086,"▁Моро":14087,"▁годы,":14088,"риз":14089,"▁реализовать":14090,"▁\"ре":14091,"▁Донбасса":14092,"▁процентов.":14093,"▁станови":14094,"парати":14095,"▁Жо":14096,"▁армия":14097,"теро":14098,"ней.":14099,"▁copyright":14100,"▁Рого":14101,"▁водителей":14102,"▁следить":14103,"▁вар":14104,"▁коммунист":14105,"зив":14106,"▁эмоциональ":14107,"ena":14108,"▁25H":14109,"▁Подмосковье":14110,"▁Эд":14111,"▁агентства.":14112,"▁110":14113,"▁трассе":14114,"▁enc":14115,"▁убор":14116,"▁новости":14117,"▁Фонд":14118,"▁спровоци":14119,"▁дип":14120,"▁'":14121,"тащи":14122,"▁73":14123,"сев":14124,"▁Su":14125,"▁Log":14126,"▁удара":14127,"люка":14128,"▁защитить":14129,"▁СМИ:":14130,"▁покупку":14131,"▁Сколько":14132,"▁Филь":14133,"▁традиции":14134,"▁Барсело":14135,"AN":14136,"▁знаете,":14137,"▁ока":14138,"▁министром":14139,"▁\"Единая":14140,"▁новыми":14141,"▁транзи":14142,"▁кинемато":14143,"▁поставщи":14144,"▁главное,":14145,"▁наращи":14146,"тельному":14147,"▁экономики.":14148,"▁признали":14149,"▁туа":14150,"стояние":14151,"тности":14152,"▁Господь":14153,"oot":14154,"мать":14155,"▁внезап":14156,"▁выполнение":14157,"▁Россию.":14158,"спа":14159,"▁души":14160,"▁ориен":14161,"▁л.":14162,"транспорт":14163,"▁Н.":14164,"▁звание":14165,"▁пишут":14166,"▁топ-менед":14167,"▁информацией":14168,"▁Куб":14169,"руя":14170,"▁October":14171,"-И":14172,"▁магазина":14173,"▁ОС":14174,"▁отозва":14175,"ЕК":14176,"▁зону":14177,"▁рассчитывать":14178,"▁Очевид":14179,"▁парке":14180,"▁«Зени":14181,"нулись":14182,"▁$3":14183,"▁значит":14184,"▁немедленно":14185,"ux":14186,"▁полузащит":14187,"▁жюри":14188,"зе,":14189,"шель":14190,"▁способны":14191,"▁клубов":14192,"▁Стре":14193,"▁Большой":14194,"новой":14195,"▁Следствие":14196,"▁еврозо":14197,"▁войне":14198,"▁аренды":14199,"▁просят":14200,"▁they":14201,"▁тренером":14202,"▁поисков":14203,"▁занять":14204,"▁Обе":14205,"▁универса":14206,"▁успели":14207,"▁широко":14208,"▁болезни":14209,"▁оппонен":14210,"там.":14211,"AR":14212,"▁заместителем":14213,"▁информирует":14214,"▁Марк":14215,"▁уголовных":14216,"▁вызвал":14217,"▁преимущество":14218,"▁антимонопо":14219,"▁шоссе":14220,"▁активисты":14221,"▁86":14222,"▁Соко":14223,"▁мере,":14224,"▁реки":14225,"▁цену":14226,"▁осуществляется":14227,"▁Лев":14228,"невосто":14229,"▁лед":14230,"▁действуют":14231,"▁капитал":14232,"▁Адвокат":14233,"ара":14234,"закон":14235,"▁возникает":14236,"то.":14237,"▁Мой":14238,"▁редко":14239,"▁СКА":14240,"▁болга":14241,"▁ожи":14242,"▁мошенничестве":14243,"вой,":14244,"▁пау":14245,"товый":14246,"▁прямой":14247,"▁соответственно.":14248,"▁Android":14249,"дис":14250,"▁\"Пра":14251,"▁подозреваемых":14252,"▁горе":14253,"▁(S":14254,"▁Испа":14255,"▁сообщило":14256,"▁Ожидается,":14257,"▁молодого":14258,"▁террористи":14259,".2013":14260,"▁чем-то":14261,"▁Миню":14262,"▁Капита":14263,"▁числе,":14264,"▁вреза":14265,"son":14266,"дзе":14267,"▁отсле":14268,"▁поликли":14269,"▁Лиге":14270,"▁невер":14271,"▁Астра":14272,"онер":14273,"▁Шо":14274,"найте":14275,"▁общее":14276,"уда":14277,"▁состоянии.":14278,"зили":14279,"▁собрались":14280,"тик":14281,"▁какое-то":14282,"бую":14283,"▁трагедии":14284,"▁Рим":14285,"▁партии.":14286,"▁компроми":14287,"пира":14288,"▁концентра":14289,"▁инициативу":14290,"▁\"Роснефти\"":14291,"▁слухи":14292,"▁проходили":14293,"▁переми":14294,"▁син":14295,"▁Бога":14296,"▁Солнца":14297,"ivate":14298,"▁разум":14299,"▁прова":14300,"▁ежемеся":14301,"осква":14302,"▁миссии":14303,"▁четы":14304,"▁наверняка":14305,"номи":14306,"▁задачу":14307,"▁атаки":14308,"▁знают,":14309,"▁Нако":14310,"▁установлена":14311,"▁амби":14312,"▁её":14313,"док.":14314,"компании":14315,"▁цир":14316,"емую":14317,"▁физической":14318,"▁Am":14319,"стройки":14320,"▁модернизации":14321,"eng":14322,"▁окна":14323,"▁2012,":14324,"▁патриар":14325,"▁они,":14326,"▁Сур":14327,"ченых":14328,"овала":14329,"но\"":14330,"▁ООН,":14331,"сали":14332,"▁единоро":14333,"▁советских":14334,"тура,":14335,"▁Назва":14336,"▁определя":14337,"рский":14338,"▁тогда,":14339,"▁электроэнерги":14340,"▁старше":14341,"▁Хил":14342,"-Анд":14343,"▁завершить":14344,"▁аналитик":14345,"▁пенсии":14346,"▁солне":14347,"pg":14348,"▁нынешней":14349,"▁легче":14350,"▁экипажа":14351,"▁сумме":14352,"▁Берез":14353,"▁Аргенти":14354,"дав":14355,"▁задолженности":14356,"▁работой":14357,"▁инициативы":14358,"▁Генеральный":14359,"▁ГК":14360,"▁Кс":14361,"▁официальные":14362,"▁парламентских":14363,"▁Заяв":14364,"▁Америки":14365,"▁общения":14366,"милли":14367,"▁проезд":14368,"▁me":14369,"▁наконец,":14370,"▁въезд":14371,"▁74":14372,"г\"":14373,"лков":14374,"нения.":14375,"▁Fran":14376,"-t":14377,"▁футболиста":14378,"▁проин":14379,"/2015":14380,"зиат":14381,"▁улиц":14382,"▁опья":14383,"▁потенциал":14384,"▁предложений":14385,"▁доброволь":14386,"▁Последние":14387,"водится":14388,"▁ЛНР":14389,"▁согласен":14390,"▁мм":14391,"▁1,3":14392,"▁установили":14393,"▁способен":14394,"▁помощи.":14395,"сал":14396,"▁Гуд":14397,"▁исправ":14398,"▁революции":14399,"▁налоговой":14400,"#p":14401,"рике":14402,"▁имму":14403,"▁передаче":14404,"ении.":14405,"▁месяца.":14406,"▁Россию,":14407,"▁подачи":14408,"ople":14409,"▁ru":14410,"1]":14411,"▁оказания":14412,"▁карьере":14413,"▁официальной":14414,"▁единого":14415,"чества,":14416,"▁порой":14417,"▁вероятность":14418,"▁технических":14419,"▁судебного":14420,"▁Показа":14421,"колеп":14422,"туда":14423,"бани":14424,"началь":14425,"▁государству":14426,"▁who":14427,"▁напо":14428,"▁выго":14429,"та\".":14430,"▁деревя":14431,"сным":14432,"▁площадки":14433,"▁местный":14434,"▁CN":14435,"▁переговорах":14436,"▁Станислав":14437,"▁комментировать":14438,"▁лондо":14439,"▁мульти":14440,"▁задума":14441,"фести":14442,"рировать":14443,"▁установлено,":14444,"▁московском":14445,"▁Смолен":14446,"▁днев":14447,"▁края.":14448,"▁делегации":14449,"▁любых":14450,"=0":14451,"▁Глу":14452,"▁специ":14453,"▁15,":14454,"▁Заместитель":14455,"▁скло":14456,"▁напол":14457,"▁опу":14458,"▁зелены":14459,"▁вечера":14460,"▁хак":14461,"▁бак":14462,"ey":14463,"▁теракта":14464,"▁Королев":14465,"▁здесь,":14466,"▁Часть":14467,"▁дефицит":14468,"ждую":14469,"▁полную":14470,"▁берегу":14471,"▁упор":14472,"байка":14473,"▁неизбе":14474,"▁бизнеса,":14475,"known":14476,"▁Центрального":14477,"▁Во-вторых,":14478,"надзо":14479,"▁осадков":14480,"▁чьи":14481,"▁кабинета":14482,"▁полагает,":14483,"▁попытался":14484,"▁полит":14485,"▁Это,":14486,"ium":14487,"▁Спустя":14488,"))":14489,"▁яви":14490,"▁крупный":14491,"▁самолеты":14492,"▁жизнью":14493,"м\".":14494,"▁Чай":14495,"▁Тимошенко":14496,"▁появления":14497,"ents":14498,"хла":14499,"amsung":14500,"▁Постоянный":14501,"▁винова":14502,"▁поставили":14503,"бит":14504,"урман":14505,"▁Полузащитник":14506,"▁самоубий":14507,"телям,":14508,"▁Результаты":14509,"▁собрав":14510,"▁будучи":14511,"▁разговор":14512,"▁рыба":14513,"▁сообщества":14514,"бр":14515,"▁постоя":14516,"▁хотите":14517,"▁понимаю,":14518,"-му":14519,"териа":14520,"дой,":14521,"▁проекту":14522,"▁освобождения":14523,"юми":14524,"▁помогут":14525,"шат":14526,"▁голоса":14527,"▁Черного":14528,"▁шел":14529,"▁Матви":14530,"▁ошибки":14531,"▁военную":14532,"▁транспорти":14533,"▁нарушении":14534,"лете":14535,"▁рассчитывает":14536,"▁социально-экономи":14537,"▁(19":14538,"▁политический":14539,"/b":14540,"▁жив":14541,"▁все.":14542,"▁(«":14543,"▁роско":14544,"▁акционеров":14545,"▁градусов":14546,"▁применение":14547,"▁европейские":14548,"▁резона":14549,"▁покупке":14550,"▁совокуп":14551,
[...]
