{"<s>":0,"<pad>":1,"</s>":2,"<unk>":3,"<mask>":4,"!":5,"#":6,"$":7,"%":8,"&":9,"(":10,")":11,"+":12,",":13,"-":14,".":15,"/":16,"0":17,"1":18,"2":19,"3":20,"4":21,"5":22,"6":23,"7":24,"8":25,"9":26,":":27,";":28,"=":29,"?":30,"A":31,"B":32,"C":33,"D":34,"E":35,"F":36,"G":37,"H":38,"I":39,"J":40,"K":41,"L":42,"M":43,"N":44,"O":45,"P":46,"Q":47,"R":48,"S":49,"T":50,"U":51,"V":52,"W":53,"X":54,"Y":55,"Z":56,"\\":57,"^":58,"a":59,"b":60,"c":61,"d":62,"e":63,"f":64,"g":65,"h":66,"i":67,"j":68,"k":69,"l":70,"m":71,"n":72,"o":73,"p":74,"q":75,"r":76,"s":77,"t":78,"u":79,"v":80,"w":81,"x":82,"y":83,"z":84,"{":85,"}":86,"~":87,"":88,"":89,"":90,"":91,"":92,"":93,"":94,"":95,"":96,"":97,"":98,"":99,"":100,"":101,"":102,"":103,"":104,"":105,"":106,"":107,"":108,"":109,"¡":110,"¢":111,"£":112,"¤":113,"¥":114,"¦":115,"§":116,"©":117,"«":118,"¬":119,"­":120,"®":121,"°":122,"±":123,"¶":124,"·":125,"»":126,"¿":127,"À":128,"Á":129,"Â":130,"Ã":131,"Ä":132,"Å":133,"Æ":134,"Ç":135,"È":136,"É":137,"Ê":138,"Ë":139,"Ì":140,"Í":141,"Î":142,"Ï":143,"Ð":144,"Ñ":145,"Ò":146,"Ó":147,"Ô":148,"Õ":149,"Ö":150,"×":151,"Ø":152,"Ù":153,"Ú":154,"Û":155,"Ü":156,"Ý":157,"Þ":158,"ß":159,"à":160,"á":161,"â":162,"ã":163,"ä":164,"å":165,"æ":166,"ç":167,"è":168,"é":169,"ê":170,"ë":171,"ì":172,"í":173,"î":174,"ï":175,"ð":176,"ñ":177,"ò":178,"ó":179,"ô":180,"õ":181,"ö":182,"÷":183,"ø":184,"ù":185,"ú":186,"û":187,"ü":188,"ý":189,"þ":190,"ÿ":191,"Ā":192,"ā":193,"Ă":194,"ă":195,"Ą":196,"ą":197,"Ć":198,"ć":199,"Ĉ":200,"Č":201,"č":202,"Ď":203,"ď":204,"Đ":205,"đ":206,"Ē":207,"ē":208,"ĕ":209,"Ė":210,"ė":211,"Ę":212,"ę":213,"Ě":214,"ě":215,"ĝ":216,"Ğ":217,"ğ":218,"ġ":219,"ģ":220,"Ħ":221,"ħ":222,"ĩ":223,"Ī":224,"ī":225,"į":226,"İ":227,"ı":228,"ĵ":229,"ķ":230,"Ĺ":231,"ĺ":232,"ļ":233,"Ľ":234,"ľ":235,"Ł":236,"ł":237,"Ń":238,"ń":239,"ņ":240,"Ň":241,"ň":242,"Ō":243,"ō":244,"ŏ":245,"Ő":246,"ő":247,"Œ":248,"œ":249,"Ŕ":250,"ŕ":251,"Ř":252,"ř":253,"Ś":254,"ś":255,"Ş":256,"ş":257,"Š":258,"š":259,"Ţ":260,"ţ":261,"Ť":262,"ť":263,"ū":264,"ŭ":265,"Ů":266,"ů":267,"Ű":268,"ű":269,"ų":270,"Ÿ":271,"ź":272,"Ż":273,"ż":274,"Ž":275,"ž":276,"ƒ":277,"ơ":278,"ư":279,"ǎ":280,"ǐ":281,"ǔ":282,"ț":283,"ɐ":284,"ɑ":285,"ɔ":286,"ə":287,"ɛ":288,"ɪ":289,"ɹ":290,"ɾ":291,"ʀ":292,"ʃ":293,"ʊ":294,"ʒ":295,"ʿ":296,"ˆ":297,"ˈ":298,"ˌ":299,"ː":300,"́":301,"̃":302,"̄":303,"̆":304,"̇":305,"̈":306,"̊":307,"̋":308,"̍":309,"̤":310,"̧":311,"̨":312,"̯":313,"Ά":314,"Α":315,"Β":316,"Γ":317,"Δ":318,"Ε":319,"Ζ":320,"Η":321,"Θ":322,"Ι":323,"Κ":324,"Λ":325,"Μ":326,"Ν":327,"Ο":328,"Π":329,"Ρ":330,"Σ":331,"Τ":332,"Υ":333,"Φ":334,"Χ":335,"Ω":336,"ά":337,"έ":338,"ή":339,"ί":340,"α":341,"β":342,"γ":343,"δ":344,"ε":345,"ζ":346,"η":347,"θ":348,"ι":349,"κ":350,"λ":351,"μ":352,"ν":353,"ξ":354,"ο":355,"π":356,"ρ":357,"ς":358,"σ":359,"τ":360,"υ":361,"φ":362,"χ":363,"ψ":364,"ω":365,"ϊ":366,"ϋ":367,"ό":368,"ύ":369,"ώ":370,"Ђ":371,"Ѓ":372,"Є":373,"Ѕ":374,"І":375,"Љ":376,"Њ":377,"Ћ":378,"Ќ":379,"Џ":380,"А":381,"Б":382,"В":383,"Г":384,"Д":385,"Е":386,"Ж":387,"З":388,"И":389,"Й":390,"К":391,"Л":392,"М":393,"Н":394,"О":395,"П":396,"Р":397,"С":398,"Т":399,"У":400,"Ф":401,"Х":402,"Ц":403,"Ч":404,"Ш":405,"Ь":406,"Э":407,"Ю":408,"Я":409,"а":410,"б":411,"в":412,"г":413,"д":414,"е":415,"ж":416,"з":417,"и":418,"й":419,"к":420,"л":421,"м":422,"н":423,"о":424,"п":425,"р":426,"с":427,"т":428,"у":429,"ф":430,"х":431,"ц":432,"ч":433,"ш":434,"щ":435,"ъ":436,"ы":437,"ь":438,"э":439,"ю":440,"я":441,"ё":442,"ѓ":443,"є":444,"ѕ":445,"і":446,"ї":447,"ј":448,"љ":449,"њ":450,"ћ":451,"ќ":452,"ў":453,"џ":454,"Ґ":455,"ґ":456,"ғ":457,"қ":458,"ҡ":459,"ң":460,"ү":461,"ұ":462,"һ":463,"ә":464,"ө":465,"ְ":466,"ֳ":467,"ִ":468,"ַ":469,"ָ":470,"ּ":471,"ֿ":472,"א":473,"ב":474,"ג":475,"ד":476,"ה":477,"ו":478,"ז":479,"ח":480,"ט":481,"י":482,"כ":483,"ל":484,"ם":485,"מ":486,"ן":487,"נ":488,"ס":489,"ע":490,"פ":491,"ץ":492,"צ":493,"ק":494,"ר":495,"ש":496,"ת":497,"،":498,"ء":499,"آ":500,"أ":501,"إ":502,"ئ":503,"ا":504,"ب":505,"ة":506,"ت":507,"ث":508,"ج":509,"ح":510,"خ":511,"د":512,"ذ":513,"ر":514,"ز":515,"س":516,"ش":517,"ص":518,"ض":519,"ط":520,"ع":521,"غ":522,"ـ":523,"ف":524,"ق":525,"ك":526,"ل":527,"م":528,"ن":529,"ه":530,"و":531,"ى":532,"ي":533,"ً":534,"َ":535,"ُ":536,"ِ":537,"ّ":538,"ْ":539,"پ":540,"ک":541,"ی":542,"۰":543,"۱":544,"۲":545,"۹":546,"अ":547,"क":548,"त":549,"द":550,"न":551,"प":552,"ब":553,"म":554,"य":555,"र":556,"ल":557,"श":558,"स":559,"ह":560,"ा":561,"ि":562,"ी":563,"ु":564,"े":565,"ो":566,"्":567,"ন":568,"ব":569,"র":570,"ি":571,"্":572,"்":573,"ก":574,"ข":575,"ค":576,"ง":577,"จ":578,"ช":579,"ญ":580,"ฎ":581,"ณ":582,"ด":583,"ต":584,"ถ":585,"ท":586,"ธ":587,"น":588,"บ":589,"ป":590,"พ":591,"ม":592,"ย":593,"ร":594,"ล":595,"ว":596,"ศ":597,"ษ":598,"ส":599,"ห":600,"อ":601,"ะ":602,"ั":603,"า":604,"ิ":605,"ี":606,"ึ":607,"ื":608,"ุ":609,"ู":610,"฿":611,"เ":612,"แ":613,"โ":614,"ใ":615,"ไ":616,"็":617,"่":618,"้":619,"ํ":620,"ຸ":621,"ა":622,"გ":623,"დ":624,"ე":625,"ვ":626,"ი":627,"ლ":628,"მ":629,"ნ":630,"ო":631,"რ":632,"ს":633,"შ":634,"ረ":635,"ር":636,"በ":637,"ዓ":638,"የ":639,"ይ":640,"ḍ":641,"ḥ":642,"ṃ":643,"ṛ":644,"ṣ":645,"ṭ":646,"ṳ":647,"ạ":648,"ả":649,"ậ":650,"ế":651,"ễ":652,"ệ":653,"ọ":654,"ố":655,"ồ":656,"ổ":657,"ộ":658,"ớ":659,"ở":660,"ủ":661,"ỹ":662,"ἰ":663,"ῆ":664,"​":665,"‌":666,"‎":667,"‏":668,"‐":669,"‒":670,"–":671,"—":672,"―":673,"‘":674,"’":675,"‚":676,"‛":677,"“":678,"”":679,"„":680,"‟":681,"†":682,"‡":683,"•":684,"‬":685,"‭":686,"‰":687,"′":688,"‹":689,"›":690,"※":691,"⁄":692,"₪":693,"€":694,"←":695,"↑":696,"→":697,"⇒":698,"⇢":699,"−":700,"√":701,"∞":702,"≈":703,"≤":704,"≥":705,"≪":706,"≫":707,"─":708,"╚":709,"╩":710,"▁":711,"■":712,"▪":713,"►":714,"▼":715,"◆":716,"◊":717,"○":718,"◎":719,"●":720,"★":721,"☆":722,"♀":723,"♣":724,"♥":725,"♦":726,"♪":727,"、":728,"。":729,"「":730,"」":731,"『":732,"』":733,"【":734,"】":735,"あ":736,"い":737,"う":738,"お":739,"か":740,"が":741,"き":742,"く":743,"け":744,"し":745,"す":746,"せ":747,"た":748,"ち":749,"っ":750,"つ":751,"て":752,"で":753,"と":754,"に":755,"の":756,"は":757,"ば":758,"ま":759,"め":760,"も":761,"や":762,"ら":763,"り":764,"る":765,"れ":766,"を":767,"ん":768,"゚":769,"イ":770,"オ":771,"カ":772,"コ":773,"サ":774,"ジ":775,"ス":776,"セ":777,"ッ":778,"テ":779,"ト":780,"ド":781,"ナ":782,"ニ":783,"バ":784,"ビ":785,"フ":786,"マ":787,"ユ":788,"ラ":789,"リ":790,"ル":791,"レ":792,"ワ":793,"ン":794,"・":795,"ー":796,"一":797,"三":798,"上":799,"下":800,"不":801,"东":802,"个":803,"中":804,"为":805,"乐":806,"了":807,"事":808,"二":809,"五":810,"京":811,"人":812,"仁":813,"以":814,"会":815,"伦":816,"体":817,"你":818,"修":819,"克":820,"免":821,"入":822,"八":823,"出":824,"分":825,"切":826,"剥":827,"北":828,"区":829,"匿":830,"南":831,"博":832,"原":833,"去":834,"参":835,"取":836,"口":837,"只":838,"可":839,"台":840,"司":841,"合":842,"名":843,"吗":844,"吸":845,"呼":846,"和":847,"啦":848,"国":849,"图":850,"國":851,"在":852,"场":853,"城":854,"多":855,"大":856,"天":857,"头":858,"套":859,"女":860,"娱":861,"子":862,"字":863,"学":864,"安":865,"定":866,"家":867,"宿":868,"寺":869,"寿":870,"小":871,"就":872,"山":873,"島":874,"川":875,"州":876,"市":877,"常":878,"平":879,"年":880,"広":881,"应":882,"式":883,"引":884,"当":885,"影":886,"德":887,"思":888,"愛":889,"我":890,"手":891,"持":892,"敏":893,"文":894,"新":895,"方":896,"日":897,"明":898,"是":899,"更":900,"最":901,"有":902,"木":903,"本":904,"机":905,"李":906,"来":907,"東":908,"楽":909,"正":910,"武":911,"比":912,"民":913,"水":914,"江":915,"治":916,"法":917,"海":918,"清":919,"港":920,"湾":921,"漢":922,"物":923,"王":924,"球":925,"理":926,"生":927,"用":928,"田":929,"疫":930,"的":931,"直":932,"相":933,"県":934,"知":935,"社":936,"神":937,"禅":938,"种":939,"空":940,"站":941,"简":942,"网":943,"美":944,"能":945,"腹":946,"臘":947,"自":948,"舅":949,"舖":950,"舫":951,"色":952,"花":953,"藤":954,"行":955,"表":956,"西":957,"见":958,"解":959,"語":960,"语":961,"谷":962,"赌":963,"越":964,"路":965,"过":966,"选":967,"通":968,"道":969,"遝":970,"郎":971,"都":972,"配":973,"里":974,"金":975,"鋓":976,"鋘":977,"鋜":978,"问":979,"雄":980,"青":981,"面":982,"音":983,"页":984,"顶":985,"题":986,"风":987,"食":988,"館":989,"馬":990,"黚":991,"黵":992,"국":993,"년":994,"어":995,"이":996,"한":997,"":998,"":999,"":1000,"":1001,"":1002,"﻿":1003,"�":1004,"en":1005,"er":1006,"ch":1007,"▁d":1008,"ei":1009,"un":1010,"ie":1011,"▁,":1012,"st":1013,"in":1014,"▁.":1015,"▁a":1016,"es":1017,"ich":1018,"on":1019,"▁un":1020,"▁die":1021,"ein":1022,"▁w":1023,"▁s":1024,"##":1025,"an":1026,"ung":1027,"▁S":1028,"ge":1029,"▁der":1030,"sch":1031,"▁und":1032,"te":1033,"ti":1034,"▁v":1035,"▁ein":1036,"or":1037,"ll":1038,"▁A":1039,"ten":1040,"ar":1041,"as":1042,"▁b":1043,"▁z":1044,"▁m":1045,"it":1046,"▁D":1047,"ur":1048,"▁E":1049,"▁i":1050,"▁B":1051,"gen":1052,"▁in":1053,"us":1054,"em":1055,"den":1056,"hr":1057,"al":1058,"▁n":1059,"AT":1060,"der":1061,"##AT":1062,"##AT##":1063,"▁M":1064,"▁f":1065,"▁P":1066,"ir":1067,"▁h":1068,"ter":1069,"ra":1070,"▁K":1071,"▁zu":1072,"▁F":1073,"lich":1074,"▁I":1075,"uf":1076,"▁W":1077,"et":1078,"▁G":1079,"ür":1080,"el":1081,"▁k":1082,"▁V":1083,"mm":1084,"at":1085,"▁das":1086,"eit":1087,"is":1088,"▁R":1089,"▁H":1090,"▁den":1091,"ber":1092,"▁g":1093,"ro":1094,"isch":1095,"▁von":1096,"ier":1097,"▁ge":1098,"de":1099,"icht":1100,"▁T":1101,"▁wir":1102,"▁an":1103,"ben":1104,"▁L":1105,"tion":1106,"ent":1107,"▁er":1108,"▁ist":1109,"um":1110,"re":1111,"▁##AT##":1112,"▁auf":1113,"-##AT##":1114,"▁##AT##-##AT##":1115,"▁für":1116,"ol":1117,"ach":1118,"am":1119,"uch":1120,"eh":1121,"sen":1122,"▁ver":1123,"▁mit":1124,"▁U":1125,"ig":1126,"ck":1127,"▁Z":1128,"▁Ver":1129,"se":1130,"▁des":1131,"ser":1132,"▁be":1133,"and":1134,"ell":1135,"▁l":1136,"ungen":1137,"▁N":1138,"ut":1139,"nen":1140,"▁Die":1141,"ft":1142,"▁o":1143,"eich":1144,"si":1145,"▁In":1146,"▁eine":1147,"▁so":1148,"▁Sie":1149,"▁im":1150,"▁wer":1151,"▁nicht":1152,"il":1153,"ind":1154,"op":1155,"ot":1156,"sp":1157,"ischen":1158,"über":1159,"le":1160,"▁sich":1161,"än":1162,"▁&":1163,"omm":1164,"kt":1165,"▁werden":1166,"ff":1167,"ah":1168,"▁dem":1169,"▁p":1170,"▁St":1171,"▁dass":1172,"ls":1173,"▁An":1174,"om":1175,"ation":1176,"▁aus":1177,"▁t":1178,"▁C":1179,"▁Un":1180,"▁Re":1181,"ahr":1182,"▁es":1183,"la":1184,"▁über":1185,"ann":1186,"ehr":1187,"ri":1188,"▁st":1189,"▁1":1190,"eu":1191,"▁J":1192,"▁auch":1193,"qu":1194,"ien":1195,"▁da":1196,"sten":1197,"urop":1198,"gt":1199,"etz":1200,"rei":1201,"▁Sch":1202,"be":1203,"▁um":1204,"ungs":1205,"men":1206,"och":1207,"▁ha":1208,"▁sind":1209,"lle":1210,"▁2":1211,"scha":1212,"▁(":1213,"▁vor":1214,"rä":1215,"▁wird":1216,"▁)":1217,"▁Be":1218,"ern":1219,"▁j":1220,"esch":1221,"wei":1222,"▁als":1223,"▁sch":1224,"hal":1225,"ön":1226,"▁Pro":1227,"▁bei":1228,"ver":1229,"▁wie":1230,"end":1231,"▁Er":1232,"▁Ein":1233,"iel":1234,"lie":1235,"tig":1236,"os":1237,"ort":1238,"▁O":1239,"00":1240,"▁En":1241,"enn":1242,"▁ich":1243,"▁hat":1244,"▁sein":1245,"▁oder":1246,"eil":1247,"au":1248,"▁e":1249,"schaft":1250,"▁:":1251,"ät":1252,"▁Aus":1253,"▁Europ":1254,"▁dies":1255,"quot":1256,"▁&quot":1257,"▁&quot;":1258,"▁zur":1259,"▁-":1260,"urch":1261,"zu":1262,"tern":1263,"▁Mit":1264,"tel":1265,"aus":1266,"▁haben":1267,"▁Ber":1268,"he":1269,"▁sie":1270,"▁Her":1271,"imm":1272,"lichen":1273,"stell":1274,"ing":1275,"und":1276,"▁ent":1277,"▁einer":1278,"▁ihr":1279,"sion":1280,"ische":1281,"▁kön":1282,"▁Ar":1283,"rü":1284,"ion":1285,"ab":1286,"tet":1287,"▁Wir":1288,"▁unser":1289,"ul":1290,"for":1291,"fü":1292,"ger":1293,"aten":1294,"dern":1295,"schen":1296,"cht":1297,"ick":1298,"ik":1299,"zen":1300,"eiten":1301,"▁nach":1302,"heit":1303,"▁unter":1304,"▁einen":1305,"▁Das":1306,"ed":1307,"sta":1308,"llen":1309,"keit":1310,"är":1311,"▁Komm":1312,"ang":1313,"iti":1314,"▁Fra":1315,"ru":1316,"uss":1317,"elt":1318,"▁Par":1319,"igen":1320,"ste":1321,"▁durch":1322,"▁Ich":1323,"▁wur":1324,"wer":1325,"▁können":1326,"tiv":1327,"▁Ge":1328,"liche":1329,"oh":1330,"anz":1331,"▁dar":1332,"▁Jahr":1333,"▁Kommis":1334,"▁Herr":1335,"▁Vor":1336,"ommen":1337,"rie":1338,"▁mö":1339,"▁Sp":1340,"bl":1341,"ehen":1342,"ne":1343,"ant":1344,"reich":1345,"▁zum":1346,"ap":1347,"ör":1348,"ag":1349,"▁Ent":1350,"▁Ab":1351,"▁einem":1352,"ad":1353,"beit":1354,"ieren":1355,"glich":1356,"eine":1357,"uß":1358,"chte":1359,"▁Europä":1360,"iert":1361,"pf":1362,"▁uns":1363,"▁all":1364,"▁kann":1365,"▁diese":1366,"ktion":1367,"chen":1368,"üs":1369,"est":1370,"ken":1371,"▁nur":1372,"du":1373,"bar":1374,"▁Auf":1375,"▁Ihr":1376,"ige":1377,"▁ander":1378,"oliti":1379,"▁Der":1380,"▁ab":1381,"all":1382,"ün":1383,"ist":1384,"eiter":1385,"ahl":1386,"▁Kon":1387,"ffen":1388,"▁Ho":1389,"ges":1390,"amm":1391,"▁!":1392,"räsi":1393,"geb":1394,"▁war":1395,"che":1396,"ok":1397,"bt":1398,"räsiden":1399,"▁dieser":1400,"▁Kommission":1401,"▁Es":1402,"ehmen":1403,"auf":1404,"▁neu":1405,"hen":1406,"rit":1407,"ähr":1408,"▁ber":1409,"▁re":1410,"ierung":1411,"▁Ma":1412,"fen":1413,"▁daß":1414,"og":1415,"rund":1416,"▁noch":1417,"▁sp":1418,"üt":1419,"zi":1420,"ran":1421,"lei":1422,"ers":1423,"tra":1424,"▁am":1425,"nis":1426,"ück":1427,"räsident":1428,"eren":1429,"utz":1430,"ität":1431,"▁wurde":1432,"alen":1433,"lam":1434,"▁mehr":1435,"▁soll":1436,"ic":1437,"▁200":1438,"glie":1439,"▁aber":1440,"gel":1441,"äh":1442,"oll":1443,"▁müs":1444,"▁Um":1445,"wick":1446,"▁wenn":1447,"ug":1448,"tigen":1449,"▁c":1450,"ner":1451,"age":1452,"▁man":1453,"eg":1454,"ess":1455,"stimm":1456,"▁de":1457,"form":1458,"▁/":1459,"leich":1460,"▁sehr":1461,"▁müssen":1462,"assen":1463,"ord":1464,"ze":1465,"ert":1466,"▁r":1467,"▁Mitglie":1468,"▁Präsident":1469,"ill":1470,"ht":1471,"▁zw":1472,"lament":1473,"nah":1474,"▁?":1475,"etzt":1476,"▁bis":1477,"▁sow":1478,"me":1479,"ak":1480,"lin":1481,"▁bes":1482,"fahr":1483,"ekt":1484,"▁Parlament":1485,"ammen":1486,"führ":1487,"iz":1488,"▁ges":1489,"ale":1490,"ma":1491,"usammen":1492,"ob":1493,"roß":1494,"▁3":1495,"▁diesem":1496,"▁hin":1497,"ek":1498,"▁Men":1499,"▁Union":1500,"▁weiter":1501,"tschaft":1502,"▁Reg":1503,"▁gegen":1504,"▁was":1505,"▁gen":1506,"atz":1507,"▁Arbeit":1508,"sam":1509,"▁&#":1510,"pp":1511,"wend":1512,"ass":1513,"unden":1514,"änd":1515,"▁Unter":1516,"▁Europäischen":1517,"fol":1518,"lung":1519,"hnen":1520,"▁alle":1521,"mit":1522,"acht":1523,"▁gew":1524,"onder":1525,"sche":1526,"schie":1527,"olle":1528,"▁Ü":1529,"eben":1530,"ließ":1531,"▁Mitglied":1532,"▁bet":1533,"gra":1534,"▁kon":1535,"stem":1536,"▁gem":1537,"▁De":1538,"ationen":1539,"vor":1540,"▁her":1541,"▁möchte":1542,"halten":1543,"lä":1544,"di":1545,"omp":1546,"ellen":1547,"äl":1548,"▁kl":1549,"eigen":1550,"alt":1551,"▁19":1552,"halt":1553,"▁Zeit":1554,"▁Hotel":1555,"▁Ges":1556,"ystem":1557,"▁–":1558,"ech":1559,"ichtig":1560,"art":1561,"▁Rat":1562,"rin":1563,"▁Zu":1564,"dem":1565,"▁Über":1566,"kommen":1567,"▁..":1568,"▁hier":1569,"her":1570,"ühr":1571,"▁eines":1572,"▁For":1573,"▁EU":1574,"ibt":1575,"tige":1576,"uropä":1577,"▁So":1578,"land":1579,"▁je":1580,"lan":1581,"gan":1582,"ren":1583,"▁vom":1584,"stüt":1585,"mal":1586,"▁groß":1587,"▁Frau":1588,"nung":1589,"ast":1590,"zie":1591,"inden":1592,"▁lie":1593,"▁ihre":1594,"▁Bericht":1595,"ha":1596,"▁Menschen":1597,"▁&#9":1598,"▁sowie":1599,"äch":1600,"▁europä":1601,"bes":1602,"▁zwei":1603,"▁dieses":1604,"igkeit":1605,"▁jed":1606,"▁...":1607,"teil":1608,"▁et":1609,"icher":1610,"änder":1611,"▁Bei":1612,"▁gibt":1613,"▁Mar":1614,"olitik":1615,"ster":1616,"bst":1617,"ho":1618,"▁wo":1619,"▁Im":1620,"kl":1621,"▁Land":1622,"pt":1623,"ohl":1624,"mmer":1625,"halb":1626,"blem":1627,"lau":1628,"ild":1629,"iele":1630,"ften":1631,"staaten":1632,"▁viel":1633,"▁Entwick":1634,"▁best":1635,"▁zwischen":1636,"wir":1637,"▁Nach":1638,"öglich":1639,"▁Ch":1640,"mer":1641,"ati":1642,"▁muss":1643,"▁“":1644,"amit":1645,"einen":1646,"▁unsere":1647,"los":1648,"andel":1649,"setz":1650,"▁keine":1651,"ank":1652,"ss":1653,"▁pro":1654,"▁bie":1655,"war":1656,"▁bereit":1657,"▁Ihnen":1658,"▁Or":1659,"gramm":1660,"▁ausge":1661,"▁beg":1662,"▁ange":1663,"rauch":1664,"agen":1665,"sicht":1666,"eschä":1667,"▁Recht":1668,"eute":1669,"achen":1670,"▁Mitgliedstaaten":1671,"ativ":1672,"gung":1673,"▁Haus":1674,"bei":1675,"▁4":1676,"stat":1677,"▁Grund":1678,"▁son":1679,"öff":1680,"ett":1681,"apos":1682,"▁&apos":1683,"▁&apos;":1684,"▁Produ":1685,"eht":1686,"▁the":1687,"▁anderen":1688,"pro":1689,"▁5":1690,"zeu":1691,"id":1692,"▁Ä":1693,"▁Europa":1694,"▁Zusammen":1695,"our":1696,"ternehmen":1697,"▁„":1698,"lo":1699,"eb":1700,"▁bef":1701,"rö":1702,"forder":1703,"entr":1704,"geben":1705,"ga":1706,"gend":1707,"issen":1708,"itu":1709,"ußer":1710,"keiten":1711,"ler":1712,"▁Problem":1713,"iv":1714,"iger":1715,"elbst":1716,"▁Wenn":1717,"ischer":1718,"▁immer":1719,"immer":1720,"▁ger":1721,"▁Fl":1722,"ate":1723,"weise":1724,"fe":1725,"stellen":1726,"▁;":1727,"chten":1728,"schließ":1729,"gesch":1730,"unkt":1731,"ov":1732,"▁dann":1733,"kte":1734,"inanz":1735,"▁Welt":1736,"▁Al":1737,"▁Vorsch":1738,"▁Bereich":1739,"▁Inform":1740,"len":1741,"▁Bür":1742,"eid":1743,"ständ":1744,"▁Q":1745,"▁ins":1746,"▁diesen":1747,"▁wieder":1748,"amen":1749,"▁damit":1750,"▁Kl":1751,"nahmen":1752,"ritt":1753,"▁Verb":1754,"▁einz":1755,"gie":1756,"trag":1757,"▁gesch":1758,"▁ganz":1759,"legen":1760,"▁wurden":1761,"stellt":1762,"fer":1763,"enden":1764,"ös":1765,"od":1766,"▁eigen":1767,"per":1768,"ce":1769,"ternation":1770,"ding":1771,"arbeit":1772,"▁Dies":1773,"zung":1774,"▁Diese":1775,"icherheit":1776,"zeich":1777,"innen":1778,"ard":1779,"äm":1780,"▁neue":1781,"▁Ste":1782,"▁wichtig":1783,"rün":1784,"ändern":1785,"rechen":1786,"▁Qu":1787,"▁unserer":1788,"schieden":1789,"rag":1790,"▁Geb":1791,"lag":1792,"hne":1793,"▁Ihre":1794,"we":1795,"elle":1796,"▁Th":1797,"wort":1798,"▁mein":1799,"sel":1800,"zeit":1801,"richt":1802,"▁habe":1803,"tur":1804,"ats":1805,"pl":1806,"ia":1807,"▁Gem":1808,"ßen":1809,"▁sondern":1810,"fahren":1811,"einsam":1812,"fl":1813,"olog":1814,"▁jedoch":1815,"▁Maß":1816,"▁seine":1817,"▁Europäische":1818,"stand":1819,"inder":1820,"▁Bet":1821,"▁politi":1822,"ment":1823,"erson":1824,"satz":1825,"reichen":1826,"alis":1827,"▁Sta":1828,"ke":1829,"▁20":1830,"zt":1831,"mittel":1832,"net":1833,"▁etw":1834,"ragen":1835,"ust":1836,"inn":1837,"▁wür":1838,"▁Stra":1839,"▁heute":1840,"▁en":1841,"fach":1842,"ruck":1843,"tik":1844,"▁ho":1845,"▁Unternehmen":1846,"min":1847,"lagen":1848,"▁Än":1849,"▁ob":1850,"▁gleich":1851,"▁Was":1852,"sk":1853,"erv":1854,"▁wen":1855,"für":1856,"▁and":1857,"zei":1858,"osten":1859,"▁Kolle":1860,"röß":1861,"such":1862,"uten":1863,"äre":1864,"essen":1865,"▁Änder":1866,"tro":1867,"▁bereits":1868,"▁Teil":1869,"▁Wie":1870,"licher":1871,"att":1872,"▁mich":1873,"▁Entwicklung":1874,"▁selbst":1875,"eist":1876,"kehr":1877,"okra":1878,"▁unterstüt":1879,"▁sollte":1880,"fall":1881,"▁Daten":1882,"▁wel":1883,"tionen":1884,"lage":1885,"alität":1886,"eite":1887,"ktiv":1888,"▁Frage":1889,"▁ex":1890,"ub":1891,"▁führ":1892,"▁europäischen":1893,"▁ihrer":1894,"▁neuen":1895,"ow":1896,"▁ohne":1897,"orden":1898,"chn":1899,"▁Leben":1900,"▁Wer":1901,"▁Jahren":1902,"▁verb":1903,"▁Hin":1904,"indet":1905,"▁Richt":1906,"stellung":1907,"eld":1908,"▁andere":1909,"▁%":1910,"▁Stad":1911,"mus":1912,"▁Inter":1913,"▁Te":1914,"öffent":1915,"▁internation":1916,"im":1917,"▁denn":1918,"▁Min":1919,"▁Sicherheit":1920,"ierte":1921,"▁fest":1922,"▁Se":1923,"▁Mon":1924,"ere":1925,"fern":1926,"ält":1927,"▁sollten":1928,"▁Bürger":1929,"tre":1930,"▁finden":1931,"gem":1932,"amp":1933,"▁denen":1934,"cken":1935,"▁System":1936,"▁Programm":1937,"kun":1938,"▁Bes":1939,"▁gemeinsam":1940,"▁möglich":1941,"io":1942,"atur":1943,"▁verschieden":1944,"▁for":1945,"nisse":1946,"nahme":1947,"▁Des":1948,"oren":1949,"rupp":1950,"▁Tag":1951,"ondere":1952,"▁Stadt":1953,"ährend":1954,"esse":1955,"▁bietet":1956,"zahl":1957,"▁sol":1958,"hn":1959,"ktur":1960,"tigt":1961,"leist":1962,"arb":1963,"ffe":1964,"nte":1965,"▁6":1966,"osi":1967,"luss":1968,"▁Wirtschaft":1969,"▁Mittel":1970,"unktion":1971,"▁Li":1972,"ker":1973,"ele":1974,"▁dazu":1975,"tieren":1976,"ünf":1977,"▁Part":1978,"▁liegt":1979,"▁entsp":1980,"ichte":1981,"▁Inst":1982,"isk":1983,"äng":1984,"ierten":1985,"▁machen":1986,"▁allen":1987,"kunft":1988,"▁Möglich":1989,"▁aller":1990,"▁viele":1991,"▁Person":1992,"hör":1993,"hin":1994,"▁weil":1995,"ade":1996,"ahmen":1997,"▁of":1998,"▁bek":1999,"welt":2000,"ander":2001,"äß":2002,"3;":2003,"▁&#93;":2004,"▁letz":2005,"sar":2006,"eiden":2007,"1;":2008,"▁&#91;":2009,"▁Web":2010,"under":2011,"▁darauf":2012,"▁seiner":2013,"▁ben":2014,"eise":2015,"▁jetzt":2016,"wert":2017,"ial":2018,"igung":2019,"aher":2020,"alten":2021,"aupt":2022,"▁Stand":2023,"▁Ex":2024,"wor":2025,"▁beh":2026,"zug":2027,"▁Them":2028,"▁größ":2029,"▁Gen":2030,"▁sicher":2031,"▁Man":2032,"ienst":2033,"reis":2034,"umen":2035,"iss":2036,"▁ar":2037,"▁US":2038,"▁kein":2039,"▁Ger":2040,"▁Rahmen":2041,"ice":2042,"▁einge":2043,"lungen":2044,"▁voll":2045,"▁Informationen":2046,"▁geb":2047,"ganis":2048,"▁geht":2049,"▁Maßnahmen":2050,"▁Lage":2051,"atür":2052,"▁einfach":2053,"ringen":2054,"▁wirk":2055,"▁Zimmer":2056,"▁schon":2057,"annt":2058,"ultur":2059,"▁gef":2060,"ud":2061,"kon":2062,"▁Mein":2063,"▁eben":2064,"▁Finanz":2065,"▁Gemein":2066,"lossen":2067,"▁gut":2068,"▁einige":2069,"oten":2070,"ionen":2071,"▁dafür":2072,"zial":2073,"▁Verein":2074,"▁Am":2075,"ungsant":2076,"ay":2077,"ts":2078,"klär":2079,"tiert":2080,"spiel":2081,"mar":2082,"eln":2083,"▁Jahre":2084,"▁Fall":2085,"gar":2086,"▁Aussch":2087,"esen":2088,"▁te":2089,"rän":2090,"▁Herrn":2091,"ute":2092,"▁Kommissar":2093,"▁Pl":2094,"affen":2095,"folg":2096,"hält":2097,"▁zurück":2098,"ks":2099,"otwend":2100,"bau":2101,"öl":2102,"ron":2103,"itz":2104,"heiten":2105,"grund":2106,"▁to":2107,"▁allem":2108,"▁Ziel":2109,"tischen":2110,"▁ihren":2111,"lichkeit":2112,"▁Eur":2113,"ine":2114,"äten":2115,"besser":2116,"ris":2117,"üh":2118,"▁Gew":2119,"▁deut":2120,"▁Mo":2121,"▁dir":2122,"▁meine":2123,"▁nun":2124,"ven":2125,"▁Da":2126,"gew":2127,"▁zusammen":2128,"▁bin":2129,"gang":2130,"ichten":2131,"▁Für":2132,"setzung":2133,"uer":2134,"ER":2135,"▁mir":2136,"▁Bl":2137,"ite":2138,"▁7":2139,"eicht":2140,"▁0":2141,"▁Ö":2142,"▁al":2143,"▁besonder":2144,"scheid":2145,"▁All":2146,"▁mo":2147,"▁unseren":2148,"besondere":2149,"▁8":2150,"▁besch":2151,"▁Eine":2152,"genommen":2153,"▁wollen":2154,"▁Aut":2155,"ac":2156,"punkt":2157,"iet":2158,"▁199":2159,"▁verfü":2160,"aler":2161,"führt":2162,"ohn":2163,"antwort":2164,"anden":2165,"▁Ener":2166,"▁9":2167,"▁Ha":2168,"ange":2169,"so":2170,"aren":2171,"ruktur":2172,"ogen":2173,"▁würde":2174,"▁Gesch":2175,"▁10":2176,"gleich":2177,"▁Proj":2178,"ations":2179,"eiß":2180,"spro":2181,"fte":2182,"reu":2183,"riv":2184,"w.":2185,"licht":2186,"▁seit":2187,"ichter":2188,"▁Parlaments":2189,"▁Bild":2190,"ahn":2191,"gr":2192,"▁stehen":2193,"▁Lös":2194,"▁etwas":2195,"aum":2196,"▁während":2197,"▁sagen":2198,"itte":2199,"▁Vorschlag":2200,"▁wissen":2201,"▁Länder":2202,"stimmung":2203,"▁Bar":2204,"recht":2205,"yp":2206,"▁Me":2207,"ond":2208,"sto":2209,"▁doch":2210,"▁Rechts":2211,"▁Geschä":2212,"gangen":2213,"▁Form":2214,"▁Frei":2215,"▁Dem":2216,"▁Und":2217,"ta":2218,"deut":2219,"rem":2220,"unde":2221,"ordnung":2222,"werb":2223,"ekte":2224,"▁drei":2225,"▁Unterstüt":2226,"anken":2227,"▁Unser":2228,"rache":2229,"▁bestimm":2230,"▁Durch":2231,"▁erm":2232,"▁ersten":2233,"linie":2234,"rom":2235,"▁verw":2236,"▁insbesondere":2237,"▁schn":2238,"fra":2239,"▁Komp":2240,"▁Ter":2241,"fft":2242,"▁erhalten":2243,"▁kommen":2244,"hand":2245,"▁Bo":2246,"▁außer":2247,"▁nie":2248,"▁fol":2249,"atürlich":2250,"▁komm":2251,"schaften":2252,"▁Kunden":2253,"▁Fraktion":2254,"▁Politik":2255,"räge":2256,"▁Verfü":2257,"▁Markt":2258,"▁Haushalt":2259,"▁einmal":2260,"amil":2261,"ende":2262,"erk":2263,"▁Beh":2264,"rank":2265,"▁öffent":2266,"utzen":2267,"▁Umwelt":2268,"ätz":2269,"ark":2270,"▁Ur":2271,"agt":2272,"lungs":2273,"assung":2274,"▁waren":2275,"hol":2276,"falls":2277,"▁Sti":2278,"fri":2279,"ilfe":2280,"▁verst":2281,"▁Mill":2282,"▁Unterstützung":2283,"▁beim":2284,"isten":2285,"▁Arbeits":2286,"tels":2287,"▁spe":2288,"itäten":2289,"▁Zusammenarbeit":2290,"zü":2291,"ellschaft":2292,"gabe":2293,"▁Namen":2294,"▁also":2295,"▁Mus":2296,"▁wirtschaft":2297,"▁letzten":2298,"vers":2299,"▁nation":2300,"ache":2301,"▁Art":2302,"▁The":2303,"▁Spiel":2304,"▁lassen":2305,"▁bede":2306,"▁Zug":2307,"gehen":2308,"▁Lin":2309,"▁Gemeinschaft":2310,"▁Tran":2311,"arten":2312,"▁Intern":2313,"▁Ländern":2314,"▁geben":2315,"▁Änderungsant":2316,"legt":2317,"▁Energie":2318,"hö":2319,"▁Flug":2320,"altung":2321,"▁entwick":2322,"raum":2323,"▁la":2324,"orgen":2325,"▁Deut":2326,"▁umf":2327,"▁Em":2328,"neh":2329,"▁Haupt":2330,"▁besteht":2331,"▁besser":2332,"▁sehen":2333,"ktu":2334,"ismus":2335,"ald":2336,"ign":2337,"örder":2338,"ina":2339,"führung":2340,"ost":2341,"ware":2342,"ian":2343,"uchen":2344,"tier":2345,"nten":2346,"von":2347,"▁Als":2348,"raft":2349,"druck":2350,"▁Handel":2351,"▁Fragen":2352,"▁gel":2353,"▁Euro":2354,"etzen":2355,"▁steht":2356,"xt":2357,"schied":2358,"gaben":2359,"wendung":2360,"▁gest":2361,"▁tun":2362,"▁komp":2363,"▁Ad":2364,"urz":2365,"glichen":2366,"echn":2367,"▁Dienst":2368,"ative":2369,"▁frei":2370,"uft":2371,"kten":2372,"▁Besch":2373,"▁seinen":2374,"iell":2375,"▁inter":2376,"nehmen":2377,"gri":2378,"tisch":2379,"▁Beit":2380,"▁Regierung":2381,"ichts":2382,"▁statt":2383,"▁ch":2384,"lex":2385,"zieh":2386,"▁La":2387,"rieb":2388,"ichterstat":2389,"▁wäre":2390,"▁Kollegen":2391,"▁Seite":2392,"häng":2393,"▁dabei":2394,"▁wich":2395,"ettbe":2396,"ätze":2397,"▁recht":2398,"rak":2399,"▁glau":2400,"sf":2401,"000":2402,"▁Geschäft":2403,"fiz":2404,"▁du":2405,"▁Rei":2406,"fort":2407,"▁Vertrag":2408,"▁15":2409,"▁gehör":2410,"▁Proz":2411,"bereich":2412,"▁per":2413,"andelt":2414,"▁hö":2415,"▁muß":2416,"blick":2417,"igt":2418,"eisten":2419,"markt":2420,"arte":2421,"wirtschaft":2422,"eile":2423,"staur":2424,"▁worden":2425,"▁Schw":2426,"tigung":2427,"▁Techn":2428,"▁Hand":2429,"rechte":2430,"ruch":2431,"entrum":2432,"▁we":2433,"ument":2434,"▁Bedeut":2435,"▁qu":2436,"eig":2437,"eien":2438,"▁bed":2439,"eschäf":2440,"▁Dar":2441,"▁Verfügung":2442,"ib":2443,"rech":2444,"undheit":2445,"are":2446,"▁Ant":2447,"▁große":2448,"▁welche":2449,"▁großen":2450,"dingungen":2451,"racht":2452,"▁inner":2453,"▁erst":2454,"▁le":2455,"▁Eben":2456,"▁Entscheid":2457,"▁Bedeutung":2458,"obil":2459,"▁deren":2460,"rück":2461,"▁em":2462,"▁Kinder":2463,"▁or":2464,"▁bew":2465,"▁Ergeb":2466,"▁Su":2467,"▁Regel":2468,"▁Internet":2469,"▁Ben":2470,"▁Ro":2471,"▁Hier":2472,"rüh":2473,"az":2474,"ielen":2475,"ettbewerb":2476,"▁Schutz":2477,"▁sozi":2478,"▁Möglichkeit":2479,"▁jeder":2480,"kauf":2481,"▁schw":2482,"▁El":2483,"▁blei":2484,"äd":2485,"sst":2486,"rot":2487,"feren":2488,"▁Berichterstat":2489,"tische":2490,"ater":2491,"▁Auch":2492,"▁zahl":2493,"ack":2494,"asse":2495,"▁Serv":2496,"ücks":2497,"▁Staaten":2498,"reffen":2499,"▁Fahr":2500,"ünst":2501,"▁offen":2502,"▁Aber":2503,"gestellt":2504,"▁Zahl":2505,"▁bieten":2506,"nt":2507,"▁notwend":2508,"beh":2509,"amt":2510,"▁hervor":2511,"bild":2512,"▁el":2513,"▁Vol":2514,"▁entfern":2515,"▁Thema":2516,"▁Fol":2517,"vest":2518,"▁Lebens":2519,"abil":2520,"ähl":2521,"▁##":2522,"▁18":2523,"wirk":2524,"ies":2525,"ierungs":2526,"▁Ne":2527,"▁davon":2528,"▁Gä":2529,"schutz":2530,"ium":2531,"▁Lie":2532,"org":2533,"gesetzt":2534,"▁Bed":2535,"▁At":2536,"▁Zukunft":2537,"▁darüber":2538,"ölker":2539,"ve":2540,"12":2541,"rat":2542,"▁daher":2543,"▁erforder":2544,"mo":2545,"▁entsch":2546,"iels":2547,"dust":2548,"▁schnell":2549,"staurant":2550,"rift":2551,"▁stellen":2552,"ielt":2553,"▁lang":2554,"euer":2555,"zuf":2556,"weg":2557,"▁stell":2558,"ffiz":2559,"▁Probleme":2560,"ämpf":2561,"politik":2562,"▁alles":2563,"▁brauch":2564,"unter":2565,"▁will":2566,"▁gegenüber":2567,"▁Seiten":2568,"▁is":2569,"▁eigenen":2570,"▁on":2571,"hang":2572,"▁12":2573,"tikel":2574,"zep":2575,"rieden":2576,"ufen":2577,"▁befindet":2578,"▁sowohl":2579,"▁Frauen":2580,"▁Weise":2581,"▁Gegen":2582,"rand":2583,"▁Famil":2584,"▁Beispiel":2585,"▁verl":2586,"rise":2587,"ritte":2588,"tigkeit":2589,"▁Qualität":2590,"▁weitere":2591,"▁&amp":2592,"▁&amp;":2593,"▁Weg":2594,"ennt":2595,"▁Ihrer":2596,"treten":2597,"▁näch":2598,"▁Le":2599,"igkeiten":2600,"ital":2601,"▁teil":2602,"gl":2603,"▁erreichen":2604,"ide":2605,"anischen":2606,"▁Tra":2607,"▁Wahl":2608,"▁natürlich":2609,"▁Res":2610,"▁meiner":2611,"▁politischen":2612,"▁Ende":2613,"inde":2614,"▁Co":2615,"▁unterstützen":2616,"10":2617,"▁Gl":2618,"weiter":2619,"▁wirklich":2620,"AR":2621,"▁könnte":2622,"▁besonders":2623,"inen":2624,"ister":2625,"▁hatte":2626,"▁Mehr":2627,"zeug":2628,"▁Sol":2629,"riften":2630,"▁Ausschuss":2631,"▁aufge":2632,"hof":2633,"neten":2634,"tie":2635,"ße":2636,"▁Forsch":2637,"achten":2638,"▁Berichterstatter":2639,"▁Med":2640,"geord":2641,"▁Dat":2642,"▁gesam":2643,"▁verschiedenen":2644,"▁Situ":2645,"tem":2646,"▁ihnen":2647,"ima":2648,"▁entfernt":2649,"ubl":2650,"▁Grupp":2651,"rieben":2652,"▁Deb":2653,"▁Richtlinie":2654,"▁Ph":2655,"▁Funktion":2656,"▁hoch":2657,"▁Region":2658,"ip":2659,"weisen":2660,"genden":2661,"▁innerhalb":2662,"man":2663,"weit":2664,"ider":2665,"eint":2666,"▁dort":2667,"▁vielen":2668,"bung":2669,"reise":2670,"rifft":2671,"ST":2672,"▁Au":2673,"co":2674,"▁genau":2675,"▁weit":2676,"tive":2677,"▁Wasser":2678,"reund":2679,"werk":2680,"ersön":2681,"▁aktu":2682,"▁Deutsch":2683,"ichtet":2684,"▁Di":2685,"▁Rolle":2686,"dings":2687,"▁Ob":2688,"hm":2689,"indung":2690,"▁Artikel":2691,"▁Zwei":2692,"▁möchten":2693,"▁internationalen":2694,"esent":2695,"▁zwar":2696,"system":2697,"▁Grün":2698,"▁welt":2699,"zip":2700,"laub":2701,"▁di":2702,"▁Nutz":2703,"▁We":2704,"üd":2705,"igten":2706,"aut":2707,"zeitig":2708,"▁Ihren":2709,"▁Woch":2710,"sprache":2711,"ftware":2712,"▁ern":2713,"reifen":2714,"äu":2715,"▁techn":2716,"▁Disk":2717,"▁Verbrauch":2718,"▁Uhr":2719,"▁direkt":2720,"▁Fort":2721,"erien":2722,"▁bel":2723,"▁Fa":2724,"▁Rück":2725,"▁dür":2726,"▁führen":2727,"ph":2728,"▁hinaus":2729,"▁Wettbewerb":2730,"▁reg":2731,"▁�":2732,"stra":2733,"ive":2734,"eim":2735,"▁Ko":2736,"▁Alle":2737,"stens":2738,"änger":2739,"wär":2740,"one":2741,"▁Sk":2742,"ux":2743,"▁gewähr":2744,"▁USA":2745,"cen":2746,"reicht":2747,"▁Demokra":2748,"ären":2749,"ucht":2750,"spolitik":2751,"urg":2752,"▁europäische":2753,"▁Ap":2754,"▁klar":2755,"zimmer":2756,"ktionen":2757,"▁Restaurant":2758,"▁erste":2759,"ou":2760,"▁Pf":2761,"mäß":2762,"dition":2763,"opp":2764,"cher":2765,"haus":2766,"tegie":2767,"▁Sa":2768,"ilt":2769,"▁Kam":2770,"▁Vert":2771,"sichtlich":2772,"▁Meinung":2773,"▁y":2774,"rach":2775,"▁Gesundheit":2776,"uen":2777,"res":2778,"aff":2779,"sw":2780,"▁gl":2781,"merk":2782,"▁Fir":2783,"prä":2784,"stall":2785,"voll":2786,"uter":2787,"▁einzel":2788,"atte":2789,"▁Geschäfts":2790,"▁Preis":2791,"ußen":2792,"▁ra":2793,"onen":2794,"ase":2795,"▁Kultur":2796,"▁Hilfe":2797,"dustrie":2798,"▁Gleich":2799,"nit":2800,"unehmen":2801,"ring":2802,"beiten":2803,"▁Gesetz":2804,"ome":2805,"wohl":2806,"▁Zusammenhang":2807,"els":2808,"agement":2809,"▁unserem":2810,"▁Personen":2811,"zogen":2812,"▁hät":2813,"▁Abgeord":2814,"▁Lösung":2815,"▁Situation":2816,"▁Fest":2817,"▁Wor":2818,"urs":2819,"▁beiden":2820,"ativen":2821,"OR":2822,"▁u":2823,"reiche":2824,"▁30":2825,"▁kommt":2826,"angen":2827,"▁gar":2828,"asst":2829,"▁Entschließ":2830,"▁ä":2831,"achst":2832,"ologie":2833,"▁Partner":2834,"▁anges":2835,"▁Hotels":2836,"usätz":2837,"▁Kontro":2838,"▁tra":2839,"fang":2840,"▁entsprechen":2841,"▁Gäste":2842,"läge":2843,"▁finanz":2844,"▁z.":2845,"immt":2846,"tlich":2847,"▁Y":2848,"▁Dieses":2849,"weis":2850,"ym":2851,"teilung":2852,"▁Schluss":2853,"frei":2854,"▁Natur":2855,"▁Pol":2856,"▁Projekt":2857,"prü":2858,"ieten":2859,"▁Verantwort":2860,"▁empf":2861,"bet":2862,"reit":2863,"äuf":2864,"▁bestehen":2865,"▁begrü":2866,"ächst":2867,"ferenz":2868,"fassung":2869,"ierungen":2870,"▁bz":2871,"▁Produkte":2872,"alisierung":2873,"stad":2874,"baren":2875,"▁stellt":2876,"▁Präsidentin":2877,"ity":2878,"▁Ser":2879,"▁Dienstleist":2880,"▁Op":2881,"ool":2882,"▁ro":2883,"▁Groß":2884,"▁Software":2885,"▁bringen":2886,"▁Ort":2887,"▁Con":2888,"setzen":2889,"vorsch":2890,"▁verbesser":2891,"▁Kosten":2892,"stehen":2893,"▁daran":2894,"ore":2895,"reiben":2896,"av":2897,"com":2898,"▁Met":2899,"▁Deshalb":2900,"▁bzw.":2901,"▁Deutschland":2902,"▁etwa":2903,"annten":2904,"▁stär":2905,"▁Institu":2906,"ND":2907,"oc":2908,"▁bitte":2909,"▁versuch":2910,"▁gilt":2911,"▁weniger":2912,"▁2009":2913,"achstum":2914,"forderungen":2915,"▁wahr":2916,"ählen":2917,"line":2918,"▁Ange":2919,"▁jeden":2920,"üb":2921,"arbei":2922,"▁gesagt":2923,"▁kosten":2924,"▁Terr":2925,"spl":2926,"liches":2927,"▁Kü":2928,"▁gute":2929,"▁Son":2930,"ämlich":2931,"frage":2932,"einander":2933,"leg":2934,"▁persön":2935,"yn":2936,"▁ja":2937,"▁nämlich":2938,"▁Erfahr":2939,"sor":2940,"▁erw":2941,"uld":2942,"gegen":2943,"abhäng":2944,"▁Verfahren":2945,"▁Gren":2946,"s-":2947,"▁indem":2948,"▁Mal":2949,"▁entscheiden":2950,"▁Fil":2951,"sol":2952,"▁Millionen":2953,"wendet":2954,"ritten":2955,"▁sogar":2956,"▁kurz":2957,"sver":2958,"▁nehmen":2959,"124":2960,"▁Geld":2961,"ände":2962,"lüs":2963,"stimmt":2964,"▁abge":2965,"▁gerade":2966,"eits":2967,"▁erfolg":2968,"▁Zugang":2969,"ielleicht":2970,"▁&#124":2971,"▁&#124;":2972,"▁Bus":2973,"icken":2974,"▁Europas":2975,"als":2976,"▁Weiter":2977,"▁Punkt":2978,"iesen":2979,"hunder":2980,"osition":2981,"▁verm":2982,"rotz":2983,"▁erwar":2984,"anst":2985,"▁Rates":2986,"stadt":2987,"▁Verw":2988,"▁ersch":2989,"staat":2990,"▁Tür":2991,"▁Neu":2992,"▁aut":2993,"▁ebenfalls":2994,"▁ak":2995,"▁Dank":2996,"ächlich":2997,"▁Früh":2998,"▁unver":2999,"ember":3000,"▁Unsere":3001,"▁Eigen":3002,"▁ihn":3003,"erik":3004,"gän":3005,"ennen":3006,"▁unterschied":3007,"völker":3008,"▁Service":3009,"EN":3010,"▁Kap":3011,"ünd":3012,"▁erz":3013,"▁Invest":3014,"▁Dieser":3015,"▁Entwicklungs":3016,"anzen":3017,"SC":3018,"▁hoh":3019,"▁Organis":3020,"▁meisten":3021,"▁con":3022,"▁ir":3023,"▁gemacht":3024,"zustellen":3025,"fä":3026,"▁Verhand":3027,"rachten":3028,"arbeiten":3029,"▁Ebene":3030,"▁politische":3031,"arm":3032,"▁versch":3033,"▁Angeb":3034,"rigen":3035,"▁Transp":3036,"utet":3037,"ure":3038,"▁darf":3039,"▁ihm":3040,"▁Aussprache":3041,"▁verbunden":3042,"sionen":3043,"▁seinem":3044,"▁Bau":3045,"▁Leist":3046,"▁th":3047,"ktor":3048,"ote":3049,"▁Bezug":3050,"▁Nicht":3051,"▁Du":3052,"▁Jahres":3053,"▁gehen":3054,"tragen":3055,"▁Tats":3056,"duz":3057,"▁ma":3058,"ec":3059,"▁unterstützt":3060,"▁allgem":3061,"istor":3062,"▁dessen":3063,"▁get":3064,"▁wesent":3065,"onds":3066,"vi":3067,"ans":3068,"▁Klima":3069,"isches":3070,"nete":3071,"▁Produktion":3072,"▁Initi":3073,"▁Bel":3074,"gebung":3075,"▁nah":3076,"▁Pal":3077,"verkehr":3078,"▁Abstimmung":3079,"▁Gra":3080,"▁16":3081,"prochen":3082,"zer":3083,"ka":3084,"kung":3085,"ette":3086,"itzen":3087,"▁darin":3088,"▁Sozial":3089,"site":3090,"ys":3091,"schein":3092,"▁glaube":3093,"omati":3094,"▁Rechte":3095,"▁Verkehr":3096,"fin":3097,"▁dürfen":3098,"▁gern":3099,"tin":3100,"▁Gesellschaft":3101,"burg":3102,"▁anzu":3103,"▁Netz":3104,"llt":3105,"unst":3106,"leben":3107,"▁Benutz":3108,"▁modern":3109,"nov":3110,"▁Hö":3111,"▁öffentlichen":3112,"▁einigen":3113,"▁nichts":3114,"▁Meer":3115,"▁Mär":3116,"▁schaffen":3117,"▁Abkommen":3118,"fa":3119,"li":3120,"▁eh":3121,"ähe":3122,"ets":3123,"ühren":3124,"▁brauchen":3125,"▁Verbraucher":3126,"▁Buch":3127,"ogra":3128,"eigt":3129,"▁sollen":3130,"▁Beschäf":3131,"ator":3132,"▁San":3133,"▁14":3134,"wahl":3135,"iere":3136,"nehmer":3137,"ähigkeit":3138,"▁Tour":3139,"alte":3140,"▁ihrem":3141,"▁keinen":3142,"▁spezie":3143,"▁nationalen":3144,"▁op":3145,"▁Wissen":3146,"hl":3147,"▁Ta":3148,"▁Kolleg":3149,"unkte":3150,"gor":3151,"▁handelt":3152,"bare":3153,"▁posi":3154,"tis":3155,"▁25":3156,"▁Dok":3157,"schließlich":3158,"▁zusätz":3159,"1.":3160,"▁Industrie":3161,"▁bekannt":3162,"▁Jahrhunder":3163,"eider":3164,"utzt":3165,"möglich":3166,"▁Bas":3167,"ret":3168,"ame":3169,"to":3170,"ckt":3171,"▁Strategie":3172,"auer":3173,"ziehen":3174,"unächst":3175,"omfort":3176,"zus":3177,"▁1.":3178,"▁betrifft":3179,"iges":3180,"▁Produkt":3181,".com":3182,"spiels":3183,"▁Website":3184,"▁weiterhin":3185,"▁aktiv":3186,"iff":3187,"▁Je":3188,"äter":3189,"durch":3190,"tim":3191,"▁Fortsch":3192,"▁17":3193,"▁schwer":3194,"tag":3195,"▁Frank":3196,"▁sei":3197,"red":3198,"▁umfassen":3199,"handel":3200,"▁heraus":3201,"ari":3202,"▁leben":3203,"▁Bem":3204,"▁benö":3205,"spruch":3206,"▁Fischer":3207,"ance":3208,"▁schließ":3209,"▁Instr":3210,"▁Raum":3211,"▁tä":3212,"emen":3213,"▁bedeutet":3214,"▁deshalb":3215,"rieg":3216,"zeichnet":3217,"▁wenig":3218,"▁macht":3219,"▁X":3220,"▁erklär":3221,"▁Fot":3222,"▁Besuch":3223,"▁besten":3224,"▁einger":3225,"▁Standard":3226,"▁solche":3227,"▁priv":3228,"▁Gener":3229,"liegen":3230,"drück":3231,"spielsweise":3232,"▁Absch":3233,"▁deutlich":3234,"▁Bezieh":3235,"▁Mail":3236,"mals":3237,"▁unbe":3238,"por":3239,"▁end":3240,"gelegt":3241,"▁se":3242,"▁interess":3243,"dien":3244,"stück":3245,"▁at":3246,"anten":3247,"▁wichtige":3248,"züglich":3249,"▁Gebiet":3250,"▁klein":3251,"▁Ergebnis":3252,"▁Ide":3253,"maß":3254,"geschlagen":3255,"sehen":3256,"▁aufgrund":3257,"cke":3258,"▁Comp":3259,"ichtigen":3260,"ilit":3261,"▁würden":3262,"ublik":3263,"scht":3264,"▁oft":3265,"zlich":3266,"achsen":3267,"▁Von":3268,"reiten":3269,"zept":3270,"▁findet":3271,"▁hel":3272,"▁Menschenrechte":3273,"▁Ansicht":3274,"▁schön":3275,"▁grund":3276,"▁Umsetzung":3277,"rop":3278,"▁Port":3279,"▁Feh":3280,"reg":3281,"▁Bevölker":3282,"rinzip":3283,"▁Richtung":3284,"▁Inte":3285,"▁Insel":3286,"▁Per":3287,"▁Verbesser":3288,"bel":3289,"örden":3290,"▁Demokratie":3291,"▁Gol":3292,"▁Steuer":3293,"▁Asp":3294,"▁nächsten":3295,"▁Is":3296,"▁Förder":3297,"▁lä":3298,"▁Außen":3299,"▁fr":3300,"▁Wert":3301,"▁nutzen":3302,"▁Beg":3303,"eten":3304,"▁Empf":3305,"▁Nähe":3306,"▁Kunst":3307,"▁Prozess":3308,"▁It":3309,"▁Struktur":3310,"▁Anwendung":3311,"▁Herren":3312,"haltung":3313,"▁Park":3314,"▁Ju":3315,"▁13":3316,"▁Haushalts":3317,"▁prä":3318,"▁konk":3319,"▁Musik":3320,"▁üb":3321,"umente":3322,"▁Sh":3323,"vent":3324,"▁Fern":3325,"▁Druck":3326,"ürd":3327,"ffizien":3328,"▁allerdings":3329,"erst":3330,"▁fort":3331,"jen":3332,"ue":3333,"▁Kat":3334,"▁Verantwortung":3335,"▁hoffe":3336,"alien":3337,"verständ":3338,"▁Vers":3339,"▁inte":3340,"richtung":3341,"port":3342,"▁Ziele":3343,"frist":3344,"▁Plan":3345,"bend":3346,"▁vier":3347,"▁Bedingungen":3348,"ali":3349,"▁Selbst":3350,"iten":3351,"▁zie":3352,"▁par":3353,"▁Entscheidung":3354,"▁beispielsweise":3355,"bo":3356,"lauf":3357,"▁”":3358,"▁Viel":3359,"merksam":3360,"▁Aktiv":3361,"folgt":3362,"▁gegeben":3363,"▁Tages":3364,"▁gemeinsamen":3365,"▁stimm":3366,"▁Vorschläge":3367,"▁2010":3368,"▁histor":3369,"▁notwendig":3370,"wirkungen":3371,"▁Einz":3372,"▁jewei":3373,"ül":3374,"platz":3375,"▁gehört":3376,"able":3377,"▁zentr":3378,"grupp":3379,"▁Bek":3380,"▁Uni":3381,"▁ide":3382,"▁Interesse":3383,"▁Erweiter":3384,"▁arbeiten":3385,"▁kleinen":3386,"aussch":3387,"▁Wachstum":3388,"▁inform":3389,"▁ö":3390,"▁Erfolg":3391,"▁dank":3392,"▁Grundlage":3393,"▁2008":3394,"ress":3395,"▁Ihrem":3396,"▁Einsatz":3397,"▁prof":3398,"▁Reihe":3399,"▁verwendet":3400,"▁vielleicht":3401,"▁demokra":3402,"linien":3403,"▁wohl":3404,"llig":3405,"▁enthalten":3406,"▁Wieder":3407,"▁us":3408,"▁Wort":3409,"ategor":3410,"▁sprechen":3411,"▁ermöglich":3412,"▁Text":3413,"▁Angelegen":3414,"▁Den":3415,"resse":3416,"▁Daher":3417,"gern":3418,"▁sozialen":3419,"▁50":3420,"det":3421,"▁Pri":3422,"▁Version":3423,"▁bevor":3424,"ock":3425,"greifen":3426,"▁Außer":3427,"▁Br":3428,"▁Möglichkeiten":3429,"▁Geschichte":3430,"▁jen":3431,"pflicht":3432,"▁Frieden":3433,"▁erreicht":3434,"ehm":3435,"sph":3436,"▁ne":3437,"eitung":3438,"arf":3439,"▁werde":3440,"▁glob":3441,"laden":3442,"llung":3443,"▁halten":3444,"▁Prä":3445,"▁berücks":3446,"fik":3447,"arbeitung":3448,"a.":3449,"▁Debatte":3450,"assi":3451,"▁Heraus":3452,"par":3453,"▁Erklär":3454,"▁Vort":3455,"teilt":3456,"AN":3457,"▁erfü":3458,"aden":3459,"▁Kön":3460,"▁Institutionen":3461,"▁kompl":3462,"ätzen":3463,"▁Schul":3464,"ekten":3465,"struktur":3466,"▁übern":3467,"▁Öff":3468,"▁Damen":3469,"r.":3470,"geln":3471,"▁Blick":3472,"▁Bil":3473,"elegen":3474,"stellungen":3475,"scher":3476,"▁Luft":3477,"▁heiß":3478,"stimmungen":3479,"▁Forschung":3480,"▁’":3481,"fung":3482,"▁bleiben":3483,"▁Russ":3484,"zeigt":3485,"▁100":3486,"eta":3487,"reten":3488,"▁Einw":3489,"▁Hoch":3490,"▁Zentrum":3491,"▁höch":3492,"arbeiter":3493,"ement":3494,"läss":3495,"▁verschiedene":3496,"▁vorgeschlagen":3497,"lassen":3498,"▁App":3499,"ehn":3500,"bildung":3501,"▁ru":3502,"▁Minuten":3503,"▁weiß":3504,"▁funktion":3505,"abilität":3506,"folgen":3507,"terial":3508,"▁Sport":3509,"▁Mitglieder":3510,"▁Gi":3511,"▁schwier":3512,"▁Kraft":3513,"▁verfügt":3514,"▁Platz":3515,"▁On":3516,"▁fünf":3517,"ith":3518,"▁könnten":3519,"▁km":3520,"▁China":3521,"▁gemeinsame":3522,"inge":3523,"▁Diskus":3524,"mitteln":3525,"▁Hinblick":3526,"atten":3527,"gesehen":3528,"▁Dienstleistungen":3529,"▁ermöglicht":3530,"äum":3531,"▁Spe":3532,"▁Nation":3533,"statt":3534,"stattet":3535,"▁schrift":3536,"teg":3537,"▁Kommun":3538,"▁weltweit":3539,"▁Änderungsantrag":3540,"▁Arbeitspl":3541,"▁Pak":3542,"▁24":3543,"str":3544,"ungsver":3545,"▁New":3546,"annte":3547,"▁Priv":3548,"stitu":3549,"up":3550,"ante":3551,"produ":3552,"istischen":3553,"▁Fre":3554,"usst":3555,"STAR":3556,"wegen":3557,"elten":3558,"▁Mode":3559,"▁Investi":3560,"▁lange":3561,"▁Auswirkungen":3562,"ott":3563,"▁gelten":3564,"▁tran":3565,"▁vollständ":3566,"▁tats":3567,"▁zeigt":3568,"sbe":3569,"▁##STAR":3570,"▁##STAR##":3571,"tiven":3572,"▁hatten":3573,"▁Dial":3574,"▁Cl":3575,"▁Voraus":3576,"▁bisher":3577,"▁erforderlich":3578,"▁Regionen":3579,"▁äußer":3580,"bank":3581,"▁Ausdruck":3582,"▁2007":3583,"jenigen":3584,"▁danken":3585,"▁Verhandlungen":3586,"▁führt":3587,"▁bem":3588,"▁Tatsache":3589,"ektor":3590,"▁Schritt":3591,"langen":3592,"verb":3593,"▁Seit":3594,"ünschen":3595,"▁Süd":3596,"ösen":3597,"▁Gar":3598,"ählt":3599,"ession":3600,"▁Interessen":3601,"divi":3602,"▁gesamten":3603,"▁Familien":3604,"rimin":3605,"▁Wohn":3606,"▁Wind":3607,"▁Pla":3608,"nitt":3609,"▁wirtschaftlichen":3610,"▁angeb":3611,"echsel":3612,"dividu":3613,"▁Kolleginnen":3614,"▁einzelnen":3615,"dung":3616,"▁Doch":3617,"▁darum":3618,"▁Binnen":3619,"ßt":3620,"▁fast":3621,"▁ebenso":3622,"▁Liste":3623,"▁Abgeordneten":3624,"uni":3625,"des":3626,"ont":3627,"▁Nie":3628,"▁2000":3629,"▁Landes":3630,"▁entwickelt":3631,"▁gleichzeitig":3632,"isierung":3633,"▁später":3634,"öglichen":3635,"▁Werk":3636,"▁denke":3637,"▁Antwort":3638,"▁Gruppe":3639,"ober":3640,"▁Prof":3641,"auber":3642,"▁Außerdem":3643,"▁angenommen":3644,"ollen":3645,"ämpfung":3646,"ight":3647,"barkeit":3648,"▁Währ":3649,"räsidenten":3650,"▁Änderungsanträge":3651,"anische":3652,"▁Fä":3653,"geschlossen":3654,"▁Einzel":3655,"ino":3656,"ORE":3657,"▁disk":3658,"▁Stimm":3659,"▁Staats":3660,"▁star":3661,"▁verein":3662,"ändert":3663,"▁Verl":3664,"urf":3665,"▁Türk":3666,"ens":3667,"▁jedem":3668,"▁Univers":3669,"omb":3670,"▁Webs":3671,"reisen":3672,"bahn":3673,"▁Erw":3674,"▁Bereichen":3675,"▁einzu":3676,"▁Führ":3677,"▁Betrieb":3678,"▁internationale":3679,"arbeitet":3680,"ings":3681,"▁befinden":3682,"B.":3683,"trauen":3684,"inter":3685,"▁Gelegen":3686,"▁Ris":3687,"▁Zum":3688,"▁Denn":3689,"▁liegen":3690,"ießen":3691,"ländern":3692,"ingen":3693,"▁hätte":3694,"NDER":3695,"arität":3696,"▁konnte":3697,"abel":3698,"▁res":3699,"▁Bevölkerung":3700,"▁setzen":3701,"▁erwäh":3702,"ügen":3703,"fon":3704,"▁War":3705,"iellen":3706,"▁neben":3707,"▁Beziehungen":3708,"ly":3709,"▁Vide":3710,"IN":3711,"aly":3712,"▁Stu":3713,"▁Erweiterung":3714,"fel":3715,"own":3716,"steller":3717,"▁weiteren":3718,"▁Internation":3719,"ches":3720,"▁fa":3721,"ordin":3722,"edig":3723,"programm":3724,"griff":3725,"▁Angebot":3726,"wischen":3727,"▁bedeuten":3728,"▁Russland":3729,"met":3730,"▁Vereinigten":3731,"renz":3732,"▁Verbindung":3733,"▁erhö":3734,"zentrum":3735,"▁heißt":3736,"▁00":3737,"▁Nord":3738,"▁Themen":3739,"▁Best":3740,"ose":3741,"▁z.B.":3742,"▁Dialog":3743,"▁folgen":3744,"▁Terror":3745,"folge":3746,"▁eff":3747,"▁richtig":3748,"andeln":3749,"▁Fuß":3750,"▁jede":3751,"▁hinter":3752,"▁Team":3753,"▁Schlussel":3754,"ienen":3755,"ommer":3756,"andlung":3757,"▁helfen":3758,"▁Verordnung":3759,"▁Beitrag":3760,"▁erhe":3761,"▁Aufgabe":3762,"▁ur":3763,"richtungen":3764,"▁vö":3765,"sitz":3766,"etten":3767,"▁kleine":3768,"ichtigt":3769,"▁vers":3770,"▁rund":3771,"▁Char":3772,"alter":3773,"▁UN":3774,"▁Eng":3775,"▁Türkei":3776,"▁Verpflicht":3777,"UNDER":3778,"inner":3779,"jahr":3780,"▁gegenwär":3781,"▁Reise":3782,"▁Kop":3783,"denken":3784,"iken":3785,"▁Förderung":3786,"tember":3787,"ix":3788,"▁meinen":3789,"▁beit":3790,"▁Kampf":3791,"▁wichtigen":3792,"▁gestellt":3793,"▁Geh":3794,"▁Prot":3795,"ca":3796,"▁unseres":3797,"▁Kontrolle":3798,"enthalt":3799,"▁Krise":3800,"▁prak":3801,"affung":3802,"plan":3803,"isse":3804,"UNDERSC":3805,"halte":3806,"flä":3807,"▁##UNDERSC":3808,"ORE##":3809,"▁##UNDERSCORE##":3810,"▁Mitarbeiter":3811,"ums":3812,"anzös":3813,"dr":3814,"▁+":3815,"▁gestimmt":3816,"▁Ru":3817,"formen":3818,"▁rel":3819,"teilen":3820,"orn":3821,"▁Beitritt":3822,"▁Chr":3823,"haft":3824,"länder":3825,"anien":3826,"▁Arch":3827,"ult":3828,"eichen":3829,"gangenen":3830,"asser":3831,"▁jedes":3832,"worten":3833,"▁auszu":3834,"tens":3835,"ution":3836,"20":3837,"fragen":3838,"echs":3839,"▁Entschließung":3840,"äus":3841,"▁gab":3842,"zunehmen":3843,"▁freu":3844,"▁bekommen":3845,"▁automati":3846,"rachen":3847,"▁Volk":3848,"▁bleibt":3849,"zess":3850,"▁Behörden":3851,"enten":3852,"▁organis":3853,"▁wegen":3854,"▁Strand":3855,"eller":3856,"▁bas":3857,"▁Nutzung":3858,"hafen":3859,"▁Ausschusses":3860,"▁Bahn":3861,"▁Kar":3862,"▁Ka":3863,"echt":3864,"▁region":3865,"▁Benutzer":3866,"▁gro":3867,"▁nahe":3868,"▁Rom":3869,"abon":3870,"ilitär":3871,"▁Staat":3872,"▁angem":3873,"▁Damit":3874,"▁gra":3875,"▁spezi":3876,"▁wunder":3877,"▁Kir":3878,"▁Lösungen":3879,"ehlen":3880,"▁durchge":3881,"th":3882,"rägt":3883,"▁Information":3884,"stoff":3885,"▁gerne":3886,"pflich":3887,"▁Design":3888,"▁Augen":3889,"zentr":3890,"▁Urlaub":3891,"▁unabhäng":3892,"grün":3893,"▁Liss":3894,"▁Bef":3895,"igar":3896,"▁Stunden":3897,"fahrt":3898,"▁Bitte":3899,"▁erf":3900,"▁verantwort":3901,"öst":3902,"▁Sicherheits":3903,"▁Lissabon":3904,"▁stra":3905,"▁Wochen":3906,"ry":3907,"▁Macht":3908,"▁Veranst":3909,"▁wichtigsten":3910,"▁gelegen":3911,"ördern":3912,"CH":3913,"▁Auswahl":3914,"▁Hol":3915,"▁2006":3916,"▁akzep":3917,"orm":3918,"▁lok":3919,"onnen":3920,"▁kultur":3921,"▁Rep":3922,"▁mehrere":3923,"fäl":3924,"▁Jan":3925,"gn":3926,"gration":3927,"▁Frankreich":3928,"ssystem":3929,"vention":3930,"stru":3931,"zeugen":3932,"jähr":3933,"terne":3934,"ennung":3935,"▁abzu":3936,"▁2.":3937,"spräsident":3938,"▁vorh":3939,"▁Forder":3940,"▁Notwend":3941,"obei":3942,"nissen":3943,"roffen":3944,"gliche":3945,"ielle":3946,"▁Verbesserung":3947,"gesamt":3948,"tiger":3949,"▁enthält":3950,"▁ganze":3951,"▁amerik":3952,"▁ganzen":3953,"▁Berlin":3954,"▁Zur":3955,"nehm":3956,"▁Juni":3957,"▁hinsichtlich":3958,"▁Kern":3959,"▁nachhal":3960,"▁Binnenmarkt":3961,"öhn":3962,"▁Tex":3963,"▁wobei":3964,"▁ermöglichen":3965,"ilf":3966,"▁sag":3967,"▁ausgew":3968,"▁Fischerei":3969,"▁Gast":3970,"schließend":3971,"▁Anst":3972,"▁Aktion":3973,"▁Air":3974,"▁Such":3975,"stag":3976,"ivil":3977,"▁geeig":3978,"▁bil":3979,"▁Fach":3980,"sa":3981,"▁Anfang":3982,"▁stark":3983,"rechend":3984,"inne":3985,"aufen":3986,"▁Konferenz":3987,"▁Vis":3988,"▁überw":3989,"▁zeigen":3990,"feld":3991,"sy":3992,"▁Schwei":3993,"▁erlau":3994,"tete":3995,"▁Gelegenheit":3996,"▁Gu":3997,"▁belie":3998,"▁Amer":3999,"▁Dir":4000,"geh":4001,"▁derzeit":4002,"erweise":4003,"▁trotz":4004,"wertungen":4005,"▁Aufenthalt":4006,"▁Nov":4007,"ringt":4008,"▁tradition":4009,"▁Ferien":4010,"▁Sal":4011,"▁Reform":4012,"▁ruh":4013,"▁herr":4014,"▁Kor":4015,"takt":4016,"bringen":4017,"▁Nacht":4018,"künf":4019,"pen":4020,"▁irgend":4021,"▁Far":4022,"wurf":4023,"▁Rad":4024,"▁garan":4025,"▁Schaffung":4026,"leistet":4027,"▁Gewalt":4028,"standen":4029,"▁mus":4030,"serv":4031,"nern":4032,"▁Liefer":4033,"deu":4034,"oper":4035,"änden":4036,"kennen":4037,"▁Ergebnisse":4038,"▁heu":4039,"▁Ober":4040,"▁spielen":4041,"▁11":4042,"▁Darüber":4043,"vorschriften":4044,"ausch":4045,"akter":4046,"ingt":4047,"ützen":4048,"stelle":4049,".000":4050,"▁völlig":4051,"▁Fehler":4052,"▁Verwendung":4053,"sterreich":4054,"▁Vertre":4055,"▁Integration":4056,"ürf":4057,"▁erk":4058,"▁He":4059,"splan":4060,"▁Bal":4061,"▁with":4062,"▁Jugend":4063,"▁Herzen":4064,"▁Tage":4065,"▁Woche":4066,"▁integr":4067,"▁individu":4068,"▁verbessern":4069,"▁Anzahl":4070,"▁Ak":4071,"▁Landwirtschaft":4072,"▁Krieg":4073,"▁Pra":4074,"▁Prior":4075,"▁Wein":4076,"mut":4077,"ct":4078,"ments":4079,"▁Italien":4080,"ness":4081,"ätigkeit":4082,"▁198":4083,"▁verwenden":4084,"tliche":4085,"▁guten":4086,"▁lässt":4087,"▁Sit":4088,"▁eigene":4089,"ona":4090,"sprechen":4091,"▁geschlossen":4092,"führen":4093,"▁verfügen":4094,"örper":4095,"klus":4096,"▁su":4097,"wand":4098,"▁Notwendigkeit":4099,"fordert":4100,"▁großer":4101,"ähn":4102,"▁Zeitpunkt":4103,"▁Schl":4104,"sphäre":4105,"▁Ti":4106,"ON":4107,"▁gefähr":4108,"▁soziale":4109,"sei":4110,"▁häuf":4111,"▁verfüg":4112,"cc":4113,"za":4114,"▁König":4115,"▁Minister":4116,"▁Lauf":4117,"here":4118,"ernen":4119,"▁Familie":4120,"▁meinem":4121,"ikation":4122,"▁disku":4123,"▁Zwe":4124,"griffen":4125,"verständlich":4126,"gren":4127,"▁Les":4128,"▁Änderungen":4129,"▁zunächst":4130,"ana":4131,"▁künf":4132,"▁Gipf":4133,"reibung":4134,"ourcen":4135,"eister":4136,"▁gesamte":4137,"▁gehören":4138,"ins":4139,"sprogramm":4140,"▁pl":4141,"▁Volks":4142,"▁fördern":4143,"▁Stud":4144,"▁Erfahrung":4145,"aar":4146,"schinen":4147,"▁Män":4148,"▁Überein":4149,"▁Beschäftigung":4150,"▁hotel":4151,"einer":4152,"▁Hinter":4153,"▁gleichen":4154,"▁vorhanden":4155,"▁Mai":4156,"mäßig":4157,"▁ständ":4158,"▁angemessen":4159,"ichtige":4160,"techn":4161,"sent":4162,"▁Wahr":4163,"▁Nieder":4164,"▁Neben":4165,"▁Umgebung":4166,"▁tatsächlich":4167,"▁sorgen":4168,"leisten":4169,"▁Kn":4170,"öffnet":4171,"▁schriftlich":4172,"ediglich":4173,"ales":4174,"eilen":4175,"▁eindeu":4176,"troll":4177,"▁Mehrheit":4178,"stre":4179,"▁23":4180,"▁Sep":4181,"minister":4182,"▁Dab":4183,"▁absol":4184,"zeugt":4185,"▁Einführung":4186,"▁veröffent":4187,"stitution":4188,"▁wider":4189,"▁Regierungen":4190,"▁Während":4191,"part":4192,"▁Online":4193,"▁verstär":4194,"bedingungen":4195,"▁Stellung":4196,"▁40":4197,"gef":4198,"▁geführt":4199,"▁Konfl":4200,"erseits":4201,"▁Sc":4202,"maßnahmen":4203,"okoll":4204,"▁Dabei":4205,"ood":4206,"▁Imm":4207,"▁entwickeln":4208,"▁äußerst":4209,"▁Test":4210,"▁Jul":4211,"ows":4212,"▁ernst":4213,"rael":4214,"ausschuss":4215,"▁Bi":4216,"oppel":4217,"stimmen":4218,"▁verstehen":4219,"xis":4220,"lüssel":4221,"ungs-":4222,"▁®":4223,"hilfe":4224,"▁men":4225,"▁größten":4226,"▁Position":4227,"ungsk":4228,"hung":4229,"quen":4230,"tifiz":4231,"orf":4232,"▁vert":4233,"▁Öffent":4234,"▁Vereinbar":4235,"richten":4236,"▁Anwend":4237,"lang":4238,"hil":4239,"▁Aktivitäten":4240,"ied":4241,"unsch":4242,"buch":4243,"▁Sprache":4244,"▁elekt":4245,"▁gewährleisten":4246,"▁somit":4247,"▁Initiative":4248,"▁2005":4249,"▁hohen":4250,"pfer":4251,"▁Folgen":4252,"▁Datei":4253,"▁Berg":4254,"▁Mot":4255,"▁Tele":4256,"▁Mobil":4257,"▁leicht":4258,"▁Stabilität":4259,"äst":4260,"▁Material":4261,"▁lediglich":4262,"äude":4263,"undes":4264,"daten":4265,"äte":4266,"▁Höhe":4267,"annen":4268,"alb":4269,"▁gebracht":4270,"ombin":4271,"▁verpflich":4272,"▁beteil":4273,"▁erfolgreich":4274,"iko":4275,"itten":4276,"reng":4277,"ühm":4278,"50":4279,"▁tragen":4280,"▁gesp":4281,"▁Bank":4282,"cl":4283,"▁Gesamt":4284,"cker":4285,"▁Kommissarin":4286,"▁Computer":4287,"▁schle":4288,"▁Flughafen":4289,"▁ausgestattet":4290,"ular":4291,"▁Komprom":4292,"▁Sen":4293,"▁Gemeinsam":4294,"▁Diskussion":4295,"▁Sicht":4296,"▁Erachten":4297,"▁Bekämpfung":4298,"▁Erachtens":4299,"ration":4300,"▁Präsidentschaft":4301,"▁vern":4302,"armon":4303,"spart":4304,"▁bestimmte":4305,"▁wirtschaftliche":4306,"istische":4307,"indust":4308,"▁Abend":4309,"▁he":4310,"▁meines":4311,"dienst":4312,"▁Standpunkt":4313,"▁anderer":4314,"gessen":4315,"▁Del":4316,"▁bein":4317,"▁Programme":4318,"▁Medien":4319,"ule":4320,"▁obwohl":4321,"dio":4322,"▁zahlreiche":4323,"▁Sor":4324,"▁Dokument":4325,"▁Dinge":4326,"▁Kontakt":4327,"uren":4328,"bie":4329,"▁Gruppen":4330,"▁Pe":4331,"▁Freiheit":4332,"▁Metho":4333,"▁ähn":4334,"fluss":4335,"vis":4336,"uar":4337,"▁Inhalt":4338,"mb":4339,"gerung":4340,"▁September":4341,"▁zweite":4342,"etter":4343,"▁stattf":4344,"▁bestimmten":4345,"▁Basis":4346,"▁erhält":4347,"▁Innov":4348,"▁vorgesehen":4349,"▁Dez":4350,"berg":4351,"▁entde":4352,"▁Bro":4353,"▁Bestimmungen":4354,"iar":4355,"▁einschließlich":4356,"▁Muse":4357,"▁room":4358,"sprün":4359,"zeuge":4360,"▁Fortschritte":4361,"ehl":4362,"haupt":4363,"schw":4364,"urt":4365,"▁französ":4366,"schließen":4367,"▁2004":4368,"▁Punkte":4369,"▁Ress":4370,"▁Tat":4371,"oment":4372,"▁neuer":4373,"lose":4374,"wertung":4375,"▁Jahrhundert":4376,"▁Kan":4377,"▁Bad":4378,"▁woll":4379,"▁außerdem":4380,"▁Po":4381,"▁Preise":4382,"▁erster":4383,"▁Tr":4384,"iew":4385,"sektor":4386,"▁Erklärung":4387,"▁sagte":4388,"ission":4389,"▁Car":4390,"▁scheint":4391,"▁Sommer":4392,"▁versuchen":4393,"▁Eis":4394,"▁min":4395,"vol":4396,"▁wirksam":4397,"▁Dezember":4398,"chter":4399,"▁lin":4400,"▁del":4401,"reib":4402,"hältnis":4403,"▁bestä":4404,"▁Stelle":4405,"lexib":4406,"▁allein":4407,"text":4408,"industrie":4409,"▁Nor":4410,"▁solchen":4411,"▁Nur":4412,"ande":4413,"▁Okt":4414,"rägen":4415,"▁Wohl":4416,"▁Film":4417,"ire":4418,"▁betroffen":4419,"▁Vorschriften":4420,"▁regel":4421,"▁dadurch":4422,"ategorien":4423,"▁Install":4424,"▁insgesamt":4425,"▁gemäß":4426,"redit":4427,"volle":4428,"wach":4429,"▁Dien":4430,"▁hohe":4431,"▁zweiten":4432,"▁Fe":4433,"▁Prü":4434,"▁Pass":4435,"▁Vertrauen":4436,"▁bri":4437,"▁einzige":4438,"ahren":4439,"▁Personal":4440,"▁EUR":4441,"▁Aufmerksam":4442,"▁Informations":4443,"geber":4444,"▁Mark":4445,"▁aufgenommen":4446,"tensi":4447,"▁alten":4448,"▁ca.":4449,"mehr":4450,"sb":4451,"bewertungen":4452,"▁Tod":4453,"▁Zentr":4454,"ines":4455,"▁Gefahr":4456,"▁Apart":4457,"akt":4458,"möglichkeiten":4459,"anlage":4460,"legung":4461,"▁Solid":4462,"▁frü":4463,"tien":4464,"▁Wi":4465,"önen":4466,"ons":4467,"▁Anforderungen":4468,"▁Agr":4469,"ulti":4470,"▁erheb":4471,"schluss":4472,"ief":4473,"▁vergangenen":4474,"▁Bildung":4475,"▁Server":4476,"▁Bew":4477,"▁einzigar":4478,"▁Aufmerksamkeit":4479,"unternehmen":4480,"gesellschaft":4481,"arenz":4482,"▁Entscheidungen":4483,"▁22":4484,"▁Küche":4485,"▁Frühstück":4486,"▁Lehr":4487,"▁genießen":4488,"▁Sub":4489,"gesetz":4490,"zuführen":4491,"altet":4492,"▁Stre":4493,"istr":4494,"▁vorge":4495,"▁jeweil":4496,"mitt":4497,"rang":4498,"▁Log":4499,"▁März":4500,"▁ändern":4501,"▁Bilder":4502,"▁vorher":4503,"▁Aust":4504,"▁Gästebewertungen":4505,"utter":4506,"▁vertreten":4507,"▁Host":4508,"▁See":4509,"ologien":4510,"▁Protokoll":4511,"▁Auto":4512,"▁erfahren":4513,"abkommen":4514,"▁kri":4515,"räum":4516,"▁leg":4517,"uman":4518,"▁Projekte":4519,"▁Prinzip":4520,"▁2003":4521,"que":4522,"▁keiner":4523,"▁Technologie":4524,"▁Präsidenten":4525,"▁morgen":4526,"▁Kri":4527,"räfte":4528,"▁konzentr":4529,"erung":4530,"▁Bereiche":4531,"▁Ol":4532,"▁Anfrage":4533,"▁Berichts":4534,"▁jün":4535,"▁Agen":4536,"▁eigentlich":4537,"neut":4538,"▁Ansatz":4539,"▁effek":4540,"▁Ele":4541,"▁forder":4542,"alisiert":4543,"▁beschäf":4544,"falt":4545,"▁Transparenz":4546,"▁schließlich":4547,"▁med":4548,"▁Stat":4549,"▁Städ":4550,"▁grundlegen":4551,"▁Instrument":4552,"riterien":4553,"▁Grenzen":4554,"▁Ratspräsident":4555,"▁Konz":4556,"▁leider":4557,"▁Brü":4558,"▁Stär":4559,"▁erwarten":4560,"ieg":4561,"astrop":4562,"▁Tem":4563,"▁eingesetzt":4564,"enntnis":4565,"ierter":4566,"entwick":4567,"▁Red":4568,"▁Oktober":4569,"▁Öffentlichkeit":4570,"▁leisten":4571,"▁u.":4572,"▁gek":4573,"son":4574,"trem":4575,"▁Arbeitnehmer":4576,"ried":4577,"▁West":4578,"▁Amerik":4579,"▁konnten":4580,"▁wenige":4581,"ungsf":4582,"indest":4583,"▁jähr":4584,"▁National":4585,"▁Januar":4586,"▁Tagesordnung":4587,"▁Wirk":4588,"▁häufig":4589,"länd":4590,"ühungen":4591,"▁defin":4592,"sprü":4593,"ath":4594,"sprozess":4595,"▁Untersuch":4596,"ril":4597,"▁Ged":4598,"▁Cas":4599,"▁durchgeführt":4600,"▁genommen":4601,"izi":4602,"▁it":4603,"lichkeiten":4604,"▁TV":4605,"▁benötigen":4606,"▁Wirtschafts":4607,"bien":4608,"▁Meine":4609,"▁aufzu":4610,"teten":4611,"▁Innen":4612,"▁Wider":4613,"▁Auftrag":4614,"▁Aller":4615,"▁Regeln":4616,"ängt":4617,"▁Handels":4618,"rad":4619,"▁kor":4620,"▁geworden":4621,"▁Firma":4622,"▁Spanien":4623,"lös":4624,"▁Republik":4625,"▁Straßen":4626,"▁suchen":4627,"▁ad":4628,"▁Vertreter":4629,"▁berühm":4630,"▁Verf":4631,"▁AG":4632,"ützt":4633,"▁Privat":4634,"▁Empfeh":4635,"▁Sektor":4636,"▁Nationen":4637,"▁unmittel":4638,"ES":4639,"▁Ir":4640,"▁kannst":4641,"sätze":4642,"▁Linie":4643,"▁Investitionen":4644,"forderung":4645,"▁europäischer":4646,"▁Liber":4647,"icherung":4648,"▁Schwier":4649,"▁Kre":4650,"▁betreffen":4651,"▁Bundes":4652,"▁freund":4653,"üge":4654,"▁Anw":4655,"▁aktuellen":4656,"▁kennen":4657,"low":4658,"gien":4659,"▁wichtiger":4660,"troffen":4661,"ull":4662,"▁Sinne":4663,"kan":4664,"▁Vertrags":4665,"AS":4666,"▁Gründen":4667,"▁treffen":4668,"iete":4669,"▁Vi":4670,"drücklich":4671,"tierung":4672,"▁gefunden":4673,"▁Fer":4674,"▁ursprün":4675,"▁Juli":4676,"▁ihres":4677,"▁eng":4678,"▁Agrar":4679,"▁Analy":4680,"▁2001":4681,"▁Veränder":4682,"fordern":4683,"wortern":4684,"ieht":4685,"▁beein":4686,"unge":4687,"▁halte":4688,"mosphäre":4689,"▁Auffassung":4690,"zeichnung":4691,"tit":4692,"kraft":4693,"▁zunehmen":4694,"▁bezüglich":4695,"izin":4696,"▁Alt":4697,"▁Bedürf":4698,"hindern":4699,"IS":4700,"▁sta":4701,"▁Solidarität":4702,"dam":4703,"▁weder":4704,"zusetzen":4705,"▁erneut":4706,"▁000":4707,"illa":4708,"leitet":4709,"hoben":4710,"▁sofort":4711,"▁Sitz":4712,"▁Aufgaben":4713,"stellten":4714,"▁begrüße":4715,"mbH":4716,"▁Schließ":4717,"▁geschaffen":4718,"▁Sache":4719,"▁serv":4720,"ierenden":4721,"▁überprü":4722,"freund":4723,"▁Rede":4724,"ikt":4725,"▁Kur":4726,"▁angesichts":4727,"▁»":4728,"omen":4729,"▁sonst":4730,"reig":4731,"▁Menschenrecht":4732,"cel":4733,"nungen":4734,"▁Heute":4735,"▁GmbH":4736,"▁übrigen":4737,"▁Bürgern":4738,"▁Pap":4739,"▁hinzu":4740,"rib":4741,"▁Glob":4742,"▁Organisation":4743,"▁Ereig":4744,"ammlung":4745,"▁by":4746,"achtung":4747,"▁sieht":4748,"▁vorzu":4749,"ören":4750,"▁Schlusselwortern":4751,"gelt":4752,"ograf":4753,"ile":4754,"▁belieb":4755,"▁wissenschaft":4756,"▁Sitzung":4757,"▁install":4758,"unt":4759,"▁bringt":4760,"▁vergessen":4761,"▁kur":4762,"AD":4763,"▁eher":4764,"stung":4765,"setzt":4766,"▁moder":4767,"▁Ressourcen":4768,"▁diejenigen":4769,"▁entsprechenden":4770,"▁Tur":4771,"▁ziehen":4772,"▁Beteil":4773,"wie":4774,"schlag":4775,"▁Tab":4776,"stände":4777,"IT":4778,"▁länger":4779,"▁beitragen":4780,"▁Schla":4781,"▁wiederhol":4782,"losen":4783,"▁Windows":4784,"▁Nr.":4785,"ünstler":4786,"▁öffentliche":4787,"▁Folge":4788,"▁entsprechend":4789,"würd":4790,"▁Wunsch":4791,"▁Golf":4792,"igur":4793,"svor":4794,"▁Armut":4795,"▁Nachbar":4796,"▁Fällen":4797,"▁Verkehrs":4798,"▁II":4799,"▁Afri":4800,"OM":4801,"▁Dritt":4802,"▁ausgezeich":4803,"▁Ist":4804,"mann":4805,"▁Änderung":4806,"▁Bemühungen":4807,"mö":4808,"▁Bot":4809,"int":4810,"▁Behandlung":4811,"▁Spieler":4812,"▁To":4813,"▁Koh":4814,"▁Beruf":4815,"ada":4816,"▁Monaten":4817,"dat":4818,"leb":4819,"▁Gel":4820,"gewiesen":4821,"▁zeit":4822,"▁getan":4823,"kur":4824,"▁Et":4825,"use":4826,"▁Versuch":4827,"▁Dateien":4828,"iden":4829,"scheinlich":4830,"▁Werte":4831,".0":4832,"▁behandelt":4833,"▁Rel":4834,"ünsche":4835,"▁Home":4836,"besch":4837,"▁sozial":4838,"amb":4839,"altungs":4840,"▁verhindern":4841,"hafte":4842,"▁langfrist":4843,"▁€":4844,"▁erfolgt":4845,"▁uner":4846,"▁Zus":4847,"stein":4848,"get":4849,"▁Gr":4850,"▁2002":4851,"aktion":4852,"▁Bürgerinnen":4853,"▁Garten":4854,"schlagen":4855,"▁Gebäude":4856,"eisen":4857,"ssi":4858,"▁begrüßen":4859,"▁Tagen":4860,"komm":4861,"fter":4862,"iveau":4863,"zeiten":4864,"▁beant":4865,"▁genannten":4866,"▁EN":4867,"▁Management":4868,"frastruktur":4869,"▁Ander":4870,"tiges":4871,"era":4872,"ummer":4873,"wasser":4874,"▁hätten":4875,"▁nimmt":4876,"▁Atmosphäre":4877,"alismus":4878,"app":4879,"vel":4880,"▁Gemeinschafts":4881,"▁60":4882,"ition":4883,"▁Rech":4884,"▁Gott":4885,"▁Koordin":4886,"▁November":4887,"▁anderem":4888,"▁drin":4889,"ologischen":4890,"▁B.":4891,"▁Mag":4892,"▁besondere":4893,"les":4894,"angeb":4895,"▁Prozent":4896,"▁Restaurants":4897,"ehe":4898,"▁Modell":4899,"bil":4900,"▁Unternehmens":4901,"▁gering":4902,"▁Finanzierung":4903,"▁Telefon":4904,"ament":4905,"einschaft":4906,"▁d.":4907,"▁IT":4908,"▁Minder":4909,"▁versucht":4910,"▁Post":4911,"setzungen":4912,"▁Erfahrungen":4913,"▁ko":4914,"▁optim":4915,"uk":4916,"▁Doppel":4917,"tak":4918,"lleg":4919,"▁paar":4920,"▁erklärt":4921,"▁Beginn":4922,"▁gewesen":4923,"▁beste":4924,"▁very":4925,"▁Natürlich":4926,"▁Vergangen":4927,"innern":4928,"▁Spa":4929,"▁April":4930,"iter":4931,"bauen":4932,"ellschaften":4933,"▁Rechtsvorschriften":4934,"▁fordern":4935,"▁Milliar":4936,"etail":4937,"▁fal":4938,"▁Gerichts":4939,"▁Wissenschaft":4940,"▁günst":4941,"▁mitt":4942,"▁typ":4943,"▁Lassen":4944,"rist":4945,"na":4946,"▁überhaupt":4947,"indern":4948,"▁erfüllen":4949,"▁unterb":4950,"ämpfen":4951,"▁etc":4952,"▁sechs":4953,"riff":4954,"▁Transport":4955,"va":4956,"▁offiz":4957,"bol":4958,"▁zahlreichen":4959,"▁mensch":4960,"ütz":4961,"ong":4962,"unk":4963,"schung":4964,"▁berücksichtigt":4965,"▁warum":4966,"▁Verteid":4967,"▁Mod":4968,"▁berech":4969,"▁Firmen":4970,"▁zehn":4971,"▁richtige":4972,"▁Praxis":4973,"▁größer":4974,"▁Terrorismus":4975,"▁Go":4976,"▁Waren":4977,"▁stimmen":4978,"▁Dis":4979,"▁gerecht":4980,"▁verh":4981,"▁säm":4982,"▁perf":4983,"▁Ost":4984,"▁welches":4985,"▁ehem":4986,"▁197":4987,"▁Aspekte":4988,"▁wünschen":4989,"▁Exper":4990,"gruppe":4991,"haben":4992,"▁Vergangenheit":4993,"auen":4994,"▁wählen":4995,"▁Bü":4996,"▁arbei":4997,"▁Fr":4998,"verfahren":4999,"▁größte":5000,"iness":5001,"▁ter":5002,"IP":5003,"▁Kredit":5004,"altungen":5005,"▁schützen":5006,"▁einheit":5007,"▁Vergleich":5008,"eitet":5009,"▁historischen":5010,"▁jeweiligen":5011,"italien":5012,"▁Adresse":5013,"▁äl":5014,"ffizienz":5015,"schau":5016,"othe":5017,"▁Fisch":5018,"▁stets":5019,"▁Zweitens":5020,"▁Winter":5021,"af":5022,"▁getroffen":5023,"▁27":5024,"losigkeit":5025,"ork":5026,"ynam":5027,"▁Bestand":5028,"▁jüng":5029,"▁Mann":5030,"▁Sterne":5031,"▁verpflichtet":5032,"▁Paris":5033,"▁Viele":5034,"▁Schritte":5035,"AP":5036,"fert":5037,"▁strateg":5038,"▁Sonder":5039,"▁Opfer":5040,"▁are":5041,"ränkt":5042,"▁außerhalb":5043,"ehnt":5044,"vollen":5045,"▁verk":5046,"▁modernen":5047,"mär":5048,"▁neues":5049,"dete":5050,"tiver":5051,"▁Agentur":5052,"▁eingeb":5053,"▁Zivil":5054,"▁befür":5055,"▁grün":5056,"▁Gef":5057,"▁zumindest":5058,"▁CD":5059,"▁beginnen":5060,"fläche":5061,"▁Aug":5062,"dingt":5063,"▁&gt":5064,"umenten":5065,"▁Berichterstatterin":5066,"▁&gt;":5067,"▁Mil":5068,"▁zuständ":5069,"sfähigkeit":5070,"▁speziell":5071,"lass":5072,"▁Pan":5073,"▁Angelegenheit":5074,"▁Video":5075,"▁technischen":5076,"legten":5077,"▁Sym":5078,"▁Rot":5079,"▁Parteien":5080,"▁seines":5081,"dlich":5082,"▁staat":5083,"▁Leit":5084,"▁verantwortlich":5085,"ownlo":5086,"▁spezif":5087,"▁kam":5088,"▁Up":5089,"▁form":5090,"▁Spezial":5091,"igin":5092,"▁bald":5093,"orgt":5094,"▁verkauf":5095,"▁ren":5096,"▁Wel":5097,"▁Dazu":5098,"bezogen":5099,"barer":5100,"▁beru":5101,"▁Voll":5102,"▁vollständig":5103,"▁ww":5104,"▁heutigen":5105,"▁Lo":5106,"▁verab":5107,"▁prü":5108,"▁früh":5109,"▁genug":5110,"▁persönlichen":5111,"rid":5112,"änge":5113,"▁kür":5114,"▁Allerdings":5115,"▁erlaubt":5116,"▁Partei":5117,"▁Karte":5118,"sitzen":5119,"▁Schlüssel":5120,"▁ehr":5121,"▁Angelegenheiten":5122,"▁Erd":5123,"▁Berat":5124,"▁Verwaltung":5125,"▁Reserv":5126,"▁Systems":5127,"▁Schwer":5128,"▁Schwierigkeiten":5129,"▁Klein":5130,"gruppen":5131,"gül":5132,"▁Stellen":5133,"▁automatisch":5134,"▁Gesprä":5135,"▁innov":5136,"achtet":5137,"▁Versch":5138,"emente":5139,"▁ausschließlich":5140,"▁Zeichen":5141,"▁usw.":5142,"▁folgt":5143,"sport":5144,"EL":5145,"▁reich":5146,"▁not":5147,"uff":5148,"▁erinnern":5149,"▁deutschen":5150,"▁Herausforderungen":5151,"▁Einwander":5152,"▁Dann":5153,"utt":5154,"▁Archite":5155,"▁anerk":5156,"▁Einrichtung":5157,"▁Obj":5158,"werte":5159,"meer":5160,"anc":5161,"rah":5162,"▁201":5163,"▁erwartet":5164,"erkennung":5165,"▁Lux":5166,"ört":5167,"▁Hinsicht":5168,"▁bessere":5169,"▁Ihres":5170,"▁Nun":5171,"▁Einige":5172,"▁Verfassung":5173,"fonds":5174,"bieten":5175,"▁stärker":5176,"▁konkre":5177,"▁Sign":5178,"▁Annahme":5179,"tritt":5180,"▁Unterk":5181,"ama":5182,"▁Krank":5183,"▁hervorragen":5184,"by":5185,"reut":5186,"▁à":5187,"itieren":5188,"▁privaten":5189,"▁«":5190,"ierende":5191,"▁from":5192,"seh":5193,"▁italien":5194,"▁=":5195,"▁Sehen":5196,"▁angen":5197,"fühl":5198,"▁Beweg":5199,"▁unten":5200,"gehend":5201,"▁folgenden":5202,"▁Soll":5203,"▁übernehmen":5204,"▁Gro":5205,"ction":5206,"▁rie":5207,"▁Regierungs":5208,"anach":5209,"▁Ed":5210,"▁illeg":5211,"▁präsen":5212,"▁verurs":5213,"istan":5214,"▁zukünf":5215,"▁Club":5216,"rengungen":5217,"zut":5218,"▁ph":5219,"▁allgemeinen":5220,"▁Österreich":5221,"▁Mitte":5222,"▁Eigent":5223,"gest":5224,"▁Bade":5225,"▁Tier":5226,"▁Produkten":5227,"indungen":5228,"gangs":5229,"gerungen":5230,"je":5231,"uhr":5232,"▁Arbeitsplätze":5233,"immern":5234,"▁Kos":5235,"▁mal":5236,"▁entgegen":5237,"▁gesetz":5238,"▁gesehen":5239,"hilfen":5240,"zur":5241,"▁erweiter":5242,"▁sen":5243,"▁Ord":5244,"▁ausger":5245,"▁Acht":5246,"▁natür":5247,"▁gez":5248,"AL":5249,"▁bitten":5250,"ld":5251,"▁Bis":5252,"TO":5253,"▁1999":5254,"▁ehemal":5255,"heben":5256,"▁zudem":5257,"▁darstellt":5258,"▁Erk":5259,"▁setzt":5260,"▁deine":5261,"iß":5262,"▁angeboten":5263,"ko":5264,"▁www.":5265,"▁Antrag":5266,"con":5267,"▁Trans":5268,"nungs":5269,"▁Kommunikation":5270,"ssen":5271,"▁Falls":5272,"▁Ra":5273,"ördert":5274,"▁endlich":5275,"▁Verkauf":5276,"liegenden":5277,"zeugung":5278,"etzung":5279,"konom":5280,"▁dringend":5281,"▁Schiff":5282,"▁beide":5283,"zeichen":5284,"▁Get":5285,"▁Organisationen":5286,"30":5287,"▁eindeutig":5288,"frieden":5289,"▁Wann":5290,"ano":5291,"▁länd":5292,"ors":5293,"▁you":5294,"▁Konzept":5295,"lock":5296,"▁bestimmt":5297,"▁Ausschuß":5298,"▁dra":5299,"▁Trotz":5300,"ildet":5301,"heim":5302,"▁letzte":5303,"ala":5304,"▁Leute":5305,"▁zuge":5306,"will":5307,"▁stand":5308,"bür":5309,"▁person":5310,"til":5311,"uellen":5312,"▁Christ":5313,"innt":5314,"▁Obwohl":5315,"uell":5316,"▁Heim":5317,"sser":5318,"▁Erstens":5319,"In":5320,"▁Jap":5321,"▁untern":5322,"yer":5323,"▁Wei":5324,"▁Israel":5325,",5":5326,"▁Milliarden":5327,"▁Detail":5328,"▁Einsch":5329,"▁Verpflichtungen":5330,"▁bemü":5331,"deten":5332,"▁voraus":5333,"organis":5334,"rug":5335,"▁Doll":5336,"weder":5337,"▁80":5338,"▁Gipfel":5339,"▁Hoff":5340,"zeichnen":5341,"▁Kriterien":5342,"▁Einfluss":5343,"endet":5344,"kra":5345,"▁benutzt":5346,"tere":5347,"▁produz":5348,"▁Überwach":5349,"▁Herz":5350,"gebiet":5351,"▁Tätigkeit":5352,"ängen":5353,"▁Anstrengungen":5354,"▁Kons":5355,"▁Verhalten":5356,"▁Ins":5357,"▁Nachfol":5358,"▁komfort":5359,"ison":5360,"▁PC":5361,"ica":5362,"▁Termin":5363,"▁sel":5364,"▁umfang":5365,"ager":5366,"▁Licht":5367,"▁profession":5368,"▁Hause":5369,"▁Falle":5370,"▁sinn":5371,"▁jem":5372,"reite":5373,"andid":5374,"stoffe":5375,"▁Grie":5376,"▁hei":5377,"▁größere":5378,"▁genannt":5379,"▁Zustimmung":5380,"▁mar":5381,"▁Gest":5382,"ash":5383,"ologische":5384,"▁verz":5385,"▁Eind":5386,"▁no":5387,"▁Site":5388,"▁unbedingt":5389,"achte":5390,"ständen":5391,"▁zusätzliche":5392,"ftung":5393,"ots":5394,"▁genutzt":5395,"▁ind":5396,"▁beschlossen":5397,"▁kaum":5398,"▁Systeme":5399,"▁Funktionen":5400,"▁Don":5401,"▁eingehen":5402,"▁que":5403,"▁begl":5404,"▁minde":5405,"▁Charakter":5406,"▁oben":5407,"▁bilden":5408,"▁entspricht":5409,"züg":5410,"▁Beschäftig":5411,"lichung":5412,"preis":5413,"▁Cor":5414,"▁Völker":5415,"▁Anti":5416,"▁überzeugt":5417,"zeigen":5418,"▁moderne":5419,"▁fe":5420,"▁vorgelegt":5421,"▁Mitgliedstaat":5422,"▁Nutzen":5423,"▁Alter":5424,"wind":5425,"ulieren":5426,"▁Anerkennung":5427,"▁Entschließungsant":5428,"ox":5429,"▁Dro":5430,"▁intensi":5431,"▁bezahl":5432,"▁reag":5433,"▁Dom":5434,"▁Öl":5435,"zenz":5436,"▁selbstverständlich":5437,"▁Kauf":5438,"schreiten":5439,"▁Idee":5440,"▁Allgem":5441,"▁gesetzt":5442,"▁Boden":5443,"▁Vereinbarung":5444,"▁elektron":5445,"▁politisch":5446,"ehrte":5447,"fälle":5448,"▁Zwischen":5449,"▁entschieden":5450,"roso":5451,"▁Leg":5452,"rien":5453,"▁entstehen":5454,"▁militär":5455,".00":5456,"▁Sw":5457,"▁Besonder":5458,"▁Altern":5459,"▁Wahlen":5460,"▁Holz":5461,"ary":5462,"page":5463,"amerik":5464,"aner":5465,"ohnung":5466,"sätz":5467,"▁Waffen":5468,"▁erkennen":5469,"▁zufrieden":5470,"oph":5471,"reiber":5472,"ja":5473,"▁exist":5474,"stattung":5475,"SE":5476,"▁Pati":5477,"▁berücksichtigen":5478,"▁196":5479,"▁angegeben":5480,"ci":5481,"▁mindestens":5482,"dest":5483,"spunkt":5484,"▁wesentlich":5485,"▁herunter":5486,"oben":5487,"▁unterschiedlichen":5488,"▁max":5489,"▁neg":5490,"▁danke":5491,"▁Inhalte":5492,"▁Netzwerk":5493,"▁effizien":5494,"▁mittel":5495,"wenden":5496,"▁Ausbildung":5497,"▁Durchführung":5498,"▁mag":5499,"▁verfügbar":5500,"karte":5501,"itzt":5502,"▁Sprachen":5503,"anlagen":5504,"▁Lond":5505,"▁Exp":5506,"mand":5507,"▁Körper":5508,"äne":5509,"▁Dollar":5510,"läuf":5511,"▁Besucher":5512,"▁Richtlinien":5513,"▁hochwer":5514,"ückw":5515,"▁mehreren":5516,"schine":5517,"▁gezeigt":5518,"▁Dist":5519,"▁Hintergrund":5520,"▁demokratischen":5521,"figur":5522,"▁Flü":5523,"▁bewusst":5524,"▁Mitteilung":5525,"▁Konflikt":5526,"▁Elekt":5527,"han":5528,"wirken":5529,"haften":5530,"▁­":5531,"▁reduz":5532,"▁hinweisen":5533,"▁bl":5534,"▁entsprechende":5535,"▁Tre":5536,"ruf":5537,"▁Abschluss":5538,"arch":5539,"▁extrem":5540,"artige":5541,"▁Ausgaben":5542,"ästinen":5543,"▁Stil":5544,"▁Infrastruktur":5545,"▁Kompromiss":5546,"▁My":5547,"▁Alb":5548,"ise":5549,"▁Anspruch":5550,"ball":5551,"▁gegrün":5552,"▁Osten":5553,"▁Kooper":5554,"bew":5555,"▁online":5556,"eiz":5557,"igte":5558,"▁dam":5559,"oking":5560,"räger":5561,"▁dig":5562,"▁erreich":5563,"quem":5564,"▁Vorteile":5565,"zeption":5566,"▁nö":5567,"▁Mün":5568,"▁gesprochen":5569,"▁Bud":5570,"▁erwähnt":5571,"▁Immobil":5572,"▁Engl":5573,"▁Lebensmittel":5574,"▁nachdem":5575,"gewöhn":5576,"liefer":5577,"alit":5578,"RO":5579,"fallen":5580,"▁aktuelle":5581,"▁Technologien":5582,"▁wert":5583,"▁glauben":5584,"ränk":5585,"lern":5586,"▁Komfort":5587,"▁Start":5588,"▁Rechn":5589,"▁angesprochen":5590,"▁21":5591,"▁human":5592,"ript":5593,"▁nationale":5594,"▁Sü":5595,"tain":5596,"▁Währung":5597,"mack":5598,"▁ged":5599,"▁Schlaf":5600,"swürd":5601,"▁Engagement":5602,"▁benutzen":5603,"spe":5604,"▁Sto":5605,"▁Schaden":5606,"röße":5607,"▁Mensch":5608,"afft":5609,"▁Zentral":5610,"▁Anp":5611,"▁Ja":5612,"ownload":5613,"spar":5614,"▁besonderen":5615,"▁kontroll":5616,"▁Aufnahme":5617,"▁Organ":5618,"▁Ven":5619,"▁Nah":5620,"▁euch":5621,"reichend":5622,"▁eingerichtet":5623,"▁akzeptieren":5624,"▁Einkauf":5625,"zieht":5626,"▁sicherzustellen":5627,"ites":5628,"▁August":5629,"langt":5630,"▁Partnerschaft":5631,"▁3.":5632,"tischer":5633,"▁Lu":5634,"▁Nahr":5635,"▁geeignet":5636,"▁ergreifen":5637,"▁siehe":5638,"▁End":5639,"▁derzei":5640,"mel":5641,"▁Bemerk":5642,"ancen":5643,"▁Feb":5644,"ink":5645,"▁Vorber":5646,"▁Mittelmeer":5647,"sse":5648,"reibt":5649,"▁Kapital":5650,"▁Kritik":5651,"▁zug":5652,"▁Homepage":5653,"swert":5654,"unkten":5655,"▁Zeitraum":5656,"▁erzielt":5657,"▁loc":5658,"minist":5659,"▁Anwendungen":5660,"▁Zunächst":5661,"stechn":5662,"▁Mio":5663,"izei":5664,"▁Schließlich":5665,"ommun":5666,"führer":5667,"wandel":5668,"▁Irak":5669,"▁wahrscheinlich":5670,"pft":5671,"▁Entsch":5672,"▁bestehenden":5673,"▁Reformen":5674,"▁freuen":5675,"▁Griechen":5676,"auern":5677,"▁Paket":5678,"irm":5679,"pack":5680,"▁Ern":5681,"skon":5682,"sicherheit":5683,"laufen":5684,"service":5685,"seite":5686,"ziehung":5687,"▁Unterkategorien":5688,"▁wundersch":5689,"▁Suche":5690,"▁wachsen":5691,"rücken":5692,"sichten":5693,"▁Einrichtungen":5694,"▁zul":5695,"▁Zudem":5696,"ischem":5697,"▁Straße":5698,"politi":5699,"alls":5700,"▁prüfen":5701,"▁Haltung":5702,"▁festgelegt":5703,"▁28":5704,"▁Super":5705,"ender":5706,"▁freien":5707,"tic":5708,"ices":5709,"▁leich":5710,"▁eleg":5711,"▁Sonnen":5712,"▁Fran":5713,"▁globalen":5714,"iertel":5715,"alk":5716,"▁geändert":5717,"▁hoffen":5718,"▁And":5719,"▁möglicherweise":5720,"issionen":5721,"▁Banken":5722,"ograph":5723,"▁notwendigen":5724,"▁Wettbewerbsfähigkeit":5725,"▁umgesetzt":5726,"aktiv":5727,"▁Kenntnis":5728,"▁land":5729,"ritann":5730,"ara":5731,"▁London":5732,"▁lösen":5733,"gert":5734,"▁Kind":5735,"▁pass":5736,"▁Tro":5737,"▁zuletzt":5738,"▁positiv":5739,"werke":5740,"werten":5741,"ichtigung":5742,"▁erfüllt":5743,"spiele":5744,"▁Jed":5745,"▁anderes":5746,"▁Ausgang":5747,"▁Fortschritt":5748,"▁amerikanischen":5749,"▁pol":5750,"▁finanziellen":5751,"▁Sil":5752,"▁süd":5753,"ption":5754,"ünsch":5755,"IC":5756,"▁Zweck":5757,"mitglie":5758,"▁Barcel":5759,"▁dienen":5760,"▁beziehen":5761,"▁Business":5762,"▁Monate":5763,"sein":5764,"▁Speich":5765,"▁do":5766,"▁Schn":5767,"▁Zer":5768,"see":5769,"tierte":5770,"▁26":5771,"▁gener":5772,"aup":5773,"▁Meter":5774,"▁Chance":5775,"▁Will":5776,"rig":5777,"öpf":5778,"▁füh":5779,"atik":5780,"▁fahren":5781,"tierten":5782,"▁Tel":5783,"test":5784,"▁lesen":5785,"ous":5786,"äuser":5787,"▁CO":5788,"ect":5789,"▁gleiche":5790,"▁jene":5791,"▁as":5792,"tert":5793,"▁Arten":5794,"▁anders":5795,"▁Vielfalt":5796,"aul":5797,"▁Freu":5798,"uropa":5799,"ohlen":5800,"▁jederzeit":5801,"▁Oper":5802,"▁vermeiden":5803,"▁Universität":5804,"laus":5805,"▁Bran":5806,"▁Dienste":5807,"▁braucht":5808,"▁Ac":5809,"▁Kindern":5810,"▁verbessert":5811,"äden":5812,"ards":5813,"▁schwierig":5814,"etzungen":5815,"ärm":5816,"▁etc.":5817,"▁näh":5818,"ulierung":5819,"▁Gesundheits":5820,"▁Febru":5821,"ritannien":5822,"flug":5823,"ampag":5824,"▁Iden":5825,"▁Gut":5826,"▁gemüt":5827,"▁Wege":5828,"systeme":5829,"▁vereinbar":5830,"una":5831,"how":5832,"out":5833,"▁Forschungs":5834,"▁sicherlich":5835,"▁stattfinden":5836,"▁Band":5837,"▁Just":5838,"▁technische":5839,"▁darunter":5840,"▁Ass":5841,"rahmen":5842,"leisch":5843,"fachen":5844,"▁Mor":5845,"haber":5846,"enter":5847,"▁{":5848,"▁Stimme":5849,"ohner":5850,"▁angezeigt":5851,"▁jeweils":5852,"bad":5853,"ars":5854,"▁Schweiz":5855,"tigkeiten":5856,"▁Mad":5857,"▁Grundsatz":5858,"▁nor":5859,"▁Well":5860,"vin":5861,"▁Arbeiten":5862,"▁übernachten":5863,"▁entweder":5864,".2":5865,"▁kn":5866,"oss":5867,"▁Menge":5868,"▁Mich":5869,"aust":5870,"ilität":5871,"▁Webseite":5872,"▁Moment":5873,"meld":5874,"▁Tor":5875,"uern":5876,"▁empfehlen":5877,"▁Dritten":5878,"▁gelangen":5879,"▁Che":5880,"lands":5881,"räume":5882,"▁Fen":5883,"britannien":5884,"▁Fonds":5885,"▁Technik":5886,"▁Ther":5887,"▁Abschließend":5888,"▁erzielen":5889,"indert":5890,"▁Phil":5891,"▁Maschinen":5892,"komp":5893,"weiten":5894,"▁lau":5895,"▁comp":5896,"▁Leistungen":5897,"▁Titel":5898,"▁Wa":5899,"rik":5900,"▁Instrumente":5901,"▁Camp":5902,"räf":5903,"spoliti":5904,"▁Hy":5905,"seits":5906,"▁Frem":5907,"▁Verhältnis":5908,"▁Hafen":5909,"▁Forderung":5910,"▁IS":5911,"atist":5912,"alifiz":5913,"▁500":5914,"▁Berichte":5915,"ling":5916,"▁Schön":5917,"▁ergän":5918,"zent":5919,"chmal":5920,"▁besuchen":5921,"ester":5922,"▁teilweise":5923,"▁Freund":5924,"ovo":5925,"▁Februar":5926,"ssel":5927,"ón":5928,"▁ausdrücklich":5929,"▁stimme":5930,"▁west":5931,"zone":5932,"echan":5933,"▁ständig":5934,"plätze":5935,"▁nieder":5936,"ET":5937,"▁Entwurf":5938,"▁Regelung":5939,"▁Sy":5940,"atisch":5941,"▁erstellt":5942,"▁welcher":5943,"▁erhöhen":5944,"▁Vorgehen":5945,"▁gekommen":5946,"▁Analyse":5947,"▁Fin":5948,"▁Initiativen":5949,"▁schl":5950,"fs":5951,"▁Risiko":5952,"▁Abgeordnete":5953,"▁Vereinten":5954,"▁Ganz":5955,"▁Jetzt":5956,"▁stärk":5957,"atoren":5958,"▁sagt":5959,"▁absolut":5960,"▁betonen":5961,"▁Herstellung":5962,"▁Teile":5963,"▁aufmerksam":5964,"▁Klimawandel":5965,"▁Sinn":5966,"▁Großbritannien":5967,"tes":5968,"▁co":5969,"▁kommenden":5970,"▁wollte":5971,"▁Autom":5972,"peratur":5973,"▁Tradition":5974,"licherweise":5975,"▁Besitz":5976,"bruch":5977,"leistung":5978,"▁Installation":5979,"ällt":5980,"eils":5981,"qualität":5982,"▁Bereit":5983,"▁informieren":5984,"▁funktioniert":5985,"igh":5986,"▁komplex":5987,"old":5988,"▁Leistung":5989,"▁institution":5990,"▁Status":5991,"▁lernen":5992,"▁wären":5993,"▁Sam":5994,"▁Eff":5995,"▁Innovation":5996,"▁Download":5997,"▁Unabhäng":5998,"▁Bon":5999,"▁ging":6000,"▁Grenz":6001,"▁ober":6002,"▁handeln":6003,"▁Leider":6004,"ungsverfahren":6005,"ime":6006,"▁Arg":6007,"▁Ruhe":6008,"sweise":6009,"▁fragen":6010,"alisieren":6011,"▁that":6012,"▁Fel":6013,"▁Plen":6014,"▁Veränderungen":6015,"▁Not":6016,"suchen":6017,"fil":6018,"ähig":6019,"▁zuvor":6020,"▁einiger":6021,"▁Ang":6022,"▁Heil":6023,"▁Ind":6024,"oy":6025,"▁Vielen":6026,"▁Verständ":6027,"▁Standards":6028,"ish":6029,"demokra":6030,"▁chines":6031,"prüfung":6032,"▁sauber":6033,"tt":6034,"mension":6035,"▁Ratsvor":6036,"ID":6037,"▁90":6038,"▁General":6039,"schech":6040,"lanzen":6041,"▁Zeiten":6042,"▁konkrete":6043,"teren":6044,"▁Wander":6045,"ständigkeit":6046,"▁darstellen":6047,"▁unternehmen":6048,"▁Angaben":6049,"ake":6050,"▁gefordert":6051,"▁Begriff":6052,"▁Kurz":6053,"luß":6054,"▁dagegen":6055,"asen":6056,"▁app":6057,"▁Iran":6058,"▁Warum":6059,"öffnen":6060,"▁Flexib":6061,"▁sorg":6062,"▁erleben":6063,"▁wenigen":6064,"▁komplett":6065,"▁Mess":6066,"▁Mö":6067,"▁Absatz":6068,"verkehrs":6069,"▁Entsp":6070,"▁Aufbau":6071,"rachtet":6072,"▁Hauses":6073,"▁Eisen":6074,"▁durchaus":6075,"▁Japan":6076,"üsse":6077,"roh":6078,"▁li":6079,"▁Formen":6080,"▁Mio.":6081,"▁Pa":6082,"AM":6083,"örde":6084,"tiken":6085,"▁kostenlos":6086,"▁gewährleistet":6087,"▁freue":6088,"punkte":6089,"▁verwende":6090,"▁stärken":6091,"▁Sand":6092,"▁11.":6093,"loss":6094,"▁Klicken":6095,"▁hinzuf":6096,"▁engl":6097,"pool":6098,"▁Gebieten":6099,"▁alte":6100,"deck":6101,"zin":6102,"▁erfolgen":6103,"▁Sehenswürd":6104,"statten":6105,"▁verloren":6106,"▁klare":6107,"wagen":6108,"PE":6109,"▁verring":6110,"▁Hersteller":6111,"▁liebe":6112,"▁70":6113,"▁Einigung":6114,"▁Prioritäten":6115,"▁verd":6116,"▁benötigt":6117,"▁russ":6118,"▁klicken":6119,"▁Übereinkommen":6120,"▁Geist":6121,"▁trägt":6122,"▁Worte":6123,"▁veröffentlicht":6124,"▁Prem":6125,"▁lokalen":6126,"▁Brüssel":6127,"▁Rechnung":6128,"▁Kirche":6129,"führten":6130,"▁abgeschlossen":6131,"▁DV":6132,"▁Programms":6133,"maßen":6134,"▁hält":6135,"sterdam":6136,"▁verur":6137,"▁Motor":6138,"▁Indien":6139,"▁Wien":6140,"▁Zweifel":6141,"▁Can":6142,"▁Herausforderung":6143,"sh":6144,"kosten":6145,"▁Katastrop":6146,"▁Immobilien":6147,"ranken":6148,"▁Mic":6149,"netz":6150,"▁erscheint":6151,"▁allgemein":6152,"gewicht":6153,"▁Amsterdam":6154,"▁}":6155,"▁Königreich":6156,"▁Terrasse":6157,"▁erklären":6158,"▁Stellungnahme":6159,"versor":6160,"▁möglichst":6161,"leistungen":6162,"eting":6163,"mode":6164,"▁me":6165,"▁Karten":6166,"▁leist":6167,"▁Miss":6168,"▁geh":6169,"alog":6170,"▁Linux":6171,"bed":6172,"bericht":6173,"▁erstellen":6174,"▁Nachfolgend":6175,"▁Tal":6176,"▁Flücht":6177,"▁Pen":6178,"▁Meeres":6179,"▁Achtung":6180,"rung":6181,"ktoren":6182,"lägen":6183,"steht":6184,"spek":6185,"▁Unterkunft":6186,"gi":6187,"▁Einhaltung":6188,"▁Entschließungsantrag":6189,"▁Verk":6190,"riebe":6191,"▁Landwir":6192,"▁konzentrieren":6193,"▁dennoch":6194,"▁Mer":6195,"▁Portug":6196,"▁Dennoch":6197,"▁Kompeten":6198,"▁Museum":6199,"▁Gewähr":6200,"▁Forderungen":6201,"▁Ehr":6202,"▁verf":6203,"▁gegensei":6204,"▁finanzielle":6205,"▁bequem":6206,"way":6207,"bieter":6208,"▁Texte":6209,"▁Mig":6210,"reitet":6211,"ohnen":6212,"▁Aspekt":6213,"▁gegründet":6214,"igungen":6215,"gebaut":6216,"ulen":6217,"▁nächste":6218,"gegeben":6219,"▁Asy":6220,"äck":6221,"▁Patienten":6222,"▁links":6223,"umän":6224,"▁Deleg":6225,"▁unterschiedliche":6226,"▁Mass":6227,"volution":6228,"▁persönlich":6229,"▁EG":6230,"▁ausreichend":6231,"▁täglich":6232,"▁übertragen":6233,"rum":6234,"▁fer":6235,"▁Barcelona":6236,"▁verfolgen":6237,"▁diskutieren":6238,"itor":6239,"▁geleistet":6240,"abl":6241,"schnitt":6242,"▁Anlagen":6243,"▁humanit":6244,"▁29":6245,"▁pri":6246,"▁legen":6247,"▁Paten":6248,"▁Jahrhunderts":6249,"▁wei":6250,"ipp":6251,"lligen":6252,"reak":6253,"▁Ideen":6254,"ated":6255,"▁Sehenswürdigkeiten":6256,"▁Lab":6257,"▁Afrika":6258,"▁Gas":6259,"▁Messe":6260,"▁spielt":6261,"▁umfasst":6262,"▁nennen":6263,"▁300":6264,"▁endgül":6265,"▁verlassen":6266,"▁zerst":6267,"▁Ukra":6268,"▁Debian":6269,"▁Anges":6270,"▁unabhängig":6271,"▁Typ":6272,"▁Wald":6273,"▁Lesung":6274,"▁Kol":6275,"▁Dorf":6276,"AC":6277,"▁schönen":6278,"steuer":6279,"OS":6280,"▁Aussicht":6281,"rachte":6282,"tinent":6283,"▁digit":6284,"▁Jav":6285,"▁betrachtet":6286,"▁denken":6287,"▁höher":6288,"▁positive":6289,"▁Hel":6290,"▁los":6291,"▁Verpflichtung":6292,"▁Gemeinsamen":6293,"▁wor":6294,"▁Lang":6295,"▁Künstler":6296,"iven":6297,"▁Name":6298,"bef":6299,"ränken":6300,"wa":6301,"konferenz":6302,"▁Landschaft":6303,"▁feststellen":6304,"union":6305,"▁garantiert":6306,"▁arbeitet":6307,"testen":6308,"▁erforderlichen":6309,"▁au":6310,"sequen":6311,"uelle":6312,"▁vertra":6313,"lüsse":6314,"▁Umfang":6315,"▁erleich":6316,"▁Treffen":6317,"management":6318,"▁überprüfen":6319,"▁Enter":6320,"▁hören":6321,"▁News":6322,"▁behaup":6323,"▁Polen":6324,"▁kulturellen":6325,"▁Do":6326,"arischen":6327,"po":6328,"▁Überwachung":6329,"▁Villa":6330,"▁Harmon":6331,"▁Sorge":6332,"▁Gleichzeitig":6333,"▁Vielzahl":6334,"▁Sim":6335,"park":6336,"umm":6337,"regel":6338,"ickt":6339,"▁Stück":6340,"tegien":6341,"▁Kopf":6342,"enk":6343,"▁Erzeug":6344,"▁stabil":6345,"▁Kil":6346,"tions":6347,"weite":6348,"endes":6349,"▁Erst":6350,"▁Kenn":6351,"▁ti":6352,"iens":6353,"▁niedr":6354,"▁Stärkung":6355,"▁richtigen":6356,"▁tätig":6357,"▁hingewiesen":6358,"▁les":6359,"▁grat":6360,"▁Tourismus":6361,"▁Heimat":6362,"▁Bedarf":6363,"zwischen":6364,"dex":6365,"upt":6366,"eck":6367,"passen":6368,"raucher":6369,"▁bi":6370,"▁Entwicklungen":6371,"▁Nutzer":6372,"▁Jeder":6373,"▁Lizenz":6374,"▁passen":6375,"▁Drogen":6376,"▁resp":6377,"versorgung":6378,"üter":6379,"instr":6380,"▁miteinander":6381,"▁Flexibilität":6382,"auftrag":6383,"lösung":6384,"▁invest":6385,"▁haupt":6386,"▁Teilnehmer":6387,"▁Willen":6388,"▁Verz":6389,"vo":6390,"führungen":6391,"bett":6392,"▁Sehr":6393,"bli":6394,"RE":6395,"▁vernünf":6396,"▁seiten":6397,"▁mon":6398,"▁Anlage":6399,"▁voran":6400,"▁Mand":6401,"haltet":6402,"ourn":6403,"▁bezeichnet":6404,"▁Ratsvorsitz":6405,"▁Elemente":6406,"▁Mutter":6407,"▁Problemen":6408,"▁Arbeitslosigkeit":6409,"preise":6410,"elte":6411,"öt":6412,"rich":6413,"▁erinner":6414,"▁Priorität":6415,"▁weiterer":6416,"▁Bedürfnisse":6417,"▁Irland":6418,"▁vergleich":6419,"rab":6420,"▁zahlen":6421,"▁Wellness":6422,"▁Straf":6423,"▁eingeführt":6424,"▁profitieren":6425,"▁untersch":6426,"▁grenz":6427,"▁Wechsel":6428,"omit":6429,"▁konstru":6430,"zy":6431,"künd":6432,"▁Diskrimin":6433,"▁zweif":6434,"▁Vir":6435,"ragt":6436,"▁Bewertung":6437,"bleh":6438,"▁gelin":6439,"▁falls":6440,"▁Mechan":6441,"▁fl":6442,"▁Presse":6443,"▁Architektur":6444,"▁Jahrz":6445,"▁vorber":6446,"▁Geschäftsordnung":6447,"isiert":6448,"▁Beschreibung":6449,"▁dritten":6450,"▁gewinnen":6451,"▁19.":6452,"ometer":6453,"öse":6454,"uffet":6455,"▁Justiz":6456,"iegen":6457,"go":6458,"▁unterstütze":6459,"▁französischen":6460,"weist":6461,"▁klass":6462,"▁est":6463,"▁geschehen":6464,"▁$":6465,"▁ausführ":6466,"gere":6467,"▁Modern":6468,"▁Mik":6469,"▁Bahnhof":6470,"▁einsetzen":6471,"behalten":6472,"▁x":6473,"▁ök":6474,"▁Führung":6475,"oo":6476,"▁zuver":6477,"▁Rechnungs":6478,"gibt":6479,"pa":6480,"▁Regelungen":6481,"▁danach":6482,"▁Hostels":6483,"▁vorliegenden":6484,"▁überall":6485,"windigkeit":6486,"▁Verteidigung":6487,"▁Hilf":6488,"▁zentrale":6489,"▁erle":6490,"▁Altstadt":6491,"▁Schwe":6492,"▁Europäer":6493,"▁sämtliche":6494,"▁riesi":6495,"▁Sek":6496,"▁beginnt":6497,"▁festge":6498,"▁Cap":6499,"▁Meiner":6500,"▁Anteil":6501,"▁Links":6502,"▁Foto":6503,"▁geschützt":6504,"▁Train":6505,"▁entstanden":6506,"oking.com":6507,"▁Halb":6508,"▁keinerlei":6509,"andidaten":6510,"▁besitzt":6511,"▁gegenwärtig":6512,"▁ausges":6513,"▁bestätigt":6514,"tinu":6515,"▁Fotos":6516,"▁Stein":6517,"▁regionalen":6518,"ente":6519,"▁Chancen":6520,"liegt":6521,"rünen":6522,"▁Seine":6523,"kam":6524,"▁spezielle":6525,"▁Ham":6526,"viel":6527,"▁35":6528,"▁WTO":6529,"▁Rein":6530,"uster":6531,"▁Globalisierung":6532,"wortet":6533,"▁vollkommen":6534,"▁offensichtlich":6535,"▁einfache":6536,"▁Kombin":6537,"▁sob":6538,"dient":6539,"▁grenzüber":6540,"hop":6541,"▁Stock":6542,"igi":6543,"▁Vorsitzen":6544,"reitung":6545,"fg":6546,"▁verfolgt":6547,"▁großes":6548,"▁stren":6549,"▁normal":6550,"▁beteiligt":6551,"rochen":6552,"▁4.":6553,"▁DE":6554,"pla":6555,"▁gestalten":6556,"igungs":6557,"▁off":6558,"▁1998":6559,"▁Militär":6560,"▁Sant":6561,"▁Gerichtshof":6562,"▁Tisch":6563,"hören":6564,"▁Marken":6565,"stücks":6566,"▁ste":6567,"ausschusses":6568,"ini":6569,"ces":6570,"rechts":6571,"▁Griechenland":6572,"leihen":6573,"▁haupts":6574,"▁Ukraine":6575,"▁Offen":6576,"▁Angesichts":6577,"▁ideal":6578,"ielten":6579,"gemäß":6580,"▁Mitteln":6581,"▁Polizei":6582,"▁größeren":6583,"▁Verständnis":6584,"if":6585,"▁meist":6586,"▁politischer":6587,"▁Ausland":6588,"▁erh":6589,"agn":6590,"▁Kosovo":6591,"▁Gold":6592,"▁Star":6593,"▁Rezeption":6594,"▁garantieren":6595,"wser":6596,"freiheit":6597,"fast":6598,"▁Worten":6599,"LE":6600,"és":6601,"▁warten":6602,"brauch":6603,"ehmer":6604,"pport":6605,"IE":6606,"pe":6607,"mittag":6608,"▁früher":6609,"▁International":6610,"▁zusätzlich":6611,"▁Erhö":6612,"tigten":6613,"▁gutes":6614,"istisch":6615,"▁gegenwärtigen":6616,"verstanden":6617,"▁fallen":6618,"atell":6619,"▁Maße":6620,"▁international":6621,"entwicklung":6622,"▁ergeben":6623,"▁Sach":6624,"▁Größe":6625,"ella":6626,"elev":6627,"▁beinhaltet":6628,"▁Defin":6629,"▁Monat":6630,"▁umfassende":6631,"schiede":6632,"▁relativ":6633,"▁Beteiligung":6634,"▁Stadtzentrum":6635,"▁21.":6636,"osk":6637,"▁Eindruck":6638,"bert":6639,"▁verbundenen":6640,"▁folgende":6641,"äsion":6642,"▁Tri":6643,"▁fern":6644,"stellte":6645,"▁acht":6646,"attform":6647,"üben":6648,"▁internationaler":6649,"▁sogen":6650,"ulgar":6651,"▁Experten":6652,"▁pla":6653,"▁steigen":6654,"ole":6655,"▁mittler":6656,"▁Gebrauch":6657,",00":6658,"▁Wichtig":6659,"▁Fernseh":6660,"▁Zoll":6661,"▁dauer":6662,"▁solcher":6663,"krieg":6664,"wesen":6665,"▁Studien":6666,"nü":6667,"ergie":6668,"▁Datenbank":6669,"▁Erklärungen":6670,"▁Auss":6671,"▁grundsätz":6672,"▁Ku":6673,"selben":6674,"▁Märkte":6675,"IM":6676,"sprach":6677,"▁Kontroll":6678,"▁Aktionen":6679,"▁letzt":6680,"Innen":6681,"lägt":6682,"▁wesentlichen":6683,"tlichen":6684,"▁Todes":6685,"▁EC":6686,"▁Komponen":6687,"▁Gesetzgebung":6688,"▁mobil":6689,"▁teilnehmen":6690,"ses":6691,"mögen":6692,"allen":6693,"worfen":6694,"äfen":6695,"schrift":6696,"ellos":6697,"▁Gründe":6698,"▁Kohäsion":6699,"▁St.":6700,"▁beglückw":6701,"▁Dr.":6702,"▁Hinweis":6703,"▁attra":6704,"▁vorliegen":6705,"klusive":6706,"▁renov":6707,"vorschlag":6708,"▁Nahrungs":6709,"▁Wür":6710,"asil":6711,"▁Strom":6712,"eichert":6713,"▁Reisen":6714,"▁bemer":6715,"▁DVD":6716,"ij":6717,"▁kost":6718,"▁Datenschutz":6719,"abs":6720,"▁Tool":6721,"▁World":6722,"▁Vermitt":6723,"▁Städte":6724,"ikations":6725,"enntnisse":6726,"▁Unabhängigkeit":6727,"oto":6728,"▁Fenster":6729,"▁Niveau":6730,"ya":6731,"▁Realität":6732,"▁real":6733,"▁Fit":6734,"▁Mont":6735,"▁Erde":6736,"arta":6737,"▁Verwaltungs":6738,"▁ausgewogen":6739,"▁Gedanken":6740,"schaffen":6741,"▁speziellen":6742,"▁Verbrechen":6743,"▁event":6744,"▁Zahlen":6745,"iegel":6746,"▁Farben":6747,"▁lo":6748,"bus":6749,"mittelt":6750,"▁fehl":6751,"▁tür":6752,"holung":6753,"▁gemeinschaft":6754,"▁Asi":6755,"d.":6756,"▁umwelt":6757,"▁Mitgliedern":6758,"▁were":6759,"▁Wiederauf":6760,"▁praktisch":6761,"▁Mindest":6762,"▁dient":6763,"▁Zugriff":6764,"▁Schrift":6765,"▁Option":6766,"▁betrachten":6767,"▁geöffnet":6768,"linge":6769,"ain":6770,"▁Studen":6771,"OL":6772,"▁enor":6773,"▁Open":6774,"▁Empfehlungen":6775,"ktive":6776,"▁Botschaft":6777,"äufer":6778,"▁beachten":6779,"▁korre":6780,"imal":6781,"isieren":6782,"älfte":6783,"itze":6784,"▁Gegensatz":6785,"▁Urs":6786,"▁Beim":6787,"▁Ereignisse":6788,"▁Beihilfen":6789,"▁langen":6790,"ichtete":6791,"handels":6792,"▁gelungen":6793,"▁Reaktion":6794,"hotel":6795,"▁char":6796,"gefähr":6797,"bliothe":6798,"▁Off":6799,"risen":6800,"▁Kommissions":6801,"▁Einkommen":6802,"ritor":6803,"▁Booking.com":6804,"▁Weitere":6805,"klang":6806,"▁Beschluss":6807,"▁informiert":6808,"▁erhöht":6809,"richtlinie":6810,"orte":6811,"iertes":6812,"oom":6813,"▁Methode":6814,"▁Inn":6815,"▁starke":6816,"stands":6817,"▁Garant":6818,"rasse":6819,"▁schöne":6820,"▁transp":6821,".1":6822,"erne":6823,"itel":6824,"ax":6825,"▁britischen":6826,"ternen":6827,"▁tief":6828,"ektiv":6829,"▁Süden":6830,"▁rein":6831,"▁FR":6832,"▁einsch":6833,"rige":6834,"▁this":6835,"uchten":6836,"▁Nachdem":6837,"▁Inseln":6838,"▁Fraktionen":6839,"▁rechts":6840,"▁Wh":6841,"▁Wirkung":6842,"anger":6843,"▁Feld":6844,"▁manchmal":6845,"itut":6846,"▁guter":6847,"sprech":6848,"▁Pat":6849,"▁überein":6850,"▁daraus":6851,"▁sorgfäl":6852,"▁Gebiete":6853,"auso":6854,"▁hauptsächlich":6855,"▁Mitglieds":6856,"anen":6857,"▁194":6858,"err":6859,"vert":6860,"▁Beob":6861,"▁herzlich":6862,"▁trans":6863,"emin":6864,"▁Kaffe":6865,"▁Grunde":6866,"leun":6867,"gesellschaften":6868,"bindung":6869,"▁lux":6870,"▁türk":6871,"▁nachhaltige":6872,"entlich":6873,"▁außerorden":6874,"uert":6875,"▁Gre":6876,"▁einverstanden":6877,"▁allgemeine":6878,"▁Liberalisierung":6879,"▁kostenfrei":6880,"itter":6881,"itt":6882,"zellen":6883,"▁ideale":6884,"dessen":6885,"ato":6886,"▁Schi":6887,"▁mittels":6888,"▁geschieht":6889,"ai":6890,"roati":6891,"▁Hoffnung":6892,"▁Prüfung":6893,"▁sobald":6894,"▁Frühstücks":6895,"essi":6896,"▁gehalten":6897,"▁Grundrechte":6898,"▁festgestellt":6899,"▁20.":6900,"produktion":6901,"ED":6902,"▁treten":6903,"▁problem":6904,"▁Hauptstadt":6905,"▁Voraussetzungen":6906,"▁niemand":6907,"äumen":6908,"▁Ca":6909,"▁Sprach":6910,"genda":6911,"▁IN":6912,"oker":6913,"▁unternommen":6914,"ategorie":6915,"▁vorgeschlagenen":6916,"▁Bu":6917,"▁einzigen":6918,"▁möglichen":6919,"reakfast":6920,"fuhr":6921,"▁Ton":6922,"▁Minderheiten":6923,"▁Touristen":6924,"▁Währungs":6925,"ike":6926,"▁spricht":6927,"▁schneller":6928,"▁abhäng":6929,"▁Kurs":6930,"▁Center":6931,"▁kaufen":6932,"▁Teilen":6933,"kap":6934,"annung":6935,"jährigen":6936,"▁This":6937,"▁lauf":6938,"ymp":6939,"▁Vorteil":6940,"▁damals":6941,"eschäft":6942,"inger":6943,"▁Bra":6944,"▁Erwart":6945,"▁Mart":6946,"yr":6947,"inform":6948,"▁Pil":6949,"ulation":6950,"▁Gegenteil":6951,"ungsbereich":6952,"lichem":6953,"▁Vom":6954,"▁jüngsten":6955,"▁selten":6956,"▁erfordert":6957,"▁zählen":6958,"nach":6959,"▁private":6960,"▁Nachrichten":6961,"lieben":6962,"▁übernommen":6963,"▁Ren":6964,"▁ausländ":6965,"▁system":6966,"▁Verfüg":6967,"▁persönliche":6968,"ICH":6969,"▁jungen":6970,"▁Spiele":6971,"▁Männer":6972,"▁Niederlan":6973,"SS":6974,"▁weg":6975,"▁Agenda":6976,"ählten":6977,"▁nationaler":6978,"jekt":6979,"▁teilen":6980,"▁unterst":6981,"▁anbieten":6982,"▁Inf":6983,"▁Politiker":6984,"▁Nichtraucher":6985,"▁Code":6986,"▁Kür":6987,"▁Arbeitsmarkt":6988,"▁Asyl":6989,"▁Teilnahme":6990,"▁Bestandteil":6991,"▁York":6992,"▁medizin":6993,"▁Mir":6994,"▁Veranstaltungen":6995,"▁Rand":6996,"sych":6997,"▁Slow":6998,"EC":6999,"▁Veröffent":7000,"tigte":7001,"▁Origin":7002,"▁Apparte":7003,"▁famil":7004,"▁vieler":7005,"▁Top":7006,"ane":7007,"do":7008,"wissen":7009,"▁Prak":7010,"▁regelmäßig":7011,"▁Welche":7012,"karten":7013,"▁Klimaanlage":7014,"▁Risiken":7015,"▁vorschlagen":7016,"sucht":7017,"▁Apartments":7018,"▁sa":7019,"▁sage":7020,"▁No":7021,"wungen":7022,"▁beob":7023,"zn":7024,"▁gewünsch":7025,"▁Effizienz":7026,"▁Phase":7027,"▁betroffenen":7028,"leitung":7029,"▁up":7030,"▁Zimmern":7031,"▁Überprüfung":7032,"gendes":7033,"▁Formular":7034,"ässer":7035,"▁sieben":7036,"▁Ziff":7037,"haf":7038,"▁Publik":7039,"▁PL":7040,"▁Üb":7041,"ausende":7042,"ismen":7043,"▁Ba":7044,"▁Java":7045,"▁Reich":7046,"▁Roh":7047,"▁01":7048,"▁Verst":7049,"▁Ferienw":7050,"räch":7051,"▁Vorbereitung":7052,"▁Pflicht":7053,"▁traditionellen":7054,"ränkungen":7055,"▁Methoden":7056,"▁Angebote":7057,"▁zugleich":7058,"▁echte":7059,"▁gesellschaft":7060,"▁kleiner":7061,"▁Aktu":7062,"▁beschäftigt":7063,"elles":7064,"▁Austausch":7065,"▁Ziels":7066,"▁Gesetze":7067,"▁norm":7068,"ktiven":7069,"▁Koordinierung":7070,"eshalb":7071,"▁bekannte":7072,"▁Poten":7073,"▁gebe":7074,"▁Zuf":7075,"▁wodurch":7076,"ositionen":7077,"riech":7078,"lebnis":7079,"utzung":7080,"warz":7081,"▁registr":7082,"▁Politi":7083,"▁Wettbewerbs":7084,"▁have":7085,"▁gewählt":7086,"▁ag":7087,"▁erneuer":7088,"funktion":7089,"▁sichern":7090,"▁Anpassung":7091,"▁Übern":7092,"problem":7093,"▁Liebe":7094,"▁sur":7095,"tent":7096,"▁Erhöhung":7097,"▁Dig":7098,"iode":7099,"griffe":7100,"▁Ausnahme":7101,"▁kontext":7102,"▁AK":7103,"▁hergestellt":7104,"▁unge":7105,"▁Ebenso":7106,"mlich":7107,"▁Mac":7108,"▁besseren":7109,"wechsel":7110,"▁Symbol":7111,"▁abgel":7112,"▁com":7113,"▁1997":7114,"öder":7115,"▁diskutiert":7116,"technik":7117,"▁é":7118,"ablen":7119,"▁Internationalen":7120,"▁andererseits":7121,"ally":7122,"▁Pflanzen":7123,"▁wichtigste":7124,"ront":7125,"▁Rumän":7126,"▁Diskriminierung":7127,"▁qualifiz":7128,"▁deutsche":7129,"▁Angriff":7130,"▁fehlen":7131,"▁h.":7132,"▁Multi":7133,"▁Vertrieb":7134,"alys":7135,"▁Gästen":7136,"▁Hälfte":7137,"▁Fluss":7138,"▁beeinfl":7139,"kor":7140,"▁hilf":7141,"fügt":7142,"▁Absicht":7143,"gress":7144,"▁Bewegung":7145,"▁Eltern":7146,"gänglich":7147,"▁Hard":7148,"▁fällt":7149,"ames":7150,"assungs":7151,"▁Rund":7152,"metho":7153,"bek":7154,"gelassen":7155,"▁freie":7156,"▁Services":7157,"▁wh":7158,"▁zer":7159,"riend":7160,"▁weiteres":7161,"▁grenzüberschreiten":7162,"▁Akte":7163,"lege":7164,"▁bür":7165,"▁Morgen":7166,"▁Laufe":7167,"▁beige":7168,"▁Format":7169,"▁vielfäl":7170,"▁willkommen":7171,"wegs":7172,"hebung":7173,"ola":7174,"▁erscheinen":7175,"▁Aufgrund":7176,"▁demokratische":7177,"▁Zustand":7178,"▁City":7179,"verse":7180,"▁seitens":7181,"NG":7182,"▁finde":7183,"grenzen":7184,"▁begann":7185,"▁Autor":7186,"mes":7187,"ungsst":7188,"▁Relig":7189,"▁kürzlich":7190,"▁Dimension":7191,"angs":7192,"▁kommun":7193,"▁Tiere":7194,"ival":7195,"tität":7196,"olz":7197,"uver":7198,"▁Dokumente":7199,"sprüche":7200,"chem":7201,"▁Freizeit":7202,"▁Ordnung":7203,"prise":7204,"enken":7205,"dium":7206,"▁5.":7207,"▁jemand":7208,"▁Vater":7209,"▁einzelne":7210,"▁akzeptiert":7211,"spartner":7212,"▁reagieren":7213,"▁Pool":7214,"▁bewegen":7215,"▁Norden":7216,"▁Anliegen":7217,"▁äuß":7218,"ble":7219,"▁Fitness":7220,"orien":7221,"▁Beweis":7222,"lauben":7223,"adem":7224,"▁Haushaltsplan":7225,"▁Generation":7226,"▁Kooperation":7227,"▁bill":7228,"isla":7229,"▁näher":7230,"▁Fälle":7231,"▁Schweden":7232,"▁Drei":7233,"▁sinnvoll":7234,"zeß":7235,"▁poten":7236,"▁Direkt":7237,"▁irgendw":7238,"▁verteid":7239,"▁Rest":7240,"▁Wegen":7241,"▁Fähigkeit":7242,"▁reichen":7243,"▁ser":7244,"▁staff":7245,"▁junge":7246,"▁ländlichen":7247,"ese":7248,"▁behandeln":7249,"▁diesbe":7250,"▁nochmals":7251,"▁Serie":7252,"▁Einheit":7253,"▁genü":7254,"▁Link":7255,"akte":7256,"MU":7257,"▁griech":7258,"▁Berücks":7259,"ogle":7260,"▁positiven":7261,"▁Dad":7262,"▁umgeben":7263,"▁angeht":7264,"▁Haut":7265,"▁tut":7266,"cia":7267,"▁berühmten":7268,"▁32":7269,"ordnungs":7270,"ohnt":7271,"▁betont":7272,"fizierung":7273,"▁Grenze":7274,"rosoft":7275,"sens":7276,"zahlung":7277,"▁Mehrwert":7278,"▁Flä":7279,"val":7280,"▁Verm":7281,"▁Freunde":7282,"▁anerkannt":7283,"iums":7284,"▁sicherstellen":7285,"▁Glas":7286,"▁Browser":7287,"▁Farb":7288,"▁Gefühl":7289,"▁Salz":7290,"plant":7291,"▁Stunde":7292,"ielte":7293,"▁führenden":7294,"▁jeg":7295,"IL":7296,"its":7297,"berech":7298,"▁langsam":7299,"▁Gran":7300,"▁Dort":7301,"▁Kombination":7302,"▁begonnen":7303,"▁dynam":7304,"▁Weiß":7305,"▁acc":7306,"▁Untersuchung":7307,"▁Portugal":7308,"▁verstärkt":7309,"▁Englisch":7310,"PS":7311,"▁Unterschiede":7312,"▁Lob":7313,"gebracht":7314,"ski":7315,"ästinens":7316,"einrichtungen":7317,"▁beeindruck":7318,"▁Umständen":7319,"ahnen":7320,"unsten":7321,"▁Perspek":7322,"▁dah":7323,"grundlage":7324,"▁Einklang":7325,"ex":7326,"▁entspannen":7327,"▁Diskussionen":7328,"geht":7329,"▁Autob":7330,"▁Eigenschaften":7331,"▁Kollege":7332,"sichts":7333,"▁Har":7334,"flüge":7335,"ms":7336,"ierend":7337,"lechter":7338,"h.":7339,"ller":7340,"▁fordert":7341,"▁Fü":7342,"▁Mini":7343,"▁überra":7344,"▁rasch":7345,"▁rei":7346,"▁leiden":7347,"zahlt":7348,"▁Rh":7349,"stehenden":7350,"▁Bio":7351,"fertigt":7352,"▁Verfügbarkeit":7353,"▁beruf":7354,"▁verlieren":7355,"gut":7356,"folgerungen":7357,"▁beschrieben":7358,"▁Hei":7359,"wes":7360,"material":7361,"▁Freude":7362,"▁Provin":7363,"▁vielmehr":7364,"stoffen":7365,"▁vorgenommen":7366,"ates":7367,"▁Dadurch":7368,"yl":7369,"▁ergriffen":7370,"▁globale":7371,"▁fand":7372,"▁befassen":7373,"▁Einwanderung":7374,"▁Bedenken":7375,"orgnis":7376,"▁Microsoft":7377,"▁Kunde":7378,"biente":7379,"zif":7380,"nehmern":7381,"▁bedarf":7382,"▁derzeitigen":7383,"▁zustimmen":7384,"▁Handeln":7385,"meldung":7386,"ournal":7387,"▁Berücksichtigung":7388,"osen":7389,"▁starken":7390,"▁Dol":7391,"▁TM":7392,"▁Kontak":7393,"osoph":7394,"▁PH":7395,"▁Unterschied":7396,"▁hand":7397,"▁gewisse":7398,"▁eingesch":7399,"▁multi":7400,"▁unterschiedlich":7401,"▁ehemaligen":7402,"▁landwirtschaft":7403,"▁Event":7404,"▁Papier":7405,"▁van":7406,"▁Enterprise":7407,"▁Las":7408,"▁Geräte":7409,"▁Theater":7410,"▁out":7411,"▁Antworten":7412,"lichten":7413,"▁nötig":7414,"▁Distrib":7415,"▁Erwachsen":7416,"ümm":7417,"▁bildet":7418,"▁struktur":7419,"▁höchste":7420,"▁Europe":7421,"▁Sicher":7422,"▁wiederum":7423,"▁Westen":7424,"▁läuft":7425,"▁konkreten":7426,"▁Tun":7427,"▁erb":7428,"räumen":7429,"▁Schwerpunkt":7430,"▁Fein":7431,"▁Var":7432,"▁basiert":7433,"▁welchen":7434,"▁Kranken":7435,"legte":7436,"maschinen":7437,"▁Zusatz":7438,"▁High":7439,"atein":7440,"▁Chin":7441,"▁Grundsätze":7442,"▁Voraussetzung":7443,"▁Wahrheit":7444,"▁Komment":7445,"▁Dre":7446,"uri":7447,"ufe":7448,"▁ant":7449,"▁Element":7450,"▁but":7451,"▁Vielleicht":7452,"▁schließen":7453,"stä":7454,"cy":7455,"▁45":7456,"omie":7457,"▁sprach":7458,"▁schlecht":7459,"▁Marketing":7460,"üch":7461,"▁S.":7462,"iziert":7463,"▁Registr":7464,"▁seien":7465,"geiz":7466,"▁Untern":7467,"▁Leitlinien":7468,"▁keines":7469,"liste":7470,"günst":7471,"▁Küste":7472,"zig":7473,"▁Bla":7474,"fangen":7475,"ichern":7476,"▁engag":7477,"eier":7478,"▁deiner":7479,"▁Lö":7480,"fghan":7481,"▁abhängig":7482,"▁Studie":7483,"▁fried":7484,"▁Schäden":7485,"▁genauso":7486,"▁Allgemeinen":7487,"päck":7488,"ient":7489,"▁Verträge":7490,"▁entlang":7491,"▁Sanktionen":7492,"▁gestern":7493,"▁bo":7494,"▁Strategien":7495,"▁zeich":7496,"geg":7497,"▁Lager":7498,"rüstung":7499,"▁tie":7500,"ffend":7501,"heber":7502,"▁bezieht":7503,"▁Maßnahme":7504,"▁maß":7505,"▁vors":7506,"omin":7507,"füllung":7508,"mech":7509,"▁Wirtschafts-":7510,"▁Blog":7511,"▁unein":7512,"EM":7513,"▁Massen":7514,"▁Schule":7515,"▁Tick":7516,"▁wichtiges":7517,"▁respek":7518,"▁Ski":7519,"▁Tagung":7520,"▁Amerika":7521,"▁Signal":7522,"ussen":7523,"▁1996":7524,"▁hal":7525,"▁alt":7526,"▁Menü":7527,"▁Beifall":7528,"ps":7529,"gänge":7530,"▁Bedien":7531,"▁Google":7532,"person":7533,"▁Kategorie":7534,"▁reicht":7535,"▁Schm":7536,"ährt":7537,"▁Lei":7538,"▁36":7539,"▁....":7540,"äume":7541,"▁Beratung":7542,"ba":7543,"tu":7544,"▁senden":7545,"▁Dafür":7546,"uliert":7547,"krise":7548,"elbe":7549,"▁po":7550,"koh":7551,"märkte":7552,"▁laufen":7553,"▁unmittelbar":7554,"üste":7555,"▁18.":7556,"▁Afghan":7557,"▁geist":7558,"behörden":7559,"▁Genehm":7560,"oler":7561,"▁Essen":7562,"ischung":7563,"blei":7564,"entre":7565,"lässi":7566,"▁altern":7567,"▁erhältlich":7568,"hlen":7569,"▁verlangen":7570,"▁außergewöhn":7571,"▁Definition":7572,"▁Anbieter":7573,"▁Wo":7574,"gal":7575,"▁Dam":7576,"▁Frankf":7577,"▁liefern":7578,"reuung":7579,"da":7580,"▁Hoh":7581,"etaill":7582,"▁Schnitt":7583,"▁trotzdem":7584,"▁Gesicht":7585,"▁Ag":7586,"zte":7587,"▁wenden":7588,"tragung":7589,"▁Landwirte":7590,"rechten":7591,"▁pal":7592,"trolle":7593,"▁iden":7594,"▁hoher":7595,"▁umfassenden":7596,"▁Details":7597,"▁ziemlich":7598,"ziel":7599,"▁Strukturfonds":7600,"▁tour":7601,"ähigkeiten":7602,"▁religi":7603,"▁Ke":7604,"ektoren":7605,"▁interessante":7606,"▁italienischen":7607,"▁Anfragen":7608,"größ":7609,"bereiche":7610,"▁Materialien":7611,"ichteten":7612,"▁geschrieben":7613,"▁Szen":7614,"last":7615,"▁historische":7616,"▁eig":7617,"▁PD":7618,"angebot":7619,"▁Krisen":7620,"▁laut":7621,"▁Temperatur":7622,"▁Bulgar":7623,"▁regionale":7624,"▁Bett":7625,"▁bekannten":7626,"stu":7627,"▁Kamera":7628,"▁Umweltschutz":7629,"schn":7630,"▁my":7631,"nummer":7632,"▁oper":7633,"▁good":7634,"▁1,":7635,"ata":7636,"▁Dach":7637,"▁Mikro":7638,"▁sofern":7639,"▁Dauer":7640,"zulegen":7641,"macht":7642,"▁Drit":7643,"nitten":7644,"US":7645,"▁Konsequen":7646,"▁sex":7647,"▁Studenten":7648,"geschrieben":7649,"▁qualit":7650,"▁German":7651,"▁IP":7652,"▁Ferner":7653,"▁gül":7654,"▁falsch":7655,"richtet":7656,"ätzung":7657,"▁Fremden":7658,"mechan":7659,"▁Vo":7660,"▁eröffnet":7661,"▁führte":7662,"▁°":7663,"ppen":7664,"▁Normen":7665,"▁Krie":7666,"▁entdecken":7667,"gener":7668,"▁sh":7669,"azität":7670,"▁beträgt":7671,"no":7672,"▁Empfehlung":7673,"mail":7674,"▁Badezimmer":7675,"▁Fahrzeug":7676,"▁künftig":7677,"▁Bri":7678,"▁geprü":7679,"lässig":7680,"kommt":7681,"▁Delegation":7682,"▁Zyp":7683,"▁Übersetzung":7684,"▁sicht":7685,"▁Ep":7686,"ilft":7687,"ema":7688,"▁Herkunft":7689,"▁Garantie":7690,"▁zusätzlichen":7691,"▁begren":7692,"beziehung":7693,"▁koordin":7694,"▁überzeugen":7695,"dienste":7696,"▁München":7697,"▁Blut":7698,"▁Institution":7699,"▁gefördert":7700,"quellen":7701,"▁150":7702,"▁Eisenbahn":7703,"▁beraten":7704,"▁direkte":7705,"fällen":7706,"modell":7707,"▁zugänglich":7708,"▁Vorsitz":7709,"▁gleicher":7710,"vision":7711,"künfte":7712,"▁Erinner":7713,"▁kommer":7714,"atischen":7715,"▁kurzem":7716,"▁fair":7717,"▁öffnen":7718,"ace":7719,"▁195":7720,"amerika":7721,"ügel":7722,"▁—":7723,"▁zunehmend":7724,"ühl":7725,"▁höhere":7726,"▁schönsten":7727,"▁Ambiente":7728,"▁Regional":7729,"▁verändert":7730,"▁Veranstaltung":7731,"fest":7732,"▁Einstellung":7733,"▁voller":7734,"euern":7735,"▁ans":7736,"▁wesentliche":7737,"▁Agrarpolitik":7738,"zo":7739,"ließen":7740,"ML":7741,"▁Col":7742,"▁grundlegenden":7743,"partner":7744,"schirm":7745,"▁eigenes":7746,"▁Mittelpunkt":7747,"▁besitzen":7748,"▁fac":7749,"▁Produktions":7750,"▁interessiert":7751,"▁hilft":7752,"▁port":7753,"▁schwierigen":7754,"▁NAT":7755,"▁kombin":7756,"▁hervorragende":7757,"ammer":7758,"IA":7759,"▁ES":7760,"cks":7761,"▁Verh":7762,"▁Ungar":7763,"▁Standort":7764,"fferen":7765,"neter":7766,"▁Erwartungen":7767,"▁Mü":7768,"flächen":7769,"▁Kann":7770,"▁Ausgabe":7771,"▁Ohne":7772,"▁ausgezeichnete":7773,"reck":7774,"▁zweifellos":7775,"▁zuerst":7776,"straße":7777,"ones":7778,"▁entschlossen":7779,"▁weshalb":7780,"▁Kandidaten":7781,"▁Projekten":7782,"mmen":7783,"ages":7784,"▁Forum":7785,"bereit":7786,"view":7787,"▁Ban":7788,"▁Wirklichkeit":7789,"wander":7790,"frik":7791,"▁angep":7792,"▁niemals":7793,"wä":7794,"▁außen":7795,"▁weltweiten":7796,"wicklung":7797,"▁Balkon":7798,"kat":7799,"ändler":7800,"teile":7801,"ted":7802,"angt":7803,"▁Hindern":7804,"▁Inner":7805,"▁Beispiele":7806,"▁Krankheit":7807,"ree":7808,"▁Statist":7809,"▁Glück":7810,"spruchs":7811,"▁Satell":7812,"liefert":7813,"▁Regime":7814,"▁neuesten":7815,"▁Fund":7816,"▁Bibliothe":7817,"▁jährlich":7818,"samkeit":7819,"▁Nachfrage":7820,"▁Baum":7821,"▁Verbesserungen":7822,"rächt":7823,"▁sk":7824,"▁ruhigen":7825,"▁Konflik":7826,"▁erweitert":7827,"▁natürlichen":7828,"▁Wol":7829,"▁Prüf":7830,"gas":7831,"▁Mel":7832,"üren":7833,"▁Schulden":7834,"▁Küsten":7835,"anda":7836,"▁ausgezeichneten":7837,"▁dis":7838,"mitten":7839,"▁breite":7840,"üst":7841,"▁Bucht":7842,"▁Bauern":7843,"▁schreiben":7844,"▁amtieren":7845,"▁reden":7846,"▁vis":7847,"▁Kontinent":7848,"▁installiert":7849,"▁Bill":7850,"▁Ungleich":7851,"▁Pre":7852,"LA":7853,"▁modi":7854,"ula":7855,"▁industrie":7856,"▁kommerzie":7857,"▁inzwischen":7858,"oth":7859,"▁Strukturen":7860,"ventionen":7861,"ozi":7862,"oral":7863,"▁Shop":7864,"▁sod":7865,"räften":7866,"▁Imp":7867,"▁bemüht":7868,"LAN":7869,"▁fühlen":7870,"stieg":7871,"ehme":7872,"▁Net":7873,"ampagne":7874,"▁mark":7875,"▁Dusche":7876,"weisung":7877,"▁Last":7878,"renn":7879,"täu":7880,"▁offenen":7881,"systems":7882,"▁Indust":7883,"▁spanischen":7884,"▁Zuge":7885,"▁Wirtschaftsw":7886,"▁einfachen":7887,"verw":7888,"▁Befug":7889,"▁Anschluss":7890,"pposition":7891,"▁chem":7892,"gesundheit":7893,"▁Wik":7894,"klärung":7895,"▁ursprünglichen":7896,"▁che":7897,"▁Nein":7898,"▁Ausstattung":7899,"▁Beschäftigungs":7900,"▁kurze":7901,"▁Resp":7902,"rate":7903,"▁gere":7904,"▁Entwicklungsländern":7905,"ichert":7906,"▁Grand":7907,"▁Bay":7908,"▁gelegt":7909,"▁kulturelle":7910,"▁ungefähr":7911,"▁Krimin":7912,"▁Überzeugung":7913,"schm":7914,"▁einerseits":7915,"▁Mitgliedschaft":7916,"sper":7917,"▁beträcht":7918,"ward":7919,"▁Jedes":7920,"ters":7921,"▁betreffenden":7922,"decken":7923,"▁6.":7924,"leiten":7925,"▁sorgt":7926,"steh":7927,"gende":7928,"▁Max":7929,"meister":7930,"▁Mitt":7931,"zeichnis":7932,"▁harmon":7933,"▁Parlam":7934,"cript":7935,"▁menschlichen":7936,"▁richten":7937,"träge":7938,"RA":7939,"▁wid":7940,"euten":7941,"ählte":7942,"▁Mobilität":7943,"▁präsentiert":7944,"▁17.":7945,"emm":7946,"werber":7947,"▁detaill":7948,"▁laden":7949,"▁grundlegende":7950,"▁Identität":7951,"▁starten":7952,"▁Ausstellung":7953,"▁Ausgangspunkt":7954,"▁wettbewerb":7955,"▁Merk":7956,"▁achten":7957,"▁Punkten":7958,"▁Harmonisierung":7959,"▁geboren":7960,"▁KMU":7961,"▁verändern":7962,"▁stimmt":7963,"▁Ri":7964,"▁Sound":7965,"▁Arme":7966,"▁Mc":7967,"▁log":7968,"rücke":7969,"legungen":7970,"▁abgelehnt":7971,"▁fü":7972,"ete":7973,"▁Export":7974,"▁nachzu":7975,"wirkung":7976,"hend":7977,"örung":7978,"▁Zusätz":7979,"▁organisiert":7980,"ée":7981,"▁funktionieren":7982,"aket":7983,"uche":7984,"▁ausgesprochen":7985,"▁gratulieren":7986,"▁Bur":7987,"ältigen":7988,"▁musste":7989,"quis":7990,"▁Tschech":7991,"▁aufzunehmen":7992,"euerung":7993,"▁entscheidend":7994,"istenz":7995,"▁15.":7996,"reichung":7997,"▁trifft":7998,"▁höchsten":7999,"gyp":8000,"▁Geschmack":8001,"pel":8002,"▁Schatten":8003,"▁Planung":8004,"▁Roma":8005,"▁effektiv":8006,"▁Kroati":8007,"lient":8008,"▁Abschnitt":8009,"holen":8010,"bahnhof":8011,"▁Abkommens":8012,"▁riesigen":8013,"▁exp":8014,"▁Jahrzeh":8015,"▁gezogen":8016,"behörde":8017,"rischen":8018,"rennen":8019,"▁Boot":8020,"▁Automobil":8021,"dorf":8022,"ausend":8023,"▁Fla":8024,"▁Streit":8025,"organisationen":8026,"▁dritte":8027,"▁Sn":8028,"▁Bestellung":8029,"▁Tä":8030,"ias":8031,"▁fra":8032,"▁Stahl":8033,"▁Steuern":8034,"▁künftigen":8035,"ico":8036,"▁Farbe":8037,"QL":8038,"ziele":8039,"▁übernimmt":8040,"▁erlauben":8041,"▁soweit":8042,"▁Buchung":8043,"▁Zahlungs":8044,"med":8045,"▁umzusetzen":8046,"▁bar":8047,"vid":8048,"bas":8049,"ugen":8050,"▁münd":8051,"▁tot":8052,"▁veran":8053,"wirt":8054,"ochen":8055,"▁Übereinstimmung":8056,"▁Rumänien":8057,"▁pre":8058,"▁verschiedener":8059,"▁Partnern":8060,"▁buchen":8061,"▁Ratspräsidentschaft":8062,"ero":8063,"rufen":8064,"▁fordere":8065,"artigen":8066,"▁durchzuführen":8067,"▁your":8068,"▁NATO":8069,"▁mm":8070,"rände":8071,"arbeitern":8072,"ruppen":8073,"▁ac":8074,"ferenzen":8075,"tinuier":8076,"▁Behinder":8077,"▁Gegend":8078,"ora":8079,"▁Ausführungen":8080,"lastung":8081,"▁Also":8082,"▁Dienstleistungs":8083,"▁ausgeschlossen":8084,"artet":8085,"▁Friedens":8086,"▁zählt":8087,"▁Zw":8088,"▁Vertra":8089,"▁gewonnen":8090,"▁Änderungsanträgen":8091,"▁Real":8092,"▁einzigartige":8093,"▁Journal":8094,"▁perfekt":8095,"▁verursacht":8096,"▁Komponenten":8097,"▁Zuständigkeit":8098,"mäßige":8099,"▁Chem":8100,"porte":8101,"▁Appl":8102,"▁Gestaltung":8103,"▁rück":8104,"▁bez":8105,"▁Leistungs":8106,"▁Feuer":8107,"▁auftreten":8108,"▁gelöst":8109,"iser":8110,"antast":8111,"▁UNO":8112,"▁Religion":8113,"jekte":8114,"▁u.a.":8115,"▁uneingesch":8116,"▁Kilometer":8117,"▁Klasse":8118,"▁verlangt":8119,"uropäischen":8120,"▁Vorschlägen":8121,"▁bekämpfen":8122,"▁anstatt":8123,"handelt":8124,"▁schafft":8125,"grei":8126,"▁Casino":8127,"▁Fähigkeiten":8128,"▁Ann":8129,"▁Ausführung":8130,"jährige":8131,"▁lautet":8132,"▁mögliche":8133,"azier":8134,"▁Ersatz":8135,"▁Amts":8136,"▁Schönheit":8137,"▁annehmen":8138,"standards":8139,"▁besei":8140,"▁Umfeld":8141,"▁Verbindungen":8142,"züge":8143,"▁schwed":8144,"▁Aktien":8145,"▁anwes":8146,"forschung":8147,"▁sehe":8148,"▁erör":8149,"▁hervorheben":8150,"▁Nahen":8151,"▁angesehen":8152,"▁wissenschaftlichen":8153,"▁Fo":8154,"▁Val":8155,"▁geräum":8156,"▁Drittländern":8157,"▁bezug":8158,"▁schnelle":8159,"▁Glauben":8160,"▁Festlegung":8161,"berge":8162,"▁beabs":8163,"▁zentral":8164,"ader":8165,"kehren":8166,"▁Krankheiten":8167,"▁verständ":8168,"▁Gewinn":8169,"▁aufgefordert":8170,"▁beglückwünschen":8171,"▁Poker":8172,"▁amerikanische":8173,"▁¤":8174,"▁flexib":8175,"▁02":8176,"▁Schlafzimmer":8177,"ziplin":8178,"führte":8179,"▁zentralen":8180,"mme":8181,"▁einzus":8182,"▁Viertel":8183,"spir":8184,"ahrt":8185,"▁Haft":8186,"schule":8187,"sidi":8188,"▁zurückge":8189,"▁Ursp":8190,"ehrt":8191,"▁Geschäfte":8192,"▁mitten":8193,"▁Noch":8194,"▁kurzen":8195,"▁Programmen":8196,"▁Kompl":8197,"▁rechtlichen":8198,"▁Out":8199,"▁Prin":8200,"80":8201,"ado":8202,"▁Angst":8203,"▁Qualitäts":8204,"▁erlä":8205,"schaff":8206,"▁Kontext":8207,"minuten":8208,"▁Sec":8209,"▁10.":8210,"▁Websites":8211,"▁erheblich":8212,"IG":8213,"▁Grafik":8214,"▁vorange":8215,".de":8216,"maschine":8217,"▁zugunsten":8218,"▁Erf":8219,"▁7.":8220,"▁produ":8221,"▁zuzu":8222,"lefon":8223,"oni":8224,"▁CO2":8225,"echtigkeit":8226,"▁geprä":8227,"▁verbringen":8228,"betrieb":8229,"▁durchführen":8230,"▁kontinuier":8231,"▁präz":8232,"▁zuständigen":8233,"▁Verring":8234,"otte":8235,"▁Schloss":8236,"▁parlament":8237,"▁ausgestat":8238,"▁Schwimm":8239,"▁unent":8240,"▁verstanden":8241,"▁bekomm":8242,"▁nachhaltigen":8243,"eichern":8244,"nimmt":8245,"▁Führer":8246,"▁Alternative":8247,"▁Plattform":8248,"▁abw":8249,"▁bestätigen":8250,"▁location":8251,"▁weite":8252,"▁une":8253,"▁sodass":8254,"ünscht":8255,"▁Gleichgewicht":8256,"▁ehrgeiz":8257,"▁Gepäck":8258,"schiedet":8259,"ähler":8260,"ditionen":8261,"zehn":8262,"▁zivil":8263,"sorgung":8264,"▁verabschiedet":8265,"▁Opposition":8266,"▁Panor":8267,"▁Bru":8268,"▁Meinungs":8269,"▁volle":8270,"tifik":8271,"▁Aktionsplan":8272,"▁früheren":8273,"▁Ziffer":8274,"▁Sein":8275,"üssen":8276,"▁pr":8277,"DE":8278,"▁notwendige":8279,"▁Trend":8280,"gä":8281,"heren":8282,"▁Himm":8283,"lieb":8284,"▁Gewicht":8285,"▁Entwicklungsländer":8286,"▁anspruchs":8287,"▁Konto":8288,"▁Costa":8289,"▁Arbeitsplatz":8290,"▁zufolge":8291,"▁Redner":8292,"roht":8293,"▁Umgang":8294,"▁Arbeitsplätzen":8295,"▁Drittens":8296,"lässlich":8297,"▁Gerät":8298,"stande":8299,"▁Comm":8300,"istik":8301,"reb":8302,"▁Wird":8303,"▁16.":8304,"▁400":8305,"▁zurückzu":8306,"▁Werbung":8307,"▁Sonne":8308,"▁Afghanistan":8309,"▁Dan":8310,"▁d.h.":8311,"ysi":8312,"isser":8313,"▁Gemeinde":8314,"▁freiwill":8315,"▁Klar":8316,"TE":8317,"leren":8318,"▁palästinens":8319,"rt":8320,"▁Plenum":8321,"▁Alles":8322,"▁Live":8323,"▁österreich":8324,"MS":8325,"einbar":8326,"ando":8327,"▁serviert":8328,"▁Hohen":8329,"▁met":8330,"▁Sauna":8331,"▁entdeck":8332,"insel":8333,"▁einzuf":8334,"▁Regierungskonferenz":8335,"▁produziert":8336,"▁Prinzipien":8337,"▁2020":8338,"▁Grad":8339,"▁Radio":8340,"▁Schen":8341,"mäßigen":8342,"fähigkeit":8343,"▁AL":8344,"pfen":8345,"izient":8346,"▁ausgezeichnet":8347,"▁Är":8348,"▁Verbot":8349,"▁geprüft":8350,"▁Kapitel":8351,"schuld":8352,"IV":8353,"▁hängt":8354,"hörigen":8355,"▁massi":8356,"▁Konvent":8357,"▁bezahlen":8358,"▁Brasil":8359,"station":8360,"▁ermu":8361,"▁öffentlich":8362,"▁Webseiten":8363,"40":8364,"▁Einstellungen":8365,"▁Mr":8366,"▁Na":8367,"▁gewissen":8368,"▁Gerichte":8369,"reuz":8370,"▁12.":8371,"▁Ungarn":8372,"ossen":8373,"▁1995":8374,"erkennen":8375,"▁dich":8376,"▁Gründung":8377,"▁Optionen":8378,"▁vollständige":8379,"▁wechsel":8380,"reitag":8381,"gerufen":8382,"▁Vereinbarungen":8383,"beauftrag":8384,"haushalt":8385,"ras":8386,"▁Erholung":8387,"usstsein":8388,"▁Trag":8389,"eugen":8390,"▁jetz":8391,"▁Beiträge":8392,"ep":8393,"▁verleihen":8394,"ita":8395,"▁aufnehmen":8396,"▁Emissionen":8397,"einträch":8398,"▁verschw":8399,"▁verhindert":8400,"▁Beziehung":8401,"ährung":8402,"ugh":8403,"▁Genau":8404,"▁derartige":8405,"▁plan":8406,"lässigkeit":8407,"stes":8408,"▁Milch":8409,"geräte":8410,"iner":8411,"▁beschränkt":8412,"▁abgestimmt":8413,"ban":8414,"▁rom":8415,"▁Büro":8416,"▁erreichbar":8417,"IF":8418,"▁geä":8419,"▁Mut":8420,"▁Veröffentlichung":8421,"▁Georg":8422,"üler":8423,"itim":8424,"▁Ankunft":8425,"▁Kompetenz":8426,"ror":8427,"▁Außenpolitik":8428,"▁Verringerung":8429,"▁ausgesetzt":8430,"▁Station":8431,"▁Institut":8432,"▁Zentralbank":8433,"uh":8434,"▁Abhäng":8435,"▁Besonders":8436,"▁Bemerkungen":8437,"▁Problems":8438,"▁entsteht":8439,"▁nied":8440,"reffend":8441,"sprachen":8442,"▁westlichen":8443,"▁nutz":8444,"kohol":8445,"▁direkten":8446,"▁arch":8447,"▁sorgfältig":8448,"▁Bab":8449,"sorge":8450,"lecht":8451,"▁Anrei":8452,"▁Haftung":8453,"enkt":8454,"▁view":8455,"▁Fleisch":8456,"▁John":8457,"▁Geheim":8458,"tifiziert":8459,"▁unmöglich":8460,"▁Wünsche":8461,"▁welchem":8462,"▁entwickelten":8463,"▁Zusammenhalt":8464,"▁geboten":8465,"▁Support":8466,"án":8467,"▁Einbeziehung":8468,"▁Nahrungsmittel":8469,"▁passiert":8470,"opul":8471,"▁Power":8472,"▁vir":8473,"▁breit":8474,"▁Studio":8475,"▁Werkzeug":8476,"▁Persön":8477,"▁Konfigur":8478,"▁Deswegen":8479,"ua":8480,"▁Freiheiten":8481,"▁htt":8482,"▁Beam":8483,"▁WLAN":8484,"▁legt":8485,"club":8486,"▁preis":8487,"▁gebaut":8488,"ago":8489,"▁Faktoren":8490,"▁begrüßt":8491,"▁wollten":8492,"ory":8493,"▁Tari":8494,"▁Schuld":8495,"ruption":8496,"▁Tatsächlich":8497,"▁Luxus":8498,"steigen":8499,"▁ausgeführt":8500,"▁geltenden":8501,"▁definiert":8502,"▁hinzufügen":8503,"▁Sl":8504,"▁Jede":8505,"machen":8506,"▁Nav":8507,"▁echten":8508,"▁Regen":8509,"▁Charta":8510,"▁Gesetzes":8511,"▁Einwohner":8512,"▁mitge":8513,"produkte":8514,"▁spezifischen":8515,"▁Know":8516,"anne":8517,"etzten":8518,"▁Speicher":8519,"▁kostet":8520,"▁tatsäch":8521,"▁Spazier":8522,"▁erleichtern":8523,"▁part":8524,"▁can":8525,"▁nahezu":8526,"▁heutige":8527,"▁Premier":8528,"▁staatlichen":8529,"▁Sorgen":8530,"rohung":8531,"▁Konsens":8532,"▁Vorschlags":8533,"ziehungen":8534,"▁Anmerk":8535,"ione":8536,"ausschuß":8537,"▁Gesellschaften":8538,"waffen":8539,"▁Vermögen":8540,"undert":8541,"▁kurzfrist":8542,"▁hoff":8543,"zonen":8544,"▁hervorge":8545,"onien":8546,"▁verehrte":8547,"▁begrün":8548,"örderung":8549,"▁intensiv":8550,"▁Kräfte":8551,"▁gespeichert":8552,"▁Gespräche":8553,"▁iP":8554,"▁Zypern":8555,"scheidet":8556,"▁Deutschen":8557,"▁Wesent":8558,"▁vorlegen":8559,"▁#":8560,"▁solange":8561,"▁Stimmen":8562,"▁Bildungs":8563,"St":8564,"denk":8565,"finanz":8566,"▁Brie":8567,"▁Versand":8568,"▁exklus":8569,"▁ordnungs":8570,"▁Fax":8571,"sverl":8572,"▁Pack":8573,"▁ferner":8574,"ochter":8575,"▁gezwungen":8576,"enha":8577,"timal":8578,"iker":8579,"ameter":8580,"zwe":8581,"▁Dek":8582,"wertet":8583,"▁pe":8584,"weile":8585,"präsent":8586,"▁fertig":8587,"dauer":8588,"UR":8589,"ammeln":8590,"duzierung":8591,"▁angemessene":8592,"▁bemühen":8593,"ded":8594,"akten":8595,"▁vorbei":8596,"▁Rechtsstaat":8597,"▁Marktes":8598,"▁Sing":8599,"▁Ky":8600,"spf":8601,"▁beschleun":8602,"▁Back":8603,"gnor":8604,"▁Provinz":8605,"nö":8606,"▁Politiken":8607,"entwurf":8608,"▁erinnert":8609,"▁13.":8610,"▁Optim":8611,"austausch":8612,"zentren":8613,"▁kämpfen":8614,"▁Verpack":8615,"arische":8616,"riendly":8617,"teste":8618,"▁Amt":8619,"▁Verlust":8620,"▁our":8621,"▁höheren":8622,"ical":8623,"samen":8624,"ntag":8625,"▁übrigens":8626,"dlichen":8627,"spezif":8628,"zeptabel":8629,"▁Brenn":8630,"▁jegliche":8631,"▁Subsidi":8632,"▁Wart":8633,"▁mu":8634,"gemeinschaft":8635,"▁israel":8636,"▁SP":8637,"▁Original":8638,"▁Grö":8639,"▁Group":8640,"werben":8641,"znei":8642,"▁Gefahren":8643,"date":8644,"gs":8645,"icks":8646,"▁ethn":8647,"gänger":8648,"handlungen":8649,"▁8.":8650,"▁verbind":8651,"▁BIP":8652,"▁Betrug":8653,"▁Subsidiarität":8654,"atis":8655,"lean":8656,"▁ausreichen":8657,"▁Zielen":8658,"wald":8659,"stoß":8660,"▁Korruption":8661,"▁konf":8662,"▁verringern":8663,"▁EAD":8664,"▁Gal":8665,"▁bestehende":8666,"▁Syn":8667,"▁Vorhaben":8668,"▁wann":8669,"▁Selbstverständlich":8670,"▁bilater":8671,"▁Migration":8672,"ela":8673,"lingen":8674,"fahrer":8675,"bürger":8676,"▁außerordentlich":8677,"▁Semin":8678,"oli":8679,"▁Preisen":8680,"acher":8681,"allel":8682,"▁Schweizer":8683,"strategie":8684,"▁Untersuchungen":8685,"▁a.":8686,"▁Kabel":8687,"teilungen":8688,"itionen":8689,"hren":8690,"▁kontak":8691,"▁gegebenen":8692,"▁Sollten":8693,"▁chinesischen":8694,"würdigkeit":8695,"pal":8696,"sätzen":8697,"▁As":8698,"▁Straß":8699,"▁Atom":8700,"▁http":8701,"▁Mat":8702,"plemen":8703,"ktivität":8704,"tä":8705,"▁Asien":8706,"▁Digital":8707,"▁Wirtschaftswachstum":8708,"▁aktuell":8709,"▁verurteilt":8710,"▁Frühstücksb":8711,"▁einfacher":8712,"▁moment":8713,"▁behalten":8714,"▁Besorgnis":8715,"▁kümm":8716,"schaffung":8717,"▁Versionen":8718,"eitungen":8719,"wege":8720,"▁nunmehr":8721,"▁ruhig":8722,"▁Ware":8723,"▁einheitlichen":8724,"▁Mex":8725,"raten":8726,"▁verdient":8727,"▁Cha":8728,"▁interessant":8729,"▁verbinden":8730,"ätten":8731,"▁installieren":8732,"▁Ros":8733,"▁Medik":8734,"▁gewährt":8735,"▁Zwecke":8736,"▁Insbesondere":8737,"▁Block":8738,"▁grundsätzlich":8739,"▁sah":8740,"▁beschäftigen":8741,"onn":8742,"▁maxim":8743,"▁bestimmen":8744,"▁Cook":8745,"▁Sollte":8746,"▁Einkaufs":8747,"▁neun":8748,"bur":8749,"▁abgesch":8750,"▁Neue":8751,"▁organisieren":8752,"dik":8753,"▁dest":8754,"▁gespielt":8755,"apie":8756,"▁Werke":8757,"wür":8758,"▁ersetzt":8759,"▁Verbreitung":8760,"▁Mitarbeitern":8761,"▁berechtigt":8762,"öm":8763,"hlt":8764,"ssysteme":8765,"▁vorhandenen":8766,"band":8767,"▁Wohnung":8768,"▁wunderschön":8769,"▁Tochter":8770,"▁höchst":8771,"▁Ul":8772,"▁Energien":8773,"▁trag":8774,"▁Olymp":8775,"▁letztlich":8776,"▁individuelle":8777,"pap":8778,"spakt":8779,"ley":8780,"▁Satelliten":8781,"▁kre":8782,"▁ISO":8783,"▁vorstellen":8784,"▁zusammenarbeiten":8785,"kreis":8786,"stellungs":8787,"▁Plug":8788,"▁dein":8789,"▁Erzeugnisse":8790,"▁Mangel":8791,"▁Manager":8792,"▁individuellen":8793,"gten":8794,"▁br":8795,"assungen":8796,"▁erfolgreiche":8797,"▁Wetter":8798,"▁Freunden":8799,"▁gestaltet":8800,"▁Bern":8801,"▁bemerken":8802,"häuser":8803,"zügigkeit":8804,"kultur":8805,"▁inklusive":8806,"▁intern":8807,"▁Betrag":8808,"▁Zahlung":8809,"orten":8810,"▁Bemerkung":8811,"▁Alp":8812,"▁entscheidende":8813,"ativer":8814,"▁Fußball":8815,"struktion":8816,"▁Versicher":8817,"▁Tabak":8818,"▁Eigentum":8819,"▁Spaß":8820,"▁193":8821,"ressen":8822,"gess":8823,"▁bekräf":8824,"▁Rechnungshof":8825,"▁Luxem":8826,"▁luxuri":8827,"ual":8828,"▁aussprechen":8829,"▁relev":8830,"örter":8831,"▁optimal":8832,"▁ursprünglich":8833,"bene":8834,"▁Donner":8835,"▁abz":8836,"▁Jo":8837,"▁unverzüglich":8838,"▁Urheber":8839,"▁analys":8840,"▁Vision":8841,"▁PHP":8842,"▁Vorstellung":8843,"ehnen":8844,"usion":8845,"digen":8846,"ric":8847,"▁just":8848,"▁jenen":8849,"prinzip":8850,"▁Investition":8851,"center":8852,"▁ökonom":8853,"▁Renten":8854,"▁britische":8855,"▁poln":8856,"▁sub":8857,"▁Gang":8858,"anw":8859,"▁schlägt":8860,"ppe":8861,"▁Gericht":8862,"▁stehenden":8863,"▁beruht":8864,"▁ausgeb":8865,"▁03":8866,"▁1990":8867,"OT":8868,"▁Kontrollen":8869,"▁angegebenen":8870,"act":8871,"▁dürfte":8872,"▁Verfahrens":8873,"▁Schne":8874,"behandlung":8875,"▁tro":8876,"▁klaren":8877,"▁page":8878,"▁russischen":8879,"▁verwirk":8880,"▁Apartment":8881,"▁mü":8882,"▁Freitag":8883,"▁separ":8884,"▁miss":8885,"▁Bord":8886,"ause":8887,"▁innovative":8888,"▁Kopenha":8889,"▁fehlt":8890,"▁verdien":8891,"▁Verlauf":8892,"▁Auge":8893,"▁empfohlen":8894,"▁verstärken":8895,"▁Traum":8896,"▁Zul":8897,"▁Städten":8898,"▁Festpl":8899,"ukle":8900,"angem":8901,"▁Satz":8902,"sorganis":8903,"far":8904,"▁Sektoren":8905,"▁Bör":8906,"▁Nachricht":8907,"▁Caf":8908,"▁großzüg":8909,"▁angewand":8910,"▁eingereicht":8911,"▁wiederholen":8912,"▁reduzieren":8913,"fied":8914,"▁verkaufen":8915,"olo":8916,"▁Arbeitsk":8917,"▁kamen":8918,"ype":8919,"▁Berufs":8920,"▁Genehmigung":8921,"▁Frankfurt":8922,"▁Oder":8923,"ics":8924,"▁Parkplatz":8925,"letter":8926,"▁Show":8927,"▁zweit":8928,"▁Bars":8929,"▁äußern":8930,"▁Verd":8931,"▁Betriebs":8932,"▁Rob":8933,"▁Erlebnis":8934,"ida":8935,"▁Zin":8936,"▁Zucker":8937,"▁Autobahn":8938,"▁widersp":8939,"▁Betracht":8940,"▁Erstellung":8941,"▁ergänzen":8942,"▁individuell":8943,"▁Dep":8944,"▁Schlussfolgerungen":8945,"▁Kaffee":8946,"une":8947,"▁Finn":8948,"▁Email":8949,"▁Marke":8950,"▁Schulen":8951,"zeuger":8952,"gte":8953,"▁last":8954,"ior":8955,"oriz":8956,"▁stil":8957,"▁one":8958,"▁Gegenstand":8959,"wirkt":8960,"werken":8961,"▁Systemen":8962,"urlaub":8963,"▁Resort":8964,"▁Wohlstand":8965,"wählen":8966,"▁erhielt":8967,"▁Bereitstellung":8968,"▁vorbereitet":8969,"--":8970,"▁Bush":8971,"▁Willkommen":8972,"▁erfolgreichen":8973,"▁Tauch":8974,"▁Kongress":8975,"▁Zusätzlich":8976,"äss":8977,"▁Eingang":8978,"informationen":8979,"wart":8980,"▁bestimmter":8981,"▁Kommunikations":8982,"▁transparen":8983,"▁Wachstums":8984,"▁jener":8985,"▁AKP":8986,"uchte":8987,"▁vermitteln":8988,"uste":8989,"▁Männern":8990,"▁deutsch":8991,"rucht":8992,"▁EZ":8993,"▁Ausmaß":8994,"▁Konkur":8995,"▁Erwä":8996,"▁gewöhn":8997,"▁Fahrt":8998,"cor":8999,"▁vieles":9000,"aben":9001,"▁Nummer":9002,"regeln":9003,"▁Infl":9004,"hei":9005,"▁EL":9006,"▁erhebliche":9007,"▁Vorder":9008,"▁Belgien":9009,"▁Sozialdemokra":9010,"▁vous":9011,"▁Verbraucherschutz":9012,"▁Sm":9013,"ruh":9014,"kehrt":9015,"▁14.":9016,"ibl":9017,"skrise":9018,"▁Lieferung":9019,"▁sensi":9020,"▁einig":9021,"etzte":9022,"▁eingehalten":9023,"▁Belast":9024,"▁Player":9025,"▁Rechtsgrundlage":9026,"iers":9027,"arn":9028,"▁französische":9029,"▁Konsult":9030,"ille":9031,"mon":9032,"▁Kreis":9033,"kret":9034,"▁Geschwindigkeit":9035,"▁Entfern":9036,"▁Übergang":9037,"▁strategischen":9038,"▁wunderschönen":9039,"▁anwesend":9040,"heits":9041,"▁verantwortungs":9042,"▁Rub":9043,"▁Arznei":9044,"▁prop":9045,"▁Widerstand":9046,"aszin":9047,"▁nahm":9048,"▁auseinander":9049,"▁arab":9050,"▁traditionelle":9051,"▁Schluß":9052,"effizienz":9053,"▁Videos":9054,"gebiete":9055,"▁Anwender":9056,"ral":9057,"▁Spitzen":9058,"schefs":9059,"▁empfangen":9060,"▁wettbewerbsf":9061,"▁Meister":9062,"ail":9063,"hre":9064,"▁Übersetz":9065,"alisierten":9066,"mod":9067,"ura":9068,"kern":9069,"▁großem":9070,"▁aktivieren":9071,"▁Mission":9072,"▁beigetragen":9073,"▁Glaub":9074,"▁Medizin":9075,"▁ignor":9076,"▁pour":9077,"▁kritis":9078,"iegelt":9079,"▁Pakete":9080,"▁kleines":9081,"▁lokale":9082,"▁Bos":9083,"▁unvergess":9084,"▁Aben":9085,"▁fuer":9086,"ilder":9087,"▁niedrig":9088,"▁Sicherung":9089,"äumt":9090,"▁beteiligen":9091,"▁stamm":9092,"▁einzigartigen":9093,"▁PDF":9094,"ump":9095,"▁beobachten":9096,"▁vorrang":9097,"▁bedauer":9098,"rau":9099,"▁Nachhal":9100,"fällig":9101,"deckt":9102,"▁Deutsche":9103,"orea":9104,"lassung":9105,"piel":9106,"▁Telek":9107,"werks":9108,"▁Bulgarien":9109,"▁stolz":9110,"▁Beschlüsse":9111,"▁Mul":9112,"▁gekenn":9113,"▁elektronischen":9114,"▁integriert":9115,"▁Wandel":9116,"▁Bedrohung":9117,"die":9118,"sstra":9119,"▁Ast":9120,"▁Uns":9121,"▁Arb":9122,"▁verboten":9123,"▁komme":9124,"▁Residen":9125,"▁anbel":9126,"ams":9127,"vern":9128,"▁WC":9129,"▁hochwertige":9130,"▁entscheidender":9131,"▁liefert":9132,"amente":9133,"II":9134,"▁Sä":9135,"br":9136,"▁Positionen":9137,"▁bislang":9138,"zahlen":9139,"▁Liter":9140,"ituation":9141,"▁gearbeitet":9142,"▁erzeugt":9143,"▁Audio":9144,"▁ausgerichtet":9145,"hängen":9146,"▁verbindet":9147,"▁Ansichten":9148,"▁betreffend":9149,"▁Katastrophe":9150,"▁stre":9151,"▁Darum":9152,"▁Glaubwürdigkeit":9153,"▁anbelangt":9154,"▁Schüler":9155,"▁Kroatien":9156,"▁EADS":9157,"xi":9158,"▁Verarbeitung":9159,"▁Alpen":9160,"▁solches":9161,"▁verkauft":9162,"▁Vern":9163,"ehren":9164,"▁bereitgestellt":9165,"▁effizient":9166,"tran":9167,"▁Kontakte":9168,"▁stud":9169,"mung":9170,"▁kat":9171,"▁Tim":9172,"▁Gewährleistung":9173,"ehrten":9174,"▁Staates":9175,"kür":9176,"▁schicken":9177,"▁Newsletter":9178,"▁zuständig":9179,"▁genannte":9180,"eigern":9181,"übt":9182,"▁Wäl":9183,"▁Stamm":9184,"▁Güter":9185,"ohnungen":9186,"orie":9187,"▁Lok":9188,"ques":9189,"ssicherheit":9190,"▁Dipl":9191,"▁Vizep":9192,"ision":9193,"senz":9194,"▁Alli":9195,"▁beantworten":9196,"tiz":9197,"▁moral":9198,"▁Sohn":9199,"▁Quellen":9200,"▁super":9201,"▁31":9202,"▁Distribution":9203,"▁9.":9204,"äusern":9205,"▁Überlegungen":9206,"▁Kollegin":9207,"▁Konsequenzen":9208,"▁Burg":9209,"osla":9210,"swerte":9211,"▁Client":9212,"▁2011":9213,"▁Mrd.":9214,"urteilung":9215,"▁rest":9216,"ieden":9217,"▁Passwort":9218,"wan":9219,"▁had":9220,"▁Ministerp":9221,"▁nör":9222,"▁Kal":9223,"▁offiziellen":9224,"▁Pfer":9225,"▁Schon":9226,"▁Tenn":9227,"scheidung":9228,"wo":9229,"eigerung":9230,"zenten":9231,"yd":9232,"reche":9233,"stoßen":9234,"▁Prozesse":9235,"region":9236,"▁Respekt":9237,"▁Präsent":9238,"▁überprüft":9239,"▁sozialer":9240,"euert":9241,"▁how":9242,"▁Übernachtung":9243,"▁weist":9244,"▁Zivilgesellschaft":9245,"▁Konver":9246,"▁Orte":9247,"▁uni":9248,"▁Saison":9249,"kund":9250,"▁inmitten":9251,"▁Wählen":9252,"▁Anlass":9253,"▁stammen":9254,"▁Camping":9255,"▁Erm":9256,"ael":9257,"▁wohnen":9258,"rep":9259,"▁192":9260,"iessen":9261,"▁genügend":9262,"▁3D":9263,"▁Suiten":9264,"▁letztendlich":9265,"▁Laut":9266,"▁ähnlich":9267,"▁Stoffe":9268,"▁Übrigen":9269,"▁37":9270,"▁Modelle":9271,"▁personen":9272,"eira":9273,"▁origin":9274,"niveau":9275,"▁Madrid":9276,"▁weitgehend":9277,"bran":9278,"▁Prag":9279,"▁Beschwer":9280,"▁wiederholt":9281,"▁Verzö":9282,"weilen":9283,"zir":9284,"geschichte":9285,"strich":9286,"▁verteidigen":9287,"▁breakfast":9288,"▁herrscht":9289,"▁gepf":9290,"liehen":9291,"▁konfron":9292,"amin":9293,"▁aktive":9294,"▁Konzern":9295,"mente":9296,"▁Gerade":9297,"▁offenbar":9298,"▁Augenblick":9299,"schreiben":9300,"▁mittleren":9301,"▁breiten":9302,"ordnungen":9303,"mittels":9304,"▁Revolution":9305,"▁Reduzierung":9306,"▁33":9307,"asy":9308,"ärkt":9309,"folgung":9310,"▁Entlastung":9311,"sproblem":9312,"▁glück":9313,"▁Prop":9314,"▁Rati":9315,"tisches":9316,"urm":9317,"▁hinweg":9318,"▁Gehminuten":9319,"▁mussten":9320,"▁lag":9321,"▁Joh":9322,"▁Mittag":9323,"▁Parad":9324,"hältnisse":9325,"strafe":9326,"▁Anstieg":9327,"▁rooms":9328,"▁Objekt":9329,"▁Schiffe":9330,"▁innen":9331,"▁Erfüllung":9332,"▁finanziell":9333,"▁Dokumenten":9334,"▁Wall":9335,"▁allzu":9336,"▁Emission":9337,"▁erstmals":9338,"▁Verletzung":9339,"▁spezifische":9340,"▁betreiben":9341,"nien":9342,"▁PT":9343,"▁entwickelte":9344,"▁Textil":9345,"▁machte":9346,"▁OS":9347,"▁orien":9348,"▁go":9349,"▁48":9350,"mark":9351,"atische":9352,"▁Gerechtigkeit":9353,"▁vorzulegen":9354,"▁Praktiken":9355,"AG":9356,"▁HT":9357,"▁erlebt":9358,"kräfte":9359,"▁Van":9360,"▁Kulturen":9361,"▁einzur":9362,"▁Sonntag":9363,"▁IC":9364,"▁jahr":9365,"▁Montag":9366,"rechter":9367,"▁Abw":9368,"utern":9369,"▁anti":9370,"lösen":9371,"▁Com":9372,"▁betrieben":9373,"▁glaub":9374,"▁hart":9375,"▁Update":9376,"▁Pension":9377,"▁hierbei":9378,"▁obj":9379,"agentur":9380,"ränke":9381,"▁hervorra":9382,"▁ernsthaft":9383,"▁optimale":9384,"▁bele":9385,"ehler":9386,"▁tritt":9387,"frika":9388,"work":9389,"▁letzter":9390,"▁konkret":9391,"spartei":9392,"rungen":9393,"schul":9394,"▁anschließen":9395,"▁jur":9396,"▁Transa":9397,"▁Donnerstag":9398,"▁erwähnen":9399,"▁Brasilien":9400,"▁versichern":9401,"▁investieren":9402,"▁75":9403,"aria":9404,"▁gre":9405,"▁Latein":9406,"▁Gleichstellung":9407,"▁Umsatz":9408,"eiert":9409,"▁Sammlung":9410,"weisungen":9411,"rolle":9412,"▁angepasst":9413,"bring":9414,"hnung":9415,"▁Begl":9416,"▁Cre":9417,"▁Betten":9418,"aller":9419,"▁Alltag":9420,"▁Brand":9421,"▁gelingt":9422,"viertel":9423,"sproz":9424,"▁Ebenen":9425,"▁zus":9426,"▁jap":9427,"andt":9428,"60":9429,"▁führende":9430,"ränkung":9431,"▁stellte":9432,"lager":9433,"▁Abfall":9434,"▁Denk":9435,"▁einbezogen":9436,"istischer":9437,"organisation":9438,"▁unterscheiden":9439,"UNG":9440,"▁wirtschaftlicher":9441,"▁reduziert":9442,"▁Tätigkeiten":9443,"▁Herbst":9444,"▁Sind":9445,"▁Alex":9446,"hört":9447,"▁Subst":9448,"▁kontaktieren":9449,"nahm":9450,"▁Fahrzeuge":9451,"▁zukünftigen":9452,"▁bekommt":9453,"ektrum":9454,"▁Gefäng":9455,"▁0,":9456,"zepte":9457,"▁Spezi":9458,"▁institutionellen":9459,"▁Santa":9460,"mitglied":9461,"▁Grünen":9462,"▁dé":9463,"grad":9464,"▁Planeten":9465,"riere":9466,"▁einst":9467,"▁Genießen":9468,"▁begrenzt":9469,"▁geplan":9470,"▁Prozesses":9471,"uverän":9472,"▁Wähler":9473,"steuropa":9474,"tif":9475,"▁Leiden":9476,"▁Trotzdem":9477,"▁fund":9478,"▁gestattet":9479,"▁ersetzen":9480,"▁deswegen":9481,"▁Gottes":9482,"▁Hilfs":9483,"▁Wild":9484,"▁Schei":9485,"▁kompliz":9486,"rieren":9487,"▁beendet":9488,"▁Pin":9489,"▁verteilt":9490,"ähigen":9491,"ängst":9492,"▁verfügbaren":9493,"▁ansprechen":9494,"▁unterstreichen":9495,"▁einzusetzen":9496,"▁illegalen":9497,"▁1994":9498,"▁hervorgehoben":9499,"▁getragen":9500,"opf":9501,"▁Situationen":9502,"politischen":9503,"▁Ausflüge":9504,"▁which":9505,"ria":9506,"▁Organe":9507,"van":9508,"schriften":9509,"▁anschließend":9510,"▁Zuver":9511,"▁Ergän":9512,"▁Bestä":9513,"▁bedeutende":9514,"ton":9515,"änglich":9516,"▁Free":9517,"▁Beitritts":9518,"sträger":9519,"▁mitteilen":9520,"▁Frist":9521,"▁größeres":9522,"arus":9523,"▁Ker":9524,"▁ed":9525,"▁Peter":9526,"▁begeg":9527,"ätzt":9528,"▁offene":9529,"▁vorgesehenen":9530,"▁behaupten":9531,"▁blo":9532,"sprinzip":9533,"▁Administ":9534,"osophie":9535,"kurs":9536,"▁teile":9537,"achteil":9538,"▁künftige":9539,"▁wissenschaftliche":9540,"zusammen":9541,"gerät":9542,"▁gefallen":9543,"▁Flugzeug":9544,"▁Branche":9545,"▁Dra":9546,"▁List":9547,"verl":9548,"▁Kriminalität":9549,"▁schm":9550,"▁manche":9551,"▁herum":9552,"▁Freizügigkeit":9553,"▁GN":9554,"atter":9555,"▁vollen":9556,"▁Sachen":9557,"ranten":9558,"▁34":9559,"uls":9560,"unger":9561,"▁Kab":9562,"▁Armee":9563,"▁Übergangs":9564,"▁intelligen":9565,"▁Abendessen":9566,"▁langfristige":9567,"▁Hardware":9568,"öffnung":9569,"▁Weiteren":9570,"▁Ableh":9571,"▁Cro":9572,"▁sign":9573,"▁Kub":9574,"▁Vereinfach":9575,"▁freundlich":9576,"▁Aqu":9577,"aub":9578,"▁Existenz":9579,"▁abstimmen":9580,"▁Perspektive":9581,"abt":9582,"betten":9583,"bedarf":9584,"version":9585,"sfonds":9586,"▁erstre":9587,"▁bisherigen":9588,"▁unterliegen":9589,"▁Betreiber":9590,"solid":9591,"▁Fernsehen":9592,"▁Turn":9593,"▁potenzie":9594,"lexibl":9595,"izza":9596,"▁konzentriert":9597,"▁gebrauch":9598,"▁Commun":9599,"▁unterzeichnet":9600,"▁USB":9601,"▁gewal":9602,"▁herunterladen":9603,"igner":9604,"▁konfrontiert":9605,"▁Ablehnung":9606,"▁beeinträch":9607,"▁Veränderung":9608,"▁Ref":9609,"leiste":9610,"code":9611,"ärten":9612,"▁Widerspruch":9613,"▁Dynam":9614,"▁heim":9615,"fernen":9616,"▁has":9617,"gelöst":9618,"zungen":9619,"▁erhoben":9620,"▁könnt":9621,"ammelt":9622,"▁umfassend":9623,"▁vorgeschlagene":9624,"▁ST":9625,"ellent":9626,"▁liber":9627,"▁Lernen":9628,"▁Hamburg":9629,"bleiben":9630,"vec":9631,"▁Rückkehr":9632,"ony":9633,"bereichen":9634,"▁SE":9635,"▁lieber":9636,"▁internen":9637,"▁MP":9638,"▁pf":9639,"ußt":9640,"▁Vorlage":9641,"▁Ägyp":9642,"▁Dikt":9643,"▁EZB":9644,"▁behoben":9645,"very":9646,"▁Argument":9647,"herstellung":9648,"▁ordnungsgemäß":9649,"▁Runde":9650,"▁geraten":9651,"ökonom":9652,"rennt":9653,"▁Schwarz":9654,"▁Geburt":9655,"▁Frühstücksbuffet":9656,"11":9657,"staatlichen":9658,"▁anzuzeigen":9659,"▁offiziell":9660,"▁Katastrophen":9661,"brechen":9662,"▁drama":9663,"aktionen":9664,"azitäten":9665,"▁Filter":9666,"▁Por":9667,"▁Ve":9668,"▁Nachbarschaft":9669,"woch":9670,"äßt":9671,"drückt":9672,"wendungen":9673,"IB":9674,"▁ergibt":9675,"▁Steuerung":9676,"▁Miß":9677,"▁Leitung":9678,"▁Pläne":9679,"▁Verfasser":9680,"häfen":9681,"▁Häuser":9682,"▁personenbezogen":9683,"▁leb":9684,"▁Metall":9685,"▁Kanada":9686,"▁eingegangen":9687,"▁Balkan":9688,"▁menschliche":9689,"▁Komplex":9690,"▁Main":9691,"▁militärischen":9692,"▁unzur":9693,"anisch":9694,"▁umge":9695,"▁Attra":9696,"▁finanziert":9697,"▁Entspannung":9698,"▁Chinas":9699,"▁san":9700,"▁Lobby":9701,"▁rechten":9702,"technologie":9703,"▁Gespräch":9704,"▁Leiter":9705,"▁1⁄":9706,"spielen":9707,"▁Schlacht":9708,"▁Abschaffung":9709,"▁indir":9710,"▁Nachhaltigkeit":9711,"grenze":9712,"▁Bereitschaft":9713,"aturen":9714,"▁reserv":9715,"▁umfangreiche":9716,"▁sichere":9717,"annter":9718,"IR":9719,"▁mel":9720,"▁Solar":9721,"▁psych":9722,"▁CH":9723,"streben":9724,"▁User":9725,"ugosla":9726,"▁zukünftige":9727,"unruh":9728,"schiff":9729,"▁grö":9730,"▁praktische":9731,"▁geprägt":9732,"log":9733,"▁mul":9734,"achter":9735,"▁gebeten":9736,"▁Volkes":9737,"initi":9738,"▁Def":9739,"▁dankbar":9740,"▁angenehm":9741,"▁Fahrrad":9742,"▁30.":9743,"▁schlagen":9744,"schläge":9745,"▁las":9746,"▁Ga":9747,"▁enthaltenen":9748,"inos":9749,"▁Profil":9750,"▁abend":9751,"▁ausgehen":9752,"▁plus":9753,"uth":9754,"▁Soft":9755,"▁Reservierung":9756,"▁anhand":9757,"▁läßt":9758,"▁hervorragenden":9759,"▁sogenannten":9760,"▁vorliegende":9761,"eitigung":9762,"anzig":9763,"▁Festival":9764,"programme":9765,"▁präsentieren":9766,"kas":9767,"teuer":9768,"dienstleistungen":9769,"▁31.":9770,"▁frag":9771,"▁Berichten":9772,"▁Nachbarn":9773,"▁Abhängigkeit":9774,"hle":9775,"▁na":9776,"▁Meines":9777,"▁islam":9778,"▁Erinnerung":9779,"cial":9780,"antien":9781,"▁Demon":9782,"grenzung":9783,"▁ausser":9784,"ika":9785,"▁besonderer":9786,"▁Märkten":9787,"▁grosse":9788,"later":9789,"edia":9790,"▁militärische":9791,"▁Refer":9792,"weitern":9793,"▁gerichtet":9794,"▁Patent":9795,"garten":9796,"▁Oliven":9797,"90":9798,"▁Klei":9799,"▁Höch":9800,"▁perfekte":9801,"▁dans":9802,"▁Peti":9803,"lösungen":9804,"beziehen":9805,"sprogramme":9806,"▁Ball":9807,"▁Binnenmarktes":9808,"▁Himmel":9809,"▁Frü":9810,"▁lö":9811,"ICHT":9812,"▁fantast":9813,"▁Ruf":9814,"▁dargestellt":9815,"mitglieder":9816,"▁angekünd":9817,"▁Regierungschefs":9818,"sprozesses":9819,"alitäten":9820,"▁festzulegen":9821,"▁Faktor":9822,"▁Menschenrechts":9823,"▁Befugnisse":9824,"▁Lehrer":9825,"beschreibung":9826,"▁vereinbart":9827,"▁Bearbeitung":9828,"rink":9829,"▁etabl":9830,"▁won":9831,"ights":9832,"▁infolge":9833,"▁Cast":9834,"▁cl":9835,"▁hingegen":9836,"▁Vorausschau":9837,"▁Michael":9838,"▁si":9839,"rektur":9840,"alender":9841,"glieder":9842,"▁Volksgesundheit":9843,"▁Finanzierungs":9844,"Script":9845,"▁Kirchen":9846,"lernen":9847,"▁Heizung":9848,"▁jetzigen":9849,"auben":9850,"▁langfristig":9851,"▁Spann":9852,"off":9853,"▁erfreut":9854,"anischer":9855,"▁zusammenge":9856,"▁Weil":9857,"▁Los":9858,"ämpft":9859,"▁ähnliche":9860,"▁Linien":9861,"▁benach":9862,"▁verdienen":9863,"▁schäd":9864,"▁gewünschten":9865,"▁sm":9866,"▁Maschine":9867,"▁Grundlagen":9868,"▁geplant":9869,"▁eignet":9870,"▁flexibl":9871,"▁günstig":9872,"▁Statt":9873,"ähige":9874,"grunde":9875,"ía":9876,"anspruch":9877,"▁gemeinschaftlichen":9878,"ION":9879,"▁zieht":9880,"▁Passag":9881,"▁Beteiligten":9882,"▁Fab":9883,"▁nachdrücklich":9884,"ußert":9885,"▁Wär":9886,"▁Serbien":9887,"▁natürliche":9888,"▁Föder":9889,"enne":9890,"▁unabhängigen":9891,"▁Street":9892,"rats":9893,"▁knapp":9894,"▁Card":9895,"▁Hof":9896,"▁Flüchtlinge":9897,"▁Eintritt":9898,"▁Registrierung":9899,"ädchen":9900,"▁Andere":9901,"eicher":9902,"räglich":9903,"▁Wochenende":9904,"▁gewähren":9905,"▁hohem":9906,"▁strategische":9907,"▁normalen":9908,"▁dist":9909,"▁künstler":9910,"auschen":9911,"▁Parameter":9912,"▁clean":9913,"▁Verteilung":9914,"▁Sied":9915,"▁Bildschirm":9916,"▁Nik":9917,"üss":9918,"▁rech":9919,"▁normalerweise":9920,"seiten":9921,"örp":9922,"▁rec":9923,"▁staatliche":9924,"fizit":9925,"illen":9926,"▁SD":9927,"▁Befür":9928,"▁Cop":9929,"▁Anwesen":9930,"▁behinder":9931,"▁komplette":9932,"▁Allianz":9933,"▁п":9934,"▁Euch":9935,"▁Konzert":9936,"▁kontrollieren":9937,"▁leichter":9938,"▁Gri":9939,"▁Äußer":9940,"▁nütz":9941,"▁speichern":9942,"▁Innenstadt":9943,"▁zugrunde":9944,"▁Tennis":9945,"▁beur":9946,"▁Modul":9947,"SP":9948,"quent":9949,"▁Bibliothek":9950,"▁Arbeiter":9951,"▁ung":9952,"▁versp":9953,"▁Barroso":9954,"▁bedanken":9955,"jahres":9956,"gefunden":9957,"▁sichtbar":9958,"▁portug":9959,"fleisch":9960,"▁enger":9961,"▁98":9962,"▁Est":9963,"▁Galer":9964,"▁Gewerk":9965,"▁Speisen":9966,"▁Dän":9967,"utage":9968,"reicher":9969,"▁sport":9970,"▁Zahlungen":9971,"hel":9972,"gressi":9973,"▁Potenzial":9974,"tifizierung":9975,"utzutage":9976,"ührt":9977,"▁begrenz":9978,"▁38":9979,"▁überaus":9980,"ücher":9981,"▁nord":9982,"▁erstkl":9983,"▁korrekt":9984,"tial":9985,"▁Gemeinsame":9986,"zwei":9987,"▁bus":9988,"▁wirtschaftlich":9989,"dy":9990,"▁Alkohol":9991,"▁Darstellung":9992,"▁Verzeichnis":9993,"▁beschränken":9994,"▁niederländ":9995,"▁Paul":9996,"ützlich":9997,"ächer":9998,"▁bedeutend":9999,"▁Ursachen":10000,"▁hoffentlich":10001,"schauen":10002,"ef":10003,"gner":10004,"▁scheinen":10005,"▁Schreiben":10006,"▁Französ":10007,"▁Rechten":10008,"endung":10009,"werfen":10010,"dule":10011,"▁existiert":10012,"▁Individu":10013,"▁Kreditkarte":10014,"▁fein":10015,"▁Generationen":10016,"▁einheitliche":10017,"▁standard":10018,"▁Tu":10019,"▁Agenturen":10020,"▁festgelegten":10021,"▁Vertrages":10022,"▁ungar":10023,"▁extra":10024,"eff":10025,"▁unabhängige":10026,"▁Museen":10027,"▁Johann":10028,"geschäft":10029,"▁externen":10030,"▁Wiederaufbau":10031,"frikanischen":10032,"▁Fahrer":10033,"kel":10034,"▁fördert":10035,"▁Vari":10036,"▁Verhandlungs":10037,"senden":10038,"▁Tausende":10039,"beweg":10040,"▁Gefangen":10041,"▁AR":10042,"▁Stiftung":10043,"oppelt":10044,"▁rechtliche":10045,"▁Lam":10046,"▁untersucht":10047,"▁rechtzeitig":10048,"▁korrig":10049,"▁Weihn":10050,"▁komfortable":10051,"▁unzureich":10052,"analy":10053,"itar":10054,"sbek":10055,"▁Album":10056,"▁humanitäre":10057,"▁erweitern":10058,"ungssystem":10059,"▁Av":10060,"alisierte":10061,"▁Spielen":10062,"▁Pic":10063,"▁portugies":10064,"▁incl":10065,"▁Konflikte":10066,"ask":10067,"▁RE":10068,"▁aufgebaut":10069,"gestaltung":10070,"▁•":10071,"mittlung":10072,"hi":10073,"▁stay":10074,"riedenheit":10075,"▁umsetzen":10076,"▁genaue":10077,"▁Ausblick":10078,"▁mak":10079,"▁hierfür":10080,"70":10081,"▁Öffnung":10082,"▁sicheren":10083,"▁Dass":10084,"▁wirksame":10085,"▁nützlich":10086,"▁sin":10087,"▁Sob":10088,"änomen":10089,"ietung":10090,"▁genie":10091,"ymbol":10092,"dis":10093,"▁Zeitung":10094,"etto":10095,"▁zurückzuführen":10096,"▁antworten":10097,"..":10098,"same":10099,"▁Beide":10100,"prozess":10101,"▁Bürgerbeauftrag":10102,"▁qualitativ":10103,"lla":10104,"▁Bürokra":10105,"vorschläge":10106,"unn":10107,"▁geringer":10108,"▁wünsche":10109,"jet":10110,"▁zugelassen":10111,"▁Überblick":10112,"▁Phot":10113,"▁laufenden":10114,"▁Rechtsstaatlichkeit":10115,"▁Kategorien":10116,"▁Schnell":10117,"spolitischen":10118,"anter":10119,"schi":10120,"ckung":10121,"▁froh":10122,"pol":10123,"ümer":10124,"▁Dritte":10125,"▁Würde":10126,"▁heißen":10127,"▁begleitet":10128,"▁Assozi":10129,"▁spät":10130,"▁genehm":10131,"▁vornehmen":10132,"methoden":10133,"▁Vereinfachung":10134,"▁Kla":10135,"▁angewendet":10136,"▁Katalog":10137,"ücken":10138,"▁Technolog":10139,"▁Großteil":10140,"öch":10141,"▁Bevölkerungs":10142,"▁grossen":10143,"▁wonach":10144,"WF":10145,"▁Kreuz":10146,"ury":10147,"▁fach":10148,"▁Reihen":10149,"▁handel":10150,"▁Abs":10151,"▁Quelle":10152,"instrument":10153,"▁Islam":10154,"▁Zut":10155,"▁Cam":10156,"▁Entwickler":10157,"▁stattfindet":10158,"▁klassischen":10159,"▁Haben":10160,"▁Internationale":10161,"▁IM":10162,"▁mehrfach":10163,"▁rufen":10164,"ypen":10165,"ips":10166,"▁Archiv":10167,"▁Stärke":10168,".-":10169,"▁House":10170,"▁2013":10171,"▁42":10172,"▁Flash":10173,"▁Quali":10174,"▁benutz":10175,"▁Straßburg":10176,"zähl":10177,"▁erfordern":10178,"▁Auseinander":10179,"ünften":10180,"▁Handlungs":10181,"fferenz":10182,"iste":10183,"▁Acc":10184,"iterran":10185,"▁geäußert":10186,"▁Gelder":10187,"▁unentgel":10188,"▁einzuführen":10189,"▁schnellen":10190,"▁Zür":10191,"▁Debatten":10192,"▁wahren":10193,"▁Kopenhagen":10194,"junkt":10195,"▁enttäu":10196,"▁Tests":10197,"nam":10198,"institu":10199,"▁veränder":10200,"▁Aufsichts":10201,"▁post":10202,"▁modified":10203,"ernt":10204,"▁gesundheit":10205,"ios":10206,"uck":10207,"äle":10208,"▁para":10209,"▁Denken":10210,"▁una":10211,"▁Fotograf":10212,"▁Berliner":10213,"▁Somit":10214,"▁übersch":10215,"▁entdeckt":10216,"fo":10217,"opol":10218,"▁Hauptbahnhof":10219,"▁Franz":10220,"▁Truppen":10221,"baus":10222,"tigungen":10223,".200":10224,"▁Luxemburg":10225,"▁ableh":10226,"▁Quad":10227,"▁Schaus":10228,"ador":10229,"▁Autos":10230,"▁Mängel":10231,"▁Sar":10232,"itent":10233,"▁schwar":10234,"▁eingestellt":10235,"▁türkischen":10236,"▁Tsch":10237,"▁Parkplätze":10238,"▁angebracht":10239,"▁Strecke":10240,"▁keinem":10241,"▁mittlerweile":10242,"▁Zone":10243,"retung":10244,"sonsten":10245,"▁Niederlanden":10246,"▁Maria":10247,"zahlungen":10248,"▁anhalten":10249,"▁Bücher":10250,"lesen":10251,"▁Versorgung":10252,"▁Slowak":10253,"▁bewältigen":10254,"▁schlimm":10255,"▁roman":10256,"▁ließ":10257,"ffer":10258,"▁Bestimmung":10259,"▁Palästinen":10260,"gerecht":10261,"▁new":10262,"▁England":10263,"▁Erhaltung":10264,"▁sichergestellt":10265,"▁250":10266,"▁Zerst":10267,"▁Weltkrieg":10268,"▁gestärkt":10269,"▁Roy":10270,"▁Palästinenser":10271,"▁selber":10272,"▁faszin":10273,"▁Ferienwohnung":10274,"▁Cal":10275,"▁Arbeitgeber":10276,"▁Energieeffizienz":10277,"▁Merc":10278,"zten":10279,"▁Samm":10280,"▁Immer":10281,"leute":10282,"▁Atlan":10283,"▁gesetzlichen":10284,"▁hinzuge":10285,"trieben":10286,"▁AB":10287,"▁digitalen":10288,"▁sim":10289,"▁bauen":10290,"spräsidenten":10291,"▁Berichterstatters":10292,"afe":10293,"▁schweren":10294,"▁Elektro":10295,"▁bestellen":10296,"▁besorgt":10297,"▁kompeten":10298,"änderungen":10299,"▁Floren":10300,"▁zerstört":10301,"▁gefragt":10302,"▁avec":10303,"▁Seg":10304,"▁Finanzkrise":10305,"▁mäch":10306,"▁überlassen":10307,"▁25.":10308,"eto":10309,"▁selben":10310,"SL":10311,"schnit":10312,"imming":10313,"zeichnungen":10314,"▁Martin":10315,"freundliche":10316,"ст":10317,"zusehen":10318,"bergen":10319,"▁geeignete":10320,"▁ergänzt":10321,"▁Diplom":10322,"ürzt":10323,"anke":10324,"▁Schlag":10325,"ossi":10326,"tor":10327,"▁Belarus":10328,"▁Tonnen":10329,"schieben":10330,"overn":10331,"▁Zauber":10332,"dliche":10333,"▁frühen":10334,"male":10335,"▁Os":10336,"▁frage":10337,"▁virt":10338,"▁Win":10339,"▁leiten":10340,"▁Varian":10341,"▁herrlichen":10342,"▁unmittelbarer":10343,"▁Teams":10344,"▁Armen":10345,"ulin":10346,"▁dipl":10347,"▁überwinden":10348,"wirtschaften":10349,"▁Andererseits":10350,"▁Roll":10351,"▁Länge":10352,"▁essen":10353,"▁hierzu":10354,"▁Parti":10355,"eiger":10356,"▁Vergn":10357,"iano":10358,"ression":10359,"eschäd":10360,"▁block":10361,"gebieten":10362,"▁800":10363,"beu":10364,"▁via":10365,"rip":10366,"▁Wirtschaftskrise":10367,"▁MyS":10368,"▁hast":10369,"führungs":10370,"▁04":10371,"▁diesbezüglich":10372,"▁Parlamente":10373,"▁Bö":10374,"hafter":10375,"ächte":10376,"▁maler":10377,"ologisch":10378,"▁spezialisiert":10379,"▁resul":10380,"▁BM":10381,"teils":10382,"▁bit":10383,"▁Sur":10384,"verbrauch":10385,"▁ten":10386,"uchs":10387,"▁verweisen":10388,"zusp":10389,"▁Gent":10390,"▁Werbe":10391,"▁Investoren":10392,"ged":10393,"ublic":10394,"▁Corpor":10395,"uz":10396,"▁Branchen":10397,"▁integrierten":10398,"▁Benutzung":10399,"▁griechischen":10400,"▁Tom":10401,"▁Wesentlichen":10402,"suche":10403,"▁Telekommun":10404,"▁web":10405,"wärts":10406,"▁anzubieten":10407,"asi":10408,"▁Dingen":10409,"round":10410,"sekret":10411,"bares":10412,"▁gegenwärtige":10413,"▁Oberfläche":10414,"▁Währungsunion":10415,"▁il":10416,"afrika":10417,"uti":10418,"orgungs":10419,"▁Lohn":10420,"▁Bewusstsein":10421,"▁Beseitigung":10422,"▁Komplett":10423,"▁Suite":10424,"▁zulassen":10425,"▁spreche":10426,"reiter":10427,"inkel":10428,"▁konse":10429,"▁klima":10430,"OP":10431,"▁Media":10432,"▁hol":10433,"▁wirken":10434,"▁Lesen":10435,"▁Training":10436,"▁gleichermaßen":10437,"arma":10438,"▁besucht":10439,"▁ländliche":10440,"▁maximal":10441,"eras":10442,"emark":10443,"▁auffordern":10444,"▁beenden":10445,"▁unglaub":10446,"vertrag":10447,"▁Übertragung":10448,"▁Pakistan":10449,"▁Gebühren":10450,"▁Jahrzehnten":10451,"worben":10452,"▁Hall":10453,"igem":10454,"hrase":10455,"▁ID":10456,"ikationen":10457,"▁Hat":10458,"▁Konzer":10459,"▁Konzent":10460,"▁reisen":10461,"▁gramm":10462,"▁unentgeltlich":10463,"▁Berge":10464,"▁vari":10465,"bildungs":10466,"▁Ereignis":10467,"veranst":10468,"▁vot":10469,"▁1992":10470,"▁Projekts":10471,"▁Jugendlichen":10472,"ez":10473,"ès":10474,"▁errichtet":10475,"drücken":10476,"▁stammt":10477,"▁Verhandlung":10478,"▁Profession":10479,"wn":10480,"▁Territor":10481,"▁Samstag":10482,"▁Schauspiel":10483,"▁Mechanismen":10484,"▁Unternehmer":10485,"▁Kühl":10486,"▁schätzen":10487,"▁Minute":10488,"reibungen":10489,"uel":10490,"▁A5":10491,"▁Pflege":10492,"deckung":10493,"▁Mandat":10494,"ird":10495,"▁ersta":10496,"▁Str":10497,"▁hinein":10498,"ides":10499,"▁600":10500,"▁Effekt":10501,"klar":10502,"▁derzeitige":10503,"banken":10504,"ove":10505,"▁lebt":10506,".D":10507,"▁Kampagne":10508,"▁Ausgleich":10509,"▁Amerikaner":10510,"ena":10511,"▁Revision":10512,"lossenheit":10513,"▁Außenminister":10514,"▁enorme":10515,"▁untersuchen":10516,"ode":10517,"ahme":10518,"▁Eurozone":10519,"▁Präsenz":10520,"▁them":10521,"▁Lit":10522,"▁gekennzeichnet":10523,"▁exc":10524,"▁beruhen":10525,"▁Todesstrafe":10526,"junktur":10527,"einigung":10528,"▁PPE":10529,"orge":10530,"▁Frühjahr":10531,"wirklichung":10532,"▁Bedürfnissen":10533,"▁Fuss":10534,"▁cm":10535,"zum":10536,"▁eventuell":10537,"▁Höchst":10538,"▁aufs":10539,"institution":10540,"▁begeist":10541,"▁Urlaubs":10542,"▁ausgewählt":10543,"bat":10544,"▁Benutzern":10545,"▁stärkere":10546,"kampf":10547,"▁Journalisten":10548,"▁1000":10549,"▁Dreh":10550,"▁Schengen":10551,"▁Sieg":10552,"▁there":10553,"▁Sicherheitspolitik":10554,"aktivitäten":10555,"▁ermutigen":10556,"▁Dör":10557,"▁Käufer":10558,"▁mangeln":10559,"▁Appartements":10560,"▁Cat":10561,"rates":10562,"▁III":10563,"lausel":10564,"ther":10565,"staats":10566,"valu":10567,"▁erzeugen":10568,"▁Begrün":10569,"▁Airport":10570,"▁vorgestellt":10571,"▁Handy":10572,"▁Job":10573,"▁Hohe":10574,"▁190":10575,"▁blau":10576,"halle":10577,"▁Vertretern":10578,"pre":10579,"▁denjenigen":10580,"▁pa":10581,"▁Intervention":10582,"▁Datum":10583,"▁Dialogs":10584,"▁Spezialitäten":10585,"ión":10586,"▁Bevor":10587,"▁beinhalten":10588,"▁Venedig":10589,"▁Drittel":10590,"▁negativen":10591,"▁unnö":10592,"städ":10593,"▁Berech":10594,"anforderungen":10595,"▁Ablauf":10596,"▁Kas":10597,"▁Brief":10598,"▁Mädchen":10599,"▁Mos":10600,"holt":10601,"▁Ratifizierung":10602,"▁Fläche":10603,"▁eigener":10604,"▁praktischen":10605,"▁verknü":10606,"▁AC":10607,"verwaltung":10608,"▁Maus":10609,"▁realer":10610,"▁Andre":10611,"▁ta":10612,"▁Dokumentation":10613,"▁Zuverlässigkeit":10614,"▁Beachtung":10615,"ney":10616,"▁Vier":10617,"▁ster":10618,"▁jeglich":10619,"▁müß":10620,"orizont":10621,"TP":10622,"▁bedeut":10623,"▁bestand":10624,"▁gu":10625,"▁Angel":10626,"▁gedacht":10627,"▁Modernisierung":10628,"▁Bereits":10629,"itiert":10630,"▁bewähr":10631,"▁Mexiko":10632,"ros":10633,"▁Schalt":10634,"blig":10635,"▁befasst":10636,"▁Urteil":10637,"▁kontrolliert":10638,"▁Anhör":10639,"▁steuer":10640,"▁entscheidenden":10641,"beln":10642,"▁Auton":10643,"▁Umweltfragen":10644,"▁vertrauen":10645,"▁Anmeldung":10646,"▁Versammlung":10647,"▁typischen":10648,"▁Sobald":10649,"▁bedeutenden":10650,"otten":10651,"▁Vizepräsident":10652,"gestellten":10653,"▁Produktivität":10654,"▁festzustellen":10655,"▁verletzt":10656,"handeln":10657,"agd":10658,"▁inak":10659,"▁Betreuung":10660,"ieß":10661,"▁Ehe":10662,"▁Wohnzimmer":10663,"▁kümmern":10664,"▁anzunehmen":10665,"▁Schicks":10666,"▁mögen":10667,"▁radik":10668,"▁Nachmittag":10669,"▁Hinweise":10670,"▁offizielle":10671,"brech":10672,"▁gewid":10673,"eldet":10674,"▁Internetz":10675,"▁por":10676,"isation":10677,"ikal":10678,"▁produzieren":10679,"▁mod":10680,"swesen":10681,"▁reichhal":10682,"▁A3":10683,"▁tö":10684,"öhnen":10685,"▁Besuchen":10686,"cu":10687,"▁Hunder":10688,"ING":10689,"ni":10690,"▁Anreise":10691,"▁comfort":10692,"▁Souverän":10693,"▁Hindernisse":10694,"▁Einfl":10695,"ialen":10696,"▁irischen":10697,"▁senken":10698,"▁halb":10699,"▁GAP":10700,"regionen":10701,"▁24.":10702,"▁Wissenschaftler":10703,"▁Elektron":10704,"eiern":10705,"▁Jose":10706,"▁Ausbau":10707,"▁renoviert":10708,"▁Ergebnissen":10709,"TA":10710,"fikation":10711,"▁berechnet":10712,"▁müsste":10713,"graben":10714,"läufig":10715,"alle":10716,"▁imm":10717,"▁Mitent":10718,"▁Via":10719,"▁Vorrang":10720,"▁Lieferanten":10721,"▁Jack":10722,"chron":10723,"▁Mechanismus":10724,".org":10725,"▁Obst":10726,"▁USS":10727,"▁wiederher":10728,"regelung":10729,"▁angemessenen":10730,"▁brachte":10731,"▁angewandt":10732,"▁Entfernung":10733,"▁--":10734,"▁Verwirklichung":10735,"formance":10736,"▁Zeitplan":10737,"▁Rock":10738,"▁bezahlt":10739,"▁geregelt":10740,"namen":10741,"▁Ill":10742,"▁Senkung":10743,"▁Aufzug":10744,"▁richtet":10745,"▁Wirksamkeit":10746,"stehende":10747,"▁JavaScript":10748,"▁natur":10749,"▁Press":10750,"▁gross":10751,"▁integrierte":10752,"▁Gaz":10753,"geld":10754,"▁120":10755,"▁Poly":10756,"▁aktiven":10757,"▁wechseln":10758,"▁Ara":10759,"▁Kohäsionspolitik":10760,"▁diplomati":10761,"any":10762,"▁Finnland":10763,"▁gewiss":10764,"eth":10765,"▁bewe":10766,"▁beunruh":10767,"▁soeben":10768,"▁verschär":10769,"▁zeig":10770,"ido":10771,"▁Extrem":10772,"gehende":10773,"▁frem":10774,"anner":10775,"▁Result":10776,"▁Köl":10777,"atlan":10778,"▁wesentlicher":10779,"tisierung":10780,"▁öst":10781,"▁Bor":10782,"▁Regulierung":10783,"paket":10784,"gebnis":10785,"▁älteren":10786,"▁illegale":10787,"ichtung":10788,"▁Ansprüche":10789,"▁Green":10790,"irl":10791,"▁Jer":10792,"▁07":10793,"märkten":10794,"▁einstimm":10795,"▁Betriebssystem":10796,"▁ärm":10797,"rüne":10798,"versammlung":10799,"▁jedenfalls":10800,"▁Strände":10801,"▁Interess":10802,"▁erklärte":10803,"nor":10804,"genz":10805,"▁Anzei":10806,"▁Annehm":10807,"merz":10808,"▁politisches":10809,"▁Internetzug":10810,"▁Fang":10811,"▁Beach":10812,"▁gewisser":10813,"▁anzuwenden":10814,"sthe":10815,"▁weisen":10816,"▁Mas":10817,"▁effiziente":10818,"▁в":10819,"▁umzu":10820,"SCH":10821,"▁Mem":10822,"▁Räume":10823,"▁Master":10824,"▁Referend":10825,"▁Tha":10826,"▁dauert":10827,"▁egal":10828,"▁55":10829,"kal":10830,"▁Resol":10831,"sum":10832,"▁streng":10833,"▁Errichtung":10834,"▁ausgegeben":10835,"▁Aufenthalts":10836,"▁Aussage":10837,"▁Premierminister":10838,"▁Mall":10839,"▁Repar":10840,"▁stelle":10841,"▁verank":10842,"▁gefährdet":10843,"kla":10844,"ario":10845,"▁schlechte":10846,"▁kop":10847,"ôtel":10848,"behalt":10849,"▁Saint":10850,"▁humanitären":10851,"kö":10852,"▁freut":10853,"▁Anh":10854,"▁effektive":10855,"▁sc":10856,"▁ausüben":10857,"▁müssten":10858,"▁Staats-":10859,"▁bedau":10860,"▁schwerwie":10861,"▁appell":10862,"▁wirkt":10863,"▁Einen":10864,"ektak":10865,"of":10866,"▁Gemeinschaften":10867,"▁Vorstellungen":10868,"▁39":10869,"▁Betriebe":10870,"▁beeinflussen":10871,"schulen":10872,"▁Treib":10873,"▁festlegen":10874,"DR":10875,"schritt":10876,"▁Wett":10877,"omas":10878,"▁beherr":10879,"▁Konstruktion":10880,"▁Empfänger":10881,"▁Innovationen":10882,"leger":10883,"wiesen":10884,"▁Koch":10885,"▁Finde":10886,"▁verste":10887,"▁europäisches":10888,"▁23.":10889,"ächt":10890,"▁Luftfahrt":10891,"▁hervorragend":10892,"▁Außen-":10893,"▁schwierige":10894,"▁Sat":10895,"▁Pop":10896,"▁1993":10897,"▁elegante":10898,"▁2,":10899,"▁belg":10900,"▁Rechner":10901,"stechnik":10902,"gäste":10903,"eug":10904,"▁exzellen":10905,"▁helpf":10906,"ütung":10907,"▁Bonus":10908,"▁Navig":10909,"arier":10910,"irmen":10911,"▁wirkliche":10912,"▁zeichnet":10913,"mittelsicherheit":10914,"▁Dring":10915,"stellern":10916,"▁Ratschlag":10917,"▁Klim":10918,"▁wachsenden":10919,"utes":10920,"▁Automati":10921,"pfel":10922,"▁palästinensischen":10923,"▁Rab":10924,"▁Jung":10925,"eiler":10926,"▁abgegeben":10927,"▁Weiterentwicklung":10928,"▁Jedoch":10929,"denkt":10930,"▁08":10931,"ühlen":10932,"▁Zugangs":10933,"▁22.":10934,"izite":10935,"umin":10936,"▁Doppelzimmer":10937,"▁niedriger":10938,"▁Kernel":10939,"▁NICHT":10940,"ätte":10941,"▁zweitens":10942,"sorganisation":10943,"▁Muster":10944,"▁Fünf":10945,"▁ansehen":10946,"▁Loc":10947,"▁vorzunehmen":10948,"15":10949,"▁Kä":10950,"▁Zy":10951,"ühen":10952,"▁Ausarbeitung":10953,"herr":10954,"▁Flughäfen":10955,"▁Phänomen":10956,"▁dre":10957,"▁dringen":10958,"▁Put":10959,"▁service":10960,"▁italienische":10961,"▁Cookies":10962,"▁mater":10963,"▁oftmals":10964,"▁langfristigen":10965,"becken":10966,"▁konzip":10967,"▁09":10968,"▁Kriegs":10969,"▁angeschlossen":10970,"▁haus":10971,"aster":10972,"entral":10973,"betracht":10974,"▁Philosophie":10975,"▁bezeichnen":10976,"▁Fertig":10977,"fre":10978,"ely":10979,"▁Traditionen":10980,"▁Jean":10981,"ées":10982,"▁angenehmen":10983,"▁Check":10984,"▁Wissens":10985,"▁Bildern":10986,"▁Vermittlungs":10987,"▁RO":10988,"▁Wärme":10989,"▁Erfordern":10990,"▁gerech":10991,"▁Ticket":10992,"▁Dubl":10993,"▁entfernen":10994,"▁Wirtschaftspolitik":10995,"▁1⁄4":10996,"▁professionelle":10997,"▁Publikum":10998,"▁kennt":10999,"kshop":11000,"▁Rechen":11001,"▁behält":11002,"bi":11003,"rische":11004,"onie":11005,"▁steigern":11006,"▁Lounge":11007,"▁Brem":11008,"▁inspir":11009,"▁erhöh":11010,"▁klin":11011,"ileg":11012,"▁Prozeß":11013,"stab":11014,"ölf":11015,"ementen":11016,"▁sammeln":11017,"▁SO":11018,"▁Hil":11019,"▁Nizza":11020,"ausgaben":11021,"ärer":11022,"apital":11023,"▁Werden":11024,"▁erwiesen":11025,"▁Florenz":11026,"▁Souveränität":11027,"ftet":11028,"utung":11029,"mögliche":11030,"genie":11031,"▁Auflösung":11032,"▁dur":11033,"▁Echt":11034,"▁Bol":11035,"alem":11036,"▁Tieren":11037,"▁erkannt":11038,"bieren":11039,"übung":11040,"▁schwei":11041,"arbeitungs":11042,"iegeln":11043,"▁CS":11044,"▁Beste":11045,"izieren":11046,"▁Arbeitnehmern":11047,"▁95":11048,"▁Jes":11049,"örungen":11050,"▁views":11051,"▁mer":11052,"▁Engine":11053,"iga":11054,"▁beizut":11055,"▁gewählten":11056,"VP":11057,"▁versteht":11058,"▁Ägypten":11059,"▁Sekunden":11060,"ão":11061,"▁Zeich":11062,"▁Spitze":11063,"▁überwachen":11064,"quenz":11065,"▁zweck":11066,"▁Unterkünfte":11067,"gemein":11068,"▁beabsichtigt":11069,"▁Orten":11070,"ple":11071,"var":11072,"▁enthalt":11073,"▁täglichen":11074,"▁Wohnungen":11075,"▁Sow":11076,"▁Fremdenverkehr":11077,"▁erteilt":11078,"gentin":11079,"▁anwenden":11080,"▁Beschluß":11081,"▁Etik":11082,"▁grünen":11083,"▁vorgelegten":11084,"▁Rahmenprogramm":11085,"▁momentan":11086,"▁Norm":11087,"▁eth":11088,"eidung":11089,"▁Laden":11090,"▁ECU":11091,"▁Holl":11092,"▁Rich":11093,"ited":11094,"▁Konkurrenz":11095,"ham":11096,"irma":11097,"▁Ök":11098,"▁Transfer":11099,"▁Annehmlichkeiten":11100,"▁stri":11101,"▁legisla":11102,"▁Vordergrund":11103,"▁Kein":11104,"▁Jac":11105,"▁Monte":11106,"▁65":11107,"ungsfähigkeit":11108,"▁Objekte":11109,"▁kontextuellen":11110,"24":11111,"▁Bier":11112,"ünden":11113,"klasse":11114,"▁06":11115,"▁́":11116,"▁Erzeuger":11117,"▁Filme":11118,"▁vollständigen":11119,"▁entdeckst":11120,"ais":11121,"andern":11122,"▁zuges":11123,"▁friendly":11124,"▁geniessen":11125,"gerech":11126,"▁röm":11127,"▁Entwicklungshilfe":11128,"▁Investitions":11129,"angebote":11130,"▁abl":11131,"▁Meg":11132,"▁derer":11133,"▁Meilen":11134,"▁Trek":11135,"▁Listings":11136,"einigt":11137,"▁bereitet":11138,"▁ré":11139,"▁linken":11140,"▁Lou":11141,"▁Vorsitzenden":11142,"sches":11143,"berichterstat":11144,"▁bewerten":11145,"antes":11146,"▁99":11147,"▁Wand":11148,"▁umgehen":11149,"▁entstand":11150,"▁Werten":11151,"fäll":11152,"▁Veranstaltungs":11153,"▁Danach":11154,"▁Empfang":11155,"boden":11156,"regierung":11157,"▁inhalt":11158,"umb":11159,"▁tschech":11160,"▁Airbus":11161,"kul":11162,"▁Kart":11163,"▁Argumente":11164,"▁kontextuell":11165,"phrase":11166,"▁geblieben":11167,"▁hinzufugen":11168,"▁grammatisch":11169,"urity":11170,"▁läd":11171,"▁Zürich":11172,"tifizieren":11173,"▁Appartement":11174,"yle":11175,"▁Dänemark":11176,"▁Internetzugang":11177,"▁restaurant":11178,"▁Steuerzahl":11179,"▁Zwar":11180,"sprodu":11181,"▁eingebracht":11182,"19":11183,"▁heil":11184,"▁eur":11185,"▁kostenlose":11186,"▁hundert":11187,"▁Tenden":11188,"▁Zun":11189,"▁bearbeiten":11190,"▁97":11191,"▁Richter":11192,"schafts":11193,"▁Übersicht":11194,"▁multilater":11195,"▁Schlusselwort":11196,"▁Schlusselphrase":11197,"▁ehemalige":11198,"▁great":11199,"▁einsei":11200,"sverfahren":11201,"box":11202,".S":11203,"▁Ram":11204,"▁aufgezahlt":11205,"▁Kapazität":11206,"▁160":11207,"▁beseitigen":11208,"▁43":11209,"▁plöt":11210,"▁Austr":11211,"▁südlichen":11212,"jo":11213,"▁Mosk":11214,"▁Sektors":11215,"sur":11216,"▁Div":11217,"▁only":11218,"▁Risik":11219,"▁charakter":11220,"erer":11221,"▁air":11222,"ils":11223,"▁weltweite":11224,"▁gefährlich":11225,"▁drän":11226,"▁unber":11227,"▁Behand":11228,"▁Gegner":11229,"▁gewidmet":11230,"▁Bä":11231,"▁Front":11232,"▁Übernahme":11233,"▁eingeleitet":11234,"ränden":11235,"▁schließt":11236,"pass":11237,"undern":11238,"atch":11239,"völkerung":11240,"▁Einer":11241,"▁beantwortet":11242,"▁finanzieren":11243,"▁Histor":11244,"▁gemeinsames":11245,"▁Soldaten":11246,"ohnern":11247,"▁Bestätigung":11248,"▁Gibt":11249,"▁vorn":11250,"weitung":11251,"dates":11252,"▁Australien":11253,"▁nice":11254,"▁Rennen":11255,"▁verstehe":11256,"▁verwendeten":11257,"instrumente":11258,"ube":11259,"▁benachteil":11260,"ucher":11261,"▁Maz":11262,"▁verringert":11263,"▁gegebenenfalls":11264,"▁MS":11265,"▁Bezeichnung":11266,"essor":11267,"▁Spaziergang":11268,"▁Ehre":11269,"▁Normal":11270,"▁Kreativ":11271,"tiere":11272,"▁free":11273,"odes":11274,"▁Western":11275,"▁schreck":11276,"▁tem":11277,"ani":11278,"ito":11279,"ford":11280,"gefühl":11281,"▁Nehmen":11282,"▁manchen":11283,"gesetzten":11284,"▁Anbetracht":11285,"▁Fehl":11286,"▁Können":11287,"▁Wunder":11288,"▁existieren":11289,"▁Wasch":11290,"zubringen":11291,"▁nächster":11292,"▁Fassung":11293,"mate":11294,"▁herz":11295,"▁Einfuhr":11296,"▁aktiviert":11297,"▁Rett":11298,"▁44":11299,"▁gelesen":11300,"▁veröffentlichen":11301,"▁landwirtschaftlichen":11302,"personen":11303,"katastrop":11304,"▁hinzugefügt":11305,"▁Prodi":11306,"▁Eigentums":11307,"▁hochwertigen":11308,"▁Niederlande":11309,"finden":11310,"▁Verab":11311,"aute":11312,"inderung":11313,"▁Reinigung":11314,"▁Konvention":11315,"▁Umstruktur":11316,"▁David":11317,"▁enge":11318,"▁verbreitet":11319,"▁reagiert":11320,"▁digitale":11321,"▁aufbauen":11322,"ugoslaw":11323,"▁Dringlichkeit":11324,"datum":11325,"▁hilfreich":11326,"▁Erwachsene":11327,"burger":11328,"▁lädt":11329,"▁veranst":11330,"▁keineswegs":11331,"▁bürger":11332,"▁Grem":11333,"▁Kaiser":11334,"▁irgendwel":11335,"▁Emissions":11336,"▁aust":11337,"▁definieren":11338,"branche":11339,"gleichheit":11340,"▁Sowohl":11341,"▁aufzubauen":11342,"zimmern":11343,"▁schritt":11344,"▁Akteure":11345,"abe":11346,"jor":11347,"▁verwei":11348,"▁schwere":11349,"▁Verfassungs":11350,"▁Verbrauchern":11351,"▁Konzentration":11352,"▁Skype":11353,"aßt":11354,"schöpf":11355,"alon":11356,"▁dauern":11357,"begriffen":11358,"▁Black":11359,"fikationen":11360,"öss":11361,"empf":11362,"▁CE":11363,"ielsei":11364,"▁besonderes":11365,"▁stattgefunden":11366,"▁verpflichten":11367,"▁ruhige":11368,"glück":11369,"funk":11370,"▁Vill":11371,"▁erkunden":11372,"bs":11373,"ischt":11374,"▁Arm":11375,"freie":11376,"▁Kapit":11377,"▁Kyoto":11378,"▁ou":11379,"▁diver":11380,"▁professionellen":11381,"hard":11382,"sphase":11383,"▁Stern":11384,"ahe":11385,"▁Ausweitung":11386,"▁gene":11387,"▁innovativen":11388,"▁Tools":11389,"stritten":11390,"▁Miet":11391,"▁europa":11392,"▁time":11393,"▁Wesen":11394,"▁over":11395,"eige":11396,"strö":11397,"▁ständigen":11398,"gäng":11399,"▁erworben":11400,"▁herzustellen":11401,"▁city":11402,"▁Montage":11403,"▁sitzen":11404,"▁Wen":11405,"▁Demokraten":11406,"▁Universitäten":11407,"▁festen":11408,"ktions":11409,"▁eins":11410,"▁anerkennen":11411,"quip":11412,"▁erheben":11413,"▁erfreu":11414,"▁EW":11415,"▁Einfach":11416,"antwortung":11417,"▁Roman":11418,"▁generell":11419,"▁ökologischen":11420,"tung":11421,"▁fassen":11422,"▁car":11423,"fertigen":11424,"üg":11425,"▁more":11426,"urce":11427,"ettet":11428,"▁Spar":11429,"geschwindigkeit":11430,"iaz":11431,"▁Krieges":11432,"▁woh":11433,"▁Gewässer":11434,"▁atember":11435,"▁Human":11436,"▁Plaza":11437,"ji":11438,"stern":11439,"▁IWF":11440,"▁helpful":11441,"▁Kompetenzen":11442,"▁Kennzeichnung":11443,"UM":11444,"▁work":11445,"▁herbei":11446,"wahlen":11447,"▁Aspekten":11448,"▁Anmerkungen":11449,"▁ablehnen":11450,"▁Anzeige":11451,"▁zustande":11452,"▁langer":11453,"▁Erreichung":11454,"▁Eines":11455,"▁Ausrichtung":11456,"▁Sternen":11457,"▁Orien":11458,"▁Alters":11459,"mess":11460,"▁Erhalt":11461,"▁Lay":11462,"▁christ":11463,"wärtige":11464,"▁Ausrüstung":11465,"lässigen":11466,"urn":11467,"▁Tanz":11468,"▁territor":11469,"▁Entschlossenheit":11470,"▁Vereinigte":11471,"▁96":11472,"opping":11473,"cle":11474,"▁Regul":11475,"würdig":11476,"▁desto":11477,"▁Volkspartei":11478,"▁nutzt":11479,"▁Ruß":11480,"drucks":11481,"▁Nichtraucherzimmer":11482,"▁Tief":11483,"▁Beamten":11484,"▁Inkraft":11485,"lad":11486,"ktop":11487,"lö":11488,"▁gestatten":11489,"omet":11490,"portieren":11491,"▁Massage":11492,"CD":11493,"▁Wil":11494,"▁Unterricht":11495,"▁genauer":11496,"▁Image":11497,"▁Designer":11498,"▁geliefert":11499,"ehle":11500,"▁Legitim":11501,"republik":11502,"asste":11503,"▁Kommentare":11504,"▁schwedischen":11505,"imum":11506,"▁befürworten":11507,"▁EP":11508,"▁still":11509,"▁Erfolge":11510,"play":11511,"▁dahin":11512,"bern":11513,"füllt":11514,"▁Klassen":11515,"▁orden":11516,"▁berichtet":11517,"▁Gefängnis":11518,"▁well":11519,"▁schauen":11520,"▁konsequent":11521,"bem":11522,"einheit":11523,"▁Fans":11524,"ious":11525,"skontrolle":11526,"▁Frie":11527,"▁gemütliche":11528,"ki":11529,"▁asi":11530,"▁Korrektur":11531,"geladen":11532,"hrt":11533,"▁Workshop":11534,"▁Slowakei":11535,"sprechend":11536,"äuden":11537,"ektivität":11538,"▁grenzüberschreitenden":11539,"win":11540,"▁auswählen":11541,"▁uneingeschränkt":11542,"bind":11543,"▁kolle":11544,"▁administ":11545,"▁Weine":11546,"▁Insgesamt":11547,"▁MySQL":11548,"sekretär":11549,"én":11550,"▁oblig":11551,"▁Lad":11552,"ova":11553,"▁Logistik":11554,"▁berühmte":11555,"▁GNU":11556,"hlung":11557,"▁unzähl":11558,"▁Abbau":11559,"kauft":11560,"count":11561,"isierten":11562,"ili":11563,"muse":11564,"▁Rotary":11565,"tex":11566,"▁inn":11567,"▁Rek":11568,"▁-S":11569,"▁entf":11570,"▁Govern":11571,"▁Besatz":11572,"worte":11573,"▁gesellschaftlichen":11574,"▁Bürokratie":11575,"▁ER":11576,"▁Amb":11577,"▁Haar":11578,"sektors":11579,"▁situ":11580,"▁Bestell":11581,"▁spannen":11582,"▁erstes":11583,"gesp":11584,"▁Dynamik":11585,"▁erwerben":11586,"▁Schwä":11587,"▁Play":11588,"▁mittelalter":11589,"▁Bug":11590,"▁Händler":11591,"ience":11592,"▁beibehalten":11593,"▁Kommissionspräsident":11594,"ologischer":11595,"▁bevorzu":11596,"▁effizienter":11597,"▁SV":11598,"formular":11599,"▁bewahren":11600,"▁Stabil":11601,"reserv":11602,"▁Garantien":11603,"asien":11604,"gton":11605,"▁Marok":11606,"verbindung":11607,"▁Fundament":11608,"▁widmen":11609,"▁sucht":11610,"▁Gelt":11611,"▁cu":11612,"▁§":11613,"▁Seele":11614,"▁kostenlosen":11615,"▁Verteidigungs":11616,"▁negative":11617,"▁körper":11618,"▁Quoten":11619,"▁Bekannt":11620,"▁verurteilen":11621,"▁unab":11622,"▁einladen":11623,"▁Featur":11624,"gu":11625,"ye":11626,"▁Wurz":11627,"olf":11628,"▁Brun":11629,"▁schriftliche":11630,"▁begleiten":11631,"▁Swimming":11632,"▁zweiter":11633,"ervice":11634,"▁umfassender":11635,"▁Getränke":11636,"▁Klarheit":11637,"▁vorüber":11638,"▁hohes":11639,"dehn":11640,"▁Behörde":11641,"loser":11642,"bab":11643,"▁Wünschen":11644,"▁Betroffen":11645,"▁Prävention":11646,"▁Urspr":11647,"bestimmungen":11648,"▁Modus":11649,"▁Express":11650,"▁Klo":11651,"▁Referenz":11652,"▁sparen":11653,"▁elektronische":11654,"▁NL":11655,"▁bereiten":11656,"läuft":11657,"▁Gemeinden":11658,"hörige":11659,"▁Renn":11660,"▁Sozi":11661,"voller":11662,"▁gegangen":11663,"ays":11664,"▁Deutschlands":11665,"▁Baby":11666,"▁vo":11667,"▁Brücke":11668,"▁Durchsetzung":11669,"▁Zweiten":11670,"▁ausländischen":11671,"▁dän":11672,"▁Sau":11673,"▁erlassen":11674,"▁aufrecht":11675,"▁Statistiken":11676,"▁grei":11677,"▁Nutzungs":11678,"▁1989":11679,"▁Sex":11680,"▁Hong":11681,"▁Anf":11682,"▁spanische":11683,"▁Zahn":11684,"▁Cock":11685,"▁Felder":11686,"▁Eth":11687,"▁Hände":11688,"▁Ingenie":11689,"ysteme":11690,"▁Global":11691,"▁domin":11692,"timent":11693,"▁Award":11694,"▁Häfen":11695,"▁Bestellungen":11696,"▁Box":11697,"▁bedroht":11698,"▁Grünbuch":11699,"▁famili":11700,"▁Riv":11701,"▁erteilen":11702,"▁Überleben":11703,"▁aktualisiert":11704,"▁kleinere":11705,"sive":11706,"▁enormen":11707,"▁maßgeb":11708,"▁Festplatte":11709,"▁Fass":11710,"▁leid":11711,"▁Tipp":11712,"lichte":11713,"▁Klassi":11714,"▁straf":11715,"▁effektiver":11716,"▁armen":11717,"▁unterschiedlicher":11718,"▁Lateinamerika":11719,"üstet":11720,"back":11721,"▁erarbeitet":11722,"quelle":11723,"▁Servic":11724,"▁kurzer":11725,"inst":11726,"▁Ach":11727,"▁station":11728,"rankungen":11729,"reibungs":11730,"▁umgehend":11731,"ampagnen":11732,"▁Unterhaltung":11733,"▁mediterran":11734,"▁Assi":11735,"▁49":11736,"▁teuer":11737,"▁900":11738,"▁Lim":11739,"zugreifen":11740,"▁Ursache":11741,"64":11742,"▁demon":11743,"lässt":11744,"▁typisch":11745,"▁unw":11746,"azz":11747,"25":11748,"rent":11749,"irn":11750,"▁Wä":11751,"▁vertritt":11752,"▁Säu":11753,"appen":11754,"▁regul":11755,"ummern":11756,"▁Mittwoch":11757,"▁vereint":11758,"▁Funktionieren":11759,"tiro":11760,"▁solch":11761,"▁Fortsetzung":11762,"▁Wichtigkeit":11763,"iets":11764,"▁Konjunktur":11765,"▁Kenntnisse":11766,"ographie":11767,"▁Nachdruck":11768,"▁umfangreich":11769,"▁Malt":11770,"▁städ":11771,"▁Erwerb":11772,"▁Plätze":11773,"▁chinesische":11774,"▁vermittelt":11775,"ield":11776,"ception":11777,"▁Blu":11778,"▁Missbrauch":11779,"▁Erschein":11780,"▁ener":11781,"ängerung":11782,"▁Aussagen":11783,"▁Ferienwohnungen":11784,"▁erstklassi":11785,"▁Reicht":11786,"▁verursachen":11787,"▁Futter":11788,"▁Rent":11789,"gebäude":11790,"mäh":11791,"absch":11792,"lim":11793,"stunde":11794,"ska":11795,"▁Lebensmittelsicherheit":11796,"▁Schicksal":11797,"▁beweisen":11798,"ältigung":11799,"▁wirklichen":11800,"▁erkennt":11801,"▁29.":11802,"▁freundliche":11803,"unen":11804,"▁NE":11805,"agra":11806,"▁1991":11807,"▁Dienstleistung":11808,"sverletzungen":11809,"normen":11810,"chester":11811,"▁Tie":11812,"gebnisse":11813,"ère":11814,"lieferung":11815,"▁A4":11816,"aubern":11817,"но":11818,"eiste":11819,"ränkte":11820,"▁falsche":11821,"▁Menschheit":11822,"ekter":11823,"▁kombiniert":11824,"▁anzupassen":11825,"▁Budget":11826,"▁Minderheit":11827,"UT":11828,"terrasse":11829,"gerichts":11830,"waren":11831,"▁Problematik":11832,"▁Netze":11833,"▁umfangreichen":11834,"ögern":11835,"▁Il":11836,"▁Hom":11837,"▁Spiegel":11838,"▁eingetragen":11839,"▁bat":11840,"▁versehen":11841,"ständigen":11842,"trol":11843,"▁respektieren":11844,"obe":11845,"▁Set":11846,"▁Künst":11847,"äufe":11848,"▁Fu":11849,"▁Taten":11850,"▁Inhalten":11851,"▁Abteilung":11852,"▁behauptet":11853,"▁Kürze":11854,"▁Arzneimittel":11855,"CC":11856,"elben":11857,"▁überrascht":11858,"▁pra":11859,"verständnis":11860,"üse":11861,"▁\\":11862,"erte":11863,"▁auswirken":11864,"▁innere":11865,"▁Abenteuer":11866,"kir":11867,"▁einheim":11868,"▁geehrte":11869,"▁Diesen":11870,"stätigkeit":11871,"▁unterbrochen":11872,"riter":11873,"▁Eröffnung":11874,"udes":11875,"▁Größen":11876,"fein":11877,"▁vergeben":11878,"▁Vorred":11879,"▁Zimmerbeschreibung":11880,"gehenden":11881,"▁Mittelmeerraum":11882,"▁Vorgehensweise":11883,"▁close":11884,"▁Weiterhin":11885,"▁getrennt":11886,"▁Palette":11887,"▁Wahrung":11888,"▁26.":11889,"▁interne":11890,"▁popul":11891,"produkten":11892,"▁Einzelheiten":11893,"ders":11894,"sebene":11895,"200":11896,"orca":11897,"▁Lag":11898,"▁grav":11899,"schrank":11900,"elen":11901,"▁vorsch":11902,"▁national":11903,"fertigung":11904,"▁Werkzeuge":11905,"▁günstigen":11906,"▁lenken":11907,"▁Protokolls":11908,"oleranz":11909,"▁Vul":11910,"▁vorliegt":11911,"▁Feed":11912,"▁Dampf":11913,"▁Inkrafttreten":11914,"iehlt":11915,"▁Edition":11916,"fahrzeuge":11917,"▁05":11918,"zufügen":11919,"▁perman":11920,"▁Safe":11921,"▁einher":11922,"▁MB":11923,"schafter":11924,"vertre":11925,"wanderung":11926,"▁LE":11927,"▁geringen":11928,"▁64":11929,"cs":11930,"▁Gefü":11931,"bringung":11932,"genöss":11933,"▁Mischung":11934,"▁Geschenk":11935,"▁technisch":11936,"▁gemütlichen":11937,"gier":11938,"▁Keine":11939,"▁Offenheit":11940,"▁Inflation":11941,"▁Puert":11942,"▁centre":11943,"▁Visa":11944,"▁Autonomie":11945,"fle":11946,"▁ausgestattete":11947,"▁fühl":11948,"▁Zielsetzungen":11949,"▁kompati":11950,"▁Edel":11951,"▁Operation":11952,"iale":11953,"▁Pir":11954,"▁öffentlicher":11955,"▁grundle":11956,"▁eleganten":11957,"▁Fri":11958,"▁Alternativen":11959,"gast":11960,"▁Zurück":11961,"▁Direct":11962,"▁endgültige":11963,"14":11964,"▁PS":11965,"▁Late":11966,"▁Lärm":11967,"▁Erarbeitung":11968,"▁erleichtert":11969,"ichtigkeit":11970,"mäch":11971,"▁beider":11972,"sprozesse":11973,"▁Nichts":11974,"ziger":11975,"sko":11976,"▁günstige":11977,"▁behinderten":11978,"over":11979,"▁Aff":11980,"▁Ufer":11981,"▁Office":11982,"▁planen":11983,"ves":11984,"▁zwölf":11985,"на":11986,"▁gelang":11987,"▁Georgien":11988,"▁Chancengleichheit":11989,"möglichkeit":11990,"utive":11991,"ilde":11992,"▁Arzt":11993,"▁realisiert":11994,"▁Room":11995,"politische":11996,"ners":11997,"▁derselben":11998,"▁2.0":11999,"▁Gipfelt":12000,"▁institutionelle":12001,"pret":12002,"▁geschäft":12003,"▁Versprechen":12004,"▁Aufhebung":12005,"▁Betrifft":12006,"▁Zertifik":12007,"▁Tragö":12008,"▁begegnen":12009,"▁imp":12010,"▁übermitteln":12011,"▁späte":12012,"▁fortsetzen":12013,"▁Entschäd":12014,"▁Hostelsclub":12015,"▁tatsächlichen":12016,"▁angekündigt":12017,"▁design":12018,"behör":12019,"▁Pilot":12020,"itzung":12021,"▁NRO":12022,"▁davor":12023,"▁28.":12024,"wäsche":12025,"▁BSE":12026,"▁nachhaltig":12027,"▁‘":12028,"▁empfängt":12029,"▁wunderschöne":12030,"▁Terroristen":12031,"planung":12032,"▁Bosnien":12033,"▁könne":12034,"▁¶":12035,"▁sho":12036,"▁bezogen":12037,"▁gestartet":12038,"▁Verstär":12039,"▁Liberalen":12040,"▁flexibel":12041,"▁bewegt":12042,"▁statist":12043,"▁Visum":12044,"Гј":12045,"▁derart":12046,"▁erforderliche":12047,"▁verabschieden":12048,"landschaft":12049,"sbür":12050,"▁Gebir":12051,"kunden":12052,"mas":12053,"quote":12054,"▁vorsieht":12055,"▁zukommen":12056,"freien":12057,"▁angenommenen":12058,"▁parlamentarischen":12059,"▁absch":12060,"▁Händen":12061,"▁Interview":12062,"▁Ausnahmen":12063,"▁fil":12064,"▁Einnahmen":12065,"▁Magaz":12066,"▁zugestimmt":12067,"▁Fan":12068,"▁konfigur":12069,"▁Geschlechter":12070,"▁sogenannte":12071,"▁Ministerpräsident":12072,"▁berichten":12073,"dios":12074,"präsen":12075,"zession":12076,"▁abgesehen":12077,"▁Schwellen":12078,"▁Ank":12079,"werbe":12080,"▁Mengen":12081,"▁Freihandels":12082,"▁Diagn":12083,"▁walk":12084,"lines":12085,"▁Robert":12086,"▁Direktor":12087,"▁Gute":12088,"verarbeitung":12089,"▁Vorstand":12090,"▁about":12091,"▁vermut":12092,"▁Buchsta":12093,"▁chemische":12094,"▁Gipfeltreffen":12095,"▁Welthandel":12096,"▁erstens":12097,"▁bewußt":12098,"▁Treibhaus":12099,"icke":12100,"▁Beschränkungen":12101,"ju":12102,"▁lieben":12103,"▁administra":12104,"car":12105,"▁Ansch":12106,"▁Zerstörung":12107,"▁Klang":12108,"▁verzichten":12109,"yth":12110,"▁bu":12111,"▁NI":12112,"▁Storn":12113,"dok":12114,"▁HD":12115,"▁Steigerung":12116,"▁Literatur":12117,"uble":12118,"▁Moun":12119,"▁herrschen":12120,"▁diesbezü":12121,"küste":12122,"ianischen":12123,"▁Rollen":12124,"▁erarbeiten":12125,"▁sofor":12126,"ants":12127,"▁erwähnten":12128,"▁damal":12129,"fassen":12130,"strand":12131,"▁obligator":12132,"▁Präsentation":12133,"imes":12134,"▁symbol":12135,"▁Derzeit":12136,"▁deutliche":12137,"▁Metro":12138,"▁Tai":12139,"sparent":12140,"▁Events":12141,"ging":12142,"tist":12143,"verhalten":12144,"▁Updates":12145,"▁Chef":12146,"▁motiv":12147,"ätzungen":12148,"schließt":12149,"▁erstreckt":12150,"▁dok":12151,"▁Ausflug":12152,"▁arbeit":12153,"▁arabischen":12154,"bit":12155,"▁eindeutige":12156,"▁ursprüngliche":12157,"ektakul":12158,"▁Desktop":12159,"udan":12160,"sfrei":12161,"▁You":12162,"▁chamb":12163,"▁Privatsphäre":12164,"▁komfortablen":12165,"grenz":12166,"▁Bom":12167,"beutung":12168,"▁Konvergenz":12169,"▁FA":12170,"eistungen":12171,"▁eröffnen":12172,"▁Verordnungen":12173,"range":12174,"▁üblichen":12175,"▁erheblichen":12176,"▁Vie":12177,"▁Repräsent":12178,"▁genießt":12179,"▁Bünd":12180,"fähig":12181,"▁would":12182,"sprozeß":12183,"▁Theorie":12184,"▁Key":12185,"▁gebunden":12186,"▁Platten":12187,"▁Blumen":12188,"▁interessanten":12189,"▁beteiligten":12190,"▁Föderation":12191,"▁Bit":12192,"▁anpassen":12193,"▁gemeinsamer":12194,"▁lebens":12195,"▁Labor":12196,"hersteller":12197,"▁größter":12198,"▁Möbel":12199,"lässige":12200,"ни":12201,"▁afrikanischen":12202,"▁Klin":12203,"▁Vic":12204,"illigt":12205,"stücke":12206,"ords":12207,"▁Touren":12208,"▁Ordner":12209,"▁Million":12210,"▁Performance":12211,"▁Volkswirtschaften":12212,"▁komplexe":12213,"▁Begründung":12214,"ew":12215,"aming":12216,"▁langem":12217,"▁Ausgrenzung":12218,"iance":12219,"rohen":12220,"▁Liebl":12221,"▁Royal":12222,"18":12223,"▁greifen":12224,"▁Marina":12225,"▁Clubs":12226,"▁Sowjet":12227,"▁terror":12228,"▁Work":12229,"▁Russlands":12230,"▁leistet":12231,"▁Saal":12232,"▁Bewohner":12233,"▁österreichischen":12234,"▁v.":12235,"blatt":12236,"▁eigentliche":12237,"▁beruh":12238,"▁stärksten":12239,"stär":12240,"▁Hü":12241,"aufnahme":12242,"▁geschmack":12243,"plätzen":12244,"▁Raums":12245,"kömm":12246,"A.":12247,"▁dien":12248,"ierer":12249,"▁Inhaber":12250,"bevölkerung":12251,"▁Formulierung":12252,"holz":12253,"▁Arbeitslosen":12254,"▁Wiederherstellung":12255,"▁zugute":12256,"gebühren":12257,"dingung":12258,"▁Thomas":12259,"lings":12260,"▁Mur":12261,"▁zurzeit":12262,"hedr":12263,"▁Tee":12264,"▁herausragen":12265,"sbedingungen":12266,"▁basieren":12267,"mt":12268,"▁Slowen":12269,"▁zun":12270,"▁verwiesen":12271,"betriebe":12272,"▁Demonstra":12273,"äußer":12274,"verschm":12275,"geschnitten":12276,"▁Bilanz":12277,"▁Südafrika":12278,"lebt":12279,"▁gehabt":12280,"mot":12281,"▁Abt":12282,"▁Logik":12283,"▁einiges":12284,"▁integrieren":12285,"▁erweisen":12286,"▁Nichtraucherzonen":12287,"▁Köln":12288,"reen":12289,"▁Colle":12290,"blen":12291,"▁Weltwirtschaft":12292,"rus":12293,"aker":12294,"ühle":12295,"bsp":12296,"▁dieselbe":12297,"▁Mobilte":12298,"atin":12299,"klärt":12300,"▁Lern":12301,"▁vermieden":12302,"▁Dublin":12303,"▁wächst":12304,"▁dieselben":12305,"▁zentraler":12306,"▁27.":12307,"▁Vin":12308,"▁gelangt":12309,"rim":12310,"hod":12311,"▁USD":12312,"aku":12313,"änderung":12314,"▁Spezialisten":12315,"arr":12316,"▁befürwortet":12317,"▁formuliert":12318,"▁eingeladen":12319,"▁gewünschte":12320,"▁niedrigen":12321,"▁vermutlich":12322,"▁verliehen":12323,"▁umso":12324,"▁Berater":12325,"▁Washin":12326,"hab":12327,"▁ther":12328,"bestand":12329,"mechanismen":12330,"▁rechnen":12331,"▁sec":12332,"sendung":12333,"dite":12334,"treffen":12335,"▁Lasten":12336,"▁Legisla":12337,"▁auss":12338,"▁Centre":12339,"▁steigt":12340,"verm":12341,"▁Umstände":12342,"▁renomm":12343,"▁präzise":12344,"▁eintreten":12345,"▁BE":12346,"klen":12347,"▁Verabschied":12348,"▁GB":12349,"▁Ausbeutung":12350,"▁Küchen":12351,"▁parallel":12352,"▁komplexen":12353,"▁gegenseitigen":12354,"▁Präsi":12355,"▁Fakten":12356,"▁Adressen":12357,"▁Abgeordneter":12358,"▁Portal":12359,"▁Fremd":12360,"mechanismus":12361,"üre":12362,"pfern":12363,"▁Source":12364,"▁Seen":12365,"▁problemlos":12366,"▁Bürgerbeauftragten":12367,"üssel":12368,"▁46":12369,"2010":12370,"▁musikal":12371,"▁Menschenrechtsverletzungen":12372,"▁Französisch":12373,"geführt":12374,"▁IV":12375,"▁Laser":12376,"▁Glückw":12377,"▁Hostel":12378,"▁Konserv":12379,"▁180":12380,"▁bedauerlich":12381,"▁aufr":12382,"▁enorm":12383,"▁regionaler":12384,"▁Autoren":12385,"▁Großen":12386,"▁Feder":12387,"▁Minibar":12388,"▁Verabschiedung":12389,"▁Akt":12390,"▁GU":12391,"▁transparent":12392,"ering":12393,"▁SC":12394,"▁AP":12395,"GE":12396,"ello":12397,"▁abgeben":12398,"▁erläuter":12399,"itra":12400,"▁dasselbe":12401,"▁Pflichten":12402,"▁Isol":12403,"bereiten":12404,"▁Stufe":12405,"▁leichte":12406,"▁comfortable":12407,"▁Schreib":12408,"▁Private":12409,"▁Jugendliche":12410,"▁Statut":12411,"▁Budap":12412,"▁Wälder":12413,"99":12414,"ouren":12415,"▁beher":12416,"▁Funktionalität":12417,"▁moderner":12418,"▁aufgestellt":12419,"▁Angabe":12420,"▁Unterdrück":12421,"▁verstärkte":12422,"▁Kuba":12423,"▁demokratisch":12424,"▁medizinische":12425,"▁Gentoo":12426,"▁koh":12427,"isierte":12428,"▁einzig":12429,"▁geeigneten":12430,"ius":12431,"▁Tabelle":12432,"▁Finanzen":12433,"TER":12434,"ladung":12435,"▁exper":12436,"gigen":12437,"▁Kont":12438,"▁Kooperations":12439,"▁löschen":12440,"▁Hekt":12441,"örm":12442,"▁vertraut":12443,"▁Kommissionsvorschlag":12444,"kette":12445,"fahrten":12446,"▁Module":12447,"▁Arbeitszeit":12448,"▁Charme":12449,"▁Spektrum":12450,"▁European":12451,"▁DA":12452,"▁tr":12453,"▁Handlungen":12454,"▁kleineren":12455,"▁Anwendungs":12456,"▁aussehen":12457,"▁Bewerber":12458,"▁Straft":12459,"▁Meinungen":12460,"▁Jugoslaw":12461,"▁Verbind":12462,"▁Obama":12463,"zusagen":12464,"▁Rass":12465,"▁reform":12466,"▁Maast":12467,"▁Genuss":12468,"▁Anträge":12469,"▁unbek":12470,"▁negativ":12471,"▁verschaffen":12472,"systemen":12473,"▁Karriere":12474,"▁weiterzu":12475,"tikeln":12476,"▁Drittstaaten":12477,"▁Zunahme":12478,"zeichnete":12479,"▁teilt":12480,"sbekämpfung":12481,"▁atemberauben":12482,"▁Marokko":12483,"tektion":12484,"▁AV":12485,"▁finn":12486,"▁Flag":12487,"▁Türen":12488,"▁Immun":12489,"▁Rhein":12490,"▁Index":12491,"lassungen":12492,"▁Swiss":12493,"13":12494,"▁vergangen":12495,"▁gewalt":12496,"▁heutzutage":12497,"▁drast":12498,"▁Serien":12499,"▁einstellen":12500,"▁Kunststoff":12501,"▁sonstige":12502,"▁iran":12503,"▁Anbindung":12504,"▁späteren":12505,"▁University":12506,"▁sterben":12507,"oppen":12508,"▁endgültigen":12509,"methode":12510,"ku":12511,"▁Fischereipolitik":12512,"▁absolute":12513,"eir":12514,"▁bewertet":12515,"aux":12516,"▁minim":12517,"▁Erdbe":12518,"disk":12519,"heil":12520,"▁Hügel":12521,"▁mail":12522,"top":12523,"▁treiben":12524,"auten":12525,"parks":12526,"▁Kom":12527,"▁Konfiguration":12528,"▁Verfolgung":12529,"▁Erzeugung":12530,"▁durchzusetzen":12531,"75":12532,"▁ann":12533,"älte":12534,"bahnen":12535,"▁vertie":12536,"▁höchster":12537,"▁Nu":12538,"zusammenarbeit":12539,"▁jeglicher":12540,"gy":12541,"▁Kalender":12542,"beziehungen":12543,"▁Gewinner":12544,"jekten":12545,"▁Bergen":12546,"▁Kernkraft":12547,"▁jüngste":12548,"▁excellent":12549,"KT":12550,"strom":12551,"izz":12552,"▁religiösen":12553,"▁Baut":12554,"▁gerechtfertigt":12555,"▁Ster":12556,"▁Meld":12557,"▁geringe":12558,"▁Still":12559,"▁Gastfreund":12560,"punkten":12561,"▁Schu":12562,"▁Verlängerung":12563,"ault":12564,"▁ass":12565,"▁bisschen":12566,"tiker":12567,"▁12.00":12568,"▁Zustell":12569,"▁Summe":12570,"▁organisierte":12571,"▁ungewöhn":12572,"ressourcen":12573,"▁Belastung":12574,"▁Piaz":12575,"▁Vermittlung":12576,"wissenschaft":12577,"▁Washington":12578,"möglichen":12579,"mere":12580,"riedigen":12581,"▁mittlere":12582,"vir":12583,"▁Ten":12584,"▁wahre":12585,"▁Versuche":12586,"alo":12587,"zugs":12588,"▁Bühne":12589,"vier":12590,"ighl":12591,"ebung":12592,"▁1980":12593,"▁Versicherungs":12594,"▁künst":12595,"▁some":12596,"▁füllen":12597,"spunkte":12598,"▁Zusammensetzung":12599,"▁empfiehlt":12600,"eber":12601,"orts":12602,"acion":12603,"▁eingereich":12604,"▁Einwanderer":12605,"▁wertvolle":12606,"laut":12607,"iam":12608,"kontrolle":12609,"▁isol":12610,"▁angebotenen":12611,"▁Michel":12612,"KW":12613,"▁PR":12614,"▁verarbeitet":12615,"füll":12616,"zeitraum":12617,"▁Gemüse":12618,"▁maximale":12619,"▁UR":12620,"▁Produzenten":12621,"▁schlechter":12622,"ene":12623,"▁ohn":12624,"▁unterscheidet":12625,"▁sach":12626,"▁vol":12627,"versicherung":12628,"▁ED":12629,"▁aufeinander":12630,"fällt":12631,"▁einstimmig":12632,"uminium":12633,"▁gehe":12634,"bestände":12635,"▁Kontra":12636,"zeichneten":12637,"▁passieren":12638,"▁Kanal":12639,"▁Mak":12640,"ademie":12641,"▁Hor":12642,"menge":12643,"▁Beurteilung":12644,"▁gewinnt":12645,"▁Klimawandels":12646,"▁ausländische":12647,"16":12648,"▁slow":12649,"▁geograf":12650,"▁retten":12651,"▁Panorama":12652,"üm":12653,"▁Strei":12654,"▁schwieriger":12655,"▁Anwesenheit":12656,"▁Eingabe":12657,"rechtlichen":12658,"face":12659,"zw":12660,"dens":12661,"▁Note":12662,"änn":12663,"fenster":12664,"▁gesichert":12665,"▁aufgeführt":12666,"▁organisierten":12667,"pg":12668,"book":12669,"▁Aktivität":12670,"GB":12671,"▁Treiber":12672,"▁dargelegt":12673,"▁zwingen":12674,"▁blieb":12675,"▁Fron":12676,"▁they":12677,"▁Geschäften":12678,"▁technischer":12679,"ixel":12680,"onym":12681,"▁Pay":12682,"recher":12683,"ason":12684,"▁Messen":12685,"▁fin":12686,"other":12687,"▁Bouti":12688,"▁erschienen":12689,"▁Beratungen":12690,"▁gegenseitige":12691,"etschen":12692,"▁Osteuropa":12693,"pfung":12694,"▁Schnittstelle":12695,"liess":12696,"▁ähnlichen":12697,"▁englischen":12698,"▁Maler":12699,"▁beschreibt":12700,"▁Mehrwertsteuer":12701,"▁Menschenrechten":12702,"▁gestiegen":12703,"▁Steuerzahler":12704,"facht":12705,"▁CN":12706,"reisende":12707,"▁Ergänzung":12708,"▁übergeben":12709,"▁spektakul":12710,"▁Gebäuden":12711,"▁zusammenzu":12712,"▁polnischen":12713,"▁Ausübung":12714,"▁Feststellung":12715,"▁Flächen":12716,"▁bal":12717,"▁Mold":12718,"▁George":12719,"äuse":12720,"▁überwacht":12721,"▁vereinbarten":12722,"▁leistungsf":12723,"▁Erwägung":12724,"geräten":12725,"▁è":12726,"▁trat":12727,"ständig":12728,"▁с":12729,"ality":12730,"▁Schutzes":12731,"zirk":12732,"▁Finger":12733,"▁Börse":12734,"gels":12735,"▁beschleunigen":12736,"▁geplanten":12737,"▁Ursprungs":12738,"korea":12739,"▁fanden":12740,"▁Quell":12741,"▁autor":12742,"ektive":12743,"▁Drucker":12744,"▁Indik":12745,"▁ausführlich":12746,"▁Referendum":12747,"▁Unterhalt":12748,"ours":12749,"leiter":12750,"vort":12751,"▁nehme":12752,"▁Gärten":12753,"▁weiterentwick":12754,"▁anf":12755,"▁erhol":12756,"▁Gebühr":12757,"▁gelassen":12758,"▁Reparatur":12759,"saal":12760,"achtungs":12761,"▁vielsei":12762,"leichter":12763,"datei":12764,"▁einnehmen":12765,"▁Evalu":12766,"▁Leid":12767,"▁liegenden":12768,"▁bedienen":12769,"▁getö":12770,"melden":12771,"andal":12772,"▁like":12773,"▁Herrschaft":12774,"ication":12775,"▁Antrieb":12776,"▁eigentlichen":12777,"▁Südtiro":12778,"▁Found":12779,"▁Anreize":12780,"▁ausreichende":12781,"▁Energiequellen":12782,"▁ändert":12783,"▁Änderungs":12784,"messer":12785,"▁ums":12786,"▁sagten":12787,"▁Besitzer":12788,"TS":12789,"▁‚":12790,"▁reibungs":12791,"▁einführen":12792,"▁Tank":12793,"▁passt":12794,"▁Heiligen":12795,"▁Schwimmbad":12796,"▁s.":12797,"▁Party":12798,"▁Island":12799,"▁Hen":12800,"▁angelegt":12801,"zern":12802,"▁AD":12803,"gericht":12804,"▁Geben":12805,"▁Beschwerden":12806,"▁ausgedehn":12807,"▁Verletzungen":12808,"▁gelingen":12809,"▁ört":12810,"▁überlegen":12811,"▁vorbehalten":12812,"▁durchschnitt":12813,"▁Arbeitsgruppe":12814,"▁gelegenen":12815,"▁beinahe":12816,"▁Heimatland":12817,"▁geleitet":12818,"▁spielte":12819,"▁komfortabel":12820,"▁wachsende":12821,"▁Europar":12822,"▁ruhiger":12823,"▁industriellen":12824,"▁Breakfast":12825,"▁non":12826,"▁Hot":12827,"aufwand":12828,"▁zwanzig":12829,"▁Führungs":12830,"▁überwie":12831,"dring":12832,"schend":12833,"▁Mu":12834,"▁Cons":12835,"▁ehrlich":12836,"▁bürokra":12837,"▁inneren":12838,"▁Swimmingpool":12839,"dungs":12840,"sprüchen":12841,"sinn":12842,"▁KOM":12843,"▁aufgerufen":12844,"▁Rückgang":12845,"▁Vertretung":12846,"▁Präm":12847,"▁EM":12848,"▁Pet":12849,"▁Shutt":12850,"▁phys":12851,"finanzierung":12852,"esk":12853,"aser":12854,"termin":12855,"▁Hu":12856,"▁kan":12857,"▁Hans":12858,"▁Leuten":12859,"▁Inc":12860,"▁gemein":12861,"pres":12862,"▁Instrumenten":12863,"▁israelischen":12864,"steil":12865,"▁Rec":12866,"▁regeln":12867,"▁Stich":12868,"▁Ankünd":12869,"▁eingeräumt":12870,"▁Community":12871,"▁verzeichnen":12872,"▁Rahmenbedingungen":12873,"ofern":12874,"▁Pas":12875,"▁verbleiben":12876,"▁Gewinne":12877,"▁Mails":12878,"▁Professor":12879,"▁Einschränkungen":12880,"32":12881,"▁vergröß":12882,"▁NG":12883,"▁Konferenzen":12884,"▁spätestens":12885,"▁Mauer":12886,"itiv":12887,"▁Nic":12888,"▁teilzunehmen":12889,"▁val":12890,"ram":12891,"ständige":12892,"velop":12893,"▁AN":12894,"▁insofern":12895,"▁ständige":12896,"analyse":12897,"▁Vel":12898,"▁bewiesen":12899,"▁erbaut":12900,"unch":12901,"▁Fac":12902,"side":12903,"tination":12904,"gab":12905,"▁Aufnahmen":12906,"▁Argentin":12907,"volles":12908,"▁Konsultation":12909,"▁vorgehen":12910,"▁Grundsätzen":12911,"▁sonstigen":12912,"▁inakzeptabel":12913,"▁Rassismus":12914,"verteilung":12915,"▁Plus":12916,"▁Allein":12917,"▁Sony":12918,"▁medizinischen":12919,"▁Schauspieler":12920,"▁Rußland":12921,"▁PRO":12922,"▁beliebigen":12923,"▁Stoff":12924,"▁Beobachter":12925,"stige":12926,"onte":12927,"▁unterwegs":12928,"▁Implemen":12929,"amens":12930,"▁Quark":12931,"▁Anhang":12932,"▁Büros":12933,"▁eigenem":12934,"▁traum":12935,"▁rob":12936,"▁Wertpap":12937,"produkt":12938,"▁Mol":12939,"ating":12940,"▁Extra":12941,"▁Geräten":12942,"▁verwirklichen":12943,"▁derjenigen":12944,"▁geograph":12945,"menade":12946,"alth":12947,"periode":12948,"▁ernsthafte":12949,"ooms":12950,"lagerung":12951,"▁spür":12952,"▁jährlichen":12953,"appe":12954,"▁Konf":12955,"▁Devis":12956,"älter":12957,"▁Abschluß":12958,"aw":12959,"itzer":12960,"▁85":12961,"▁demonstr":12962,"▁Ess":12963,"▁Adobe":12964,"▁passende":12965,"AV":12966,"ра":12967,"▁Fok":12968,"riz":12969,"▁begünst":12970,"▁Beschäftigten":12971,"▁Erz":12972,"ätter":12973,"▁stattdessen":12974,"▁HTML":12975,"▁m2":12976,"mäßigkeit":12977,"▁beschließen":12978,"sverhandlungen":12979,"▁beruflichen":12980,"▁q":12981,"▁Unterlagen":12982,"▁engen":12983,"▁oberen":12984,"▁Optimierung":12985,"▁nbsp":12986,"orth":12987,"▁beliebt":12988,"▁Einschätzung":12989,"ways":12990,"▁respektiert":12991,"▁Rubrik":12992,"bten":12993,"▁ausdrück":12994,"ütter":12995,"fektion":12996,"▁Anwendungsbereich":12997,"breite":12998,"▁Squ":12999,"▁jüd":13000,"▁theore":13001,"projekte":13002,"west":13003,"▁Halte":13004,"▁Rücken":13005,"▁Gelände":13006,"▁zeitgenöss":13007,"▁kürz":13008,"cal":13009,"▁schuld":13010,"▁Deck":13011,"▁lokaler":13012,"händler":13013,"ique":13014,"chtet":13015,"folgenden":13016,"▁Freuen":13017,"▁Bananen":13018,"▁Budapest":13019,"leitungen":13020,"ietet":13021,"▁allmäh":13022,"folio":13023,"▁Art.":13024,"▁Life":13025,"▁kritischen":13026,"film":13027,"▁Abstimm":13028,"kapital":13029,"▁geistigen":13030,"▁Wal":13031,"bereitung":13032,"▁47":13033,"▁öffnet":13034,"stätten":13035,"▁AU":13036,"usste":13037,"▁Rang":13038,"teln":13039,"▁2012":13040,"▁Halle":13041,"▁folglich":13042,"ungsvertrag":13043,"▁Rind":13044,"ungsweise":13045,"▁Einblick":13046,"▁Content":13047,"▁gefährden":13048,"▁Hyp":13049,"reform":13050,"▁Anim":13051,"wirtschaftung":13052,"▁Alexander":13053,"assten":13054,"▁700":13055,"▁erfasst":13056,"betrag":13057,"▁Sitzungen":13058,"gleichen":13059,"▁beeinflusst":13060,"▁did":13061,"▁externe":13062,"▁Ausschüsse":13063,"holfen":13064,"▁Gegenwart":13065,"speriode":13066,"▁Gül":13067,"▁bestens":13068,"▁Europol":13069,"▁ausgewählten":13070,"dateien":13071,"▁Anhörung":13072,"kn":13073,"▁organ":13074,"▁kontinuierlich":13075,"cis":13076,"ires":13077,"▁erneuerbaren":13078,"▁Kreativität":13079,"MA":13080,"asp":13081,"▁Vit":13082,"▁angestre":13083,"▁unterbreiten":13084,"unken":13085,"▁Rele":13086,"ions":13087,"▁Gerichten":13088,"▁Verteidigungspolitik":13089,"▁Unternehm":13090,"▁Regionalpolitik":13091,"üten":13092,"▁Konsum":13093,"▁investiert":13094,"otograf":13095,"▁schenken":13096,"▁Entsteh":13097,"▁platz":13098,"abkommens":13099,"▁erweiterten":13100,"▁bedauere":13101,"▁Brot":13102,"▁Wellen":13103,"▁top":13104,"▁telefon":13105,"▁Taxi":13106,"▁automatische":13107,"▁Erbe":13108,"▁vollem":13109,"▁Data":13110,"▁Fernseher":13111,"▁52":13112,"skosten":13113,"ación":13114,"▁Fertigung":13115,"▁Spannungen":13116,"▁krimin":13117,"▁Aufsicht":13118,"portiert":13119,"▁ärmsten":13120,"▁Pres":13121,"▁Ring":13122,"▁herkömm":13123,"▁Innerhalb":13124,"▁Motiv":13125,"▁erörtert":13126,"disziplin":13127,"▁Vergnügen":13128,"wig":13129,"esien":13130,"▁ve":13131,"▁IB":13132,"▁enth":13133,"▁Aufruf":13134,"▁Unterzeichnung":13135,"gründen":13136,"▁Mazed":13137,"▁Tir":13138,"ican":13139,"▁fortgesetzt":13140,"nes":13141,"▁eindrucks":13142,"▁park":13143,"plor":13144,"▁alleine":13145,"standard":13146,"▁Bedienung":13147,"mach":13148,"▁sech":13149,"▁Prei":13150,"▁Vermarkt":13151,"▁abschließend":13152,"▁Hann":13153,"ruppe":13154,"meldungen":13155,"▁Merkmale":13156,"was":13157,"▁Pr":13158,"▁Word":13159,"▁Ausfuhr":13160,"▁Palace":13161,"▁vorbereiten":13162,"ities":13163,"▁Konzepte":13164,"▁transatlan":13165,"▁Lande":13166,"okol":13167,"idad":13168,"tlicher":13169,"aka":13170,"▁geschütz":13171,"eher":13172,"geschn":13173,"▁Commer":13174,"▁entworfen":13175,"▁Techniken":13176,"▁weitaus":13177,"▁russische":13178,"▁Mountain":13179,"▁if":13180,"▁Hit":13181,"▁Ib":13182,"rick":13183,"▁Miner":13184,"▁Solche":13185,"▁Studium":13186,"▁gültig":13187,"▁kommerziellen":13188,"amo":13189,"▁repräsen":13190,"▁Import":13191,"▁kostengünst":13192,"▁angenehme":13193,"▁jemals":13194,"▁Weißbuch":13195,"▁Medikamente":13196,"▁beizutragen":13197,"lers":13198,"▁Kräften":13199,"▁Fehlen":13200,"▁Generalsekretär":13201,"▁Aluminium":13202,"SCO":13203,"▁Spezie":13204,"▁Rem":13205,"▁Eigentümer":13206,"▁fairen":13207,"▁Wolf":13208,"häusern":13209,"schuss":13210,"ritz":13211,"▁geschickt":13212,"museum":13213,"▁Neuer":13214,"▁eingeschränkt":13215,"lehen":13216,"▁bewirken":13217,"dernfalls":13218,"projekt":13219,"▁Foundation":13220,"ständigkeiten":13221,"▁Wartung":13222,"EF":13223,"▁Sorg":13224,"▁nukle":13225,"▁Mahl":13226,"▁Fi":13227,"▁Unfall":13228,"▁Champ":13229,"▁Galerie":13230,"▁gewünscht":13231,"▁Hochzeit":13232,"bilität":13233,"zicht":13234,"▁any":13235,"▁werfen":13236,"▁gestellten":13237,"utr":13238,"▁amb":13239,"▁Höhen":13240,"ridge":13241,"17":13242,"▁plötzlich":13243,"anschluss":13244,"mord":13245,"▁Hal":13246,"▁Rezession":13247,"▁einander":13248,"angehen":13249,"▁Fast":13250,"ärenz":13251,"▁Eigenschaft":13252,"▁Vene":13253,"▁Übereinkommens":13254,"hängt":13255,"isierungs":13256,"▁übermittelt":13257,"▁Gemäß":13258,"▁transpor":13259,"▁Sad":13260,"▁inbegriffen":13261,"vas":13262,"erzeug":13263,"▁Gitar":13264,"ehin":13265,"PA":13266,"weil":13267,"musik":13268,"▁Paläst":13269,"▁Attraktionen":13270,"▁Äußerungen":13271,"del":13272,"geschä":13273,"hone":13274,"initiative":13275,"▁är":13276,"▁fährt":13277,"▁Psych":13278,"▁been":13279,"▁verwalten":13280,"▁Besteuerung":13281,"famil":13282,"▁voneinander":13283,"deb":13284,"▁Vorgaben":13285,"▁zweier":13286,"▁Fluggesellschaften":13287,"▁erwähnte":13288,"▁vernünftig":13289,"▁detaillierte":13290,"▁Oberflächen":13291,"▁Canon":13292,"▁EF":13293,"urcht":13294,"▁leistungsst":13295,"schl":13296,"▁Jur":13297,"▁Interpret":13298,"▁Energiepolitik":13299,"▁Juden":13300,"86":13301,"▁konstruktive":13302,"▁melden":13303,"sweisen":13304,"▁Vorfeld":13305,"▁Hektar":13306,"riel":13307,"ро":13308,"▁Herkunfts":13309,"35":13310,"▁SAP":13311,"fügen":13312,"ruhe":13313,"▁Motto":13314,"▁Spir":13315,"▁gebildet":13316,"▁beschreiben":13317,"oci":13318,"▁getötet":13319,"▁Tib":13320,"▁Unsicherheit":13321,"▁nachdenken":13322,"achtungen":13323,"board":13324,"▁erläutern":13325,"ining":13326,"▁Mes":13327,"▁Kathedr":13328,"position":13329,"▁gehandelt":13330,"iland":13331,"geschritten":13332,"iana":13333,"ures":13334,"▁schwarz":13335,"▁angewiesen":13336,"kurse":13337,"▁endgültig":13338,"▁Golden":13339,"▁Bewältigung":13340,"▁vernünftige":13341,"▁erörtern":13342,"oter":13343,"änen":13344,"▁MA":13345,"▁köst":13346,"▁gelernt":13347,"▁unterbreitet":13348,"▁begründet":13349,"▁Mach":13350,"▁Fähr":13351,"▁Neues":13352,"▁demokratischer":13353,"▁Experi":13354,"▁gast":13355,"dig":13356,"ahrung":13357,"▁Jazz":13358,"rans":13359,"▁Kapazitäten":13360,"▁Ministerrat":13361,"▁mobile":13362,"▁Tit":13363,"▁messen":13364,"▁line":13365,"▁aktualisieren":13366,"▁located":13367,"berichte":13368,"▁bearbeitet":13369,"▁Strasse":13370,"▁Angriffe":13371,"▁Weiterbildung":13372,"▁Verluste":13373,"▁gratis":13374,"bro":13375,"▁Rö":13376,"andten":13377,"▁Aufwand":13378,"▁normale":13379,"ungsmaßnahmen":13380,"▁vertrau":13381,"▁Puerto":13382,"▁·":13383,"▁Hub":13384,"gesprä":13385,"▁geschafft":13386,"▁Whirl":13387,"▁lib":13388,"▁Entspannen":13389,"▁ohnehin":13390,"▁Bezahlung":13391,"ables":13392,"▁eingebunden":13393,"▁Cockta":13394,"ünde":13395,"höhe":13396,"alteten":13397,"▁Stockhol":13398,"▁Elektronik":13399,"▁Folter":13400,"schutzes":13401,"▁konzipiert":13402,"wood":13403,"▁Gü":13404,"ängern":13405,"▁Diam":13406,"▁ältere":13407,"▁Getrei":13408,"▁Dritter":13409,"▁zeigte":13410,"orben":13411,"▁Abstimmungen":13412,"gewogen":13413,"▁gelegene":13414,"▁grundlegender":13415,"▁aufer":13416,"▁arg":13417,"hause":13418,"▁Mobile":13419,"ores":13420,"▁Batter":13421,"▁Stutt":13422,"▁vorhin":13423,"rüger":13424,"▁rechtfertigen":13425,"▁Generald":13426,"▁fur":13427,"ürzen":13428,"isst":13429,"▁James":13430,"▁beiträgt":13431,"▁multination":13432,"▁einhalten":13433,"▁verdeut":13434,"▁Cy":13435,"ährungs":13436,"▁Zuständigkeiten":13437,"▁marquis":13438,"▁schrittweise":13439,"▁technologische":13440,"athem":13441,"▁Aktualisierung":13442,"▁ausführen":13443,"▁Report":13444,"länen":13445,"▁klimatis":13446,"lüssen":13447,"server":13448,"▁Road":13449,"▁modernes":13450,"▁170":13451,"unkel":13452,"▁Kreditkarten":13453,"▁Besuchern":13454,"▁einzugehen":13455,"▁Kirk":13456,"▁exklusiven":13457,"alifor":13458,"▁bilateralen":13459,"▁Mallorca":13460,"▁Cour":13461,"▁stützen":13462,"▁gebraucht":13463,"km":13464,"▁DER":13465,"▁Anbau":13466,"▁Flugzeuge":13467,"▁erinnere":13468,"ough":13469,"▁Mund":13470,"trollen":13471,"▁eingerichtete":13472,"▁angeblich":13473,"▁typische":13474,"träger":13475,"▁ü":13476,"▁Monitor":13477,"▁erfolgte":13478,"regungen":13479,"▁Weihnacht":13480,"ey":13481,"▁Arbeitsbedingungen":13482,"▁Wille":13483,"▁grenzüberschreitende":13484,"dungen":13485,"▁BMW":13486,"elemente":13487,"recken":13488,"▁konkur":13489,"▁Präz":13490,"▁Ecke":13491,"▁begangen":13492,"▁Realisierung":13493,"ulse":13494,"▁Ähn":13495,"▁Lehre":13496,"▁Darin":13497,"▁Betroffenen":13498,"sm":13499,"▁Verkäufer":13500,"▁Transaktionen":13501,"▁Johannes":13502,"bach":13503,"▁zielt":13504,"▁befind":13505,"▁gutem":13506,"▁Ideal":13507,"▁registriert":13508,"▁Kron":13509,"▁Porto":13510,"▁Café":13511,"▁dokumen":13512,"▁pas":13513,"▁Cent":13514,"▁Liban":13515,"▁interessieren":13516,"▁Versorgungs":13517,"▁erkenn":13518,"▁Scheitern":13519,"▁bedauern":13520,"spflicht":13521,"▁Atlantik":13522,"▁Resolution":13523,"▁DS":13524,"▁realisieren":13525,"VO":13526,"▁GM":13527,"▁örtlichen":13528,"swerten":13529,"▁Entdecken":13530,"▁trocken":13531,"eres":13532,"iera":13533,"▁beauf":13534,"▁Vogel":13535,"▁Panoram":13536,"▁womit":13537,"▁other":13538,"ronomie":13539,"verbindungen":13540,"▁doppel":13541,"▁Blan":13542,"▁Vorredner":13543,"stil":13544,"▁ziel":13545,"▁Loch":13546,"led":13547,"spläne":13548,"▁Administration":13549,"ко":13550,"▁Mix":13551,"▁nötigen":13552,"▁Zufriedenheit":13553,"▁erstaun":13554,"▁derar":13555,"▁Bele":13556,"ush":13557,"antas":13558,"▁realen":13559,"▁Geschlecht":13560,"bte":13561,"▁erlangen":13562,"▁mithilfe":13563,"▁Abstand":13564,"▁Behaupt":13565,"oberfläche":13566,"felder":13567,"▁kritisch":13568,"▁kritisiert":13569,"beg":13570,"▁Segel":13571,"▁vorsichtig":13572,"ugt":13573,"▁Are":13574,"▁Inhalts":13575,"▁Auftraggeber":13576,"▁beurteilen":13577,"gelegen":13578,"weif":13579,"▁Flüge":13580,"▁betrieb":13581,"arbeiteten":13582,"▁Vorsitzender":13583,"▁archite":13584,"har":13585,"▁Soweit":13586,"▁technologischen":13587,"▁herrliche":13588,"▁Disziplin":13589,"ößt":13590,"sil":13591,"▁ratifiziert":13592,"ZE":13593,"▁Überarbeitung":13594,"▁Metern":13595,"▁Kompromiß":13596,"▁Fal":13597,"▁testen":13598,"▁einzuhalten":13599,"▁Dolom":13600,"erre":13601,"▁Eintrag":13602,"▁Überra":13603,"▁Verantwortlichen":13604,"verschmutzung":13605,"▁Len":13606,"▁Zubehör":13607,"▁Verträgen":13608,"▁XP":13609,"▁Tickets":13610,"▁Abl":13611,"▁bist":13612,"gebühr":13613,"▁freundlichen":13614,"▁Erwachsenen":13615,"▁Gepäckraum":13616,"▁Tar":13617,"▁Vereinigung":13618,"akete":13619,"▁Zit":13620,"▁1,5":13621,"▁echt":13622,"listen":13623,"otel":13624,"erten":13625,"▁Zimmerservice":13626,"▁verbesserte":13627,"▁Bewegungen":13628,"▁Kloster":13629,"▁Lot":13630,"▁aussch":13631,"▁Gestatten":13632,"aufgaben":13633,"läub":13634,"▁Freiwill":13635,"▁Ostsee":13636,"▁Tarif":13637,"▁Sei":13638,"obel":13639,"eland":13640,"▁Viet":13641,"▁enttäuscht":13642,".2010":13643,"▁angefangen":13644,"▁54":13645,"geschoss":13646,"▁Emp":13647,"▁tätigen":13648,"▁unerlässlich":13649,"▁Wiener":13650,"▁flexible":13651,"▁della":13652,"▁programm":13653,"AB":13654,"▁ansonsten":13655,"rinken":13656,"konzept":13657,"würfe":13658,"▁Whirlpool":13659,"▁Reb":13660,"▁Spuren":13661,"▁unzureichend":13662,"▁irak":13663,"▁could":13664,"▁SL":13665,"▁Sel":13666,"▁zukunft":13667,"▁Rod":13668,"drich":13669,"▁Lehren":13670,"▁falschen":13671,"sparungen":13672,"▁Schnee":13673,"▁kulin":13674,"▁Tam":13675,"▁Schwar":13676,"▁schreibt":13677,"▁One":13678,"itation":13679,"flanz":13680,"▁irische":13681,"▁idealer":13682,"▁Anhänger":13683,"ämm":13684,"ori":13685,"ausenden":13686,"leih":13687,"▁erreichte":13688,"▁bekräftigt":13689,"▁verwöhnen":13690,"altete":13691,"▁Dich":13692,"▁fehler":13693,"▁Pakt":13694,"▁gesonder":13695,"fiziert":13696,"▁vereinfachen":13697,"▁Legislativ":13698,"▁erläutert":13699,"▁Haushalte":13700,"▁erzielten":13701,"▁Gipfels":13702,"▁vielfältigen":13703,"▁unterhalten":13704,"ardin":13705,"tika":13706,"▁Stabilitätspakt":13707,"▁area":13708,"▁drücken":13709,"quid":13710,"▁verwaltet":13711,"▁Lebensmitteln":13712,"greifende":13713,"▁Brut":13714,"▁kons":13715,"▁südlich":13716,"▁Echtzeit":13717,"dh":13718,"▁wöch":13719,"▁mündlichen":13720,"fisch":13721,"▁AM":13722,"▁Griff":13723,"eux":13724,"ture":13725,"invest":13726,"▁av":13727,"hörigkeit":13728,"▁gelö":13729,"▁bevorstehenden":13730,"▁VER":13731,"▁Jugendher":13732,"▁schlechten":13733,"▁Subventionen":13734,"▁Ehren":13735,"onischen":13736,"leister":13737,"▁gesammelt":13738,"▁meistens":13739,"utton":13740,"bewegung":13741,"AU":13742,"▁Hör":13743,"▁Ly":13744,"▁Null":13745,"▁Quart":13746,"▁Kurse":13747,"▁größerer":13748,"geschneider":13749,"500":13750,"lus":13751,"osa":13752,"▁Ausbildungs":13753,"▁Hotelsafe":13754,"▁diskrimin":13755,"▁Tschechischen":13756,"▁UND":13757,"▁trop":13758,"▁Regimes":13759,"▁traditionell":13760,"befinden":13761,"▁kurzfristig":13762,"iefer":13763,"▁Herberge":13764,"echslungs":13765,"▁Anweisungen":13766,"▁Anregungen":13767,"▁Beton":13768,"▁teilgenommen":13769,"▁Verkaufs":13770,"▁Thermal":13771,"liessen":13772,"▁Aufforderung":13773,"▁praktiz":13774,"▁zunehmende":13775,"▁alternative":13776,"▁Schattenberichterstat":13777,"▁weib":13778,"▁relevanten":13779,"▁Unterdrückung":13780,"gelung":13781,"▁Unionsbür":13782,"spolitische":13783,"▁Hyd":13784,"BS":13785,"V.":13786,"einheiten":13787,"rechnung":13788,"▁Demokratisierung":13789,"▁strenge":13790,"▁MP3":13791,"▁every":13792,"▁Monats":13793,"▁registrieren":13794,"▁Litauen":13795,"▁Maastricht":13796,"schungen":13797,"▁Kra":13798,"▁schlicht":13799,"▁gewachsen":13800,"▁Gumm":13801,"▁Domain":13802,"▁Simbab":13803,"▁Ursprung":13804,"▁Si":13805,"▁anzeigen":13806,"zenzen":13807,"▁Bewertungen":13808,"▁entscheidet":13809,"status":13810,"▁Gesetzgeb":13811,"▁Hamas":13812,"funktionen":13813,"▁Gesprächen":13814,"▁keinesfalls":13815,"▁McC":13816,"IK":13817,"tional":13818,"▁live":13819,"▁irgendein":13820,"▁inclu":13821,"▁syn":13822,"llektu":13823,"▁solide":13824,"werbung":13825,"ania":13826,"▁herstellen":13827,"▁Music":13828,"▁globaler":13829,"bedürf":13830,"▁Snow":13831,"gin":13832,"uc":13833,"▁AT":13834,"rock":13835,"▁Mazedonien":13836,"lehnen":13837,"öße":13838,"▁aufrechter":13839,"▁Rats":13840,"ändig":13841,"▁angeben":13842,"▁verlänger":13843,"▁Taiwan":13844,"bungen":13845,"▁vorteil":13846,"▁Moskau":13847,"▁denk":13848,"ehend":13849,"▁Darauf":13850,"▁UNE":13851,"▁Hum":13852,"▁Stell":13853,"▁Einzelnen":13854,"▁Amerikas":13855,"▁resultieren":13856,"▁Malta":13857,"▁Jeden":13858,"▁schließe":13859,"▁Multim":13860,"▁Corporate":13861,"▁Übersetzungen":13862,"▁Fair":13863,"greift":13864,"▁Kathedrale":13865,"gart":13866,"▁Verg":13867,"▁bedenken":13868,"ople":13869,"schauer":13870,"warten":13871,"▁Liby":13872,"▁Lebensqualität":13873,"▁mitgeteilt":13874,"ktiver":13875,"▁Bang":13876,"▁Trink":13877,"▁Analysen":13878,"▁Albanien":13879,"card":13880,"ücke":13881,"▁frisch":13882,"▁idealen":13883,"▁Virus":13884,"güter":13885,"▁derartigen":13886,"schla":13887,"▁B5":13888,"▁kauf":13889,"endo":13890,"▁Ausstellungen":13891,"▁Spanisch":13892,"▁Gewerkschaften":13893,"baum":13894,"▁namens":13895,"▁hielt":13896,"▁Hon":13897,"▁geleiste":13898,"▁Reaktionen":13899,"sprochen":13900,"▁Playa":13901,"▁Gerichtshofs":13902,"fi":13903,"▁Rande":13904,"▁Tempo":13905,"▁analysieren":13906,"▁irgendwelche":13907,"▁Kohle":13908,"▁Mah":13909,
[...]
