#version: 0.2 - Trained by `huggingface/tokenizers`
▁ t
▁ a
h e
i n
r e
▁t he
o n
e r
▁ o
a t
▁ ,
▁ s
e n
▁ w
i s
▁ c
▁ .
i t
n d
o r
e s
▁ p
▁ f
▁o f
▁ b
a n
▁ in
i on
a l
# #
o u
▁t o
e d
▁a nd
a r
in g
▁ m
i c
r o
▁ d
▁t h
en t
l e
▁ h
a s
▁ re
o m
▁ n
i l
s t
A T
v e
c t
## AT
##AT ##
▁ e
▁ is
o t
▁ T
▁b e
▁ I
▁ l
l y
at ion
▁f or
u r
▁ on
o s
▁th at
u t
▁ g
▁ C
e t
i d
c e
i m
m ent
o l
u s
▁ S
▁p ro
r a
▁ y
e l
▁ A
▁ M
it h
v er
▁c on
p e
▁ &
▁ E
i g
▁T he
▁w ith
▁a l
c h
▁ P
o w
▁w h
u l
▁s t
q u
▁ ##AT##
- ##AT##
▁##AT## -##AT##
▁a re
▁ it
or t
a y
▁a s
▁w e
▁y ou
i r
a p
re s
▁d e
a d
il l
▁a n
u n
▁c om
er s
l d
a m
i es
at e
▁th is
▁h a
t er
▁ W
▁s u
b le
it y
es s
i f
▁e x
g e
he r
▁o r
▁ v
▁ B
p ort
▁n ot
o p
e m
▁n e
es t
i ve
k e
▁b y
an t
▁ha ve
▁a t
ic h
o re
is t
a in
ap os
apos ;
▁& apos;
u st
▁ F
n t
s e
ar t
ou ld
▁ r
u ro
ro m
o c
ig h
▁s e
o d
▁w ill
▁s h
i v
▁wh ich
▁E uro
▁ 1
▁ H
i al
a c
▁ en
▁Euro pe
▁f rom
▁ G
i a
u m
e ct
▁ 2
▁ us
▁ D
u re
▁ (
▁ R
▁c an
▁ )
▁ he
ion s
▁h as
▁al l
▁ im
ou r
om m
ar d
a nd
▁ le
▁ L
igh t
s ion
▁ u
p l
en d
r i
0 0
▁ U
▁w or
▁w as
▁o ur
t e
▁re s
▁ O
▁c h
▁I n
i e
▁C omm
▁Europe an
al l
b er
▁com p
▁T h
t h
▁ N
s o
u d
f f
t her
▁a d
r ou
ic al
a k
at ed
c c
ou nt
qu ot
as t
▁con t
▁ :
a ble
▁al so
ou s
ver y
o st
▁a g
d u
▁& quot
▁&quot ;
▁p art
▁m e
a b
▁p l
▁ -
i re
ation s
an s
id e
a ge
ul t
▁a p
ou t
▁d o
om e
a g
▁you r
p t
▁ un
▁it s
is sion
ve l
▁W e
▁&apos; s
a re
▁a b
ic e
▁S t
re e
el l
p er
▁w he
a ct
a ke
i p
▁b ut
an ce
▁the re
or m
▁g o
in e
▁I t
o g
▁ j
▁Comm ission
▁M r
▁ qu
g h
ment s
ar y
▁re g
u e
▁in c
▁w ould
id ent
▁ k
▁m ore
ct ion
on g
at es
it ion
▁t r
▁the ir
i z
▁d is
▁m an
▁s o
▁c l
▁in t
▁be en
▁p ol
os e
ter n
e re
in d
im e
▁a m
re at
e ar
▁on e
▁Th is
c on
▁l i
f orm
er v
▁U n
ar k
a il
▁sh ould
p port
al ly
▁a cc
r u
▁u p
▁ ro
▁o ther
er m
is h
▁wor k
▁t ra
▁ne w
ig n
▁of f
▁c ount
▁com m
▁ ’
s i
▁P res
r y
as e
▁o ut
▁s pe
it e
o k
a ce
u b
a ch
p os
▁m ust
en ce
▁p r
c ial
▁p re
▁ V
▁wh o
res s
ation al
ac k
▁t e
▁li ke
▁ J
it ies
or d
▁p os
ot el
▁c o
▁ very
▁ne ed
en s
▁the y
▁p e
on e
ar l
▁y ear
n c
▁Pres ident
▁in d
▁ K
▁pro du
▁e v
in t
▁2 00
▁t ime
▁on ly
am e
▁con s
▁a r
▁be c
▁ /
j ect
a us
▁ab out
▁th an
▁u nd
em ber
▁an y
▁p er
i ous
p ro
▁pro v
▁r ight
vel op
is e
▁n o
▁ ?
a v
c ess
▁p o
arl ia
▁be t
l l
▁the se
▁re l
e p
f ore
▁re c
p le
arlia ment
▁s y
ra m
▁im port
▁s p
▁ 3
ut ion
▁re port
as s
il ity
▁ ra
▁de velop
or s
k s
en c
▁ if
op le
▁Un ion
w n
▁& #
ir st
▁a ct
o b
n ow
▁the m
er n
i an
▁s erv
▁ Y
r ies
▁tr ans
▁f e
u res
f ere
▁e m
▁o ver
st em
▁P arliament
o y
aus e
ing s
▁in st
l ic
▁con c
er t
▁de c
l ud
an g
ul ar
▁e ff
▁E U
i le
g et
▁pe ople
▁int o
w e
ay s
▁su b
▁1 9
if ic
▁d es
pe ct
▁w ell
re d
▁m y
ie w
o v
o ok
▁su pport
▁s ome
▁us e
u al
ou nc
▁we re
▁wh at
▁C h
▁su ch
▁s a
f ul
▁St ates
▁o p
f t
▁sy stem
ad e
▁ad d
▁o b
x t
u nd
▁M ember
▁d if
con om
ic es
c ed
▁s c
▁m ark
le ct
r ic
▁und er
▁f irst
▁in form
i ent
▁count ries
res ent
▁f in
▁whe n
d er
▁m ost
▁in v
▁ !
▁ ;
▁l oc
. .
ounc il
▁&# 9
at ing
▁part ic
il d
▁h is
r it
at er
ire ct
▁k now
at ive
▁C ouncil
rou gh
▁pol ic
▁c ent
▁n ow
si ble
▁import ant
ou nd
or y
▁ag ain
▁j ust
▁h ow
▁m ake
e ver
▁t w
l ow
▁inc lud
▁pro g
▁h otel
▁g u
he n
an ge
we en
▁e conom
▁ –
▁ ent
▁in te
▁man y
▁b as
▁at t
▁bet ween
in k
he d
re n
▁pro pos
c es
▁re qu
▁as s
▁in tern
ce pt
ou gh
▁. ..
▁de m
rou p
▁mark et
o ve
▁bec ause
▁t ake
t ed
f ter
i ed
▁s it
▁wor ld
▁A s
p on
▁m od
▁l a
▁for m
▁c ol
ur al
▁ro om
an y
ent ion
ub lic
▁s oc
▁re m
▁whe re
ard s
▁ex t
▁ 4
▁m ade
al ity
▁le g
▁dis c
▁a c
▁inform ation
p h
▁tw o
▁c le
▁h igh
▁po int
▁g reat
iv es
ot h
▁se e
▁go od
▁year s
▁e very
ur ing
ch n
▁a v
▁ 5
▁I f
▁p ers
▁w ay
▁produ ct
▁ev en
rou nd
▁is s
▁th rough
▁C on
ol og
ra ct
▁b u
al s
ri b
▁s ol
▁th ose
▁d irect
en er
▁s et
▁h ad
a x
▁w ant
▁m in
o od
▁pol it
ble m
u es
ar m
▁O n
ow n
g y
▁ag ree
▁polic y
▁o wn
ver n
▁t ak
▁a ut
ab l
▁be ing
▁pro blem
▁m ay
ie ve
d ay
it ed
ar ge
ro w
is m
ag es
e w
ic k
i b
ver s
▁The re
▁st r
▁ap pro
▁f act
▁l ong
▁pro t
▁v iew
▁partic ular
▁n um
un ity
▁ ke
ur n
am p
▁be l
g an
c k
u ch
▁pro cess
l p
▁v ot
el f
t ing
re st
em b
l and
▁tra d
▁s m
▁res pon
▁prog ram
▁Y ou
a ir
▁c ur
▁or der
▁dif fere
▁qu est
re ad
▁are a
▁c our
▁b us
▁m ain
▁c ar
▁he re
▁en d
▁re st
▁c re
▁f ind
▁m on
is ion
in es
▁c all
in ce
▁S e
▁R e
▁F or
▁A m
▁te chn
▁de f
m e
▁f ul
▁a fter
▁polit ical
▁comp le
um an
▁sit u
▁re f
▁pl ace
▁de b
▁t erm
or k
▁p h
ow er
i et
▁pers on
▁ex p
▁in ter
▁conc ern
▁pos sible
▁p ublic
▁he lp
ru ct
▁con f
▁2 0
▁s ame
▁prov id
enc y
▁W h
ou se
in ess
n ing
▁f l
▁ap pl
▁ex per
r at
▁econom ic
▁eff ect
▁acc ess
re nt
▁prot ect
v ed
▁cle ar
▁count ry
▁ “
at h
▁cont in
▁s er
▁s ay
▁s im
▁inc re
ir on
▁develop ment
▁D e
▁re p
ent s
▁do es
▁c ould
▁inte rest
▁a w
il y
▁le vel
us s
▁the n
t en
▁with in
is ed
▁right s
it te
he s
▁res ult
▁st and
▁d el
▁se c
▁ex am
▁ %
▁f ree
▁av ail
ert ain
▁p resent
▁again st
▁there fore
▁b oth
ar ch
▁us ed
n er
i o
t s
▁e qu
▁v al
r on
▁H ow
▁d ist
▁m uch
▁f ol
▁P ro
as on
▁m et
▁ est
▁g et
▁g ener
▁d et
ut e
▁A l
it ions
ust om
v iron
ut ions
▁d at
▁pl ay
▁g l
h ip
iv en
pl oy
▁f und
▁soc ial
▁G erm
▁m ak
▁fin an
n ot
▁v is
▁h uman
p ly
ical ly
▁differe nt
▁ ”
▁m at
▁c r
▁g roup
ic t
▁f am
▁s ign
▁H otel
▁with out
▁s ur
▁le ad
▁me as
itte e
▁spe c
r an
a j
er ation
viron ment
u c
▁num ber
ol d
▁th ink
▁en s
▁l ast
▁intern ational
▁v ar
it s
con d
▁all ow
▁go vern
▁serv ices
▁b l
▁re al
▁con d
▁or gan
r ation
▁o per
▁st ill
emb ers
▁avail able
▁c ap
▁ha nd
n g
▁requ ire
en e
▁b ack
ist s
▁ 6
▁ad v
l es
si b
ic s
ur ther
▁con st
▁spe cial
▁f ut
▁op en
read y
▁bus iness
al k
▁l ook
▁comp et
h ing
▁c ustom
▁cur rent
▁off er
t y
el s
n ce
▁bel ieve
▁fol low
▁pro ject
▁al ready
▁be fore
ul ation
1 ;
▁&#9 1;
u g
▁fut ure
ion al
▁st art
3 ;
▁&#9 3;
▁sm all
ant s
o pe
▁a ir
▁d own
▁n ational
▁Th at
p r
▁cour se
▁pre v
▁to day
l ed
▁product s
i ence
▁c or
▁st ate
r al
ple ment
al th
▁in s
▁m ed
▁a ble
▁en vironment
▁H e
n ess
om et
▁ind ust
▁to o
▁des ign
▁A ll
▁qu ality
it iz
▁pro m
▁A r
it al
▁ ide
v ing
▁serv ice
i er
▁can not
ic ation
▁dat a
h or
▁c ertain
▁c ase
▁d ay
t le
ur ity
▁l if
▁ar t
s s
▁re v
▁c he
el d
ate ly
▁Commission er
▁cont ro
▁reg ard
is hed
▁off ers
▁quest ion
▁f ac
an k
c om
v es
▁p ut
▁la w
▁b r
▁im pro
aj or
le ase
▁s ince
▁p ur
▁B ut
▁me et
▁b o
f ort
i x
▁e as
ud get
▁A t
ap p
▁in f
▁b est
iv ing
u ally
l ess
▁finan cial
▁c itiz
ar g
▁re ason
▁d uring
in c
▁deb ate
▁n at
▁a ch
▁t er
▁sa id
cc ess
▁19 9
oc k
▁iss ue
▁ 7
▁c ity
ere d
▁propos al
▁me ans
▁res pect
▁ her
ir d
▁sa f
ain s
▁1 0
▁c ost
▁we b
▁exam ple
at her
▁ 0
▁be h
▁as k
▁pro f
ar s
▁l arge
▁ ed
▁im plement
in ation
▁m ajor
▁l ist
▁ 8
▁How ever
in ing
▁d ra
▁sh ow
▁includ ing
▁se ct
▁f ound
▁e lect
▁situ ation
qu e
▁ne cess
▁co op
▁ 9
id er
▁O ur
in ed
is ation
if ied
iv id
▁comm on
▁am end
▁A nd
▁en er
▁res ol
▁ es
▁W ith
y s
in a
is s
▁ch ild
▁fe w
▁bas ed
▁e ach
w ays
▁f un
▁ad op
ent ial
▁ob ject
ab ility
iz ed
▁citiz ens
▁re du
n e
re ed
▁S p
▁su p
▁h ist
l us
▁act iv
m it
▁inst it
p are
▁im p
im es
il ities
▁re t
▁Comm ittee
▁room s
m en
▁dem oc
w are
▁c ult
▁re ad
▁th ree
ill ion
▁meas ures
▁rep resent
▁inv est
▁aut hor
▁are as
▁em ploy
▁p ower
i vers
▁In tern
▁g ive
c ome
▁ens ure
▁su ccess
▁ener gy
▁ne xt
▁o pt
▁bu ild
▁acc ount
▁re ce
as ed
▁t y
▁f urther
olog y
▁b udget
▁g row
▁ne g
v en
▁prov ide
i eld
▁tak en
w ard
▁U S
▁est abl
▁agree ment
▁de p
▁A n
ot her
▁T o
ition al
ent ly
▁I s
▁ Z
om en
▁st ay
al f
it ive
▁f ar
▁se cond
an n
▁p ay
i um
e c
▁p ass
j oy
l ine
f ic
e ur
▁ex pl
a ut
▁comp any
▁ke y
is ing
i k
▁o pport
i ble
▁ac cept
▁com e
▁problem s
▁sh all
▁necess ary
▁f ore
is l
▁s omet
▁pos ition
as es
▁ch ange
ro ss
est s
n ect
▁sec urity
ul es
o int
▁h ope
a z
a ur
▁pr iv
▁pr inc
▁st ud
re ak
ut es
▁he alth
▁g iven
▁wh y
▁in it
▁p ract
▁L e
▁how ever
t ain
▁p res
st and
▁coop eration
▁o ld
ob al
▁f il
▁e le
▁d r
▁inv ol
▁vot e
E R
pe cial
on d
ra ph
▁lif e
▁protect ion
he re
▁w el
▁im m
▁wh ile
ri end
▁a ff
▁d id
▁comple te
▁contro l
ce ll
▁t our
sib ility
▁need s
▁p op
▁al ways
▁comm un
▁cl ose
▁leg isl
▁s k
iet y
▁n ame
▁ex c
▁The y
▁loc ated
en g
▁ind ivid
▁com b
er ic
ant e
▁str ate
▁de al
▁h app
iz e
age ment
00 0
▁sh ort
▁a ction
o ad
▁ ver
▁bet ter
▁ful l
a ve
▁& amp
▁&amp ;
▁cons um
c y
▁us ing
in al
l ing
fere nce
▁f av
▁m us
▁Wh at
re t
▁G roup
w ards
▁Un ited
e k
▁l ess
▁vis it
ur g
▁cons ider
▁un t
c ing
▁inte g
▁ch o
▁con nect
▁l it
▁p ar
ir m
ra d
ur y
▁1 5
▁n et
▁work ing
▁produ ction
▁Am eric
▁S o
n ers
▁trans port
▁p ri
▁a round
▁W hen
▁leg al
a u
▁c rit
▁en joy
▁E x
▁spec ific
un g
▁ch ang
p ar
▁Mr s
▁wor d
our ces
▁whe ther
if y
▁e l
▁term s
▁particular ly
▁Comm unity
▁ra pport
▁c are
▁to get
▁toget her
s el
▁I nd
▁trad e
▁bec ome
▁st ep
on s
in s
▁sub ject
is es
▁rapport eur
p or
▁mak ing
▁ Q
fic ult
▁H ouse
▁s he
▁s ing
i od
▁r un
▁dif ficult
al e
▁The se
▁f ield
▁mod ern
▁re se
▁individ ual
▁an other
ou ra
g g
and s
▁gl obal
▁M ad
a ff
et s
▁cont rib
an ies
▁f riend
▁who le
▁child ren
im s
▁pro per
o ver
▁iss ues
▁1 2
▁b ene
▁w ater
▁prom ot
▁pl an
▁n on
pecial ly
ight s
ort h
u p
▁l im
▁ex ist
ar ante
▁cent re
▁cond itions
▁te xt
▁be g
ol id
▁loc al
i ation
▁add ress
▁sect or
▁system s
ft ware
▁th ird
▁equ ip
en se
i ver
oc u
▁spe ak
f er
▁acc ord
▁var ious
▁ro le
in ist
ment al
▁indust ry
A R
▁comm it
▁comp anies
▁gu arante
▁t ax
sel ves
▁exper ience
ang u
▁w omen
▁mon th
▁bas is
ive ly
▁ ##
▁w rit
▁b ook
1 2
▁mat ter
u x
▁ap pe
▁ne ar
▁o cc
▁p ack
▁A d
▁1 8
▁es pecially
▁per form
reat y
▁g ent
f act
▁su m
▁call ed
▁s ite
▁m embers
▁eff ort
re en
▁C ent
▁or ig
▁d one
▁r is
n ov
▁S w
▁b reak
▁disc uss
im ate
▁pro ced
▁rese arch
▁f ram
▁be aut
▁th ough
▁b ed
▁neg ot
is ions
▁m ove
▁Germ an
▁re ally
▁gent le
▁B e
▁b ro
▁cre ate
th ing
▁reg ion
1 0
ater ial
▁p at
▁to p
iv ed
▁d ocu
▁A g
▁w ish
▁pri or
▁per iod
il it
▁fe at
i que
▁str ong
▁impro ve
▁p ress
enc es
▁w ar
▁ar r
▁ z
ro du
▁f ood
▁N o
▁t urn
one y
an ces
▁se ver
ic ient
▁dec ision
▁govern ment
et y
pt ion
a h
o ol
our s
▁m illion
▁G o
end ed
ad ies
▁am ong
▁P l
▁S h
▁com fort
▁than k
iz ation
▁somet hing
▁st ruct
▁resol ution
▁an n
▁j ob
▁p age
▁its elf
▁p le
▁en g
▁sever al
▁sing le
▁l angu
og n
▁rest aur
ic ations
▁gener al
t ic
▁ex cell
c o
end ing
at ic
▁l ine
▁program me
as ing
▁init i
▁contin ue
▁h ome
▁person al
▁l ab
▁gentle men
▁Germ any
O R
▁web s
▁net w
▁m aterial
▁m ult
▁F in
▁cont act
▁le t
▁int rodu
▁go ing
or ies
▁d ou
▁en c
ish ing
▁ser ious
▁man agement
▁to wn
is is
▁of ten
it her
▁det ail
p ed
ab ly
▁pe ace
ro om
▁op in
▁direct ive
ip le
▁rel ations
▁ad m
▁B ar
▁s l
ou th
▁g r
od y
S T
p ri
ew ork
▁le ast
▁ ve
▁r ules
▁follow ing
▁m ot
▁k ind
ific ation
ric ult
▁under stand
▁bene f
▁E n
i pl
ra nd
▁cr isis
r or
▁P ol
▁for ward
▁r ange
ri ed
▁aw ay
▁fam ily
▁partic ip
s ide
le g
▁re form
▁cl ass
▁negot i
▁to wards
le v
as h
are d
▁h ard
▁b ar
▁m ention
▁prog ress
▁C om
▁on ce
▁wel come
er ing
▁ ess
▁exp ress
▁ch ar
▁T ur
▁fe el
th ough
▁b al
▁rec ogn
▁to t
▁so ftware
▁Mad am
▁m oney
▁e t
▁rev iew
▁th ings
▁custom ers
▁ap art
▁instit utions
ric t
▁C l
▁3 0
▁excell ent
▁a id
▁unt il
▁pr ice
is ter
▁ex pect
▁s w
▁T reaty
▁loc ation
▁&apos; t
▁A f
▁col le
▁ke ep
▁know n
▁p ost
▁fav our
▁lit tle
▁d ays
▁M on
▁A p
▁inst all
▁appro ach
▁M ar
i ol
air s
▁st aff
z e
▁beg in
▁ext re
▁incre ase
▁opport unity
ap s
▁br ing
id ency
▁fun ction
▁h im
▁prof ess
▁M embers
▁ach ieve
se qu
o or
w ay
▁priv ate
▁activ ities
at ives
f ect
▁It al
▁cl os
at or
▁su ff
▁200 9
▁r ather
b y
if ul
p ing
v ention
ist ic
▁part ners
e ed
▁P r
m ost
g t
▁res ources
▁me an
▁N ew
t ers
os p
▁ap p
id es
▁tr y
i ans
▁qu ite
▁grow th
▁t re
▁t reat
▁w ide
▁provid ed
▁ful ly
reed om
▁de v
▁St ate
▁f oc
it or
te xt
▁m ight
▁se em
▁G u
▁b ig
n a
ra cy
er y
▁t as
▁w alk
▁techn ology
▁l adies
▁f our
▁requ est
▁p ort
▁S c
m b
▁sign ific
a f
▁l ight
▁y et
▁h ig
▁propos als
▁a im
▁val ue
▁amend ments
▁tra vel
m ber
▁st at
ac es
▁F r
er g
▁includ e
▁T e
▁b ord
▁le ft
▁ed uc
▁W or
ron t
▁ph ot
▁he art
▁ha ving
▁A fter
u le
▁sol ution
▁saf ety
f ast
▁O r
▁fram ework
▁al ong
▁tak ing
rat ic
▁st ren
▁rem ain
▁reg ul
▁ev ent
▁inst ru
▁R o
p ose
id ence
▁s at
ir c
▁cost s
ful ly
▁ab ove
▁adop ted
ic ial
▁ab s
▁t imes
▁e ar
▁P al
▁cont ent
▁ess ential
▁add ition
▁c reat
▁rec omm
12 4
▁v iol
▁m en
N D
▁t est
▁we ek
▁p ast
▁ i
▁hist or
▁mak es
▁extre me
u ge
▁&# 124
▁&#124 ;
as ter
▁opin ion
▁sh op
▁beh alf
▁ag ricult
▁econom y
s w
▁to ol
▁beaut iful
▁ent ire
am es
▁build ing
▁f ail
▁legisl ation
▁he ad
iv al
▁foc us
S C
▁d est
r ated
▁ch all
it ing
▁char act
▁appl ication
il t
l ish
▁effect ive
▁project s
▁other s
▁result s
it es
▁eas y
▁con text
▁point s
im um
▁S ch
iv il
▁webs ite
▁provid es
▁f reedom
▁su re
ep end
▁ne ver
h od
▁ret urn
or n
▁min utes
▁M ed
▁concern ed
▁respon sibility
en sion
▁att ention
▁com pl
▁E ng
▁pre c
l in
▁On e
▁per fect
. com
st it
st ain
▁ er
▁aut om
le x
▁sim ply
▁t ar
▁te am
▁p ark
o ot
▁appro pri
▁d ue
▁polic ies
a mental
▁import ance
▁Ch ina
▁quest ions
▁1 1
led ge
od e
u fact
▁group s
▁h ouse
▁f arm
▁ ident
▁re ach
g u
▁prev ent
ow s
▁st y
▁you ng
▁ X
▁l ot
is c
▁ent er
▁environment al
▁M in
l oad
▁soc iety
▁b ath
▁t em
▁R om
m es
r ate
b on
i or
▁contin u
▁great er
▁strate gy
▁h ost
▁in nov
▁R es
▁Wor ld
w ord
▁w in
m er
▁ro ad
ce ed
▁an al
▁p erm
nc y
▁nat ural
▁ver sion
▁incre asing
▁ty p
▁m ount
▁h olid
▁che ck
▁s ch
▁princ iple
▁stand ards
▁D es
m an
▁ach ie
▁t alk
▁c red
▁2 5
ed i
▁se a
▁am ount
▁man ufact
ure d
▁e uro
id d
▁P art
o f
▁1 4
▁m ach
▁ris k
▁1 6
▁p ot
▁an sw
▁word s
▁met hod
l er
▁Re g
▁require d
▁tra ining
▁signific ant
▁Intern et
l ig
▁clear ly
▁EU R
▁v ia
▁s al
du ct
▁le ar
▁meet ing
▁author ities
▁w on
▁C an
▁su per
▁techn ical
▁A ust
▁qu ick
▁work s
olog ical
at ors
▁netw ork
ru ction
▁dem and
▁c ou
▁M y
▁l ink
i ke
▁O ff
ro p
▁us er
id ed
og raph
▁ass ist
▁mus ic
us e
▁s ide
▁adm inist
▁cent ury
▁st op
t o
▁aw are
at s
▁B l
ivers ity
▁rec ent
▁p ages
f or
▁cent ral
▁sh are
▁L a
▁accord ing
▁as pect
ar ity
r ist
▁l arg
▁su gg
▁cult ural
▁stand ard
▁cap ital
▁b an
ate g
▁intern al
h ib
re ct
▁d ial
▁g ra
▁sol utions
▁saf e
▁ind epend
▁dist rib
▁direct ly
ient s
▁employ ment
un e
▁l og
▁pos itive
▁respon sible
▁propos ed
▁month s
▁long er
▁inf l
ens ive
▁c irc
r ing
▁f ight
▁current ly
▁ar ch
▁nat ure
▁des c
c he
▁require ments
▁aff ect
▁20 10
▁M an
▁m om
▁interest s
e an
port s
os s
▁hist ory
▁reg ions
▁sub s
▁su stain
▁ev ents
▁200 8
▁en ough
▁gu ests
▁rel ax
▁rec ord
▁ap ply
▁c ivil
▁invol ved
▁l at
▁R uss
e ad
▁charact er
▁P lease
▁develop ed
▁need ed
▁vot ed
▁them selves
▁d on
▁v ol
▁tot al
▁democ racy
▁fund amental
ar ian
▁part ies
▁reg ulation
▁Af ric
ore d
▁compet ition
▁1 7
▁on line
▁implement ation
▁ref er
▁happ en
▁d am
▁n ight
▁m ar
▁se lect
▁v ill
▁rel ated
▁guarante e
an ced
▁m ov
▁d om
g o
▁for ce
er ous
▁effort s
▁1 3
▁p lease
▁fore ign
u ly
▁F rom
og ue
▁c ateg
ac hed
i en
▁p ub
▁up on
▁Q u
▁it em
▁cont ain
▁2 4
▁l ow
▁langu age
▁Russ ia
▁extreme ly
▁l ive
c a
▁S erv
▁chang es
▁F irst
▁fac ilities
▁ag o
am b
it er
▁g en
▁st re
le ar
ac y
▁comp ut
▁m ob
▁d ate
ag ed
▁c aus
▁cont ract
▁docu ment
▁A ir
▁an im
▁h old
▁view s
r ia
▁const it
▁et c
▁res erv
ren ch
▁so on
▁tar get
▁c amp
▁negoti ations
▁establ ish
▁c ases
▁h arm
▁prev ious
▁P ort
m ing
t on
▁un ique
▁com es
▁c ut
▁Intern ational
▁op pos
▁e ither
▁Go vern
ire d
▁pre pare
▁5 0
ke y
at ory
▁sub mit
i res
ib ility
▁ter ror
▁break fast
omm od
▁democ ratic
▁m ess
▁main tain
▁develop ing
▁market s
▁M ore
▁B er
▁bro ad
▁M ay
▁s ound
▁sub st
▁dra w
▁po ol
▁Pres idency
▁cre ated
▁st ates
▁1 00
▁reg ional
▁m ind
▁w ind
res sion
▁fin al
g ed
▁T r
▁situ ated
▁educ ation
on y
▁d er
▁200 7
▁con g
▁c at
▁N ot
▁sur round
ac ed
▁sugg est
▁m ilit
▁tr ue
▁ty pe
▁cle an
▁g round
▁S y
▁add itional
ap er
▁att ract
▁l ater
s elf
▁B el
ution al
▁every thing
▁B y
▁pr ices
▁l iving
▁cl imate
▁p ict
▁recomm end
▁D irect
▁be ach
t i
r im
▁sh ip
ri p
▁j o
▁em ph
gt hen
▁al most
▁F rench
▁imm edi
▁S u
▁th us
▁act ually
▁trans pare
▁rece ive
▁ ‘
▁look ing
h aps
▁f air
is her
▁fam ous
o id
▁B rit
▁f ile
▁se en
ul ate
▁en l
▁l and
▁ide a
▁r ate
▁know ledge
▁enc oura
▁he ld
▁includ ed
▁stren gthen
▁appropri ate
abl ed
d e
▁acc ommod
▁new s
ot s
▁P ar
ct ions
▁fund s
▁restaur ant
▁off icial
cept ion
▁D o
▁c al
▁design ed
▁proced ure
▁f ive
▁mom ent
▁s end
▁ob lig
our ce
▁m ass
▁st ation
▁sch ool
▁det erm
b e
▁m ail
▁R ep
▁cons ult
em pt
▁work ers
▁ass oc
▁S oc
▁Fr ance
▁major ity
y c
r ial
▁l ack
er ia
▁th ing
▁200 0
ST AR
▁M e
▁con v
▁is land
▁imp act
▁comfort able
▁m or
c hes
▁out side
▁profess ional
is on
▁custom er
▁ide al
m s
▁commun ication
▁feat ures
▁ex ch
▁emph as
▁col lect
▁## STAR
▁##STAR ##
in ks
▁through out
in o
▁C our
▁h on
a i
▁us ers
ic ated
▁c op
▁tak es
▁P h
il ar
▁B r
▁do ing
▁exc lus
▁colle ag
▁mention ed
on st
▁certain ly
▁down load
▁dra ft
▁ra d
▁part s
▁Con t
▁c e
▁sp ace
tern al
▁trans l
▁h ours
▁pot ential
▁ob s
I N
▁Ch rist
▁m ag
OR E
▁trad itional
▁L is
▁F und
▁ac ross
▁exist ing
▁ear ly
le t
▁cor rect
▁con sequ
▁dis pl
▁comm er
▁ext ra
▁e ver
▁friend ly
▁con cept
▁j oint
b o
▁Americ an
ar ing
▁concern s
abl es
ic i
▁adop t
▁invest ment
▁program mes
▁Ro om
▁v ide
▁bu ilt
in ary
▁E C
▁am b
▁Tur key
▁c ross
▁gu est
▁perform ance
▁C o
▁lead ing
▁to ok
r ast
er c
at ically
▁connect ion
▁al though
▁co ord
▁comple x
fort un
▁mon itor
O N
▁part y
▁concern ing
▁m ember
▁L et
▁writ ing
▁reason s
▁dec isions
▁complete ly
▁th reat
▁Govern ment
▁establ ished
d en
▁comm ittee
▁f lex
A N
▁g ame
▁conf lic
▁dem onst
▁mod el
▁comm unity
▁c ard
st er
▁ass ess
ch an
▁k m
▁milit ary
▁A ff
▁cl a
ia ble
▁not hing
▁B o
▁T V
▁ +
e f
nc es
▁dec l
▁pop ulation
b our
U ND
▁agree ments
▁pract ice
▁J an
▁s ent
▁allow s
▁re pl
▁includ es
▁U N
▁S ince
▁bas ic
▁orig inal
▁cult ure
▁initi ative
▁med ia
on es
▁equip ped
▁b ody
▁holid ay
▁se par
▁f all
▁bec om
▁w r
▁dep end
▁spe ed
▁up d
▁C ol
▁f re
▁adv ant
▁t ell
▁object ives
▁conc lus
▁200 6
▁sol id
▁f ront
ver t
ce l
e b
▁val ues
▁h alf
ia b
, 000
▁st ar
▁Lis bon
▁As s
it able
ut ed
▁rece ived
▁ 00
▁Off ice
▁job s
▁f irm
ra g
▁sat is
at ure
ur s
ra el
op h
er ve
▁t en
▁pack age
▁S outh
un ities
UND ER
▁appl ications
▁Se c
▁cho ice
▁s ens
▁agricult ural
▁conf irm
▁Is rael
▁equip ment
▁fil es
▁Cour t
▁cap ac
▁li ber
▁J ust
▁regard ing
▁H ere
▁benef it
ac hes
▁strate g
▁## UNDER
SC ORE
▁##UNDER SCORE
▁##UNDERSCORE ##
▁Eng lish
▁object ive
▁j ud
▁key word
p ite
▁cond ition
▁pub l
r ary
▁Americ a
▁19 8
▁N e
▁se arch
▁dou b
▁eff icient
▁pur ch
idd le
▁report s
le y
▁Ar tic
▁w at
▁quick ly
i ance
▁im age
y n
ag ing
▁s elf
▁sup pl
an ish
▁im pos
▁a ud
end a
ur b
▁good s
v ious
▁N ow
▁sty le
us h
▁pr int
▁trans fer
▁d ire
▁sim ple
es tern
▁def in
▁indust rial
▁w a
▁cl ick
e e
▁treat ment
▁be low
▁eng ine
▁F l
ot t
▁achie ved
▁f ace
▁me chan
▁infl u
uc lear
▁cont ains
▁comput er
▁exper i
iven ess
▁s ense
ill s
▁att ack
▁g ard
▁reg ist
▁cong rat
m ore
am ic
▁h uge
ipl es
▁ind eed
▁ple as
▁ra il
n ed
▁s un
y ing
▁qu al
▁Aff airs
▁G ree
▁ urg
si an
▁Fin ally
ol ute
▁seem s
▁Am end
▁intern et
▁c ru
▁o il
▁pop ular
y l
▁d i
2 0
▁v ict
▁car ry
▁I m
▁success ful
▁dial ogue
ra ft
▁lead ers
▁act ive
▁rec ently
▁co ver
▁begin ning
▁Com p
e es
▁d ig
▁st age
▁answ er
▁J une
j ust
ud e
▁present ed
▁high ly
h ic
▁anal ys
▁commer cial
av ing
▁comp rom
▁a ge
▁sc ient
le ction
▁bord er
▁ser ies
▁see k
▁integ ration
▁G ener
fortun ately
▁S ome
▁w arm
▁every one
▁cent er
▁level s
▁consum ers
a id
he less
▁fam il
▁car ried
▁Ber lin
▁ �
g es
ol f
▁b ank
▁c am
▁incre ased
m osp
▁E ast
▁ il
ra p
c hed
▁amend ment
ri pt
▁ag reed
▁review s
t a
▁att empt
▁govern ments
▁P e
▁orig in
▁F urther
▁off ice
▁enl arge
f ace
▁princ iples
▁tra ff
▁abs olute
▁wh ose
▁at mosp
▁fl oor
▁s ix
▁sup ply
▁There fore
▁form er
▁d ang
. 5
▁add ed
▁cho ose
▁f urn
er al
▁commit ment
res h
▁F ran
▁dire ction
ic ro
▁st e
▁v ir
▁hig her
▁chall eng
i j
it ect
▁subs id
▁per haps
▁or d
▁d en
il es
▁show s
al u
▁sh own
▁Se cond
▁n uclear
or row
▁mat ters
hen s
▁ve hic
▁ask ed
▁ref lect
▁Artic le
▁p ain
▁re n
▁co he
▁than ks
▁te le
▁re lev
er a
▁av oid
▁f oot
▁D E
ide red
▁dou ble
▁effect s
▁aspect s
▁D em
▁m ax
▁en able
▁promot e
i ber
▁st ress
▁cons ist
▁2 3
▁not e
▁h y
▁ob tain
▁cons idered
▁exch ange
▁s ize
ra ce
▁S er
rough t
▁sim ilar
▁t able
▁lat est
▁al tern
ig ration
w ise
▁prepare d
▁opport unities
it z
ous ly
▁200 5
an ia
▁ ®
un ch
▁Soc ial
▁pos sibility
E N
▁set ting
▁col l
▁ ill
ur ch
u ary
▁beh ind
▁We b
▁material s
ill ed
▁l o
▁c ame
▁re ached
▁Sp ain
▁press ure
▁pr im
▁p an
▁ex ternal
▁cre ation
▁respon se
ploy ment
▁ex hib
iss ions
▁A cc
g round
▁4 0
▁n orm
. 0
re c
▁E m
r id
he st
▁ ut
▁sustain able
▁r ates
▁art ic
▁capac ity
▁provid ing
m a
▁l ay
▁won der
▁submit ted
▁eas ily
▁de ath
▁redu ce
▁re ject
enc ies
▁dec ided
▁Se pt
▁A b
an a
▁re d
ar ily
o h
▁com ing
▁em b
▁2 1
ap an
▁hotel s
▁enlarge ment
▁em erg
▁f it
▁sum mer
▁V al
n ter
▁g e
▁prec ise
▁atmosp here
▁prior ity
on a
▁Rep ublic
▁g ives
l a
in ated
rad e
▁accommod ation
▁act ions
▁l ove
▁n ice
▁Cent ral
▁ch arg
ce mber
▁detail s
O M
▁N et
▁Ital y
▁clos ed
▁r ound
us sion
▁reg ular
▁W ind
▁O f
▁S an
▁rem ains
▁ne igh
sib ilities
olog ies
▁oper ation
▁consum er
▁fund ing
▁bo ard
▁Sept ember
▁displ ay
▁De cember
c hen
i ers
▁c ause
i ra
▁support ed
▁bal ance
om p
▁200 4
▁Afric a
▁de g
▁p ow
▁gr ant
▁J apan
▁manufact ure
▁independ ent
▁pl aces
▁O ct
l ight
ant ly
an e
iter ran
▁pur pose
▁ $
ist ics
▁sit es
▁bath room
en ing
▁b illion
▁f ig
▁arch itect
▁le ave
▁Con vention
▁assist ance
▁desc rib
▁vide o
▁proper ty
▁con duct
e qu
▁lim ited
i ated
▁B ank
v al
ast ic
▁move ment
et ary
▁conc lud
▁appe ar
o res
▁form s
▁T od
o ber
▁ch arge
▁regul ations
um e
▁pre par
iterran ean
▁ad ap
▁creat ing
if t
▁categ ories
g en
▁r ule
es e
▁M arch
art h
▁ple ased
▁relev ant
▁b rought
▁produ ced
▁f low
p id
▁T ra
▁f a
▁C he
▁P er
▁larg est
▁g reen
▁cred it
▁organ is
▁sp ir
▁f isher
▁ter rit
ie f
▁Jan uary
▁l ic
ol l
▁const ruction
▁ac qu
re am
▁el se
▁comp re
▁I I
▁ex ec
ici ency
▁disc ussion
▁B ook
ot e
▁meas ure
w here
▁var iety
5 0
g ing
▁mess age
▁con ference
▁De velop
▁Tr ans
im ately
▁de ep
▁ex cept
it ure
▁th ous
u ff
▁inst ead
▁s ource
ar ies
▁Con s
d om
▁Oct ober
▁friend s
▁f ishing
E S
▁bec ame
▁Med iterranean
▁Ital ian
▁st ability
▁C ar
▁pro s
▁E l
▁re pe
▁tra in
▁ob vious
▁interest ing
ra q
ron ic
▁reg ards
▁w ays
b urg
▁200 3
I T
▁w ood
▁relations hip
▁p arliament
▁start ed
▁gu id
um b
▁N ational
▁d ut
▁Min ister
▁proced ures
pr ise
▁Brit ish
▁comprom ise
▁produ ce
▁med ium
land s
▁Serv ice
▁tas k
▁step s
. 2
▁Tod ay
▁comp on
▁h ous
▁b it
t ies
▁dep art
▁allow ed
▁activ ity
▁stud y
▁opt ion
g ar
▁contrib ution
▁pro b
▁b ase
ail y
ell ing
▁P ark
▁E very
. 1
▁S l
or g
▁N orth
▁part ner
▁j our
▁stat us
ro l
▁prov isions
▁opt im
▁ex act
▁2 2
▁G e
▁instru ments
▁writ ten
▁dam age
por ary
▁g iving
y ond
▁rel ation
▁pur s
▁co ast
▁qu iet
▁lim it
▁crit eria
u el
enc ed
▁lab our
▁our selves
▁D uring
▁restaur ants
▁docu ments
▁g ain
ok ing
▁state ment
e x
▁viol ence
▁f ast
r s
▁W ar
iv ity
I S
▁Sp anish
▁to m
▁mount ain
ve re
▁p en
▁apart ment
▁dist ance
▁b at
▁l ed
▁rel ig
▁J uly
▁Gener al
en ge
▁fil m
▁I T
▁min or
▁histor ical
r as
▁se ction
or ks
▁c ode
m ark
▁p ath
▁w orth
▁air port
▁typ es
▁dis e
ell ow
ad a
en ed
▁struct ure
▁l oss
ru g
p ut
▁benef its
▁d im
▁re nt
d ing
▁w ine
▁integ rated
▁Dem oc
▁A ut
▁M any
▁200 1
▁transpare ncy
▁mechan ism
▁hig hest
it ude
▁M ark
ix ed
ic ate
▁sw im
▁ 000
I C
▁immedi ately
▁k it
▁ele ments
▁vill age
ant ic
c ent
ri an
▁distrib ution
z z
▁R ights
ent al
▁use ful
h old
▁n or
ol ution
w ide
▁S al
▁fin ally
or por
▁s us
▁employ ees
▁ €
▁pay ment
▁ev alu
▁N ove
▁legisl ative
▁Further more
▁sk i
ist an
▁r ich
▁ag enda
▁liber al
▁dr ive
▁t rip
▁19 7
s es
▁Al though
▁c and
▁num erous
▁grow ing
▁appl ied
▁I raq
▁s ou
▁equ al
▁ quot
▁read ing
g er
v ent
▁po or
▁elect ions
▁Nove mber
qu are
▁r at
ag er
is hes
▁process es
▁g as
re g
▁solid arity
▁challeng es
▁po ver
▁suff icient
▁Sw ed
ic a
▁m em
▁tool s
▁pover ty
▁re ality
rast ruct
▁dig ital
▁d aily
▁il leg
▁d ie
▁p aid
▁Wind ows
ess ion
▁say ing
▁R us
▁cru cial
▁occ as
▁consequ ences
▁colleag ues
▁conflic t
▁ {
ul l
▁A pr
▁analys is
▁compre hens
▁harm on
k a
a ign
▁W est
e ks
ar ter
E C
▁un em
▁und ert
▁Y our
▁pract ical
▁const ruct
u ed
▁L oc
▁e y
▁offer ing
▁be yond
▁K ing
ur ance
▁In ter
▁con ven
if e
▁Pal est
▁apart ments
o on
▁go es
▁fore st
▁instru ment
end s
▁S te
▁l ate
▁person s
▁F ed
ri ption
i ate
▁l ux
▁con ver
▁M al
▁requ ires
▁b i
▁implement ed
▁congrat ulate
▁b rand
d am
▁v o
ak ing
▁ide as
A D
▁Port ug
▁Apr il
▁tom orrow
ad es
▁In st
▁cop y
▁ren ew
pl es
▁was te
▁happ y
▁sal es
A L
a res
a w
▁off ered
▁cur re
▁l ower
▁organis ations
▁terror ism
▁200 2
▁em ail
▁min imum
▁en h
▁mob ile
▁though t
ect ion
▁inf rastruct
▁eff iciency
all s
▁se ason
▁l inks
▁S he
▁for ces
. 3
v is
▁ ir
on t
▁doub t
▁advant age
▁ar m
▁an ti
▁m is
▁cons id
▁wel com
▁we ak
▁re act
▁Part y
▁partners hip
▁oper ating
▁start ing
▁we eks
▁fre qu
▁monitor ing
▁sec ure
▁Develop ment
▁ }
▁disc rim
▁circ um
▁G l
▁v ac
▁Amend ment
▁c ast
▁ser ver
▁l ines
▁re ference
▁histor ic
▁E ven
▁publ ished
▁mean ing
▁redu ction
▁bu y
▁read y
▁cl ients
▁comprehens ive
c er
▁b ad
▁mach ine
A S
t heless
an o
s er
il ater
▁ar gu
▁max imum
▁somet imes
▁rel ating
▁W estern
le b
u is
▁l ives
▁spir it
▁Direct ive
▁O p
▁lear n
▁g ot
▁Par is
c ks
▁bed room
▁camp aign
▁caus ed
▁y es
h a
. 00
▁crit ic
▁ ult
▁e th
▁accord ance
ab or
▁pl ant
it arian
it ors
h ol
pect ive
▁S k
▁M us
▁farm ers
▁p ie
▁opt ions
▁t ou
▁ =
▁expl ain
▁access ion
▁s ports
▁rem ind
r ative
▁techn ologies
▁play ers
▁vot ing
▁ful f
▁any thing
▁rem ov
▁inter p
▁c ert
b ian
. m
▁ch ance
▁interest ed
▁park ing
r ant
▁re con
▁prob ably
▁ext ent
▁ad vert
v iew
▁method s
▁pict ures
▁Wh ile
▁h or
▁O b
▁scient ific
▁world wide
▁cou nter
▁langu ages
c l
est ic
▁sim pl
▁on es
▁Th ank
ul ated
▁A nt
▁6 0
▁A ug
▁chall enge
▁l ands
oc ol
▁re lease
▁ra pid
g ram
A P
▁innov ative
u ck
▁conc ent
▁mor ning
ic it
▁sect ors
▁f ine
ines e
e ch
▁Aust ria
▁shop ping
if ically
▁tra ck
▁s port
▁I ran
in ate
in i
iab ility
A C
▁cand id
her n
▁business es
qu es
▁d ed
▁re le
ne y
▁S m
k now
▁cr im
ict ion
▁se lection
▁arr ange
▁init ial
ill a
▁swim ming
▁encoura ge
▁f ire
▁2 7
oura ble
▁exper t
un t
u ine
▁b ur
▁C ity
res pon
▁pl at
▁app rec
▁pow ers
▁visit ors
▁ad just
▁altern ative
▁ex erc
▁sc he
▁ra ised
▁accept ed
▁ann ual
i very
▁gard en
▁stre et
as c
re land
ca pe
▁s av
▁want ed
▁influ ence
▁process ing
▁absolute ly
a pe
▁des pite
▁Second ly
▁I reland
▁im ages
w w
▁val id
he ad
▁he av
▁l ost
op s
▁t ick
▁g ames
▁ex port
v a
▁dem ands
▁try ing
▁strateg ic
▁name ly
▁contro ll
▁20 1
um s
ph one
at a
▁Sy stem
gh t
▁field s
▁bord ers
▁gen uine
▁jo in
▁d rug
▁199 9
▁invol ve
pos es
▁d iv
▁ vers
▁B al
▁rest rict
▁invest ig
an ks
ber g
▁Ch inese
▁w ww
▁sc ale
ar i
▁t al
▁s outh
ra in
▁h our
iz ing
▁sc reen
el ines
▁innov ation
for ce
▁E conom
lic k
▁represent atives
T O
▁s il
▁19 6
▁al one
▁E d
en n
▁high light
ilater al
▁More over
▁s ort
her s
▁Con ference
un a
▁obs erv
▁chang ed
pr ises
▁cla im
▁your self
▁e arl
el t
▁appro x
▁H igh
▁Rus sian
▁cl ub
▁over all
▁pro ceed
▁dec or
▁tr ust
▁call s
▁pre m
▁initi atives
▁mot or
▁wr ong
▁express ed
▁A re
▁occ ur
▁min ute
ear ch
▁B us
▁play er
av a
▁Con stit
▁c ell
▁res ort
▁circum st
b ers
ü r
▁respon d
▁int ended
ver age
▁T our
re ly
▁f resh
▁M E
▁se x
▁illeg al
▁P ublic
▁ele g
▁Pro t
▁pass eng
▁On ly
it ation
am a
▁commit ted
▁work ed
▁main ly
▁run ning
▁talk ing
▁P et
▁v ital
▁he ard
▁aw ard
▁conf ig
▁pl ans
▁L ond
ill ing
▁qu e
▁kit chen
oc ks
end er
▁traff ic
▁appro ved
▁O ther
▁occ up
▁fe ed
▁C D
▁subst ant
▁A G
▁open ing
▁go al
▁tour ist
▁pl aced
▁del iver
▁c ities
▁ph ys
▁Un iversity
▁wh ite
▁men u
▁d ri
ut s
▁conf idence
▁walk ing
t ings
▁e .
▁help ful
▁vir t
▁dat ab
▁It s
▁ —
▁cohe sion
▁affect ed
▁ab ility
▁plan ning
▁spe ct
▁bo x
▁L in
ak es
▁co ve
b ody
▁Lond on
pos ed
mb H
▁impro ved
▁d u
o o
▁F ore
▁even ing
▁comp os
d ra
or age
▁app oint
▁com ments
▁un ivers
▁ter race
▁un s
▁Aug ust
▁bl ack
▁f ear
▁Cent re
▁G mbH
▁cor por
▁autom atically
▁ch ann
▁famil ies
▁dec ide
▁del ivery
▁just ice
▁conclus ion
▁curre ncy
▁P C
am ed
▁B u
▁I nt
▁L at
▁feat ure
und red
ur t
p s
▁cl ient
▁circumst ances
form ation
ther n
▁P re
▁C al
▁su itable
▁ban ks
ree ment
S E
▁prov ision
▁redu ced
▁H er
▁dis p
▁compet itive
ri ef
▁Te chn
▁H ung
▁law s
▁prior ities
stand ing
▁reform s
▁wh om
o le
▁d yn
▁increasing ly
▁S um
ify ing
▁us ually
ra b
▁support s
▁administ ration
I D
▁contrib ute
▁Sec urity
if f
▁s em
h ood
▁colle ction
▁t im
▁appl ic
ann ed
▁trad ition
▁struct ural
▁h om
ord ing
▁ph one
▁f ru
▁Pe ople
ra y
▁reg ime
t t
re te
▁im pl
▁em issions
▁stud ents
ag raph
▁D r
▁be gan
▁protect ed
▁Palest in
▁elect ronic
▁infrastruct ure
▁sc ope
▁vict ims
▁E as
▁T w
▁ext ensive
▁separ ate
c raft
▁ens uring
▁s ays
a ult
▁t abled
re w
▁plat form
▁c yc
▁M or
▁r ise
▁pol l
▁power ful
▁ce leb
▁F ree
▁an c
▁U K
▁F eb
▁unem ployment
▁m iss
▁t it
.m .
▁pre fer
▁effect ively
▁cr ime
▁crit ical
▁f ellow
l ines
ze ch
▁f ish
▁bel ong
▁spec ifically
▁introdu ced
▁agricult ure
▁particip ation
▁bl ock
ic y
m p
ough t
▁s ources
▁N ations
▁I S
▁h ot
▁man ner
▁S im
ress ive
er land
▁detail ed
▁speak ing
r ight
▁s an
ra z
▁E ach
▁play ed
▁a f
▁anim als
▁com ment
▁install ation
▁phot o
▁R ed
▁M a
k t
▁he ar
▁ch arm
▁perm an
▁U k
▁mot ion
▁refer red
▁satis f
▁G od
fere nces
rat s
▁cove red
ounc ed
▁larg er
▁pur poses
▁h undred
▁C zech
ac ious
▁sit ting
▁fun ctions
h ab
w h
▁C ro
▁aim ed
ent y
▁mus e
▁8 0
ar a
▁www .
c ers
▁Ind eed
▁discuss ed
▁r ural
▁de leg
▁serv ed
id ing
▁rem ember
▁de ad
▁man aged
ch ing
▁exact ly
o x
▁Al so
▁Acc ording
ort hern
▁precise ly
▁represent s
▁Bel g
▁for get
▁tre nd
ain t
▁st ated
▁An y
▁becom ing
▁ser ve
▁budget ary
▁l ies
▁Pro gram
▁get ting
ru ary
▁develop ments
us ed
▁pol ice
▁s low
▁e c
▁S ol
▁want s
▁re in
▁found ed
A M
▁select ed
▁ent ry
b it
▁discuss ions
▁sol d
▁s ession
▁V er
av es
od ies
▁rem ark
▁ris ks
▁cam era
c ast
▁assess ment
▁Feb ruary
▁The n
▁m id
▁list ed
▁administ rative
▁enter prises
▁T H
▁Bar cel
▁Pl ay
ident ial
▁H is
▁reg ret
n s
▁thous ands
▁c os
▁m and
▁other wise
▁C as
▁m ut
▁hand s
▁wonder ful
▁ x
▁fac ilit
▁instit utional
▁close ly
om b
▁Ind ia
g .
▁med ical
▁Wh y
▁I r
▁link ed
▁guid elines
▁earl ier
im b
ur ation
ident s
▁sp read
▁introdu ction
O S
itz erland
ov o
▁p aper
▁res ist
▁2 8
▁bu ff
▁program s
▁open ed
it iveness
▁cor respon
▁Sl ov
▁H uman
▁b row
▁sy mb
l ook
▁follow ed
▁Ag reement
▁Ap art
▁mag n
o ke
▁met res
▁we ap
▁or ient
▁support ing
▁discrim ination
▁ins ide
nd er
ul ations
▁like ly
▁sp end
▁elect ric
▁Ad d
▁Sw itzerland
▁F R
▁imm igration
▁J oh
ur ally
▁deg ree
▁n orth
▁tour ism
▁oper ations
▁St ar
▁impro ving
ur d
▁build ings
▁exclus ive
▁rel ative
▁2 6
▁def ined
l im
▁netw orks
▁&apos; ll
▁act ual
▁spe ech
▁expect ed
▁S ub
▁M ost
▁consider able
▁co ff
▁En ter
▁l oad
E L
▁dut y
or ing
ens ions
h r
▁tem per
▁win ter
h ouse
▁c od
▁us es
▁comp ens
▁Se a
▁S M
y a
▁m ill
▁st ock
▁L ast
▁compon ents
▁comb at
▁understand ing
▁M iddle
▁B ec
ly ing
▁sa ve
▁market ing
▁norm al
▁expl o
▁Gree ce
▁A ct
▁Ar t
▁substant ial
▁Christ ian
▁Sw iss
▁form at
▁play ing
▁S ant
▁R est
▁tele phone
▁b rief
▁deb t
k i
▁ent it
▁exper ts
▁Barcel ona
▁pres ence
s p
▁As ia
am et
▁dest ro
▁anim al
▁purch ase
▁inc ome
▁Pol icy
il s
▁C lick
▁comp ar
▁proper ly
▁fisher ies
▁acc omp
▁del ay
▁e. g.
▁pres idency
▁m ap
▁all oc
▁col or
▁fac ing
▁G reen
ic o
uss els
▁typ ical
▁coord ination
▁M use
▁M inist
▁entire ly
ro ad
▁st rict
▁disc over
▁s ized
▁deal ing
ing u
▁item s
▁t ack
▁rel ate
▁pict ure
▁compet itiveness
▁ref uge
▁pl ants
i ant
▁. .
▁5 00
eng th
▁difficult ies
w ork
▁symb ol
▁b orn
▁gener ally
he l
▁sum mit
▁che m
▁comm and
pos it
▁Pol and
▁author ity
▁ind ic
▁crim inal
▁Bec ause
▁par agraph
▁organ isation
▁C ast
▁finan cing
▁ele ment
▁Br ussels
ul a
▁mod ified
▁C ap
▁g ave
im ent
▁A C
▁exp and
i os
▁inc orpor
▁pleas ant
▁w ent
▁Room s
ut h
▁leg it
▁Tur k
▁N ever
▁mach ines
il ing
▁think ing
▁sp acious
r ich
▁Un fortunately
▁appl ies
▁su c
▁per cent
lev ision
▁a verage
▁sus p
▁C op
▁vehic les
▁re ception
ut ive
▁li b
▁C O
iz es
▁inform ed
▁un ac
▁will ing
▁meet ings
▁cal c
▁consid eration
▁adv ance
o very
▁do or
▁l os
are nt
am ber
▁def ence
ro wn
▁ad equ
▁peace ful
▁h osp
▁f ixed
▁K os
▁m ist
▁so le
b all
▁US A
▁bed s
▁h op
▁Econom ic
▁becom es
▁en orm
e v
ro ll
▁num bers
n al
m et
▁flex ibility
r ants
▁ ́
▁dist rict
s h
▁un c
▁Air port
in ating
▁g raph
▁On ce
▁flex ible
uis ine
▁parliament ary
▁suc ceed
▁a ims
i ar
ster dam
▁b odies
at t
▁shop s
▁st ra
▁f ra
▁establish ment
re et
est ival
ter day
▁sign ed
ims elf
p ress
▁bel ie
▁Am sterdam
▁be ar
▁est ate
▁r out
▁pract ices
er o
▁med ic
▁gra du
▁h ar
▁promot ing
▁eas ier
▁my self
▁sh ower
ind ing
▁3 1
▁connect ed
▁gener ation
▁h imself
▁datab ase
▁serious ly
P E
ó n
▁cour t
▁experi enced
▁ ur
os en
▁s ell
▁G reat
▁ac know
▁M icro
▁un f
▁conc rete
▁im ag
▁cl ar
▁adv anced
▁coop er
▁l ou
▁neg ative
▁D V
▁E st
▁fail ure
▁subsid i
▁polit ics
▁B as
▁human itarian
g est
▁c uisine
▁anc ient
i as
emb ly
▁dang erous
▁m iddle
I L
▁differe nces
▁dom estic
ell a
▁pos itions
0 s
us es
n el
r ates
▁Pr iv
▁G rand
▁transl ation
▁neigh bour
▁De bian
▁struct ures
▁hous es
▁assoc iated
▁cont em
o e
▁to ld
▁dis pos
▁First ly
▁pen al
▁with dra
▁3 00
▁l ength
▁beh av
▁acc ur
▁conven ient
▁Lin ux
▁unac cept
▁vo ice
▁A c
▁implement ing
▁2 9
▁care fully
▁inst ance
▁happen ed
▁perm it
▁safe gu
at o
▁exhib ition
▁coff ee
ad em
▁el im
▁mod els
▁ ign
▁cond em
▁appe ars
▁state ments
▁ »
▁produ cers
. 4
▁C or
▁B ul
▁comb ination
▁r ou
▁C y
▁En vironment
bo ard
s c
ip s
▁any one
▁redu cing
E T
▁differe nce
▁Fran k
▁a head
▁k il
▁Or gan
▁man age
▁set tle
n es
▁stud ies
ag en
▁adopt ion
▁satis fact
▁be aches
▁In stit
▁St .
▁e ight
▁Serv ices
▁ag encies
▁Y ork
▁cour ses
▁Rom an
ic ians
▁s ong
▁pro pose
▁own ers
▁Ap pl
▁oppos ition
▁recogn ition
▁B udget
ub e
▁guarante es
▁King dom
▁dr ink
ra ine
a uc
▁coll abor
▁O ver
▁ins p
▁s and
ent ions
▁avail ability
▁c as
▁artic le
▁impos sible
▁reserv ation
▁describ ed
▁V ien
▁lead er
▁call ing
yl um
▁improve ment
▁architect ure
▁Ass oc
u f
▁sp ent
▁ann ounced
▁attract ive
▁immedi ate
id s
▁gl ass
▁dim ension
▁rele ased
▁& gt
▁members hip
▁&gt ;
▁tr uly
▁w ishes
▁qu ant
▁pos sibilities
▁P at
▁ev idence
▁del ight
▁an t
▁trad ing
▁sh ared
▁s en
▁A rab
▁Gu est
▁unaccept able
ve y
g n
▁n ames
com ing
▁In c
▁back ground
▁s pl
O L
o z
▁C at
▁organ iz
▁European s
▁N or
▁P ers
▁d in
or ial
qu is
▁transpare nt
▁ex cess
▁territ ory
▁s le
E D
▁charg ed
it ious
▁I N
▁U s
▁tas ks
▁p al
▁c ards
c ription
▁un fortunately
▁D ue
▁te levision
e g
▁rad io
▁relig ious
▁introdu ce
▁Just ice
▁fig ures
▁consum ption
▁particip ate
▁continu ed
▁Afric an
▁eleg ant
▁reason able
▁des ire
▁dev ices
▁st ru
▁st able
▁trans act
▁Ir ish
l s
▁contin ues
▁en ables
▁un less
. e
O T
ru pt
ing .com
▁strong ly
▁Bus iness
▁lear ning
▁comple ted
▁Bo ard
se c
▁pack ages
▁Is l
▁Res earch
▁comb ined
▁mon etary
▁tas te
▁ra ise
▁ent ertain
▁great est
▁but ton
▁Mark et
▁M et
▁car s
▁allow ing
▁Turk ish
n y
▁conv in
▁p arent
▁b ound
s et
▁V is
▁Democ rats
▁vot es
▁A ud
▁regist ered
▁adap t
▁M od
▁clos er
▁surround ing
▁arr ival
▁entit led
b ack
ell ig
ten ance
▁3 5
▁sk ills
▁beaut y
▁st ore
ove red
urb an
▁exp end
il st
▁P L
▁ins urance
ash ion
▁appe al
▁sens itive
am s
▁sur face
▁He alth
▁p ure
▁M art
▁ke pt
▁install ed
▁we ight
▁T re
▁near by
▁St ud
▁s ale
▁ro ll
▁profess ion
▁W TO
▁Muse um
et h
▁ded icated
▁Uk raine
▁exc lud
▁r iver
▁ch air
▁as ylum
▁bal anced
ipl om
▁e arth
▁enorm ous
▁repl ace
▁m ission
▁P a
am m
▁199 8
▁rel iable
▁s quare
▁perman ent
▁c ore
▁pers pective
il os
en h
▁exerc ise
ens us
▁met ers
▁m er
▁C ong
s y
▁dra wn
▁relax ing
▁sat ell
▁decl ar
▁ele ction
P s
▁Never theless
g th
▁Pro f
▁elect ed
▁Kos ovo
▁m icro
▁ad ult
▁Op en
ot o
▁interp ret
▁7 0
▁establ ishing
ograph y
▁W ill
▁Net her
▁F ol
▁un ion
▁book ing
▁tot ally
not her
u k
▁convin ced
▁for th
▁me ant
▁A nother
▁advert ising
▁fru it
▁instit ution
▁holid ays
▁individual s
▁urg ent
▁ext ended
▁cla ims
▁st ory
▁stand s
▁st orage
ou nce
▁S af
▁not ice
it ch
ate ver
▁M un
I M
▁comp ared
▁b ott
▁for ced
▁rail way
▁mov ing
▁re b
▁dev ice
o ly
▁conclus ions
▁wind ow
▁s ides
st e
▁st ri
▁9 0
▁f le
▁grant ed
il le
▁d ivid
▁&apos; re
▁out d
ok er
▁comp at
▁A lp
▁pass ed
▁mem ory
al le
▁big gest
▁L ux
▁sign al
▁stren gth
▁corpor ate
▁Rest aur
▁Eas tern
▁control s
▁S uch
▁attract ions
▁b re
▁mount ains
▁fail ed
▁A ng
▁conc ert
▁Af gh
▁p et
▁G ard
isc al
▁prof it
▁Nether lands
. S
▁un it
▁L iber
▁Pr ime
▁C ost
▁M ag
▁cont rary
▁pr ison
▁econom ies
▁sc ience
▁S at
▁d ream
al d
▁ch osen
▁fin ance
ion e
▁Th ird
▁N on
▁hon ourable
▁D is
in ter
▁right ly
▁adv ice
▁W here
▁un able
▁organ ised
z a
▁defin ition
▁col our
▁sec ret
▁ch urch
▁sa w
▁fact ors
▁Vien na
▁sp ending
▁Gree k
▁inter face
▁dise ase
▁Cro at
▁destro y
▁DV D
▁main tenance
▁W ell
▁la id
▁candid ate
▁inc lus
▁D el
▁T rade
▁commit ments
▁vehic le
▁exp ression
▁Palestin ian
▁re nov
▁amb itious
▁art ists
▁d rop
▁unt o
▁F ound
▁d iver
▁H ar
▁Fore ign
it age
▁chem ical
▁t ried
▁perfect ly
▁ne ither
▁g olf
▁M ac
ig rants
▁U p
r m
▁Th us
ick ing
▁Constit ution
▁Cl ub
▁Portug al
▁achie ving
▁weap ons
▁Le g
▁fl ight
▁chang ing
▁Reg ulation
▁19 4
us ion
▁dis s
▁Man agement
▁ro ck
r ating
▁ag ency
▁colleag ue
▁out come
▁ob st
▁D ep
▁s n
▁H ost
ang ing
▁obvious ly
▁tou ch
g age
▁lux ury
▁air craft
ap ers
▁const antly
r ations
port ion
▁gu ide
▁pay ments
▁lim its
sequ ently
▁reg ister
il iation
▁promot ion
▁oblig ations
▁Afgh an
▁out standing
▁la unch
D P
▁v ision
a ment
v est
ic ious
▁upd ate
▁S a
▁int ention
▁inter vention
▁Book ing.com
▁yes terday
▁approx imately
l antic
▁f ant
▁Y et
▁pres erv
▁la un
▁R ot
az a
▁v on
ir th
▁critic ism
▁se ven
▁re ve
▁equ ality
.e .
i ques
▁continu ing
▁cont ents
▁organ ization
U R
▁contain ed
▁0 1
um p
▁Al b
▁Aust rian
▁success fully
▁n ation
▁In formation
▁bl ood
▁fra ud
ut ch
▁g old
▁ra ce
ner gy
y m
▁independ ence
▁d iplom
▁phys ical
l ike
▁access ible
▁expend iture
on ia
▁K ore
▁surround ed
▁rou te
k en
▁to w
▁oper ate
▁situ ations
so ft
▁categ ory
m ission
▁recommend ations
i us
▁Re c
▁ask ing
▁f ashion
▁dist in
▁prev ention
id ge
▁I M
▁occas ion
▁phot os
▁mult i
I P
ber t
▁ext end
▁m il
▁P R
▁go als
▁Assoc iation
▁me rely
▁spec ies
ific ations
go ing
▁target s
▁T er
▁v ul
▁sur v
▁inter act
▁buff et
▁con vention
▁lands cape
▁b inding
▁pl anned
ag ue
▁act s
▁some one
▁f iscal
▁b and
▁l ake
▁Th ose
▁cons ists
▁R ome
ab il
▁dispos al
▁V en
▁cat al
▁we alth
▁s ight
ent ed
▁C ustom
ign ed
▁particip ants
▁Comm un
▁re pro
▁put ting
▁guarante ed
▁Su per
▁i .e.
▁ urban
t able
ak en
▁point ed
▁furn ished
▁regist ration
▁gl ad
▁tit le
he t
▁commun ities
ch arge
▁k n
▁che ap
o oth
▁J ava
▁z one
▁Cent er
▁p as
▁B oth
▁fact or
▁wa iting
i el
▁cap able
▁lead s
▁Lat in
▁p ill
in ations
▁bring ing
an cing
▁wr ite
▁T y
en a
▁small er
▁199 7
▁seek ing
ir ing
▁f uel
▁accept able
oy al
▁Restaur ant
▁R ules
▁inst ruct
▁dyn amic
▁respon sibilities
▁ph ase
▁Sum mit
▁conclud e
est ion
▁compl iance
▁pros pect
▁B reak
▁bl ue
▁withdra w
▁o u
▁aff ord
▁sl ight
an im
▁tr ial
▁caus es
▁exam ples
▁M il
▁br ings
▁f ed
▁ground s
▁ste el
▁d ry
▁strengthen ing
▁satell ite
▁val u
▁Fed eral
▁so vere
▁Ag ency
▁result ing
▁neigh b
▁h um
ro s
or ough
um n
▁manufact uring
▁pleas ure
o om
▁cap t
▁Ind ust
▁s now
▁p un
▁let ter
▁contem porary
▁A L
▁Swed en
▁kil omet
el lect
▁f if
▁ph ilos
▁ident ity
n ge
n ic
▁sp a
▁Loc ated
ob by
▁b ars
▁def ault
▁En joy
▁T M
▁safegu ard
▁sp aces
c ript
▁G al
▁mult iple
▁near ly
▁sc en
▁L ake
▁pass word
▁ve get
▁assoc iation
▁set s
▁ass um
sib ly
s k
▁def end
▁qual ified
▁sum m
▁discuss ing
▁s am
▁can cell
▁tr uth
▁dr iving
▁co ol
it ness
▁expl an
▁bal con
▁pl us
ul ating
▁cons ensus
▁over look
▁Th anks
▁test ing
ru ption
is ure
E M
▁st im
▁previous ly
r ance
▁l iability
▁prim ary
▁govern ance
▁pat ients
p o
▁T erm
▁address ed
ic ip
▁for t
▁sou thern
▁evalu ation
▁in hab
▁sk in
▁determ ined
▁Rom ania
▁n ations
▁par amet
▁vul ner
in y
▁R el
u it
ic ed
D F
ut ing
▁al b
▁n ar
▁4 5
▁lit er
▁prim arily
c an
d s
▁co ok
▁attack s
▁lab or
▁ord ers
▁m other
▁vers ions
▁pie ce
▁St rate
▁book s
▁N at
▁represent ative
▁adequ ate
▁rem ove
▁ro b
I ON
▁r ul
▁v an
▁F ind
▁sur pr
i ations
▁indust ries
▁n amed
re p
▁w all
▁sm oking
▁kind s
pare nt
▁there by
▁up g
n et
▁so ft
an cy
▁rec overy
ive red
▁request ed
▁li k
▁dec ades
ograph ic
▁exist ence
an c
▁cons olid
▁anal y
▁school s
▁B ud
▁do ct
mit ted
. 6
ol es
r ust
▁s on
▁tal ks
▁keep ing
▁d iversity
▁t on
▁deal t
es ides
▁D utch
é s
▁mut ual
▁Micro soft
▁ex ception
▁G old
▁Y es
▁G et
he m
▁del ivered
▁ «
▁E r
▁O ut
▁int ellig
▁un anim
▁re fere
▁among st
▁wat ers
▁manufacture rs
▁m ix
▁ur ge
▁turn ed
▁fl at
r um
rou d
▁Min utes
▁b ure
▁t end
▁- -
ire less
h us
▁U nder
▁C ur
▁Che ck
3 0
▁wat ch
▁consult ation
▁3 2
▁Des pite
▁oppos ite
re ens
▁I P
▁He ad
▁g all
▁techn ological
▁tre ated
▁H ome
un ction
ast ers
▁B est
ang es
▁mark ed
raz il
▁So ftware
og le
▁f ather
▁invest ments
▁cor ner
▁d ram
▁mechanism s
▁bl og
▁on to
▁stra ight
▁represent ed
om an
▁e ast
on om
▁Break fast
▁h it
▁sh ape
▁rep ly
▁sp ot
▁TH E
▁account s
▁pre d
▁repe ated
▁feel ing
▁m aster
▁l as
▁pl ug
▁run s
▁heav y
▁improve ments
▁know s
▁bur den
▁su ite
ab ilities
▁D on
▁aud io
ag s
▁mod e
▁compet ence
▁speak ers
▁S pe
▁Be fore
ur ies
▁te ach
c rib
▁H ol
▁Ch amber
ra c
▁K e
▁S il
▁att itude
▁B ur
▁B razil
▁d oll
▁ex ceed
▁oblig ation
ar us
▁experi ences
▁Tw o
▁C ard
▁leaders hip
ellect ual
▁ins ist
▁present ation
pl ace
▁W el
▁expert ise
en ue
▁requ ests
I A
f urt
▁B et
c her
▁b irth
▁recogn ise
▁help ing
▁S et
▁Mon t
▁sh ut
.S .
▁s we
▁Comp any
▁C ult
▁Fol low
▁significant ly
▁mov ed
▁consist ent
▁laun ched
▁Pro v
▁tre es
▁ey e
ol a
IN G
op les
▁drug s
▁jour nal
▁e in
▁compens ation
▁C ub
▁webs ites
▁out put
▁san ctions
▁V ery
▁Enter prise
▁p ension
▁c art
▁dis hes
▁emphas ise
▁appro val
▁d a
▁recomm ended
▁B en
▁un its
▁dest ination
▁reject ed
▁st one
▁Pl an
▁n av
▁T ake
ent ure
▁exp ensive
▁E S
▁charm ing
▁M er
▁ar ms
ov a
▁ à
▁p il
▁ex ists
ri ers
▁stre ets
n is
▁199 6
▁comp ly
▁brow ser
- -
▁SM E
ail s
▁wa it
▁engine ering
▁find ing
iet ies
▁oper ators
▁subst ances
▁A v
▁ext ension
▁S it
▁r ig
▁3 6
▁priv acy
▁expect ations
▁emphas is
▁le isure
▁M c
▁const ant
▁sp ok
▁M os
▁d ict
▁E nergy
▁pro p
▁temper ature
▁w ild
al t
▁resol ve
▁ „
▁v ess
▁old er
▁f ab
▁W i
▁apprec iate
ver se
ite ly
our g
qu ir
▁ent ered
oura ge
et te
▁P an
ac ing
▁p .m.
▁advant ages
▁help s
▁p roud
▁sup plement
▁T or
▁Me x
▁deleg ation
▁refuge es
▁V illa
▁v oc
▁D an
▁L ord
▁object s
▁er ror
▁no ise
▁Des ign
ony m
▁P ri
▁cont rast
▁suff ering
ik ing
▁furn iture
▁h all
l i
m as
L A
▁person ally
▁Not e
▁relative ly
ens es
▁U se
▁applic able
▁recogn ised
▁cent res
▁aff airs
▁Bl ack
▁pro of
▁t ests
▁t ro
▁respect ive
▁super v
abl ing
▁lat ter
▁artic les
▁dis aster
▁st ations
ur a
▁wh atever
▁nat urally
▁renew able
▁I C
▁L ib
▁invol ving
▁Program me
O s
re es
▁wh ilst
▁happ ens
▁valu able
▁pe oples
▁col d
▁Mun ich
▁dang er
▁H a
▁Ge org
▁N AT
▁exclus ively
▁15 0
▁est im
▁g rand
▁ret ain
▁t rou
▁O per
▁tax es
or a
m ann
ang ed
▁arrange ments
▁f elt
▁th orough
▁S pecial
▁v ast
▁polit icians
▁host els
▁cons erv
▁bedroom s
▁co vers
▁L ab
▁l ose
▁H el
▁hand ling
▁ °
▁condition ing
▁J ew
▁mob ility
▁jour ney
▁f ill
▁oppos ed
▁y e
▁N G
▁sp ring
▁te ac
▁enh ance
▁b reat
▁f em
▁ rom
▁text s
▁d ining
ar ia
▁dise ases
▁19 5
gy pt
▁D en
▁repe at
▁fac ed
▁autom atic
▁D ay
▁comb ating
▁sol ve
▁muse um
▁Joh n
▁De uts
▁confirm ed
▁R ule
▁C amp
▁disc overed
▁Go ogle
▁direct ives
▁Priv ate
▁fig ure
▁P H
▁sc ript
▁tour s
▁bure auc
g ment
▁Swed ish
▁passeng ers
▁trans form
▁help ed
▁creat ive
▁fight ing
▁ch ain
▁int ellectual
▁O ld
k ing
r is
▁produ cing
▁vol ume
▁b ra
▁P ak
am ing
▁obtain ed
▁off ices
▁P aper
▁pres ident
I V
▁W he
▁ #
▁entertain ment
▁construct ive
▁Wh ite
▁min im
▁Bel arus
▁p ick
▁E gypt
▁G ood
▁din ner
▁pros per
▁protect ing
▁involve ment
▁f asc
▁Minist ers
▁determ ine
▁except ional
▁Cont rol
ian o
▁reach ing
▁S ing
ul s
▁serv es
▁Re al
▁Instit ute
▁fl o
▁obst ac
▁Saf ety
▁Afghan istan
▁t reaty
▁Wel come
▁priv ile
▁rapporteur s
▁t rib
▁outd oor
▁tem porary
▁Bul gar
▁Ch arter
▁controll ed
▁we ather
ad o
z en
▁first ly
P S
▁ag g
▁Pro ced
▁ph r
idd en
▁remov ed
l ers
sy ch
▁mill ions
▁stru gg
▁aware ness
▁happen ing
▁m it
▁M ount
▁comp r
▁F ac
it a
▁imp ressive
▁amount s
▁refere nd
I R
▁bo at
▁equ ally
▁dis charge
▁Lux emb
▁cons c
▁st ake
▁Found ation
▁pat ent
▁pan or
az z
▁contrib utions
▁Strate gy
arlia ments
▁look s
▁large ly
▁ey es
▁mand ate
or se
▁strateg ies
▁Fin an
▁le aving
▁health y
▁bat tle
▁philos oph
ar c
▁Inst ead
it ime
▁e p
and a
j a
▁g ir
ail ing
▁incre ases
▁liberal isation
▁spect ac
▁res erve
a is
▁eth nic
▁Brit ain
▁L ike
▁ch ap
▁b ran
▁commun ications
▁res idence
▁fant astic
▁prepar ation
▁f rag
ast s
▁w id
ö r
s ch
▁K y
au gh
▁Gl obal
▁W ork
▁deb ates
b al
▁require ment
▁remain ing
s man
▁maintain ed
▁restrict ions
b ook
r ors
▁m al
▁dep th
▁collect ive
▁ann ounce
▁lic ense
▁N ice
▁Frank furt
▁extra ord
▁inhab it
▁iss ued
▁Croat ia
▁fa ith
▁min i
app oint
▁resol utions
▁official s
ies t
▁ar rest
▁und erm
▁ap parent
▁opin ions
▁NAT O
▁organiz ations
▁hosp it
ly mp
y pe
▁De f
ou l
▁charg es
▁character istics
▁sle ep
▁pro portion
▁dec is
▁inc ent
▁cre ates
▁depend s
▁ill ust
f ol
▁contract s
▁ab road
▁The ir
▁R ad
▁L adies
▁ent hus
▁tick et
▁adv oc
il ed
▁D ub
▁c ry
▁he at
▁imp ression
▁pro hib
ig er
▁w est
▁de le
▁ab ol
▁dis ap
▁int end
▁B ay
▁new ly
▁form al
h t
▁Japan ese
▁ha ir
M L
ed ia
▁pro ve
▁im per
▁cou ple
▁Cost a
f ers
▁L ou
▁Pol ish
▁ME Ps
▁Bulgar ia
▁p hen
▁expl ore
▁acc om
▁vol unt
▁Ser b
st ood
et ic
▁famil iar
▁F am
▁ident ify
k o
▁pat tern
▁b on
▁an g
▁is ol
Q L
▁oper ational
ate ful
ob e
▁Finan cial
▁se at
▁me at
▁fe e
▁S und
▁do g
▁d ia
▁does n
▁return ed
p et
elf are
▁mess ages
▁G DP
h op
▁B alk
▁j e
▁Proced ure
he nt
itte es
▁sh ad
and on
▁rem ote
▁c ab
▁rev olution
▁O lymp
▁conflic ts
▁w itness
▁U .S.
▁met al
▁sex ual
▁stand ing
at re
▁rec ip
▁get s
▁surround ings
▁R iver
▁B os
▁Th rough
▁class ic
and er
n o
▁hard ware
▁Fr id
▁compl ain
d ed
▁dis appoint
. 7
▁regular ly
▁you th
▁cut ting
it i
▁att end
▁D ata
▁univers al
▁en force
▁custom s
▁Re ad
▁car bon
▁lab el
▁draw ing
▁facilit ate
s on
▁mass ive
▁c able
▁Pro duct
▁Hotel s
er ies
▁pre t
▁regul atory
▁af tern
ig ation
st ruction
▁All iance
hold ers
▁Se e
▁V ol
▁recommend ation
wh at
▁p arliaments
▁acqu is
▁renov ated
▁copy right
▁sa una
▁organ ized
▁top ic
▁t ail
▁d ark
▁art ist
go vern
▁parent s
▁Luxemb ourg
▁hold ing
▁g one
▁display ed
▁bott om
▁conduct ed
▁w alls
▁reserv es
▁report ed
▁Dr .
▁Ag ricult
▁ut il
▁aw a
▁list en
▁vis a
▁see ing
▁hundred s
▁T ime
▁alb um
▁proper ties
▁accomp an
▁St reet
▁reve al
▁h tt
8 0
u ing
▁contin ent
▁dep ending
▁perform ed
▁minor ity
▁SME s
or al
▁Rom a
▁ou ght
▁0 2
▁Aust ral
▁care er
co hol
▁def ine
▁fav or
I I
▁La w
▁to ler
▁town s
▁Pak istan
▁own er
I F
▁phen omen
▁balcon y
▁E qu
▁some what
▁sup posed
or ge
▁wor se
▁connect ions
z er
▁demand ing
▁set tings
▁jo ined
▁n orthern
▁min ist
▁de als
▁un p
▁transport ation
▁answ ers
▁frequ ently
▁the rm
op ol
▁mag az
▁qu arter
▁emerg ency
▁Cy pr
▁4 00
▁not ed
con t
▁island s
▁f aster
▁gr ateful
govern mental
▁follow s
▁Cypr us
▁g ender
. 9
▁m arg
est y
▁vac ation
ic on
▁B ro
▁ab andon
▁fulf il
▁E M
▁D av
▁focus ed
te red
▁Can ada
▁Sec ret
▁disc ount
ou b
▁l obby
if ies
▁Ch urch
▁ult imately
▁20 20
▁D om
▁delight ed
U S
▁divid ed
▁upd ated
▁str ing
▁fin ished
▁w elfare
▁dri ver
▁C ount
au ght
▁to b
▁S ov
▁eas tern
ac he
▁decor ated
ro te
ues e
▁S aint
if orm
▁wor ry
▁n om
▁w ines
ur ious
du c
▁most ly
▁al t
▁contact s
▁behav i
▁ed ge
▁val ley
▁electric ity
▁S P
▁S quare
▁St ruct
▁techn iques
▁inc om
▁lib rary
▁sh ap
▁compat ible
en ary
▁effect iveness
▁d ates
D E
▁exp an
▁&apos; ve
▁stat istics
▁poll ution
▁comple ment
▁St and
▁inv ite
▁F er
▁Whe ther
▁c ourage
▁vis ible
▁her itage
c ap
▁se vere
▁prot ocol
▁199 5
▁Mon etary
▁declar ation
▁cast le
▁relax ation
an qu
g ot
▁inhabit ants
▁19 3
▁Y ear
▁invol ves
▁m igration
▁P rag
▁Slov ak
▁vis ual
et her
enh agen
▁inter ior
▁prof ile
▁subsid ies
p ass
ou red
▁ro ot
▁D isc
▁terror ist
▁start s
▁st ored
▁Israel i
▁ iron
▁Ch ild
▁s ac
▁dri vers
▁htt p
at ures
▁Sc hen
▁care ful
▁passeng er
▁tour ists
▁wide ly
▁traff icking
▁present s
▁b all
▁Portug uese
▁st ars
▁ind icated
▁loc ations
al a
▁Sov iet
▁adv is
▁arr ive
▁provid er
▁disap pe
▁aftern oon
▁appoint ed
▁correspon ding
▁pro c
▁par ad
▁cyc le
▁in put
ro c
▁fl ights
ri er
a e
▁F ram
▁under stood
▁vis ited
▁chann els
▁am az
▁show ing
▁demonst rate
▁exc iting
▁collabor ation
▁in g
▁demonst rated
a el
▁plan et
▁P ack
▁maintain ing
▁c ash
▁function ing
▁magn ific
ob ile
▁sty lish
oth ing
▁acc ident
▁he ating
▁Qu estion
▁print ing
▁i P
▁sol ar
▁M ain
▁H all
i am
art ers
▁invest ors
▁ent rance
▁Sp a
▁Pal ace
▁sign s
r ical
▁pos s
▁Trans port
▁G N
▁prov ed
u ated
ac co
l av
u ous
▁P act
▁tick ets
ig en
▁cor ruption
c omm
▁bene fic
▁settle ment
▁det ect
▁mon u
▁comm ittees
▁rest ruct
▁B on
or f
▁mat ch
▁spok en
▁accompan ied
al es
▁V ice
▁impos ed
▁M ich
▁al cohol
▁Con c
▁trans ition
▁comm ission
▁Direct or
▁expan sion
▁ra w
▁person nel
▁c af
▁love ly
▁P ost
▁St ation
▁S .
▁su ites
▁Bal tic
▁news p
▁document ation
▁conclud ed
ich t
▁E N
ir t
▁resist ance
▁Amend ments
▁bo ost
▁Ph ot
▁P ower
▁citiz en
▁visit ing
▁Re port
▁them e
▁Prot ection
▁host el
▁on going
▁cont rad
▁dist ingu
▁Schen gen
▁rest ric
▁w estern
▁config uration
▁F orm
▁Appl ause
j e
▁record ed
▁Per haps
▁Kore a
in ent
um er
▁minor ities
le an
em ark
▁Frid ay
▁gard ens
▁fit ness
▁Cop enhagen
S S
▁chann el
▁behavi our
▁l l
▁sm ooth
▁jud icial
▁depart ment
▁award ed
▁su gar
▁speak er
▁contain ing
▁Prag ue
▁F our
▁phr ase
▁respect ed
▁constit ution
▁E s
▁found ation
▁re now
▁A R
▁or al
▁lou nge
▁S T
u zz
▁t ri
▁m m
▁occas ions
▁tack le
on al
▁pos sibly
▁cr imes
in er
▁expl icit
▁manufacture r
▁b ilateral
▁O F
▁wind ows
▁Fund s
▁educ ational
▁k ing
▁des ired
▁g ar
▁W ik
▁N ord
▁cos y
▁r ub
▁s ad
▁imm igrants
▁repl aced
▁spectac ular
▁compet ent
▁Hung ary
▁IS O
▁a st
v ant
ren ce
rap y
▁fac ility
▁p sych
▁Euro p
▁C OM
▁ass ume
▁Belg ium
d i
▁m ac
▁int ens
▁rout es
▁firm s
▁orient ed
▁subsidi arity
▁determ ination
▁ ice
▁g ram
▁F i
▁virt ual
▁over come
▁Pa ul
▁M at
▁rapid ly
og ether
▁end orse
▁t un
it t
▁o l
▁sche me
▁correct ly
▁C H
▁Sch ool
ro g
▁profession als
. 8
▁cred ibility
ot ic
▁transact ions
y er
▁s ending
un k
▁fact s
▁dest ruction
g ent
S P
▁br ight
▁th umb
▁cert ific
▁Des cription
▁Bar ro
▁function al
▁pie ces
i pe
▁mil k
▁pl enty
▁fil ms
▁satisf ied
▁decl ared
i ón
▁part ly
▁constit utional
▁w oman
▁Follow ing
▁inf ring
▁us ual
▁al arm
▁F re
▁infl ation
▁mot iv
se e
▁T own
▁global isation
▁de posit
▁form ed
▁Struct ural
▁ex it
▁er a
▁suppl iers
▁compon ent
▁unc ertain
▁cent uries
▁Hung arian
▁adop ting
▁N os
m ar
o ch
▁prom pt
▁fl ood
ig e
▁li qu
▁strong er
▁E v
▁sh ares
▁A ction
▁bu g
vis ory
b an
▁tax ation
st ra
▁un iform
t ical
▁With in
▁address es
▁0 3
▁B ush
▁pl enary
▁l es
▁ass ets
▁Th urs
▁argu ment
du ction
▁m un
et heless
▁propos es
▁defin itely
▁po ore
▁aut hent
▁Mad rid
▁co al
▁sh aring
▁extraord inary
▁d ign
▁provid ers
▁prepar ing
A G
▁G iven
▁s aving
▁ident ified
amb urg
▁d ied
▁cour ts
▁suff er
▁thous and
▁div ision
▁Third ly
▁t ast
▁prov en
▁encoura ging
▁magnific ent
▁St ras
▁distrib uted
▁De c
▁ens ures
▁V AT
▁min ister
▁pl ays
▁for um
▁rent al
▁b ill
▁gener ated
▁nar row
ell ed
▁act ively
▁un w
▁resol ved
▁cons ent
▁dom ain
E E
▁road s
▁subst ance
▁bel ief
▁N orthern
▁D ie
▁slight ly
▁W as
▁sur f
▁e at
▁inclus ion
▁col on
▁em ot
▁ass ure
▁art istic
▁adult s
4 0
▁exam ine
▁Mex ico
▁Ch amp
▁c ere
▁f at
k y
ad or
▁consider ing
t es
▁upd ates
um in
▁un for
ual ity
▁own ed
▁arm y
l o
▁a u
te en
▁In n
R A
▁fl u
▁concept s
z y
▁r ank
▁depend ent
▁decis ive
▁dut ies
▁part ial
EN T
el ess
▁un iversity
▁m iles
ag ers
▁man ager
▁sc hed
▁carry ing
▁E L
▁propos ing
▁broad cast
h am
▁l ists
▁war rant
▁employ ed
▁tob acco
▁su it
▁ins ert
▁every day
. T
▁With out
▁lot s
▁Ph il
▁week end
▁AC P
▁volunt ary
▁In f
▁mor al
▁in j
ah n
▁apply ing
▁B ad
▁subject s
▁pack aging
▁Ar ch
▁f ür
AD S
r d
▁E arth
▁v ary
▁mar itime
▁lux urious
▁sole ly
▁Ch air
▁... .
▁never theless
▁Techn ology
▁C am
▁emerg ing
▁renow ned
▁dist ort
b and
▁P T
▁four th
▁Med ia
▁event ually
▁vulner able
▁diver se
▁Ex per
▁j ur
un ning
▁H amburg
▁An n
b ar
▁trad itions
▁up per
▁Tra vel
▁l ie
▁def ect
p oint
▁w rote
▁E lect
▁legit imate
ation ally
▁Am ong
▁suppl ies
▁F e
▁1 ,
▁int ensive
rep ren
▁Thurs day
▁o d
▁disc ipl
▁off ic
▁ship s
O U
▁G M
▁imp ose
▁condem n
▁S ur
▁suppl ier
repren eur
▁aut onom
▁z u
▁suggest ions
▁the ory
▁E ADS
▁mus ical
▁top ics
▁Eng land
▁T reat
▁B esides
▁ship ping
l os
▁ab use
▁abs ence
▁W omen
▁else where
ter y
ce an
▁less ons
▁gain ed
▁F il
▁appe ared
▁Ass embly
▁Fram ework
▁bo ot
▁great ly
▁Tour ism
▁dis m
▁Wh o
▁f ran
▁f illed
▁direct or
▁vill ages
▁S un
▁satisfact ion
▁interpret ation
▁unfor get
g ic
al ing
▁depart ure
▁en abled
▁represent ation
▁Is land
▁arr ived
▁PH P
▁country side
▁regard ed
▁ind ex
▁Aut hor
▁Sant a
▁Prof ess
▁fin ish
t ion
▁team s
p ire
▁ear n
▁philosoph y
▁n ights
▁G ene
▁dec ent
▁p ed
em a
▁excess ive
l t
in n
ress ed
▁farm ing
bour g
▁win ning
▁t ight
▁def icit
▁dr inks
▁Des k
▁acknow ledge
▁pre ced
▁spec ified
▁At lantic
wh ile
▁H am
▁St ock
▁S ite
▁Z e
▁rece iving
▁P age
▁difficult y
▁Gu ests
▁cre w
▁201 1
i ences
▁act ing
▁sp oke
▁pat ient
▁Cl ass
▁L u
▁reserv ations
▁Leg al
▁mod ule
▁desc ription
▁Sund ay
▁3 7
▁4 8
▁ski ing
▁Agricult ure
▁br idge
l ined
▁ex ports
▁inv ited
▁real istic
▁compar ison
▁M ot
▁dis abled
▁col ours
ing er
▁M P
bo x
oub ted
▁po ly
i ro
I B
e ment
▁W all
▁equ ival
▁M ult
▁ro t
let ter
▁hous ing
▁forest s
▁l unch
im a
▁H aving
▁suggest ed
▁R oyal
▁3 D
▁sc ene
▁F ire
ste in
▁H y
▁sem in
▁3 3
▁b urn
v o
▁attempt s
▁purs ue
l ights
▁ id
▁f ix
▁Con f
▁C E
z one
ograph ical
▁sav ings
▁over view
ug gage
▁period s
▁permit ted
▁fed eral
▁princ ip
▁Be ach
▁p ra
▁hor se
▁T O
▁lif t
▁port s
at z
▁ro of
b a
▁react ion
▁argu ments
m on
▁c ul
▁T ar
▁D own
▁un like
▁E xt
▁do ors
▁7 5
▁T ip
ib et
▁enjoy ed
ult ane
▁V ill
▁199 0
▁destroy ed
▁I D
▁ch amp
▁Mon day
▁relig ion
▁f er
▁oblig ed
▁cooper ate
▁man ual
▁constit ute
i xt
▁st abil
▁ref ers
▁del icious
▁bank ing
▁F estival
hip s
▁C ode
▁en abling
ch ange
▁le aves
▁port fol
or ry
▁F ood
▁F ront
▁rev ision
w ing
▁direct ory
▁confirm ation
▁t ables
▁res ource
▁just ified
▁Cong ress
▁dis k
▁is t
os is
▁pay ing
▁J ac
▁harmon isation
et ing
▁E duc
g ence
▁political ly
▁Ad m
▁continu ous
▁ten nis
▁b omb
▁mun icip
a ud
▁199 4
▁P DF
▁r id
▁signific ance
▁special ist
▁rep ut
▁foot ball
▁unforget table
f e
▁freedom s
▁CO 2
▁leg ally
▁F ort
▁G olf
▁tw enty
▁A lex
▁public ation
▁l ov
▁referend um
s ite
ic ing
▁trad emark
alle l
a ft
▁b ab
▁rad ical
▁p or
▁am en
▁import s
▁last ing
▁welcom ed
▁Stras bourg
ad vant
▁negoti ating
▁s ought
▁Sal z
▁In vest
▁Fl ore
▁trip s
ul f
▁k illed
▁clean ing
▁Fed eration
▁Fin land
▁des erv
▁ent repreneur
▁Aud itors
b us
▁ra re
▁hand le
▁instruct ions
▁direct ed
▁ret ail
▁superv ision
▁r ising
▁ AT
▁prosper ity
oubted ly
I G
▁an tic
▁charact ers
▁forth coming
▁l ived
▁t ree
▁ •
re l
▁H ist
onym ous
or ation
hed ral
▁Social ist
he im
▁dis advant
ul ous
▁19 2
▁compl icated
p ay
▁em pt
id a
▁test ed
ne x
▁Barro so
▁f estival
▁M ill
▁te a
▁att rib
▁lab elling
▁soc ieties
▁Fac ilities
▁sure ly
▁b ul
▁welcom es
▁suff ered
▁enter prise
▁alloc ated
▁proceed ings
▁comp act
▁E P
▁ins pect
▁ind irect
L E
▁contrib uted
▁ord inary
▁m ir
▁be ings
▁in n
▁Co op
▁whe el
. de
▁mod ules
▁paramet ers
g l
▁every body
▁sur ve
▁prevent ing
▁b ag
▁firm ly
w ood
▁appear ance
▁Sit uated
▁s elling
▁real ise
▁f ans
▁hom es
▁D ist
▁b ond
▁gall ery
▁dev ot
▁club s
▁n one
c are
▁sound s
▁con ce
▁hy d
▁w ider
ow nt
▁origin ally
▁un a
▁remain ed
▁fab ric
▁program ming
ur day
p art
mb ud
▁ac adem
▁T ibet
▁Secret ary
▁h ol
▁ev ident
▁hor iz
▁introdu cing
▁US B
ron om
▁acknow led
he tic
▁sp ons
▁Ex ec
▁H T
▁R E
▁well ness
▁g ather
▁remark s
▁Serb ia
▁ph arm
▁P ass
▁recogn ized
▁Mor oc
m y
▁rom antic
▁bar riers
▁B ol
▁Sh ould
▁pas sion
ell er
▁cut s
ent h
▁EC U
▁S ud
▁function ality
▁Isl amic
▁recon c
m ed
▁ind icate
▁hard ly
▁sustain ability
▁jud ge
enc ing
▁cell s
▁L as
▁Pet er
▁S D
▁St ability
▁prot est
▁pr ime
▁fe es
▁sim ultane
▁sw itch
▁G all
▁R em
▁hospit ality
▁c rop
▁r anging
▁enh anced
▁exclus ion
▁vess els
augh ter
ploy ed
w an
▁c raft
▁det er
▁Americ ans
▁Mich ael
▁he aring
▁obstac les
ap t
▁Pro ject
▁S C
▁G ran
▁where as
e av
ist a
▁St art
▁Ind ian
▁move ments
▁sect ions
▁phot ograph
S cript
▁Ex press
sequ ent
▁er rors
▁welcom ing
1 1
▁On line
▁comb ine
▁Do es
▁adap ted
▁sav ed
▁Ch arl
▁legit im
▁explain ed
▁he s
u er
▁democ rat
▁P ut
▁trans mission
▁collect ed
▁3 4
▁w ireless
▁fram e
▁b ird
int s
▁investig ation
▁accur ate
▁T un
▁Slov en
▁intern ationally
▁muse ums
▁organ ic
▁class es
ed s
▁regard less
▁miss ing
▁st ocks
▁dec re
▁consider ably
▁explo itation
▁b ike
▁Commission ers
▁dis asters
▁pro x
▁sh ar
▁accept ance
▁imag ine
▁amaz ing
ag o
ivers ary
▁V ia
▁turn ing
▁Reg ional
ig nt
▁cover ing
▁mov ie
▁product ivity
▁show ed
▁did n
▁fle et
is p
▁un ited
e ff
▁look ed
▁jur is
▁to ile
▁univers ities
▁r u
▁reflect ed
▁rec all
▁inter view
▁euro s
ern el
▁A ccess
▁B ern
▁dign ity
▁A sian
▁Mus ic
comm un
o es
▁1 st
▁no vel
▁sy n
▁del iber
▁s oph
os lav
▁minist ers
▁dial og
▁C AP
▁D ol
ip p
▁gener ate
▁K l
▁dia gn
ir k
▁exclud ed
6 0
▁n ine
▁al leg
▁O l
▁K ar
▁penal ty
▁r ide
▁fem ale
▁d os
▁g ap
▁V an
▁und oubtedly
▁end eav
▁d ies
▁L uc
▁des k
▁che cks
▁mob il
▁tim et
T A
▁set t
▁pre st
▁viol ations
g a
w ater
▁G r
▁Part ners
▁in ev
op es
n ia
▁S ou
▁Sat urday
▁ing red
D A
▁f an
▁R os
kt op
▁distin ct
il i
▁19 th
cess ion
▁stud io
▁fil ter
▁consult ing
▁Ven ice
▁S up
ul ed
▁cat ch
▁belie ves
▁gener ations
▁song s
▁Gene va
k es
is ch
ic yc
▁comput ers
▁not es
id o
▁vide os
▁b en
▁lay er
h y
▁spl end
▁Balk ans
▁man aging
▁Christ mas
▁transfer red
▁can cer
▁travel ling
▁hon our
u els
▁P PE
▁st ret
▁Res ort
í a
▁pl astic
▁cl ause
▁cl imb
▁sovere ignt
mbud sman
▁Y ug
▁&apos; A
▁V iew
▁Val ley
ust er
▁concent rate
▁D u
p ir
at ch
▁ra c
▁mass age
▁inc red
▁suppl ied
▁rel iability
▁rest ored
▁coord inated
.3 0
▁satisf y
▁sy m
▁b reed
▁st ages
▁St at
▁Organ isation
▁lik ed
▁cod ec
▁dr iven
▁par allel
▁she et
▁undert aken
▁B re
▁free ly
▁reflect s
▁amen ities
▁shad ow
▁C orpor
▁W ed
▁end ed
▁M ess
▁fisher men
▁B M
▁ar bit
▁3 8
▁sub sequent
▁super ior
quir y
▁pro l
ch ant
▁Ch o
▁Austral ia
▁rest ore
erm an
▁sy nt
▁c ock
▁ed ition
▁wor st
act ive
▁Ag enda
▁recon struction
▁Su pport
▁EC B
▁9 8
▁strengthen ed
▁sovereignt y
▁Yug oslav
an i
▁par a
▁design s
us al
la im
▁antic ip
u a
ri e
▁inter v
▁Cas ino
▁v ig
i ov
▁b io
ie val
▁Ne xt
ot ive
▁ex pos
▁G ar
an z
▁restruct uring
S t
▁T em
▁loss es
in et
▁pe ak
▁ar ise
▁Con d
▁Rep resent
. org
og rap
▁cult ures
▁lear ned
▁en em
▁liqu id
ade qu
▁therm al
le ts
▁ass embly
▁se qu
▁rep air
▁P u
▁under ground
▁neighbour ing
▁Comm on
▁25 0
i h
▁appro ve
▁list ings
▁Mart in
el ine
▁any where
▁prov ince
ild ing
el a
▁System s
▁ord ered
▁R O
▁process ed
▁brief ly
▁target ed
▁pictures que
▁201 3
▁Cult ure
art ment
▁cal m
▁s qu
▁p ush
▁M ic
▁S E
▁equival ent
▁su d
▁Ex pl
▁flo ors
▁4 2
▁panor amic
j o
▁C arl
▁hold s
▁h iking
▁F riend
▁Mr .
▁treat ments
▁trend s
▁unf air
▁un ne
▁Educ ation
▁C ivil
ir ty
▁he ight
▁ra ising
▁in adequ
▁dis ag
▁eng age
ol ic
h of
▁tra cks
n ight
ar io
▁ann iversary
▁deep ly
▁P ay
▁Con sequently
▁Tre k
▁var ied
▁a .m.
▁individ ually
▁Exec utive
▁constit u
▁portfol io
ing ly
▁U ser
▁mult ilateral
▁Is lands
▁3 9
it an
▁fact ory
ic ks
▁Cast le
▁Georg ia
▁dam ages
▁add s
▁hon est
▁Den mark
it ative
▁pret ty
u v
▁sen sible
▁necess arily
d own
rid ge
k et
▁as ide
▁pan el
ed ly
▁ed itor
▁present ing
▁unne cess
▁p ip
▁f ly
▁st uff
▁S am
▁G en
▁L ook
▁att ached
▁ec ological
▁NG Os
▁h ill
▁form ats
▁abs or
▁gu ard
▁stud ent
▁s ights
▁eng aged
▁d ownt
▁v ine
▁New s
▁Belg ian
▁F isher
▁ol ive
▁contro vers
▁norm ally
▁My S
cl ub
▁reput ation
st ream
▁A D
▁appropri ations
▁print ed
it ar
▁tr anqu
ind er
▁C F
▁territ orial
t ime
▁Te am
▁v ib
S L
▁exec ution
f ord
▁b oy
▁v it
istic ated
▁p us
▁dif fer
▁teach ing
▁juris d
▁int ends
▁199 2
▁exec utive
▁Fam ily
▁T rad
▁prof its
um ping
▁every where
▁threat s
▁Cons umer
▁ é
▁high lights
▁G ent
▁refer ring
▁v ent
▁budget s
▁Prot ocol
▁dec ade
m m
t d
▁pil ot
▁sh oot
▁accom pl
f in
or ous
▁W ould
▁O mbudsman
▁ent ering
▁fair ly
▁M ax
C D
▁C S
▁us age
▁eng ines
▁efficient ly
o ff
▁0 4
on ic
▁record ing
▁urg ently
in en
en ues
▁tra ged
▁hy p
il er
▁m as
ce ler
he red
▁c ater
▁rel ates
▁comp uls
▁lay out
p read
▁a er
▁f al
▁ge ographical
▁Last ly
▁ra in
▁beg ins
▁Isl am
▁pill ar
▁ass ign
▁T om
▁st unning
▁8 00
▁Custom er
▁phenomen on
▁ar g
▁t ill
▁kilomet res
▁w ides
▁reserv ed
▁sh ock
▁prom ised
▁overlook ing
▁strugg le
. 000
▁L ith
▁acqu ired
h n
▁m ouse
▁cal end
▁p ul
▁cl in
▁produ ces
g in
▁C lear
▁A P
▁ar ising
▁R et
▁dec line
▁ref und
▁Re f
▁magaz ine
▁for got
▁interp re
▁Budget s
▁meet s
▁V ide
n am
▁A 5
▁special ists
ira ble
▁g rown
▁tw ice
▁prospect s
▁strict ly
h i
▁t ort
▁Rot ary
E W
▁prom ise
▁ne ut
▁highlight ed
▁medic ine
▁l iable
▁mist ake
▁cohe rent
▁succeed ed
▁adv enture
▁comb ines
▁occur red
▁rein for
ess ions
▁H olid
▁tax pay
▁incorpor ated
▁A ward
▁se ats
f l
▁result ed
▁bro ther
▁end s
▁ro w
ha ust
▁insp ired
▁consequ ence
▁candid ates
▁Us ing
▁old est
▁Aut om
k m
und er
▁oper ator
y stem
▁he nce
▁Ar gent
▁W ater
▁produ cer
▁ser vers
z ard
▁J ose
▁head ing
▁st ick
▁stre am
r ity
▁war ning
▁scient ists
▁f ax
▁k ernel
▁air ports
re y
▁consid ers
▁affect s
▁h ills
▁op ens
▁conf idential
or ne
▁av iation
al y
▁cult iv
▁T ai
▁H D
▁environment ally
▁essential ly
▁soph isticated
▁serv ing
▁II I
▁N ap
▁Indust ry
▁fe et
▁arm ed
▁12 0
b s
us ing
▁dom in
▁sp here
▁bl ind
▁rec re
▁convention al
▁col ors
▁Java Script
▁G ra
▁fa ult
▁gradu ally
ak er
▁caus ing
▁Not es
▁C r
▁virt ually
▁Deuts che
▁B ra
▁particip ating
▁assoc iations
▁Ac adem
▁record s
▁d ivers
▁D ig
▁n ative
m atically
ut ors
▁P oker
▁me al
▁6 00
▁context ual
▁tro ops
h ors
in ity
▁sur prise
▁d as
▁bathroom s
▁Constit utional
▁rec yc
▁consc ious
7 0
ish ment
▁prison ers
b l
er as
▁th row
▁acc idents
▁diplom atic
▁P ic
▁T im
▁h idden
▁b es
▁&apos; m
▁restric ted
▁clar ify
▁Down load
it ate
rou s
quis ite
▁see ks
▁in equ
▁h at
▁explan ation
ap se
▁encoura ged
▁wides pread
▁att ach
u an
▁B ased
▁put s
▁add ing
▁ut most
▁Net work
▁Treat ies
▁P ac
▁sud den
p es
▁5 5
▁r ational
▁harm ful
ri ble
▁d ance
R E
▁report ing
▁teac hers
▁Ex change
▁se as
▁D anish
▁un us
▁At t
▁along side
▁met ro
▁th r
▁un e
ria ge
▁Coop eration
▁e ld
▁A 3
▁achieve ment
▁prem ium
▁20 th
▁super b
▁thumb n
▁B a
▁ag ents
▁quot e
▁S ever
ad ays
▁H ave
h ops
▁wood en
▁quot as
▁Sh op
▁re iter
▁J o
▁sp ite
▁pres erve
▁conver gence
▁observ ed
▁rev enue
▁pri ze
▁condition ed
▁mark s
▁surpr ised
▁shut tle
▁me als
▁cho ices
▁Dub lin
▁con ferences
▁graph ics
▁n a
▁D et
▁special ized
▁pass ing
▁n ut
▁199 3
p age
al ities
▁pure ly
▁L and
▁gu ided
▁4 9
g i
▁upg rade
▁so il
▁bl ocks
▁compuls ory
pe ction
▁cas ino
▁pro sec
▁A ND
▁def e
▁doll ar
b ed
▁J ean
or ia
▁b low
▁L ife
i em
ist ical
▁a uf
▁m ort
▁Fund amental
ad ing
▁Bo x
urs ions
▁disp ute
▁elect ron
▁m outh
▁Gard en
▁Ser ver
▁oper ates
▁lic ens
▁F ar
▁sc an
▁sk y
▁cap abilities
▁air lines
▁t ab
▁Cat al
▁mac ro
e z
▁to ward
▁be er
▁integ rate
▁re ly
▁Sm oking
ic ity
ã o
om as
▁M S
▁he ct
▁Mar ia
▁Term s
m edi
▁19 0
▁sh ift
▁V ar
▁V ers
▁9 5
▁S ie
▁0 7
▁bon us
▁st ories
▁N ik
▁O R
▁be aring
▁Pro di
▁commun icate
▁Ob ama
in als
▁r ough
▁class ical
▁perm ission
▁enthus i
O W
m at
▁recogn ize
▁flow s
▁estim ated
▁J es
▁sufficient ly
h aus
▁develop ers
▁subs crib
▁C up
▁cry st
▁L og
▁M ass
▁chair man
pl oad
i pt
▁a us
▁S ad
▁govern ing
c ul
▁percent age
▁hop es
ut or
▁ind oor
▁ed ited
▁Man ager
▁vill a
▁Sub ject
▁ext ending
ell o
▁med ieval
▁initial ly
▁K h
▁P o
▁L td
▁meaning fully
▁short ly
ut ical
▁ex em
▁man if
▁tele commun
T P
ch t
▁For um
▁I l
▁Q ue
a ution
is k
▁st ores
ib ly
f low
▁c in
▁S en
▁exp ense
▁click ing
▁prom ises
▁vict ory
n ish
▁N I
▁second s
▁stud ied
▁ex haust
▁sche mes
▁st em
re m
▁th ick
▁A M
▁a x
▁tr ig
▁over w
▁ch ief
▁ab stain
▁Q uality
ru p
▁ass igned
▁0 9
▁sched uled
▁aud ience
▁Ky oto
▁enforce ment
▁M en
▁Se lect
▁fl ag
▁9 9
▁accomp any
▁intellig ent
▁re nd
▁constit utes
▁Th ree
▁negot iation
▁relationship s
▁G reens
▁rem ed
▁fall s
▁impl ications
▁P os
▁G ames
▁ac celer
▁appro aches
▁elim inate
▁Ag ain
▁Mos c
▁amend ed
▁context ually
▁house hold
enn ium
ö n
▁w ed
▁fl av
▁cr ises
▁gram matically
▁f est
▁A st
▁en vis
i qu
▁tour na
▁B ed
▁Fran c
▁satisfact ory
▁Jew ish
▁oper ated
▁neighb ours
b en
▁she l
▁res c
▁N L
▁belie ved
▁K ong
▁enjoy s
▁ingred ients
▁T op
▁4 4
▁describ e
ific ial
▁D iv
▁where by
▁6 5
▁Me eting
▁sou l
▁compos ition
▁medic ines
, 5
▁campaign s
▁IM F
▁U nt
▁Cub a
▁W in
▁R en
ad t
ol o
▁sur vey
▁organ ise
▁tax i
▁US S
▁jo ining
▁R ich
▁rat ification
ou nter
▁urg ency
▁chap ter
▁9 7
ec hes
▁b ought
▁sm art
▁account ing
▁Sk ype
▁splend id
▁concent ration
s hip
▁viol ation
▁cho os
▁obs er
▁Child ren
▁Wed nes
▁4 3
▁g ross
ach t
ace utical
▁frequ ency
▁m ixed
▁ha bit
▁inf ect
▁0 8
▁head s
▁Em ployment
▁poore st
▁S omet
▁address ing
▁m erg
▁empt y
▁k ill
▁N av
▁L im
▁remark able
▁Fisher ies
u ct
▁f ell
▁Inter governmental
. C
▁L am
▁j u
▁M aster
▁bo ats
stit utional
▁transl ated
e per
l ife
▁T ro
▁mod er
▁L os
▁H ong
▁conc iliation
▁0 6
▁cert ified
▁fif th
▁re ferences
ul pt
▁head qu
▁m el
▁g ro
▁loc k
rop ical
ig ious
▁V ict
ert s
▁appoint ment
▁M ake
▁inc ident
resh old
▁T est
▁may be
▁ins uff
▁news letter
▁pers ist
g ies
▁es c
▁comple tion
▁ult imate
ap est
▁found ations
▁owners hip
▁E nt
▁Slovak ia
f a
s en
iv a
▁19 1
▁Author ity
▁deserv es
▁the atre
▁nav igation
▁e ase
et t
▁US D
▁timet able
▁techn ique
▁obs erve
ion es
▁re ass
▁enjoy ing
▁fasc inating
▁A B
in ery
re me
▁B at
▁surpr ising
▁thumbn ail
▁more over
▁Flore nce
iv als
ure ment
▁ext ract
▁Cur rent
▁d é
▁ch at
▁Host els
▁Dav id
ut t
▁we ar
▁r iding
▁upg rad
▁dict ators
C C
it o
▁R h
▁Le ban
▁bro ken
▁tar iff
▁con vert
▁deb ating
▁exam ination
▁elect rical
▁leg end
▁prefer red
▁fav ourable
▁few er
▁consider ations
▁second ly
▁A S
▁port al
b ur
▁me re
▁9 6
▁gr ass
▁incent ives
▁m o
▁codec ision
▁ro ots
M S
▁ad mit
▁pers u
▁pool s
▁1 000
▁Intern al
▁check ed
▁h ung
▁ex posed
ag a
▁product ive
▁Stand ard
▁s orry
▁aut hors
▁Ind ones
▁rein force
zz a
c le
▁l uck
▁V iet
▁sy mp
▁fol der
▁bo asts
▁Z ur
▁genuine ly
▁unnecess ary
▁cl ock
▁s izes
▁B ack
▁second ary
▁legitim acy
▁W ord
▁Col le
ound s
▁Pl aza
rich t
▁coast al
▁spl it
▁journal ists
▁t ur
▁O S
▁inf o
▁Pre m
ir ation
are r
▁fore most
▁th reshold
▁T ogether
▁y ield
▁1 .5
od es
▁In s
cond ition
▁beg un
▁fal se
▁econom ically
▁Eng ine
▁Ge orge
ic ian
▁tra ined
▁bus y
▁repeated ly
▁Wednes day
▁st ip
all ing
▁N ob
▁man agers
▁guarantee ing
▁Salz burg
▁res idential
▁spe eches
▁represent ing
▁al ter
▁arr anged
▁w ave
▁neighbour hood
▁inadequ ate
▁A 4
▁Sm all
ut er
▁respect s
d a
▁inst antly
▁N az
▁op pon
▁inv o
▁inv ent
▁compet e
▁f ost
▁mom ents
▁MyS QL
▁sub sequently
▁Mus lim
u ant
▁inc omp
▁Mod ern
er ly
▁b iod
▁aut umn
▁character istic
▁Sim ilar
ol i
▁open ness
▁M el
▁sus pect
▁ \
▁cancell ation
arg ed
▁mar ine
▁Academ y
▁w ife
▁exam ined
▁Minist ry
d o
▁Bos nia
▁Adm inist
▁sw it
▁es cape
▁int entions
▁travel lers
▁bran ch
▁Alp s
▁Moroc co
st an
▁R oad
ik a
vious ly
▁inform al
▁exp enses
▁sl opes
▁toile t
▁under lying
▁optim al
▁Sever al
▁l ively
▁A N
▁O pt
▁dram atic
▁important ly
▁Mon te
▁ep is
▁fac es
▁expand ed
▁m ig
▁ch art
▁199 1
U M
und ry
▁T us
▁exper im
▁seem ed
um es
▁Mosc ow
▁w ing
▁d iving
▁sam ple
▁act ors
▁joint ly
▁Apart ments
▁K arl
▁Ex ternal
▁text ile
in stitutional
at i
ol ved
▁tra gic
▁Chair man
u y
l as
ack s
▁Pro cess
▁Fl ash
▁G row
▁b read
▁m ur
▁princip al
k er
▁list ening
▁weak ness
▁spect rum
n i
▁pl ate
A V
▁le ct
▁voc ational
2 4
m in
ac c
▁gir ls
so ever
▁sac r
▁A V
▁re ward
▁Head s
▁Holid ay
ik es
ar ians
▁Air bus
▁jurisd iction
or ic
▁R ob
▁insuff icient
▁r ing
▁L ive
ict ions
▁art ificial
rat ors
▁Play er
▁complain ts
▁cl arity
▁sugg ests
▁willing ness
r ig
▁sc and
ung s
▁M and
▁con vey
ert o
▁9 00
▁g rat
▁stay ing
▁manufact ured
▁measure ment
▁cert ification
▁2 .0
▁access ories
▁ins pection
▁su ited
▁according ly
▁purch ased
▁ste am
h otel
▁feat uring
▁GN U
▁dist urb
▁devot ed
end o
▁ass et
h o
ub l
▁poss ess
▁calend ar
▁Tai wan
▁exc ursions
▁dest inations
▁m a
▁T al
▁swe et
ur ities
ak ers
du le
ener y
▁big ger
▁Sing le
▁p our
▁ter rible
▁Tun is
ra id
▁B i
▁finan ced
p ers
▁fore cast
▁198 9
▁occup ation
▁continu ously
ere st
▁let ters
▁compl iment
▁sun ny
▁preserv ed
▁Bl ue
▁cook ies
v ille
▁simultane ously
▁forgot ten
é e
▁Ro bert
▁log ic
▁a qu
▁transact ion
▁u pload
▁R ail
▁traged y
▁stri ke
▁Dep artment
▁motor way
▁compos ed
▁j un
▁0 5
▁s essions
im edia
▁S ection
▁book ed
▁b ot
▁ar ray
om s
▁rev ised
▁M erc
▁regul ated
9 0
▁dyn am
▁accur acy
▁rub ber
▁ icon
ain ed
▁Re v
▁To ol
▁Cont act
▁Vide o
ill ance
▁bab y
ep ing
pr int
▁F air
▁res idents
▁ad j
6 4
in ational
▁un ity
▁ass ert
▁in ner
▁C lean
▁Un ivers
▁6 4
ou d
ot hes
▁op pose
▁Fin nish
▁Sc ot
▁St aff
▁Palestin ians
▁reb u
▁ref used
▁promot ed
▁pub lish
▁conven ience
▁doub ts
r ut
on i
w a
▁con form
▁G U
▁t ang
ous es
▁B av
▁special ly
▁vac c
▁af raid
▁dead line
▁PR O
▁des ktop
▁path s
▁sovere ign
▁b out
▁Other wise
▁Was hing
▁g ift
▁E nd
▁Pol it
▁the rapy
▁mod ify
▁z ero
know n
▁what soever
▁ele v
▁S ign
are st
▁sc ulpt
▁rec ru
▁bus es
▁express ly
▁mechan ical
A B
▁m ine
▁trans itional
▁find s
▁affect ing
▁D ou
▁rel ief
ann es
▁con j
▁ce iling
▁Pers onal
▁Sud an
▁int ense
▁trans fers
▁fre ight
▁M o
▁H ans
▁L ear
be it
il ation
▁bas ically
▁phot ograp
▁g ear
ric k
▁park s
▁belong s
▁pharm aceutical
▁w al
as ion
▁eth ical
▁no body
▁install ations
▁quant ity
▁B rand
▁comm od
▁stress ed
▁remov al
H O
T S
▁w age
▁be ef
▁trou ble
▁st ead
ple te
▁per pet
▁los ing
▁c m
▁l akes
▁dim ensions
ul ates
fere nt
▁del ays
▁p ace
▁integ rity
▁arrange ment
▁b icyc
igh ter
r ally
as er
▁S port
▁ide ally
▁lands cap
▁s ake
ra ck
▁exhib itions
em ed
▁focus es
▁Te le
▁observ ation
w ell
▁man ip
er ce
▁pl ain
▁fund ed
ier a
▁elect oral
▁coll apse
ars h
▁decl are
▁f o
▁log ical
▁grant ing
▁behav ior
▁M oz
▁J ul
▁stop ped
▁construct ed
▁h un
▁Pac ific
▁ke ys
▁Su ite
er b
▁ref use
▁adv ise
▁health care
▁Are a
▁St orage
▁renew ed
▁prof ound
▁ ­
og en
▁J ames
▁Gent oo
▁fall ing
▁S L
▁L es
▁catal ogue
▁b ay
▁bu ying
▁Sh ow
▁broad er
u j
▁prox im
▁vine y
▁You th
▁cam eras
▁var iable
l ich
▁N ov
G B
▁turn s
▁L ight
rat or
▁p ensions
▁pain ting
▁M aced
▁can cel
ip her
▁govern mental
▁p oker
ur ches
▁G aza
▁enc ry
as se
▁vis its
▁correspon d
▁certific ate
▁J er
▁autom otive
▁s ailing
▁publ ishing
▁bre ach
▁kn ew
▁g ate
▁L ate
▁des erve
▁brand s
▁sold iers
▁prec ision
▁distin ction
▁altern atives
▁viol ent
▁benefic ial
▁d uration
ud es
▁Stud io
▁Represent ative
▁ir re
hol m
en z
▁F ull
so le
▁monu ments
▁el ig
▁D a
▁M ü
▁L o
▁trans it
arc hers
▁be at
▁ch a
▁ident ification
▁Bud apest
▁I de
and o
▁when ever
▁4 1
▁achieve ments
▁post al
▁log o
▁Soc iety
▁Ang el
▁M obile
ir ts
▁prepar ations
▁amend ing
▁press ing
ir s
op ard
▁18 th
▁no on
▁prec ious
▁deb ated
▁undert ake
▁M ade
▁se gment
▁tw in
▁rese archers
▁S earch
▁Mar ina
▁official ly
▁conver sion
▁B ab
▁Washing ton
ra ction
ath y
t ains
▁f ores
▁un b
▁Sp ace
▁lo ans
▁cancell ed
pos ition
▁rec over
olog ne
rop ol
▁territ ories
▁explicit ly
E A
▁in eff
▁Charl es
▁prest igious
▁mach inery
▁const ra
▁Pl ace
▁c row
▁ar ts
▁sche dule
▁C itiz
am in
our se
ition ally
▁President s
▁focus ing
▁surve illance
▁ п
or ate
▁M old
▁v ic
ors es
▁g ast
▁sp ell
▁Grow th
▁sign als
▁vir us
▁green house
R O
▁l od
▁newsp aper
▁susp ended
▁M A
▁P ia
▁tow er
▁ref lection
▁J oint
▁extre m
ad y
e en
g art
▁afford able
▁l ingu
▁prevent ed
▁relax ed
▁deter ior
▁Reg ard
▁C ologne
▁un re
▁tra ins
ast richt
▁necess ity
▁concert s
▁Mil an
.T he
▁per ce
▁sand y
▁rele ases
▁stop s
▁h am
▁C re
▁D A
▁pop ulations
▁negoti ated
▁ign ore
h re
▁employ ers
▁priv at
▁Le ft
▁mult inational
▁civil ian
▁Ma astricht
at lantic
▁st rip
▁B ure
▁tem pl
▁unus ual
▁Loc ation
▁Zur ich
▁Hostels club
▁thank ing
p m
▁S O
▁dele te
▁w ars
▁pres idential
▁g ym
▁adjust ment
▁m ental
▁cent ers
▁Cont in
▁S ar
▁post s
▁F A
▁shar p
▁Dig ital
ur able
▁att ended
ote chn
▁frequ ent
▁P oint
▁D al
▁win ner
▁log istics
▁A z
▁Pres s
▁conserv ation
▁Olymp ic
el ve
▁le ts
▁taxpay ers
A .
f ront
en ess
▁telecommun ications
▁rat ified
▁rul ing
▁Oper a
▁dr ives
▁Pri ze
▁certain ty
es ter
▁f lying
▁T am
▁C a
▁organ ize
▁public ations
▁architect ural
ID S
▁S V
el le
▁N ear
▁tra ce
▁conf ident
▁typ ically
▁favour ite
▁indic ators
▁S ony
au er
j ud
▁supplement ary
▁sp are
▁tre as
▁threat ened
▁catal og
▁photograph s
▁R ural
ar f
▁pers ec
▁national s
pect ives
iz er
▁orient ation
▁L ic
▁fail s
▁reveal ed
▁Cons erv
▁Liber al
▁4 7
▁academ ic
▁t ip
▁en viron
▁feed back
▁hes itate
e y
un te
▁O s
▁ch ose
ian a
▁real ize
▁interact ive
▁t ough
▁replace ment
▁uncertain ty
▁import ed
▁compr ises
▁V ir
▁stay ed
▁farm s
▁commer ce
▁Sou thern
▁I ce
▁Partners hip
▁W olf
▁Unt il
▁acquis ition
▁sign ing
▁purch asing
▁advert ise
▁privile ged
ic ted
st r
▁un known
▁4 6
▁ um
▁I ron
▁E ss
▁Web site
▁in ject
▁Europ ol
▁Th omas
▁mand atory
▁ev olution
▁overw hel
▁K en
▁sil ver
t el
on ing
▁S pr
▁air line
▁citizens hip
▁conf ront
▁contract ual
▁mist akes
▁L ist
▁sub stit
▁negoti ate
▁demonst rates
▁disappe ar
▁Le on
▁hosp ital
it ter
▁M ach
▁B erg
▁bureauc racy
▁evalu ate
▁N ic
▁al ike
è s
▁ill ness
g ments
re ction
▁B SE
▁just ify
▁mov es
▁H our
▁L angu
▁chemical s
▁cock t
p ie
▁In nov
▁J ack
▁manif est
▁S em
▁U R
▁pat ents
▁innov ations
▁R u
▁hyd ro
ot he
▁con vers
▁occ urs
▁Qu ark
▁emerg ed
▁har bour
▁worry ing
▁not ably
▁mov ies
ac ión
▁liter ature
▁As h
▁arch ive
▁gener ous
▁death s
▁not ified
▁consist ently
▁I B
▁ph ones
▁indic ates
▁C N
▁P en
▁pattern s
C H
▁Ob ject
▁E X
▁applic ant
▁camp s
▁j oy
▁creat ure
l ock
▁interv ene
▁Cond itions
▁ex empt
▁Ad obe
z es
▁T ick
um ed
ord er
▁De posit
▁heav ily
▁unanim ously
▁f ert
▁d ual
▁rel oc
▁conv entions
▁alloc ation
▁download ed
▁displ ays
▁Ser ies
le m
▁ton nes
▁C amb
▁F reedom
▁r ating
▁meas uring
▁drink ing
▁part ition
▁where ver
▁5 2
▁authent ic
▁cl othing
▁Z imb
▁contrib uting
▁Can on
▁coord inate
▁claim ed
▁Bure au
ur f
▁M ajor
▁withdraw al
3 2
▁c ouncil
▁sur pl
▁spec ify
▁clos ing
C E
▁E c
▁acc um
▁Invest ment
▁V o
▁18 0
▁qual ifications
▁sen ior
▁prem ises
ak h
▁Bur ma
u ania
▁al umin
▁I V
▁compet ences
▁le ather
▁ch urches
▁Put in
▁p up
ab we
ung en
▁initi ated
▁co oking
▁Inst all
▁apparent ly
▁proxim ity
▁Lith uania
▁lo vers
▁Cop y
▁horiz ont
▁e gg
▁ass urance
▁ke en
▁E R
▁pl acing
v ia
ag on
▁str ange
▁perform ing
▁Sloven ia
▁system atic
▁Ad ri
▁return s
▁cred ible
▁vict im
▁arg ue
▁T ues
▁A IDS
▁col umn
▁jud gment
▁Zimb abwe
▁proc urement
h ard
▁experi encing
▁sh ot
▁cater ing
▁conver ted
ch o
▁minim al
▁mur der
an es
▁tra il
▁rece ipt
▁rat io
rit ten
▁def ic
▁Yugoslav ia
h one
▁c aught
▁p ays
▁Be aut
reg ular
▁eld erly
▁re cession
lim inary
ress es
▁time ly
▁euro zone
▁I b
con nect
▁visit or
▁Comp et
▁favor ite
▁C ross
▁he ro
▁defic its
▁J un
▁slow ly
j an
▁t ropical
▁w ise
▁un st
room s
U T
▁he ated
enc ia
esty le
m atic
▁hand ed
▁occup ied
▁sem i
▁im bal
▁form ation
▁H en
▁ass ured
▁Mal ta
▁arbit rary
▁cont est
▁warm ly
▁fit ted
▁creat ivity
ed e
▁cop ies
io x
▁answ ered
▁impos ing
▁headqu arters
▁biod iversity
▁S on
ord s
f all
▁F ried
▁2 nd
▁human ity
▁rob ust
▁av o
▁16 0
uzz i
▁Ex cell
▁intellig ence
▁z ones
▁tra m
▁potential ly
▁Every thing
▁D S
▁ag rees
▁keep s
▁terror ists
▁gir l
▁I G
▁8 5
▁Cho ose
▁o x
▁mag ic
▁purs uant
y e
▁sent ence
▁r ic
▁redu nd
h ow
▁works hops
▁Bud d
1 5
▁st ance
▁purs ued
▁sil ence
or rect
▁S olid
▁accommod ate
▁fl ash
▁special ities
▁ben ch
▁Expl ore
▁M as
▁E lev
▁20 12
▁Sy ria
▁Up d
▁h ole
▁L ie
P C
▁S av
w er
▁em p
▁du pl
▁mir ror
▁W ars
▁B ang
▁ref urb
▁integ ral
pl ay
▁deg rees
▁disp utes
▁expos ure
re ll
▁ir regular
▁sc rut
▁light ing
▁b rain
▁hand led
▁Democ ratic
▁find ings
▁Wh ich
▁design er
▁Scot land
ro b
ard o
▁respect ively
▁conv ince
▁Exper ience
▁Citiz ens
▁d iet
if ts
▁sc ore
▁pers pectives
ib b
▁works hop
▁Commun ist
▁de pr
▁struct ured
▁im pr
▁mak ers
▁las er
al ed
▁progress ive
iling ual
st one
▁specific ations
▁suggest ion
▁Cal if
▁term inal
▁amb ition
▁temper atures
oom s
▁Argent ina
▁O N
▁expand ing
um ps
▁Sc ience
▁unem ployed
▁T urn
▁K urd
▁det rim
▁7 00
▁Ob viously
▁Iran ian
▁L E
▁pract ically
▁ess ence
▁tre m
▁emphas ised
▁Em pire
▁colon ial
▁S ound
▁st ays
ht aking
▁neut ral
as is
ct or
▁P rom
ay a
▁ha ird
▁platform s
▁parad ise
au x
▁Ap ple
▁treat ies
u ber
pro pri
▁ped est
▁Stock holm
ad s
▁ch ocol
red it
▁adv ent
▁via ble
▁emb ed
▁doct or
▁2 .5
▁R ight
▁bl ame
▁M em
▁R ou
▁def ining
ene z
▁low est
AT ION
▁R ap
▁fund ament
▁21 st
▁C R
▁sol ved
see ing
▁Colle ge
▁inclus ive
m l
▁des irable
▁Or der
▁cover age
▁BM W
▁c er
▁And re
▁Cons ult
▁ult ra
lim ited
▁em ission
▁De cl
▁expl os
▁bi ological
▁controvers ial
▁t ub
un es
▁ter ra
8 6
▁st roll
▁ed it
ions hip
▁cont am
▁enl arged
с т
▁U r
SC O
▁Vis it
ri um
▁expl ains
▁compar able
▁Nord ic
▁th in
▁D er
▁rece ives
▁describ es
è re
▁t ank
ar ation
▁m ale
▁K al
▁perform ances
N A
á n
▁direct ions
▁Ad v
▁talk ed
h l
▁sal t
m ony
▁ha zard
▁ch airs
ail ed
▁Acc ount
▁meant ime
▁Calif orn
M A
ch ron
rom e
ag n
▁Alex ander
▁m 2
▁harm ony
b les
▁St ra
▁p apers
▁N ep
▁Al t
▁Pe ace
▁disag ree
▁crop s
▁view ed
▁choos ing
er ge
▁sp r
▁sur g
▁graph ic
▁Def ence
or ca
▁un ions
▁develop s
▁ent ries
▁er ad
▁Gold en
U L
▁se es
▁Parliament ary
▁shap ed
▁d ating
▁pre liminary
▁worth y
▁underm ine
▁t or
▁t ips
▁Add itionally
▁the ore
▁en chant
▁breat htaking
▁apprec iated
▁sett led
ent e
▁vot ers
▁consequ ently
it ra
ak ings
▁ce ase
▁doll ars
▁thorough ly
▁K irk
▁sw ift
▁Social ists
▁Host el
▁s i
▁w ake
▁is n
▁sc enery
▁inter institutional
▁Similar ly
pro of
▁sign ature
ock et
▁18 9
▁regul ate
AN T
▁avo ided
▁end ing
▁ret ire
oph ob
▁acqu ire
in os
▁m urd
▁M all
▁des ert
▁exper iment
▁c ot
I X
▁mar quis
▁w are
ic he
▁tem pt
▁Cat hedral
B S
▁trans formation
▁controll ing
▁Mc C
▁cos met
▁inc orrect
▁substantial ly
ck er
▁partnership s
▁Tues day
▁Pu erto
▁downt own
▁set up
. net
▁to x
▁br ut
▁express ing
▁Elev ator
▁fe as
▁che ese
▁phot ography
▁declar ations
▁disappoint ed
▁S AP
▁dev ast
f ield
k l
▁I F
pl ed
▁exec uted
▁trib ute
il a
▁C ertain
▁teac her
u z
▁Al ong
▁non etheless
▁exch anges
▁tort ure
st uff
▁U lt
▁sc reens
▁post ed
▁lic ence
▁re ct
amp s
▁neg lect
▁N OT
ik i
or able
▁p ine
▁f ib
▁r ivers
▁fin est
▁Iraq i
▁cryst al
▁C ath
▁M ur
▁E ff
▁spirit ual
▁tail ored
g or
▁m aps
▁H ence
▁ra ises
▁meas ured
app ing
▁draft ing
▁undert akings
L O
m o
am i
▁He ating
▁max im
▁Leban on
▁dam aged
▁bat tery
▁bureauc ratic
2 5
ic an
▁stat istical
▁T R
▁3 rd
▁acknowled ged
▁H and
▁ad mitted
▁j ew
▁5 4
▁conf usion
▁capt ure
▁Sc ott
▁tem por
▁cat ast
▁Inst ru
▁sport ing
▁Lab our
▁Be ij
▁B ig
▁belong ing
▁s q
▁G i
▁L uggage
▁pre de
▁autom ation
▁bird s
E X
á s
▁P ap
▁incred ible
▁isol ated
▁G B
▁celeb rate
▁paramet er
▁m erc
▁form ula
▁p od
▁f ought
▁C reat
▁der ived
▁p m
▁Im age
▁engine ers
▁pain tings
▁inter medi
▁finan ces
▁d ust
▁ag ent
▁pred ict
y an
▁gu itar
▁Eas y
▁C ON
▁ex ert
vent h
it ored
▁per ipher
p a
iver se
▁Every one
▁prohib ited
at is
▁res id
app ed
▁fulf illed
▁je opard
▁HT ML
▁Beij ing
b u
▁them es
che stra
▁c up
▁Maced onia
▁Adri atic
▁regret table
▁b orrow
▁ab und
n en
n ings
▁d umping
ance ll
▁ass emb
▁enc ounter
▁hop ed
▁neg lig
▁less on
▁vol unte
▁wind s
▁wat ching
▁fear s
anc ies
un ately
▁p act
▁he l
▁dem ographic
com ings
o ft
ad ium
▁p iano
▁b id
▁M B
▁F OR
▁V enez
▁tell s
▁ign ored
▁inc ur
▁circ uit
▁Disc over
os a
▁G ulf
ative ly
▁found ing
▁environ ments
▁warm ing
▁mon itored
▁download ing
▁Budget ary
▁scand al
▁imper ial
ov en
▁condem ned
▁discipl ine
▁w ages
▁rac ism
7 5
▁short comings
▁Apart ment
is er
▁pre re
▁soc io
▁gen et
▁Palest ine
ism s
▁h ier
▁G ame
d ers
▁sh ame
▁G er
▁th read
▁comp are
ab e
▁out set
▁f ate
▁un fortun
▁gen etic
▁bran ches
▁sens or
▁b are
▁y ellow
▁not ion
▁se af
▁K now
1 9
b ach
▁opt ical
▁unp re
▁Hist ory
S A
▁in quiry
▁challeng ing
▁Ed ition
▁toler ance
▁complex ity
▁public ly
▁accept s
▁coord in
b reak
▁Le ague
▁food s
▁mult imedia
▁character ized
▁wid th
u est
▁govern ed
▁autom ated
▁autonom y
it udes
▁Ham as
▁S U
▁E ur
ä t
te in
we g
▁reject ion
▁incorpor ate
os c
▁L ong
▁Or ig
▁ ·
▁m ixt
▁g al
▁fall en
▁incent ive
▁search ing
▁cod es
▁Californ ia
y ers
ug g
▁subsidi ary
▁k ids
▁though ts
▁ в
▁B an
ak ed
▁equ ity
vent ions
▁Alb ania
▁Clear ly
▁p ione
▁character ised
▁A .
▁sp ots
▁t aught
le et
pl ing
▁gar age
▁cl im
op ter
▁5 3
▁separ ately
▁guid ance
▁unfortun ate
▁bro ch
▁flow ers
▁infring ement
ü ss
н о
▁trans atlantic
▁Ch ap
▁real ized
▁conj unction
▁log in
▁depart ments
O P
▁co ach
ang er
▁p ig
▁ad verse
▁inv itation
▁simpl ify
▁semin ars
▁defect s
▁Dol om
it ting
ment ation
▁V e
▁abandon ed
▁del icate
▁draft ed
▁Non etheless
▁surv ival
▁Mic hel
▁W al
▁ed iting
▁except ions
▁Indust rial
▁pl ural
▁sty les
▁sch ol
▁t ut
▁re per
▁word ing
▁W il
ern e
▁cent rally
▁check ing
▁lack ing
▁Sil ver
C P
▁B 5
em ic
▁redu ces
ins ula
▁penal ties
▁Nor way
▁Viet nam
t r
▁circ le
▁surv ive
▁horizont al
▁re verse
▁H ard
▁gr ants
▁quot a
LA F
▁f uels
▁R am
▁return ing
▁Franc is
▁opt ional
▁Tra ining
▁Techn ical
▁veget ables
▁S ah
▁celeb rated
▁Cap tain
▁g at
▁trans mit
▁em erge
ric ts
▁K r
▁transl ations
▁Decl aration
N G
▁M ean
▁prom inent
v y
▁re de
ail and
▁d iox
▁tra ils
▁Ty rol
▁iP hone
igen ous
▁t act
▁out s
ig u
▁R iv
▁ind ication
▁repro du
▁prop ag
▁Somet imes
▁accept ing
▁she ets
iab ly
▁adjust ed
▁offic er
н а
men se
▁t ape
▁gu ides
▁t ap
at ile
ret ion
▁stri king
▁Nat urally
▁Current ly
▁Rad io
▁trem end
em ble
▁respect ing
▁gold en
▁h ire
st adt
▁Ch ile
▁contin ually
▁Profess ional
▁&apos; d
▁reiter ate
▁landscap es
▁ ram
▁an x
▁cross ing
▁T a
▁P op
ie v
▁All ow
▁Ant on
▁f inger
▁l oyal
▁up coming
▁endeav our
▁E th
▁L i
▁enc ount
▁undert aking
▁simpl ification
▁reg imes
▁co inc
▁Cont ent
▁C ome
▁un equ
▁interact ion
if eration
▁N orm
▁tell ing
ES S
▁box es
▁Int eg
▁fran k
st ruct
▁min ing
▁calc ulated
P L
▁MP 3
▁impr ison
▁chocol ate
▁ensure d
ias m
▁UN E
al ia
if iable
▁mod es
▁redu ctions
▁fe els
▁share holders
▁198 0
▁Indones ia
o is
▁pre ferences
▁separ ated
z ig
▁t ension
▁h ide
oc ent
B C
l iness
▁f ro
▁im mense
▁under line
▁dom inated
▁Ab ove
y al
▁T ri
ast ing
▁circ ulation
▁der og
▁mind s
▁convenient ly
▁quant ities
t age
▁P S
▁my th
▁sens it
▁den ied
▁doct ors
▁T el
▁Th ailand
▁def ending
▁mot ions
▁particip ated
▁consist ency
▁a est
▁p ix
ä r
▁M ail
▁ev il
o a
▁S A
▁A qu
▁L ine
▁respon ses
▁list ened
▁weap on
▁L T
▁l ights
▁sol o
▁bo ards
▁expl oring
▁ident ical
u um
▁p a
▁st ood
▁m issions
▁comb ining
▁dele ted
▁recyc ling
is ons
▁C .
ark ed
▁p in
ol er
▁inter im
▁X P
iss ance
▁month ly
▁assum ed
▁Friend ly
id ad
iz z
▁Al g
▁16 th
▁bad ly
▁lov ed
R ooms
▁St utt
▁investig ate
▁g od
▁c ens
▁sustain ed
ult ural
duct ive
▁Dan ube
▁cul inary
▁E F
▁host s
▁concent rated
▁wal ks
▁ra nd
▁lingu istic
s ki
▁b ow
▁M i
▁Ab out
▁Organ ization
▁enem y
et us
▁S ix
▁analys es
▁resort s
2 00
▁p ull
▁requ iring
▁special ised
less ly
▁g est
ri x
▁d ella
▁char ter
w orks
iz a
▁comm end
▁Ex hib
▁Com b
▁Reg ion
▁o cean
▁D C
▁opt imum
▁consist ing
▁t iss
▁R io
▁overwhel ming
▁b anned
▁bas es
▁transform ed
▁vic inity
h and
h ne
▁W alk
▁B ug
▁Lou is
▁Spr ing
ra f
▁pl ed
▁pre jud
▁enthus iasm
f aces
▁all iance
rac ies
▁announce ment
▁newsp apers
p in
▁un limited
▁perman ently
▁Re form
▁brow s
bur gh
al ys
▁R oc
▁week ly
▁offic ers
▁unst able
▁common ly
▁connect ing
▁Cl ient
▁tack ling
▁f illing
▁C ert
▁S W
▁hand ic
▁che aper
l ist
o que
id ity
▁dis h
isc he
▁Alp ine
▁1 .2
▁H U
▁isol ation
▁ ©
▁for b
▁disc overy
▁Fil m
is se
▁pr on
▁mod est
▁min ib
▁Co ast
is en
▁en for
▁ref ined
▁bo oth
▁warrant y
▁dist ricts
▁adapt ation
▁trademark s
▁c ig
ust ain
▁car go
v i
he rent
▁acc used
▁5 6
eng er
▁mar vel
▁purs uing
▁EM U
▁Jose ph
T ER
▁Ch ief
▁tw elve
▁pass es
▁obser vers
. I
▁N um
▁6 8
▁Nat ural
▁p ray
▁disc retion
▁5 1
▁Sc ient
▁continu ation
▁Lib ya
▁so fa
▁cl othes
▁rest oration
▁Stutt gart
▁F if
▁H oly
▁O cean
▁present ations
▁Ant i
▁d aughter
▁explo it
▁earth qu
▁Late Rooms
ac ent
▁str ive
▁An onymous
▁Pr int
▁Fore st
▁gast ronom
re ts
▁pro pri
r aries
▁know ing
▁car rier
▁publ isher
▁rail ways
▁hum ans
▁sudden ly
p ression
st ation
▁C P
▁P lus
▁dra g
▁And al
▁tang ible
▁congrat ulations
▁sym pt
j u
▁an nex
▁D ocu
▁author isation
▁Spe c
it ably
▁C ould
▁cle arer
▁lab els
▁demonst ration
stuff s
▁t one
▁influ enced
▁S K
▁con qu
▁author ised
▁contrib utes
▁ir res
▁Play a
▁abol ition
m n
▁conf ron
▁home page
▁17 th
▁fif teen
▁arrest ed
▁unpre ced
▁f ires
▁de pos
▁B E
▁fail ing
▁Sk y
3 5
k ind
▁m igrants
▁F ut
▁P y
b r
▁s ail
▁re un
▁Ar ts
▁break ing
▁unpreced ented
▁ro les
▁obtain ing
▁al ive
▁U nd
ud i
▁gl ob
▁desc ript
▁g rew
id el
▁abs urd
▁demand ed
i ot
▁compet itors
▁mail ing
w ith
▁h us
ok ed
▁she ll
▁marg inal
▁v end
▁R ock
▁def ense
le ys
▁n icht
▁des per
▁independ ently
▁distingu ished
D I
▁a rom
▁S S
olog ically
ou st
▁l ag
at ics
ch i
▁P as
▁UNE SCO
he art
▁f rust
ress ing
▁br ill
▁resc ue
▁D res
▁back ing
▁consolid ation
▁T ax
▁re ar
▁T ower
▁B or
▁CH F
í n
▁l ens
ter ing
▁Am b
▁ear ned
▁win ners
▁p rag
▁W C
▁not ification
▁Mill ennium
▁gat hered
D R
▁M s
▁trans mitted
▁end ors
▁investig ations
▁v enture
r ine
▁fl ags
ug en
▁further more
▁g ains
▁not iced
▁te ch
▁sk illed
▁sk ill
▁Work ing
▁perm its
▁sec urities
▁excell ence
▁amb itions
▁Four th
▁cap ability
▁den y
f eld
▁found er
▁prevent ive
▁gra ve
▁impl ies
ap ore
▁B A
▁economic s
▁cin ema
▁prof iles
▁employ ee
▁Tunis ia
l ad
u i
▁st orm
all ed
▁un ex
▁labor atory
▁rand om
1 6
▁now adays
▁different ly
▁estim ates
▁de emed
▁lif estyle
▁amb ience
w in
▁back ed
ibb ean
et er
▁but t
▁inter governmental
▁aud it
▁Te xt
▁Dist rict
▁domin ant
O C
▁observ ations
▁or g
op p
▁V ista
▁super visory
▁assess ments
▁sight seeing
▁cab in
▁ab st
▁remov ing
a ire
▁sh ore
▁N ature
▁co pe
ond s
▁plan e
▁syn chron
▁subscrib e
▁pre gn
▁music ians
▁dang ers
▁Commun ication
▁Mold ova
▁design ers
AR T
aster y
▁stake holders
▁embed ded
▁s ick
▁v enue
▁ro se
▁cyc ling
▁Dou ble
н и
▁as pir
▁capac ities
▁datab ases
▁partial ly
▁ind isp
▁unanim ous
ious ly
▁Ar c
▁15 th
▁benefic i
v an
▁ind igenous
▁global ization
▁Count ry
or gan
pl atz
▁furn ish
▁motiv ated
ß e
▁ 
▁b esides
▁invest ed
op er
ru ck
▁act ed
▁mar ried
▁miss ed
ro t
▁be ars
▁C e
nc ies
▁consult ed
▁Im m
▁Lib rary
▁sc ar
▁h al
▁B und
▁feat ured
▁Car ibbean
▁R a
▁bound aries
▁Mean while
▁e ating
▁promot es
▁Trans l
▁config ure
▁Mount ain
▁m ould
▁CE O
b re
▁at h
▁J os
▁5 8
▁Uk rain
ian ces
ah r
1 4
b ing
.2 00
p an
or i
▁C 5
▁H as
▁T ok
ter ies
▁J ud
▁transl ate
▁scen es
▁Profess or
n ik
▁G as
▁rad iation
▁kilomet ers
▁unlike ly
▁climb ing
at ories
▁po et
▁ext ends
▁after wards
▁young er
▁apprec iation
▁insp iration
▁for ums
▁A ren
▁comfort s
▁feel ings
▁stru ck
▁viney ards
oth ic
▁aw ards
w est
▁un com
▁form ing
▁D am
▁count less
▁Su ites
a ug
ad d
▁ang le
as y
are t
▁safe ly
▁S and
▁br id
▁el abor
▁speak s
▁elig ible
▁dis par
▁V el
▁genet ically
▁w er
ul us
▁Cl ose
la w
▁load ing
▁diss em
▁dism ant
▁dos si
▁sol ving
▁ste ep
▁hect ares
▁t ies
▁T it
▁pr ide
▁Ch ange
▁Cas a
▁string ent
▁Excell ent
o ard
▁conv iction
w ar
▁o der
▁N ero
▁since rely
▁collect ions
▁clar ification
▁summ ary
▁Res idence
▁nut r
▁R ental
▁N ig
arg o
c i
▁the at
at on
en ade
▁d ive
▁reconc iliation
otechn ology
▁e ine
▁G es
eld orf
▁Regard ing
▁dam aging
g ov
▁re aches
▁H it
▁L ater
▁fin ishing
ound ed
ph a
▁ut ility
mark s
▁super mark
▁cool ing
▁Product s
▁Dom in
ad ed
▁B ill
ens able
▁sec ured
▁rev enues
usal em
▁ref res
▁Jew s
▁Jes us
▁dictators hip
▁t iny
▁C old
▁di amet
b rid
he sion
▁R A
▁moder ate
▁tourna ment
p ine
ic ating
uc ks
▁Sk i
▁delay ed
▁vess el
▁Gall ery
▁inst ant
▁p it
▁M ov
▁al beit
▁separ ation
▁qual ities
▁pal ace
▁m ild
▁d il
▁A K
▁min eral
р а
al and
▁C rim
▁just ification
▁5 9
▁che f
▁explan ations
▁g rad
▁L ove
▁pan els
▁Est onia
▁Super visory
▁decent ral
T R
▁G h
▁invest ing
ij k
▁M ah
▁H an
▁a ve
▁b ust
ra ge
▁M O
▁R ather
▁un ilateral
▁susp ension
▁plug in
an as
▁H els
▁dream s
▁Jer usalem
y o
▁M ul
▁real ised
▁design ated
▁b orne
▁hyp oc
▁ag es
▁int oler
▁off set
▁bl ank
▁symbol ic
▁Pia zza
▁ins ight
▁Part ner
▁up hold
▁ro yal
▁Sch ul
▁Her itage
▁camp ing
▁infrastruct ures
im al
ie re
T C
op oly
▁he lic
AC H
▁wed ding
▁War craft
▁repro duction
▁stim ulate
▁haird ry
ra v
ect ive
▁L y
▁scen ario
▁semin ar
▁disc los
▁constra ints
h m
▁A ven
▁Ste p
▁Upd ate
▁sh oes
hy th
R C
T H
ap propri
▁Cap ital
l og
as p
▁E le
▁h orses
▁bo om
▁account ability
▁seas ide
▁ с
ct ic
▁end less
▁cohe rence
T V
▁a uch
▁UR L
is ual
▁h orn
▁14 0
▁Bet ween
▁rough ly
it en
▁social ly
▁law yers
▁limit ations
▁fru its
▁awa it
▁Ann ual
▁refurb ished
ier ra
▁Ind epend
c ia
est one
▁19 50
▁bond s
i ates
▁c oc
▁P SE
▁out lined
is a
hen sible
▁contin ental
▁New sp
▁subs cription
▁compat ibility
▁l uggage
▁g aming
im m
▁avoid ing
▁indisp ensable
c les
▁w eld
▁ra cing
▁activ ated
▁attempt ed
▁Langu age
▁v ice
si ans
▁ev ol
ann ers
▁Christ ians
▁controll er
▁advoc ate
he ast
▁inv ites
▁S ams
out s
▁fl aw
▁imp etus
▁Ex c
▁crit er
▁Mon ten
▁marg in
▁Rich ard
▁epis ode
▁F ax
▁was hing
▁You ng
▁adm ission
▁lay ing
▁deliver ing
z o
st en
▁A k
▁fl our
▁exist ed
▁curre ncies
▁mis under
▁Sim ply
▁Gal ile
▁g rip
▁A F
▁div ide
▁inev itable
f o
▁w et
em s
▁fil ters
E F
▁G PS
▁pr inter
▁rout ine
▁Lic ense
es h
▁pl ot
▁ent ities
▁hope fully
▁compliment ary
▁hazard ous
od a
▁review ed
▁pedest rian
z b
▁F oot
▁tra p
▁Cl imate
▁pain t
f it
▁c a
▁install ing
▁Well ness
▁resist ant
▁M uch
▁defin itive
▁legend ary
. 20
▁E in
▁E co
▁Un like
▁K n
▁prov in
▁some where
▁system atically
▁vill as
▁counter fe
▁eleg ance
▁coal ition
e conom
▁ha ven
aus es
▁act or
isc her
▁dog s
▁All ah
▁lib raries
▁reinfor ced
▁M arg
l ims
▁H us
▁L ag
▁St r
▁adm ire
▁hy per
b ec
▁g amb
▁pat ch
▁mount ed
▁seek ers
▁Cult ural
6 8
p one
▁main stream
▁men us
iov isual
▁C ru
▁1 10
▁Sp ir
▁Sh ort
▁simpl ified
▁block ed
▁retire ment
▁g ases
▁un iverse
▁ent ity
▁neighb or
▁W ireless
▁inter faces
▁mat hem
▁Br idge
▁k illing
▁prom ising
per or
▁au ction
laim ed
▁C ab
▁D im
▁k g
▁dis reg
▁author ized
▁Star f
▁oppon ents
▁he t
▁O t
▁arr iving
▁Ven et
u gh
▁del ivers
▁hon or
▁ Ö
▁be ll
▁... ..
▁Dres den
▁w aves
▁S ac
ra k
ist ry
▁7 2
▁fundament ally
▁en com
▁tal ent
▁Phot os
▁Corpor ate
▁R ound
▁glob ally
1 8
6 5
▁subject ed
▁Be ing
▁Che chn
P A
▁O K
▁loc ally
▁bl ess
▁Bas el
▁K on
▁Ch ic
▁aut o
▁Priv acy
il ty
▁P ict
▁car ries
▁open ly
▁calc ulation
he ld
▁th irty
▁Aut o
▁tremend ous
▁S QL
▁Ar r
▁rev ol
▁pra ise
▁g reet
▁ide ological
▁Gu ide
▁inev itably
▁int r
▁aff il
rupt ed
▁T ry
ol ly
▁H IV
ink i
▁Nik on
▁res umed
▁ab ort
▁over se
▁clos ure
▁jud ges
PE G
quir ies
▁Monten eg
▁att raction
▁main tains
▁ser ial
▁Mus lims
▁C af
▁B ath
▁r anges
▁ch amber
▁cre am
▁her self
▁Riv iera
▁Chechn ya
▁adv ised
▁sl ip
▁symbol s
▁Pers on
▁Ke y
▁Cath olic
▁t urb
▁p i
el and
▁H o
▁dec k
▁prev ents
▁gradu al
▁abstain ed
en burg
▁in ex
▁writ er
▁17 0
p ot
▁Pl at
▁prec aution
▁Do ha
▁bicyc le
P M
f ox
ic ular
▁det ection
▁Ar my
▁capital ism
▁mar riage
▁Rev olution
▁t ag
▁W inter
ll er
▁5 7
▁wish ing
▁port ra
▁harmon ised
▁Alb an
▁Mot or
▁Vill age
▁Starf leet
▁encom pass
qu et
ast ics
▁conv inc
▁m ood
os ystem
▁distrib utors
▁D as
▁all ies
▁inter ference
▁de eper
.com .
▁anal og
▁select ing
▁Roman ian
▁13 0
▁m ad
▁S iem
▁4 th
▁Hels inki
▁W E
▁ab uses
▁work force
▁K DE
▁vac uum
▁decre ase
▁prede cess
▁view ing
▁fer ry
▁electron ics
il ia
▁decor ation
▁hung er
ian n
▁top ical
hab ilit
▁Stat ute
▁Sad dam
▁criter ion
▁techn ically
▁beh old
ro v
▁rul ed
i ors
▁B ell
um a
▁rig orous
P R
c ase
z ing
▁g rey
ak s
▁V oy
ord ers
▁ar ises
▁ens hr
▁adv ances
▁argu ed
▁counter part
▁3 50
▁post pon
▁surpl us
ment ed
▁don ors
▁Administ ration
▁Crim inal
▁w ire
▁C all
▁crim inals
▁recip roc
p i
▁d ans
▁l iv
▁g iant
▁J on
▁oper a
▁interpre ted
▁Sams ung
▁M ove
if ice
▁j ack
▁person ality
arch y
▁har vest
▁envis aged
▁ Š
▁st amp
▁exp ed
▁exclud e
en ophob
▁M aur
▁F arm
▁exam ining
▁dist ant
▁18 8
▁sil ent
▁entrepreneur s
▁s in
▁b ands
▁back up
▁defe at
▁mixt ure
▁ ü
▁P in
ow ed
▁G a
▁qu ery
oy s
▁heart s
▁autonom ous
▁terra ces
in burgh
▁proced ural
1 3
▁st ones
ux e
▁restrict ive
ar ium
ult ure
is dom
▁P ier
▁ad s
▁new est
▁gl obe
▁enjoy able
▁Com fort
▁Rel ations
▁IG C
▁m ic
▁L CD
ail able
▁Ar men
▁Rh ine
▁J our
▁car riers
▁rep ression
▁orig ins
▁depend ence
▁Ed inburgh
▁b old
ast rous
▁high way
▁load ed
▁ch ances
▁Sing apore
r é
▁G ay
▁host ing
▁Port o
▁iP od
u cc
▁t ube
▁Le ip
▁exc use
▁post pone
▁5 th
▁compl aint
iab les
▁cere mony
▁recru it
▁B es
▁att ain
▁eng agement
▁stat ute
▁age ing
▁Mount ains
▁breed ing
▁inequ ality
y ll
▁ra rely
▁custom ized
▁since re
h al
к о
▁he aling
▁dis astrous
▁att ent
▁adjust ments
▁indirect ly
im o
▁de i
▁gl ac
▁h ang
▁st ating
▁over night
▁key board
▁adequ ately
▁exception ally
▁g un
▁199 0s
▁threat ening
▁congrat ulating
▁revolution ary
▁distrib ute
▁C irc
▁as c
▁B our
▁6 2
▁attempt ing
▁vo ices
▁prol iferation
▁hairdry er
▁H ot
▁cour ty
▁Ap pro
▁Col omb
▁valid ity
▁accom od
▁Euro s
▁K le
air y
▁Al tern
▁mat ches
▁contrad ict
▁co ins
▁resol ving
▁cart e
▁B C
▁G ot
▁k id
ö m
▁W ood
ac o
▁K ling
▁determ ining
▁Es pecially
▁Solid arity
▁Explore r
I K
▁U l
▁ac id
▁point ing
▁Con nect
▁Kore an
▁L ind
▁bas ket
▁Pro per
▁p ose
ar n
▁H ill
▁pre dom
▁Fin ance
▁Hel p
▁sensit ivity
▁f are
▁qu arters
▁wood s
▁theore tical
, 00
▁in her
▁m aj
ut en
▁E mb
▁as ks
▁B ah
▁D i
▁aff irm
isc hen
▁Sum mer
▁s ich
▁to ll
▁tr ies
▁t el
▁work er
▁preserv ation
▁tow els
▁pill ars
▁sam ples
ad ian
ain less
oc op
▁Pet itions
▁cot ton
econom ic
▁ £
el ong
▁W ritten
ell i
▁pack ed
▁beautiful ly
▁Bl u
V I
▁b ags
▁shoot ing
▁c ow
es c
▁E .
▁int u
g arian
ut ory
▁r hyth
▁ab ilities
uss ions
▁vis as
▁Ste in
ig l
ay er
▁lay ers
▁there of
▁react ions
▁unanim ity
▁imper ative
▁invo ice
▁alumin ium
▁scrut iny
▁Newsp apers
in th
▁St ay
re r
▁N ight
▁De v
▁civil ians
▁r het
▁ver tical
z t
▁protect ive
▁Lat via
6 6
▁E EC
▁B ö
▁T en
▁mon opoly
▁ и
▁C ash
▁analy se
▁sh if
▁N O
▁form ally
▁mon opol
▁Wh ilst
▁read ers
▁refuge e
▁inn ocent
if ferent
▁Un less
▁work place
▁inst ability
▁imp ress
▁o wing
▁F ord
▁transport ed
▁Will iam
▁F ron
▁consolid ated
▁conclud es
ü ck
AR E
▁accommod ations
▁certific ates
▁h oles
▁comprom ises
ad os
▁ne arest
▁D ry
▁bel t
▁aud iovisual
▁tranqu il
▁Nig eria
▁N ok
▁clin ical
▁un just
▁An nex
▁crit ique
▁Res erv
▁emot ional
▁bes ide
c ard
▁ §
▁r an
▁pre ference
▁Wor ks
▁Dis abled
▁pl ates
▁ener gies
▁Corpor ation
▁Leip zig
▁L it
▁sec uring
old ing
▁break s
▁lo an
▁distingu ish
▁l apt
▁M ann
▁H on
▁link ing
▁safeguard ing
▁ton ight
am an
▁count s
▁Ch ancell
▁integ rating
▁Mar c
▁consult ations
▁e pid
▁al pine
▁B ag
uel a
▁Bul garian
et a
▁D ra
▁former ly
▁pow ered
▁Budd h
▁Siem ens
or ld
▁in sec
▁G R
▁N EW
▁ve ter
▁Loc al
▁lou d
▁liter ally
▁alt itude
▁Innov ation
▁h ur
▁g ran
▁class ified
on ian
▁w ished
▁T imes
ul ator
▁surg ery
7 2
▁f its
▁F ra
▁V IP
▁Fl or
3 3
▁d ens
▁E G
▁buy er
á l
or ious
▁st er
▁U pon
▁symp athy
▁I d
ra pe
▁pain ted
▁dim in
▁fulf ill
▁Rel ax
g al
▁E ve
▁limit ation
▁Mall orca
▁Fire fox
▁accompany ing
▁Galile o
▁hus band
w all
is sible
▁th inks
▁A ge
▁B O
ac ies
▁gall eries
▁Fried rich
c at
▁s ed
▁g rade
pe re
ple ments
▁mult ilingual
▁disreg ard
ras se
▁S ierra
▁R od
▁R oth
▁ref usal
▁emb ry
▁agg ressive
▁fost er
▁furnish ings
st ers
▁ch ip
ord e
▁8 8
▁ver ify
▁Sc and
▁cat hedral
▁Cong o
V .
▁Met ro
ar o
▁F ile
▁democ racies
▁aim ing
▁hun ting
▁dead lines
▁Dep ending
m akers
n ational
ph ones
▁stud ying
▁sum s
▁cat tle
▁exem pl
▁Engine ering
▁re habilit
▁dis g
▁sm oke
▁C AN
▁inter ventions
▁deleg ations
р о
▁f oss
▁F I
▁N othing
▁per ception
▁support ers
▁The atre
▁want ing
▁Col l
ial ly
▁X ML
▁197 0
▁roll ing
l u
▁prof itable
▁imm unity
▁confirm s
▁endors ed
ag ne
▁sp am
ari at
▁stri kes
▁det ention
▁class ification
▁sp o
▁Ne ither
▁enh ancing
itra vel
▁irres pective
b i
is y
▁st ric
▁dec iding
▁comfort ably
▁medic inal
▁A us
▁D at
▁der iv
▁Val encia
▁surf aces
▁Nob el
▁tox ic
▁Nok ia
▁A y
▁pos ed
lud ed
▁Pal ma
▁ave c
ment e
cess ions
we ight
▁7 8
▁mult ipl
▁arch ae
▁in appropri
▁our s
▁pun ishment
p ace
▁ex quisite
▁gu ilty
▁gr id
ustain able
d ens
s .
▁int imate
▁inv iting
ason ic
▁she ep
m ail
▁l end
▁U t
▁K at
▁prov es
▁read er
▁modern isation
▁198 8
▁Exhib ition
ar ly
▁re vers
▁an ch
▁R SS
▁small est
▁activ ate
▁Ret urn
▁Monteneg ro
▁S om
▁reason ably
▁demonst rations
▁mem ories
▁Wik itravel
▁F el
▁Bl air
▁div isions
▁craft s
am ount
▁ex otic
og a
▁int ent
▁Pro g
▁g our
▁corpor ations
▁paragraph s
▁incom es
b ul
v ens
▁wor ried
▁des p
▁var iables
▁port ion
▁Bu ilding
▁nav ig
▁obstac le
P ress
▁w isdom
▁m ent
▁M ary
▁j azz
▁ann ually
▁exec ute
st s
▁inc ons
▁Any one
▁licens ed
▁cl iff
▁inter d
▁cou ples
▁assess ed
if a
9 9
▁prot ests
▁etc .
dra ul
▁contain er
▁butt ons
u its
▁h ub
▁develop er
▁saf er
▁ident ifying
▁ru ins
gor ith
é n
▁ umb
is ations
▁p estic
▁Co hesion
▁dism iss
▁remed y
▁re aff
▁commun ist
▁witness ed
▁&apos; E
▁se ed
G E
h ouses
▁ha b
▁O x
▁De ep
▁el ite
ows ki
▁in herent
▁comple ting
▁impro ves
▁fast est
▁explo ited
▁al s
▁mod ification
rib ution
▁bath s
▁burn ing
▁convinc ing
▁c y
▁L ang
▁over l
ari os
▁perce ived
. 10
u ation
▁d airy
▁S H
▁access ed
az e
▁advis ory
▁p orn
▁St y
▁fest ivals
▁in land
ch aft
▁Qu est
▁defin itions
▁re imb
et ch
erm ost
▁text iles
ilt on
he res
▁dis abilities
▁cl auses
▁Te x
▁Look ing
▁wer den
▁t ong
▁download s
▁W ild
▁se am
▁co at
▁up s
▁pre text
▁bar rier
▁send s
▁Rec ently
▁sequ ence
▁pus hed
ur se
▁process or
▁Ice land
▁Ukrain ian
▁D id
▁introdu ces
▁night life
▁Chancell or
it als
pt ed
▁comm ands
ric s
els on
▁psych ological
▁C L
▁mod ular
▁mod ifications
▁lif ts
▁trial s
▁consolid ate
▁Alg eria
c any
oc ratic
▁any way
▁gain ing
▁broadcast ing
▁n it
▁W ant
▁r um
▁L ED
▁am id
▁est e
▁reaff irm
op ia
▁H P
ple x
▁pass port
▁lim iting
▁bath ing
▁hol der
1 7
V IS
▁e en
ors hip
▁Sal es
▁renew al
▁distinct ive
▁s ul
it ives
▁ab oard
▁track ing
▁bag gage
▁adj acent
6 7
er ie
▁e co
▁vib rant
f ar
▁w ond
al i
▁C el
▁L ud
▁ir respon
ut y
▁A zer
od ing
▁ind ications
▁ret rie
▁gen oc
▁predom in
▁b ol
ro ph
▁forest ry
▁Market ing
▁earthqu ake
I O
▁P ot
▁ne o
▁J ord
ass ador
▁Con st
▁ut ter
▁sn acks
▁Ter race
r iger
▁S ax
ast y
ine a
▁9 2
▁land ing
▁emphas ize
▁Add itional
▁summ ar
▁Ze aland
▁O k
▁Sm ith
▁tend ency
▁dram atically
▁sacr ific
▁diox ide
▁x enophob
▁schol ars
▁de pl
▁protect s
▁complement ary
▁B urg
▁2 ,
▁O LAF
▁cost ly
▁Object ive
▁b arg
▁spread ing
▁prere quisite
▁ch amb
▁ap olog
▁pip eline
▁w rap
▁coast line
▁sort s
▁Croat ian
▁Andal us
▁Colomb ia
id as
▁Euro st
▁H or
▁was n
▁evalu ated
▁tradition ally
▁panor ama
▁S pl
▁L arge
▁sec ular
▁meaning ful
▁Environment al
▁Que en
▁t ensions
▁P ad
▁K az
▁short er
▁198 0s
▁bio f
el ing
▁cong ress
▁tun nel
U C
▁c rown
▁de reg
▁3 .5
▁world s
▁Al m
▁vig il
▁h oney
▁Th ai
▁inc on
▁inc idents
▁bank rupt
▁graph ical
▁c ache
▁cred its
▁vol umes
▁pain ful
▁Res erve
▁hy brid
▁Wars aw
▁gamb ling
B A
▁st ro
▁6 3
▁recogn ises
▁Med ical
▁popular ity
▁ec osystem
▁bre ast
▁dry er
▁Tick et
▁g re
ern ing
▁13 th
▁retain ed
▁feed ing
▁refres hing
et ime
▁en rich
▁encoura ges
▁Im port
▁b ub
as m
▁C ot
▁don or
▁confidential ity
▁unex pect
b or
▁K re
▁Ha iti
▁Rail way
iann ual
d rop
it é
▁cont ra
▁order ing
▁term in
▁attack ed
▁tast y
▁ex ter
▁K u
▁Ex cel
▁pet ition
▁breat h
▁Dolom ites
▁wh oles
ke eping
▁mis le
▁CD s
gov ina
u ce
▁g erman
▁B org
ac io
▁econom ical
ung al
▁Can ary
▁bot tle
l or
▁pro stit
▁un ified
▁over t
▁conduct ing
▁settle ments
▁Us ers
▁o asis
▁C ook
▁E vent
▁Air lines
▁fulf illing
▁Spir it
▁S ir
▁no ble
▁Sh an
▁Sol utions
▁Joh annes
▁sur re
▁G re
iz ations
ink ing
▁mar ble
▁Francis co
▁org ans
▁pr icing
▁leg acy
▁even ings
▁Wh atever
▁Mar co
▁ast on
▁brill iant
▁F ab
▁cor rection
▁Aren a
▁r ust
▁al ert
▁optim ized
▁tail or
▁P V
▁Germ ans
▁Off icial
▁rat ify
e enth
▁tr ick
▁municip ality
G A
y ss
▁we igh
▁R ub
▁rel uct
orth y
▁safegu ards
▁gather ing
▁play ground
▁tempor arily
é es
▁pro port
▁H u
▁rem emb
AR D
▁courty ard
ig uous
▁Le vel
ern ity
▁cor rid
▁pres crib
▁Her ze
▁bug s
▁Again st
ot al
▁S ave
▁Th ough
▁trans national
▁Im pro
▁sleep ing
▁inspect ions
M O
in av
ot a
▁Comp uter
▁bat teries
▁Tus cany
▁M id
▁ide ology
▁mind ed
▁quot ed
▁ant ique
▁preserv ing
▁birth day
▁encount ered
▁n urs
▁S ports
▁gener ating
▁Sol ana
▁cos m
▁flood s
▁respon ding
▁10 th
ar an
▁C A
▁out ermost
▁ra ces
▁pot ato
▁config ured
▁inappropri ate
▁In iti
▁N eed
▁reg ener
▁assess ing
▁cyc l
▁Deuts ch
▁privile ges
▁brut al
c s
e ing
ion ed
▁m ira
od ed
ard in
▁whole heart
p ower
▁c ott
▁P ed
ad en
▁H ague
▁vis ibility
▁Can adian
▁tit les
▁enem ies
ot y
▁F isch
our ge
▁inv asion
▁att itudes
▁Bon n
▁democrat ically
o ors
id al
▁M it
▁W ald
▁198 6
▁mer ch
▁Vers ion
▁Div ision
▁Herze govina
c ano
r .
▁c u
▁b ou
▁m ile
st ep
▁V irt
▁14 th
▁Ph oto
é t
▁S el
oc ation
▁stat utory
▁continu ity
▁disadvant age
▁P on
iv ities
▁G ott
▁s ind
▁Sc he
▁experim ents
ot ype
▁C redit
▁ch ips
▁met als
▁instit ute
▁b er
▁E sp
▁dis pro
▁capt ured
▁b in
▁v ou
▁pr ud
av en
▁minib ar
ar on
▁de ployment
▁launch ing
▁c ave
▁broad ly
▁magaz ines
▁esc al
▁t ons
▁o k
▁p ump
ere n
ang le
▁understand able
▁Spe ed
▁Ash ton
c z
l ov
▁ ic
▁B road
art ial
▁J .
▁At hens
▁Cont ract
▁veget able
▁c ord
▁O SC
▁For ce
▁ret ention
▁food stuffs
▁block ing
▁persec ution
il ly
el i
▁G ate
▁direct ors
▁pop ul
▁Hol land
m ers
▁O EC
▁un res
▁head ed
▁tim ing
▁fab ulous
U N
▁S ic
▁al gorith
▁z oom
hol der
▁vary ing
gi ene
▁Lear n
ank a
▁measure ments
▁comp iled
▁autom obile
▁cooper ative
▁Sa udi
▁solar ium
j i
▁activ ists
atis fact
4 5
4 8
▁h oc
▁R ic
▁dis arm
▁mark ing
aut hor
▁Naz i
▁precaution ary
▁s id
▁K un
ib an
▁Pet ers
▁script s
▁consc ience
as ant
▁L od
▁Mon itor
▁respond ed
▁imag ination
rape ut
▁OEC D
▁problem atic
▁est imate
OR T
▁pus hing
▁n ick
▁inter connect
▁organ ising
▁positive ly
▁Polit ical
str öm
m ans
▁c yl
▁B .
▁R OM
▁K or
ole c
▁t ens
ar re
▁min es
▁rest ra
▁initi ate
▁withdra wn
▁F a
te g
ie u
▁St ill
▁clos est
▁hold ers
▁stret ch
om ic
▁st ainless
▁F ather
▁D or
▁res ign
▁Le ad
▁Pr ince
▁host ed
▁frag ile
▁IB M
▁e cho
omm erce
end e
▁und erest
▁deal ers
▁vol tage
ör se
X I
c hers
▁ è
▁d ur
ond a
▁Bar on
▁bur dens
▁municip al
▁se ar
▁R ena
▁j et
▁compet itions
▁coord inating
▁vir uses
▁motor cy
▁cas ual
▁Fut ure
▁en v
▁co ating
▁list ing
▁collect ing
▁Pic ard
es k
ob il
▁ent rust
rib e
iet h
▁establish ments
▁genoc ide
7 3
▁o m
▁b rew
▁su ic
▁ex ac
▁man ually
▁ro cks
▁Y OU
▁product ions
▁gra in
▁Ass ist
▁198 7
▁imbal ances
s or
ed a
▁P un
▁Artic les
.C .
▁Bat tle
▁Adv anced
it is
▁B ou
oc a
▁Sh are
▁Ap p
▁Sy m
▁deliber ately
▁bout ique
▁al ign
▁W atch
▁F un
▁document ed
▁inj ury
▁aff air
▁pen et
o en
▁F ern
▁O d
▁We ek
▁social ist
▁success es
▁f ridge
▁th ou
▁E IB
▁access ibility
▁La undry
▁exac erb
▁W at
▁ref riger
▁lif elong
▁z ur
▁hop ing
▁Scand inav
▁OSC E
b sp
▁b ass
▁ch ronic
▁un ch
con i
ach ing
▁def ines
▁lif ting
▁diplom acy
im mer
▁st ere
se in
▁should er
▁fol k
▁Qu ick
▁stress es
▁Schul z
ish op
▁hard er
▁Sm art
. ch
▁to ys
▁wh olly
▁D J
▁D üss
our cing
▁discrim in
▁Dec ision
▁Camb od
A Y
or ously
▁G T
▁att ending
▁Dan iel
▁disappe ared
▁infring e
▁irregular ities
т о
ER S
▁elim inating
▁parad ox
▁ü ber
▁R F
EC T
▁Act ive
▁Liber als
▁contrad iction
▁al ien
▁H i
▁198 5
▁Pat ten
▁rig id
▁Clean ing
ic able
as us
▁remind ed
▁drop ped
▁conserv ative
▁detect ed
stan bul
▁Bav aria
▁umb rell
▁p air
▁R amb
▁inst ances
▁adm in
▁prol ong
▁L O
▁whe els
▁stud ios
▁ban ana
▁prepar atory
▁purs uit
▁diagn osis
▁feas ible
ñ a
▁L AN
▁Democ racy
▁h arsh
op l
▁194 5
▁stim ulus
▁weakness es
▁dossi er
▁C auc
▁con cessions
▁Col umb
▁recre ation
est e
▁Mar x
▁FR EE
▁poss ession
▁disadvant aged
▁anticip ated
▁persu ade
▁foss il
k ov
id ers
▁sp ark
▁Con ver
▁fore ver
▁protection ism
▁deal er
▁SD L
▁inject ion
c ussions
▁out line
▁ind ul
▁Re view
▁accompl ished
a o
h an
ac ity
▁L l
▁was h
▁sing er
▁bro wn
ator ium
▁Hit ler
▁incons ist
g roup
k in
▁liber ty
▁celeb ration
g el
▁B ahn
▁acc us
▁object ions
▁turn over
▁Qu ite
▁hy draul
en za
▁c ure
▁e arm
▁templ ate
▁re ign
ul ent
▁se gments
▁king dom
▁egg s
▁ о
▁1 .1
▁network ing
▁diagn ost
▁incomp at
▁intu itive
▁met er
▁imp ressed
▁book ings
▁susp ic
▁t anks
▁C ad
▁H osp
▁pass age
▁exem ption
ocop ying
ant ed
▁any more
▁spec ulation
▁Ad just
▁draw s
▁speed s
▁rank ing
if ier
c ar
▁t a
▁S ource
▁6 6
▁press ures
▁GM Os
▁neglig ence
▁descript ions
▁Düss eldorf
P P
g ang
▁h alls
▁N i
▁fl ed
▁influ ences
▁ill um
▁facilit ating
oe uv
▁cultiv ation
2 2
▁ac ute
▁var ieties
▁Techn ologies
▁E B
ers ed
▁bat t
▁commod ity
f alls
an ium
▁d ub
▁C are
▁r anks
▁tack led
b ility
▁mult itude
▁Int el
▁Kurd ish
▁catast rop
7 1
▁T s
est ock
▁D iam
▁pat ron
▁fort ress
▁overse as
▁Jour nal
▁l ending
▁E D
▁qu eries
▁Bel ow
▁dens ity
▁Rena issance
▁sm ell
▁instru ction
▁reve als
▁inequ alities
condition ing
rapeut ic
▁le af
▁do z
▁Pr ice
▁don ation
▁qual ification
▁Tam pere
h ot
v ic
▁ag ed
▁la undry
▁Univers al
▁Instru ments
▁Voy ager
▁ret reat
▁repl acing
▁deg rad
▁trend y
▁diamet er
р е
om a
og an
▁V I
▁short age
OT EL
▁alleg ed
▁A SE
un ge
▁sc rap
▁cr ash
▁ter rain
▁compl ied
▁elim ination
▁A U
▁out er
▁out break
▁deb ts
▁enc los
▁veget ation
▁Fort unately
▁spr ings
▁neighbor hood
p ack
▁we aring
th rough
▁no isy
▁consult ants
▁Che m
▁in se
ant a
▁K are
ph ony
▁correspon ds
▁AL DE
▁F ine
▁6 th
▁Gu ard
▁recip ient
▁7 th
▁relev ance
▁hospit als
▁dies el
▁th y
▁M are
▁F ig
ag g
▁attract ed
▁Cy pri
▁Gard a
▁poore r
m us
▁C ô
▁G othic
ann a
▁Cent ury
▁bro ke
▁Sch m
▁Lou nge
▁intens ity
▁tiss ue
ver ages
▁or ange
▁L A
▁commission ed
▁bul k
▁scar ce
ro se
▁strong est
▁Tok yo
▁I ll
▁writ ers
▁arch ives
▁draw ings
▁Per form
▁deliver ies
at us
▁un rest
ik er
▁sl aughter
▁id yll
▁propag anda
▁Shan gh
4 9
F T
ess e
▁Pro duction
▁alt ogether
▁rhet oric
in ct
ic er
ic ism
▁S ri
▁ne ck
est ed
▁int im
▁mon astery
▁sign atures
▁upd ating
▁Ver he
il der
▁B R
▁L ow
▁fa ire
p .
▁al lev
▁1 ,000
▁tr uck
▁Tar ifa
▁lect ure
▁L ink
▁obs c
▁forb idden
ar r
▁n an
▁am pl
▁fact ories
▁could n
▁fram es
▁elim inated
▁experim ental
ch l
▁sc rew
▁var iations
▁organ izing
▁Qu art
▁six th
▁journal ist
H z
▁dist ances
▁broad band
▁201 5
-- --
▁incur red
▁reper cussions
▁Verhe ugen
x ual
▁t ired
▁h ind
▁C orn
▁prev iew
▁install er
▁Hus sein
▁Quest ions
re b
▁in h
▁I stanbul
▁A u
▁14 9
▁threat en
▁guid ing
▁macro economic
ac her
▁res ident
▁am ple
▁regul ating
▁Sch l
▁Ser bian
▁C ore
▁personal ized
▁s cept
ig o
▁12 5
▁third s
▁board ing
▁architect s
▁ant ib
▁te eth
▁fl ora
▁es cap
▁mot to
ic ars
st ate
▁B ow
▁mat ching
▁Gu inea
▁sens ors
g ra
▁P ast
ain e
▁D .
▁dec ides
▁tem ple
▁categ or
▁screen ing
▁magn etic
▁rehabilit ation
at ial
▁my st
▁tut orial
▁liv estock
▁de ployed
▁v ague
▁not ify
▁Al most
au f
▁incred ibly
▁enshr ined
P O
▁ С
▁pro tein
▁capital ist
▁hy giene
▁ge ared
▁Certain ly
▁n ach
▁g aps
▁are na
▁prag matic
▁brid ges
▁s ister
▁de ar
▁ac oust
▁lo ose
▁fire place
▁Wik icars
t he
ar ious
▁T rib
im ents
▁ra y
▁sc rat
▁purch ases
ô tel
un c
▁sh ores
▁j ump
▁mass ac
▁Col or
▁qual itative
▁lic ences
▁recre ational
▁confron ted
▁B örse
ak a
▁K a
▁8 2
S I
▁exerc ises
▁Phot ocopying
▁Fisch ler
▁man oeuv
▁position ed
▁ver ification
▁mid st
▁peripher al
b el
▁ Č
▁m oon
▁S i
▁E ri
▁P oly
▁r ice
▁organ isms
▁Br un
▁Europ a
▁n bsp
▁P ent
ill es
▁un author
▁Inc re
▁enchant ing
7 7
▁d ress
▁F uj
▁Can c
▁Par ad
▁Ne igh
▁Im per
▁Class ic
▁Jord an
r ite
▁b one
▁for g
▁S ab
▁rep ublic
▁success or
▁gra v
▁fabric s
▁FA Q
m aking
▁eng lish
sk y
▁prompt ly
▁synt hes
▁t v
▁S ul
▁season al
▁aspir ations
▁Re qu
▁emb argo
▁Bu yer
▁bill ions
▁cockt ail
. -
▁work flow
ne ys
▁delight ful
▁36 0
▁Shangh ai
▁C C
em en
▁in du
▁se al
▁H erm
▁O ber
▁Ar m
▁cal ib
let es
▁heav en
▁occasion ally
i ating
op her
▁bi otechnology
▁photograp her
▁fores ee
▁aest hetic
d ays
p ark
▁t ear
▁R I
▁ME P
▁uns u
▁Bro k
▁emot ions
▁dispro portion
▁h orm
▁ent ers
▁prom enade
▁vers atile
▁quant itative
▁Egypt ian
▁earn ings
▁bare ly
▁A ri
▁con sec
▁F ive
▁promot ional
▁emerg ence
▁compens ate
p al
▁my ster
▁prev ail
▁moment um
▁Mal ays
▁prem ature
▁Made ira
▁gour met
F OR
th od
▁rec ur
▁financial ly
▁Scott ish
te x
▁ass ort
▁Min i
▁administ rator
▁Tour ist
ic ts
▁as h
▁F lex
▁1 .0
▁appl aud
▁Yes terday
as hed
▁l in
▁design ing
▁er u
▁Me as
▁tong ue
s burg
▁m ud
ut z
▁S ure
▁im ply
▁form ulated
▁sim ulation
▁compet ing
▁educ ated
IN E
6 9
▁P M
▁specific ation
▁Compet ition
▁t una
▁h alt
▁n inet
▁de ploy
▁iss uing
olog ist
▁bl end
▁red ist
▁colour ful
▁Bund es
т е
▁F on
av al
▁sub t
▁long est
▁Se ville
ann el
▁May be
▁shap es
▁Eth i
▁fro zen
▁attent ive
▁t ied
▁f res
▁N a
app y
▁sl ide
▁Reg ist
▁exclud ing
▁tariff s
▁Lit tle
at om
▁l inen
▁M u
▁B and
▁3 .0
▁establ ishes
▁Vir gin
y r
▁D I
▁O h
und ering
▁cr us
▁post ing
▁Cons ider
▁vulner ability
▁discount s
▁Phil ipp
k el
s is
in j
▁M D
▁ge omet
▁restrict ion
▁alarm ing
▁motiv ation
▁constitu ency
P T
is i
▁in ch
ol as
▁M iss
▁F ace
▁dif f
▁soon er
azz o
▁substit ute
▁back drop
▁Global isation
▁Start ing
▁peak s
▁Tal iban
ist ence
▁F act
▁port able
▁earl iest
▁tim ber
▁Balk an
▁l ush
▁A round
▁M .
oc us
▁sl ot
▁mail s
▁exec ut
▁abol ished
▁Tim or
▁Cô te
j et
▁w ins
op ing
oz y
▁stric ter
▁e ager
int on
▁displ aced
▁cru el
▁San ter
▁destro ying
▁accur ately
▁criticism s
▁privile ge
so far
▁Res olution
▁contain ers
ic ulous
▁d ated
▁C ry
▁B anqu
▁ver ified
▁Tibet an
▁detrim ent
l ose
▁f ount
▁E ric
ig a
▁W ay
▁he d
OM E
II I
▁bench mark
▁but ter
▁ann ounc
▁phenomen a
▁Champ ionship
▁inj ured
▁ax is
n st
▁C le
▁it iner
▁B ru
oc o
▁co in
▁def ended
▁worth while
▁Dr ive
▁incom plete
▁c aut
ly wood
▁S ark
ra w
▁K G
▁tre k
▁clar ified
▁Ib iza
▁Mon ti
▁Bl og
▁purch aser
▁mother s
▁encry ption
▁sympt oms
K A
▁d ol
om o
▁S ep
▁am ate
▁val leys
▁real ities
▁18 5
▁household s
▁P ra
▁dis in
▁mount ing
▁optim ization
▁assum ption
G P
t z
▁o ven
▁M ap
ite ment
▁K im
▁inter fere
▁break through
▁colle ge
ropol is
. W
3 4
▁T ob
▁ch ains
▁some how
▁treat ing
▁tri ple
ç a
ia go
▁L anz
▁Ar ctic
aps ed
▁total itarian
▁anim ation
▁ship ment
▁cop per
▁mag ical
▁fit ting
▁benefici aries
f ire
▁su its
▁v or
▁comm em
▁K el
▁particip ant
▁Pr inc
▁th rown
▁y acht
pe red
um ns
▁k ick
▁emb ra
▁mer it
▁pick ed
▁enfor ced
ill o
▁man kind
▁Pri or
▁900 1
▁Andre as
p ool
▁t une
▁c ant
ge b
▁demonst rating
▁rent als
▁exceed ed
▁severe ly
m ap
▁p ity
om er
▁B art
▁dest ruct
▁Direct ors
▁export ed
▁monu ment
▁d w
▁G ift
▁critic ised
▁simpl er
▁sn ack
▁S end
ul ative
si le
▁buff er
▁Nap les
▁devast ating
▁c her
▁b ikes
▁l ays
im ming
▁E ure
▁D arf
▁rem un
▁var ies
▁Ad am
▁document ary
▁renov ation
▁M att
olog ists
▁7 4
▁correct ed
▁Now adays
▁197 9
▁postpon ed
e le
▁t ender
▁se ating
um ption
▁N u
▁ph ases
▁den om
▁Mult i
▁Malays ia
al m
▁se hr
ins on
▁Ste f
sch aft
▁Olymp us
▁awa iting
▁lapt op
T E
▁c rack
▁in k
▁P ract
▁v ous
ere r
ian g
▁Pol ice
▁scen ic
b led
ü h
it ary
▁B ib
▁G ro
▁gener ates
▁record ings
ar ov
▁r it
ast ically
og y
▁lif etime
▁expect s
▁dev ote
▁Bu ilt
▁Scient ific
▁Darf ur
in z
ul sion
rat t
▁Per fect
▁liquid ity
on der
▁E ll
▁crit ics
▁flow er
▁lic enses
▁subsidi aries
▁abst ract
▁real ization
s q
t re
▁sh ield
▁like wise
▁national ity
▁occur ring
▁Prof .
▁Av ailable
▁S ien
▁F at
ph an
▁test im
IT Y
▁illeg ally
▁Beaut iful
▁in aug
▁T at
▁sp in
▁expect ing
▁compos er
▁democrat isation
▁Initi ative
Q U
▁s hed
en os
▁4 50
▁Part icular
▁defin ite
▁Kling on
▁pestic ides
l on
m od
or o
▁E t
▁D G
▁over s
▁add itives
▁recommend s
▁Equ ip
▁preced ent
▁M ug
▁P od
iv oc
▁sub mission
ond e
▁forecast s
▁S Y
▁conf used
▁indic ating
▁pun ish
▁grat itude
▁Cauc asus
▁r ises
ici encies
▁m olec
▁law yer
▁8 9
▁sun sh
▁Appl ication
▁conscious ness
▁licens ing
▁Res pon
▁mem orable
3 6
at able
▁H ann
▁Copy right
▁be i
▁S hip
▁pen insula
▁surf ing
▁Venez uela
alys is
▁rhyth m
▁H ab
▁inv al
▁connect s
▁submit ting
bo ards
▁enthusi asts
▁barg ain
n ut
▁t all
▁e rect
▁12 th
che ll
▁Conf ed
▁re organ
▁P urch
▁D yn
▁place ment
ah l
▁ve to
▁insert ed
uer te
▁boy s
▁Vict or
▁b le
▁W ales
▁cl ip
▁Bar b
▁civil isation
▁transl ators
un al
▁dem o
▁Rus sians
▁AP I
▁ju ice
▁ vel
er cial
▁abs ent
▁liberal ization
▁glad ly
▁rob ots
▁incom ing
▁tast es
▁convers ation
1 00
▁p ending
▁inc ap
▁fail ures
▁biof uels
7 4
g r
▁a uster
▁o v
▁author itarian
▁pri zes
ici ary
▁harmon ise
▁recon struct
▁radio active
▁assum es
▁recruit ment
c ode
n ier
y t
▁T as
▁inter oper
▁6 9
▁object ion
▁viol ated
▁jud ged
▁cha os
▁deterior ation
w ig
▁t ent
▁f airs
▁b inary
▁C os
qu er
▁any body
lus ive
▁foreign ers
▁Pan asonic
▁advoc ates
▁discrimin atory
▁S z
▁me ad
▁account able
▁friends hip
unction al
▁Sark ozy
. A
i ants
▁re posit
arm a
▁es p
▁According ly
▁GU E
▁contam ination
▁auster ity
▁r ival
iv ir
▁che st
▁app alling
▁distort ion
▁c aution
as ma
▁g ifts
▁st atic
ore n
▁L ess
▁sm ugg
▁Mil ose
▁Banqu et
▁trans position
A F
at ical
▁b act
▁Prov ence
▁wholeheart edly
H S
N ET
▁T aking
▁E T
ilit ary
▁express es
▁lik es
▁mix ing
w ear
ol s
▁Ex am
▁appe aring
▁198 4
▁Fif th
p g
ú n
▁g ig
▁W .
▁col oured
▁pass ive
▁En s
▁Sant iago
▁Har bour
▁agg reg
O K
▁the rapeutic
▁V il
▁co ex
▁co zy
for ward
▁reflect ing
▁Up per
▁misle ading
▁Milose vic
d orf
▁d irty
as hes
▁l y
▁P ool
▁D ial
▁Pr ices
▁propri etary
▁S or
▁P ubl
▁ass ass
▁oil s
▁exhib itors
▁mut ually
▁d ense
▁h o
▁st ack
▁Or chestra
▁Aud io
▁Stud ies
▁dict ator
▁disappoint ment
▁idyll ic
d y
▁P ension
ak i
▁man ages
hes ive
▁Al bert
▁urg ed
ment ioned
▁O ri
▁Am az
▁appropri ately
▁197 0s
re ncy
▁C ape
▁sell er
▁Brazil ian
▁C in
▁E p
ad m
▁D IN
▁ent ails
▁view point
▁trig ger
▁jun ior
▁abort ion
▁C ant
▁M aterial
▁con sole
▁understand s
▁don ations
▁Jac ques
▁are n
ft en
▁access ing
▁line ar
yss en
w rit
▁un cont
▁z um
▁begin ners
▁Air conditioning
▁adap ting
▁optim ize
▁cell ar
▁ec ommerce
▁Ke ep
▁Var ious
pie ce
▁Install ation
▁n est
▁intern ally
▁gener ic
▁professional ism
▁emb ark
▁G ir
▁J ar
▁Sol ar
▁SM S
▁stim ulating
▁Through out
▁ic ons
▁T NG
ill on
▁your s
▁dis cont
▁Ste el
▁Cub an
IV E
▁irrespon sible
3 1
▁not able
▁dra in
▁elect ro
▁fashion able
▁Mont re
▁conce ived
▁intermedi ate
▁ha ul
ism o
▁Cal a
▁chap ters
▁champ ion
▁persist ent
▁Lanz ar
b as
at tered
it ology
▁on wards
▁C art
▁com o
ab a
▁ap par
▁child hood
▁par ish
▁Int erest
▁upgrad ed
▁C i
▁P f
▁B ot
▁en act
▁tra ces
▁Ap ache
▁lack s
▁emphas ises
▁infect ed
▁Anton io
ge red
▁K it
▁sc iences
▁Fran z
i at
▁M ars
▁sh r
▁pow der
▁encourage ment
▁Vol ks
▁Prem ium
U B
▁D ays
▁V ul
▁dig it
▁Liber ties
▁Jac uzzi
▁enthusi astic
ab ul
▁dis ability
▁count ing
▁Al pha
▁fa una
▁applic ants
▁unc lear
▁Bad en
w orld
▁Al c
▁p umps
▁d rew
▁ad here
▁national ism
ss on
▁Fourth ly
w ick
▁s ie
▁M é
▁B io
▁Th yssen
ell schaft
▁dis rupt
▁pos es
▁Me g
▁jud iciary
▁conclud ing
▁susp end
F S
▁C V
▁M ol
▁un con
▁inc l
▁col umns
▁z e
▁196 7
▁celeb rations
opol it
▁shap ing
2 1
F i
b ahn
al in
▁P rec
▁R on
uss y
▁cor rupt
▁Com plete
▁assist ed
roll ed
▁monopol ies
il ings
▁1 .3
▁G ab
▁J uan
che ster
▁flu ct
c ol
▁engine er
▁charg ing
▁awa its
,5 00
l ass
▁f ool
▁L ot
▁tr ucks
▁cou p
▁optim istic
▁Tus can
▁f on
▁sacr ifice
▁cosmet ic
en berg
▁K am
▁del ic
▁travel ers
▁sent ences
proof ed
▁depos its
▁Jos é
▁horn y
is ible
et z
▁S elf
▁W ine
ern ame
▁liter ary
▁I st
▁serv ants
▁Pro du
▁condemn ation
ect ed
▁2 .2
▁R ent
▁N T
▁show ers
▁method ology
▁oppos ing
▁season s
▁straight forward
▁Pri x
▁smooth ly
▁Angel es
▁J e
omet er
▁Lanzar ote
▁ erg
▁an onymous
ers on
▁comp ress
▁un av
osp ace
▁influ ential
iction ary
▁compr ising
▁tourna ments
▁GB P
▁archae ological
M C
w ill
в а
ur sion
▁st adium
▁1 .4
ac on
▁inform ations
▁ver d
▁sl ave
▁approach ing
▁Pal acio
▁Part icip
▁Democ rat
▁kitchen ette
▁calc ulations
▁Custom s
▁Like wise
▁unequ ivoc
h ill
p ost
▁the ater
▁m arch
▁d an
▁loc als
▁conf ined
▁inf ection
▁reform ed
▁vol can
▁foot ing
IL L
. D
v in
ran e
▁pop ulated
▁Ab u
▁l av
ist ically
▁H at
▁Cl a
AC K
▁Vict oria
▁197 8
▁taste fully
▁caf es
▁DS 9
os h
▁C rist
ub a
▁pr iced
ass y
▁request ing
▁Israel is
▁scen arios
a fter
is ers
▁in just
le z
▁rest oring
▁sup press
▁When ever
▁suic ide
▁hydraul ic
▁So f
▁lear nt
▁length y
▁broch ure
▁unexpect ed
re hensible
▁res et
▁sing ing
▁creat ures
iber al
▁dispar ities
as i
▁com itology
▁rem it
▁fav oured
▁mult iannual
▁explan atory
▁AK VIS
▁la ugh
▁cast les
▁Lim ited
▁Jack son
▁murd ered
er k
▁D ream
▁An na
▁Cur rency
▁exempl ary
g ers
▁M ID
▁se eds
ob s
▁some body
i ert
▁C hern
ac a
▁co fin
▁under pin
▁Med ic
▁pup ils
▁cer amic
h ost
st rasse
▁F ly
ither to
att an
▁Cub ase
▁Tool s
at ility
▁d ock
▁exc av
▁mot ors
▁travel ing
▁ce ilings
▁Park ing
▁disappoint ing
▁Sloven ian
▁depr ived
f ish
▁L D
▁min ors
▁contin ents
▁supply ing
▁pal m
▁cockt ails
▁th rust
▁n erv
▁Col lection
▁tou ched
▁pet rol
▁synt hetic
▁thick ness
7 8
L Y
M B
▁p am
▁re nder
ch a
▁des ires
▁0 .5
▁mention ing
▁EUR O
▁investig ated
▁o w
▁F all
▁2 .4
▁all erg
▁off ences
▁mat ure
▁sector al
▁Tr ust
▁consult ancy
▁virt ue
raz y
▁AL L
▁fif ty
▁Austral ian
3 9
▁be verages
▁l ying
▁F al
iz ard
▁rest art
▁draft sman
IT H
▁Vis ual
▁nom inated
▁predecess or
am o
▁H aus
▁L en
▁j ac
▁em pire
ven ient
▁sal aries
r un
▁for cing
ant o
▁D in
▁res ume
▁qu i
cept ions
▁cond itional
▁ins ult
▁11 th
▁197 5
▁196 0
▁Mer ced
▁stead y
▁rememb ered
▁rit ual
▁in ability
▁de ce
▁D ark
og ene
▁med i
▁7 1
▁eth ics
▁Bas que
▁catal y
▁repro ductive
▁AL E
▁Sup reme
▁ineff ective
O UR
S M
d f
y si
▁j am
ron ze
▁gra ce
▁attrib utes
▁jew el
v ar
▁B uch
▁Al ready
▁So ft
▁administ rations
▁oblig atory
▁tow ers
▁G raz
▁Ind ivid
▁Mag ic
▁brother s
▁Aven ue
b orn
re z
▁f uck
▁R im
▁cap ita
▁Go als
▁invent ory
▁commod ities
▁xenophob ia
▁b iking
▁S n
▁met all
▁circ les
H T
i i
▁de port
▁G ib
rad a
isc ipl
▁har ass
▁balcon ies
bu ilding
b ank
▁ref resh
▁vol cano
▁determ ines
▁email s
▁indic ator
▁IC T
▁p ist
▁count y
▁K o
▁gu ess
▁enjoy ment
co very
▁cou pled
▁di am
▁rob ot
л и
es ign
▁f ont
▁re op
▁S us
▁S now
▁B urn
▁F uerte
▁he ll
av an
ten ess
che st
▁mor atorium
▁harmon ious
▁marvel l
▁o t
▁p ocket
▁un h
▁cast ing
▁fle ets
▁protocol s
▁accompl ish
▁Baron ess
al et
▁B orn
▁j ury
▁V eg
▁Qu ad
▁Bas ic
▁dimension al
▁differ ing
▁CP U
w art
▁ q
▁T able
▁be am
▁pat ented
▁Man h
▁dram a
▁Os lo
▁Chic ago
▁mat t
▁warm th
▁Consult ing
▁prostit ution
ul ators
▁F C
▁8 6
▁cop ied
▁claim ing
z ed
г о
▁S chn
▁inter c
▁week ends
▁transfer ring
▁Ty pe
▁Mex ican
▁abol ish
▁Bav arian
▁Proper ty
l ining
▁d ying
▁C ort
▁P i
▁r é
▁G ru
▁pub s
▁CF SP
▁swit ching
▁ra p
▁sub way
▁here by
▁deb ut
▁dr um
▁break down
▁let ting
▁dest abil
▁snow board
▁Kl aus
▁Tem ple
▁contradict ory
I E
▁f t
▁employ er
▁position ing
▁ele ven
▁express ions
sp ace
▁Arab ia
▁d ancing
el o
ak is
▁po ison
▁comb inations
▁attrib uted
▁nutr ition
w ald
▁U C
▁un ite
enn is
▁supposed ly
▁stip ulated
▁templ ates
▁D ar
▁fact o
▁real isation
▁read ily
▁An aly
▁Pr in
▁mist aken
▁Arch itect
▁d ot
hes s
az ione
▁sl ope
▁emot ion
▁Rem ember
▁Lear ning
▁volunte ers
▁D ate
▁10 ,000
▁post er
▁gra pes
ane ous
▁appeal ing
▁flav our
▁Leon ardo
▁Hen ry
3 8
t ar
▁A ires
▁Euro c
ip el
▁6 7
▁196 0s
▁cooper ating
. B
▁p y
▁A wards
▁O cc
▁contem pl
▁Custom ers
▁Merced es
▁d are
ad i
▁W a
▁B all
ber ry
▁sal ary
▁mass ages
rac le
▁pix els
.20 10
▁Alban ian
▁Neigh bour
p ol
▁f ing
▁b und
▁T ol
▁R ab
▁ch ick
▁pl astics
ner gies
▁12 8
▁press ed
▁Mar b
▁Em peror
▁crow d
▁Pier re
al istic
ag ger
▁out look
▁Se b
▁public ity
▁real m
▁hand y
▁8 4
▁instit utes
▁port ray
▁norm s
▁Bu enos
▁mer its
▁root ed
mans hip
ou ch
▁V inc
▁ar isen
▁bet s
▁Prov ince
▁Iron ing
▁frank ly
▁T .
▁P O
▁r ip
▁N H
ag an
▁rel atives
▁profess or
▁anc est
▁strength s
▁Phil ip
▁Gran ada
▁Mach ine
▁swift ly
▁doz ens
▁C AM
▁A er
▁al tered
▁P ow
ad el
▁L ido
pl ant
▁N am
▁cur ious
▁grow s
▁Ed itor
▁ye a
▁Bro ther
▁fert il
▁ д
at ri
▁p av
▁f iction
▁con ception
ob b
▁Comp anies
▁disg race
▁I R
id encies
▁E aster
▁te en
▁econom ists
▁writ es
▁Gu ant
▁24 th
▁subsid y
н е
▁H un
▁Al gar
▁9 4
▁Cl inton
▁log os
▁highlight ing
▁R ol
▁Ben j
▁ast ronom
▁surve ys
▁Altern atively
▁a fore
on ed
▁S IM
▁Comm erce
ann i
▁entire ty
▁round s
▁Per u
▁NG L
▁manip ulation
et e
▁H of
ac iones
▁R og
▁19 20
ath on
▁mult if
▁underm ining
▁RE ACH
▁prejud ice
▁dereg ulation
p re
▁f usion
as a
ill er
▁r ug
out heast
▁trad ers
▁ref using
▁pat io
oll ah
▁caf é
▁row s
▁lect ures
é r
ed ing
▁B L
▁R and
ern ess
ov es
▁conf er
▁load s
▁volcan ic
▁Del ta
P G
e a
▁ на
▁su cc
▁threat ens
▁198 2
▁sac red
thod ox
G u
▁V erts
▁G 20
▁K m
lic he
▁As k
▁Sc iences
be y
▁editor ial
▁Beaut y
▁redund ant
▁incompat ible
▁D O
▁Ch annel
▁7 6
▁ban anas
▁lo op
▁exerc ised
▁CO D
▁hat red
▁Major ca
▁g ang
▁un se
ens ively
▁rece iver
par able
▁Cour se
▁ded ication
▁tast ing
▁ iz
▁d ess
▁ext ensions
▁Col lect
en o
ic ia
▁l ady
iv able
▁K inn
▁cor ners
▁stop ping
▁sens es
▁Ide al
▁sunsh ine
j ek
▁N one
▁gu ys
OR D
▁weak er
▁IN TER
▁Moz art
▁Monitor ing
▁Benj amin
u ite
▁b ind
▁off ensive
▁inv ented
▁prev ailing
▁rat ings
▁196 8
▁cyc les
▁brow se
▁mo ist
▁weld ing
▁Kun st
▁inval id
. j
▁g orge
ab eth
▁V iol
▁term inals
▁read s
▁invest or
▁fil ed
▁prec arious
▁contract ing
▁197 6
thern et
back s
urf ing
▁marvell ous
a ired
l en
▁t ends
▁P ope
▁B ear
▁R ing
iz ers
▁met re
▁pat ience
▁Pal m
▁weak en
▁interview s
▁acceler ate
▁oppon ent
▁dynam ics
▁Eurost at
▁Marb ella
▁ar c
▁Q ual
ai ro
▁qual ify
▁Cambod ia
m aster
▁Re in
▁elect orate
▁Venet ian
▁earm arked
▁Manh attan
g one
▁p itch
▁h ath
AT E
ber ger
ov ed
▁special ties
▁discover ing
▁Cre ate
▁trace ability
л ь
an ne
▁O ften
ell en
▁polit ician
tain ment
l ia
▁f i
▁C arm
▁al le
con f
▁bas in
com es
▁reject ing
▁simpl ifying
▁Elect ronic
▁in sofar
▁P E
▁comp an
▁ent re
▁ext rad
▁cop ying
▁insist ed
▁Kinn ock
G O
▁y ard
▁P rest
▁U V
▁un amb
▁calc ulate
▁Hist or
▁Prem ier
▁destruct ive
▁Sien a
er gy
▁n os
▁A x
un ches
▁K ol
▁H OTEL
▁bet a
▁br ush
tain ing
▁recogn ising
▁bi om
▁simpl icity
▁mill ennium
▁luck y
▁Virt ual
▁unch anged
▁w ir
▁m entions
ur ances
▁g ene
▁R un
▁R oss
▁L iving
▁3 000
▁Ch ar
▁explain ing
▁Imper ial
к а
▁t ie
▁a ux
▁m uy
▁al qu
▁leg s
▁Algar ve
H A
y b
▁F red
▁Man aging
▁critic ise
▁cook ie
▁exceed s
▁unw illing
os ity
am ics
▁sp an
▁comple teness
ung le
▁Ag es
▁mult ip
▁tou ches
▁fruit ful
▁mas k
▁loyal ty
▁suspic ion
▁pe cul
▁tw ent
▁De b
▁consum ing
▁recip es
▁multinational s
▁reimb urse
3 7
k h
▁2 20
▁R i
▁sp atial
▁fl ats
▁Pro p
▁dom ains
▁bit ter
▁incorpor ating
▁od ds
▁Schm id
▁s ke
et ooth
▁L ower
▁Al f
▁relig ions
▁hom ose
othe rapy
▁LateRooms .com
▁c ro
▁M oney
▁The rm
▁8 th
▁perform s
lev ard
▁17 5
▁Tr ue
▁lou ng
▁sad ly
▁suspect ed
▁insec urity
ro lean
▁M T
▁dis orders
▁profess ions
▁Mag az
▁illust rate
▁Mug abe
▁m i
▁S SL
▁ch rom
▁bet ting
▁ban ning
▁poor ly
▁belief s
▁p ipe
▁h its
▁h itherto
ch arg
▁G ross
▁O st
▁cl oning
▁under go
▁mult ic
▁father s
▁imprison ed
▁b ull
▁P ur
▁sh oe
iv o
▁G 8
▁U g
▁cl uster
▁inv ention
▁Be h
▁histor ically
▁Sure ly
▁L uk
▁rec ital
▁inter iors
▁sl ides
▁Do ctor
▁sent enced
▁parliament arians
o ise
ä nd
ate m
▁under way
▁Par agraph
be ing
▁cru ise
▁evalu ating
AS E
▁prosper ous
▁underm ined
▁theat res
. ht
ch air
▁wor ship
▁reg ain
▁V or
▁J im
▁now here
▁exc ursion
ek en
eb ook
▁assum ing
▁Chap ter
▁Neighbour hood
ö l
il m
▁acc red
rit ical
▁Se ven
▁inter ven
▁dep ression
▁happ iness
▁Reg ions
▁depend ency
▁deliber ate
▁reun ification
iscipl inary
w as
▁the rap
▁o we
▁d iab
▁h oly
▁n u
▁S her
ach ts
▁6 1
▁employ s
▁less er
▁war n
▁war ned
▁mar ina
▁SP A
g s
t ably
▁p ad
▁d well
▁l amps
▁D NA
▁N ame
▁und ers
▁ref rain
▁lif ted
▁resol ute
▁collect ively
▁celeb rating
9 5
z i
▁m es
▁rec ourse
let te
▁extra ction
▁d urable
▁l ip
▁St a
▁buy ers
▁Other s
▁advoc ated
E ST
d le
o .
▁g el
if i
▁sw ing
▁Can al
▁courage ous
▁N ag
▁qu art
▁car riage
▁success ive
▁pack ing
▁kn ock
rup p
▁Ken ya
c or
▁g am
▁R AM
▁inform ing
▁ed ges
▁Pr im
▁desc end
▁harmon ization
▁toler ate
stra ße
▁privat isation
s ka
ed ed
▁correct ness
▁adjust able
▁Hol lywood
▁Po et
▁plural ism
▁s ided
▁gl ance
▁gal ax
a unch
m ma
▁p ear
▁S is
▁E arly
▁R ay
▁benef ited
▁Conf ig
ó w
▁c aves
▁m ás
ign ano
▁col ony
▁ris en
▁Sh ut
▁kind ly
▁Conc erning
▁od d
▁lock ed
▁stead ily
▁helic opter
▁exter ior
S D
in ite
▁F L
▁In form
▁organis ational
▁Wi Fi
▁merc ury
▁Individ ual
P ER
▁b ungal
ur ate
pe z
ist ing
▁bre aches
▁Wolf gang
▁Adjust ment
▁Eure x
I ST
o vers
ran ational
▁substant ive
▁Count ries
p ath
▁w ard
is an
im ated
▁2 .6
▁cl oud
▁sm ile
▁main land
ock ets
ik ers
▁pro active
▁k ne
.. ..
▁strengthen s
▁inj uries
▁explos ion
a way
▁to oth
art en
▁Int ellig
▁Card as
▁attend ance
▁cere als
▁distort ions
▁spons ored
▁constitu ents
▁catastrop he
▁assort ment
▁s ons
▁H R
▁ap ple
▁Sal v
▁rebu ild
ver sion
oc c
▁H ope
▁Se at
▁neglect ed
▁2 .1
▁them atic
▁Comp act
▁Pat ent
▁excess ively
▁Gard ens
▁inspect ors
▁AN Y
▁Deutsch land
▁b is
st ed
▁st ir
th ink
▁J av
▁ind ef
hen burg
▁cle ans
▁fore front
V ER
▁under lined
▁agree ing
▁promot ions
▁prior it
▁Mar itime
▁assist ant
▁occup ational
▁mid night
▁wealth y
▁flo ating
▁assign ment
▁disturb ing
▁accomod ation
k ok
ot ing
▁W ür
▁se vent
▁H ad
▁H ug
▁mon itors
▁clear ing
▁val ued
▁rev ital
▁Bl an
▁encry pted
▁hab its
4 4
l ink
y gen
▁c ake
ar se
▁In ns
▁J a
▁appl iances
▁commun icated
▁spread s
▁Fer r
▁inh uman
▁a -
▁d ip
▁Comm unities
▁St an
▁int ers
▁foc al
▁front iers
▁Leg isl
▁mil estone
▁Ty rolean
▁analy ze
▁c yn
▁B rown
ist ers
▁ann oy
ij a
▁ath letes
▁Plat form
▁mic row
▁c ub
▁inform ative
▁X L
▁remind s
▁Term inal
▁detrim ental
▁Ox ford
ve t
▁st agn
▁ra ft
zz o
▁uns atisfact
▁prosec ution
▁bout iques
▁b ien
▁C M
▁D ia
▁D iet
▁R he
▁L ul
▁9 3
▁clean ed
▁brows ing
▁Fron tex
on na
▁1 .6
ult y
▁un in
▁St ore
ob yl
▁reform ing
▁instru mental
▁interoper ability
▁in quiries
▁C es
ch ten
▁B uff
ain ted
▁F ield
omm ission
▁wor s
▁res emb
▁Ch i
▁bra ke
▁marg ins
▁reconc ile
N et
b ai
▁un ification
▁phot ographic
▁sun b
▁Bal i
▁Nor weg
▁Super ior
▁conform ity
▁for ty
▁M ik
ig rant
▁B ren
▁H aw
▁can al
lic hen
af e
▁X V
▁print s
▁export ing
▁advertise ments
▁advent ures
F A
▁C yc
▁M PEG
▁D rag
▁rad ically
sc ribe
▁afore mentioned
▁S OL
▁int act
▁ev olved
▁7 9
▁sup ranational
▁author ization
▁aid s
▁ste ering
tt es
▁Ver ona
▁Out look
▁Director ate
▁photograp hers
▁p uzz
▁d ell
▁n ost
▁partic les
▁gl oss
▁beh ave
▁Be yond
▁ship ped
▁pun ished
▁sp y
▁cap tain
▁pain ter
▁ge ographic
▁Over all
▁cin em
▁b rick
▁B ase
▁comp ression
▁9 th
▁Ad vent
▁suggest ing
▁enl ight
▁deriv atives
▁remun eration
▁ne uro
▁F ul
▁pr isons
▁Re cent
▁access es
▁dr astic
▁15 00
▁jud gments
▁spir its
▁sou ven
▁weak ened
▁Read er
▁Inf o
▁tub es
▁Kare l
▁E nc
▁B ene
op y
▁ab ide
▁sp ont
▁eng aging
▁assoc iate
▁Ab s
▁display ing
▁unsatisfact ory
n ame
▁d orm
▁S ardin
▁st air
▁en ric
▁G ender
▁R S
▁back s
▁farm er
▁uns po
▁bott les
▁labor atories
▁Count y
▁Jun ior
▁Maur it
▁caut ious
. x
I n
▁t s
er als
▁v enues
▁se venth
▁L ady
pt ions
▁ro oft
▁well being
▁conf ort
▁net s
▁Georg ian
▁Camp ing
▁faith ful
▁Lod ge
3 00
c ut
r in
v as
▁T AC
▁V ision
▁K oh
sh ore
▁Conc iliation
B O
D S
p y
p el
▁C airo
▁P iet
▁197 3
▁alb ums
▁anticip ate
▁gest ure
▁Caf é
ar ant
▁g em
▁M ong
▁B I
▁L ac
ri k
▁part itions
▁la undering
▁disc rep
ron ics
▁ins ulation
▁Gu atem
▁198 1
▁Vis itors
▁fluct u
▁Chern obyl
h ou
▁b iz
▁m os
▁O il
▁me g
▁ent ail
▁ass ault
▁priv ately
▁disarm ament
v ol
al on
ur ated
▁C res
▁A ch
▁D SL
▁D ifferent
cc a
▁Pal azzo
▁password s
▁spok es
▁S. A.
▁Azer bai
▁jac uzzi
o j
▁c ust
▁W W
▁In it
▁assist ing
▁advis able
▁pip es
▁provin ces
l an
▁c um
it ations
▁C AD
▁D un
ag na
▁cor rel
▁exerc ising
ris y
▁Bre men
▁interv als
I ES
▁b ail
▁ar row
ick ed
ck ing
▁7 7
▁app rent
▁regul ators
▁euro pe
▁impact s
▁entit le
▁illust rated
▁reinfor cing
▁obser ver
▁chart s
▁P il
▁W ITH
▁&apos; O
▁per f
▁rec ipe
▁Z ag
▁serious ness
▁print ers
IC E
▁profit ability
▁Sah ara
▁d urch
▁g ay
id ation
us cript
ru b
▁off ence
▁analys ed
▁Enter tainment
▁judge ment
l ies
y ard
▁T ow
▁M ir
te enth
▁str iving
▁sl ogan
▁disadvant ages
ipel ago
, 8
t ry
▁le ap
▁pl asma
▁ap t
▁stre ams
ilater ally
▁scan ner
▁P A
▁N uclear
▁pre p
.5 0
▁poll ut
▁retail ers
▁Nob ody
ropol itan
▁elabor ate
▁F ratt
▁pre condition
▁Gener ally
▁Elect ric
▁stabil isation
▁trig gered
▁confront ation
▁Orig in
▁intoler able
2 9
▁o ak
▁S in
▁E ver
▁sp heres
▁sub ord
ied er
▁Off icer
▁Sy d
▁describ ing
▁Cr us
▁divers ification
▁treas ures
▁dismant ling
▁Rim ini
2 8
b ruck
st a
id th
▁D L
▁In g
▁your selves
▁Champ ions
f riend
▁B row
▁pol ar
▁198 3
▁horiz on
▁impress ions
▁incap able
▁a rose
▁c ables
▁C ou
▁C ateg
her ic
iz zard
▁K ir
▁sub tle
▁Sch w
▁jour neys
▁Know ledge
▁Person ally
▁Blu etooth
▁acoust ic
opolit ical
es y
AT A
▁S ER
▁us ername
▁out rage
▁Reg ister
▁cross ed
▁Fran co
▁Acc ommod
▁197 4
▁sav es
▁infringe ments
▁K er
▁soc i
▁appro ving
▁rep et
▁Add ed
▁Vis a
▁rend ered
▁assemb led
▁Fratt ini
▁e ars
▁G ö
▁R w
▁Gu id
▁optim ism
▁overlook s
▁Pan el
C O
▁t u
▁st up
▁H orn
▁wor ries
▁J azz
▁pe er
▁mach ining
▁Pers pective
▁discipl ines
with standing
▁hypoc risy
▁entrust ed
f ram
▁e B
op oul
▁F inal
▁R ain
▁Comm ander
▁disc lose
▁str ings
▁forward ed
▁app et
▁Freedom s
C A
i ère
▁rec overed
▁consum ed
▁war nings
▁nice ly
▁à -
▁Independ ent
w agen
н ы
▁st rain
▁or chestra
▁G iov
▁trad ed
▁rev ise
▁cam iones
▁phys ically
▁phys ics
▁clin ic
▁derog ation
▁m asters
▁B ert
▁simultane ous
n sel
▁w ird
▁h ike
il ib
▁pract ise
▁bar bec
▁Mar ine
▁addition ally
▁forget ting
▁mal aria
▁fran ch
▁bomb s
▁controvers y
▁upgrad ing
▁Ess en
b ird
▁ 
▁ м
▁n ose
▁on t
ir ates
ats on
▁fair ness
▁alloc ate
▁flu id
▁cosmet ics
▁Stef an
c m
l ie
on z
▁appro ached
▁imm une
▁Creat ive
▁Transl ation
▁batt les
▁T ener
ol en
▁Z ür
▁bar oque
▁Ber lus
▁front ier
▁bra ve
▁Fer re
▁1, 5
▁Ethi opia
▁amate ur
▁p ic
▁b oss
▁F M
ag u
▁mak er
▁bo ast
▁sal mon
▁197 7
▁veget arian
▁alcohol ic
▁absor b
▁epis odes
▁Eco fin
um ped
▁L om
▁new er
▁car pet
rat ory
▁Tre as
▁minister ial
▁fix ing
▁Spl it
▁Berlus coni
▁M other
▁D rug
▁del ights
▁rese ar
▁travel s
▁mis use
▁Est ate
▁ein er
▁treas ure
j our
o ir
v ency
at en
▁G il
▁D R
ew orks
▁ph p
▁Pl ant
▁Reg ulations
▁recon s
▁prohib ition
▁Tex as
▁a ber
▁p ap
▁st uck
ap ix
▁fol d
▁advertise ment
N S
▁d ro
▁M oh
▁W atson
▁un m
▁disc ourse
aj a
▁sk ip
▁z a
▁pension ers
m ond
▁t um
▁f r
▁n ons
▁r ush
ri ans
▁ener get
▁corpor ation
▁organiz ational
▁pron ounced
ion i
▁g ates
et es
▁ext ensively
▁Tra in
▁fisher y
▁cook ed
▁squ ares
▁reloc ation
▁utter ly
▁t abling
▁T rent
▁H om
ial s
▁G eb
▁ad idas
▁St one
▁man uscript
▁champ ions
▁Ltd .
s m
in ates
▁m ol
▁was ted
▁term ination
▁He idel
▁Lam an
▁vigil ant
▁termin ology
▁t iles
▁p ets
am er
um ph
▁qu o
▁dec ommission
▁represent ations
gg ing
▁bur ied
▁Mun icip
▁spons ors
▁Moz illa
▁umbrell a
▁re ap
▁comm ence
▁dif fers
▁9 1
▁Trans fer
▁Arab ic
▁Bang kok
▁broch ures
▁supermark et
▁re wards
st all
▁or chest
iv ial
ens ing
▁ins ol
▁Z one
▁La eken
▁anim ated
▁emb race
▁restric ting
▁Jo in
▁reass ure
ferent ial
▁desper ate
▁sul ph
7 6
p ical
▁b ud
▁O racle
▁third ly
▁select ive
▁Sur round
▁cultiv ated
▁Sen ate
▁vacc ination
▁Conserv ative
▁disproportion ate
▁h anging
id en
ol iberal
iv ia
▁H alf
▁R ac
og ram
▁EC HO
▁passion ate
▁shar ply
▁rac ist
ot ion
▁E sc
▁assist ants
▁mem or
▁mobil isation
▁illness es
▁ASE AN
▁pecul iar
ul se
▁var iant
▁gr asp
▁viol ate
▁Val le
▁proceed ing
▁shel ter
▁disclos ure
▁Id ent
o ons
▁c ited
▁H arm
▁ch ic
▁impl icit
▁defe ated
▁C annes
▁B ob
▁F u
▁benef iting
▁Ma ison
▁dia gram
▁Point s
▁EG F
▁twent ieth
ent a
▁wh ir
te c
▁Th ink
▁col leg
▁rep airs
▁Dis ney
▁strugg ling
▁Equ ality
opol itan
▁dil ig
р и
ing en
▁re vel
▁S IS
▁se g
▁V ac
▁fol ders
▁allow ances
▁med iation
▁Pl ug
▁hous ed
▁Av iation
▁reposit ory
л е
▁E thernet
▁le verage
▁may or
▁ban ner
▁clean er
▁Sec ure
AS S
▁Belg rade
▁ign or
▁п о
▁an ger
▁inter rupt
▁unw ind
▁vend ors
▁Flor ida
▁myster ious
▁f ier
ve z
▁L abor
▁sk iers
▁rad ar
▁remind er
enn y
▁exempt ions
▁clim atic
▁publisher s
▁counterpart s
▁kid n
▁Norweg ian
▁And rew
▁exc itement
▁rad i
▁ir r
▁municip alities
▁News letter
▁Turn ing
▁Orig inal
▁Eri ka
2 6
f ix
▁c razy
▁P XI
▁L ama
▁under lines
▁transl ator
▁deep ening
▁Mod el
▁summ its
▁Ext ra
▁stret ches
▁Perform ance
▁mead ows
▁Sof ia
▁Seb ast
▁B ull
▁wor n
▁Comm ercial
▁year ly
▁sc roll
▁Al ber
▁land mark
▁Ed it
▁Met al
▁champ ionship
ü d
▁s que
▁d ental
▁un qu
▁act ress
▁gl ory
▁fun ny
▁Group s
▁fulfil ment
▁Carl os
▁a ug
he nd
▁the ories
il ica
ort ium
op ic
ound ing
▁Com pare
▁travel ler
▁Nep al
▁Face book
▁w ur
▁The ater
▁com ed
▁dis order
▁ver b
▁illust rates
▁Cam er
▁Num erous
▁Peters burg
▁consec utive
. M
▁st rand
▁comp lying
▁conf ine
▁25 th
▁hon oured
▁ir rit
▁glac ier
▁Azerbai jan
g rim
▁P el
▁se ize
▁sh ots
▁G or
▁br ass
▁civil ization
ira c
▁surv ived
▁cul m
re cht
▁p ave
▁m emb
ic her
▁h ook
▁sub m
▁op pression
▁read iness
▁Mal aga
▁Play ers
▁Grand e
▁Dub ai
▁merch and
▁Conver ter
▁T B
▁C ell
▁O m
▁O tt
▁J et
hen ko
▁att aches
▁Bet ter
l ades
▁f et
▁b a
▁P ors
▁prov ing
▁under water
▁stat istic
▁liber ties
▁Tar get
▁elev ator
▁gate way
▁Johannes burg
este in
▁Inns bruck
▁C rete
▁out comes
▁similar ly
▁predomin antly
▁refriger ator
▁accus ations
. O
▁M R
um en
▁us eless
▁D B
▁R ose
▁comp ounds
▁count ed
▁J u
ob oda
▁comb ust
▁Man ufact
▁target ing
▁Bu y
▁guard ian
▁Import ant
it ted
▁T otal
ap h
▁not ebook
iv ic
act iv
▁Col om
▁tal ented
▁Har ry
sole te
im ir
art a
um atic
▁sub urb
iant i
C on
▁M aking
▁sh irt
▁N E
▁V lad
orn o
▁Ob s
▁insp ire
▁cas inos
▁supplement ed
▁MID I
▁b apt
▁h ip
▁cle ver
▁sec rets
▁distrib utor
▁prem ier
▁config ur
▁feed s
▁mir rors
▁swit ched
in itely
▁sun set
▁hydro gen
▁Tener ife
j ack
▁ ich
in as
▁B olog
▁sur ge
▁Can aria
▁Bl izzard
▁log ging
▁Bo hem
▁compar ative
▁obst ruct
heim er
▁d uly
▁F ast
▁do zen
▁St op
iz za
ok es
▁Se venth
▁allow ance
▁national ist
▁No .
▁ur anium
▁Plan et
▁Hosp ital
A s
b es
f al
ent er
ot ti
▁C 4
▁C av
▁H ay
▁sc al
▁before hand
▁via bility
▁Man chester
▁Sum m
▁Set tings
▁mort ality
uten ant
▁microw ave
▁Syd ney
6 1
I AL
▁p ink
▁de ple
▁V O
▁K ais
▁bene ath
▁fram eworks
▁circ ular
▁emphas ized
▁mis sile
▁DVD s
▁abund ance
▁brows ers
K T
▁T i
▁Ch all
▁def iciencies
▁par amount
▁Govern ments
▁speed y
li hood
▁stars hip
▁Autom atic
▁PV C
r ans
▁w ie
▁f right
▁ne oliberal
um ers
▁R oy
▁loc ate
▁Bar nier
▁impl ied
▁rid iculous
▁ox ygen
▁Zür ich
▁ 
re ck
▁F P
▁would n
▁K as
▁my sq
▁tranqu ill
▁Six th
▁be e
▁J oe
▁trad es
▁back wards
▁Qu arter
▁attract s
▁imbal ance
▁prescrib ed
ivir us
▁Gib ral
he w
in ator
on et
▁n ic
▁n ur
▁M is
▁Bar oque
▁ill usion
▁adap ter
▁prompt ed
▁fat al
▁preced ence
▁sculpt ures
ü n
▁re ef
▁l ined
▁A nc
▁M AN
ke it
▁D H
int age
▁bu ck
▁hand les
▁Le e
▁pet itions
g io
▁d read
▁I LO
og ical
▁ar rog
▁inf lic
ccess ful
▁sl ots
▁May or
▁gradu ated
▁spons or
▁Bol k
▁p ockets
ar ag
ro gen
▁d amp
▁F .
▁appe als
▁rid ers
▁Num ber
▁Eve rest
▁the e
al an
▁T ony
▁E ly
ans a
▁Ap part
▁Rom ans
▁veter inary
▁Bolk estein
ad as
▁am p
▁manufact ures
▁keyword s
alu ation
▁Rec omm
▁ware house
p rom
an en
▁l amp
ab el
ah a
▁light weight
▁Friend s
haus en
▁redund ancies
▁gastronom y
f s
▁g es
▁an ten
▁v oid
▁last s
▁concept ual
▁tou g
▁Ev ents
▁pregn ant
▁dissem ination
▁discont in
en k
us ions
▁M ilitary
▁F itness
▁prot agon
▁imag in
▁doct rine
▁Form ula
▁infect ions
▁supermark ets
▁appar atus
c am
▁I ND
▁A id
▁conc ur
▁form ulate
▁Im ag
▁emb arr
▁occup ying
▁rock y
▁pil ots
▁mit ig
▁Agricult ural
▁Wal ter
▁Wil hel
os o
▁C it
▁al ly
▁an th
▁W HO
▁F IF
▁R ov
ond o
▁196 9
▁caf e
▁incomp rehensible
▁b its
ut o
▁gener ator
▁Val ent
▁Shop ping
▁mort gage
▁rebu ilt
▁t ones
▁R y
▁sc ores
▁car p
▁Be at
▁travel led
▁facilit ates
▁incorpor ates
▁anx iety
▁Volks wagen
▁injust ice
k on
▁the ft
os ur
▁F ischer
▁out lets
▁trans c
▁inv isible
▁last ed
▁eas iest
▁live lihood
▁Cro wn
▁disag reement
is o
▁b ills
▁at roc
▁un law
▁trust ed
▁rout ing
▁entertain ing
▁profession ally
▁recip ients
▁rot ation
L D
as so
ul um
▁B ash
▁out sk
▁pre ferential
▁bel ts
▁grow ers
▁Sw oboda
▁bar bar
▁insp iring
▁Inc .
▁mer cy
▁Tor re
▁caf és
▁decre ased
▁acceler ated
roph ic
▁stro ke
C L
▁C ool
▁M ira
▁R T
▁L anka
▁N ich
ert a
▁ob solete
▁process ors
▁Al i
iss on
▁gen re
▁spir al
▁PC I
▁authent ication
▁cliff s
▁cofin ancing
▁Shut tle
d in
re cy
▁f ired
▁B ible
▁D ies
▁comp ile
▁Con struction
▁Im p
▁SL R
▁trek king
▁à- vis
▁Bolog na
▁c ogn
ing ham
▁M AR
▁r ides
ri o
▁comp ressed
iz able
▁administ ered
▁scan ning
▁dupl ication
▁embarr ass
B IL
v ation
▁T U
▁tra ct
▁ed itions
▁imp artial
▁event ual
▁conver ter
▁Trad ing
▁Contin ental
▁derog ations
nd ez
▁M ob
▁&apos; I
▁le an
▁U PS
▁over coming
▁view er
▁sur prises
▁air space
▁build s
ik o
▁exhib its
▁Merc osur
▁adj our
▁biz arre
f are
▁C ube
▁S ustainable
▁V all
ass er
▁mat ched
▁Del uxe
▁Move ment
▁cosm opolitan
▁outsk irts
т а
▁ex agger
ect or
▁O wn
▁sy nd
ib e
▁gra pe
▁Air ways
▁repl ied
▁tal ents
▁retain ing
▁merg er
▁sq m
▁Got henburg
▁admin ister
▁Euroc opter
H C
T ube
▁C ut
▁F ant
▁over flow
▁techn icians
▁So on
▁sl a
▁camp site
▁Port al
AL L
▁incorpor ation
▁porn ography
▁Veg as
os ion
▁K rem
▁offer ings
▁opt ed
▁tour istic
▁cat ches
▁occup y
EL L
▁tri umph
▁unre alistic
▁hier archy
▁sear ches
▁manoeuv re
O F
▁e ternal
▁A h
▁M ig
▁B ajor
art s
▁int ra
▁appl ause
▁rep ressive
less ness
▁Des ktop
▁attack ing
▁san ction
▁Ze it
▁prox y
▁perpet rators
▁Ide ally
▁scrat ch
an ol
▁D uis
▁ide als
▁To o
▁modern ization
▁cred ited
▁Step hen
VI EW
▁Cad iz
▁Pors che
▁w ool
▁d ent
▁l enses
▁W H
▁19 30
▁imp unity
▁Mar ie
▁consult ant
▁condem ning
net ic
▁sequ ences
▁seaf ood
▁gastronom ic
▁Andalus ia
▁Cot on
oty pes
▁diagnost ic
▁st airs
▁le v
▁decl ined
cel eration
▁challeng ed
▁fire wall
▁sle e
▁Bur mes
▁Catal an
7 9
z io
▁l uc
▁H ig
ac ion
▁ext r
▁direct ories
▁car c
▁And or
▁trou bles
▁sculpt ure
▁tact ics
в о
▁L inks
▁3 ,
▁respon s
▁bal ances
▁exch anged
▁Cast ro
▁overlook ed
▁voc al
▁entrepreneur ship
▁SE O
▁poet ry
8 5
P oint
▁T W
▁it al
▁market place
▁cap s
▁At l
▁bed ding
▁hold ings
▁Fe el
▁endeav ours
▁Mess enger
▁bankrupt cy
▁H ôtel
▁D aily
th ur
▁j ungle
ere rs
▁ra cial
▁mod em
▁conver ting
▁sight ed
▁deliber ations
▁erad ication
▁asc ertain
▁Kaz akh
C ard
w idth
in arily
▁n ort
im p
▁as ym
if s
▁term inate
▁commun ism
▁foc uss
▁Co ord
▁fit tings
▁Moroc can
▁Docu ment
▁Amb assador
▁b unk
▁C er
us ive
▁E ither
▁whe at
▁soc cer
▁7 3
▁farm house
▁gra b
ij n
▁repe ating
▁weak ening
▁interpret ers
▁Form er
▁acknowled ges
▁BA E
▁epid emic
▁rust ic
T ech
r ar
ñ o
▁to y
op ters
▁add iction
▁friend liness
▁div or
▁fant asy
▁bon uses
▁wholes ale
▁restra int
▁hed ge
▁Gibral tar
ol ine
▁H um
▁ass ent
▁mat ernity
▁An k
▁step ping
▁controll ers
▁appoint ments
▁inhab ited
uber cul
▁Mem ory
▁pix el
zb ek
▁shif ting
▁proport ions
▁Montre al
▁Coton ou
res so
▁D ur
▁N est
▁good will
▁sup plements
▁lower ing
▁Int rodu
▁san ct
▁Trad itional
▁foresee able
▁coex istence
▁t ags
▁M ission
em et
▁sh ade
und i
OR K
▁amb iance
▁Ter ror
▁pred icted
▁lod ging
▁Magaz ine
4 2
ñ os
к и
▁C and
▁S akh
▁U zbek
▁St alin
▁rel ies
▁sp ray
▁met ab
AC E
▁IC E
▁HT TP
ili ates
g ia
j er
re nd
▁d ose
oc he
▁he ter
▁Un ix
▁rest s
▁ret ro
au ge
▁milit ar
▁den ial
▁rul ers
▁corner stone
▁ein em
▁Pay ment
▁unres olved
. 12
ing o
ro be
▁g y
▁S ig
▁E ye
▁In side
▁Comm ons
▁contact ed
▁Mon aco
▁PC s
▁hear ings
▁cab inet
▁witness ing
▁fib re
▁Stein berg
f ü
▁re jo
▁M ai
▁E ight
ia h
▁sit s
▁sm ok
▁10 5
▁seem ingly
▁Bon us
▁vit ally
▁vent e
▁pregn ancy
▁fon ts
.ht ml
ubercul osis
d ings
m 2
▁o s
▁f iber
ct ure
▁M aj
▁v oy
▁R ud
▁sec recy
▁construct ions
▁wild life
▁Mess e
▁affil iated
m ir
▁s ow
as ive
▁T aj
▁activ ation
▁Z ap
▁expl oration
▁vol ley
▁rent ed
▁sort ed
▁outd ated
▁Equ al
▁anx ious
▁amid st
a ver
i ć
▁T ag
us a
▁M oon
▁B od
▁dis able
▁und es
▁min erals
▁Com pl
▁amb ient
▁dry ing
▁Mü ller
▁Prog ress
▁apolog ise
▁Pun ta
▁Poet tering
d r
os es
un as
art e
are ttes
▁8 1
▁provision al
▁ninet eenth
b ly
h ire
▁d ile
▁le ver
▁dest ined
▁observ ing
▁Great er
▁roll ed
▁pray er
▁Ramb las
▁Quart et
▁enric hed
▁ ~
▁ 
il ian
▁C ors
im ation
▁B h
▁G arc
omet ric
ER E
▁pas te
▁Luc erne
▁possess es
▁imprison ment
▁cens ure
▁portra it
▁grav ity
▁Philipp ines
▁Heidel berg
▁a .
▁C hen
▁R ES
du e
▁under going
▁oper ative
▁7 50
▁protection ist
osp el
▁context s
▁log ged
▁wa iver
AS A
▁Serb s
▁mobil ise
▁surprising ly
▁Photos hop
6 2
F ast
el n
ial e
ang ers
ific ant
▁var iation
▁8 3
▁step ped
▁personal ised
▁host ile
▁investig ating
▁Commun ications
▁Nat ura
▁Mer kel
▁Cr ime
▁contam inated
▁Ur ban
teg ration
▁Accommod ation
▁Un it
ob a
▁Ch ianti
▁ref uses
tle ment
▁el astic
▁decl ining
▁Fran ces
▁vers a
▁aer ospace
▁coordin ator
▁dub ious
▁Luk as
▁Laman ites
l ation
erv ice
lus ion
▁pract ition
▁interpre ting
▁scandal ous
im et
▁H in
▁H old
▁N ine
▁ra pe
ew ay
▁bl oc
▁bal ancing
▁Rom ul
IT E
▁197 2
▁hom eland
▁Us ually
oul try
▁unw anted
▁Seat tle
b ro
▁v om
▁H ilton
▁O pport
▁Ind ex
▁quick er
▁ein en
▁attrib ute
▁Bang lades
▁counterfe iting
4 1
▁e ve
ol ia
▁H ö
▁G raph
▁im aging
▁un pro
▁K rak
▁med ication
▁che er
▁dial ect
▁court esy
▁Pan or
▁bicyc les
▁CN S
▁Arr ival
▁wond ers
▁aston ishing
s a
▁s ixt
est ro
▁pol ite
ER T
▁imm igrant
▁mus cles
af en
▁14 2
.j pg
p ensive
at ar
nd t
▁f ur
▁M iles
▁con ve
▁E ras
ke ep
▁Comm and
▁sc attered
▁av ant
▁commun icating
▁Saf e
▁fert ile
i ac
▁o ct
▁st oring
ate au
▁B end
▁r ated
▁H al
▁glass es
▁store y
▁exceed ing
▁boost ing
▁AT M
ogen ic
f old
k u
▁r us
▁le ague
▁cl oth
▁gen es
▁atmosp heric
▁Sub mitted
▁agg ression
▁Work ers
▁rend ering
ad ar
▁en quiry
sel t
▁review ing
St ation
▁dynam ism
▁unb el
b one
et ra
▁by pass
▁D ear
ff ice
ential s
▁cat ching
l ay
r us
z ip
▁f ron
▁L .
th ren
▁N iger
are n
ph y
▁cle ared
▁origin ated
▁origin ating
▁emerg es
▁decor ative
▁entrepreneur ial
▁vou cher
E Y
U D
▁p and
▁I .
▁P ots
un ya
▁or na
▁B ast
▁form ulation
▁ac res
▁10 .00
▁pay able
▁Tw itter
▁Cor b
▁wild erness
▁unre ason
▁Dal mat
▁Eur atom
▁the sis
▁he m
pl aces
▁success ion
▁plant ed
▁neighb ors
▁proc laimed
▁contrad ictions
▁reprodu ce
L IN
t ically
ver ted
▁P ant
ant es
▁G IM
▁ev ac
▁char ity
▁Gu arante
▁argu ing
▁Op ening
▁enorm ously
▁Walk ing
▁maj estic
▁recons ider
▁so ap
▁regist ry
▁Tw in
▁Est abl
▁Gard ena
▁Gal icia
▁nom inal
▁Burmes e
▁t enth
it ic
▁T EC
▁I A
▁I z
ers e
ass is
lp ool
▁Co ff
▁ge opolitical
▁react ors
▁Sim on
▁philosoph ical
B R
c ke
▁A ld
▁P ie
ir al
end ers
ak t
▁3 .1
▁reject s
▁absor ption
▁ric hest
▁Integ ration
▁Sis ko
b ü
p at
ant i
▁r ings
▁mean while
umb ers
▁Econom ics
▁complement ed
▁CF P
▁Nap ole
▁allev iate
▁sla very
A ND
P al
z ia
é d
ic ates
ig i
▁The ss
▁ass urances
▁prot otype
▁mus cle
▁risk y
▁proportion ality
▁bomb ing
▁Silver Fast
▁reciproc ity
▁Armen ia
▁bub ble
f est
ed er
▁n uest
▁y achts
el en
▁E A
▁U b
ange red
▁Al ways
road s
▁safeguard ed
▁faire r
▁nerv ous
▁S R
▁A lic
▁cl ou
▁He b
mber g
▁compl ies
▁17 9
▁Ne v
▁analys ing
▁Book s
▁Lab VIEW
▁inher it
ac ulture
▁L an
act ion
▁det ained
▁ded uct
▁reward ed
▁GU I
▁beat en
▁Cardas sian
6 3
x x
▁an onym
▁H I
ll a
▁her bs
▁8 7
▁pat ches
▁Im plement
OS S
▁flood ing
bre v
aret te
▁Amaz on
▁tranquill ity
▁p oultry
st al
▁M ind
ie le
▁cur ric
▁bro ker
▁Cl os
▁Ben z
▁Cert ific
▁Krem lin
v re
▁h t
▁T itan
et ed
▁R ica
▁N ure
▁acc ent
▁J am
▁Ch ris
▁X X
vent ura
▁ME D
▁ign oring
▁abund ant
▁Buddh ist
▁Hann over
ogene ous
▁s ink
ro id
ol ar
▁E DF
▁B ody
▁tr illion
ass a
▁def er
ath an
▁dest iny
▁compl iant
▁wat ched
▁eleg antly
▁register ing
U ST
▁P sych
▁Th ings
▁un ple
▁off shore
▁11 5
▁music ian
▁fle e
▁band width
▁Jac ob
▁testim ony
G EL
at to
▁P isa
▁2 ,000
ens en
▁Re ich
▁question able
▁consum e
▁hon esty
▁Rec ords
▁cere mon
▁rot ating
▁Pen insula
▁Particular ly
▁Equip ment
▁Guatem ala
▁Categ ory
▁d ass
▁ins ights
▁standard isation
▁intens ify
▁Sup pl
▁coordin ates
iot ics
M E
▁de eds
em ann
▁un ter
▁tr icks
▁cl ips
▁off s
own ers
▁You Tube
▁fl air
▁recogn izes
▁cou nsel
▁concent rating
▁fem in
▁Somet hing
▁ecosystem s
O G
om ed
▁l ighter
▁A 1
ch ia
ul i
▁v oor
▁tra ine
▁suff ers
▁amb igu
▁Econom y
▁interpret ations
cript ions
▁referend ums
▁correspond ence
▁Rap id
▁reprodu ced
f ly
▁to mb
as hing
▁l am
▁S eller
▁se ized
▁democ rats
▁mot ives
▁exhib it
▁downt urn
f ather
il o
▁G rad
▁cont ing
▁pre rog
▁inv entions
ren e
▁equ ilib
▁legisl ators
▁Sw imming
▁Mar io
▁Med ina
▁strateg ically
▁valid ation
▁Stud ents
▁bre thren
▁volunt arily
▁Pos selt
▁dupl icate
▁Pots dam
u ction
▁c it
▁G reg
▁qu ad
▁ret ains
▁Te levision
▁standard ized
▁wind ing
▁Me chan
▁Lin z
▁illust ration
▁Conserv atives
▁unauthor ized
▁he ge
▁Z ak
▁dr ift
▁Bar ack
▁answ ering
▁alleg ations
▁franch ise
▁p el
▁E E
▁E arl
ul in
▁st olen
pl an
ud a
▁free ze
▁back ward
▁head er
▁Appl ications
▁IC C
▁1950 s
▁combust ion
▁Sakh arov
▁Thess alon
▁R .
▁dis ks
▁off line
▁J ak
▁fin es
▁ph ysi
▁real ism
▁Sh aron
▁occup ies
iff el
▁fort unately
▁util ization
icyc le
▁Ly on
▁Columb ia
▁asym met
n ames
á r
▁p ian
▁un he
▁administ rators
▁Gener ation
vis or
▁impl ants
▁comment ed
▁esc ort
▁erad icate
ou ve
ot es
ut a
oy d
▁4 .5
▁exc ise
▁Found ed
▁ep ic
▁fix es
▁shock ed
▁misunder standing
▁Foot ball
▁Giov anni
c ore
▁I ber
▁P AR
▁sh irts
▁und en
▁imm inent
▁compos itions
▁Pack age
▁Ext reme
▁cig arettes
6 00
▁be verage
id y
▁S ter
▁leg ality
▁conf using
▁repl ies
▁23 rd
▁197 1
▁emp ower
▁feas ibility
▁frust ration
▁s arge
▁n ad
▁R ace
▁K em
▁K ind
▁fl opp
▁Be hold
▁doub led
▁Tra ff
▁Ol iver
▁electron ically
▁Opt ions
▁catast rophic
▁Lud wig
▁enclos ed
r ality
▁b ans
ers ey
▁cont empt
▁int ake
▁Se ason
▁post ers
▁ident ities
▁comput ing
▁door step
▁mainstream ing
▁rooft op
▁W onder
▁un load
▁up held
▁19 00
▁expect ation
▁fa ç
▁cry pt
▁Mic he
▁plate au
▁fount ain
. d
ä n
▁d unes
id i
▁B B
ag le
ell ers
▁serv ant
▁ref ine
▁Pro blem
▁Sp ock
ah oo
▁sal on
▁confirm ing
▁Lux ury
▁Mot ion
▁b alls
as sion
▁inter rupted
▁mat urity
▁prev al
▁par cel
▁dom inate
▁lo oph
▁hor ror
▁Sim ple
▁los es
▁Inc lud
▁tun ing
2 3
▁h iding
▁C ord
▁G .
▁cl ay
nc hen
▁rel iably
▁human e
▁govern or
▁ident ifies
▁coll apsed
▁flow ing
▁e. V.
▁secret ariat
▁prest ige
▁Ec u
▁provin cial
▁biom ass
w ind
▁o zone
▁K iev
▁perfect ion
▁acqu iring
▁wood y
▁satisf ying
▁flav ours
4 3
4 7
n ese
▁to ken
▁I ss
▁G onz
▁L amb
ine on
▁stand point
fort able
▁ed itors
▁Ag ree
▁vig orously
▁Lith uan
▁Nure mberg
c hens
t ics
ü b
л о
it à
ou ched
▁re lying
if iers
▁impro per
▁30 th
▁Cons umers
▁occas ional
▁respond s
▁Prov ider
▁cyl inder
▁smugg ling
▁barbec ue
G I
n els
е н
▁th ir
▁C SS
et tes
▁M az
▁G ü
▁G az
▁trans plant
▁add itions
▁Con venient
▁del le
▁Al s
▁question na
▁forward ing
▁Or t
che t
▁ones elf
▁roll er
▁Stand ards
▁explos ive
▁Som alia
g on
al er
▁P N
▁ha ben
▁G P
▁k ön
▁trans posed
▁ce ment
▁red irect
▁Hel m
▁extraord inarily
▁Indones ian
▁mig ratory
▁extrem ists
▁Vul can
2 7
8 8
he rence
▁c ats
▁T ours
▁G y
ag l
▁k ann
hor n
▁pres um
▁der ive
▁industrial ised
▁occur rence
▁slow er
▁consolid ating
, 0
in um
▁b og
▁F S
▁F ox
▁L ar
▁la wn
▁inf er
tain e
▁Be gin
▁Ab d
▁harmon ising
▁advantage ous
▁divid ing
ament e
▁hol istic
▁vib ration
▁incident ally
▁Cru z
▁l ub
▁red ress
▁Brand enburg
▁Py ren
▁counterfe it
▁pi racy
▁Appro val
▁execut ives
▁homose xual
5 5
▁M ak
▁F ont
pon ents
amp ed
▁De leg
▁Te ch
▁fundamental ism
▁correct ions
▁Del ivery
▁B il
and um
▁St ream
▁Pres ent
▁Ch ad
▁col ored
▁def ensive
▁ins ign
▁An ne
au pt
▁evol ving
fram e
▁Kazakh stan
U E
▁ Ü
in ence
▁sh ocks
▁G O
mit t
uf th
▁Card iff
▁lod ge
h arm
r ific
▁m elt
ut able
▁H olding
▁per t
▁support ive
▁under gone
▁plan es
▁dev ised
▁remain der
▁vo iced
▁belong ed
▁color ful
▁chem istry
▁gro ves
▁cig arette
▁configur ations
n as
▁g auge
▁E V
▁U m
▁rel aunch
▁Y emen
▁Z immer
▁exc ited
▁deal ings
aw a
▁ME DA
▁Oper ation
▁Lu z
▁tempt ation
▁Ult ra
▁apprent ices
▁unple asant
it as
▁O EM
▁sy nergies
ient o
▁He art
▁question ed
▁commit ting
▁Sc ript
▁liber ation
▁instruct ors
AV E
▁Rou te
▁Ga ul
w ich
▁ з
▁S ide
▁comp ilation
▁Re ception
▁sup reme
▁commun al
▁legisl ator
▁amount ing
▁din ners
▁Rot ter
▁swit ches
▁corrid ors
▁ta vern
▁extrad ition
▁Banglades h
m ath
p en
▁in acc
▁L ut
▁3 .2
ov ol
chn ik
▁cap itals
▁Ph oen
.1 1
▁Catal unya
▁cy ber
▁harass ment
é l
▁S N
▁W ide
▁comp ound
oot ing
▁100 ,000
▁Ast rium
▁extrem ism
▁pled ge
▁scarce ly
▁T ric
▁g ently
▁S ong
▁M ond
▁E iffel
ate red
▁W ol
▁ass im
▁ut ilities
▁satell ites
▁mal ware
▁desper ately
▁helic opters
▁reluct ant
ü t
he ll
as te
▁v i
▁L ig
▁ab used
▁no ch
▁ra v
▁So le
▁prefer ably
▁Ang ola
▁Sad ly
▁accum ulated
T M
b ered
j ana
▁T ennis
▁un used
▁Q a
lev ant
▁Cl in
▁i T
▁201 4
▁Inc luded
▁Ins urance
▁dur ability
▁sulph ur
ufth ansa
z ur
in fo
ar is
▁al igned
ain ts
▁can n
▁un rel
og o
▁Y OUR
▁wonder ing
▁mis ery
▁proceed s
▁Joh ann
▁Sat ell
▁parad ig
▁Inf ineon
▁disappear ance
▁ly rics
▁Wilhel m
▁unlaw ful
▁b ronze
▁P ear
▁1 .8
▁L ay
▁cl icks
▁pr ies
▁V ert
ern er
▁cre ations
▁rep ay
▁tax is
▁altern ate
▁compr ise
▁attach ment
▁merg ers
hard t
▁Mov ie
▁tel esc
▁interd epend
▁Surround ed
▁d rought
▁C 6
ch io
▁F TP
▁r ib
ost er
act er
▁gl az
▁inf ant
▁aff lic
▁peace fully
▁Where as
▁plug ins
▁lov es
▁pul se
▁taxpay er
▁envis age
▁viney ard
▁p icking
▁A uf
▁v in
th al
▁num er
▁De ath
▁sing ular
ours es
▁State ment
book s
▁nom ination
▁alleg edly
▁convers ations
▁Quark X
▁Ult imately
▁Rotter dam
▁m ism
▁B ere
▁F est
▁cor n
▁inf ra
▁modern ity
▁analy tical
▁prohib it
nam o
▁spell s
▁Chem ical
▁inse ct
er ver
▁c i
▁f u
pe c
▁L ufthansa
ie ren
▁k its
▁del uxe
▁bord ering
▁ship building
▁fresh ly
▁fra ction
▁ram p
▁ts un
▁fluctu ations
▁Ecu ador
on ne
ed o
ur as
▁P or
▁H E
▁N er
erm o
▁any time
▁Ex port
▁mass es
▁emphas ising
▁prob ability
▁frag mentation
▁Merc ure
▁exped ition
▁bact eria
C h
S h
▁d ictionary
▁T ort
▁W ag
▁v intage
▁B it
od ied
▁Council s
▁free zing
▁design ation
▁Des igned
▁Man uel
ex e
▁bra ck
▁underm ines
▁Year s
▁preced ing
▁vig orous
▁crow ded
▁vend or
▁Cypri ot
▁fres co
M P
á namo
▁p ued
st on
▁W ave
▁H .
▁U EN
ran ces
▁ret ired
▁young est
▁explo iting
▁hum idity
▁minim ize
▁pul led
▁Pict ure
▁Guant ánamo
▁reimburse ment
I ER
es ome
▁p ess
ur m
▁C IA
▁gl am
▁reason ing
▁central ised
▁Man ual
▁constit uted
▁den ying
▁Will i
het ics
▁blog s
▁prop he
▁degrad ation
FOR M
▁cleans ing
▁Obs erv
un ate
▁cl o
▁cl ust
▁V .
▁K ap
▁em blem
▁Ar cher
▁attract ing
▁breat he
▁Pay Pal
▁cott age
4 6
m os
et ta
if er
▁F ri
▁j unction
▁global ised
▁lab elled
▁En l
ID E
▁council s
▁imperial ist
▁Scandinav ian
▁Regist ration
▁whir lpool
▁Thessalon iki
k it
am os
▁G em
ip edia
▁soc ket
▁pat ri
▁arr ives
▁emph atically
▁scient ist
▁round ed
▁background s
▁rank ed
▁toile ts
▁mathem atical
▁Eras mus
▁t ant
ct ory
▁B ird
▁V it
▁Ch irac
▁Ex cept
▁ground water
▁Cont roll
▁pan ic
▁Mal m
▁prem iere
▁Nav y
▁stip ulates
▁Lie chten
▁Integ rated
▁Ferr ari
m al
▁A raf
▁system ic
▁cur ve
▁sur pass
aut ical
▁tour ing
IC A
▁magn itude
▁tend encies
▁mal icious
▁conce al
▁Las er
▁antib iotics
▁Zag reb
▁Agree ments
▁m old
▁D oll
▁ins ure
▁distrib uting
▁princip ally
▁shock ing
h ots
▁M ode
▁R yan
vel ope
▁Se v
▁bl at
▁question ing
▁fac ade
▁Z en
▁Members hip
▁ship ments
▁Soc rates
▁urg ing
IF E
▁Gen oa
▁absor bed
▁aus p
▁aqu aculture
▁Sound proofed
▁pione ering
eli hood
▁resign ation
oca ust
▁erg onom
▁Imag ine
▁ht ml
K rupp
t ub
▁can y
▁res on
▁K ash
▁3 ,000
▁sc ourge
ph ab
▁He ath
▁sl iding
▁don ated
▁Jan e
▁arm ies
▁Gl ac
unt u
▁witness es
▁Ref uge
▁flags hip
. ph
h ist
▁v ain
se ud
ert al
▁inform s
▁policy makers
▁conv ictions
▁coast s
▁poll s
▁prefer able
▁command ed
▁Mag n
▁monu mental
▁AR E
▁Instru ment
▁shif ted
▁Thyssen Krupp
▁T rip
▁g ut
▁C AR
ig t
▁ex ile
▁B ach
▁&apos; H
▁V ic
▁V IS
ang o
▁integ rates
▁Or ange
▁Mil ano
▁lobby ing
▁AV I
▁Reserv ations
▁embry os
▁navig ate
▁diab etes
▁Opport unities
▁Araf at
т и
▁h ate
▁h ikes
▁A e
▁E den
▁W AR
▁sh aft
▁k W
▁ra ys
▁over ha
▁disc ard
▁cur t
ys itting
▁pres idents
▁18 00
▁ban qu
▁lik elihood
▁transform ing
▁advoc ating
▁Champ ion
▁Pict ures
▁depl ore
▁mira cle
▁Prest ige
▁QuarkX Press
O ffice
▁h ired
▁un ve
▁pr iest
▁V P
▁import ing
▁ra b
▁Re con
▁stat ue
▁infl amm
▁react ed
▁hung ry
▁ric her
▁inex pensive
▁interc ultural
d an
▁S ene
▁S ale
▁st om
▁H och
▁L iter
▁U mb
▁un im
▁J ung
▁trans m
▁custom ised
▁Qu int
▁jo ins
▁Em ail
▁wall p
▁agg rav
▁Alex and
▁honest ly
▁vent ilation
▁refund s
▁predict able
▁encompass es
▁f ame
▁h i
▁h ull
▁r ally
▁ch ron
▁ag ing
▁equ itable
▁elig ibility
▁alumin um
.200 9
▁prolong ed
▁b ays
as ur
▁de let
▁H ur
▁k o
▁dis gu
▁rem in
▁end angered
▁Al ger
▁Com ing
▁scient ifically
▁pros pective
▁enh ances
▁adjust ing
▁motor ways
▁bab ies
▁Karl s
▁perce ive
rob at
▁borrow ing
▁ É
▁c ows
or us
▁f urg
▁B uc
▁ch assis
▁un ilaterally
▁Sch we
asc ular
▁impl ant
▁minim ise
▁Champ s
▁arg ues
▁affil iate
▁Coff ee
n z
re a
▁h inder
ans k
▁5 000
▁min s
▁deb it
▁crit ically
▁contrib utors
▁dev ise
yl on
▁enhance ment
▁decentral ised
▁algorith ms
abul ary
▁Liechten stein
r one
le te
▁1 12
▁2 .3
▁work able
▁tra iler
▁dec ou
▁unt ouched
▁Be ck
▁gra vey
▁consist ed
.0 5
▁deleg ates
▁Add ress
▁gradu ate
▁chap el
▁synthes is
▁erect ed
▁gorge ous
▁Origin ally
I ND
w orthy
re ich
ro ots
▁h unt
il iate
▁S le
▁rel ay
▁own s
▁mon ks
▁sup pose
▁Tur in
▁er osion
▁arch ipelago
▁har ness
▁nav al
▁Real ty
▁label ed
▁rebu ilding
pie ces
8 9
▁p ier
▁T ay
▁T anz
▁C rit
▁P av
▁B BC
em on
▁sh ark
▁N ar
▁different iated
▁ren amed
▁Rad isson
▁inher ited
b ury
l ings
ent o
▁M es
▁F low
▁V atic
und en
▁He in
▁mountain ous
▁vers us
▁breat hing
▁fo am
▁evol ve
▁announc es
▁unav oid
▁fier ce
▁t uberculosis
on to
▁p ars
▁or ch
▁B AS
▁L ad
▁L iv
og h
▁cur ios
▁Sy rian
▁impos ition
▁Christian ity
▁decis ively
▁Sund ays
▁Camb ridge
▁decommission ing
▁Pyren ees
M V
p it
s l
▁b ree
▁m osa
▁T EN
▁de activ
▁W er
▁respon sibly
▁fl ame
▁present ly
gg ed
▁dom ination
▁cong estion
sy stem
▁blood y
▁Kh an
▁dé cor
▁Jul ian
▁Schl oss
▁metall ic
▁merchand ise
▁Corb ett
▁C u
▁pro te
▁B rist
▁K om
ang el
land er
▁clear ance
▁det ain
▁special ty
▁air b
▁art work
▁expl ored
▁she er
▁sell s
▁Alp es
▁Ter ra
▁yield s
▁Tick ets
▁Ug anda
▁energet ic
it ures
▁A ra
ver sible
▁P K
▁P ocket
op ian
▁1 ⁄
▁vis ions
▁spec ulative
▁bo ots
▁Mar ra
▁host age
▁La ure
▁exch anging
▁mem orial
▁dead lock
▁drop s
▁Er nst
▁delic acies
▁Summ ary
▁equilib rium
b ike
▁c ra
▁d ys
▁F eed
▁R at
▁there in
▁K od
▁sub cont
▁gu y
▁Re lease
▁frequ encies
▁cab ins
▁upgrad es
▁Dal ai
▁pione er
▁arom a
▁w ings
▁n uts
▁E OS
▁us able
▁L ip
▁Pl atz
▁personal ities
▁port als
▁guest house
▁Sl av
▁insist ing
▁rig our
▁distort ed
▁manual s
▁algorith m
▁Kais er
n esty
ad ine
▁B G
act ic
▁po le
rit z
rict ion
▁element ary
▁outd oors
▁strugg les
▁util isation
▁CR M
▁coinc idence
▁aggreg ate
▁T A
▁M ix
if act
▁L ands
▁N y
▁fe ared
▁after math
▁peace keeping
▁24 0
▁Em ploy
▁mer chant
▁concert ed
▁announce ments
▁Dub rov
▁Det ails
▁nutr itional
▁popul ist
▁Canc ún
5 4
L AN
en i
▁A A
▁D ell
▁O C
▁St rip
ient e
▁Con il
▁Al z
▁unique ly
▁fores een
▁retrie ve
▁fing ers
▁moist ure
▁clou ds
▁in hib
▁P oz
▁de af
▁B rad
▁F ixed
▁G SP
▁mat rix
▁firm ware
▁que en
▁length s
▁195 7
▁T ab
et he
▁S AT
ch ild
iv ation
▁0 .1
▁Sh ine
▁195 6
▁ball ot
▁tranqu ility
▁Word Press
▁p airs
▁f als
▁d ried
▁S oph
un s
▁se aled
▁im plements
▁ab brev
▁am use
▁ra id
▁mon ster
▁project ed
▁cor ro
▁Sch r
▁ineff icient
▁catalog ues
▁persec uted
▁Sic ily
▁Salv ador
. P
m aker
▁t il
ver b
▁P le
ir y
per t
▁J ones
▁pe p
▁ac celeration
▁val ve
▁share holder
▁conflic ting
▁23 0
▁architect ures
▁lov ing
▁remed ies
▁mig rant
▁ER P
▁rede f
▁Rw anda
▁h urt
▁g ulf
▁P ER
▁dr astically
▁cho ir
▁12 00
▁enc oding
▁Pol o
▁Sch war
be ck
▁Sardin ia
▁nons ense
▁unreason able
z emb
or ries
am ar
em an
▁N CC
▁V itor
▁contin ual
▁An alysis
▁water falls
▁past a
SC H
▁send er
▁Cont em
▁transl ating
IC K
▁bur st
▁collabor ate
▁surpl uses
▁motorcy cle
▁adjour ned
é g
▁c akes
▁M arsh
▁P over
se y
▁Euro just
▁5 ,000
▁Se y
▁Ro ber
▁Olymp ics
▁CN C
▁accum ulation
▁potato es
▁t orn
▁s .
▁to d
▁B out
▁F le
▁L j
cept ive
▁4 .1
▁5 .1
▁par as
▁Cl ar
▁evident ly
▁Uzbek istan
▁h ay
un i
▁or phan
▁O ss
▁tr ès
▁Con duct
▁Re ference
▁Jes olo
▁merg ed
▁Comfort able
▁lub ric
7 00
B ER
um ber
▁up set
ract ed
cond itional
▁custom ary
▁sing les
▁press es
▁sl im
▁clean liness
▁196 6
▁uns ustainable
▁jeopard ise
▁basket ball
▁t ale
▁S EC
ter a
▁man a
▁op press
▁sc ored
▁var iants
▁0 .7
ria ges
▁Stud ios
▁awa ited
▁reinforce ment
▁vacc ines
▁Kurd s
▁Brist ol
▁Dubrov nik
K O
▁p seud
▁l iab
▁C ET
em ocratic
▁G ive
ern al
▁Or thodox
▁Col on
▁appear ances
▁Prot est
▁magn et
▁stra w
▁Mart ini
▁micro phone
▁Jar zemb
▁Lom é
▁Vlad imir
re i
or ph
▁T oul
▁G ord
pr ints
▁app art
▁Rot arians
▁upload ed
W E
▁o g
it ät
▁r i
▁L ew
all o
▁comp elling
▁gu ards
▁dist ress
▁ens emble
▁employ ing
▁reach able
▁Red ing
▁Ac robat
▁intens ively
▁Catal onia
▁seaf ront
F C
k ers
l oc
n ival
▁T au
▁P ath
▁R oll
end en
pt on
▁V i
▁might y
▁ident ifiable
▁gradu ates
▁extract ed
▁multic ultural
▁ignor ance
▁F rag
▁rel ie
▁3 G
▁happ ily
▁196 5
▁Ed ward
▁fost ering
▁winds urfing
▁bless ed
▁unamb iguous
▁Pover ty
▁Jarzemb owski
L C
▁t i
at in
▁h int
▁S üd
▁ex cel
▁v icious
▁at omic
cond itions
▁bl ur
▁elect rom
▁adop ts
▁treat s
▁14 00
▁Def ense
▁Leban ese
▁Sah aran
▁reciproc al
▁tsun ami
▁s ab
▁un conditional
▁dep rec
▁Ag ent
▁TV s
▁deep en
▁frag mented
▁Alic ante
b est
e ous
▁f ond
ly n
▁D og
▁co ated
ric ted
▁san itary
▁instruct or
▁trib es
▁compr ised
▁reveal ing
▁Ann an
▁preced ed
▁Wall ström
▁divers ified
▁Bes ide
5 1
u h
▁f reed
st ones
▁S á
▁M ath
▁le ak
▁St adium
▁dis ruption
▁ro pe
▁out lines
▁sy nergy
▁dem ol
▁Sh oe
▁sw ord
▁bath tub
▁vol atility
▁bat ch
▁indic ative
▁NG O
▁Tom orrow
▁hect are
▁corrid or
▁calib ration
▁alqu iler
N E
k om
r ights
▁m t
▁M ile
▁with hold
▁st rap
▁G round
▁program med
▁car ing
▁care ers
▁Cast ell
▁Travel ler
▁outs ourcing
▁t out
▁p df
ig s
▁st it
▁F ou
▁1 .7
▁L akes
▁In v
▁acc laimed
▁rec k
▁ra ck
ater al
▁mod ulation
▁Ex po
▁head ings
▁fort unate
▁da wn
▁Carl o
▁escap ed
▁redist ribution
K E
▁C ase
ident ally
▁sc anners
▁prec a
▁Res ources
▁belie ving
▁intens ified
▁Trib unal
▁itiner ary
h d
é m
▁e g
▁e u
▁S ell
▁D j
▁inc idence
▁cor p
▁Ad vert
▁acqu ainted
kt ion
▁194 8
▁Exper ts
▁Tit le
▁Ank ara
▁dile mma
am ation
▁H ell
▁work station
▁pract ised
▁transport ing
▁circ uits
▁Ant h
▁orient ated
▁Stud y
▁Equ ally
▁Elect ronics
▁throw ing
▁grass roots
▁mathem atics
▁EB IT
▁liab ilities
▁preca utions
g rad
ar b
▁R acing
▁pre conditions
fore station
▁disc s
▁cor al
to ire
▁regist ers
▁bank ers
arth otel
▁kilomet re
▁Term e
▁vit ality
▁C ards
ra h
ul ing
▁B ac
▁B ran
▁B ien
▁ne at
▁u b
▁U ru
▁K U
▁Bay er
▁toler ated
BS D
▁chick en
l ag
v ard
he it
▁b ak
▁b illing
an mar
▁m ais
▁wh is
▁F 1
pos ium
red ict
▁He zb
▁10 3
▁pass ports
▁Co hn
▁construct ing
▁vulner abilities
▁weigh ing
. E
n ar
▁t an
▁a an
▁T ell
▁T CP
▁B ost
ip se
▁loc om
cept ible
▁Bas ically
▁neighb oring
▁defend ers
▁pil grim
▁lobby ists
hy d
▁Lukas henko
▁pess im
ot to
▁l orries
ur i
▁A 6
ch airs
oc ative
▁pol io
▁serv icing
af i
▁Tra il
▁aer ial
▁revers ed
▁Assist ance
▁massac re
▁stup id
Y R
u en
š t
▁h amm
▁re ne
▁I RC
▁C MS
▁ha z
▁all iances
ab out
ell ery
▁V ent
ens ed
▁deb ian
▁br us
ik h
IS S
▁evalu ations
▁eth n
▁command er
▁roll s
▁mer ge
▁philos opher
▁alt ar
▁cha ired
▁misunder stand
▁en quiries
▁sp amb
ib a
▁Tw enty
▁Met hod
IF T
▁GN OME
▁Conc ert
▁hier arch
▁uncom fortable
▁bust ling
▁GIM P
▁Lithuan ian
▁Vatic an
▁Hezb ollah
ro d
▁al phab
qu ent
▁B anks
chn er
▁design ate
▁modern ise
▁Off er
▁Govern ance
▁rent ing
▁quot es
▁Ma o
▁exhaust ed
▁Sty le
▁Romul an
. t
â te
▁J ah
▁ar sen
▁rep ent
▁exhib ited
▁secret ary
icon duct
▁Ev ans
▁Az ores
▁Sax ony
▁Qa eda
s che
▁B ike
▁F iles
▁un le
▁should ers
oy er
▁conf ess
ne z
▁fil t
▁Sh ops
▁ear ning
▁Ne g
EN S
.0 9
asc ript
▁TH IS
▁Dis play
▁superv ised
▁Jose f
▁unjust ified
▁Fon taine
▁geomet ry
▁dol ph
▁gravey ard
a que
▁m illing
▁h obby
▁T E
▁be ams
▁F unction
od er
▁G ates
▁J PEG
▁per taining
gan o
▁program m
▁ref lex
▁back pack
▁connect or
▁Brit t
▁Ph ys
▁Im ages
▁stress ing
▁Pat rick
▁surv iv
▁Among st
▁Access ion
▁Regard less
▁inconsist ent
▁d irt
▁M ike
▁H aut
▁G am
and em
ag netic
▁there after
▁sc oot
▁inf inite
▁imm ersed
▁connect ivity
▁period ically
▁compos ite
▁poll uter
▁pal aces
▁bound ary
▁swe eping
▁authent icity
unc iation
▁bungal ows
▁Rhe in
▁Enl arge
b ow
k an
ç ão
it ated
ent rum
▁T ries
▁S ão
ist ed
ru it
▁fe ver
▁point less
▁Al an
▁adv ancing
▁road map
eb ted
▁shame ful
e us
▁al g
▁v a
ag ues
▁cl ash
▁20 50
▁aff iliates
▁joint s
▁Em p
▁train ings
ev o
▁31 st
▁ant ivirus
enh of
▁handic apped
▁Alz heimer
▁c ivic
▁T oy
▁L oren
▁u pt
▁av enue
▁10 1
▁imp over
ik t
▁Le v
▁Pal ais
▁fre el
alu able
▁ge ography
▁optim ise
▁imag ined
▁Near by
▁cer amics
▁remin isc
▁l umin
▁H ess
▁un lock
ner g
▁text ure
▁war p
▁repl aces
▁Ros a
▁profound ly
▁jack et
▁rug ged
▁Treas ury
▁spamb ots
l ene
in ar
▁A le
▁with stand
um m
▁ad hered
ue vo
▁att ained
▁spec ifies
▁Part ies
▁land f
▁amb assador
▁Gl as
▁196 1
▁observ ance
▁Bas ilica
▁fort une
▁wid est
.9 9
▁&apos;A zur
▁E. ON
▁spark ling
emet ery
▁smok ers
▁delet ion
▁s ont
▁B Y
ac ional
▁market ed
▁6 50
ier ge
▁introdu ctory
▁Pol l
▁Cl aud
▁Ap arthotel
▁cou pon
▁vol atile
▁Bank ing
▁quot ation
▁sil k
▁uns ub
▁dismiss ed
▁Ful ly
▁ б
▁c ush
▁S olution
▁P D
▁B irm
▁G AT
▁L yn
get s
ick ers
▁perm issible
▁13 5
▁Me et
yl ene
▁Republic an
▁196 2
▁Pat ri
▁PH ARE
▁sched ules
▁constitu ent
▁symp ath
▁pig s
▁Circ le
▁Lead er
, 4
M ail
P D
j ar
m und
an ical
▁for wards
▁M C
▁F ere
▁all oy
▁N Y
▁eff ic
ov y
ik anen
▁Sh i
▁Res id
che m
▁disp atch
▁pun ct
▁Mos es
St ar
▁Lie utenant
▁unequ al
▁ausp ices
▁T an
▁B au
▁St adt
▁disc reet
▁bl ues
▁pack s
▁vir gin
umb ent
IC H
▁concent rates
▁teach ings
▁scrut in
▁reper toire
▁FIF A
e u
k ets
es is
▁C ir
▁F ill
▁sh ades
ind ers
ug ar
▁infl ux
▁Camp o
▁tun nels
▁discipl inary
wer k
▁anch or
▁Parad ise
▁Bend it
▁Enlarge ment
b ound
p ic
▁b ib
▁v en
▁L IFE
▁O sc
▁em peror
▁Re y
▁special izes
▁ins ists
▁imp air
▁war ri
▁My anmar
▁Val ue
▁exec utions
▁Act ually
▁intellectual s
▁endorse ment
▁synt ax
▁stem s
▁Pos ition
▁Li ikanen
▁desp air
▁Const ant
▁anten na
▁unbel iev
▁stom ach
a .
▁p ond
▁n ode
▁B ret
▁R C
▁co aches
▁Y ahoo
▁sa uce
▁exp ose
▁Inter ior
▁facilit ated
▁Mod ule
▁Pakistan i
▁uncertain ties
▁Hy per
▁Mü nchen
▁cens orship
▁diam ond
▁SER V
ouve au
e lect
og as
ath ing
▁walk ed
▁Ter rit
▁neut rality
▁exhaust ive
▁Ren ault
▁Eff ect
▁intoler ance
▁Bah rain
▁interd isciplinary
▁Pon te
▁escal ation
▁Carm en
, 9
r iv
r iva
▁s ne
▁f ancy
▁m apping
ic ting
▁d ressed
▁S TO
▁M ist
▁M AG
▁B ER
▁B ened
▁exp iry
▁US E
▁pres idencies
▁short est
▁mus h
▁Sch re
▁remark ably
▁wid ening
▁favor able
▁TAC IS
▁atroc ities
▁Sene gal
F F
L .
z w
at iv
al o
▁y a
▁an om
am ins
▁L if
▁j og
▁standard ised
▁Aff iliate
▁conduct or
▁parent al
▁arrest s
▁premium s
▁shel f
▁Dat ab
▁wors ening
A X
M ENT
▁c ite
om es
▁B 2
▁B V
▁K itz
▁bel oved
▁Pro sec
▁fashion ed
▁Lam y
▁Bab ysitting
▁Certific ate
▁kön nen
T he
l ash
z ano
▁be et
▁cl amp
▁co b
▁K ath
ors ch
land ers
▁term ed
▁fol kl
▁fav ours
▁Com plex
▁mess aging
▁demonst rators
▁Per l
▁Mc K
▁tight ening
▁myst ery
▁volley ball
▁unavoid able
b ling
e h
▁F an
▁rel ieve
▁fl esh
▁Govern or
▁fulf ils
▁fraud ulent
▁defect ive
▁ru in
▁Vo ice
▁Along side
▁thread s
▁indul ge
▁Ferre ro
▁wur de
m ont
▁l ap
▁C ounter
ad ores
▁B ak
▁not ing
▁St ars
▁legisl ature
▁achie ves
▁distrib utions
▁desc ent
▁guest rooms
ott a
cl op
▁196 4
▁Dep uty
▁hypoc ritical
▁Prog ressive
▁align ment
▁w and
▁T all
▁M asters
▁com ic
▁B ü
▁Ch at
▁ac ids
▁No vel
▁contact ing
▁aud iting
▁compre hensible
▁train er
▁abol ishing
▁burn ed
▁surre nder
▁Confed eral
names e
n at
▁t ents
▁P .
▁We ber
▁k ms
▁take over
▁20 ,000
▁Al as
▁account ed
▁ele ph
▁Off ering
▁Bl ood
▁fight ers
▁den ounce
▁undert akes
amm erg
▁proportion ate
▁stret ching
▁persu aded
▁underest imate
▁Fact ory
▁Victor ian
▁Vitor ino
▁ у
▁m all
▁l ac
▁st ove
▁ha vens
▁G A
▁L uis
▁Un ter
▁J ob
pro ductive
▁pres up
▁short ages
▁sex y
▁Good s
▁verd ict
▁flopp y
G R
r ill
▁ ion
▁t in
in eration
ad ow
▁v ivid
▁gl orious
▁cond ol
▁10 8
▁Le one
▁Cent ro
▁assoc iates
▁secure ly
▁bright ness
▁decre asing
▁Nep hi
▁Glac ier
m art
p 3
v able
ou ver
▁n urt
▁l ava
▁M ust
▁G ram
▁he ights
▁un be
erm ann
▁bl ends
▁med itation
▁conv icted
▁Co x
▁Mat th
▁colon ies
▁Viet namese
▁regener ation
▁cataly st
▁Napole on
▁Willi ams
f i
▁p ause
▁b anners
▁S ens
▁se w
ric ane
▁follow ers
▁air pl
▁12 .00
▁ple asing
▁Tur ks
▁After wards
▁fa res
▁Book ing
▁div ine
▁wheel chair
▁Domin ion
▁chamb ers
▁prud ent
D o
f ab
w orth
▁ ie
▁s aus
ric ks
▁Re covery
▁art ifact
▁Z end
▁amount ed
eral d
▁guid eline
▁univers ally
▁compens ated
▁analy sts
▁Mult iple
▁irre levant
▁uncont rolled
▁undes irable
he id
on ge
▁P om
▁ch im
▁ch lor
▁exp ired
▁10 9
▁exist ent
amb a
▁collect ors
▁star red
▁DE M
▁clar ifying
▁phr ases
▁battle field
▁Fam il
▁abandon ing
▁tri angle
▁Hon or
ál aga
▁Cook ies
▁Bost on
or ney
le um
im ar
▁M álaga
▁D M
ard i
▁k ings
▁V oc
▁need ing
int rodu
▁conf isc
▁super fl
▁Bl ock
▁Dis k
ament os
▁Spe aking
▁lag oon
▁cott ages
▁eB ay
▁unqu estion
V E
▁d oc
▁T ouch
ul ously
▁H erman
▁H aupt
▁res ide
▁N ach
▁inc lined
▁V es
▁K ü
▁met ap
▁business men
▁Pol es
ograph ically
▁coll ateral
▁Tra ck
reg ation
▁slight est
▁sam pling
▁Read ing
▁EP P
▁una ware
▁recyc led
▁reiter ated
▁Ess ential
▁Han over
▁bargain ing
▁dread ful
▁corro sion
▁F lem
▁should n
▁Y am
▁rev ival
ins k
▁water ways
▁prec ip
▁land ed
▁194 4
▁nar rative
▁syn onymous
▁volunte er
▁tact ical
▁ster il
▁unh appy
z ant
▁T alk
ol it
▁st al
▁not withstanding
▁comp aring
▁Th ous
erm e
▁cons ign
▁num bered
▁Co al
▁aud iences
▁Pre vention
▁sole mn
▁voc abulary
▁tun ed
bl ock
▁Div X
▁bou levard
▁Beh ind
▁pollut ants
D isk
h u
k op
ä ng
ic hen
▁I van
▁g host
▁G n
▁D ance
▁bas ics
▁Cont rary
▁wat ches
▁tele phones
▁El is
▁bear ings
▁Contin ue
▁postpone ment
▁Mit chell
▁unspo ilt
▁ μ
om atic
▁aw ful
ze it
▁Rom agna
▁decor ations
▁poll uting
▁unf ores
quis ites
▁notice able
▁ang ry
▁ingred ient
▁habit at
▁extrem ist
▁cease fire
▁incon ven
l ar
ou n
▁M ans
pl ess
te b
▁dis connect
▁form ations
▁rep atri
▁play back
▁commun aut
▁Ind ians
AR C
▁weak est
▁calc ulating
▁cheap est
▁assum ptions
▁Hy de
▁Bol ivia
▁A3 20
▁lag ging
▁Ll oyd
▁scept ical
▁cust ody
▁presum ably
▁Satell ite
or ated
▁l ad
▁as p
ri que
▁tr ivial
▁ind ebted
▁ph asing
▁child care
▁progress ively
▁app ra
▁Reg ular
▁log s
▁Gree ks
ij ten
▁Inter face
▁Ste ve
▁sort ing
▁facilit ation
▁depth s
▁193 9
▁rain fore
UL T
▁murd ers
Gu ide
sted t
▁Compare d
▁ICE cat
▁Alger ian
▁Contem porary
▁T OS
▁P it
▁P ir
▁L iver
ri eb
uc le
▁Sc an
▁accommod ating
▁impos es
▁Trans pare
▁tom ato
▁discover ies
▁Instit utions
▁Ang lo
▁Armen ian
▁Meg apix
▁Nam ib
at ro
pe ak
▁P es
▁sp ur
▁back bone
▁rev ive
▁her bal
▁found ers
▁dr illing
▁12 3
▁super fic
▁qual ifying
▁Mark us
▁Vien nese
▁Cong rat
▁fer ries
▁craft ed
▁recall ed
▁timet ables
▁boy c
pers on
▁hero es
▁intr ins
▁pav ed
. exe
p c
▁n i
ist e
▁H orse
▁O omen
▁car ved
▁here in
▁val ves
▁dist ill
▁cr ude
▁undert ook
▁196 3
▁deserv ed
▁Sen ior
▁fib res
▁Ot to
▁Bash ir
D C
▁re introdu
os ph
▁L ü
▁ad hesive
▁day light
▁legisl ate
ins ki
▁half way
▁Gl ass
▁organiz ers
▁insist ence
▁Wik ipedia
▁Phil harm
▁cul p
▁choos es
▁Mand riva
▁Pop ular
▁epid em
---- ----
▁unequivoc al
▁Sebast ian
▁Gaul le
▁Birm ingham
d on
or um
▁b ones
▁for ge
▁P é
▁not ices
▁N ova
▁hand ful
gu ay
▁Min or
▁withdraw ing
▁pled ged
▁proport ional
▁Buff et
B I
b au
т ь
▁e ll
ur ous
▁P rad
▁ad jo
per ing
▁over ly
▁down hill
▁contract ors
▁sens ation
▁sun light
▁Mark ets
▁vac ations
▁Joh ns
▁pal ette
▁laun ches
▁dark ness
▁jew ellery
ucc o
▁Scandinav ia
▁Mig uel
an ch
▁un aff
pos ing
enc er
ustom ed
▁broad en
▁land marks
▁amb iguous
▁sou ls
▁prem ise
▁hom em
sc reen
▁nut ri
ho fer
▁Medic ine
m are
u ate
▁p ne
▁p add
ort s
ac hen
▁D ri
▁all a
th on
▁up stream
▁12 9
▁Bar ón
▁tem ples
▁remov es
AC T
▁194 0
▁tempt ed
▁Norm ally
▁B oot
est a
▁sh ifts
▁H art
▁Al ta
▁project ion
▁Ar n
▁z ip
urs ed
▁export ers
▁Vill as
▁Bra va
▁Nov otel
▁Mul ler
▁illum inated
b et
b ase
▁a ster
▁w icked
▁b other
▁S ay
▁al ia
res a
▁D uc
▁le ase
▁po inter
▁over head
▁cult urally
▁Ex p
▁Pal ermo
▁Off ers
▁Techn ological
▁deleg ated
▁pet ro
▁Hol ocaust
▁iron ing
▁grip s
▁coat ings
▁Material s
▁metab ol
d oor
st ick
▁T ul
▁P ont
▁F ish
▁se ated
ost en
▁over due
▁mon sters
▁exp elled
▁discuss es
▁fram ed
▁compl ications
▁ce ased
▁emb ro
▁sou p
▁Tour na
▁Aud i
▁Rec ord
▁tight en
▁pra ised
▁refund ed
▁benefici ary
▁assass ination
▁compan ion
▁Legisl ative
▁DSL R
▁Heath row
▁reminisc ent
I Z
▁ Å
▁m l
▁m amm
▁d y
▁T u
▁g i
▁S ag
▁man go
▁out going
▁V II
▁gu er
▁custom ize
▁Le hne
▁Ital ia
af ia
▁useful ness
▁reb ell
▁Secret ariat
▁SC H
▁invo ices
▁peripher y
▁tiss ues
▁recur ring
5 2
M I
at ra
us er
▁S ö
▁he el
▁St age
▁out right
▁disc oura
▁doub les
▁spect ators
alle led
▁195 8
▁Impro ve
▁stere o
▁Cres po
▁carc in
▁fron ts
▁Uru guay
b st
er d
▁F ro
te ous
▁ro d
▁out let
▁bet ray
▁min us
▁sup pression
▁emb arked
▁El ba
▁Pre par
▁illust rations
▁ma ize
▁Sudan ese
▁Wald ner
5 9
▁t ide
▁o ch
▁d erm
ut i
▁P ere
▁or bit
▁B elf
pl er
ri j
▁N ORD
▁un ites
tern ally
▁dep uty
▁Ad visory
▁gra y
▁sent iment
ür st
▁award ing
▁Belarus ian
ili ary
▁assign ments
▁Dim ension
▁superfl uous
w al
▁p arl
▁st aged
▁F ashion
▁r ider
▁H em
▁ad oles
▁und emocratic
▁4 000
ST AT
na issance
▁recomm ending
▁Fl at
▁Em erg
▁anti qu
▁EL DR
▁Mot ors
▁molec ular
▁Init ially
▁Bout ique
r il
á z
re ls
▁s el
▁w ound
▁l ia
qu in
if ilm
▁sh out
▁j a
▁V in
▁J eff
▁3 20
ib urg
▁view ers
▁spec ifying
▁organ ism
▁creat or
oid s
▁comprom ised
▁26 th
▁Pers ian
▁Du ke
▁traged ies
▁coc oa
▁redist rib
ovol ta
h is
l ave
л а
▁ ко
or ily
ig an
ist as
▁im pe
▁res pir
ue z
▁new com
▁support er
▁4 .0
ew s
▁det ached
ran k
▁Ph ilos
▁commercial ly
▁Net works
▁alloc ating
work ing
UR E
▁vit amins
▁Cla ude
▁confer red
▁Chall enge
▁Garc ía
▁practition ers
▁communaut aire
▁Congrat ulations
▁c av
ro ck
if ference
▁H ier
▁tra y
▁ind isc
▁gu ild
aj o
▁negoti ators
▁expect ancy
▁collect s
▁collabor ative
▁Bet a
▁mould ing
▁wond ered
▁Fuj ifilm
▁comed y
▁Transpare ncy
. c
i ens
n í
y ards
▁sub d
▁object ively
▁transport s
▁Ab bas
▁credit ors
▁rele asing
▁tim eless
▁Mor gan
▁Ac ross
▁taste ful
▁diplom a
▁rig orously
▁195 9
▁perpet rated
▁prere quisites
v oc
ч е
▁2 .7
▁he al
▁Un ic
▁te aches
▁fac ial
▁16 9
mark et
▁bi oc
▁Mus ik
▁advance ment
▁proud ly
▁Pack aging
▁GN P
▁Mü n
▁Bö ge
▁Buddh ism
▁Ped ro
▁reconstruct ed
▁Dial ogue
jek t
8 1
▁w ip
▁M ö
▁H ond
▁O ost
▁ind ign
▁sk is
▁Br ig
▁rad ius
▁speed ing
rid ges
▁FR OM
▁194 9
▁input s
▁Log istics
▁Opt im
▁reward ing
▁Nic olas
▁seam less
▁Meas ures
▁Fuerte ventura
▁Guid elines
k ins
as il
▁S F
▁W ies
▁H et
▁L V
▁L av
▁ind ifferent
▁dec ree
▁Mar se
▁Sy n
▁urg es
▁Every body
▁remind ing
▁tit led
▁Bro ok
▁prosec utor
▁compress or
▁filt ration
▁d ine
ol ith
▁v ines
▁Ch arm
▁Re ce
▁compet encies
▁che que
▁accord ed
▁Or te
▁deep est
▁Car ol
ym ph
▁psych ology
▁Ru ijten
▁Und erg
▁bust le
▁Mann heim
▁faç ade
r t
▁w i
▁p iv
▁T on
▁se in
▁un par
rat h
▁Ap oll
▁log istic
▁Har ris
▁bul let
▁Schmid t
▁infra red
▁o sc
▁b aked
▁m ant
il ers
ot age
▁I DE
▁H appy
▁qu ar
con s
▁V a
▁Ch anges
▁ext ras
ener ation
▁exp ulsion
▁met h
▁rev ising
▁breakfast s
let ters
▁aud its
▁influ enza
▁quiet ly
▁wrong ly
▁unp redict
▁wed dings
▁cinem as
▁Nev ada
ammerg ut
g ow
v or
▁be ans
qu ently
▁v ap
ov á
▁contract or
cl ipse
▁afford ed
AG E
▁Salz k
▁MS N
▁Č esk
▁Therm al
▁repet ition
▁PN R
▁Tries te
▁c ached
▁p izza
▁d al
▁S orry
▁F urn
▁G are
▁G rac
▁all ot
▁inc umbent
▁gr inding
▁der ives
cel ain
▁Che f
▁28 0
▁trial ogue
▁Strate gic
▁Bos ch
▁elev ated
▁enfor cing
▁cycl ists
▁accred ited
a est
d al
▁w ounded
▁m esh
st ar
▁P ain
▁W ien
end as
▁te lev
▁requ is
▁ens uite
▁sk ies
▁tool bar
▁Fran ç
▁critic ized
▁IN I
▁Lou vre
▁Autom ation
▁dictators hips
▁Short ly
n an
▁m ock
et ting
ol is
▁M end
▁2 D
▁ad herence
lud e
▁For ces
▁flex ibly
AN N
▁Ky i
▁ju ices
▁threshold s
▁assert ion
▁sacrific es
▁Recomm end
r ne
▁c el
▁H C
▁H end
▁R af
end amm
▁K ra
▁hard est
▁dev il
▁By zant
▁Im aging
▁sav our
▁nation ally
▁mel ting
▁Da im
▁underest imated
▁inherit ance
f ree
▁b oring
▁C ars
▁C OS
▁st ub
▁sh ake
ri ber
▁V anc
▁K urf
▁ar che
▁down ward
▁Z ion
▁Le ave
▁sw ap
▁Par c
▁train ers
▁Design er
▁Represent atives
▁therap ies
▁nost al
▁Krak ow
F E
R D
V A
f on
in ently
▁f rench
▁S ach
▁B icycle
▁F irm
▁us ability
▁read ings
▁Z oo
▁home ly
gu ard
▁World wide
▁Ph one
▁gard e
▁optim ally
▁compos ers
▁encount ers
▁Spec ifically
▁conqu er
charg es
▁resolute ly
▁pert inent
▁Toul ouse
▁O P
▁N ab
▁ro s
▁inv aluable
▁5 .0
uch t
▁cur sor
▁viol ating
▁Res ult
yn es
▁Mor av
▁hit ting
▁amaz ed
▁Docu ments
▁Architect ure
▁g t
▁B ange
▁1 .
ac i
▁over sh
▁fin ishes
▁ph ased
▁different iation
▁An imal
▁Cont est
▁slow down
▁fed eration
▁Chap el
erne ath
▁Prop het
▁Datab ase
▁homem ade
8 2
f ried
r l
r ically
▁s lic
en ment
▁d ressing
▁T C
▁I X
▁E tr
ul as
▁inc ineration
▁K ev
▁met ropolis
ier ung
▁0 .2
gg io
▁writ ings
▁sw all
▁stre aming
▁kit chens
▁Dom ain
▁acknowledge ment
▁obsc ure
▁paradig m
H R
in ction
▁n aming
▁g reed
id os
all a
pt ic
▁acc ustomed
av i
▁over th
▁bar code
▁attack er
▁tele com
▁counter productive
▁concent rations
▁block ade
EM ENT
▁193 3
▁sett ling
▁Andalus ian
▁unsu ccessful
▁Burn ing
▁Vanc ouver
b ay
n ie
▁l ing
▁for ged
ut ers
all as
▁K ön
ang ular
eld om
▁travel ed
▁wa ited
▁phys ician
▁Sa una
▁Men u
▁galax ies
▁Anc ient
▁KU KA
▁Salzk ammergut
▁Bange mann
b ell
f elt
m i
r if
▁c hess
est o
▁D é
▁N ort
▁dis qu
▁K ult
ran et
▁period ic
▁Tur bo
▁Ital ians
▁cross roads
▁counter act
▁Aud it
ION S
▁OF F
▁Fre iburg
▁Bern ard
▁Intellig ence
ä nder
▁ â
▁s isters
▁C T
▁W rit
▁not orious
▁can oe
▁O ption
▁N .
▁cons ortium
▁import ers
▁cur b
▁prev ailed
▁Z ug
fer ing
▁Gu y
▁draft s
▁displ ace
▁minist ry
▁infect ious
hre r
▁rect ify
▁conqu ered
▁predecess ors
▁gun s
▁loung es
▁prote ins
▁subcont ract
. it
o i
▁ а
▁b ast
▁con cession
▁G rant
▁R isk
▁K ron
▁gu arant
▁ty res
▁sl aves
▁gr ill
▁22 nd
▁Ce leb
▁Ric c
▁Gonz á
▁questionna ire
s ées
it ism
▁dis pose
▁K rist
▁sy nc
ass en
▁econom ist
▁0 .4
▁Go ethe
▁ess ay
▁Gu ad
▁creat ors
▁publ ishes
▁ill icit
▁optim isation
AD I
▁Fore x
ps on
▁ec ologically
▁sn ork
▁Plan ning
▁vit amin
▁interpre ter
▁unres erv
▁Exam ples
▁Rog er
.ph p
▁unpar alleled
8 7
c ases
he et
en na
▁S oul
▁B orde
▁en velope
▁L U
▁k ite
▁tr im
ru he
▁over load
▁Re hn
io let
▁pass ages
▁Americ as
▁Ap ost
▁optim ised
▁Arab s
▁Project s
gi ore
▁Administ rative
▁admitted ly
▁Princ ip
▁Buch arest
occ up
▁Kash mir
. F
er it
▁n odes
▁n ucle
uro pe
▁res igned
▁N ick
are rs
▁ob l
▁imm un
▁Te a
▁High way
▁Prot ect
▁Cost asur
IP S
▁Pack ed
▁Bag hd
▁exagger ated
E P
W e
g as
l ists
at ter
or p
▁m artial
▁C over
▁F resh
▁ad vers
ub b
▁V end
▁fact ion
▁vis ually
▁different ial
▁bl u
▁Is a
▁permit ting
▁194 7
▁frag ments
▁Heb rew
▁condol ences
f ied
▁p ent
ur u
▁S au
▁M ut
▁P ep
▁P enn
▁W erner
▁B rat
oc racy
we ig
▁Z F
▁eng ra
▁viol ates
▁fair y
bour ne
▁ste er
▁El iz
▁react or
▁Term ini
▁Paul o
▁eat en
▁acknowled ging
▁é t
▁Autom otive
▁grad es
▁Hab sburg
▁annoy ing
▁insol vency
▁Borde aux
m ade
v ian
y nc
▁T ap
▁be ating
pt uous
▁J oy
▁aw esome
▁last ly
▁shall ow
▁sk ating
▁z oo
▁final ised
▁Su u
▁files ystem
▁Val d
▁cand le
▁28 th
▁Green land
IL E
▁rot ary
▁dynam ically
▁Nic arag
▁Nep h
▁trap ped
▁Bren ner
▁electrom agnetic
t rack
▁ ¿
▁f ooth
▁T ru
▁T ram
▁S v
am as
▁W elt
▁j ed
▁K ok
▁bus h
▁fut ures
▁Q U
▁ant agon
▁swe ep
ourge ois
▁Advent ure
▁correl ation
▁Lj ubl
▁Baghd ad
E x
▁. NET
or ges
▁f riction
▁h ints
qu ire
▁F X
ass es
▁ext ingu
▁equ als
▁Mon u
▁25 6
▁liberal ism
cl ock
▁Muse ums
▁Del ors
augh ters
▁Pass word
▁coach ing
▁disclos ed
▁unrest ricted
▁spy ware
r ise
▁w it
▁f ract
el ijk
ess a
ess ment
▁D ach
ian i
▁fe ast
▁bl ade
▁activ ist
▁perform ers
▁decl ares
▁Sec urities
EN CE
▁renew ables
▁Out side
▁contrast s
vo ire
gl ich
▁irre versible
▁exacerb ated
▁pries ts
▁Schr ö
C AD
c ale
f ig
f inder
p ots
á d
or ating
▁th ro
art ered
▁H ind
▁right eous
▁cent red
▁Ex it
aps es
▁13 7
▁huge ly
▁Bal ear
▁sold ier
▁north west
▁susp icious
▁eight h
▁accident al
▁champ agne
▁hol low
▁chief ly
▁Near ly
▁Mem orial
▁surg ical
▁Matth ias
P ro
T raq
z og
▁h ut
▁y ards
▁P ag
▁W og
▁F aced
▁G and
▁G amb
▁L aus
▁pl ung
▁k ay
▁4 .2
▁5 .5
▁organ izes
ij i
▁Ab bey
▁compar isons
▁Indust ries
▁stabil ise
▁Foot print
▁sacrific ed
▁Nu endo
▁voy age
W A
▁in gen
▁m .
▁B att
▁se als
▁j umping
▁who ever
▁J ür
▁met ropolitan
▁begin nings
▁Part s
▁congrat ulated
▁celeb rates
▁regret tably
▁Inc identally
▁reb els
▁IM MO
▁Du omo
▁scand als
▁enrich ment
▁Appart ement
▁Daim ler
f en
▁s our
▁C app
ess o
em e
▁F ew
ember g
▁gu ilt
▁exp ires
▁ins ured
ather ine
ah u
▁progress ing
▁star ring
▁base ment
iam i
▁horse back
▁Bug Traq
▁Cypri ots
▁Deleg ation
▁clust ers
F L
▁s ins
pt s
▁ar ist
ov an
▁cost umes
▁es hops
▁11 .30
▁tou ching
▁193 0s
▁AS Ps
▁arom atic
▁Haw ai
▁anth rop
▁Prosec utor
▁Underg round
D N
I AN
st ell
qu ier
▁can als
▁wor m
▁tra ps
▁start up
▁read mission
▁log istical
▁aud itor
▁conven iences
▁bi ology
▁south west
▁cell ular
▁Bib ione
▁Malm ström
8 3
▁ Á
is al
ce ans
▁st ark
▁st iff
▁H ä
▁pl ains
▁j ail
▁disc o
▁bar rel
let t
▁ren ational
▁miss iles
urd y
▁prison er
▁kn ife
▁Pan ama
▁imper fect
▁Jul ius
▁Bab y
▁Rap port
▁Independ ence
▁Ub untu
▁Gonzá lez
b ad
f ra
g os
▁ не
ic z
▁G iron
▁can vas
ag og
ell es
▁tra uma
▁pr one
ass ad
▁exp ire
▁sec luded
▁collect or
▁advis ers
▁bench marks
▁indu ced
▁Kel ly
▁Brother s
▁pand emic
▁amuse ment
ar in
ic as
il ated
▁e cc
▁pro st
ra ble
un o
▁G ren
▁reg rets
ck ed
▁De ad
▁impro v
▁author ise
▁histor ians
▁lo ft
▁Any way
▁195 5
▁Camp aign
▁bra kes
▁Tem porary
▁Max im
▁refund able
▁Gi ul
▁Incre asing
▁stagn ation
м и
▁n aked
▁g erm
ch s
▁st icks
ke eper
▁F ocus
ri ad
▁10 4
▁dra gging
▁ple a
osp here
▁16 00
▁Im medi
▁foot print
▁194 1
EE E
▁Andre a
▁resid ual
▁resid ences
▁commend able
▁portray ed
▁nort heast
▁infer ior
▁o lig
▁f ixt
▁b ourgeois
▁C ed
un er
em n
▁R EM
▁co hesive
▁just ifies
▁la ure
▁exam inations
▁special izing
ier i
▁Com ments
▁Sc reen
▁low ered
▁Ke ynes
▁195 4
▁trib al
▁referend a
▁novel s
▁horm ones
obb ies
▁outrage ous
▁Karls ruhe
▁alphab et
▁Glas gow
h ole
▁m oor
▁S iber
▁ex h
ist ro
▁H im
▁L age
▁L oad
▁L uck
▁conf use
▁gener osity
▁clos es
oph y
▁plant ing
▁preserv es
▁capt uring
▁Oper ating
▁liqu ids
▁Rob ot
▁prep ares
▁Wag ner
b ridge
es es
▁A hm
am ous
▁F E
▁D ise
▁L ago
▁tr ump
▁loc ks
▁0 .0
▁histor ian
▁circum vent
amm ad
▁diplom ats
▁analy zed
▁master piece
LE X
▁dialog ues
▁fault s
▁Mass age
▁Moz amb
▁Alban ians
▁subt it
▁py ram
▁Philip pe
▁curric ulum
▁Wog au
x y
ü hr
at ur
▁s ip
▁p å
▁f ot
ies ta
▁F unctional
▁G un
▁comp elled
▁N V
▁dis posed
ry s
ub ar
▁ev asion
▁0 .9
▁show case
▁head lines
▁Su ccess
▁rich ness
▁conver ts
▁capt iv
▁trou bled
▁gram mar
IG N
▁Expl an
▁Gh ost
▁Vinc i
▁europe an
▁ambigu ity
▁iT unes
▁Ljubl jana
at hetic
▁s outheast
▁h uts
▁M M
ig ue
ow a
▁v ault
▁he ed
▁L ange
▁L az
ud ed
▁out fit
▁K ur
velop ed
▁Y an
▁Re ports
▁local ization
▁suff ice
▁emphas izes
▁Christ opher
▁avoid s
▁Get ting
▁Don ald
▁mini ature
▁pul ling
▁flaw s
▁bless ing
▁Hope fully
▁colleg es
▁memb rane
▁Andor ra
▁Hin du
▁Sey chell
d es
g re
g ate
at he
it he
▁n ull
st ations
▁g eb
▁g ospel
▁st if
▁W es
▁L ayer
▁N ass
▁me hr
gh old
ful ness
▁cour teous
▁ver bal
▁tem po
oss a
▁sem iconduct
▁192 9
▁assemb lies
▁Ges ch
▁portra its
▁Emb assy
▁Need less
▁Din ner
▁discrep ancies
▁misunderstand ings
p p
▁T ut
▁g a
▁M itt
▁M Hz
▁E rit
▁L iability
▁k le
▁sa unas
▁sc ales
any a
▁end orses
▁dr ums
▁connect ors
▁Bo eing
▁War rant
▁Mal ware
▁www .m
▁Cast el
▁Bur undi
▁Venet o
▁forg ive
▁toug her
▁unbe atable
b il
t ra
▁s om
▁p urity
os ed
▁F ishing
▁H ello
▁D raft
▁R iker
ous ing
▁k on
▁conc ierge
▁ob ey
▁inter ruption
▁0 .3
▁ret ros
▁change over
▁Inter institutional
▁Paris ian
▁Ver b
▁ign ores
▁sad dle
▁convey ed
▁Esp a
▁cub ic
▁Drag on
, 2
N T
n ost
▁c ree
ir i
ke ys
▁D ob
▁N ET
▁St ick
▁up wards
▁V oting
▁K an
▁K rum
▁und erneath
▁cur ves
▁aw ak
▁web cam
▁refer ral
▁expend itures
▁Tor onto
point s
▁crew s
▁anticip ation
▁advent urous
▁Str ong
▁Liver pool
. N
as k
▁S outheast
▁P DA
▁P ART
▁D est
▁R ate
ast ed
▁am m
▁tra ced
▁3 .3
▁leg ends
▁Le isure
▁Mon astery
▁anim ations
IN T
▁cross es
▁mechan ics
▁hom eless
▁unf av
▁hes itation
▁gran ite
▁osc ill
i u
j ad
j ord
▁f ake
▁T rap
▁M t
▁v ested
▁H O
omm en
du ate
▁un reg
▁J oom
▁disc ourage
▁Con cept
▁Al ma
▁imp ed
▁Ad rian
▁Bal aton
▁195 1
▁fasc ination
▁shad ows
▁Eric sson
▁unequivoc ally
▁Maurit ania
▁mitig ate
▁traine es
▁indisc rim
▁Etr us
z ek
ê tre
▁B 6
▁G ul
▁conc ise
▁sit tings
▁la ment
▁rest ing
▁Mrs .
▁Com o
▁surround s
▁Inter active
▁bi ometric
▁unf old
▁condem ns
▁cere al
▁Tem pl
▁god s
▁Exc lusive
▁suburb s
▁Pear l
▁Kev in
O D
f u
▁S ites
ad er
ke ch
land o
pr ising
▁cred entials
▁night club
▁EC R
▁Ne u
▁engine ered
▁copy rights
▁Dec ree
▁blow n
▁Tunis ian
▁vacc ine
▁overt urn
▁motorcy cles
▁Alf red
▁Blan ca
▁folkl ore
▁Seychell es
C l
l ana
r ison
▁w izard
ing e
▁m aid
▁be ats
▁H alle
▁G ros
▁term inated
▁different iate
▁hope ful
AR S
▁Cl ients
lin ks
▁Afric ans
▁transl ates
▁27 th
▁Program s
▁bott lene
▁Die go
▁Tro pez
▁AB AP
▁RA W
▁flaw ed
▁insec ure
▁Diam ant
▁ital ian
▁Johns on
n orm
▁T RA
▁l ung
ra ys
▁sh am
▁G SM
▁2 .8
▁L unches
▁St abil
▁acc ede
▁Pro b
▁sign atories
▁compet itor
▁Ad mitted
▁jo ke
oh l
▁discrim inated
▁Bu ild
▁spectac le
▁Adm iral
▁unnecess arily
▁chef s
▁Marra kech
B B
D on
T F
h alt
е т
on ial
om ing
ur ia
▁L aur
▁It em
ib t
▁et ch
▁sty led
▁perm issions
▁decl aring
▁sil ic
▁telecommun ication
▁Coll ins
▁nick el
▁Champions hips
▁dilig ence
▁prerog atives
▁Eliz abeth
l ung
▁w reck
es ar
▁C ass
▁M iami
▁P urs
▁G E
▁comm issions
▁K of
▁serv iced
▁national ities
▁imp aired
▁sing ers
▁Fr üh
▁Bl anc
▁disp uted
ament o
▁util ize
▁Dav is
▁incom parable
▁Bon ino
▁Coop er
▁Mul der
▁Cors ica
▁looph oles
. f
o an
▁ ul
▁h ood
▁A W
▁In quiry
▁J ersey
▁inv itations
▁bu zz
▁Sp acious
▁war fare
▁stat ues
▁Dem and
▁Car bon
▁Ant wer
▁coinc ide
▁itiner aries
▁Histor ical
▁unm ist
k g
▁w ounds
ic io
om on
▁l amb
▁we ights
▁B ond
ore t
▁G aming
ri en
▁comp assion
▁fl ies
ST ER
▁Jan eway
▁frag ment
▁Islam ist
▁domin ance
▁Hen ri
iche ver
▁intim idation
▁Sor rent
▁interven ing
▁Panor ama
▁Phoen ix
▁Osc ar
▁Nicarag ua
▁Rapport eur
H otel
c u
h os
▁ Ž
▁b ore
▁in ert
▁A ung
ill ar
▁sh ine
▁2 10
ie b
ab s
▁V igo
▁ind ifference
▁mod ifying
▁med al
iss en
▁harm less
umb ling
▁West ph
▁organiz er
▁swe pt
▁trib e
▁Sou ven
▁Sar ah
▁trail ers
▁maxim ize
▁Venez ia
▁Ve hic
▁tap as
▁nit rogen
▁dro ve
▁TU I
▁divor ce
▁Frances co
n os
▁w p
▁n iet
▁A IR
▁M ou
▁st all
▁B ring
▁G ast
▁D iplom
▁has n
▁un int
▁pre y
▁V W
▁per o
ass ies
▁just ifiable
▁end anger
▁ph il
ath lon
▁read able
▁sk il
▁bed ded
▁sound ing
▁By rne
▁Ass et
▁foot wear
▁cod ing
UR G
▁fort ified
▁Lab el
▁pret end
▁acquis itions
▁commission ing
▁distingu ishes
▁por celain
bahn hof
▁ancest ors
▁ward robe
▁Hig her
▁adjo ining
5 3
9 3
C s
e xt
▁t ended
re hens
▁o re
or ient
▁n our
us z
▁S G
▁con duc
ge an
op ath
▁R ue
▁ab duct
▁rel iance
▁Am nesty
▁social ism
ran o
▁Ar ms
▁web page
▁La os
▁24 h
▁Aut onom
▁Instit ut
▁Commun ism
IG HT
▁squ ared
▁une ven
▁Budd ha
▁devast ated
▁Sax on
▁merch ants
▁aux iliary
▁insign ificant
▁curios ity
▁Thous ands
▁c og
▁p ag
▁h ards
▁al pha
am el
▁W ir
▁le mon
▁res ur
▁res iding
ud ad
▁man sion
ok u
▁over r
▁Ch á
▁fam ine
▁prev ails
▁ver anda
▁sal ad
▁mor ality
yn n
▁exec uting
IS H
▁que ue
IM E
▁son o
▁complain ed
▁cryst all
▁Naz is
▁Fron tera
▁ment ality
▁reluct ance
▁brew ery
▁Sym phony
▁gig antic
▁inflic ted
▁1⁄ 2
▁Fou ca
▁Admitted ly
▁t andem
▁w oven
▁p unch
▁n erve
▁C us
▁st akes
▁B rian
▁was ting
▁res il
▁ab ras
▁count ers
▁sc uba
▁fact ions
ug s
▁Mad onna
▁staff ing
▁perm e
▁black mail
▁comment ary
▁Rec ogn
▁tort ured
▁recover ing
▁sixt y
5 6
z l
è res
▁T S
▁l ining
▁E y
am on
▁F landers
▁H A
▁H orde
▁L G
▁Y ORK
▁comple tes
▁bo asting
▁imp ulse
ann y
▁plan ets
▁equip ed
▁Fl oor
▁client ele
▁surv iving
▁spons orship
▁hyp othes
▁reinfor ces
▁SO FT
▁gal van
▁Lang en
ł aw
es que
ot te
▁on board
▁L um
▁O M
▁N an
▁inc hes
▁K il
ang en
▁At omic
▁Sp end
▁port ions
▁Sch uman
▁furn ishing
▁disp at
▁Ter re
▁agg ress
▁psych iat
irts chaft
▁Matt hew
▁indef initely
▁Orte ga
▁conduc ive
f y
p ages
an za
il ion
ment o
▁A ur
▁A SC
▁M oto
▁D U
▁Comm od
ual a
▁end ure
▁fl ip
▁spec im
eng ers
▁run ners
ST EM
▁recogn izing
▁Mon ter
ator ial
▁heart y
▁select ions
▁origin ate
▁construct ively
▁26 0
▁Ang ela
▁194 6
▁Bra un
▁Prom enade
▁Fern ando
▁Prin cess
▁teen agers
▁Bohem ia
▁deple ted
▁Chá vez
B F
▁p ins
▁n as
im eter
▁P iano
▁H op
▁L IN
▁pl ight
oura bly
▁phot ovolta
▁DE L
▁Per iod
▁fest ivities
▁tor que
▁Sher aton
▁XL STAT
▁з а
▁Oss et
▁Elis abeth
▁unpredict able
i y
n ah
p her
r ities
▁t read
▁s eldom
▁f ats
ic hes
▁d oping
▁pro be
▁B auer
▁F O
▁ch alet
▁ap erit
▁sp ends
ST R
▁pot tery
▁pan c
▁Mal ay
▁bi ogas
▁simpl est
▁satisfact orily
anc ip
▁mas ks
▁Argent ine
▁aqu arium
▁exert ed
▁Jon athan
▁Appro x
▁unauthor ised
▁Cry stal
▁Sev illa
▁unaff ected
▁Fouca ult
v ania
▁w ager
▁c d
▁D OS
▁L ich
▁ap ost
iz on
▁Ch âte
▁effect ed
▁est a
▁social ists
▁hand ing
▁lim estone
▁past ures
▁traff ickers
▁Open C
▁Luc as
▁stret ched
▁Ru hr
▁Ges ellschaft
▁fled ged
▁spont aneous
▁p u
▁S omm
▁M ush
▁B oy
▁G ust
▁pr ince
▁J ur
▁co ves
▁em ancip
▁cur tain
▁exp ands
▁And ers
▁pack et
▁Bar ber
▁pleas ures
▁round about
▁quant um
▁rul ings
▁bill i
▁kill ings
▁jun cture
▁resid ues
▁bub bles
▁enact ed
▁inhuman e
child ren
L S
z u
ß en
▁h ij
▁l anes
▁C any
▁W roc
end ar
ack ed
ob iles
▁water fall
▁Pl a
idd ing
▁civil ised
▁Sy mb
▁dig est
▁San Disk
▁brand ed
crib ed
▁enhance ments
▁thr iving
▁191 8
▁reloc ations
▁interconnect ed
▁announc ing
▁sanct uary
G o
K S
k al
r ä
ä l
▁re think
ch w
▁was hed
▁k an
▁V og
▁J ere
▁Ar thur
▁lit res
▁Or lando
▁Sch ro
▁May er
▁exceed ingly
▁inn umer
▁filter ing
▁Sar aj
tr l
▁SW IFT
▁Return s
▁matt ress
opoul os
▁Hein rich
W B
▁t we
in able
es ity
▁F oto
olog ie
ib les
▁exp ans
▁el ites
irc hen
▁affect ion
▁san itation
▁dead ly
▁Pic asso
▁Pract ice
▁bree ze
Y S
a ic
л я
▁p ac
▁b ricks
▁to do
▁be re
ol ian
ac cess
▁R ö
▁R aven
▁K ings
▁rec itals
enc o
▁them ed
▁cent ro
▁deb ug
▁real ms
▁Ar ist
▁Mar ía
ding ton
▁Mal t
▁reb el
▁portfol ios
▁Fif teen
▁glac iers
▁Roth ley
▁Sul zer
▁Occ up
▁protagon ists
▁Ae gean
▁surviv ors
z el
▁c ad
▁b ishop
st airs
▁H av
oy a
▁bl amed
▁eas ing
to ber
▁doubt ful
▁exclud es
▁Barro t
off icial
▁A3 80
▁fest ive
▁habit ats
▁crow ds
▁handic raft
▁penet ration
▁horm one
▁numer ical
p ad
▁ ip
▁s ands
▁d aughters
ies e
▁W els
end ix
ult an
▁K .
▁Se lection
▁Pro c
gg er
▁adm iration
▁don t
▁Govern ing
bo a
▁red isc
hab i
▁divid end
▁superv ise
▁Att ention
▁Mand elson
▁Eff ective
▁Mov ing
▁Ship ping
▁ow es
▁Guarante e
▁Tay lor
8 4
s im
▁m ills
▁C IT
▁r ipe
▁H amm
▁has t
▁N ative
▁am ph
▁li ver
▁K L
▁ext inction
▁gl imp
▁ret ard
▁pres cription
▁arr anging
▁particip ates
▁Ph arm
▁Br idal
▁Christ oph
ef e
▁uns afe
▁util ise
▁Stat us
▁Broad way
▁Fall out
▁inters ection
▁Apoll o
W ARE
in qu
▁p ounds
▁f ights
▁re w
us ch
▁S pect
▁M arm
▁D D
▁D ap
▁no v
▁mod eration
▁gl ue
▁light ly
▁comprehens ively
▁Pre viously
▁Tor res
▁util ised
▁ax es
▁aest hetics
▁crafts men
▁cyn ical
▁puzz le
▁t ier
al ous
▁h inter
▁n ous
▁V ie
ash i
▁four teen
▁er otic
bo at
▁warm est
▁acqu aint
▁mis con
▁Turk men
▁Instit utional
▁Dep art
▁EN T
▁Rem ove
▁wise ly
▁diagnost ics
▁inaug urated
▁Fere ng
▁Krum lov
9 6
b in
ê te
▁w ax
▁c ous
▁f ict
▁b ids
▁v iv
ounc ing
▁inter val
▁camp us
▁Comp ost
▁DE S
▁organis ers
▁Sim pl
▁abandon ment
laim er
▁subscrib ers
▁manip ulate
▁Kle in
.B .
▁souven ir
▁Bajor an
▁inconven ience
▁Joom la
9 4
w estern
▁s or
▁C od
▁P az
▁st icking
▁W izard
▁B S
▁le vy
▁av enues
▁def lation
▁gener ously
▁special ity
▁10 2
▁Mar in
▁central ized
▁arch iving
▁ge ographically
▁Che chen
▁bound s
▁swe at
▁36 5
▁fasc inated
▁discount ed
▁Form at
ipp ers
▁Holid ays
▁ware n
▁Norm an
▁Spec ific
▁overs ight
▁effic acy
W N
b oy
o os
t own
▁o ceans
▁m ast
▁m p3
▁T iger
▁C IS
▁P AL
▁B ild
▁&apos; clock
▁F IR
▁H S
▁H onda
▁L obby
ab y
▁V ille
▁co ven
int ers
▁equ ation
▁7 .5
rad le
▁pack aged
▁sal ads
ots pot
▁aud itors
▁Develop ing
ull ah
▁ded icate
▁proceed ed
▁Est onian
▁Fac ility
▁Fac ulty
gl as
osc ope
▁spo il
▁fuck ing
▁Hond uras
v d
▁s aint
▁S ib
▁H ills
▁L ap
▁pol ished
▁comple ments
ional e
▁modern ising
▁ve ctor
▁Wor f
▁don ate
▁Ab kh
▁emerg encies
▁Wind ow
▁meaning less
▁Har vard
▁Arch ive
▁pip elines
▁elev ation
▁maxim ise
add afi
▁Quad rant
▁confort able
▁memor andum
▁Terror ism
▁adoles c
r á
▁ В
▁m g
▁E leg
▁H ouses
▁G ior
▁ad orn
ree vy
▁rep aired
▁viol in
▁sal vation
▁news letters
▁elim inates
▁tempor al
▁wrap ped
▁embra ced
▁Config uration
onet as
▁synd rome
▁detain ees
. L
I s
r ue
t al
▁c emetery
▁p ork
▁in adm
▁n iche
▁an te
▁D iving
▁R ij
▁int rig
▁work stations
ign on
▁pr in
ens chaft
▁ind ices
▁fact ual
▁Sch le
▁cam c
▁Per ug
▁delay ing
▁Set ting
▁grand father
▁Ky r
▁GM O
▁attrib utable
▁tur bo
▁jun ta
▁Gh ana
▁Ricc ione
l .
u ght
▁A th
▁P am
▁fac ulty
▁Sp in
▁An a
▁beaut ies
▁ann um
▁consequ ent
▁reflect ions
▁Ab ra
▁jour n
▁Ver de
▁pill ows
▁minist ries
▁Dav os
▁jurisd ictions
▁assert ed
▁pled ges
▁dish was
▁Lut her
▁Jane iro
▁unbeliev able
▁Abkh az
er os
en ers
as ia
▁n asty
▁W S
▁B ling
▁D NS
enc il
▁Ch amb
▁under de
▁polic ing
▁inter change
▁fol ding
▁Mar athon
▁oblig e
▁emb assy
▁Sk in
▁Restaur ants
▁Stand ing
▁Ren ew
▁Jun cker
▁seam lessly
▁sear ched
▁UC LAF
▁resemb les
▁blat ant
▁Saraj evo
9 2
u ity
▁b ored
▁S tern
▁M itte
▁R hod
▁R osen
▁ch al
▁j ue
▁V III
▁rel ied
▁rem n
▁direct ing
▁ph osph
▁est ates
▁par am
▁class room
▁gen ius
▁contract ed
▁hon ored
▁tele phony
▁ge o
▁Apart amentos
▁advis or
▁flood ed
▁Sur vey
▁aer opl
▁clin ics
▁domin ates
▁uphold ing
yb ot
▁unden iable
▁Schrö der
c ards
p ret
▁p izz
▁f oyer
an ic
▁P oor
▁H ed
▁G S
▁G d
▁L or
▁qu it
▁prov oked
hen sion
▁dep icted
▁Appl ied
▁Cat ania
▁cancell ations
▁193 8
▁suspect s
▁Innov ative
▁flour ish
▁Caf e
▁Bour d
▁gre enery
▁Ni elson
▁jam endo
▁disgrace ful
▁sunb athing
▁Traff ic
▁Miche lin
▁unsub scribe
X X
b rief
j ö
è me
▁m art
▁g ly
▁C B
▁v od
▁r ivals
um i
▁un think
▁Un ique
▁high ways
▁saf est
▁ty ping
▁Z ero
▁Reg ret
▁origin ates
▁helpful l
▁Sant o
▁restruct ured
▁Fe at
▁Fil ter
▁sett lers
▁Autom atically
▁USS R
▁deterior ating
▁McC reevy
▁Creat ing
▁handic ap
▁pron ounce
▁Gas tein
▁raft ing
▁Ott oman
▁Ely sées
best os
9 00
O n
b age
▁ →
is ive
▁p ir
▁A 2
▁by tes
▁sh ining
▁L ignano
▁O nt
▁pre hist
▁time frame
▁under w
▁An sw
▁educ ate
▁sent iments
▁separ ating
▁approx imate
▁approx imation
▁remember ing
▁los ers
▁nation wide
▁ang les
▁flav or
▁aqu atic
hre ndt
▁nest led
▁overha ul
▁respir atory
▁Laus anne
f ined
at ta
ou re
▁G f
▁up he
▁inst inct
▁ass ists
▁As ide
▁5 50
▁sever ity
▁Ap pe
▁heart felt
▁past ries
ior i
▁floor ing
▁Cas io
▁CO P
▁succeed s
▁micro sc
▁tow el
▁fundament als
▁nurs es
writ er
▁Viol ence
▁cogn itive
b ish
▁I v
▁g low
et ti
▁S we
▁M ON
ch arged
▁st arch
▁W u
▁W arm
ell ation
▁so f
▁end uring
▁ins urg
▁commun ic
▁Rom antic
▁card board
▁Fl ight
▁celeb rities
▁bio eth
▁tab s
▁disturb ed
▁privat ization
▁Domin ican
▁reaffirm ed
writ ing
▁impe cc
▁Oost lander
▁Souven irs
▁p ile
▁b ent
▁d ar
▁A ber
▁B U
▁H era
ac le
ber ries
per m
av y
▁trans g
▁polit ic
▁initi ating
▁Med ved
▁achie vable
aw i
▁Cap t
▁formal ities
▁ang el
▁ol ives
▁hes it
▁substit ution
▁annex ed
▁Arc ade
▁Vel zen
▁thir teen
▁landf ill
▁wh ales
ad ic
ers ion
▁B og
ac s
▁G iant
▁so bre
▁pre occup
▁K R
▁prov oke
▁meas urable
▁med ications
ining rad
▁adm ired
▁fundamental ist
▁fre er
▁sell ers
▁rul er
▁Hy d
▁na ive
▁Kal iningrad
▁hel m
▁Bour l
▁massac res
▁shr ink
▁Ist ria
OF IN
▁banqu ets
▁haz ards
c iano
▁p ains
▁h ott
▁l ane
▁P erman
if ted
▁v est
▁&apos; P
▁N em
▁em pir
▁iss u
▁Al to
▁her b
▁Sp ani
▁gr as
ON E
yl vania
▁cell ars
▁hum ble
▁fasc ist
▁stream lined
▁acceler ating
mo il
▁Ein stein
▁Particip ants
▁dys f
▁Kitz bü
▁Bourl anges
C ode
v ag
al c
▁T ester
▁he els
▁all oys
ight ing
▁j aw
con a
▁J ad
▁partic le
▁6 .5
omet ers
▁29 th
▁rou ter
▁isol ate
▁remote ly
▁conce ivable
▁Cert ification
▁revers al
▁souven irs
▁ceremon ies
▁metap hor
▁Dap hne
▁b ij
▁as pire
▁R ig
▁Th under
▁J ahr
iet z
▁exam ines
ron s
▁rev is
isl ava
▁den ounced
▁Cor ps
▁Tre nd
▁drop ping
▁diss ol
▁Gal ax
▁Dist ribution
rob es
▁nick name
▁Barb ara
▁ske pt
r ition
е р
▁b unch
▁T G
▁T ot
▁I E
▁l ime
▁C row
▁S AL
▁S AS
el ho
▁ex ternally
▁v iel
▁R ational
▁comp iling
▁N elson
▁4 .3
uss ia
▁pract iced
▁Be hrendt
▁Sal t
▁transparent ly
▁Arch ae
▁multilateral ism
▁mort g
▁Lul ling
▁irr ational
keep ers
▁Implement ation
▁Mozamb ique
rehens ive
er ations
▁p ussy
ro it
▁P ick
ist ine
▁F av
▁D ame
▁L omb
▁K ids
ib es
▁11 6
asc ar
▁Cap ri
▁har bor
▁Saf ari
▁sn aps
▁Sil icon
▁suit ability
▁federal ist
▁roof s
▁Kar as
▁Docu mentation
▁greet ed
▁Bear ing
▁superfic ial
▁Antwer p
▁Sorrent o
. at
i ary
ro x
▁T ER
▁g iants
▁P asc
▁B in
▁not ions
▁D ax
▁D uk
▁N as
▁up ward
▁ro aming
▁K ent
▁K ORE
ang a
▁loc king
▁techn ologically
▁top s
▁begin ner
▁travel er
▁rail road
▁emb assies
▁Cor rect
▁au ctions
▁storm s
▁hur ry
▁eru ption
▁mism an
▁decou pling
▁Schre yer
▁Namib ia
▁Tul ip
▁Franç ois
▁Balear ic
▁unthink able
U p
h ma
▁t ighter
▁f ence
▁h iring
▁T ree
▁T ube
el ly
ers ch
▁W are
▁F em
▁N ike
▁V eter
nc hed
▁sp arse
▁cent ered
▁disc os
▁Sp ybot
▁war rants
▁regul ates
▁11 1
▁mar ry
▁interact ions
▁spot light
▁advis ors
▁Wik i
▁Cam era
▁layout s
▁tur moil
▁fo il
▁Pot ter
▁vigil ance
▁cord ial
▁Tanz ania
▁Gord on
R S
l age
w alk
▁p aving
▁m alf
▁g aze
▁C atherine
pe ople
▁as bestos
▁F uk
▁inv oked
iet al
▁rev enge
▁sk ins
▁enl arg
▁Br ight
▁pain ts
▁ill iter
▁Op el
▁Lat vian
▁Her bert
▁ec ology
▁TH AT
▁Organ ic
▁Requ est
▁medi ator
▁pear l
▁&apos;I voire
V iew
m ates
í s
▁s ore
es a
le ans
▁re charge
▁g othic
▁C erv
▁de forestation
▁B é
▁L ö
▁ch ill
ign e
▁inst ig
▁Ch in
▁la ud
gy z
▁Sp y
▁lit re
▁test ify
▁appropri ation
▁Air pass
▁50 th
▁mand ates
▁convey or
▁Ram ada
▁Municip al
▁Belf ast
e ck
n n
▁t ires
os ing
▁C red
▁st ew
▁F usion
oc het
▁k et
int osh
▁Ch ang
▁const ru
▁class ics
▁ban quet
▁gen ital
▁emb odied
▁pal ate
EM A
▁proc laim
▁Exper t
▁170 1
▁Wood s
▁Brun o
▁Publ ishing
g ien
u ble
▁t rol
▁c ort
et erm
▁M oor
ow ered
em ption
▁D P
▁O mn
▁ch rist
ie g
▁N om
▁ab norm
▁inst al
▁Go ing
▁Port e
▁dig its
▁dispos ition
▁fle eing
▁195 2
ba o
▁Ken ned
▁dish on
ju ven
EF A
▁Azer oth
▁Ron ald
▁focuss ed
▁Brat islava
▁Jür gen
b ij
h ar
m oon
an ze
le e
▁n autical
▁g n
▁M ant
▁M IN
▁P ure
her ing
▁G ew
▁u it
te ch
▁ag endas
og gan
▁work ings
▁sc anned
▁ref in
▁Germ ain
▁bl oss
▁Sh ar
▁complex es
▁Ser ge
AS H
▁Art ists
roll s
▁Stud ent
▁Lib yan
▁marvel ous
▁Love ly
▁greet ing
▁dimin ish
▁Nab ucco
▁Prob ably
▁Compost ela
▁Kyr gyz
5 7
b n
e ira
j en
▁h rs
▁E TA
▁P ADI
▁sh y
▁L ion
▁- 1
▁ev ap
▁access ory
ran ca
▁sum ptuous
AN CE
▁separ at
▁influ encing
▁advert ised
▁Free BSD
urd ays
▁Us ed
▁ton ne
▁trib unal
▁Bos n
▁util ized
▁fat igue
▁broadcast s
▁unus ually
▁stair case
▁subord inate
▁Suppl ier
▁rainfore st
D M
al one
▁l over
▁P all
▁G ol
▁L ock
▁me ga
▁j ug
▁K urt
we i
▁Ch alet
▁inf lex
▁mar athon
▁Not re
▁mail box
▁mor ally
▁consequ ential
▁ge ological
▁liberal ised
▁mut ilation
▁dict ate
▁191 9
▁Back ground
▁incorrect ly
▁Canc un
▁Gab ri
▁hege mony
5 8
p uy
un ting
nt e
ace a
▁V ec
▁current s
▁Pl ath
▁satisf ies
▁Out door
▁visual ization
▁Flore nz
▁Gr ö
▁rational e
▁ash amed
▁Rand zio
▁barbar ic
▁Fereng i
▁Bourd ieu
d or
▁c ots
▁d ome
▁g ru
id ian
▁H undred
▁R é
▁co erc
▁ob esity
olog ic
ral e
▁respect ful
▁subject ive
ool s
▁ill usions
▁simpl ifies
▁orient al
▁Dep ression
▁195 3
▁functional ities
▁poly mer
▁AM D
▁AB S
▁pharmaceutical s
▁dismant le
▁Ele kt
▁dimin ished
▁Brow ser
▁VO Y
▁SOFT WARE
▁Bling ee
c ious
u id
z burg
▁w ires
▁d ice
▁C ancell
▁or th
▁B T
▁F YR
▁R ip
▁ch ore
ab ria
▁pl ots
ov sky
▁home work
▁En h
use um
▁Bo at
▁doub ling
▁foot age
▁Sub s
▁hosp itable
▁diss ent
▁mix es
▁output s
▁Stat istics
▁Trad os
▁rain fall
▁Vers a
▁merg ing
▁depos ited
▁tear s
▁Lot us
▁descend ants
▁Kurf ürst
k at
▁ ib
▁a ver
on o
▁P ret
▁1 .9
our i
▁res umption
▁O c
▁N C
ok en
pon ent
▁vot re
fort h
▁ter r
ina fter
▁par ity
▁Br no
▁Berlin er
▁calend ars
▁Prom otion
▁blank et
▁scholars hip
▁appet ite
▁preval ent
▁allot ted
▁ iv
▁f ring
▁d ir
▁T F
▁l ips
▁on s
am t
▁F ail
▁H off
▁R ow
▁R iga
▁all ied
▁tra der
▁K ant
▁K ub
▁5 .30
▁inter fering
▁inf amous
▁mot ive
▁progress ed
▁prevent ative
▁Co elho
▁lo ops
rid ing
▁crim in
▁Hung arians
▁dign ified
▁coordin ators
▁Sel va
▁denom inator
▁spont ane
▁Piet ro
▁Tow ards
▁Bened ict
▁Neph ites
assad ors
g le
▁t ense
▁d ances
▁l un
ad ers
▁H il
▁R ous
▁pl ague
▁k iss
▁comm its
▁V ila
▁ra iny
ts ch
▁real ising
IN A
▁model ing
▁sex es
▁virt ues
▁DV B
▁refere nc
▁flo at
IF F
▁Word press
▁manip ulated
▁cher ry
▁carp ets
▁Anth ony
, 7
V D
o op
p ies
▁p ant
▁p ound
▁f ighter
ot ed
▁A ce
▁E clipse
▁st un
▁W ire
▁W LAN
▁r im
▁se aling
▁can on
omm un
▁N ür
▁so othing
▁rel ent
oy e
▁mark er
▁care d
▁stat utes
▁Bel ize
▁Ne got
▁deg li
▁valid ated
▁Act ivities
▁Vo IP
▁McC oy
▁frust rated
▁..... .
▁Friedrich sh
▁Trent ino
▁Protest ant
▁Philharm onic
▁lia ison
P lus
h ren
m ic
on ies
es p
et o
▁A ub
iz i
▁dis pon
▁sp as
▁dist rust
▁Sh akes
▁night mare
▁EC OFIN
▁crucial ly
▁Ma estro
▁alloc ations
▁AC C
▁Fort ress
▁incomp et
▁synchron ization
▁Ku wa
▁Pf and
▁Jav ascript
▁pilgrim age
▁Giron a
U P
er l
▁d rown
▁l ent
▁g ew
▁C able
▁A rag
▁B ishop
▁G OL
form ed
▁ar ma
▁act u
▁fl ank
▁25 00
▁accommod ated
▁EC SC
▁condition ality
.e u
▁democrat ization
▁shel ves
▁artificial ly
▁dossi ers
▁Kle e
▁fount ains
▁lav ish
▁Hug o
▁Mong olia
▁Colom bian
▁Convenient ly
▁Byzant ine
▁OpenC ms
R ANT
▁ к
▁b od
▁T rist
▁be ers
ay ed
un ia
▁W o
od us
▁N X
orm s
▁V ST
▁J ör
▁sub mar
▁program mers
▁here inafter
▁small -
▁integ er
▁Be eth
▁arr ivals
▁Te h
ograph s
yc le
AN S
▁pleas antly
▁Develop er
▁birth place
▁rom an
bal anced
▁gest ures
.D .
▁bund le
▁cheer ful
▁o st
▁w atered
▁b ite
▁re he
▁C trl
ra ch
▁M und
▁M AC
▁P OL
▁su nd
si us
▁sp elling
▁Ch a
iss a
▁Cent rally
irc he
IC ES
▁cas a
▁pal let
▁ball oon
IB O
▁Mo ore
▁landscap ed
▁disregard ed
▁deriv ative
▁Fel ix
▁indu ce
▁diagram s
▁freel ance
▁Tourna ment
ubar ak
▁Osset ia
▁Kenned y
▁Shakes pe
, 6
▁b om
▁d unge
▁T ill
os lov
im er
▁M ort
▁P arent
th ood
▁me ats
iz ar
▁cl ashes
▁K amp
▁und ue
▁over c
▁propos ition
▁gener ators
▁project or
▁fav ourably
▁lit igation
▁Cl ark
▁50 ,000
▁27 0
▁diss olved
▁gram s
▁insert s
▁blow ing
▁Que bec
▁umbrell as
▁Columb us
▁dess erts
▁Lul u
▁Duis burg
▁Umb ria
N C
b ek
ä d
▁h illy
▁I gn
ul atory
▁he x
and y
▁k not
▁pol es
▁pe b
▁end owed
▁ty ran
▁par ade
▁30 ,000
▁X etra
▁network ed
IC T
▁ang els
▁Transport ation
▁Bol zano
▁A3 50
▁extract s
▁Langu ages
▁Consider ing
▁reset tlement
▁Loren zo
▁indign ation
▁Kof i
▁dishwas her
w end
д а
▁o mission
is put
▁n el
▁T rog
▁M G
▁de er
▁H iking
▁pre fers
▁K M
▁po ems
we alth
▁sc ans
▁5 .2
ron d
pr ing
▁anal ogue
▁observ atory
ara oke
▁penal ised
▁divid es
▁rock et
▁Sit uation
▁Vol ume
▁warrant ies
▁prosec uted
▁Stra ße
▁prede fined
▁Respon sibility
▁priorit ise
▁Früh st
▁Perug ia
▁FYR OM
H D
▁a z
▁c ares
▁d aring
▁M ubarak
ch ts
▁P SP
▁ha ck
▁en zy
▁R ies
▁res ent
▁We re
▁trans pose
▁As c
▁la x
▁Con ti
▁met e
▁Q .
▁individual ity
aff e
▁char itable
▁dom ic
▁Em ma
sh ire
▁Ty pical
▁bra king
▁disturb ances
.W e
▁galax y
▁unload ing
▁Abra ham
▁hott est
d ess
ü nd
on so
▁o mitted
▁f og
▁T ec
▁l ymph
▁P ub
ow ers
▁F T
▁Wh it
aster ies
▁pot ent
▁sustain ing
▁Qu iet
▁har b
[...]
