{"<s>":0,"<pad>":1,"</s>":2,"<unk>":3,"<mask>":4,"!":5,"#":6,"$":7,"%":8,"&":9,"(":10,")":11,"+":12,",":13,"-":14,".":15,"/":16,"0":17,"1":18,"2":19,"3":20,"4":21,"5":22,"6":23,"7":24,"8":25,"9":26,":":27,";":28,"=":29,"?":30,"A":31,"B":32,"C":33,"D":34,"E":35,"F":36,"G":37,"H":38,"I":39,"J":40,"K":41,"L":42,"M":43,"N":44,"O":45,"P":46,"Q":47,"R":48,"S":49,"T":50,"U":51,"V":52,"W":53,"X":54,"Y":55,"Z":56,"\\":57,"^":58,"a":59,"b":60,"c":61,"d":62,"e":63,"f":64,"g":65,"h":66,"i":67,"j":68,"k":69,"l":70,"m":71,"n":72,"o":73,"p":74,"q":75,"r":76,"s":77,"t":78,"u":79,"v":80,"w":81,"x":82,"y":83,"z":84,"{":85,"}":86,"~":87,"":88,"":89,"":90,"":91,"":92,"":93,"":94,"":95,"":96,"":97,"":98,"":99,"":100,"":101,"":102,"":103,"":104,"":105,"":106,"":107,"":108,"¡":109,"¢":110,"£":111,"¤":112,"¥":113,"¦":114,"§":115,"©":116,"«":117,"¬":118,"­":119,"®":120,"°":121,"±":122,"¶":123,"·":124,"»":125,"¿":126,"À":127,"Á":128,"Â":129,"Ã":130,"Ä":131,"Å":132,"Æ":133,"Ç":134,"È":135,"É":136,"Ê":137,"Ë":138,"Ì":139,"Í":140,"Î":141,"Ï":142,"Ð":143,"Ñ":144,"Ò":145,"Ó":146,"Ô":147,"Õ":148,"Ö":149,"×":150,"Ø":151,"Ù":152,"Ú":153,"Û":154,"Ü":155,"Ý":156,"Þ":157,"ß":158,"à":159,"á":160,"â":161,"ã":162,"ä":163,"å":164,"æ":165,"ç":166,"è":167,"é":168,"ê":169,"ë":170,"ì":171,"í":172,"î":173,"ï":174,"ð":175,"ñ":176,"ò":177,"ó":178,"ô":179,"õ":180,"ö":181,"÷":182,"ø":183,"ù":184,"ú":185,"û":186,"ü":187,"ý":188,"þ":189,"ÿ":190,"Ā":191,"ā":192,"ă":193,"Ą":194,"ą":195,"Ć":196,"ć":197,"Ĉ":198,"ĉ":199,"Č":200,"č":201,"Ď":202,"ď":203,"Đ":204,"đ":205,"ē":206,"ĕ":207,"ė":208,"Ę":209,"ę":210,"Ě":211,"ě":212,"ĝ":213,"Ğ":214,"ğ":215,"ġ":216,"ģ":217,"ĩ":218,"Ī":219,"ī":220,"į":221,"İ":222,"ı":223,"ķ":224,"ļ":225,"Ľ":226,"ľ":227,"Ł":228,"ł":229,"Ń":230,"ń":231,"ņ":232,"Ň":233,"ň":234,"ō":235,"ŏ":236,"Ő":237,"ő":238,"Œ":239,"œ":240,"ŕ":241,"Ř":242,"ř":243,"Ś":244,"ś":245,"Ş":246,"ş":247,"Š":248,"š":249,"Ţ":250,"ţ":251,"ť":252,"Ū":253,"ū":254,"ŭ":255,"Ů":256,"ů":257,"ű":258,"ų":259,"Ÿ":260,"ź":261,"Ż":262,"ż":263,"Ž":264,"ž":265,"ƒ":266,"ơ":267,"ư":268,"ǎ":269,"ǐ":270,"ǔ":271,"ș":272,"ț":273,"ɐ":274,"ɑ":275,"ɒ":276,"ɔ":277,"ə":278,"ɛ":279,"ɨ":280,"ɪ":281,"ɫ":282,"ɾ":283,"ʃ":284,"ʒ":285,"ʻ":286,"ʼ":287,"ˆ":288,"ˈ":289,"ˌ":290,"ː":291,"́":292,"̃":293,"̄":294,"̈":295,"̊":296,"̋":297,"̍":298,"̤":299,"̧":300,"̨":301,"Ά":302,"Α":303,"Β":304,"Γ":305,"Δ":306,"Ε":307,"Ζ":308,"Η":309,"Θ":310,"Ι":311,"Κ":312,"Λ":313,"Μ":314,"Ν":315,"Ο":316,"Π":317,"Ρ":318,"Σ":319,"Τ":320,"Υ":321,"Φ":322,"Χ":323,"Ω":324,"ά":325,"έ":326,"ή":327,"ί":328,"α":329,"β":330,"γ":331,"δ":332,"ε":333,"ζ":334,"η":335,"θ":336,"ι":337,"κ":338,"λ":339,"μ":340,"ν":341,"ξ":342,"ο":343,"π":344,"ρ":345,"ς":346,"σ":347,"τ":348,"υ":349,"φ":350,"χ":351,"ψ":352,"ω":353,"ϊ":354,"ό":355,"ύ":356,"ώ":357,"Ђ":358,"Ѓ":359,"І":360,"Љ":361,"Њ":362,"Ћ":363,"Ќ":364,"Ў":365,"Џ":366,"А":367,"Б":368,"В":369,"Г":370,"Д":371,"Е":372,"Ж":373,"З":374,"И":375,"К":376,"Л":377,"М":378,"Н":379,"О":380,"П":381,"Р":382,"С":383,"Т":384,"У":385,"Ф":386,"Х":387,"Ц":388,"Ч":389,"Ш":390,"Э":391,"Ю":392,"Я":393,"а":394,"б":395,"в":396,"г":397,"д":398,"е":399,"ж":400,"з":401,"и":402,"й":403,"к":404,"л":405,"м":406,"н":407,"о":408,"п":409,"р":410,"с":411,"т":412,"у":413,"ф":414,"х":415,"ц":416,"ч":417,"ш":418,"щ":419,"ъ":420,"ы":421,"ь":422,"э":423,"ю":424,"я":425,"ё":426,"ѓ":427,"є":428,"ѕ":429,"і":430,"ї":431,"ј":432,"њ":433,"ќ":434,"ў":435,"ґ":436,"ғ":437,"қ":438,"ҡ":439,"ң":440,"ү":441,"ұ":442,"һ":443,"ә":444,"ө":445,"ְ":446,"ִ":447,"ַ":448,"ָ":449,"ֹ":450,"ּ":451,"ֿ":452,"א":453,"ב":454,"ג":455,"ד":456,"ה":457,"ו":458,"ז":459,"ח":460,"ט":461,"י":462,"כ":463,"ל":464,"ם":465,"מ":466,"ן":467,"נ":468,"ס":469,"ע":470,"פ":471,"צ":472,"ק":473,"ר":474,"ש":475,"ת":476,"،":477,"ء":478,"آ":479,"أ":480,"إ":481,"ا":482,"ب":483,"ة":484,"ت":485,"ث":486,"ج":487,"ح":488,"خ":489,"د":490,"ذ":491,"ر":492,"ز":493,"س":494,"ش":495,"ص":496,"ض":497,"ط":498,"ع":499,"غ":500,"ف":501,"ق":502,"ك":503,"ل":504,"م":505,"ن":506,"ه":507,"و":508,"ى":509,"ي":510,"ً":511,"َ":512,"ُ":513,"ِ":514,"ّ":515,"ْ":516,"پ":517,"ک":518,"گ":519,"ی":520,"۞":521,"۰":522,"۱":523,"۲":524,"۴":525,"۹":526,"क":527,"त":528,"न":529,"प":530,"म":531,"र":532,"ल":533,"ह":534,"ा":535,"ि":536,"्":537,"্":538,"்":539,"്":540,"ก":541,"ข":542,"ค":543,"ง":544,"จ":545,"ช":546,"ญ":547,"ณ":548,"ด":549,"ต":550,"ถ":551,"ท":552,"ธ":553,"น":554,"บ":555,"ป":556,"ผ":557,"พ":558,"ภ":559,"ม":560,"ย":561,"ร":562,"ล":563,"ว":564,"ศ":565,"ส":566,"ห":567,"อ":568,"ะ":569,"ั":570,"า":571,"ิ":572,"ี":573,"ึ":574,"ื":575,"ุ":576,"ู":577,"เ":578,"แ":579,"โ":580,"ใ":581,"ไ":582,"็":583,"่":584,"้":585,"์":586,"ํ":587,"ຸ":588,"་":589,"ა":590,"ბ":591,"გ":592,"დ":593,"ე":594,"ვ":595,"თ":596,"ი":597,"ლ":598,"მ":599,"ნ":600,"ო":601,"რ":602,"ს":603,"ტ":604,"უ":605,"შ":606,"ხ":607,"ም":608,"ረ":609,"በ":610,"ተ":611,"ዓ":612,"የ":613,"ይ":614,"ḥ":615,"ṭ":616,"ṳ":617,"ạ":618,"ả":619,"ế":620,"ề":621,"ễ":622,"ệ":623,"ị":624,"ố":625,"ồ":626,"ổ":627,"ộ":628,"ớ":629,"ờ":630,"ữ":631,"ỹ":632,"​":633,"‌":634,"‎":635,"‏":636,"‐":637,"–":638,"—":639,"―":640,"‘":641,"’":642,"‚":643,"‛":644,"“":645,"”":646,"„":647,"†":648,"‡":649,"•":650,"‰":651,"′":652,"‹":653,"›":654,"※":655,"⁄":656,"₤":657,"€":658,"←":659,"↑":660,"→":661,"⇒":662,"⇢":663,"−":664,"√":665,"∞":666,"≈":667,"≤":668,"≥":669,"─":670,"│":671,"┌":672,"┐":673,"╚":674,"╩":675,"▁":676,"▒":677,"■":678,"▪":679,"►":680,"◆":681,"◊":682,"○":683,"◎":684,"●":685,"★":686,"☆":687,"♀":688,"♣":689,"♥":690,"♦":691,"♪":692,"✿":693,"、":694,"。":695,"《":696,"》":697,"『":698,"』":699,"【":700,"】":701,"あ":702,"い":703,"う":704,"お":705,"か":706,"が":707,"き":708,"く":709,"こ":710,"さ":711,"し":712,"じ":713,"す":714,"た":715,"ち":716,"っ":717,"つ":718,"て":719,"で":720,"と":721,"な":722,"に":723,"の":724,"は":725,"ひ":726,"ま":727,"み":728,"も":729,"よ":730,"ら":731,"り":732,"る":733,"れ":734,"わ":735,"を":736,"ん":737,"ア":738,"イ":739,"オ":740,"カ":741,"キ":742,"ク":743,"コ":744,"シ":745,"ジ":746,"ス":747,"チ":748,"ッ":749,"テ":750,"ト":751,"ド":752,"ナ":753,"ハ":754,"バ":755,"フ":756,"マ":757,"メ":758,"ャ":759,"ラ":760,"ル":761,"レ":762,"ワ":763,"ン":764,"・":765,"ー":766,"一":767,"三":768,"上":769,"下":770,"不":771,"东":772,"中":773,"为":774,"乐":775,"了":776,"事":777,"二":778,"五":779,"亜":780,"交":781,"京":782,"人":783,"仁":784,"以":785,"会":786,"体":787,"你":788,"信":789,"修":790,"元":791,"克":792,"免":793,"入":794,"八":795,"公":796,"内":797,"円":798,"出":799,"分":800,"切":801,"利":802,"前":803,"剥":804,"加":805,"動":806,"北":807,"区":808,"匿":809,"十":810,"华":811,"南":812,"博":813,"原":814,"参":815,"发":816,"取":817,"口":818,"可":819,"台":820,"司":821,"合":822,"吉":823,"名":824,"后":825,"吧":826,"和":827,"啦":828,"四":829,"回":830,"园":831,"国":832,"图":833,"國":834,"圓":835,"在":836,"场":837,"城":838,"士":839,"多":840,"大":841,"天":842,"套":843,"女":844,"娱":845,"子":846,"字":847,"安":848,"定":849,"家":850,"寺":851,"寿":852,"小":853,"居":854,"屋":855,"山":856,"島":857,"州":858,"市":859,"帝":860,"常":861,"平":862,"年":863,"広":864,"庆":865,"店":866,"廣":867,"建":868,"式":869,"当":870,"徐":871,"得":872,"心":873,"思":874,"情":875,"成":876,"手":877,"援":878,"敏":879,"文":880,"新":881,"方":882,"日":883,"明":884,"易":885,"是":886,"更":887,"書":888,"月":889,"有":890,"木":891,"本":892,"机":893,"李":894,"村":895,"来":896,"東":897,"板":898,"林":899,"梁":900,"楽":901,"正":902,"武":903,"比":904,"民":905,"氣":906,"水":907,"江":908,"浦":909,"海":910,"深":911,"清":912,"湖":913,"湯":914,"漢":915,"灣":916,"物":917,"特":918,"王":919,"珠":920,"球":921,"生":922,"用":923,"田":924,"白":925,"的":926,"皇":927,"直":928,"相":929,"県":930,"知":931,"石":932,"社":933,"神":934,"科":935,"空":936,"站":937,"简":938,"米":939,"線":940,"网":941,"羅":942,"美":943,"義":944,"能":945,"腹":946,"臺":947,"舞":948,"色":949,"花":950,"茶":951,"華":952,"行":953,"街":954,"西":955,"見":956,"解":957,"言":958,"記":959,"話":960,"語":961,"语":962,"赌":963,"路":964,"車":965,"载":966,"过":967,"这":968,"道":969,"都":970,"酒":971,"里":972,"重":973,"金":974,"長":975,"门":976,"降":977,"陳":978,"雄":979,"電":980,"青":981,"面":982,"音":983,"頂":984,"風":985,"食":986,"香":987,"馬":988,"駅":989,"马":990,"高":991,"黄":992,"국":993,"년":994,"로":995,"서":996,"어":997,"한":998,"":999,"":1000,"":1001,"":1002,"﻿":1003,"�":1004,"▁t":1005,"▁a":1006,"he":1007,"in":1008,"re":1009,"▁the":1010,"on":1011,"er":1012,"▁o":1013,"at":1014,"▁,":1015,"▁s":1016,"en":1017,"▁w":1018,"is":1019,"▁c":1020,"▁.":1021,"it":1022,"nd":1023,"or":1024,"es":1025,"▁p":1026,"▁f":1027,"▁of":1028,"▁b":1029,"an":1030,"▁in":1031,"ion":1032,"al":1033,"##":1034,"ou":1035,"▁to":1036,"ed":1037,"▁and":1038,"ar":1039,"ing":1040,"▁m":1041,"ic":1042,"ro":1043,"▁d":1044,"▁th":1045,"ent":1046,"le":1047,"▁h":1048,"as":1049,"▁re":1050,"om":1051,"▁n":1052,"il":1053,"st":1054,"AT":1055,"ve":1056,"ct":1057,"##AT":1058,"##AT##":1059,"▁e":1060,"▁is":1061,"ot":1062,"▁T":1063,"▁be":1064,"▁I":1065,"▁l":1066,"ly":1067,"ation":1068,"▁for":1069,"ur":1070,"▁on":1071,"os":1072,"▁that":1073,"ut":1074,"▁g":1075,"▁C":1076,"et":1077,"id":1078,"ce":1079,"im":1080,"ment":1081,"ol":1082,"us":1083,"▁S":1084,"▁pro":1085,"ra":1086,"▁y":1087,"el":1088,"▁A":1089,"▁M":1090,"ith":1091,"ver":1092,"▁con":1093,"pe":1094,"▁&":1095,"▁E":1096,"ig":1097,"▁The":1098,"▁with":1099,"▁al":1100,"ch":1101,"▁P":1102,"ow":1103,"▁wh":1104,"ul":1105,"▁st":1106,"qu":1107,"▁##AT##":1108,"-##AT##":1109,"▁##AT##-##AT##":1110,"▁are":1111,"▁it":1112,"ort":1113,"ay":1114,"▁as":1115,"▁we":1116,"▁you":1117,"ir":1118,"ap":1119,"res":1120,"▁de":1121,"ad":1122,"ill":1123,"▁an":1124,"un":1125,"▁com":1126,"ers":1127,"ld":1128,"am":1129,"ies":1130,"ate":1131,"▁this":1132,"▁ha":1133,"ter":1134,"▁W":1135,"▁su":1136,"ble":1137,"ity":1138,"ess":1139,"if":1140,"▁ex":1141,"ge":1142,"her":1143,"▁or":1144,"▁v":1145,"▁B":1146,"port":1147,"▁not":1148,"op":1149,"em":1150,"▁ne":1151,"est":1152,"ive":1153,"ke":1154,"▁by":1155,"ant":1156,"▁have":1157,"▁at":1158,"ich":1159,"ore":1160,"ist":1161,"ain":1162,"apos":1163,"apos;":1164,"▁&apos;":1165,"ust":1166,"▁F":1167,"nt":1168,"se":1169,"art":1170,"ould":1171,"▁r":1172,"uro":1173,"rom":1174,"oc":1175,"igh":1176,"▁se":1177,"od":1178,"▁will":1179,"▁sh":1180,"iv":1181,"▁which":1182,"▁Euro":1183,"▁1":1184,"▁H":1185,"ial":1186,"ac":1187,"▁en":1188,"▁Europe":1189,"▁from":1190,"▁G":1191,"ia":1192,"um":1193,"ect":1194,"▁2":1195,"▁us":1196,"▁D":1197,"ure":1198,"▁(":1199,"▁R":1200,"▁can":1201,"▁)":1202,"▁he":1203,"ions":1204,"▁has":1205,"▁all":1206,"▁im":1207,"our":1208,"omm":1209,"ard":1210,"and":1211,"▁le":1212,"▁L":1213,"ight":1214,"sion":1215,"▁u":1216,"pl":1217,"end":1218,"ri":1219,"00":1220,"▁U":1221,"▁wor":1222,"▁was":1223,"▁our":1224,"te":1225,"▁res":1226,"▁O":1227,"▁ch":1228,"▁In":1229,"ie":1230,"▁Comm":1231,"▁European":1232,"all":1233,"ber":1234,"▁comp":1235,"▁Th":1236,"th":1237,"▁N":1238,"so":1239,"ud":1240,"ff":1241,"ther":1242,"▁ad":1243,"rou":1244,"ical":1245,"ak":1246,"ated":1247,"cc":1248,"ount":1249,"quot":1250,"ast":1251,"▁cont":1252,"▁:":1253,"able":1254,"▁also":1255,"ous":1256,"very":1257,"ost":1258,"▁ag":1259,"du":1260,"▁&quot":1261,"▁&quot;":1262,"▁part":1263,"▁me":1264,"ab":1265,"▁pl":1266,"▁-":1267,"ire":1268,"ations":1269,"ans":1270,"ide":1271,"age":1272,"ult":1273,"▁ap":1274,"out":1275,"▁do":1276,"ome":1277,"ag":1278,"▁your":1279,"pt":1280,"▁un":1281,"▁its":1282,"ission":1283,"vel":1284,"▁We":1285,"▁&apos;s":1286,"are":1287,"▁ab":1288,"ice":1289,"▁St":1290,"ree":1291,"ell":1292,"per":1293,"▁whe":1294,"act":1295,"ake":1296,"ip":1297,"▁but":1298,"ance":1299,"▁there":1300,"orm":1301,"▁go":1302,"ine":1303,"▁It":1304,"og":1305,"▁j":1306,"▁Commission":1307,"▁Mr":1308,"▁qu":1309,"gh":1310,"ments":1311,"ary":1312,"▁reg":1313,"ue":1314,"▁inc":1315,"▁would":1316,"ident":1317,"▁k":1318,"▁more":1319,"ction":1320,"ong":1321,"ates":1322,"ition":1323,"▁tr":1324,"▁their":1325,"iz":1326,"▁dis":1327,"▁man":1328,"▁so":1329,"▁cl":1330,"▁int":1331,"▁been":1332,"▁pol":1333,"ose":1334,"tern":1335,"ere":1336,"ind":1337,"ime":1338,"▁am":1339,"reat":1340,"ear":1341,"▁one":1342,"▁This":1343,"con":1344,"▁li":1345,"form":1346,"erv":1347,"▁Un":1348,"ark":1349,"ail":1350,"▁should":1351,"pport":1352,"ally":1353,"▁acc":1354,"ru":1355,"▁up":1356,"▁ro":1357,"▁other":1358,"erm":1359,"ish":1360,"▁work":1361,"▁tra":1362,"▁new":1363,"ign":1364,"▁off":1365,"▁count":1366,"▁comm":1367,"▁’":1368,"si":1369,"▁Pres":1370,"ry":1371,"ase":1372,"▁out":1373,"▁spe":1374,"ite":1375,"ok":1376,"ace":1377,"ub":1378,"ach":1379,"pos":1380,"▁must":1381,"ence":1382,"▁pr":1383,"cial":1384,"▁pre":1385,"▁V":1386,"▁who":1387,"ress":1388,"ational":1389,"ack":1390,"▁te":1391,"▁like":1392,"▁J":1393,"ities":1394,"ord":1395,"▁pos":1396,"otel":1397,"▁co":1398,"▁very":1399,"▁need":1400,"ens":1401,"▁they":1402,"▁pe":1403,"one":1404,"arl":1405,"▁year":1406,"nc":1407,"▁President":1408,"▁ind":1409,"▁K":1410,"▁produ":1411,"▁ev":1412,"int":1413,"▁200":1414,"▁time":1415,"▁only":1416,"ame":1417,"▁cons":1418,"▁ar":1419,"▁bec":1420,"▁/":1421,"ject":1422,"aus":1423,"▁about":1424,"▁than":1425,"▁und":1426,"ember":1427,"▁any":1428,"▁per":1429,"ious":1430,"pro":1431,"▁prov":1432,"▁right":1433,"velop":1434,"ise":1435,"▁no":1436,"▁?":1437,"av":1438,"cess":1439,"▁po":1440,"arlia":1441,"▁bet":1442,"ll":1443,"▁these":1444,"▁rel":1445,"ep":1446,"fore":1447,"▁rec":1448,"ple":1449,"arliament":1450,"▁sy":1451,"ram":1452,"▁import":1453,"▁sp":1454,"▁3":1455,"ution":1456,"▁report":1457,"ass":1458,"ility":1459,"▁ra":1460,"▁develop":1461,"ors":1462,"ks":1463,"enc":1464,"▁if":1465,"ople":1466,"▁Union":1467,"wn":1468,"▁&#":1469,"irst":1470,"▁act":1471,"ob":1472,"now":1473,"▁them":1474,"ern":1475,"ian":1476,"▁serv":1477,"▁Y":1478,"ries":1479,"▁trans":1480,"▁fe":1481,"ures":1482,"fere":1483,"▁em":1484,"▁over":1485,"stem":1486,"▁Parliament":1487,"oy":1488,"ause":1489,"ings":1490,"▁inst":1491,"lic":1492,"▁conc":1493,"ert":1494,"▁dec":1495,"lud":1496,"ang":1497,"ular":1498,"▁eff":1499,"▁EU":1500,"ile":1501,"get":1502,"▁people":1503,"▁into":1504,"we":1505,"ays":1506,"▁sub":1507,"▁19":1508,"ific":1509,"▁des":1510,"pect":1511,"▁well":1512,"red":1513,"▁my":1514,"iew":1515,"ov":1516,"ook":1517,"▁support":1518,"▁some":1519,"▁use":1520,"ual":1521,"ounc":1522,"▁were":1523,"▁what":1524,"▁Ch":1525,"▁such":1526,"▁sa":1527,"ful":1528,"▁States":1529,"▁op":1530,"ft":1531,"▁system":1532,"ade":1533,"▁add":1534,"▁ob":1535,"xt":1536,"und":1537,"▁Member":1538,"▁dif":1539,"conom":1540,"ices":1541,"ced":1542,"▁sc":1543,"▁mark":1544,"lect":1545,"ric":1546,"▁under":1547,"▁first":1548,"▁inform":1549,"ient":1550,"▁countries":1551,"resent":1552,"▁fin":1553,"▁when":1554,"der":1555,"▁most":1556,"▁inv":1557,"▁!":1558,"▁;":1559,"▁loc":1560,"..":1561,"ouncil":1562,"▁&#9":1563,"ating":1564,"▁partic":1565,"ild":1566,"▁his":1567,"rit":1568,"ater":1569,"irect":1570,"▁know":1571,"ative":1572,"▁Council":1573,"rough":1574,"▁polic":1575,"▁cent":1576,"▁now":1577,"sible":1578,"▁important":1579,"ound":1580,"ory":1581,"▁again":1582,"▁just":1583,"▁how":1584,"▁make":1585,"ever":1586,"▁tw":1587,"low":1588,"▁includ":1589,"▁prog":1590,"▁hotel":1591,"▁gu":1592,"hen":1593,"ange":1594,"ween":1595,"▁econom":1596,"▁–":1597,"▁ent":1598,"▁inte":1599,"▁many":1600,"▁bas":1601,"▁att":1602,"▁between":1603,"ink":1604,"hed":1605,"ren":1606,"▁propos":1607,"ces":1608,"▁requ":1609,"▁ass":1610,"▁intern":1611,"cept":1612,"ough":1613,"▁...":1614,"▁dem":1615,"roup":1616,"▁market":1617,"ove":1618,"▁because":1619,"▁take":1620,"ted":1621,"fter":1622,"ied":1623,"▁sit":1624,"▁world":1625,"▁As":1626,"pon":1627,"▁mod":1628,"▁la":1629,"▁form":1630,"▁col":1631,"ural":1632,"▁room":1633,"any":1634,"ention":1635,"ublic":1636,"▁soc":1637,"▁rem":1638,"▁where":1639,"ards":1640,"▁ext":1641,"▁4":1642,"▁made":1643,"ality":1644,"▁leg":1645,"▁disc":1646,"▁ac":1647,"▁information":1648,"ph":1649,"▁two":1650,"▁cle":1651,"▁high":1652,"▁point":1653,"▁great":1654,"ives":1655,"oth":1656,"▁see":1657,"▁good":1658,"▁years":1659,"▁every":1660,"uring":1661,"chn":1662,"▁av":1663,"▁5":1664,"▁If":1665,"▁pers":1666,"▁way":1667,"▁product":1668,"▁even":1669,"round":1670,"▁iss":1671,"▁through":1672,"▁Con":1673,"olog":1674,"ract":1675,"▁bu":1676,"als":1677,"rib":1678,"▁sol":1679,"▁those":1680,"▁direct":1681,"ener":1682,"▁set":1683,"▁had":1684,"ax":1685,"▁want":1686,"▁min":1687,"ood":1688,"▁polit":1689,"blem":1690,"ues":1691,"arm":1692,"▁On":1693,"own":1694,"gy":1695,"▁agree":1696,"▁policy":1697,"▁own":1698,"vern":1699,"▁tak":1700,"▁aut":1701,"abl":1702,"▁being":1703,"▁problem":1704,"▁may":1705,"ieve":1706,"day":1707,"ited":1708,"arge":1709,"row":1710,"ism":1711,"ages":1712,"ew":1713,"ick":1714,"ib":1715,"vers":1716,"▁There":1717,"▁str":1718,"▁appro":1719,"▁fact":1720,"▁long":1721,"▁prot":1722,"▁view":1723,"▁particular":1724,"▁num":1725,"unity":1726,"▁ke":1727,"urn":1728,"amp":1729,"▁bel":1730,"gan":1731,"ck":1732,"uch":1733,"▁process":1734,"lp":1735,"▁vot":1736,"elf":1737,"ting":1738,"rest":1739,"emb":1740,"land":1741,"▁trad":1742,"▁sm":1743,"▁respon":1744,"▁program":1745,"▁You":1746,"air":1747,"▁cur":1748,"▁order":1749,"▁differe":1750,"▁quest":1751,"read":1752,"▁area":1753,"▁cour":1754,"▁bus":1755,"▁main":1756,"▁car":1757,"▁here":1758,"▁end":1759,"▁rest":1760,"▁cre":1761,"▁find":1762,"▁mon":1763,"ision":1764,"ines":1765,"▁call":1766,"ince":1767,"▁Se":1768,"▁Re":1769,"▁For":1770,"▁Am":1771,"▁techn":1772,"▁def":1773,"me":1774,"▁ful":1775,"▁after":1776,"▁political":1777,"▁comple":1778,"uman":1779,"▁situ":1780,"▁ref":1781,"▁place":1782,"▁deb":1783,"▁term":1784,"ork":1785,"▁ph":1786,"ower":1787,"iet":1788,"▁person":1789,"▁exp":1790,"▁inter":1791,"▁concern":1792,"▁possible":1793,"▁public":1794,"▁help":1795,"ruct":1796,"▁conf":1797,"▁20":1798,"▁same":1799,"▁provid":1800,"ency":1801,"▁Wh":1802,"ouse":1803,"iness":1804,"ning":1805,"▁fl":1806,"▁appl":1807,"▁exper":1808,"rat":1809,"▁economic":1810,"▁effect":1811,"▁access":1812,"rent":1813,"▁protect":1814,"ved":1815,"▁clear":1816,"▁country":1817,"▁“":1818,"ath":1819,"▁contin":1820,"▁ser":1821,"▁say":1822,"▁sim":1823,"▁incre":1824,"iron":1825,"▁development":1826,"▁De":1827,"▁rep":1828,"ents":1829,"▁does":1830,"▁could":1831,"▁interest":1832,"▁aw":1833,"ily":1834,"▁level":1835,"uss":1836,"▁then":1837,"ten":1838,"▁within":1839,"ised":1840,"▁rights":1841,"itte":1842,"hes":1843,"▁result":1844,"▁stand":1845,"▁del":1846,"▁sec":1847,"▁exam":1848,"▁%":1849,"▁free":1850,"▁avail":1851,"ertain":1852,"▁present":1853,"▁against":1854,"▁therefore":1855,"▁both":1856,"arch":1857,"▁used":1858,"ner":1859,"io":1860,"ts":1861,"▁equ":1862,"▁val":1863,"ron":1864,"▁How":1865,"▁dist":1866,"▁much":1867,"▁fol":1868,"▁Pro":1869,"ason":1870,"▁met":1871,"▁est":1872,"▁get":1873,"▁gener":1874,"▁det":1875,"ute":1876,"▁Al":1877,"itions":1878,"ustom":1879,"viron":1880,"utions":1881,"▁dat":1882,"▁play":1883,"▁gl":1884,"hip":1885,"iven":1886,"ploy":1887,"▁fund":1888,"▁social":1889,"▁Germ":1890,"▁mak":1891,"▁finan":1892,"not":1893,"▁vis":1894,"▁human":1895,"ply":1896,"ically":1897,"▁different":1898,"▁”":1899,"▁mat":1900,"▁cr":1901,"▁group":1902,"ict":1903,"▁fam":1904,"▁sign":1905,"▁Hotel":1906,"▁without":1907,"▁sur":1908,"▁lead":1909,"▁meas":1910,"ittee":1911,"▁spec":1912,"ran":1913,"aj":1914,"eration":1915,"vironment":1916,"uc":1917,"▁number":1918,"old":1919,"▁think":1920,"▁ens":1921,"▁last":1922,"▁international":1923,"▁var":1924,"its":1925,"cond":1926,"▁allow":1927,"▁govern":1928,"▁services":1929,"▁bl":1930,"▁real":1931,"▁cond":1932,"▁organ":1933,"ration":1934,"▁oper":1935,"▁still":1936,"embers":1937,"▁available":1938,"▁cap":1939,"▁hand":1940,"ng":1941,"▁require":1942,"ene":1943,"▁back":1944,"ists":1945,"▁6":1946,"▁adv":1947,"les":1948,"sib":1949,"ics":1950,"urther":1951,"▁const":1952,"▁special":1953,"▁fut":1954,"▁open":1955,"ready":1956,"▁business":1957,"alk":1958,"▁look":1959,"▁compet":1960,"hing":1961,"▁custom":1962,"▁current":1963,"▁offer":1964,"ty":1965,"els":1966,"nce":1967,"▁believe":1968,"▁follow":1969,"▁project":1970,"▁already":1971,"▁before":1972,"ulation":1973,"1;":1974,"▁&#91;":1975,"ug":1976,"▁future":1977,"ional":1978,"▁start":1979,"3;":1980,"▁&#93;":1981,"▁small":1982,"ants":1983,"ope":1984,"▁air":1985,"▁down":1986,"▁national":1987,"▁That":1988,"pr":1989,"▁course":1990,"▁prev":1991,"▁today":1992,"led":1993,"▁products":1994,"ience":1995,"▁cor":1996,"▁state":1997,"ral":1998,"plement":1999,"alth":2000,"▁ins":2001,"▁med":2002,"▁able":2003,"▁environment":2004,"▁He":2005,"ness":2006,"omet":2007,"▁indust":2008,"▁too":2009,"▁design":2010,"▁All":2011,"▁quality":2012,"itiz":2013,"▁prom":2014,"▁Ar":2015,"ital":2016,"▁ide":2017,"ving":2018,"▁service":2019,"ier":2020,"▁cannot":2021,"ication":2022,"▁data":2023,"hor":2024,"▁certain":2025,"▁case":2026,"▁day":2027,"tle":2028,"urity":2029,"▁lif":2030,"▁art":2031,"ss":2032,"▁rev":2033,"▁che":2034,"eld":2035,"ately":2036,"▁Commissioner":2037,"▁contro":2038,"▁regard":2039,"ished":2040,"▁offers":2041,"▁question":2042,"▁fac":2043,"ank":2044,"com":2045,"ves":2046,"▁put":2047,"▁law":2048,"▁br":2049,"▁impro":2050,"ajor":2051,"lease":2052,"▁since":2053,"▁pur":2054,"▁But":2055,"▁meet":2056,"▁bo":2057,"fort":2058,"ix":2059,"▁eas":2060,"udget":2061,"▁At":2062,"app":2063,"▁inf":2064,"▁best":2065,"iving":2066,"ually":2067,"less":2068,"▁financial":2069,"▁citiz":2070,"arg":2071,"▁reason":2072,"▁during":2073,"inc":2074,"▁debate":2075,"▁nat":2076,"▁ach":2077,"▁ter":2078,"▁said":2079,"ccess":2080,"▁199":2081,"ock":2082,"▁issue":2083,"▁7":2084,"▁city":2085,"ered":2086,"▁proposal":2087,"▁means":2088,"▁respect":2089,"▁her":2090,"ird":2091,"▁saf":2092,"ains":2093,"▁10":2094,"▁cost":2095,"▁web":2096,"▁example":2097,"ather":2098,"▁0":2099,"▁beh":2100,"▁ask":2101,"▁prof":2102,"ars":2103,"▁large":2104,"▁ed":2105,"▁implement":2106,"ination":2107,"▁major":2108,"▁list":2109,"▁8":2110,"▁However":2111,"ining":2112,"▁dra":2113,"▁show":2114,"▁including":2115,"▁sect":2116,"▁found":2117,"▁elect":2118,"▁situation":2119,"que":2120,"▁necess":2121,"▁coop":2122,"▁9":2123,"ider":2124,"▁Our":2125,"ined":2126,"isation":2127,"ified":2128,"ivid":2129,"▁common":2130,"▁amend":2131,"▁And":2132,"▁ener":2133,"▁resol":2134,"▁es":2135,"▁With":2136,"ys":2137,"ina":2138,"iss":2139,"▁child":2140,"▁few":2141,"▁based":2142,"▁each":2143,"ways":2144,"▁fun":2145,"▁adop":2146,"ential":2147,"▁object":2148,"ability":2149,"ized":2150,"▁citizens":2151,"▁redu":2152,"ne":2153,"reed":2154,"▁Sp":2155,"▁sup":2156,"▁hist":2157,"lus":2158,"▁activ":2159,"mit":2160,"▁instit":2161,"pare":2162,"▁imp":2163,"imes":2164,"ilities":2165,"▁ret":2166,"▁Committee":2167,"▁rooms":2168,"men":2169,"▁democ":2170,"ware":2171,"▁cult":2172,"▁read":2173,"▁three":2174,"illion":2175,"▁measures":2176,"▁represent":2177,"▁invest":2178,"▁author":2179,"▁areas":2180,"▁employ":2181,"▁power":2182,"ivers":2183,"▁Intern":2184,"▁give":2185,"come":2186,"▁ensure":2187,"▁success":2188,"▁energy":2189,"▁next":2190,"▁opt":2191,"▁build":2192,"▁account":2193,"▁rece":2194,"ased":2195,"▁ty":2196,"▁further":2197,"ology":2198,"▁budget":2199,"▁grow":2200,"▁neg":2201,"ven":2202,"▁provide":2203,"ield":2204,"▁taken":2205,"ward":2206,"▁US":2207,"▁establ":2208,"▁agreement":2209,"▁dep":2210,"▁An":2211,"other":2212,"▁To":2213,"itional":2214,"ently":2215,"▁Is":2216,"▁Z":2217,"omen":2218,"▁stay":2219,"alf":2220,"itive":2221,"▁far":2222,"▁second":2223,"ann":2224,"▁pay":2225,"ium":2226,"ec":2227,"▁pass":2228,"joy":2229,"line":2230,"fic":2231,"eur":2232,"▁expl":2233,"aut":2234,"▁company":2235,"▁key":2236,"ising":2237,"ik":2238,"▁opport":2239,"ible":2240,"▁accept":2241,"▁come":2242,"▁problems":2243,"▁shall":2244,"▁necessary":2245,"▁fore":2246,"isl":2247,"▁somet":2248,"▁position":2249,"ases":2250,"▁change":2251,"ross":2252,"ests":2253,"nect":2254,"▁security":2255,"ules":2256,"oint":2257,"▁hope":2258,"az":2259,"aur":2260,"▁priv":2261,"▁princ":2262,"▁stud":2263,"reak":2264,"utes":2265,"▁health":2266,"▁given":2267,"▁why":2268,"▁init":2269,"▁pract":2270,"▁Le":2271,"▁however":2272,"tain":2273,"▁pres":2274,"stand":2275,"▁cooperation":2276,"▁old":2277,"obal":2278,"▁fil":2279,"▁ele":2280,"▁dr":2281,"▁invol":2282,"▁vote":2283,"ER":2284,"pecial":2285,"ond":2286,"raph":2287,"▁life":2288,"▁protection":2289,"here":2290,"▁wel":2291,"▁imm":2292,"▁while":2293,"riend":2294,"▁aff":2295,"▁did":2296,"▁complete":2297,"▁control":2298,"cell":2299,"▁tour":2300,"sibility":2301,"▁needs":2302,"▁pop":2303,"▁always":2304,"▁commun":2305,"▁close":2306,"▁legisl":2307,"▁sk":2308,"iety":2309,"▁name":2310,"▁exc":2311,"▁They":2312,"▁located":2313,"eng":2314,"▁individ":2315,"▁comb":2316,"eric":2317,"ante":2318,"▁strate":2319,"▁deal":2320,"▁happ":2321,"ize":2322,"agement":2323,"000":2324,"▁short":2325,"▁action":2326,"oad":2327,"▁ver":2328,"▁better":2329,"▁full":2330,"ave":2331,"▁&amp":2332,"▁&amp;":2333,"▁consum":2334,"cy":2335,"▁using":2336,"inal":2337,"ling":2338,"ference":2339,"▁fav":2340,"▁mus":2341,"▁What":2342,"ret":2343,"▁Group":2344,"wards":2345,"▁United":2346,"ek":2347,"▁less":2348,"▁visit":2349,"urg":2350,"▁consider":2351,"▁unt":2352,"cing":2353,"▁integ":2354,"▁cho":2355,"▁connect":2356,"▁lit":2357,"▁par":2358,"irm":2359,"rad":2360,"ury":2361,"▁15":2362,"▁net":2363,"▁working":2364,"▁production":2365,"▁Americ":2366,"▁So":2367,"ners":2368,"▁transport":2369,"▁pri":2370,"▁around":2371,"▁When":2372,"▁legal":2373,"au":2374,"▁crit":2375,"▁enjoy":2376,"▁Ex":2377,"▁specific":2378,"ung":2379,"▁chang":2380,"par":2381,"▁Mrs":2382,"▁word":2383,"ources":2384,"▁whether":2385,"ify":2386,"▁el":2387,"▁terms":2388,"▁particularly":2389,"▁Community":2390,"▁rapport":2391,"▁care":2392,"▁toget":2393,"▁together":2394,"sel":2395,"▁Ind":2396,"▁trade":2397,"▁become":2398,"▁step":2399,"ons":2400,"ins":2401,"▁subject":2402,"ises":2403,"▁rapporteur":2404,"por":2405,"▁making":2406,"▁Q":2407,"ficult":2408,"▁House":2409,"▁she":2410,"▁sing":2411,"iod":2412,"▁run":2413,"▁difficult":2414,"ale":2415,"▁These":2416,"▁field":2417,"▁modern":2418,"▁rese":2419,"▁individual":2420,"▁another":2421,"oura":2422,"gg":2423,"ands":2424,"▁global":2425,"▁Mad":2426,"aff":2427,"ets":2428,"▁contrib":2429,"anies":2430,"▁friend":2431,"▁whole":2432,"▁children":2433,"ims":2434,"▁proper":2435,"over":2436,"▁issues":2437,"▁12":2438,"▁bene":2439,"▁water":2440,"▁promot":2441,"▁plan":2442,"▁non":2443,"pecially":2444,"ights":2445,"orth":2446,"up":2447,"▁lim":2448,"▁exist":2449,"arante":2450,"▁centre":2451,"▁conditions":2452,"▁text":2453,"▁beg":2454,"olid":2455,"▁local":2456,"iation":2457,"▁address":2458,"▁sector":2459,"▁systems":2460,"ftware":2461,"▁third":2462,"▁equip":2463,"ense":2464,"iver":2465,"ocu":2466,"▁speak":2467,"fer":2468,"▁accord":2469,"▁various":2470,"▁role":2471,"inist":2472,"mental":2473,"▁industry":2474,"AR":2475,"▁commit":2476,"▁companies":2477,"▁guarante":2478,"▁tax":2479,"selves":2480,"▁experience":2481,"angu":2482,"▁women":2483,"▁month":2484,"▁basis":2485,"ively":2486,"▁##":2487,"▁writ":2488,"▁book":2489,"12":2490,"▁matter":2491,"ux":2492,"▁appe":2493,"▁near":2494,"▁occ":2495,"▁pack":2496,"▁Ad":2497,"▁18":2498,"▁especially":2499,"▁perform":2500,"reaty":2501,"▁gent":2502,"fact":2503,"▁sum":2504,"▁called":2505,"▁site":2506,"▁members":2507,"▁effort":2508,"reen":2509,"▁Cent":2510,"▁orig":2511,"▁done":2512,"▁ris":2513,"nov":2514,"▁Sw":2515,"▁break":2516,"▁discuss":2517,"imate":2518,"▁proced":2519,"▁research":2520,"▁fram":2521,"▁beaut":2522,"▁though":2523,"▁bed":2524,"▁negot":2525,"isions":2526,"▁move":2527,"▁German":2528,"▁really":2529,"▁gentle":2530,"▁Be":2531,"▁bro":2532,"▁create":2533,"thing":2534,"▁region":2535,"10":2536,"aterial":2537,"▁pat":2538,"▁top":2539,"ived":2540,"▁docu":2541,"▁Ag":2542,"▁wish":2543,"▁prior":2544,"▁period":2545,"ilit":2546,"▁feat":2547,"ique":2548,"▁strong":2549,"▁improve":2550,"▁press":2551,"ences":2552,"▁war":2553,"▁arr":2554,"▁z":2555,"rodu":2556,"▁food":2557,"▁No":2558,"▁turn":2559,"oney":2560,"ances":2561,"▁sever":2562,"icient":2563,"▁decision":2564,"▁government":2565,"ety":2566,"ption":2567,"ah":2568,"ool":2569,"ours":2570,"▁million":2571,"▁Go":2572,"ended":2573,"adies":2574,"▁among":2575,"▁Pl":2576,"▁Sh":2577,"▁comfort":2578,"▁thank":2579,"ization":2580,"▁something":2581,"▁struct":2582,"▁resolution":2583,"▁ann":2584,"▁job":2585,"▁page":2586,"▁itself":2587,"▁ple":2588,"▁eng":2589,"▁several":2590,"▁single":2591,"▁langu":2592,"ogn":2593,"▁restaur":2594,"ications":2595,"▁general":2596,"tic":2597,"▁excell":2598,"co":2599,"ending":2600,"atic":2601,"▁line":2602,"▁programme":2603,"asing":2604,"▁initi":2605,"▁continue":2606,"▁home":2607,"▁personal":2608,"▁lab":2609,"▁gentlemen":2610,"▁Germany":2611,"OR":2612,"▁webs":2613,"▁netw":2614,"▁material":2615,"▁mult":2616,"▁Fin":2617,"▁contact":2618,"▁let":2619,"▁introdu":2620,"▁going":2621,"ories":2622,"▁dou":2623,"▁enc":2624,"ishing":2625,"▁serious":2626,"▁management":2627,"▁town":2628,"isis":2629,"▁often":2630,"ither":2631,"▁detail":2632,"ped":2633,"ably":2634,"▁peace":2635,"room":2636,"▁opin":2637,"▁directive":2638,"iple":2639,"▁relations":2640,"▁adm":2641,"▁Bar":2642,"▁sl":2643,"outh":2644,"▁gr":2645,"ody":2646,"ST":2647,"pri":2648,"ework":2649,"▁least":2650,"▁ve":2651,"▁rules":2652,"▁following":2653,"▁mot":2654,"▁kind":2655,"ification":2656,"ricult":2657,"▁understand":2658,"▁benef":2659,"▁En":2660,"ipl":2661,"rand":2662,"▁crisis":2663,"ror":2664,"▁Pol":2665,"▁forward":2666,"▁range":2667,"ried":2668,"▁away":2669,"▁family":2670,"▁particip":2671,"side":2672,"leg":2673,"▁reform":2674,"▁class":2675,"▁negoti":2676,"▁towards":2677,"lev":2678,"ash":2679,"ared":2680,"▁hard":2681,"▁bar":2682,"▁mention":2683,"▁progress":2684,"▁Com":2685,"▁once":2686,"▁welcome":2687,"ering":2688,"▁ess":2689,"▁express":2690,"▁char":2691,"▁Tur":2692,"▁feel":2693,"though":2694,"▁bal":2695,"▁recogn":2696,"▁tot":2697,"▁software":2698,"▁Madam":2699,"▁money":2700,"▁et":2701,"▁review":2702,"▁things":2703,"▁customers":2704,"▁apart":2705,"▁institutions":2706,"rict":2707,"▁Cl":2708,"▁30":2709,"▁excellent":2710,"▁aid":2711,"▁until":2712,"▁price":2713,"ister":2714,"▁expect":2715,"▁sw":2716,"▁Treaty":2717,"▁location":2718,"▁&apos;t":2719,"▁Af":2720,"▁colle":2721,"▁keep":2722,"▁known":2723,"▁post":2724,"▁favour":2725,"▁little":2726,"▁days":2727,"▁Mon":2728,"▁Ap":2729,"▁install":2730,"▁approach":2731,"▁Mar":2732,"iol":2733,"airs":2734,"▁staff":2735,"ze":2736,"▁begin":2737,"▁extre":2738,"▁increase":2739,"▁opportunity":2740,"aps":2741,"▁bring":2742,"idency":2743,"▁function":2744,"▁him":2745,"▁profess":2746,"▁Members":2747,"▁achieve":2748,"sequ":2749,"oor":2750,"way":2751,"▁private":2752,"▁activities":2753,"atives":2754,"fect":2755,"▁Ital":2756,"▁clos":2757,"ator":2758,"▁suff":2759,"▁2009":2760,"▁rather":2761,"by":2762,"iful":2763,"ping":2764,"vention":2765,"istic":2766,"▁partners":2767,"eed":2768,"▁Pr":2769,"most":2770,"gt":2771,"▁resources":2772,"▁mean":2773,"▁New":2774,"ters":2775,"osp":2776,"▁app":2777,"ides":2778,"▁try":2779,"ians":2780,"▁quite":2781,"▁growth":2782,"▁tre":2783,"▁treat":2784,"▁wide":2785,"▁provided":2786,"▁fully":2787,"reedom":2788,"▁dev":2789,"▁State":2790,"▁foc":2791,"itor":2792,"text":2793,"▁might":2794,"▁seem":2795,"▁Gu":2796,"▁big":2797,"na":2798,"racy":2799,"ery":2800,"▁tas":2801,"▁walk":2802,"▁technology":2803,"▁ladies":2804,"▁four":2805,"▁request":2806,"▁port":2807,"▁Sc":2808,"mb":2809,"▁signific":2810,"af":2811,"▁light":2812,"▁yet":2813,"▁hig":2814,"▁proposals":2815,"▁aim":2816,"▁value":2817,"▁amendments":2818,"▁travel":2819,"mber":2820,"▁stat":2821,"aces":2822,"▁Fr":2823,"erg":2824,"▁include":2825,"▁Te":2826,"▁bord":2827,"▁left":2828,"▁educ":2829,"▁Wor":2830,"ront":2831,"▁phot":2832,"▁heart":2833,"▁having":2834,"▁After":2835,"ule":2836,"▁solution":2837,"▁safety":2838,"fast":2839,"▁Or":2840,"▁framework":2841,"▁along":2842,"▁taking":2843,"ratic":2844,"▁stren":2845,"▁remain":2846,"▁regul":2847,"▁event":2848,"▁instru":2849,"▁Ro":2850,"pose":2851,"idence":2852,"▁sat":2853,"irc":2854,"▁costs":2855,"fully":2856,"▁above":2857,"▁adopted":2858,"icial":2859,"▁abs":2860,"▁times":2861,"▁ear":2862,"▁Pal":2863,"▁content":2864,"▁essential":2865,"▁addition":2866,"▁creat":2867,"▁recomm":2868,"124":2869,"▁viol":2870,"▁men":2871,"ND":2872,"▁test":2873,"▁week":2874,"▁past":2875,"▁i":2876,"▁histor":2877,"▁makes":2878,"▁extreme":2879,"uge":2880,"▁&#124":2881,"▁&#124;":2882,"aster":2883,"▁opinion":2884,"▁shop":2885,"▁behalf":2886,"▁agricult":2887,"▁economy":2888,"sw":2889,"▁tool":2890,"▁beautiful":2891,"▁entire":2892,"ames":2893,"▁building":2894,"▁fail":2895,"▁legislation":2896,"▁head":2897,"ival":2898,"▁focus":2899,"SC":2900,"▁dest":2901,"rated":2902,"▁chall":2903,"iting":2904,"▁charact":2905,"▁application":2906,"ilt":2907,"lish":2908,"▁effective":2909,"▁projects":2910,"▁others":2911,"▁results":2912,"ites":2913,"▁easy":2914,"▁context":2915,"▁points":2916,"imum":2917,"▁Sch":2918,"ivil":2919,"▁website":2920,"▁provides":2921,"▁freedom":2922,"▁sure":2923,"epend":2924,"▁never":2925,"hod":2926,"▁return":2927,"orn":2928,"▁minutes":2929,"▁Med":2930,"▁concerned":2931,"▁responsibility":2932,"ension":2933,"▁attention":2934,"▁compl":2935,"▁Eng":2936,"▁prec":2937,"lin":2938,"▁One":2939,"▁perfect":2940,".com":2941,"stit":2942,"stain":2943,"▁er":2944,"▁autom":2945,"lex":2946,"▁simply":2947,"▁tar":2948,"▁team":2949,"▁park":2950,"oot":2951,"▁appropri":2952,"▁due":2953,"▁policies":2954,"amental":2955,"▁importance":2956,"▁China":2957,"▁questions":2958,"▁11":2959,"ledge":2960,"ode":2961,"ufact":2962,"▁groups":2963,"▁house":2964,"▁farm":2965,"▁ident":2966,"▁reach":2967,"gu":2968,"▁prevent":2969,"ows":2970,"▁sty":2971,"▁young":2972,"▁X":2973,"▁lot":2974,"isc":2975,"▁enter":2976,"▁environmental":2977,"▁Min":2978,"load":2979,"▁society":2980,"▁bath":2981,"▁tem":2982,"▁Rom":2983,"mes":2984,"rate":2985,"bon":2986,"ior":2987,"▁continu":2988,"▁greater":2989,"▁strategy":2990,"▁host":2991,"▁innov":2992,"▁Res":2993,"▁World":2994,"word":2995,"▁win":2996,"mer":2997,"▁road":2998,"ceed":2999,"▁anal":3000,"▁perm":3001,"ncy":3002,"▁natural":3003,"▁version":3004,"▁increasing":3005,"▁typ":3006,"▁mount":3007,"▁holid":3008,"▁check":3009,"▁sch":3010,"▁principle":3011,"▁standards":3012,"▁Des":3013,"man":3014,"▁achie":3015,"▁talk":3016,"▁cred":3017,"▁25":3018,"edi":3019,"▁sea":3020,"▁amount":3021,"▁manufact":3022,"ured":3023,"▁euro":3024,"idd":3025,"▁Part":3026,"of":3027,"▁14":3028,"▁mach":3029,"▁risk":3030,"▁16":3031,"▁pot":3032,"▁answ":3033,"▁words":3034,"▁method":3035,"ler":3036,"▁Reg":3037,"▁required":3038,"▁training":3039,"▁significant":3040,"▁Internet":3041,"lig":3042,"▁clearly":3043,"▁EUR":3044,"▁via":3045,"▁sal":3046,"duct":3047,"▁lear":3048,"▁meeting":3049,"▁authorities":3050,"▁won":3051,"▁Can":3052,"▁super":3053,"▁technical":3054,"▁Aust":3055,"▁quick":3056,"▁works":3057,"ological":3058,"ators":3059,"▁network":3060,"ruction":3061,"▁demand":3062,"▁cou":3063,"▁My":3064,"▁link":3065,"ike":3066,"▁Off":3067,"rop":3068,"▁user":3069,"ided":3070,"ograph":3071,"▁assist":3072,"▁music":3073,"use":3074,"▁side":3075,"▁administ":3076,"▁century":3077,"▁stop":3078,"to":3079,"▁aware":3080,"ats":3081,"▁Bl":3082,"iversity":3083,"▁recent":3084,"▁pages":3085,"for":3086,"▁central":3087,"▁share":3088,"▁La":3089,"▁according":3090,"▁aspect":3091,"arity":3092,"rist":3093,"▁larg":3094,"▁sugg":3095,"▁cultural":3096,"▁standard":3097,"▁capital":3098,"▁ban":3099,"ateg":3100,"▁internal":3101,"hib":3102,"rect":3103,"▁dial":3104,"▁gra":3105,"▁solutions":3106,"▁safe":3107,"▁independ":3108,"▁distrib":3109,"▁directly":3110,"ients":3111,"▁employment":3112,"une":3113,"▁log":3114,"▁positive":3115,"▁responsible":3116,"▁proposed":3117,"▁months":3118,"▁longer":3119,"▁infl":3120,"ensive":3121,"▁circ":3122,"ring":3123,"▁fight":3124,"▁currently":3125,"▁arch":3126,"▁nature":3127,"▁desc":3128,"che":3129,"▁requirements":3130,"▁affect":3131,"▁2010":3132,"▁Man":3133,"▁mom":3134,"▁interests":3135,"ean":3136,"ports":3137,"oss":3138,"▁history":3139,"▁regions":3140,"▁subs":3141,"▁sustain":3142,"▁events":3143,"▁2008":3144,"▁enough":3145,"▁guests":3146,"▁relax":3147,"▁record":3148,"▁apply":3149,"▁civil":3150,"▁involved":3151,"▁lat":3152,"▁Russ":3153,"ead":3154,"▁character":3155,"▁Please":3156,"▁developed":3157,"▁needed":3158,"▁voted":3159,"▁themselves":3160,"▁don":3161,"▁vol":3162,"▁total":3163,"▁democracy":3164,"▁fundamental":3165,"arian":3166,"▁parties":3167,"▁regulation":3168,"▁Afric":3169,"ored":3170,"▁competition":3171,"▁17":3172,"▁online":3173,"▁implementation":3174,"▁refer":3175,"▁happen":3176,"▁dam":3177,"▁night":3178,"▁mar":3179,"▁select":3180,"▁vill":3181,"▁related":3182,"▁guarantee":3183,"anced":3184,"▁mov":3185,"▁dom":3186,"go":3187,"▁force":3188,"erous":3189,"▁efforts":3190,"▁13":3191,"▁please":3192,"▁foreign":3193,"uly":3194,"▁From":3195,"ogue":3196,"▁categ":3197,"ached":3198,"ien":3199,"▁pub":3200,"▁upon":3201,"▁Qu":3202,"▁item":3203,"▁contain":3204,"▁24":3205,"▁low":3206,"▁language":3207,"▁Russia":3208,"▁extremely":3209,"▁live":3210,"ca":3211,"▁Serv":3212,"▁changes":3213,"▁First":3214,"▁facilities":3215,"▁ago":3216,"amb":3217,"iter":3218,"▁gen":3219,"▁stre":3220,"lear":3221,"acy":3222,"▁comput":3223,"▁mob":3224,"▁date":3225,"aged":3226,"▁caus":3227,"▁contract":3228,"▁document":3229,"▁Air":3230,"▁anim":3231,"▁hold":3232,"▁views":3233,"ria":3234,"▁constit":3235,"▁etc":3236,"▁reserv":3237,"rench":3238,"▁soon":3239,"▁target":3240,"▁camp":3241,"▁negotiations":3242,"▁establish":3243,"▁cases":3244,"▁harm":3245,"▁previous":3246,"▁Port":3247,"ming":3248,"ton":3249,"▁unique":3250,"▁comes":3251,"▁cut":3252,"▁International":3253,"▁oppos":3254,"▁either":3255,"▁Govern":3256,"ired":3257,"▁prepare":3258,"▁50":3259,"key":3260,"atory":3261,"▁submit":3262,"ires":3263,"ibility":3264,"▁terror":3265,"▁breakfast":3266,"ommod":3267,"▁democratic":3268,"▁mess":3269,"▁maintain":3270,"▁developing":3271,"▁markets":3272,"▁More":3273,"▁Ber":3274,"▁broad":3275,"▁May":3276,"▁sound":3277,"▁subst":3278,"▁draw":3279,"▁pool":3280,"▁Presidency":3281,"▁created":3282,"▁states":3283,"▁100":3284,"▁regional":3285,"▁mind":3286,"▁wind":3287,"ression":3288,"▁final":3289,"ged":3290,"▁Tr":3291,"▁situated":3292,"▁education":3293,"ony":3294,"▁der":3295,"▁2007":3296,"▁cong":3297,"▁cat":3298,"▁Not":3299,"▁surround":3300,"aced":3301,"▁suggest":3302,"▁milit":3303,"▁true":3304,"▁type":3305,"▁clean":3306,"▁ground":3307,"▁Sy":3308,"▁additional":3309,"aper":3310,"▁attract":3311,"▁later":3312,"self":3313,"▁Bel":3314,"utional":3315,"▁everything":3316,"▁By":3317,"▁prices":3318,"▁living":3319,"▁climate":3320,"▁pict":3321,"▁recommend":3322,"▁Direct":3323,"▁beach":3324,"ti":3325,"rim":3326,"▁ship":3327,"rip":3328,"▁jo":3329,"▁emph":3330,"gthen":3331,"▁almost":3332,"▁French":3333,"▁immedi":3334,"▁Su":3335,"▁thus":3336,"▁actually":3337,"▁transpare":3338,"▁receive":3339,"▁‘":3340,"▁looking":3341,"haps":3342,"▁fair":3343,"isher":3344,"▁famous":3345,"oid":3346,"▁Brit":3347,"▁file":3348,"▁seen":3349,"ulate":3350,"▁enl":3351,"▁land":3352,"▁idea":3353,"▁rate":3354,"▁knowledge":3355,"▁encoura":3356,"▁held":3357,"▁included":3358,"▁strengthen":3359,"▁appropriate":3360,"abled":3361,"de":3362,"▁accommod":3363,"▁news":3364,"ots":3365,"▁Par":3366,"ctions":3367,"▁funds":3368,"▁restaurant":3369,"▁official":3370,"ception":3371,"▁Do":3372,"▁cal":3373,"▁designed":3374,"▁procedure":3375,"▁five":3376,"▁moment":3377,"▁send":3378,"▁oblig":3379,"ource":3380,"▁mass":3381,"▁station":3382,"▁school":3383,"▁determ":3384,"be":3385,"▁mail":3386,"▁Rep":3387,"▁consult":3388,"empt":3389,"▁workers":3390,"▁assoc":3391,"▁Soc":3392,"▁France":3393,"▁majority":3394,"yc":3395,"rial":3396,"▁lack":3397,"eria":3398,"▁thing":3399,"▁2000":3400,"STAR":3401,"▁Me":3402,"▁conv":3403,"▁island":3404,"▁impact":3405,"▁comfortable":3406,"▁mor":3407,"ches":3408,"▁outside":3409,"▁professional":3410,"ison":3411,"▁customer":3412,"▁ideal":3413,"ms":3414,"▁communication":3415,"▁features":3416,"▁exch":3417,"▁emphas":3418,"▁collect":3419,"▁##STAR":3420,"▁##STAR##":3421,"inks":3422,"▁throughout":3423,"ino":3424,"▁Cour":3425,"▁hon":3426,"ai":3427,"▁users":3428,"icated":3429,"▁cop":3430,"▁takes":3431,"▁Ph":3432,"ilar":3433,"▁Br":3434,"▁doing":3435,"▁exclus":3436,"▁colleag":3437,"▁mentioned":3438,"onst":3439,"▁certainly":3440,"▁download":3441,"▁draft":3442,"▁rad":3443,"▁parts":3444,"▁Cont":3445,"▁ce":3446,"▁space":3447,"ternal":3448,"▁transl":3449,"▁hours":3450,"▁potential":3451,"▁obs":3452,"IN":3453,"▁Christ":3454,"▁mag":3455,"ORE":3456,"▁traditional":3457,"▁Lis":3458,"▁Fund":3459,"▁across":3460,"▁existing":3461,"▁early":3462,"let":3463,"▁correct":3464,"▁consequ":3465,"▁displ":3466,"▁commer":3467,"▁extra":3468,"▁ever":3469,"▁friendly":3470,"▁concept":3471,"▁joint":3472,"bo":3473,"▁American":3474,"aring":3475,"▁concerns":3476,"ables":3477,"ici":3478,"▁adopt":3479,"▁investment":3480,"▁programmes":3481,"▁Room":3482,"▁vide":3483,"▁built":3484,"inary":3485,"▁EC":3486,"▁amb":3487,"▁Turkey":3488,"▁cross":3489,"▁guest":3490,"▁performance":3491,"▁Co":3492,"▁leading":3493,"▁took":3494,"rast":3495,"erc":3496,"atically":3497,"▁connection":3498,"▁although":3499,"▁coord":3500,"▁complex":3501,"fortun":3502,"▁monitor":3503,"ON":3504,"▁party":3505,"▁concerning":3506,"▁member":3507,"▁Let":3508,"▁writing":3509,"▁reasons":3510,"▁decisions":3511,"▁completely":3512,"▁threat":3513,"▁Government":3514,"▁established":3515,"den":3516,"▁committee":3517,"▁flex":3518,"AN":3519,"▁game":3520,"▁conflic":3521,"▁demonst":3522,"▁model":3523,"▁community":3524,"▁card":3525,"ster":3526,"▁assess":3527,"chan":3528,"▁km":3529,"▁military":3530,"▁Aff":3531,"▁cla":3532,"iable":3533,"▁nothing":3534,"▁Bo":3535,"▁TV":3536,"▁+":3537,"ef":3538,"nces":3539,"▁decl":3540,"▁population":3541,"bour":3542,"UND":3543,"▁agreements":3544,"▁practice":3545,"▁Jan":3546,"▁sent":3547,"▁allows":3548,"▁repl":3549,"▁includes":3550,"▁UN":3551,"▁Since":3552,"▁basic":3553,"▁original":3554,"▁culture":3555,"▁initiative":3556,"▁media":3557,"ones":3558,"▁equipped":3559,"▁body":3560,"▁holiday":3561,"▁separ":3562,"▁fall":3563,"▁becom":3564,"▁wr":3565,"▁depend":3566,"▁speed":3567,"▁upd":3568,"▁Col":3569,"▁fre":3570,"▁advant":3571,"▁tell":3572,"▁objectives":3573,"▁conclus":3574,"▁2006":3575,"▁solid":3576,"▁front":3577,"vert":3578,"cel":3579,"eb":3580,"▁values":3581,"▁half":3582,"iab":3583,",000":3584,"▁star":3585,"▁Lisbon":3586,"▁Ass":3587,"itable":3588,"uted":3589,"▁received":3590,"▁00":3591,"▁Office":3592,"▁jobs":3593,"▁firm":3594,"rag":3595,"▁satis":3596,"ature":3597,"urs":3598,"rael":3599,"oph":3600,"erve":3601,"▁ten":3602,"▁package":3603,"▁South":3604,"unities":3605,"UNDER":3606,"▁applications":3607,"▁Sec":3608,"▁choice":3609,"▁sens":3610,"▁agricultural":3611,"▁confirm":3612,"▁Israel":3613,"▁equipment":3614,"▁files":3615,"▁Court":3616,"▁capac":3617,"▁liber":3618,"▁Just":3619,"▁regarding":3620,"▁Here":3621,"▁benefit":3622,"aches":3623,"▁strateg":3624,"▁##UNDER":3625,"SCORE":3626,"▁##UNDERSCORE":3627,"▁##UNDERSCORE##":3628,"▁English":3629,"▁objective":3630,"▁jud":3631,"▁keyword":3632,"pite":3633,"▁condition":3634,"▁publ":3635,"rary":3636,"▁America":3637,"▁198":3638,"▁Ne":3639,"▁search":3640,"▁doub":3641,"▁efficient":3642,"▁purch":3643,"iddle":3644,"▁reports":3645,"ley":3646,"▁Artic":3647,"▁wat":3648,"▁quickly":3649,"iance":3650,"▁image":3651,"yn":3652,"aging":3653,"▁self":3654,"▁suppl":3655,"anish":3656,"▁impos":3657,"▁aud":3658,"enda":3659,"urb":3660,"▁goods":3661,"vious":3662,"▁Now":3663,"▁style":3664,"ush":3665,"▁print":3666,"▁transfer":3667,"▁dire":3668,"▁simple":3669,"estern":3670,"▁defin":3671,"▁industrial":3672,"▁wa":3673,"▁click":3674,"ee":3675,"▁treatment":3676,"▁below":3677,"▁engine":3678,"▁Fl":3679,"ott":3680,"▁achieved":3681,"▁face":3682,"▁mechan":3683,"▁influ":3684,"uclear":3685,"▁contains":3686,"▁computer":3687,"▁experi":3688,"iveness":3689,"▁sense":3690,"ills":3691,"▁attack":3692,"▁gard":3693,"▁regist":3694,"▁congrat":3695,"more":3696,"amic":3697,"▁huge":3698,"iples":3699,"▁indeed":3700,"▁pleas":3701,"▁rail":3702,"ned":3703,"▁sun":3704,"ying":3705,"▁qual":3706,"▁Affairs":3707,"▁Gree":3708,"▁urg":3709,"sian":3710,"▁Finally":3711,"olute":3712,"▁seems":3713,"▁Amend":3714,"▁internet":3715,"▁cru":3716,"▁oil":3717,"▁popular":3718,"yl":3719,"▁di":3720,"20":3721,"▁vict":3722,"▁carry":3723,"▁Im":3724,"▁successful":3725,"▁dialogue":3726,"raft":3727,"▁leaders":3728,"▁active":3729,"▁recently":3730,"▁cover":3731,"▁beginning":3732,"▁Comp":3733,"ees":3734,"▁dig":3735,"▁stage":3736,"▁answer":3737,"▁June":3738,"just":3739,"ude":3740,"▁presented":3741,"▁highly":3742,"hic":3743,"▁analys":3744,"▁commercial":3745,"aving":3746,"▁comprom":3747,"▁age":3748,"▁scient":3749,"lection":3750,"▁border":3751,"▁series":3752,"▁seek":3753,"▁integration":3754,"▁Gener":3755,"fortunately":3756,"▁Some":3757,"▁warm":3758,"▁everyone":3759,"▁center":3760,"▁levels":3761,"▁consumers":3762,"aid":3763,"heless":3764,"▁famil":3765,"▁carried":3766,"▁Berlin":3767,"▁�":3768,"ges":3769,"olf":3770,"▁bank":3771,"▁cam":3772,"▁increased":3773,"mosp":3774,"▁East":3775,"▁il":3776,"rap":3777,"ched":3778,"▁amendment":3779,"ript":3780,"▁agreed":3781,"▁reviews":3782,"ta":3783,"▁attempt":3784,"▁governments":3785,"▁Pe":3786,"▁origin":3787,"▁Further":3788,"▁office":3789,"▁enlarge":3790,"face":3791,"▁principles":3792,"▁traff":3793,"▁absolute":3794,"▁whose":3795,"▁atmosp":3796,"▁floor":3797,"▁six":3798,"▁supply":3799,"▁Therefore":3800,"▁former":3801,"▁dang":3802,".5":3803,"▁added":3804,"▁choose":3805,"▁furn":3806,"eral":3807,"▁commitment":3808,"resh":3809,"▁Fran":3810,"▁direction":3811,"icro":3812,"▁ste":3813,"▁vir":3814,"▁higher":3815,"▁challeng":3816,"ij":3817,"itect":3818,"▁subsid":3819,"▁perhaps":3820,"▁ord":3821,"▁den":3822,"iles":3823,"▁shows":3824,"alu":3825,"▁shown":3826,"▁Second":3827,"▁nuclear":3828,"orrow":3829,"▁matters":3830,"hens":3831,"▁vehic":3832,"▁asked":3833,"▁reflect":3834,"▁Article":3835,"▁pain":3836,"▁ren":3837,"▁cohe":3838,"▁thanks":3839,"▁tele":3840,"▁relev":3841,"era":3842,"▁avoid":3843,"▁foot":3844,"▁DE":3845,"idered":3846,"▁double":3847,"▁effects":3848,"▁aspects":3849,"▁Dem":3850,"▁max":3851,"▁enable":3852,"▁promote":3853,"iber":3854,"▁stress":3855,"▁consist":3856,"▁23":3857,"▁note":3858,"▁hy":3859,"▁obtain":3860,"▁considered":3861,"▁exchange":3862,"▁size":3863,"race":3864,"▁Ser":3865,"rought":3866,"▁similar":3867,"▁table":3868,"▁latest":3869,"▁altern":3870,"igration":3871,"wise":3872,"▁prepared":3873,"▁opportunities":3874,"itz":3875,"ously":3876,"▁2005":3877,"ania":3878,"▁®":3879,"unch":3880,"▁Social":3881,"▁possibility":3882,"EN":3883,"▁setting":3884,"▁coll":3885,"▁ill":3886,"urch":3887,"uary":3888,"▁behind":3889,"▁Web":3890,"▁materials":3891,"illed":3892,"▁lo":3893,"▁came":3894,"▁reached":3895,"▁Spain":3896,"▁pressure":3897,"▁prim":3898,"▁pan":3899,"▁external":3900,"▁creation":3901,"▁response":3902,"ployment":3903,"▁exhib":3904,"issions":3905,"▁Acc":3906,"ground":3907,"▁40":3908,"▁norm":3909,".0":3910,"rec":3911,"▁Em":3912,"rid":3913,"hest":3914,"▁ut":3915,"▁sustainable":3916,"▁rates":3917,"▁artic":3918,"▁capacity":3919,"▁providing":3920,"ma":3921,"▁lay":3922,"▁wonder":3923,"▁submitted":3924,"▁easily":3925,"▁death":3926,"▁reduce":3927,"▁reject":3928,"encies":3929,"▁decided":3930,"▁Sept":3931,"▁Ab":3932,"ana":3933,"▁red":3934,"arily":3935,"oh":3936,"▁coming":3937,"▁emb":3938,"▁21":3939,"apan":3940,"▁hotels":3941,"▁enlargement":3942,"▁emerg":3943,"▁fit":3944,"▁summer":3945,"▁Val":3946,"nter":3947,"▁ge":3948,"▁precise":3949,"▁atmosphere":3950,"▁priority":3951,"ona":3952,"▁Republic":3953,"▁gives":3954,"la":3955,"inated":3956,"rade":3957,"▁accommodation":3958,"▁actions":3959,"▁love":3960,"▁nice":3961,"▁Central":3962,"▁charg":3963,"cember":3964,"▁details":3965,"OM":3966,"▁Net":3967,"▁Italy":3968,"▁closed":3969,"▁round":3970,"ussion":3971,"▁regular":3972,"▁Wind":3973,"▁Of":3974,"▁San":3975,"▁remains":3976,"▁neigh":3977,"sibilities":3978,"ologies":3979,"▁operation":3980,"▁consumer":3981,"▁funding":3982,"▁board":3983,"▁September":3984,"▁display":3985,"▁December":3986,"chen":3987,"iers":3988,"▁cause":3989,"ira":3990,"▁supported":3991,"▁balance":3992,"omp":3993,"▁2004":3994,"▁Africa":3995,"▁deg":3996,"▁pow":3997,"▁grant":3998,"▁Japan":3999,"▁manufacture":4000,"▁independent":4001,"▁places":4002,"▁Oct":4003,"light":4004,"antly":4005,"ane":4006,"iterran":4007,"▁purpose":4008,"▁$":4009,"istics":4010,"▁sites":4011,"▁bathroom":4012,"ening":4013,"▁billion":4014,"▁fig":4015,"▁architect":4016,"▁leave":4017,"▁Convention":4018,"▁assistance":4019,"▁describ":4020,"▁video":4021,"▁property":4022,"▁conduct":4023,"equ":4024,"▁limited":4025,"iated":4026,"▁Bank":4027,"val":4028,"astic":4029,"▁movement":4030,"etary":4031,"▁conclud":4032,"▁appear":4033,"ores":4034,"▁forms":4035,"▁Tod":4036,"ober":4037,"▁charge":4038,"▁regulations":4039,"ume":4040,"▁prepar":4041,"iterranean":4042,"▁adap":4043,"▁creating":4044,"ift":4045,"▁categories":4046,"gen":4047,"▁rule":4048,"ese":4049,"▁March":4050,"arth":4051,"▁pleased":4052,"▁relevant":4053,"▁brought":4054,"▁produced":4055,"▁flow":4056,"pid":4057,"▁Tra":4058,"▁fa":4059,"▁Che":4060,"▁Per":4061,"▁largest":4062,"▁green":4063,"▁credit":4064,"▁organis":4065,"▁spir":4066,"▁fisher":4067,"▁territ":4068,"ief":4069,"▁January":4070,"▁lic":4071,"oll":4072,"▁construction":4073,"▁acqu":4074,"ream":4075,"▁else":4076,"▁compre":4077,"▁II":4078,"▁exec":4079,"iciency":4080,"▁discussion":4081,"▁Book":4082,"ote":4083,"▁measure":4084,"where":4085,"▁variety":4086,"50":4087,"ging":4088,"▁message":4089,"▁conference":4090,"▁Develop":4091,"▁Trans":4092,"imately":4093,"▁deep":4094,"▁except":4095,"iture":4096,"▁thous":4097,"uff":4098,"▁instead":4099,"▁source":4100,"aries":4101,"▁Cons":4102,"dom":4103,"▁October":4104,"▁friends":4105,"▁fishing":4106,"ES":4107,"▁became":4108,"▁Mediterranean":4109,"▁Italian":4110,"▁stability":4111,"▁Car":4112,"▁pros":4113,"▁El":4114,"▁repe":4115,"▁train":4116,"▁obvious":4117,"▁interesting":4118,"raq":4119,"ronic":4120,"▁regards":4121,"▁ways":4122,"burg":4123,"▁2003":4124,"IT":4125,"▁wood":4126,"▁relationship":4127,"▁parliament":4128,"▁started":4129,"▁guid":4130,"umb":4131,"▁National":4132,"▁dut":4133,"▁Minister":4134,"▁procedures":4135,"prise":4136,"▁British":4137,"▁compromise":4138,"▁produce":4139,"▁medium":4140,"lands":4141,"▁Service":4142,"▁task":4143,"▁steps":4144,".2":4145,"▁Today":4146,"▁compon":4147,"▁hous":4148,"▁bit":4149,"ties":4150,"▁depart":4151,"▁allowed":4152,"▁activity":4153,"▁study":4154,"▁option":4155,"gar":4156,"▁contribution":4157,"▁prob":4158,"▁base":4159,"aily":4160,"elling":4161,"▁Park":4162,"▁Every":4163,".1":4164,"▁Sl":4165,"org":4166,"▁North":4167,"▁partner":4168,"▁jour":4169,"▁status":4170,"rol":4171,"▁provisions":4172,"▁optim":4173,"▁exact":4174,"▁22":4175,"▁Ge":4176,"▁instruments":4177,"▁written":4178,"▁damage":4179,"porary":4180,"▁giving":4181,"yond":4182,"▁relation":4183,"▁purs":4184,"▁coast":4185,"▁quiet":4186,"▁limit":4187,"▁criteria":4188,"uel":4189,"enced":4190,"▁labour":4191,"▁ourselves":4192,"▁During":4193,"▁restaurants":4194,"▁documents":4195,"▁gain":4196,"oking":4197,"▁statement":4198,"ex":4199,"▁violence":4200,"▁fast":4201,"rs":4202,"▁War":4203,"ivity":4204,"IS":4205,"▁Spanish":4206,"▁tom":4207,"▁mountain":4208,"vere":4209,"▁pen":4210,"▁apartment":4211,"▁distance":4212,"▁bat":4213,"▁led":4214,"▁relig":4215,"▁July":4216,"▁General":4217,"enge":4218,"▁film":4219,"▁IT":4220,"▁minor":4221,"▁historical":4222,"ras":4223,"▁section":4224,"orks":4225,"▁code":4226,"mark":4227,"▁path":4228,"▁worth":4229,"▁airport":4230,"▁types":4231,"▁dise":4232,"ellow":4233,"ada":4234,"ened":4235,"▁structure":4236,"▁loss":4237,"rug":4238,"put":4239,"▁benefits":4240,"▁dim":4241,"▁rent":4242,"ding":4243,"▁wine":4244,"▁integrated":4245,"▁Democ":4246,"▁Aut":4247,"▁Many":4248,"▁2001":4249,"▁transparency":4250,"▁mechanism":4251,"▁highest":4252,"itude":4253,"▁Mark":4254,"ixed":4255,"icate":4256,"▁swim":4257,"▁000":4258,"IC":4259,"▁immediately":4260,"▁kit":4261,"▁elements":4262,"▁village":4263,"antic":4264,"cent":4265,"rian":4266,"▁distribution":4267,"zz":4268,"▁Rights":4269,"ental":4270,"▁useful":4271,"hold":4272,"▁nor":4273,"olution":4274,"wide":4275,"▁Sal":4276,"▁finally":4277,"orpor":4278,"▁sus":4279,"▁employees":4280,"▁€":4281,"▁payment":4282,"▁evalu":4283,"▁Nove":4284,"▁legislative":4285,"▁Furthermore":4286,"▁ski":4287,"istan":4288,"▁rich":4289,"▁agenda":4290,"▁liberal":4291,"▁drive":4292,"▁trip":4293,"▁197":4294,"ses":4295,"▁Although":4296,"▁cand":4297,"▁numerous":4298,"▁growing":4299,"▁applied":4300,"▁Iraq":4301,"▁sou":4302,"▁equal":4303,"▁quot":4304,"▁reading":4305,"ger":4306,"vent":4307,"▁poor":4308,"▁elections":4309,"▁November":4310,"quare":4311,"▁rat":4312,"ager":4313,"ishes":4314,"▁processes":4315,"▁gas":4316,"reg":4317,"▁solidarity":4318,"▁challenges":4319,"▁pover":4320,"▁sufficient":4321,"▁Swed":4322,"ica":4323,"▁mem":4324,"▁tools":4325,"▁poverty":4326,"▁reality":4327,"rastruct":4328,"▁digital":4329,"▁daily":4330,"▁illeg":4331,"▁die":4332,"▁paid":4333,"▁Windows":4334,"ession":4335,"▁saying":4336,"▁Rus":4337,"▁crucial":4338,"▁occas":4339,"▁consequences":4340,"▁colleagues":4341,"▁conflict":4342,"▁{":4343,"ull":4344,"▁Apr":4345,"▁analysis":4346,"▁comprehens":4347,"▁harmon":4348,"ka":4349,"aign":4350,"▁West":4351,"eks":4352,"arter":4353,"EC":4354,"▁unem":4355,"▁undert":4356,"▁Your":4357,"▁practical":4358,"▁construct":4359,"ued":4360,"▁Loc":4361,"▁ey":4362,"▁offering":4363,"▁beyond":4364,"▁King":4365,"urance":4366,"▁Inter":4367,"▁conven":4368,"ife":4369,"▁Palest":4370,"▁apartments":4371,"oon":4372,"▁goes":4373,"▁forest":4374,"▁instrument":4375,"ends":4376,"▁Ste":4377,"▁late":4378,"▁persons":4379,"▁Fed":4380,"ription":4381,"iate":4382,"▁lux":4383,"▁conver":4384,"▁Mal":4385,"▁requires":4386,"▁bi":4387,"▁implemented":4388,"▁congratulate":4389,"▁brand":4390,"dam":4391,"▁vo":4392,"aking":4393,"▁ideas":4394,"AD":4395,"▁Portug":4396,"▁April":4397,"▁tomorrow":4398,"ades":4399,"▁Inst":4400,"▁copy":4401,"▁renew":4402,"ples":4403,"▁waste":4404,"▁happy":4405,"▁sales":4406,"AL":4407,"ares":4408,"aw":4409,"▁offered":4410,"▁curre":4411,"▁lower":4412,"▁organisations":4413,"▁terrorism":4414,"▁2002":4415,"▁email":4416,"▁minimum":4417,"▁enh":4418,"▁mobile":4419,"▁thought":4420,"ection":4421,"▁infrastruct":4422,"▁efficiency":4423,"alls":4424,"▁season":4425,"▁links":4426,"▁She":4427,"▁forces":4428,".3":4429,"vis":4430,"▁ir":4431,"ont":4432,"▁doubt":4433,"▁advantage":4434,"▁arm":4435,"▁anti":4436,"▁mis":4437,"▁consid":4438,"▁welcom":4439,"▁weak":4440,"▁react":4441,"▁Party":4442,"▁partnership":4443,"▁operating":4444,"▁starting":4445,"▁weeks":4446,"▁frequ":4447,"▁monitoring":4448,"▁secure":4449,"▁Development":4450,"▁}":4451,"▁discrim":4452,"▁circum":4453,"▁Gl":4454,"▁vac":4455,"▁Amendment":4456,"▁cast":4457,"▁server":4458,"▁lines":4459,"▁reference":4460,"▁historic":4461,"▁Even":4462,"▁published":4463,"▁meaning":4464,"▁reduction":4465,"▁buy":4466,"▁ready":4467,"▁clients":4468,"▁comprehensive":4469,"cer":4470,"▁bad":4471,"▁machine":4472,"AS":4473,"theless":4474,"ano":4475,"ser":4476,"ilater":4477,"▁argu":4478,"▁maximum":4479,"▁sometimes":4480,"▁relating":4481,"▁Western":4482,"leb":4483,"uis":4484,"▁lives":4485,"▁spirit":4486,"▁Directive":4487,"▁Op":4488,"▁learn":4489,"▁got":4490,"▁Paris":4491,"cks":4492,"▁bedroom":4493,"▁campaign":4494,"▁caused":4495,"▁yes":4496,"ha":4497,".00":4498,"▁critic":4499,"▁ult":4500,"▁eth":4501,"▁accordance":4502,"abor":4503,"▁plant":4504,"itarian":4505,"itors":4506,"hol":4507,"pective":4508,"▁Sk":4509,"▁Mus":4510,"▁farmers":4511,"▁pie":4512,"▁options":4513,"▁tou":4514,"▁=":4515,"▁explain":4516,"▁accession":4517,"▁sports":4518,"▁remind":4519,"rative":4520,"▁technologies":4521,"▁players":4522,"▁voting":4523,"▁fulf":4524,"▁anything":4525,"▁remov":4526,"▁interp":4527,"▁cert":4528,"bian":4529,".m":4530,"▁chance":4531,"▁interested":4532,"▁parking":4533,"rant":4534,"▁recon":4535,"▁probably":4536,"▁extent":4537,"▁advert":4538,"view":4539,"▁methods":4540,"▁pictures":4541,"▁While":4542,"▁hor":4543,"▁Ob":4544,"▁scientific":4545,"▁worldwide":4546,"▁counter":4547,"▁languages":4548,"cl":4549,"estic":4550,"▁simpl":4551,"▁ones":4552,"▁Thank":4553,"ulated":4554,"▁Ant":4555,"▁60":4556,"▁Aug":4557,"▁challenge":4558,"▁lands":4559,"ocol":4560,"▁release":4561,"▁rapid":4562,"gram":4563,"AP":4564,"▁innovative":4565,"uck":4566,"▁concent":4567,"▁morning":4568,"icit":4569,"▁sectors":4570,"▁fine":4571,"inese":4572,"ech":4573,"▁Austria":4574,"▁shopping":4575,"ifically":4576,"▁track":4577,"▁sport":4578,"▁Iran":4579,"inate":4580,"ini":4581,"iability":4582,"AC":4583,"▁candid":4584,"hern":4585,"▁businesses":4586,"ques":4587,"▁ded":4588,"▁rele":4589,"ney":4590,"▁Sm":4591,"know":4592,"▁crim":4593,"iction":4594,"▁selection":4595,"▁arrange":4596,"▁initial":4597,"illa":4598,"▁swimming":4599,"▁encourage":4600,"▁fire":4601,"▁27":4602,"ourable":4603,"▁expert":4604,"unt":4605,"uine":4606,"▁bur":4607,"▁City":4608,"respon":4609,"▁plat":4610,"▁apprec":4611,"▁powers":4612,"▁visitors":4613,"▁adjust":4614,"▁alternative":4615,"▁exerc":4616,"▁sche":4617,"▁raised":4618,"▁accepted":4619,"▁annual":4620,"ivery":4621,"▁garden":4622,"▁street":4623,"asc":4624,"reland":4625,"cape":4626,"▁sav":4627,"▁wanted":4628,"▁influence":4629,"▁processing":4630,"▁absolutely":4631,"ape":4632,"▁despite":4633,"▁Secondly":4634,"▁Ireland":4635,"▁images":4636,"ww":4637,"▁valid":4638,"head":4639,"▁heav":4640,"▁lost":4641,"ops":4642,"▁tick":4643,"▁games":4644,"▁export":4645,"va":4646,"▁demands":4647,"▁trying":4648,"▁strategic":4649,"▁namely":4650,"▁controll":4651,"▁201":4652,"ums":4653,"phone":4654,"ata":4655,"▁System":4656,"ght":4657,"▁fields":4658,"▁borders":4659,"▁genuine":4660,"▁join":4661,"▁drug":4662,"▁1999":4663,"▁involve":4664,"poses":4665,"▁div":4666,"▁vers":4667,"▁Bal":4668,"▁restrict":4669,"▁investig":4670,"anks":4671,"berg":4672,"▁Chinese":4673,"▁www":4674,"▁scale":4675,"ari":4676,"▁tal":4677,"▁south":4678,"rain":4679,"▁hour":4680,"izing":4681,"▁screen":4682,"elines":4683,"▁innovation":4684,"force":4685,"▁Econom":4686,"lick":4687,"▁representatives":4688,"TO":4689,"▁sil":4690,"▁196":4691,"▁alone":4692,"▁Ed":4693,"enn":4694,"▁highlight":4695,"ilateral":4696,"▁Moreover":4697,"▁sort":4698,"hers":4699,"▁Conference":4700,"una":4701,"▁observ":4702,"▁changed":4703,"prises":4704,"▁claim":4705,"▁yourself":4706,"▁earl":4707,"elt":4708,"▁approx":4709,"▁High":4710,"▁Russian":4711,"▁club":4712,"▁overall":4713,"▁proceed":4714,"▁decor":4715,"▁trust":4716,"▁calls":4717,"▁prem":4718,"▁initiatives":4719,"▁motor":4720,"▁wrong":4721,"▁expressed":4722,"▁Are":4723,"▁occur":4724,"▁minute":4725,"earch":4726,"▁Bus":4727,"▁player":4728,"ava":4729,"▁Constit":4730,"▁cell":4731,"▁resort":4732,"▁circumst":4733,"bers":4734,"ür":4735,"▁respond":4736,"▁intended":4737,"verage":4738,"▁Tour":4739,"rely":4740,"▁fresh":4741,"▁ME":4742,"▁sex":4743,"▁illegal":4744,"▁Public":4745,"▁eleg":4746,"▁Prot":4747,"▁passeng":4748,"▁Only":4749,"itation":4750,"ama":4751,"▁committed":4752,"▁worked":4753,"▁mainly":4754,"▁running":4755,"▁talking":4756,"▁Pet":4757,"▁vital":4758,"▁heard":4759,"▁award":4760,"▁config":4761,"▁plans":4762,"▁Lond":4763,"illing":4764,"▁que":4765,"▁kitchen":4766,"ocks":4767,"ender":4768,"▁traffic":4769,"▁approved":4770,"▁Other":4771,"▁occup":4772,"▁feed":4773,"▁CD":4774,"▁substant":4775,"▁AG":4776,"▁opening":4777,"▁goal":4778,"▁tourist":4779,"▁placed":4780,"▁deliver":4781,"▁cities":4782,"▁phys":4783,"▁University":4784,"▁white":4785,"▁menu":4786,"▁dri":4787,"uts":4788,"▁confidence":4789,"▁walking":4790,"tings":4791,"▁e.":4792,"▁helpful":4793,"▁virt":4794,"▁datab":4795,"▁Its":4796,"▁—":4797,"▁cohesion":4798,"▁affected":4799,"▁ability":4800,"▁planning":4801,"▁spect":4802,"▁box":4803,"▁Lin":4804,"akes":4805,"▁cove":4806,"body":4807,"▁London":4808,"posed":4809,"mbH":4810,"▁improved":4811,"▁du":4812,"oo":4813,"▁Fore":4814,"▁evening":4815,"▁compos":4816,"dra":4817,"orage":4818,"▁appoint":4819,"▁comments":4820,"▁univers":4821,"▁terrace":4822,"▁uns":4823,"▁August":4824,"▁black":4825,"▁fear":4826,"▁Centre":4827,"▁GmbH":4828,"▁corpor":4829,"▁automatically":4830,"▁chann":4831,"▁families":4832,"▁decide":4833,"▁delivery":4834,"▁justice":4835,"▁conclusion":4836,"▁currency":4837,"▁PC":4838,"amed":4839,"▁Bu":4840,"▁Int":4841,"▁Lat":4842,"▁feature":4843,"undred":4844,"urt":4845,"ps":4846,"▁client":4847,"▁circumstances":4848,"formation":4849,"thern":4850,"▁Pre":4851,"▁Cal":4852,"▁suitable":4853,"▁banks":4854,"reement":4855,"SE":4856,"▁provision":4857,"▁reduced":4858,"▁Her":4859,"▁disp":4860,"▁competitive":4861,"rief":4862,"▁Techn":4863,"▁Hung":4864,"▁laws":4865,"▁priorities":4866,"standing":4867,"▁reforms":4868,"▁whom":4869,"ole":4870,"▁dyn":4871,"▁increasingly":4872,"▁Sum":4873,"ifying":4874,"▁usually":4875,"rab":4876,"▁supports":4877,"▁administration":4878,"ID":4879,"▁contribute":4880,"▁Security":4881,"iff":4882,"▁sem":4883,"hood":4884,"▁collection":4885,"▁tim":4886,"▁applic":4887,"anned":4888,"▁tradition":4889,"▁structural":4890,"▁hom":4891,"ording":4892,"▁phone":4893,"▁fru":4894,"▁People":4895,"ray":4896,"▁regime":4897,"tt":4898,"rete":4899,"▁impl":4900,"▁emissions":4901,"▁students":4902,"agraph":4903,"▁Dr":4904,"▁began":4905,"▁protected":4906,"▁Palestin":4907,"▁electronic":4908,"▁infrastructure":4909,"▁scope":4910,"▁victims":4911,"▁Eas":4912,"▁Tw":4913,"▁extensive":4914,"▁separate":4915,"craft":4916,"▁ensuring":4917,"▁says":4918,"ault":4919,"▁tabled":4920,"rew":4921,"▁platform":4922,"▁cyc":4923,"▁Mor":4924,"▁rise":4925,"▁poll":4926,"▁powerful":4927,"▁celeb":4928,"▁Free":4929,"▁anc":4930,"▁UK":4931,"▁Feb":4932,"▁unemployment":4933,"▁miss":4934,"▁tit":4935,".m.":4936,"▁prefer":4937,"▁effectively":4938,"▁crime":4939,"▁critical":4940,"▁fellow":4941,"lines":4942,"zech":4943,"▁fish":4944,"▁belong":4945,"▁specifically":4946,"▁introduced":4947,"▁agriculture":4948,"▁participation":4949,"▁block":4950,"icy":4951,"mp":4952,"ought":4953,"▁sources":4954,"▁Nations":4955,"▁IS":4956,"▁hot":4957,"▁manner":4958,"▁Sim":4959,"ressive":4960,"erland":4961,"▁detailed":4962,"▁speaking":4963,"right":4964,"▁san":4965,"raz":4966,"▁Each":4967,"▁played":4968,"▁af":4969,"▁animals":4970,"▁comment":4971,"▁installation":4972,"▁photo":4973,"▁Red":4974,"▁Ma":4975,"kt":4976,"▁hear":4977,"▁charm":4978,"▁perman":4979,"▁Uk":4980,"▁motion":4981,"▁referred":4982,"▁satisf":4983,"▁God":4984,"ferences":4985,"rats":4986,"▁covered":4987,"ounced":4988,"▁larger":4989,"▁purposes":4990,"▁hundred":4991,"▁Czech":4992,"acious":4993,"▁sitting":4994,"▁functions":4995,"hab":4996,"wh":4997,"▁Cro":4998,"▁aimed":4999,"enty":5000,"▁muse":5001,"▁80":5002,"ara":5003,"▁www.":5004,"cers":5005,"▁Indeed":5006,"▁discussed":5007,"▁rural":5008,"▁deleg":5009,"▁served":5010,"iding":5011,"▁remember":5012,"▁dead":5013,"▁managed":5014,"ching":5015,"▁exactly":5016,"ox":5017,"▁Also":5018,"▁According":5019,"orthern":5020,"▁precisely":5021,"▁represents":5022,"▁Belg":5023,"▁forget":5024,"▁trend":5025,"aint":5026,"▁stated":5027,"▁Any":5028,"▁becoming":5029,"▁serve":5030,"▁budgetary":5031,"▁lies":5032,"▁Program":5033,"▁getting":5034,"ruary":5035,"▁developments":5036,"used":5037,"▁police":5038,"▁slow":5039,"▁ec":5040,"▁Sol":5041,"▁wants":5042,"▁rein":5043,"▁founded":5044,"AM":5045,"▁selected":5046,"▁entry":5047,"bit":5048,"▁discussions":5049,"▁sold":5050,"▁session":5051,"▁Ver":5052,"aves":5053,"odies":5054,"▁remark":5055,"▁risks":5056,"▁camera":5057,"cast":5058,"▁assessment":5059,"▁February":5060,"▁Then":5061,"▁mid":5062,"▁listed":5063,"▁administrative":5064,"▁enterprises":5065,"▁TH":5066,"▁Barcel":5067,"▁Play":5068,"idential":5069,"▁His":5070,"▁regret":5071,"ns":5072,"▁thousands":5073,"▁cos":5074,"▁mand":5075,"▁otherwise":5076,"▁Cas":5077,"▁mut":5078,"▁hands":5079,"▁wonderful":5080,"▁x":5081,"▁facilit":5082,"▁institutional":5083,"▁closely":5084,"omb":5085,"▁India":5086,"g.":5087,"▁medical":5088,"▁Why":5089,"▁Ir":5090,"▁linked":5091,"▁guidelines":5092,"▁earlier":5093,"imb":5094,"uration":5095,"idents":5096,"▁spread":5097,"▁introduction":5098,"OS":5099,"itzerland":5100,"ovo":5101,"▁paper":5102,"▁resist":5103,"▁28":5104,"▁buff":5105,"▁programs":5106,"▁opened":5107,"itiveness":5108,"▁correspon":5109,"▁Slov":5110,"▁Human":5111,"▁brow":5112,"▁symb":5113,"look":5114,"▁followed":5115,"▁Agreement":5116,"▁Apart":5117,"▁magn":5118,"oke":5119,"▁metres":5120,"▁weap":5121,"▁orient":5122,"▁supporting":5123,"▁discrimination":5124,"▁inside":5125,"nder":5126,"ulations":5127,"▁likely":5128,"▁spend":5129,"▁electric":5130,"▁Add":5131,"▁Switzerland":5132,"▁FR":5133,"▁immigration":5134,"▁Joh":5135,"urally":5136,"▁degree":5137,"▁north":5138,"▁tourism":5139,"▁operations":5140,"▁Star":5141,"▁improving":5142,"urd":5143,"▁buildings":5144,"▁exclusive":5145,"▁relative":5146,"▁26":5147,"▁defined":5148,"lim":5149,"▁networks":5150,"▁&apos;ll":5151,"▁actual":5152,"▁speech":5153,"▁expected":5154,"▁Sub":5155,"▁Most":5156,"▁considerable":5157,"▁coff":5158,"▁Enter":5159,"▁load":5160,"EL":5161,"▁duty":5162,"oring":5163,"ensions":5164,"hr":5165,"▁temper":5166,"▁winter":5167,"house":5168,"▁cod":5169,"▁uses":5170,"▁compens":5171,"▁Sea":5172,"▁SM":5173,"ya":5174,"▁mill":5175,"▁stock":5176,"▁Last":5177,"▁components":5178,"▁combat":5179,"▁understanding":5180,"▁Middle":5181,"▁Bec":5182,"lying":5183,"▁save":5184,"▁marketing":5185,"▁normal":5186,"▁explo":5187,"▁Greece":5188,"▁Act":5189,"▁Art":5190,"▁substantial":5191,"▁Christian":5192,"▁Swiss":5193,"▁format":5194,"▁playing":5195,"▁Sant":5196,"▁Rest":5197,"▁telephone":5198,"▁brief":5199,"▁debt":5200,"ki":5201,"▁entit":5202,"▁experts":5203,"▁Barcelona":5204,"▁presence":5205,"sp":5206,"▁Asia":5207,"amet":5208,"▁destro":5209,"▁animal":5210,"▁purchase":5211,"▁income":5212,"▁Policy":5213,"ils":5214,"▁Click":5215,"▁compar":5216,"▁properly":5217,"▁fisheries":5218,"▁accomp":5219,"▁delay":5220,"▁e.g.":5221,"▁presidency":5222,"▁map":5223,"▁alloc":5224,"▁color":5225,"▁facing":5226,"▁Green":5227,"ico":5228,"ussels":5229,"▁typical":5230,"▁coordination":5231,"▁Muse":5232,"▁Minist":5233,"▁entirely":5234,"road":5235,"▁strict":5236,"▁discover":5237,"▁sized":5238,"▁dealing":5239,"ingu":5240,"▁items":5241,"▁tack":5242,"▁relate":5243,"▁picture":5244,"▁competitiveness":5245,"▁refuge":5246,"▁plants":5247,"iant":5248,"▁..":5249,"▁500":5250,"ength":5251,"▁difficulties":5252,"work":5253,"▁symbol":5254,"▁born":5255,"▁generally":5256,"hel":5257,"▁summit":5258,"▁chem":5259,"▁command":5260,"posit":5261,"▁Poland":5262,"▁authority":5263,"▁indic":5264,"▁criminal":5265,"▁Because":5266,"▁paragraph":5267,"▁organisation":5268,"▁Cast":5269,"▁financing":5270,"▁element":5271,"▁Brussels":5272,"ula":5273,"▁modified":5274,"▁Cap":5275,"▁gave":5276,"iment":5277,"▁AC":5278,"▁expand":5279,"ios":5280,"▁incorpor":5281,"▁pleasant":5282,"▁went":5283,"▁Rooms":5284,"uth":5285,"▁legit":5286,"▁Turk":5287,"▁Never":5288,"▁machines":5289,"iling":5290,"▁thinking":5291,"▁spacious":5292,"rich":5293,"▁Unfortunately":5294,"▁applies":5295,"▁suc":5296,"▁percent":5297,"levision":5298,"▁average":5299,"▁susp":5300,"▁Cop":5301,"▁vehicles":5302,"▁reception":5303,"utive":5304,"▁lib":5305,"▁CO":5306,"izes":5307,"▁informed":5308,"▁unac":5309,"▁willing":5310,"▁meetings":5311,"▁calc":5312,"▁consideration":5313,"▁advance":5314,"overy":5315,"▁door":5316,"▁los":5317,"arent":5318,"amber":5319,"▁defence":5320,"rown":5321,"▁adequ":5322,"▁peaceful":5323,"▁hosp":5324,"▁fixed":5325,"▁Kos":5326,"▁mist":5327,"▁sole":5328,"ball":5329,"▁USA":5330,"▁beds":5331,"▁hop":5332,"▁Economic":5333,"▁becomes":5334,"▁enorm":5335,"ev":5336,"roll":5337,"▁numbers":5338,"nal":5339,"met":5340,"▁flexibility":5341,"rants":5342,"▁́":5343,"▁district":5344,"sh":5345,"▁unc":5346,"▁Airport":5347,"inating":5348,"▁graph":5349,"▁Once":5350,"▁flexible":5351,"uisine":5352,"▁parliamentary":5353,"▁succeed":5354,"▁aims":5355,"iar":5356,"sterdam":5357,"▁bodies":5358,"att":5359,"▁shops":5360,"▁stra":5361,"▁fra":5362,"▁establishment":5363,"reet":5364,"estival":5365,"terday":5366,"▁signed":5367,"imself":5368,"press":5369,"▁belie":5370,"▁Amsterdam":5371,"▁bear":5372,"▁estate":5373,"▁rout":5374,"▁practices":5375,"ero":5376,"▁medic":5377,"▁gradu":5378,"▁har":5379,"▁promoting":5380,"▁easier":5381,"▁myself":5382,"▁shower":5383,"inding":5384,"▁31":5385,"▁connected":5386,"▁generation":5387,"▁himself":5388,"▁database":5389,"▁seriously":5390,"PE":5391,"ón":5392,"▁court":5393,"▁experienced":5394,"▁ur":5395,"osen":5396,"▁sell":5397,"▁Great":5398,"▁acknow":5399,"▁Micro":5400,"▁unf":5401,"▁concrete":5402,"▁imag":5403,"▁clar":5404,"▁advanced":5405,"▁cooper":5406,"▁lou":5407,"▁negative":5408,"▁DV":5409,"▁Est":5410,"▁failure":5411,"▁subsidi":5412,"▁politics":5413,"▁Bas":5414,"▁humanitarian":5415,"gest":5416,"▁cuisine":5417,"▁ancient":5418,"ias":5419,"embly":5420,"▁dangerous":5421,"▁middle":5422,"IL":5423,"▁differences":5424,"▁domestic":5425,"ella":5426,"▁positions":5427,"0s":5428,"uses":5429,"nel":5430,"rates":5431,"▁Priv":5432,"▁Grand":5433,"▁translation":5434,"▁neighbour":5435,"▁Debian":5436,"▁structures":5437,"▁houses":5438,"▁associated":5439,"▁contem":5440,"oe":5441,"▁told":5442,"▁dispos":5443,"▁Firstly":5444,"▁penal":5445,"▁withdra":5446,"▁300":5447,"▁length":5448,"▁behav":5449,"▁accur":5450,"▁convenient":5451,"▁Linux":5452,"▁unaccept":5453,"▁voice":5454,"▁Ac":5455,"▁implementing":5456,"▁29":5457,"▁carefully":5458,"▁instance":5459,"▁happened":5460,"▁permit":5461,"▁safegu":5462,"ato":5463,"▁exhibition":5464,"▁coffee":5465,"adem":5466,"▁elim":5467,"▁models":5468,"▁ign":5469,"▁condem":5470,"▁appears":5471,"▁statements":5472,"▁»":5473,"▁producers":5474,".4":5475,"▁Cor":5476,"▁Bul":5477,"▁combination":5478,"▁rou":5479,"▁Cy":5480,"▁Environment":5481,"board":5482,"sc":5483,"ips":5484,"▁anyone":5485,"▁reducing":5486,"ET":5487,"▁difference":5488,"▁Frank":5489,"▁ahead":5490,"▁kil":5491,"▁Organ":5492,"▁manage":5493,"▁settle":5494,"nes":5495,"▁studies":5496,"agen":5497,"▁adoption":5498,"▁satisfact":5499,"▁beaches":5500,"▁Instit":5501,"▁St.":5502,"▁eight":5503,"▁Services":5504,"▁agencies":5505,"▁York":5506,"▁courses":5507,"▁Roman":5508,"icians":5509,"▁song":5510,"▁propose":5511,"▁owners":5512,"▁Appl":5513,"▁opposition":5514,"▁recognition":5515,"▁Budget":5516,"ube":5517,"▁guarantees":5518,"▁Kingdom":5519,"▁drink":5520,"raine":5521,"auc":5522,"▁collabor":5523,"▁Over":5524,"▁insp":5525,"▁sand":5526,"entions":5527,"▁availability":5528,"▁cas":5529,"▁article":5530,"▁impossible":5531,"▁reservation":5532,"▁described":5533,"▁Vien":5534,"▁leader":5535,"▁calling":5536,"ylum":5537,"▁improvement":5538,"▁architecture":5539,"▁Assoc":5540,"uf":5541,"▁spent":5542,"▁announced":5543,"▁attractive":5544,"▁immediate":5545,"ids":5546,"▁glass":5547,"▁dimension":5548,"▁released":5549,"▁&gt":5550,"▁membership":5551,"▁&gt;":5552,"▁truly":5553,"▁wishes":5554,"▁quant":5555,"▁possibilities":5556,"▁Pat":5557,"▁evidence":5558,"▁delight":5559,"▁ant":5560,"▁trading":5561,"▁shared":5562,"▁sen":5563,"▁Arab":5564,"▁Guest":5565,"▁unacceptable":5566,"vey":5567,"gn":5568,"▁names":5569,"coming":5570,"▁Inc":5571,"▁background":5572,"▁spl":5573,"OL":5574,"oz":5575,"▁Cat":5576,"▁organiz":5577,"▁Europeans":5578,"▁Nor":5579,"▁Pers":5580,"▁din":5581,"orial":5582,"quis":5583,"▁transparent":5584,"▁excess":5585,"▁territory":5586,"▁sle":5587,"ED":5588,"▁charged":5589,"itious":5590,"▁IN":5591,"▁Us":5592,"▁tasks":5593,"▁pal":5594,"▁cards":5595,"cription":5596,"▁unfortunately":5597,"▁Due":5598,"▁television":5599,"eg":5600,"▁radio":5601,"▁religious":5602,"▁introduce":5603,"▁Justice":5604,"▁figures":5605,"▁consumption":5606,"▁participate":5607,"▁continued":5608,"▁African":5609,"▁elegant":5610,"▁reasonable":5611,"▁desire":5612,"▁devices":5613,"▁stru":5614,"▁stable":5615,"▁transact":5616,"▁Irish":5617,"ls":5618,"▁continues":5619,"▁enables":5620,"▁unless":5621,".e":5622,"OT":5623,"rupt":5624,"ing.com":5625,"▁strongly":5626,"▁Business":5627,"▁learning":5628,"▁completed":5629,"▁Board":5630,"sec":5631,"▁packages":5632,"▁Isl":5633,"▁Research":5634,"▁combined":5635,"▁monetary":5636,"▁taste":5637,"▁raise":5638,"▁entertain":5639,"▁greatest":5640,"▁button":5641,"▁Market":5642,"▁Met":5643,"▁cars":5644,"▁allowing":5645,"▁Turkish":5646,"ny":5647,"▁convin":5648,"▁parent":5649,"▁bound":5650,"set":5651,"▁Vis":5652,"▁Democrats":5653,"▁votes":5654,"▁Aud":5655,"▁registered":5656,"▁adapt":5657,"▁Mod":5658,"▁closer":5659,"▁surrounding":5660,"▁arrival":5661,"▁entitled":5662,"back":5663,"ellig":5664,"tenance":5665,"▁35":5666,"▁skills":5667,"▁beauty":5668,"▁store":5669,"overed":5670,"urban":5671,"▁expend":5672,"ilst":5673,"▁PL":5674,"▁insurance":5675,"ashion":5676,"▁appeal":5677,"▁sensitive":5678,"ams":5679,"▁surface":5680,"▁Health":5681,"▁pure":5682,"▁Mart":5683,"▁kept":5684,"▁installed":5685,"▁weight":5686,"▁Tre":5687,"▁nearby":5688,"▁Stud":5689,"▁sale":5690,"▁roll":5691,"▁profession":5692,"▁WTO":5693,"▁Museum":5694,"eth":5695,"▁dedicated":5696,"▁Ukraine":5697,"▁exclud":5698,"▁river":5699,"▁chair":5700,"▁asylum":5701,"▁balanced":5702,"iplom":5703,"▁earth":5704,"▁enormous":5705,"▁replace":5706,"▁mission":5707,"▁Pa":5708,"amm":5709,"▁1998":5710,"▁reliable":5711,"▁square":5712,"▁permanent":5713,"▁core":5714,"▁perspective":5715,"ilos":5716,"enh":5717,"▁exercise":5718,"ensus":5719,"▁meters":5720,"▁mer":5721,"▁Cong":5722,"sy":5723,"▁drawn":5724,"▁relaxing":5725,"▁satell":5726,"▁declar":5727,"▁election":5728,"Ps":5729,"▁Nevertheless":5730,"gth":5731,"▁Prof":5732,"▁elected":5733,"▁Kosovo":5734,"▁micro":5735,"▁adult":5736,"▁Open":5737,"oto":5738,"▁interpret":5739,"▁70":5740,"▁establishing":5741,"ography":5742,"▁Will":5743,"▁Nether":5744,"▁Fol":5745,"▁union":5746,"▁booking":5747,"▁totally":5748,"nother":5749,"uk":5750,"▁convinced":5751,"▁forth":5752,"▁meant":5753,"▁Another":5754,"▁advertising":5755,"▁fruit":5756,"▁institution":5757,"▁holidays":5758,"▁individuals":5759,"▁urgent":5760,"▁extended":5761,"▁claims":5762,"▁story":5763,"▁stands":5764,"▁storage":5765,"ounce":5766,"▁Saf":5767,"▁notice":5768,"itch":5769,"atever":5770,"▁Mun":5771,"IM":5772,"▁compared":5773,"▁bott":5774,"▁forced":5775,"▁railway":5776,"▁moving":5777,"▁reb":5778,"▁device":5779,"oly":5780,"▁conclusions":5781,"▁window":5782,"▁sides":5783,"ste":5784,"▁stri":5785,"▁90":5786,"▁fle":5787,"▁granted":5788,"ille":5789,"▁divid":5790,"▁&apos;re":5791,"▁outd":5792,"oker":5793,"▁compat":5794,"▁Alp":5795,"▁passed":5796,"▁memory":5797,"alle":5798,"▁biggest":5799,"▁Lux":5800,"▁signal":5801,"▁strength":5802,"▁corporate":5803,"▁Restaur":5804,"▁Eastern":5805,"▁controls":5806,"▁Such":5807,"▁attractions":5808,"▁bre":5809,"▁mountains":5810,"▁failed":5811,"▁Ang":5812,"▁concert":5813,"▁Afgh":5814,"▁pet":5815,"▁Gard":5816,"iscal":5817,"▁profit":5818,"▁Netherlands":5819,".S":5820,"▁unit":5821,"▁Liber":5822,"▁Prime":5823,"▁Cost":5824,"▁Mag":5825,"▁contrary":5826,"▁prison":5827,"▁economies":5828,"▁science":5829,"▁Sat":5830,"▁dream":5831,"ald":5832,"▁chosen":5833,"▁finance":5834,"ione":5835,"▁Third":5836,"▁Non":5837,"▁honourable":5838,"▁Dis":5839,"inter":5840,"▁rightly":5841,"▁advice":5842,"▁Where":5843,"▁unable":5844,"▁organised":5845,"za":5846,"▁definition":5847,"▁colour":5848,"▁secret":5849,"▁church":5850,"▁saw":5851,"▁factors":5852,"▁Vienna":5853,"▁spending":5854,"▁Greek":5855,"▁interface":5856,"▁disease":5857,"▁Croat":5858,"▁destroy":5859,"▁DVD":5860,"▁maintenance":5861,"▁Well":5862,"▁laid":5863,"▁candidate":5864,"▁inclus":5865,"▁Del":5866,"▁Trade":5867,"▁commitments":5868,"▁vehicle":5869,"▁expression":5870,"▁Palestinian":5871,"▁renov":5872,"▁ambitious":5873,"▁artists":5874,"▁drop":5875,"▁unto":5876,"▁Found":5877,"▁diver":5878,"▁Har":5879,"▁Foreign":5880,"itage":5881,"▁chemical":5882,"▁tried":5883,"▁perfectly":5884,"▁neither":5885,"▁golf":5886,"▁Mac":5887,"igrants":5888,"▁Up":5889,"rm":5890,"▁Thus":5891,"icking":5892,"▁Constitution":5893,"▁Club":5894,"▁Portugal":5895,"▁achieving":5896,"▁weapons":5897,"▁Leg":5898,"▁flight":5899,"▁changing":5900,"▁Regulation":5901,"▁194":5902,"usion":5903,"▁diss":5904,"▁Management":5905,"▁rock":5906,"rating":5907,"▁agency":5908,"▁colleague":5909,"▁outcome":5910,"▁obst":5911,"▁Dep":5912,"▁sn":5913,"▁Host":5914,"anging":5915,"▁obviously":5916,"▁touch":5917,"gage":5918,"▁luxury":5919,"▁aircraft":5920,"apers":5921,"▁constantly":5922,"rations":5923,"portion":5924,"▁guide":5925,"▁payments":5926,"▁limits":5927,"sequently":5928,"▁register":5929,"iliation":5930,"▁promotion":5931,"▁obligations":5932,"▁Afghan":5933,"▁outstanding":5934,"▁launch":5935,"DP":5936,"▁vision":5937,"ament":5938,"vest":5939,"icious":5940,"▁update":5941,"▁Sa":5942,"▁intention":5943,"▁intervention":5944,"▁Booking.com":5945,"▁yesterday":5946,"▁approximately":5947,"lantic":5948,"▁fant":5949,"▁Yet":5950,"▁preserv":5951,"▁laun":5952,"▁Rot":5953,"aza":5954,"▁von":5955,"irth":5956,"▁criticism":5957,"▁seven":5958,"▁reve":5959,"▁equality":5960,".e.":5961,"iques":5962,"▁continuing":5963,"▁contents":5964,"▁organization":5965,"UR":5966,"▁contained":5967,"▁01":5968,"ump":5969,"▁Alb":5970,"▁Austrian":5971,"▁successfully":5972,"▁nation":5973,"▁Information":5974,"▁blood":5975,"▁fraud":5976,"utch":5977,"▁gold":5978,"▁race":5979,"nergy":5980,"ym":5981,"▁independence":5982,"▁diplom":5983,"▁physical":5984,"like":5985,"▁accessible":5986,"▁expenditure":5987,"onia":5988,"▁Kore":5989,"▁surrounded":5990,"▁route":5991,"ken":5992,"▁tow":5993,"▁operate":5994,"▁situations":5995,"soft":5996,"▁category":5997,"mission":5998,"▁recommendations":5999,"ius":6000,"▁Rec":6001,"▁asking":6002,"▁fashion":6003,"▁distin":6004,"▁prevention":6005,"idge":6006,"▁IM":6007,"▁occasion":6008,"▁photos":6009,"▁multi":6010,"IP":6011,"bert":6012,"▁extend":6013,"▁mil":6014,"▁PR":6015,"▁goals":6016,"▁Association":6017,"▁merely":6018,"▁species":6019,"ifications":6020,"going":6021,"▁targets":6022,"▁Ter":6023,"▁vul":6024,"▁surv":6025,"▁interact":6026,"▁buffet":6027,"▁convention":6028,"▁landscape":6029,"▁binding":6030,"▁planned":6031,"ague":6032,"▁acts":6033,"▁someone":6034,"▁fiscal":6035,"▁band":6036,"▁lake":6037,"▁Those":6038,"▁consists":6039,"▁Rome":6040,"abil":6041,"▁disposal":6042,"▁Ven":6043,"▁catal":6044,"▁wealth":6045,"▁sight":6046,"ented":6047,"▁Custom":6048,"igned":6049,"▁participants":6050,"▁Commun":6051,"▁repro":6052,"▁putting":6053,"▁guaranteed":6054,"▁Super":6055,"▁i.e.":6056,"▁urban":6057,"table":6058,"aken":6059,"▁pointed":6060,"▁furnished":6061,"▁registration":6062,"▁glad":6063,"▁title":6064,"het":6065,"▁communities":6066,"charge":6067,"▁kn":6068,"▁cheap":6069,"ooth":6070,"▁Java":6071,"▁zone":6072,"▁Center":6073,"▁pas":6074,"▁Both":6075,"▁factor":6076,"▁waiting":6077,"iel":6078,"▁capable":6079,"▁leads":6080,"▁Latin":6081,"▁pill":6082,"inations":6083,"▁bringing":6084,"ancing":6085,"▁write":6086,"▁Ty":6087,"ena":6088,"▁smaller":6089,"▁1997":6090,"▁seeking":6091,"iring":6092,"▁fuel":6093,"▁acceptable":6094,"oyal":6095,"▁Restaurant":6096,"▁Rules":6097,"▁instruct":6098,"▁dynamic":6099,"▁responsibilities":6100,"▁phase":6101,"▁Summit":6102,"▁conclude":6103,"estion":6104,"▁compliance":6105,"▁prospect":6106,"▁Break":6107,"▁blue":6108,"▁withdraw":6109,"▁ou":6110,"▁afford":6111,"▁slight":6112,"anim":6113,"▁trial":6114,"▁causes":6115,"▁examples":6116,"▁Mil":6117,"▁brings":6118,"▁fed":6119,"▁grounds":6120,"▁steel":6121,"▁dry":6122,"▁strengthening":6123,"▁satellite":6124,"▁valu":6125,"▁Federal":6126,"▁sovere":6127,"▁Agency":6128,"▁resulting":6129,"▁neighb":6130,"▁hum":6131,"ros":6132,"orough":6133,"umn":6134,"▁manufacturing":6135,"▁pleasure":6136,"oom":6137,"▁capt":6138,"▁Indust":6139,"▁snow":6140,"▁pun":6141,"▁letter":6142,"▁contemporary":6143,"▁AL":6144,"▁Sweden":6145,"▁kilomet":6146,"ellect":6147,"▁fif":6148,"▁philos":6149,"▁identity":6150,"nge":6151,"nic":6152,"▁spa":6153,"▁Located":6154,"obby":6155,"▁bars":6156,"▁default":6157,"▁Enjoy":6158,"▁TM":6159,"▁safeguard":6160,"▁spaces":6161,"cript":6162,"▁Gal":6163,"▁multiple":6164,"▁nearly":6165,"▁scen":6166,"▁Lake":6167,"▁password":6168,"▁veget":6169,"▁association":6170,"▁sets":6171,"▁assum":6172,"sibly":6173,"sk":6174,"▁defend":6175,"▁qualified":6176,"▁summ":6177,"▁discussing":6178,"▁sam":6179,"▁cancell":6180,"▁truth":6181,"▁driving":6182,"▁cool":6183,"itness":6184,"▁explan":6185,"▁balcon":6186,"▁plus":6187,"ulating":6188,"▁consensus":6189,"▁overlook":6190,"▁Thanks":6191,"▁testing":6192,"ruption":6193,"isure":6194,"EM":6195,"▁stim":6196,"▁previously":6197,"rance":6198,"▁liability":6199,"▁primary":6200,"▁governance":6201,"▁patients":6202,"po":6203,"▁Term":6204,"▁addressed":6205,"icip":6206,"▁fort":6207,"▁southern":6208,"▁evaluation":6209,"▁inhab":6210,"▁skin":6211,"▁determined":6212,"▁Romania":6213,"▁nations":6214,"▁paramet":6215,"▁vulner":6216,"iny":6217,"▁Rel":6218,"uit":6219,"iced":6220,"DF":6221,"uting":6222,"▁alb":6223,"▁nar":6224,"▁45":6225,"▁liter":6226,"▁primarily":6227,"can":6228,"ds":6229,"▁cook":6230,"▁attacks":6231,"▁labor":6232,"▁orders":6233,"▁mother":6234,"▁versions":6235,"▁piece":6236,"▁Strate":6237,"▁books":6238,"▁Nat":6239,"▁representative":6240,"▁adequate":6241,"▁remove":6242,"▁rob":6243,"ION":6244,"▁rul":6245,"▁van":6246,"▁Find":6247,"▁surpr":6248,"iations":6249,"▁industries":6250,"▁named":6251,"rep":6252,"▁wall":6253,"▁smoking":6254,"▁kinds":6255,"parent":6256,"▁thereby":6257,"▁upg":6258,"net":6259,"▁soft":6260,"ancy":6261,"▁recovery":6262,"ivered":6263,"▁requested":6264,"▁lik":6265,"▁decades":6266,"ographic":6267,"▁existence":6268,"anc":6269,"▁consolid":6270,"▁analy":6271,"▁schools":6272,"▁Bud":6273,"▁doct":6274,"mitted":6275,".6":6276,"oles":6277,"rust":6278,"▁son":6279,"▁talks":6280,"▁keeping":6281,"▁diversity":6282,"▁ton":6283,"▁dealt":6284,"esides":6285,"▁Dutch":6286,"és":6287,"▁mutual":6288,"▁Microsoft":6289,"▁exception":6290,"▁Gold":6291,"▁Yes":6292,"▁Get":6293,"hem":6294,"▁delivered":6295,"▁«":6296,"▁Er":6297,"▁Out":6298,"▁intellig":6299,"▁unanim":6300,"▁refere":6301,"▁amongst":6302,"▁waters":6303,"▁manufacturers":6304,"▁mix":6305,"▁urge":6306,"▁turned":6307,"▁flat":6308,"rum":6309,"roud":6310,"▁Minutes":6311,"▁bure":6312,"▁tend":6313,"▁--":6314,"ireless":6315,"hus":6316,"▁Under":6317,"▁Cur":6318,"▁Check":6319,"30":6320,"▁watch":6321,"▁consultation":6322,"▁32":6323,"▁Despite":6324,"▁opposite":6325,"reens":6326,"▁IP":6327,"▁Head":6328,"▁gall":6329,"▁technological":6330,"▁treated":6331,"▁Home":6332,"unction":6333,"asters":6334,"▁Best":6335,"anges":6336,"▁marked":6337,"razil":6338,"▁Software":6339,"ogle":6340,"▁father":6341,"▁investments":6342,"▁corner":6343,"▁dram":6344,"▁mechanisms":6345,"▁blog":6346,"▁onto":6347,"▁straight":6348,"▁represented":6349,"oman":6350,"▁east":6351,"onom":6352,"▁Breakfast":6353,"▁hit":6354,"▁shape":6355,"▁reply":6356,"▁spot":6357,"▁THE":6358,"▁accounts":6359,"▁pred":6360,"▁repeated":6361,"▁feeling":6362,"▁master":6363,"▁las":6364,"▁plug":6365,"▁runs":6366,"▁heavy":6367,"▁improvements":6368,"▁knows":6369,"▁burden":6370,"▁suite":6371,"abilities":6372,"▁Don":6373,"▁audio":6374,"ags":6375,"▁mode":6376,"▁competence":6377,"▁speakers":6378,"▁Spe":6379,"▁Before":6380,"uries":6381,"▁teach":6382,"crib":6383,"▁Hol":6384,"▁Chamber":6385,"rac":6386,"▁Ke":6387,"▁Sil":6388,"▁attitude":6389,"▁Bur":6390,"▁Brazil":6391,"▁doll":6392,"▁exceed":6393,"▁obligation":6394,"arus":6395,"▁experiences":6396,"▁Two":6397,"▁Card":6398,"▁leadership":6399,"ellectual":6400,"▁insist":6401,"▁presentation":6402,"place":6403,"▁Wel":6404,"▁expertise":6405,"enue":6406,"▁requests":6407,"IA":6408,"furt":6409,"▁Bet":6410,"cher":6411,"▁birth":6412,"▁recognise":6413,"▁helping":6414,"▁Set":6415,"▁Mont":6416,"▁shut":6417,".S.":6418,"▁swe":6419,"▁Company":6420,"▁Cult":6421,"▁Follow":6422,"▁significantly":6423,"▁moved":6424,"▁consistent":6425,"▁launched":6426,"▁Prov":6427,"▁trees":6428,"▁eye":6429,"ola":6430,"ING":6431,"oples":6432,"▁drugs":6433,"▁journal":6434,"▁ein":6435,"▁compensation":6436,"▁Cub":6437,"▁websites":6438,"▁output":6439,"▁sanctions":6440,"▁Very":6441,"▁Enterprise":6442,"▁pension":6443,"▁cart":6444,"▁dishes":6445,"▁emphasise":6446,"▁approval":6447,"▁da":6448,"▁recommended":6449,"▁Ben":6450,"▁units":6451,"▁destination":6452,"▁rejected":6453,"▁stone":6454,"▁Plan":6455,"▁nav":6456,"▁Take":6457,"enture":6458,"▁expensive":6459,"▁ES":6460,"▁charming":6461,"▁Mer":6462,"▁arms":6463,"ova":6464,"▁à":6465,"▁pil":6466,"▁exists":6467,"riers":6468,"▁streets":6469,"nis":6470,"▁1996":6471,"▁comply":6472,"▁browser":6473,"--":6474,"▁SME":6475,"ails":6476,"▁wait":6477,"▁engineering":6478,"▁finding":6479,"ieties":6480,"▁operators":6481,"▁substances":6482,"▁Av":6483,"▁extension":6484,"▁Sit":6485,"▁rig":6486,"▁36":6487,"▁privacy":6488,"▁expectations":6489,"▁emphasis":6490,"▁leisure":6491,"▁Mc":6492,"▁constant":6493,"▁spok":6494,"▁Mos":6495,"▁dict":6496,"▁Energy":6497,"▁prop":6498,"▁temperature":6499,"▁wild":6500,"alt":6501,"▁resolve":6502,"▁„":6503,"▁vess":6504,"▁older":6505,"▁fab":6506,"▁Wi":6507,"▁appreciate":6508,"verse":6509,"itely":6510,"ourg":6511,"quir":6512,"▁entered":6513,"ourage":6514,"ette":6515,"▁Pan":6516,"acing":6517,"▁p.m.":6518,"▁advantages":6519,"▁helps":6520,"▁proud":6521,"▁supplement":6522,"▁Tor":6523,"▁Mex":6524,"▁delegation":6525,"▁refugees":6526,"▁Villa":6527,"▁voc":6528,"▁Dan":6529,"▁Lord":6530,"▁objects":6531,"▁error":6532,"▁noise":6533,"▁Design":6534,"onym":6535,"▁Pri":6536,"▁contrast":6537,"▁suffering":6538,"iking":6539,"▁furniture":6540,"▁hall":6541,"li":6542,"mas":6543,"LA":6544,"▁personally":6545,"▁Note":6546,"▁relatively":6547,"enses":6548,"▁Use":6549,"▁applicable":6550,"▁recognised":6551,"▁centres":6552,"▁affairs":6553,"▁Black":6554,"▁proof":6555,"▁tests":6556,"▁tro":6557,"▁respective":6558,"▁superv":6559,"abling":6560,"▁latter":6561,"▁articles":6562,"▁disaster":6563,"▁stations":6564,"ura":6565,"▁whatever":6566,"▁naturally":6567,"▁renewable":6568,"▁IC":6569,"▁Lib":6570,"▁involving":6571,"▁Programme":6572,"Os":6573,"rees":6574,"▁whilst":6575,"▁happens":6576,"▁valuable":6577,"▁peoples":6578,"▁cold":6579,"▁Munich":6580,"▁danger":6581,"▁Ha":6582,"▁Georg":6583,"▁NAT":6584,"▁exclusively":6585,"▁150":6586,"▁estim":6587,"▁grand":6588,"▁retain":6589,"▁trou":6590,"▁Oper":6591,"▁taxes":6592,"ora":6593,"mann":6594,"anged":6595,"▁arrangements":6596,"▁felt":6597,"▁thorough":6598,"▁Special":6599,"▁vast":6600,"▁politicians":6601,"▁hostels":6602,"▁conserv":6603,"▁bedrooms":6604,"▁covers":6605,"▁Lab":6606,"▁lose":6607,"▁Hel":6608,"▁handling":6609,"▁°":6610,"▁conditioning":6611,"▁Jew":6612,"▁mobility":6613,"▁journey":6614,"▁fill":6615,"▁opposed":6616,"▁ye":6617,"▁NG":6618,"▁spring":6619,"▁teac":6620,"▁enhance":6621,"▁breat":6622,"▁fem":6623,"▁rom":6624,"▁texts":6625,"▁dining":6626,"aria":6627,"▁diseases":6628,"▁195":6629,"gypt":6630,"▁Den":6631,"▁repeat":6632,"▁faced":6633,"▁automatic":6634,"▁Day":6635,"▁combating":6636,"▁solve":6637,"▁museum":6638,"▁John":6639,"▁Deuts":6640,"▁confirmed":6641,"▁Rule":6642,"▁Camp":6643,"▁discovered":6644,"▁Google":6645,"▁directives":6646,"▁Private":6647,"▁figure":6648,"▁PH":6649,"▁script":6650,"▁tours":6651,"▁bureauc":6652,"gment":6653,"▁Swedish":6654,"▁passengers":6655,"▁transform":6656,"▁helped":6657,"▁creative":6658,"▁fighting":6659,"▁chain":6660,"▁intellectual":6661,"▁Old":6662,"king":6663,"ris":6664,"▁producing":6665,"▁volume":6666,"▁bra":6667,"▁Pak":6668,"aming":6669,"▁obtained":6670,"▁offices":6671,"▁Paper":6672,"▁president":6673,"IV":6674,"▁Whe":6675,"▁#":6676,"▁entertainment":6677,"▁constructive":6678,"▁White":6679,"▁minim":6680,"▁Belarus":6681,"▁pick":6682,"▁Egypt":6683,"▁Good":6684,"▁dinner":6685,"▁prosper":6686,"▁protecting":6687,"▁involvement":6688,"▁fasc":6689,"▁Ministers":6690,"▁determine":6691,"▁exceptional":6692,"▁Control":6693,"iano":6694,"▁reaching":6695,"▁Sing":6696,"uls":6697,"▁serves":6698,"▁Real":6699,"▁Institute":6700,"▁flo":6701,"▁obstac":6702,"▁Safety":6703,"▁Afghanistan":6704,"▁treaty":6705,"▁Welcome":6706,"▁privile":6707,"▁rapporteurs":6708,"▁trib":6709,"▁outdoor":6710,"▁temporary":6711,"▁Bulgar":6712,"▁Charter":6713,"▁controlled":6714,"▁weather":6715,"ado":6716,"zen":6717,"▁firstly":6718,"PS":6719,"▁agg":6720,"▁Proced":6721,"▁phr":6722,"idden":6723,"▁removed":6724,"lers":6725,"sych":6726,"▁millions":6727,"▁strugg":6728,"▁awareness":6729,"▁happening":6730,"▁mit":6731,"▁Mount":6732,"▁compr":6733,"▁Fac":6734,"ita":6735,"▁impressive":6736,"▁amounts":6737,"▁referend":6738,"IR":6739,"▁boat":6740,"▁equally":6741,"▁discharge":6742,"▁Luxemb":6743,"▁consc":6744,"▁stake":6745,"▁Foundation":6746,"▁patent":6747,"▁panor":6748,"azz":6749,"▁contributions":6750,"▁Strategy":6751,"arliaments":6752,"▁looks":6753,"▁largely":6754,"▁eyes":6755,"▁mandate":6756,"orse":6757,"▁strategies":6758,"▁Finan":6759,"▁leaving":6760,"▁healthy":6761,"▁battle":6762,"▁philosoph":6763,"arc":6764,"▁Instead":6765,"itime":6766,"▁ep":6767,"anda":6768,"ja":6769,"▁gir":6770,"ailing":6771,"▁increases":6772,"▁liberalisation":6773,"▁spectac":6774,"▁reserve":6775,"ais":6776,"▁ethnic":6777,"▁Britain":6778,"▁Like":6779,"▁chap":6780,"▁bran":6781,"▁communications":6782,"▁residence":6783,"▁fantastic":6784,"▁preparation":6785,"▁frag":6786,"asts":6787,"▁wid":6788,"ör":6789,"sch":6790,"▁Ky":6791,"augh":6792,"▁Global":6793,"▁Work":6794,"▁debates":6795,"bal":6796,"▁requirement":6797,"▁remaining":6798,"sman":6799,"▁maintained":6800,"▁restrictions":6801,"book":6802,"rors":6803,"▁mal":6804,"▁depth":6805,"▁collective":6806,"▁announce":6807,"▁license":6808,"▁Nice":6809,"▁Frankfurt":6810,"▁extraord":6811,"▁inhabit":6812,"▁issued":6813,"▁Croatia":6814,"▁faith":6815,"▁mini":6816,"appoint":6817,"▁resolutions":6818,"▁officials":6819,"iest":6820,"▁arrest":6821,"▁underm":6822,"▁apparent":6823,"▁opinions":6824,"▁NATO":6825,"▁organizations":6826,"▁hospit":6827,"lymp":6828,"ype":6829,"▁Def":6830,"oul":6831,"▁charges":6832,"▁characteristics":6833,"▁sleep":6834,"▁proportion":6835,"▁decis":6836,"▁incent":6837,"▁creates":6838,"▁depends":6839,"▁illust":6840,"fol":6841,"▁contracts":6842,"▁abroad":6843,"▁Their":6844,"▁Rad":6845,"▁Ladies":6846,"▁enthus":6847,"▁ticket":6848,"▁advoc":6849,"iled":6850,"▁Dub":6851,"▁cry":6852,"▁heat":6853,"▁impression":6854,"▁prohib":6855,"iger":6856,"▁west":6857,"▁dele":6858,"▁abol":6859,"▁disap":6860,"▁intend":6861,"▁Bay":6862,"▁newly":6863,"▁formal":6864,"ht":6865,"▁Japanese":6866,"▁hair":6867,"ML":6868,"edia":6869,"▁prove":6870,"▁imper":6871,"▁couple":6872,"▁Costa":6873,"fers":6874,"▁Lou":6875,"▁Polish":6876,"▁MEPs":6877,"▁Bulgaria":6878,"▁phen":6879,"▁explore":6880,"▁accom":6881,"▁volunt":6882,"▁Serb":6883,"stood":6884,"etic":6885,"▁familiar":6886,"▁Fam":6887,"▁identify":6888,"ko":6889,"▁pattern":6890,"▁bon":6891,"▁ang":6892,"▁isol":6893,"QL":6894,"▁operational":6895,"ateful":6896,"obe":6897,"▁Financial":6898,"▁seat":6899,"▁meat":6900,"▁fee":6901,"▁Sund":6902,"▁dog":6903,"▁dia":6904,"▁doesn":6905,"▁returned":6906,"pet":6907,"elfare":6908,"▁messages":6909,"▁GDP":6910,"hop":6911,"▁Balk":6912,"▁je":6913,"▁Procedure":6914,"hent":6915,"ittees":6916,"▁shad":6917,"andon":6918,"▁remote":6919,"▁cab":6920,"▁revolution":6921,"▁Olymp":6922,"▁conflicts":6923,"▁witness":6924,"▁U.S.":6925,"▁metal":6926,"▁sexual":6927,"▁standing":6928,"atre":6929,"▁recip":6930,"▁gets":6931,"▁surroundings":6932,"▁River":6933,"▁Bos":6934,"▁Through":6935,"▁classic":6936,"ander":6937,"no":6938,"▁hardware":6939,"▁Frid":6940,"▁complain":6941,"ded":6942,"▁disappoint":6943,".7":6944,"▁regularly":6945,"▁youth":6946,"▁cutting":6947,"iti":6948,"▁attend":6949,"▁Data":6950,"▁universal":6951,"▁enforce":6952,"▁customs":6953,"▁Read":6954,"▁carbon":6955,"▁label":6956,"▁drawing":6957,"▁facilitate":6958,"son":6959,"▁massive":6960,"▁cable":6961,"▁Product":6962,"▁Hotels":6963,"eries":6964,"▁pret":6965,"▁regulatory":6966,"▁aftern":6967,"igation":6968,"struction":6969,"▁Alliance":6970,"holders":6971,"▁See":6972,"▁Vol":6973,"▁recommendation":6974,"what":6975,"▁parliaments":6976,"▁acquis":6977,"▁renovated":6978,"▁copyright":6979,"▁sauna":6980,"▁organized":6981,"▁topic":6982,"▁tail":6983,"▁dark":6984,"▁artist":6985,"govern":6986,"▁parents":6987,"▁Luxembourg":6988,"▁holding":6989,"▁gone":6990,"▁displayed":6991,"▁bottom":6992,"▁conducted":6993,"▁walls":6994,"▁reserves":6995,"▁reported":6996,"▁Dr.":6997,"▁Agricult":6998,"▁util":6999,"▁awa":7000,"▁listen":7001,"▁visa":7002,"▁seeing":7003,"▁hundreds":7004,"▁Time":7005,"▁album":7006,"▁properties":7007,"▁accompan":7008,"▁Street":7009,"▁reveal":7010,"▁htt":7011,"80":7012,"uing":7013,"▁continent":7014,"▁depending":7015,"▁performed":7016,"▁minority":7017,"▁SMEs":7018,"oral":7019,"▁Roma":7020,"▁ought":7021,"▁02":7022,"▁Austral":7023,"▁career":7024,"cohol":7025,"▁define":7026,"▁favor":7027,"II":7028,"▁Law":7029,"▁toler":7030,"▁towns":7031,"▁Pakistan":7032,"▁owner":7033,"IF":7034,"▁phenomen":7035,"▁balcony":7036,"▁Equ":7037,"▁somewhat":7038,"▁supposed":7039,"orge":7040,"▁worse":7041,"▁connections":7042,"zer":7043,"▁demanding":7044,"▁settings":7045,"▁joined":7046,"▁northern":7047,"▁minist":7048,"▁deals":7049,"▁unp":7050,"▁transportation":7051,"▁answers":7052,"▁frequently":7053,"▁therm":7054,"opol":7055,"▁magaz":7056,"▁quarter":7057,"▁emergency":7058,"▁Cypr":7059,"▁400":7060,"▁noted":7061,"cont":7062,"▁islands":7063,"▁faster":7064,"▁grateful":7065,"governmental":7066,"▁follows":7067,"▁Cyprus":7068,"▁gender":7069,".9":7070,"▁marg":7071,"esty":7072,"▁vacation":7073,"icon":7074,"▁Bro":7075,"▁abandon":7076,"▁fulfil":7077,"▁EM":7078,"▁Dav":7079,"▁focused":7080,"tered":7081,"▁Canada":7082,"▁Secret":7083,"▁discount":7084,"oub":7085,"▁lobby":7086,"ifies":7087,"▁Church":7088,"▁ultimately":7089,"▁2020":7090,"▁Dom":7091,"▁delighted":7092,"US":7093,"▁divided":7094,"▁updated":7095,"▁string":7096,"▁finished":7097,"▁welfare":7098,"▁driver":7099,"▁Count":7100,"aught":7101,"▁tob":7102,"▁Sov":7103,"▁eastern":7104,"ache":7105,"▁decorated":7106,"rote":7107,"uese":7108,"▁Saint":7109,"iform":7110,"▁worry":7111,"▁nom":7112,"▁wines":7113,"urious":7114,"duc":7115,"▁mostly":7116,"▁alt":7117,"▁contacts":7118,"▁behavi":7119,"▁edge":7120,"▁valley":7121,"▁electricity":7122,"▁SP":7123,"▁Square":7124,"▁Struct":7125,"▁techniques":7126,"▁incom":7127,"▁library":7128,"▁shap":7129,"▁compatible":7130,"enary":7131,"▁effectiveness":7132,"▁dates":7133,"DE":7134,"▁expan":7135,"▁&apos;ve":7136,"▁statistics":7137,"▁pollution":7138,"▁complement":7139,"▁Stand":7140,"▁invite":7141,"▁Fer":7142,"▁Whether":7143,"▁courage":7144,"▁visible":7145,"▁heritage":7146,"cap":7147,"▁severe":7148,"▁protocol":7149,"▁1995":7150,"▁Monetary":7151,"▁declaration":7152,"▁castle":7153,"▁relaxation":7154,"anqu":7155,"got":7156,"▁inhabitants":7157,"▁193":7158,"▁Year":7159,"▁involves":7160,"▁migration":7161,"▁Prag":7162,"▁Slovak":7163,"▁visual":7164,"ether":7165,"enhagen":7166,"▁interior":7167,"▁profile":7168,"▁subsidies":7169,"pass":7170,"oured":7171,"▁root":7172,"▁Disc":7173,"▁terrorist":7174,"▁starts":7175,"▁stored":7176,"▁Israeli":7177,"▁iron":7178,"▁Child":7179,"▁sac":7180,"▁drivers":7181,"▁http":7182,"atures":7183,"▁Schen":7184,"▁careful":7185,"▁passenger":7186,"▁tourists":7187,"▁widely":7188,"▁trafficking":7189,"▁presents":7190,"▁ball":7191,"▁Portuguese":7192,"▁stars":7193,"▁indicated":7194,"▁locations":7195,"ala":7196,"▁Soviet":7197,"▁advis":7198,"▁arrive":7199,"▁provider":7200,"▁disappe":7201,"▁afternoon":7202,"▁appointed":7203,"▁corresponding":7204,"▁proc":7205,"▁parad":7206,"▁cycle":7207,"▁input":7208,"roc":7209,"▁flights":7210,"rier":7211,"ae":7212,"▁Fram":7213,"▁understood":7214,"▁visited":7215,"▁channels":7216,"▁amaz":7217,"▁showing":7218,"▁demonstrate":7219,"▁exciting":7220,"▁collaboration":7221,"▁ing":7222,"▁demonstrated":7223,"ael":7224,"▁planet":7225,"▁Pack":7226,"▁maintaining":7227,"▁cash":7228,"▁functioning":7229,"▁magnific":7230,"obile":7231,"▁stylish":7232,"othing":7233,"▁accident":7234,"▁heating":7235,"▁Question":7236,"▁printing":7237,"▁iP":7238,"▁solar":7239,"▁Main":7240,"▁Hall":7241,"iam":7242,"arters":7243,"▁investors":7244,"▁entrance":7245,"▁Spa":7246,"▁Palace":7247,"▁signs":7248,"rical":7249,"▁poss":7250,"▁Transport":7251,"▁GN":7252,"▁proved":7253,"uated":7254,"acco":7255,"lav":7256,"uous":7257,"▁Pact":7258,"▁tickets":7259,"igen":7260,"▁corruption":7261,"comm":7262,"▁benefic":7263,"▁settlement":7264,"▁detect":7265,"▁monu":7266,"▁committees":7267,"▁restruct":7268,"▁Bon":7269,"orf":7270,"▁match":7271,"▁spoken":7272,"▁accompanied":7273,"ales":7274,"▁Vice":7275,"▁imposed":7276,"▁Mich":7277,"▁alcohol":7278,"▁Conc":7279,"▁transition":7280,"▁commission":7281,"▁Director":7282,"▁expansion":7283,"▁raw":7284,"▁personnel":7285,"▁caf":7286,"▁lovely":7287,"▁Post":7288,"▁Station":7289,"▁S.":7290,"▁suites":7291,"▁Baltic":7292,"▁newsp":7293,"▁documentation":7294,"▁concluded":7295,"icht":7296,"▁EN":7297,"irt":7298,"▁resistance":7299,"▁Amendments":7300,"▁boost":7301,"▁Phot":7302,"▁Power":7303,"▁citizen":7304,"▁visiting":7305,"▁Report":7306,"▁theme":7307,"▁Protection":7308,"▁hostel":7309,"▁ongoing":7310,"▁contrad":7311,"▁distingu":7312,"▁Schengen":7313,"▁restric":7314,"▁western":7315,"▁configuration":7316,"▁Form":7317,"▁Applause":7318,"je":7319,"▁recorded":7320,"▁Perhaps":7321,"▁Korea":7322,"inent":7323,"umer":7324,"▁minorities":7325,"lean":7326,"emark":7327,"▁Friday":7328,"▁gardens":7329,"▁fitness":7330,"▁Copenhagen":7331,"SS":7332,"▁channel":7333,"▁behaviour":7334,"▁ll":7335,"▁smooth":7336,"▁judicial":7337,"▁department":7338,"▁awarded":7339,"▁sugar":7340,"▁speaker":7341,"▁containing":7342,"▁Prague":7343,"▁Four":7344,"▁phrase":7345,"▁respected":7346,"▁constitution":7347,"▁Es":7348,"▁foundation":7349,"▁renow":7350,"▁AR":7351,"▁oral":7352,"▁lounge":7353,"▁ST":7354,"uzz":7355,"▁tri":7356,"▁mm":7357,"▁occasions":7358,"▁tackle":7359,"onal":7360,"▁possibly":7361,"▁crimes":7362,"iner":7363,"▁explicit":7364,"▁manufacturer":7365,"▁bilateral":7366,"▁OF":7367,"▁windows":7368,"▁Funds":7369,"▁educational":7370,"▁king":7371,"▁desired":7372,"▁gar":7373,"▁Wik":7374,"▁Nord":7375,"▁cosy":7376,"▁rub":7377,"▁sad":7378,"▁immigrants":7379,"▁replaced":7380,"▁spectacular":7381,"▁competent":7382,"▁Hungary":7383,"▁ISO":7384,"▁ast":7385,"vant":7386,"rence":7387,"rapy":7388,"▁facility":7389,"▁psych":7390,"▁Europ":7391,"▁COM":7392,"▁assume":7393,"▁Belgium":7394,"di":7395,"▁mac":7396,"▁intens":7397,"▁routes":7398,"▁firms":7399,"▁oriented":7400,"▁subsidiarity":7401,"▁determination":7402,"▁ice":7403,"▁gram":7404,"▁Fi":7405,"▁virtual":7406,"▁overcome":7407,"▁Paul":7408,"▁Mat":7409,"▁rapidly":7410,"ogether":7411,"▁endorse":7412,"▁tun":7413,"itt":7414,"▁ol":7415,"▁scheme":7416,"▁correctly":7417,"▁CH":7418,"▁School":7419,"rog":7420,"▁professionals":7421,".8":7422,"▁credibility":7423,"otic":7424,"▁transactions":7425,"yer":7426,"▁sending":7427,"unk":7428,"▁facts":7429,"▁destruction":7430,"gent":7431,"SP":7432,"▁bright":7433,"▁thumb":7434,"▁certific":7435,"▁Description":7436,"▁Barro":7437,"▁functional":7438,"▁pieces":7439,"ipe":7440,"▁milk":7441,"▁plenty":7442,"▁films":7443,"▁satisfied":7444,"▁declared":7445,"ión":7446,"▁partly":7447,"▁constitutional":7448,"▁woman":7449,"▁Following":7450,"▁infring":7451,"▁usual":7452,"▁alarm":7453,"▁Fre":7454,"▁inflation":7455,"▁motiv":7456,"see":7457,"▁Town":7458,"▁globalisation":7459,"▁deposit":7460,"▁formed":7461,"▁Structural":7462,"▁exit":7463,"▁era":7464,"▁suppliers":7465,"▁component":7466,"▁uncertain":7467,"▁centuries":7468,"▁Hungarian":7469,"▁adopting":7470,"▁Nos":7471,"mar":7472,"och":7473,"▁prompt":7474,"▁flood":7475,"ige":7476,"▁liqu":7477,"▁stronger":7478,"▁Ev":7479,"▁shares":7480,"▁Action":7481,"▁bug":7482,"visory":7483,"ban":7484,"▁taxation":7485,"stra":7486,"▁uniform":7487,"tical":7488,"▁Within":7489,"▁addresses":7490,"▁03":7491,"▁Bush":7492,"▁plenary":7493,"▁les":7494,"▁assets":7495,"▁Thurs":7496,"▁argument":7497,"duction":7498,"▁mun":7499,"etheless":7500,"▁proposes":7501,"▁definitely":7502,"▁poore":7503,"▁authent":7504,"▁Madrid":7505,"▁coal":7506,"▁sharing":7507,"▁extraordinary":7508,"▁dign":7509,"▁providers":7510,"▁preparing":7511,"AG":7512,"▁Given":7513,"▁saving":7514,"▁identified":7515,"amburg":7516,"▁died":7517,"▁courts":7518,"▁suffer":7519,"▁thousand":7520,"▁division":7521,"▁Thirdly":7522,"▁tast":7523,"▁proven":7524,"▁encouraging":7525,"▁magnificent":7526,"▁Stras":7527,"▁distributed":7528,"▁Dec":7529,"▁ensures":7530,"▁VAT":7531,"▁minister":7532,"▁plays":7533,"▁forum":7534,"▁rental":7535,"▁bill":7536,"▁generated":7537,"▁narrow":7538,"elled":7539,"▁actively":7540,"▁unw":7541,"▁resolved":7542,"▁consent":7543,"▁domain":7544,"EE":7545,"▁roads":7546,"▁substance":7547,"▁belief":7548,"▁Northern":7549,"▁Die":7550,"▁slightly":7551,"▁Was":7552,"▁surf":7553,"▁eat":7554,"▁inclusion":7555,"▁colon":7556,"▁emot":7557,"▁assure":7558,"▁artistic":7559,"▁adults":7560,"40":7561,"▁examine":7562,"▁Mexico":7563,"▁Champ":7564,"▁cere":7565,"▁fat":7566,"ky":7567,"ador":7568,"▁considering":7569,"tes":7570,"▁updates":7571,"umin":7572,"▁unfor":7573,"uality":7574,"▁owned":7575,"▁army":7576,"lo":7577,"▁au":7578,"teen":7579,"▁Inn":7580,"RA":7581,"▁flu":7582,"▁concepts":7583,"zy":7584,"▁rank":7585,"▁dependent":7586,"▁decisive":7587,"▁duties":7588,"▁partial":7589,"ENT":7590,"eless":7591,"▁university":7592,"▁miles":7593,"agers":7594,"▁manager":7595,"▁sched":7596,"▁carrying":7597,"▁EL":7598,"▁proposing":7599,"▁broadcast":7600,"ham":7601,"▁lists":7602,"▁warrant":7603,"▁employed":7604,"▁tobacco":7605,"▁suit":7606,"▁insert":7607,"▁everyday":7608,".T":7609,"▁Without":7610,"▁lots":7611,"▁Phil":7612,"▁weekend":7613,"▁ACP":7614,"▁voluntary":7615,"▁Inf":7616,"▁moral":7617,"▁inj":7618,"ahn":7619,"▁applying":7620,"▁Bad":7621,"▁subjects":7622,"▁packaging":7623,"▁Arch":7624,"▁für":7625,"ADS":7626,"rd":7627,"▁Earth":7628,"▁vary":7629,"▁maritime":7630,"▁luxurious":7631,"▁solely":7632,"▁Chair":7633,"▁....":7634,"▁nevertheless":7635,"▁Technology":7636,"▁Cam":7637,"▁emerging":7638,"▁renowned":7639,"▁distort":7640,"band":7641,"▁PT":7642,"▁fourth":7643,"▁Media":7644,"▁eventually":7645,"▁vulnerable":7646,"▁diverse":7647,"▁Exper":7648,"▁jur":7649,"unning":7650,"▁Hamburg":7651,"▁Ann":7652,"bar":7653,"▁traditions":7654,"▁upper":7655,"▁Travel":7656,"▁lie":7657,"▁defect":7658,"point":7659,"▁wrote":7660,"▁Elect":7661,"▁legitimate":7662,"ationally":7663,"▁Among":7664,"▁supplies":7665,"▁Fe":7666,"▁1,":7667,"▁intensive":7668,"repren":7669,"▁Thursday":7670,"▁od":7671,"▁discipl":7672,"▁offic":7673,"▁ships":7674,"OU":7675,"▁GM":7676,"▁impose":7677,"▁condemn":7678,"▁Sur":7679,"▁supplier":7680,"repreneur":7681,"▁autonom":7682,"▁zu":7683,"▁suggestions":7684,"▁theory":7685,"▁EADS":7686,"▁musical":7687,"▁topics":7688,"▁England":7689,"▁Treat":7690,"▁Besides":7691,"▁shipping":7692,"los":7693,"▁abuse":7694,"▁absence":7695,"▁Women":7696,"▁elsewhere":7697,"tery":7698,"cean":7699,"▁lessons":7700,"▁gained":7701,"▁Fil":7702,"▁appeared":7703,"▁Assembly":7704,"▁Framework":7705,"▁boot":7706,"▁greatly":7707,"▁Tourism":7708,"▁dism":7709,"▁Who":7710,"▁fran":7711,"▁filled":7712,"▁director":7713,"▁villages":7714,"▁Sun":7715,"▁satisfaction":7716,"▁interpretation":7717,"▁unforget":7718,"gic":7719,"aling":7720,"▁departure":7721,"▁enabled":7722,"▁representation":7723,"▁Island":7724,"▁arrived":7725,"▁PHP":7726,"▁countryside":7727,"▁regarded":7728,"▁index":7729,"▁Author":7730,"▁Santa":7731,"▁Profess":7732,"▁finish":7733,"tion":7734,"▁teams":7735,"pire":7736,"▁earn":7737,"▁philosophy":7738,"▁nights":7739,"▁Gene":7740,"▁decent":7741,"▁ped":7742,"ema":7743,"▁excessive":7744,"lt":7745,"inn":7746,"ressed":7747,"▁farming":7748,"bourg":7749,"▁winning":7750,"▁tight":7751,"▁deficit":7752,"▁drinks":7753,"▁Desk":7754,"▁acknowledge":7755,"▁preced":7756,"▁specified":7757,"▁Atlantic":7758,"while":7759,"▁Ham":7760,"▁Stock":7761,"▁Site":7762,"▁Ze":7763,"▁receiving":7764,"▁Page":7765,"▁difficulty":7766,"▁Guests":7767,"▁crew":7768,"▁2011":7769,"iences":7770,"▁acting":7771,"▁spoke":7772,"▁patient":7773,"▁Class":7774,"▁Lu":7775,"▁reservations":7776,"▁Legal":7777,"▁module":7778,"▁description":7779,"▁Sunday":7780,"▁37":7781,"▁48":7782,"▁skiing":7783,"▁Agriculture":7784,"▁bridge":7785,"lined":7786,"▁exports":7787,"▁invited":7788,"▁realistic":7789,"▁comparison":7790,"▁Mot":7791,"▁disabled":7792,"▁colours":7793,"inger":7794,"▁MP":7795,"box":7796,"oubted":7797,"▁poly":7798,"iro":7799,"IB":7800,"ement":7801,"▁Wall":7802,"▁equival":7803,"▁Mult":7804,"▁rot":7805,"letter":7806,"▁housing":7807,"▁forests":7808,"▁lunch":7809,"ima":7810,"▁Having":7811,"▁suggested":7812,"▁Royal":7813,"▁3D":7814,"▁scene":7815,"▁Fire":7816,"stein":7817,"▁Hy":7818,"▁semin":7819,"▁33":7820,"▁burn":7821,"vo":7822,"▁attempts":7823,"▁pursue":7824,"lights":7825,"▁id":7826,"▁fix":7827,"▁Conf":7828,"▁CE":7829,"zone":7830,"ographical":7831,"▁savings":7832,"▁overview":7833,"uggage":7834,"▁periods":7835,"▁permitted":7836,"▁federal":7837,"▁princip":7838,"▁Beach":7839,"▁pra":7840,"▁horse":7841,"▁TO":7842,"▁lift":7843,"▁ports":7844,"atz":7845,"▁roof":7846,"ba":7847,"▁reaction":7848,"▁arguments":7849,"mon":7850,"▁cul":7851,"▁Tar":7852,"▁Down":7853,"▁unlike":7854,"▁Ext":7855,"▁doors":7856,"▁75":7857,"▁Tip":7858,"ibet":7859,"▁enjoyed":7860,"ultane":7861,"▁Vill":7862,"▁1990":7863,"▁destroyed":7864,"▁ID":7865,"▁champ":7866,"▁Monday":7867,"▁religion":7868,"▁fer":7869,"▁obliged":7870,"▁cooperate":7871,"▁manual":7872,"▁constitute":7873,"ixt":7874,"▁stabil":7875,"▁refers":7876,"▁delicious":7877,"▁banking":7878,"▁Festival":7879,"hips":7880,"▁Code":7881,"▁enabling":7882,"change":7883,"▁leaves":7884,"▁portfol":7885,"orry":7886,"▁Food":7887,"▁Front":7888,"▁revision":7889,"wing":7890,"▁directory":7891,"▁confirmation":7892,"▁tables":7893,"▁resource":7894,"▁justified":7895,"▁Congress":7896,"▁disk":7897,"▁ist":7898,"osis":7899,"▁paying":7900,"▁Jac":7901,"▁harmonisation":7902,"eting":7903,"▁Educ":7904,"gence":7905,"▁politically":7906,"▁Adm":7907,"▁continuous":7908,"▁tennis":7909,"▁bomb":7910,"▁municip":7911,"aud":7912,"▁1994":7913,"▁PDF":7914,"▁rid":7915,"▁significance":7916,"▁specialist":7917,"▁reput":7918,"▁football":7919,"▁unforgettable":7920,"fe":7921,"▁freedoms":7922,"▁CO2":7923,"▁legally":7924,"▁Fort":7925,"▁Golf":7926,"▁twenty":7927,"▁Alex":7928,"▁publication":7929,"▁lov":7930,"▁referendum":7931,"site":7932,"icing":7933,"▁trademark":7934,"allel":7935,"aft":7936,"▁bab":7937,"▁radical":7938,"▁por":7939,"▁amen":7940,"▁imports":7941,"▁lasting":7942,"▁welcomed":7943,"▁Strasbourg":7944,"advant":7945,"▁negotiating":7946,"▁sought":7947,"▁Salz":7948,"▁Invest":7949,"▁Flore":7950,"▁trips":7951,"ulf":7952,"▁killed":7953,"▁cleaning":7954,"▁Federation":7955,"▁Finland":7956,"▁deserv":7957,"▁entrepreneur":7958,"▁Auditors":7959,"bus":7960,"▁rare":7961,"▁handle":7962,"▁instructions":7963,"▁directed":7964,"▁retail":7965,"▁supervision":7966,"▁rising":7967,"▁AT":7968,"▁prosperity":7969,"oubtedly":7970,"IG":7971,"▁antic":7972,"▁characters":7973,"▁forthcoming":7974,"▁lived":7975,"▁tree":7976,"▁•":7977,"rel":7978,"▁Hist":7979,"onymous":7980,"oration":7981,"hedral":7982,"▁Socialist":7983,"heim":7984,"▁disadvant":7985,"ulous":7986,"▁192":7987,"▁complicated":7988,"pay":7989,"▁empt":7990,"ida":7991,"▁tested":7992,"nex":7993,"▁Barroso":7994,"▁festival":7995,"▁Mill":7996,"▁tea":7997,"▁attrib":7998,"▁labelling":7999,"▁societies":8000,"▁Facilities":8001,"▁surely":8002,"▁bul":8003,"▁welcomes":8004,"▁suffered":8005,"▁enterprise":8006,"▁allocated":8007,"▁proceedings":8008,"▁compact":8009,"▁EP":8010,"▁inspect":8011,"▁indirect":8012,"LE":8013,"▁contributed":8014,"▁ordinary":8015,"▁mir":8016,"▁beings":8017,"▁inn":8018,"▁Coop":8019,"▁wheel":8020,".de":8021,"▁modules":8022,"▁parameters":8023,"gl":8024,"▁everybody":8025,"▁surve":8026,"▁preventing":8027,"▁bag":8028,"▁firmly":8029,"wood":8030,"▁appearance":8031,"▁Situated":8032,"▁selling":8033,"▁realise":8034,"▁fans":8035,"▁homes":8036,"▁Dist":8037,"▁bond":8038,"▁gallery":8039,"▁devot":8040,"▁clubs":8041,"▁none":8042,"care":8043,"▁sounds":8044,"▁conce":8045,"▁hyd":8046,"▁wider":8047,"ownt":8048,"▁originally":8049,"▁una":8050,"▁remained":8051,"▁fabric":8052,"▁programming":8053,"urday":8054,"part":8055,"mbud":8056,"▁academ":8057,"▁Tibet":8058,"▁Secretary":8059,"▁hol":8060,"▁evident":8061,"▁horiz":8062,"▁introducing":8063,"▁USB":8064,"ronom":8065,"▁acknowled":8066,"hetic":8067,"▁spons":8068,"▁Exec":8069,"▁HT":8070,"▁RE":8071,"▁wellness":8072,"▁gather":8073,"▁remarks":8074,"▁Serbia":8075,"▁pharm":8076,"▁Pass":8077,"▁recognized":8078,"▁Moroc":8079,"my":8080,"▁romantic":8081,"▁barriers":8082,"▁Bol":8083,"▁Should":8084,"▁passion":8085,"eller":8086,"▁cuts":8087,"enth":8088,"▁ECU":8089,"▁Sud":8090,"▁functionality":8091,"▁Islamic":8092,"▁reconc":8093,"med":8094,"▁indicate":8095,"▁hardly":8096,"▁sustainability":8097,"▁judge":8098,"encing":8099,"▁cells":8100,"▁Las":8101,"▁Peter":8102,"▁SD":8103,"▁Stability":8104,"▁protest":8105,"▁prime":8106,"▁fees":8107,"▁simultane":8108,"▁switch":8109,"▁Gall":8110,"▁Rem":8111,"▁hospitality":8112,"▁crop":8113,"▁ranging":8114,"▁enhanced":8115,"▁exclusion":8116,"▁vessels":8117,"aughter":8118,"ployed":8119,"wan":8120,"▁craft":8121,"▁deter":8122,"▁Americans":8123,"▁Michael":8124,"▁hearing":8125,"▁obstacles":8126,"apt":8127,"▁Project":8128,"▁SC":8129,"▁Gran":8130,"▁whereas":8131,"eav":8132,"ista":8133,"▁Start":8134,"▁Indian":8135,"▁movements":8136,"▁sections":8137,"▁photograph":8138,"Script":8139,"▁Express":8140,"sequent":8141,"▁errors":8142,"▁welcoming":8143,"11":8144,"▁Online":8145,"▁combine":8146,"▁Does":8147,"▁adapted":8148,"▁saved":8149,"▁Charl":8150,"▁legitim":8151,"▁explained":8152,"▁hes":8153,"uer":8154,"▁democrat":8155,"▁Put":8156,"▁transmission":8157,"▁collected":8158,"▁34":8159,"▁wireless":8160,"▁frame":8161,"▁bird":8162,"ints":8163,"▁investigation":8164,"▁accurate":8165,"▁Tun":8166,"▁Sloven":8167,"▁internationally":8168,"▁museums":8169,"▁organic":8170,"▁classes":8171,"eds":8172,"▁regardless":8173,"▁missing":8174,"▁stocks":8175,"▁decre":8176,"▁considerably":8177,"▁exploitation":8178,"▁bike":8179,"▁Commissioners":8180,"▁disasters":8181,"▁prox":8182,"▁shar":8183,"▁acceptance":8184,"▁imagine":8185,"▁amazing":8186,"ago":8187,"iversary":8188,"▁Via":8189,"▁turning":8190,"▁Regional":8191,"ignt":8192,"▁covering":8193,"▁movie":8194,"▁productivity":8195,"▁showed":8196,"▁didn":8197,"▁fleet":8198,"isp":8199,"▁united":8200,"eff":8201,"▁looked":8202,"▁juris":8203,"▁toile":8204,"▁universities":8205,"▁ru":8206,"▁reflected":8207,"▁recall":8208,"▁interview":8209,"▁euros":8210,"ernel":8211,"▁Access":8212,"▁Bern":8213,"▁dignity":8214,"▁Asian":8215,"▁Music":8216,"commun":8217,"oes":8218,"▁1st":8219,"▁novel":8220,"▁syn":8221,"▁deliber":8222,"▁soph":8223,"oslav":8224,"▁ministers":8225,"▁dialog":8226,"▁CAP":8227,"▁Dol":8228,"ipp":8229,"▁generate":8230,"▁Kl":8231,"▁diagn":8232,"irk":8233,"▁excluded":8234,"60":8235,"▁nine":8236,"▁alleg":8237,"▁Ol":8238,"▁Kar":8239,"▁penalty":8240,"▁ride":8241,"▁female":8242,"▁dos":8243,"▁gap":8244,"▁Van":8245,"▁undoubtedly":8246,"▁endeav":8247,"▁dies":8248,"▁Luc":8249,"▁desk":8250,"▁checks":8251,"▁mobil":8252,"▁timet":8253,"TA":8254,"▁sett":8255,"▁prest":8256,"▁violations":8257,"ga":8258,"water":8259,"▁Gr":8260,"▁Partners":8261,"▁inev":8262,"opes":8263,"nia":8264,"▁Sou":8265,"▁Saturday":8266,"▁ingred":8267,"DA":8268,"▁fan":8269,"▁Ros":8270,"ktop":8271,"▁distinct":8272,"ili":8273,"▁19th":8274,"cession":8275,"▁studio":8276,"▁filter":8277,"▁consulting":8278,"▁Venice":8279,"▁Sup":8280,"uled":8281,"▁catch":8282,"▁believes":8283,"▁generations":8284,"▁songs":8285,"▁Geneva":8286,"kes":8287,"isch":8288,"icyc":8289,"▁computers":8290,"▁notes":8291,"ido":8292,"▁videos":8293,"▁ben":8294,"▁layer":8295,"hy":8296,"▁splend":8297,"▁Balkans":8298,"▁managing":8299,"▁Christmas":8300,"▁transferred":8301,"▁cancer":8302,"▁travelling":8303,"▁honour":8304,"uels":8305,"▁PPE":8306,"▁stret":8307,"▁Resort":8308,"ía":8309,"▁plastic":8310,"▁clause":8311,"▁climb":8312,"▁sovereignt":8313,"mbudsman":8314,"▁Yug":8315,"▁&apos;A":8316,"▁View":8317,"▁Valley":8318,"uster":8319,"▁concentrate":8320,"▁Du":8321,"pir":8322,"atch":8323,"▁rac":8324,"▁massage":8325,"▁incred":8326,"▁supplied":8327,"▁reliability":8328,"▁restored":8329,"▁coordinated":8330,".30":8331,"▁satisfy":8332,"▁sym":8333,"▁breed":8334,"▁stages":8335,"▁Stat":8336,"▁Organisation":8337,"▁liked":8338,"▁codec":8339,"▁driven":8340,"▁parallel":8341,"▁sheet":8342,"▁undertaken":8343,"▁Bre":8344,"▁freely":8345,"▁reflects":8346,"▁amenities":8347,"▁shadow":8348,"▁Corpor":8349,"▁Wed":8350,"▁ended":8351,"▁Mess":8352,"▁fishermen":8353,"▁BM":8354,"▁arbit":8355,"▁38":8356,"▁subsequent":8357,"▁superior":8358,"quiry":8359,"▁prol":8360,"chant":8361,"▁Cho":8362,"▁Australia":8363,"▁restore":8364,"erman":8365,"▁synt":8366,"▁cock":8367,"▁edition":8368,"▁worst":8369,"active":8370,"▁Agenda":8371,"▁reconstruction":8372,"▁Support":8373,"▁ECB":8374,"▁98":8375,"▁strengthened":8376,"▁sovereignty":8377,"▁Yugoslav":8378,"ani":8379,"▁para":8380,"▁designs":8381,"usal":8382,"laim":8383,"▁anticip":8384,"ua":8385,"rie":8386,"▁interv":8387,"▁Casino":8388,"▁vig":8389,"iov":8390,"▁bio":8391,"ieval":8392,"▁Next":8393,"otive":8394,"▁expos":8395,"▁Gar":8396,"anz":8397,"▁restructuring":8398,"St":8399,"▁Tem":8400,"▁losses":8401,"inet":8402,"▁peak":8403,"▁arise":8404,"▁Cond":8405,"▁Represent":8406,".org":8407,"ograp":8408,"▁cultures":8409,"▁learned":8410,"▁enem":8411,"▁liquid":8412,"adequ":8413,"▁thermal":8414,"lets":8415,"▁assembly":8416,"▁sequ":8417,"▁repair":8418,"▁Pu":8419,"▁underground":8420,"▁neighbouring":8421,"▁Common":8422,"▁250":8423,"ih":8424,"▁approve":8425,"▁listings":8426,"▁Martin":8427,"eline":8428,"▁anywhere":8429,"▁province":8430,"ilding":8431,"ela":8432,"▁Systems":8433,"▁ordered":8434,"▁RO":8435,"▁processed":8436,"▁briefly":8437,"▁targeted":8438,"▁picturesque":8439,"▁2013":8440,"▁Culture":8441,"artment":8442,"▁calm":8443,"▁squ":8444,"▁push":8445,"▁Mic":8446,"▁SE":8447,"▁equivalent":8448,"▁sud":8449,"▁Expl":8450,"▁floors":8451,"▁42":8452,"▁panoramic":8453,"jo":8454,"▁Carl":8455,"▁holds":8456,"▁hiking":8457,"▁Friend":8458,"▁Mr.":8459,"▁treatments":8460,"▁trends":8461,"▁unfair":8462,"▁unne":8463,"▁Education":8464,"▁Civil":8465,"irty":8466,"▁height":8467,"▁raising":8468,"▁inadequ":8469,"▁disag":8470,"▁engage":8471,"olic":8472,"hof":8473,"▁tracks":8474,"night":8475,"ario":8476,"▁anniversary":8477,"▁deeply":8478,"▁Pay":8479,"▁Consequently":8480,"▁Trek":8481,"▁varied":8482,"▁a.m.":8483,"▁individually":8484,"▁Executive":8485,"▁constitu":8486,"▁portfolio":8487,"ingly":8488,"▁User":8489,"▁multilateral":8490,"▁Islands":8491,"▁39":8492,"itan":8493,"▁factory":8494,"icks":8495,"▁Castle":8496,"▁Georgia":8497,"▁damages":8498,"▁adds":8499,"▁honest":8500,"▁Denmark":8501,"itative":8502,"▁pretty":8503,"uv":8504,"▁sensible":8505,"▁necessarily":8506,"down":8507,"ridge":8508,"ket":8509,"▁aside":8510,"▁panel":8511,"edly":8512,"▁editor":8513,"▁presenting":8514,"▁unnecess":8515,"▁pip":8516,"▁fly":8517,"▁stuff":8518,"▁Sam":8519,"▁Gen":8520,"▁Look":8521,"▁attached":8522,"▁ecological":8523,"▁NGOs":8524,"▁hill":8525,"▁formats":8526,"▁absor":8527,"▁guard":8528,"▁student":8529,"▁sights":8530,"▁engaged":8531,"▁downt":8532,"▁vine":8533,"▁News":8534,"▁Belgian":8535,"▁Fisher":8536,"▁olive":8537,"▁controvers":8538,"▁normally":8539,"▁MyS":8540,"club":8541,"▁reputation":8542,"stream":8543,"▁AD":8544,"▁appropriations":8545,"▁printed":8546,"itar":8547,"▁tranqu":8548,"inder":8549,"▁CF":8550,"▁territorial":8551,"time":8552,"▁Team":8553,"▁vib":8554,"SL":8555,"▁execution":8556,"ford":8557,"▁boy":8558,"▁vit":8559,"isticated":8560,"▁pus":8561,"▁differ":8562,"▁teaching":8563,"▁jurisd":8564,"▁intends":8565,"▁1992":8566,"▁executive":8567,"▁Family":8568,"▁Trad":8569,"▁profits":8570,"umping":8571,"▁everywhere":8572,"▁threats":8573,"▁Consumer":8574,"▁é":8575,"▁highlights":8576,"▁Gent":8577,"▁referring":8578,"▁vent":8579,"▁budgets":8580,"▁Protocol":8581,"▁decade":8582,"mm":8583,"td":8584,"▁pilot":8585,"▁shoot":8586,"▁accompl":8587,"fin":8588,"orous":8589,"▁Would":8590,"▁Ombudsman":8591,"▁entering":8592,"▁fairly":8593,"▁Max":8594,"CD":8595,"▁CS":8596,"▁usage":8597,"▁engines":8598,"▁efficiently":8599,"off":8600,"▁04":8601,"onic":8602,"▁recording":8603,"▁urgently":8604,"inen":8605,"enues":8606,"▁traged":8607,"▁hyp":8608,"iler":8609,"▁mas":8610,"celer":8611,"hered":8612,"▁cater":8613,"▁relates":8614,"▁compuls":8615,"▁layout":8616,"pread":8617,"▁aer":8618,"▁fal":8619,"▁geographical":8620,"▁Lastly":8621,"▁rain":8622,"▁begins":8623,"▁Islam":8624,"▁pillar":8625,"▁assign":8626,"▁Tom":8627,"▁stunning":8628,"▁800":8629,"▁Customer":8630,"▁phenomenon":8631,"▁arg":8632,"▁till":8633,"▁kilometres":8634,"▁wides":8635,"▁reserved":8636,"▁shock":8637,"▁promised":8638,"▁overlooking":8639,"▁struggle":8640,".000":8641,"▁Lith":8642,"▁acquired":8643,"hn":8644,"▁mouse":8645,"▁calend":8646,"▁pul":8647,"▁clin":8648,"▁produces":8649,"gin":8650,"▁Clear":8651,"▁AP":8652,"▁arising":8653,"▁Ret":8654,"▁decline":8655,"▁refund":8656,"▁Ref":8657,"▁magazine":8658,"▁forgot":8659,"▁interpre":8660,"▁Budgets":8661,"▁meets":8662,"▁Vide":8663,"nam":8664,"▁A5":8665,"▁specialists":8666,"irable":8667,"▁grown":8668,"▁twice":8669,"▁prospects":8670,"▁strictly":8671,"hi":8672,"▁tort":8673,"▁Rotary":8674,"EW":8675,"▁promise":8676,"▁neut":8677,"▁highlighted":8678,"▁medicine":8679,"▁liable":8680,"▁mistake":8681,"▁coherent":8682,"▁succeeded":8683,"▁adventure":8684,"▁combines":8685,"▁occurred":8686,"▁reinfor":8687,"essions":8688,"▁Holid":8689,"▁taxpay":8690,"▁incorporated":8691,"▁Award":8692,"▁seats":8693,"fl":8694,"▁resulted":8695,"▁brother":8696,"▁ends":8697,"▁row":8698,"haust":8699,"▁inspired":8700,"▁consequence":8701,"▁candidates":8702,"▁Using":8703,"▁oldest":8704,"▁Autom":8705,"km":8706,"under":8707,"▁operator":8708,"ystem":8709,"▁hence":8710,"▁Argent":8711,"▁Water":8712,"▁producer":8713,"▁servers":8714,"zard":8715,"▁Jose":8716,"▁heading":8717,"▁stick":8718,"▁stream":8719,"rity":8720,"▁warning":8721,"▁scientists":8722,"▁fax":8723,"▁kernel":8724,"▁airports":8725,"rey":8726,"▁considers":8727,"▁affects":8728,"▁hills":8729,"▁opens":8730,"▁confidential":8731,"orne":8732,"▁aviation":8733,"aly":8734,"▁cultiv":8735,"▁Tai":8736,"▁HD":8737,"▁environmentally":8738,"▁essentially":8739,"▁sophisticated":8740,"▁serving":8741,"▁III":8742,"▁Nap":8743,"▁Industry":8744,"▁feet":8745,"▁armed":8746,"▁120":8747,"bs":8748,"using":8749,"▁domin":8750,"▁sphere":8751,"▁blind":8752,"▁recre":8753,"▁conventional":8754,"▁colors":8755,"▁JavaScript":8756,"▁Gra":8757,"▁fault":8758,"▁gradually":8759,"aker":8760,"▁causing":8761,"▁Notes":8762,"▁Cr":8763,"▁virtually":8764,"▁Deutsche":8765,"▁Bra":8766,"▁participating":8767,"▁associations":8768,"▁Academ":8769,"▁records":8770,"▁divers":8771,"▁Dig":8772,"▁native":8773,"matically":8774,"utors":8775,"▁Poker":8776,"▁meal":8777,"▁600":8778,"▁contextual":8779,"▁troops":8780,"hors":8781,"inity":8782,"▁surprise":8783,"▁das":8784,"▁bathrooms":8785,"▁Constitutional":8786,"▁recyc":8787,"▁conscious":8788,"70":8789,"ishment":8790,"▁prisoners":8791,"bl":8792,"eras":8793,"▁throw":8794,"▁accidents":8795,"▁diplomatic":8796,"▁Pic":8797,"▁Tim":8798,"▁hidden":8799,"▁bes":8800,"▁&apos;m":8801,"▁restricted":8802,"▁clarify":8803,"▁Download":8804,"itate":8805,"rous":8806,"quisite":8807,"▁seeks":8808,"▁inequ":8809,"▁hat":8810,"▁explanation":8811,"apse":8812,"▁encouraged":8813,"▁widespread":8814,"▁attach":8815,"uan":8816,"▁Based":8817,"▁puts":8818,"▁adding":8819,"▁utmost":8820,"▁Network":8821,"▁Treaties":8822,"▁Pac":8823,"▁sudden":8824,"pes":8825,"▁55":8826,"▁rational":8827,"▁harmful":8828,"rible":8829,"▁dance":8830,"RE":8831,"▁reporting":8832,"▁teachers":8833,"▁Exchange":8834,"▁seas":8835,"▁Danish":8836,"▁unus":8837,"▁Att":8838,"▁alongside":8839,"▁metro":8840,"▁thr":8841,"▁une":8842,"riage":8843,"▁Cooperation":8844,"▁eld":8845,"▁A3":8846,"▁achievement":8847,"▁premium":8848,"▁20th":8849,"▁superb":8850,"▁thumbn":8851,"▁Ba":8852,"▁agents":8853,"▁quote":8854,"▁Sever":8855,"adays":8856,"▁Have":8857,"hops":8858,"▁wooden":8859,"▁quotas":8860,"▁Shop":8861,"▁reiter":8862,"▁Jo":8863,"▁spite":8864,"▁preserve":8865,"▁convergence":8866,"▁observed":8867,"▁revenue":8868,"▁prize":8869,"▁conditioned":8870,"▁marks":8871,"▁surprised":8872,"▁shuttle":8873,"▁meals":8874,"▁choices":8875,"▁Dublin":8876,"▁conferences":8877,"▁graphics":8878,"▁na":8879,"▁Det":8880,"▁specialized":8881,"▁passing":8882,"▁nut":8883,"▁1993":8884,"page":8885,"alities":8886,"▁purely":8887,"▁Land":8888,"▁guided":8889,"▁49":8890,"gi":8891,"▁upgrade":8892,"▁soil":8893,"▁blocks":8894,"▁compulsory":8895,"pection":8896,"▁casino":8897,"▁prosec":8898,"▁AND":8899,"▁defe":8900,"▁dollar":8901,"bed":8902,"▁Jean":8903,"oria":8904,"▁blow":8905,"▁Life":8906,"iem":8907,"istical":8908,"▁auf":8909,"▁mort":8910,"▁Fundamental":8911,"ading":8912,"▁Box":8913,"ursions":8914,"▁dispute":8915,"▁electron":8916,"▁mouth":8917,"▁Garden":8918,"▁Server":8919,"▁operates":8920,"▁licens":8921,"▁Far":8922,"▁scan":8923,"▁sky":8924,"▁capabilities":8925,"▁airlines":8926,"▁tab":8927,"▁Catal":8928,"▁macro":8929,"ez":8930,"▁toward":8931,"▁beer":8932,"▁integrate":8933,"▁rely":8934,"▁Smoking":8935,"icity":8936,"ão":8937,"omas":8938,"▁MS":8939,"▁hect":8940,"▁Maria":8941,"▁Terms":8942,"medi":8943,"▁190":8944,"▁shift":8945,"▁Var":8946,"▁Vers":8947,"▁95":8948,"▁Sie":8949,"▁07":8950,"▁bonus":8951,"▁stories":8952,"▁Nik":8953,"▁OR":8954,"▁bearing":8955,"▁Prodi":8956,"▁communicate":8957,"▁Obama":8958,"inals":8959,"▁rough":8960,"▁classical":8961,"▁permission":8962,"▁enthusi":8963,"OW":8964,"mat":8965,"▁recognize":8966,"▁flows":8967,"▁estimated":8968,"▁Jes":8969,"▁sufficiently":8970,"haus":8971,"▁developers":8972,"▁subscrib":8973,"▁Cup":8974,"▁cryst":8975,"▁Log":8976,"▁Mass":8977,"▁chairman":8978,"pload":8979,"ipt":8980,"▁aus":8981,"▁Sad":8982,"▁governing":8983,"cul":8984,"▁percentage":8985,"▁hopes":8986,"utor":8987,"▁indoor":8988,"▁edited":8989,"▁Manager":8990,"▁villa":8991,"▁Subject":8992,"▁extending":8993,"ello":8994,"▁medieval":8995,"▁initially":8996,"▁Kh":8997,"▁Po":8998,"▁Ltd":8999,"▁meaningfully":9000,"▁shortly":9001,"utical":9002,"▁exem":9003,"▁manif":9004,"▁telecommun":9005,"TP":9006,"cht":9007,"▁Forum":9008,"▁Il":9009,"▁Que":9010,"aution":9011,"isk":9012,"▁stores":9013,"ibly":9014,"flow":9015,"▁cin":9016,"▁Sen":9017,"▁expense":9018,"▁clicking":9019,"▁promises":9020,"▁victory":9021,"nish":9022,"▁NI":9023,"▁seconds":9024,"▁studied":9025,"▁exhaust":9026,"▁schemes":9027,"▁stem":9028,"rem":9029,"▁thick":9030,"▁AM":9031,"▁ax":9032,"▁trig":9033,"▁overw":9034,"▁chief":9035,"▁abstain":9036,"▁Quality":9037,"rup":9038,"▁assigned":9039,"▁09":9040,"▁scheduled":9041,"▁audience":9042,"▁Kyoto":9043,"▁enforcement":9044,"▁Men":9045,"▁Select":9046,"▁flag":9047,"▁99":9048,"▁accompany":9049,"▁intelligent":9050,"▁rend":9051,"▁constitutes":9052,"▁Three":9053,"▁negotiation":9054,"▁relationships":9055,"▁Greens":9056,"▁remed":9057,"▁falls":9058,"▁implications":9059,"▁Pos":9060,"▁Games":9061,"▁acceler":9062,"▁approaches":9063,"▁eliminate":9064,"▁Again":9065,"▁Mosc":9066,"▁amended":9067,"▁contextually":9068,"▁household":9069,"ennium":9070,"ön":9071,"▁wed":9072,"▁flav":9073,"▁crises":9074,"▁grammatically":9075,"▁fest":9076,"▁Ast":9077,"▁envis":9078,"iqu":9079,"▁tourna":9080,"▁Bed":9081,"▁Franc":9082,"▁satisfactory":9083,"▁Jewish":9084,"▁operated":9085,"▁neighbours":9086,"ben":9087,"▁shel":9088,"▁resc":9089,"▁NL":9090,"▁believed":9091,"▁Kong":9092,"▁enjoys":9093,"▁ingredients":9094,"▁Top":9095,"▁44":9096,"▁describe":9097,"ificial":9098,"▁Div":9099,"▁whereby":9100,"▁65":9101,"▁Meeting":9102,"▁soul":9103,"▁composition":9104,"▁medicines":9105,",5":9106,"▁campaigns":9107,"▁IMF":9108,"▁Unt":9109,"▁Cuba":9110,"▁Win":9111,"▁Ren":9112,"adt":9113,"olo":9114,"▁survey":9115,"▁organise":9116,"▁taxi":9117,"▁USS":9118,"▁joining":9119,"▁Rich":9120,"▁ratification":9121,"ounter":9122,"▁urgency":9123,"▁chapter":9124,"▁97":9125,"eches":9126,"▁bought":9127,"▁smart":9128,"▁accounting":9129,"▁Skype":9130,"▁splendid":9131,"▁concentration":9132,"ship":9133,"▁violation":9134,"▁choos":9135,"▁obser":9136,"▁Children":9137,"▁Wednes":9138,"▁43":9139,"▁gross":9140,"acht":9141,"aceutical":9142,"▁frequency":9143,"▁mixed":9144,"▁habit":9145,"▁infect":9146,"▁08":9147,"▁heads":9148,"▁Employment":9149,"▁poorest":9150,"▁Somet":9151,"▁addressing":9152,"▁merg":9153,"▁empty":9154,"▁kill":9155,"▁Nav":9156,"▁Lim":9157,"▁remarkable":9158,"▁Fisheries":9159,"uct":9160,"▁fell":9161,"▁Intergovernmental":9162,".C":9163,"▁Lam":9164,"▁ju":9165,"▁Master":9166,"▁boats":9167,"stitutional":9168,"▁translated":9169,"eper":9170,"life":9171,"▁Tro":9172,"▁moder":9173,"▁Los":9174,"▁Hong":9175,"▁conciliation":9176,"▁06":9177,"▁certified":9178,"▁fifth":9179,"▁references":9180,"ulpt":9181,"▁headqu":9182,"▁mel":9183,"▁gro":9184,"▁lock":9185,"ropical":9186,"igious":9187,"▁Vict":9188,"erts":9189,"▁appointment":9190,"▁Make":9191,"▁incident":9192,"reshold":9193,"▁Test":9194,"▁maybe":9195,"▁insuff":9196,"▁newsletter":9197,"▁persist":9198,"gies":9199,"▁esc":9200,"▁completion":9201,"▁ultimate":9202,"apest":9203,"▁foundations":9204,"▁ownership":9205,"▁Ent":9206,"▁Slovakia":9207,"fa":9208,"sen":9209,"iva":9210,"▁191":9211,"▁Authority":9212,"▁deserves":9213,"▁theatre":9214,"▁navigation":9215,"▁ease":9216,"ett":9217,"▁USD":9218,"▁timetable":9219,"▁technique":9220,"▁observe":9221,"iones":9222,"▁reass":9223,"▁enjoying":9224,"▁fascinating":9225,"▁AB":9226,"inery":9227,"reme":9228,"▁Bat":9229,"▁surprising":9230,"▁thumbnail":9231,"▁moreover":9232,"▁Florence":9233,"ivals":9234,"urement":9235,"▁extract":9236,"▁Current":9237,"▁dé":9238,"▁chat":9239,"▁Hostels":9240,"▁David":9241,"utt":9242,"▁wear":9243,"▁riding":9244,"▁upgrad":9245,"▁dictators":9246,"CC":9247,"ito":9248,"▁Rh":9249,"▁Leban":9250,"▁broken":9251,"▁tariff":9252,"▁convert":9253,"▁debating":9254,"▁examination":9255,"▁electrical":9256,"▁legend":9257,"▁preferred":9258,"▁favourable":9259,"▁fewer":9260,"▁considerations":9261,"▁secondly":9262,"▁AS":9263,"▁portal":9264,"bur":9265,"▁mere":9266,"▁96":9267,"▁grass":9268,"▁incentives":9269,"▁mo":9270,"▁codecision":9271,"▁roots":9272,"MS":9273,"▁admit":9274,"▁persu":9275,"▁pools":9276,"▁1000":9277,"▁Internal":9278,"▁checked":9279,"▁hung":9280,"▁exposed":9281,"aga":9282,"▁productive":9283,"▁Standard":9284,"▁sorry":9285,"▁authors":9286,"▁Indones":9287,"▁reinforce":9288,"zza":9289,"cle":9290,"▁luck":9291,"▁Viet":9292,"▁symp":9293,"▁folder":9294,"▁boasts":9295,"▁Zur":9296,"▁genuinely":9297,"▁unnecessary":9298,"▁clock":9299,"▁sizes":9300,"▁Back":9301,"▁secondary":9302,"▁legitimacy":9303,"▁Word":9304,"▁Colle":9305,"ounds":9306,"▁Plaza":9307,"richt":9308,"▁coastal":9309,"▁split":9310,"▁journalists":9311,"▁tur":9312,"▁OS":9313,"▁info":9314,"▁Prem":9315,"iration":9316,"arer":9317,"▁foremost":9318,"▁threshold":9319,"▁Together":9320,"▁yield":9321,"▁1.5":9322,"odes":9323,"▁Ins":9324,"condition":9325,"▁begun":9326,"▁false":9327,"▁economically":9328,"▁Engine":9329,"▁George":9330,"ician":9331,"▁trained":9332,"▁busy":9333,"▁repeatedly":9334,"▁Wednesday":9335,"▁stip":9336,"alling":9337,"▁Nob":9338,"▁managers":9339,"▁guaranteeing":9340,"▁Salzburg":9341,"▁residential":9342,"▁speeches":9343,"▁representing":9344,"▁alter":9345,"▁arranged":9346,"▁wave":9347,"▁neighbourhood":9348,"▁inadequate":9349,"▁A4":9350,"▁Small":9351,"uter":9352,"▁respects":9353,"da":9354,"▁instantly":9355,"▁Naz":9356,"▁oppon":9357,"▁invo":9358,"▁invent":9359,"▁compete":9360,"▁fost":9361,"▁moments":9362,"▁MySQL":9363,"▁subsequently":9364,"▁Muslim":9365,"uant":9366,"▁incomp":9367,"▁Modern":9368,"erly":9369,"▁biod":9370,"▁autumn":9371,"▁characteristic":9372,"▁Similar":9373,"oli":9374,"▁openness":9375,"▁Mel":9376,"▁suspect":9377,"▁\\":9378,"▁cancellation":9379,"arged":9380,"▁marine":9381,"▁Academy":9382,"▁wife":9383,"▁examined":9384,"▁Ministry":9385,"do":9386,"▁Bosnia":9387,"▁Administ":9388,"▁swit":9389,"▁escape":9390,"▁intentions":9391,"▁travellers":9392,"▁branch":9393,"▁Alps":9394,"▁Morocco":9395,"stan":9396,"▁Road":9397,"ika":9398,"viously":9399,"▁informal":9400,"▁expenses":9401,"▁slopes":9402,"▁toilet":9403,"▁underlying":9404,"▁optimal":9405,"▁Several":9406,"▁lively":9407,"▁AN":9408,"▁Opt":9409,"▁dramatic":9410,"▁importantly":9411,"▁Monte":9412,"▁epis":9413,"▁faces":9414,"▁expanded":9415,"▁mig":9416,"▁chart":9417,"▁1991":9418,"UM":9419,"undry":9420,"▁Tus":9421,"▁experim":9422,"▁seemed":9423,"umes":9424,"▁Moscow":9425,"▁wing":9426,"▁diving":9427,"▁sample":9428,"▁actors":9429,"▁jointly":9430,"▁Apartments":9431,"▁Karl":9432,"▁External":9433,"▁textile":9434,"institutional":9435,"ati":9436,"olved":9437,"▁tragic":9438,"▁Chairman":9439,"uy":9440,"las":9441,"acks":9442,"▁Process":9443,"▁Flash":9444,"▁Grow":9445,"▁bread":9446,"▁mur":9447,"▁principal":9448,"ker":9449,"▁listening":9450,"▁weakness":9451,"▁spectrum":9452,"ni":9453,"▁plate":9454,"AV":9455,"▁lect":9456,"▁vocational":9457,"24":9458,"min":9459,"acc":9460,"▁girls":9461,"soever":9462,"▁sacr":9463,"▁AV":9464,"▁reward":9465,"▁Heads":9466,"▁Holiday":9467,"ikes":9468,"arians":9469,"▁Airbus":9470,"▁jurisdiction":9471,"oric":9472,"▁Rob":9473,"▁insufficient":9474,"▁ring":9475,"▁Live":9476,"ictions":9477,"▁artificial":9478,"rators":9479,"▁Player":9480,"▁complaints":9481,"▁clarity":9482,"▁suggests":9483,"▁willingness":9484,"rig":9485,"▁scand":9486,"ungs":9487,"▁Mand":9488,"▁convey":9489,"erto":9490,"▁900":9491,"▁grat":9492,"▁staying":9493,"▁manufactured":9494,"▁measurement":9495,"▁certification":9496,"▁2.0":9497,"▁accessories":9498,"▁inspection":9499,"▁suited":9500,"▁accordingly":9501,"▁purchased":9502,"▁steam":9503,"hotel":9504,"▁featuring":9505,"▁GNU":9506,"▁disturb":9507,"▁devoted":9508,"endo":9509,"▁asset":9510,"ho":9511,"ubl":9512,"▁possess":9513,"▁calendar":9514,"▁Taiwan":9515,"▁excursions":9516,"▁destinations":9517,"▁ma":9518,"▁Tal":9519,"▁sweet":9520,"urities":9521,"akers":9522,"dule":9523,"enery":9524,"▁bigger":9525,"▁Single":9526,"▁pour":9527,"▁terrible":9528,"▁Tunis":9529,"raid":9530,"▁Bi":9531,"▁financed":9532,"pers":9533,"▁forecast":9534,"▁1989":9535,"▁occupation":9536,"▁continuously":9537,"erest":9538,"▁letters":9539,"▁compliment":9540,"▁sunny":9541,"▁preserved":9542,"▁Blue":9543,"▁cookies":9544,"ville":9545,"▁simultaneously":9546,"▁forgotten":9547,"ée":9548,"▁Robert":9549,"▁logic":9550,"▁aqu":9551,"▁transaction":9552,"▁upload":9553,"▁Rail":9554,"▁tragedy":9555,"▁strike":9556,"▁Department":9557,"▁motorway":9558,"▁composed":9559,"▁jun":9560,"▁05":9561,"▁sessions":9562,"imedia":9563,"▁Section":9564,"▁booked":9565,"▁bot":9566,"▁array":9567,"oms":9568,"▁revised":9569,"▁Merc":9570,"▁regulated":9571,"90":9572,"▁dynam":9573,"▁accuracy":9574,"▁rubber":9575,"▁icon":9576,"ained":9577,"▁Rev":9578,"▁Tool":9579,"▁Contact":9580,"▁Video":9581,"illance":9582,"▁baby":9583,"eping":9584,"print":9585,"▁Fair":9586,"▁residents":9587,"▁adj":9588,"64":9589,"inational":9590,"▁unity":9591,"▁assert":9592,"▁inner":9593,"▁Clean":9594,"▁Univers":9595,"▁64":9596,"oud":9597,"othes":9598,"▁oppose":9599,"▁Finnish":9600,"▁Scot":9601,"▁Staff":9602,"▁Palestinians":9603,"▁rebu":9604,"▁refused":9605,"▁promoted":9606,"▁publish":9607,"▁convenience":9608,"▁doubts":9609,"rut":9610,"oni":9611,"wa":9612,"▁conform":9613,"▁GU":9614,"▁tang":9615,"ouses":9616,"▁Bav":9617,"▁specially":9618,"▁vacc":9619,"▁afraid":9620,"▁deadline":9621,"▁PRO":9622,"▁desktop":9623,"▁paths":9624,"▁sovereign":9625,"▁bout":9626,"▁Otherwise":9627,"▁Washing":9628,"▁gift":9629,"▁End":9630,"▁Polit":9631,"▁therapy":9632,"▁modify":9633,"▁zero":9634,"known":9635,"▁whatsoever":9636,"▁elev":9637,"▁Sign":9638,"arest":9639,"▁sculpt":9640,"▁recru":9641,"▁buses":9642,"▁expressly":9643,"▁mechanical":9644,"AB":9645,"▁mine":9646,"▁transitional":9647,"▁finds":9648,"▁affecting":9649,"▁Dou":9650,"▁relief":9651,"annes":9652,"▁conj":9653,"▁ceiling":9654,"▁Personal":9655,"▁Sudan":9656,"▁intense":9657,"▁transfers":9658,"▁freight":9659,"▁Mo":9660,"▁Hans":9661,"▁Lear":9662,"beit":9663,"ilation":9664,"▁basically":9665,"▁photograp":9666,"▁gear":9667,"rick":9668,"▁parks":9669,"▁belongs":9670,"▁pharmaceutical":9671,"▁wal":9672,"asion":9673,"▁ethical":9674,"▁nobody":9675,"▁installations":9676,"▁quantity":9677,"▁Brand":9678,"▁commod":9679,"▁stressed":9680,"▁removal":9681,"HO":9682,"TS":9683,"▁wage":9684,"▁beef":9685,"▁trouble":9686,"▁stead":9687,"plete":9688,"▁perpet":9689,"▁losing":9690,"▁cm":9691,"▁lakes":9692,"▁dimensions":9693,"ulates":9694,"ferent":9695,"▁delays":9696,"▁pace":9697,"▁integrity":9698,"▁arrangement":9699,"▁bicyc":9700,"ighter":9701,"rally":9702,"aser":9703,"▁Sport":9704,"▁ideally":9705,"▁landscap":9706,"▁sake":9707,"rack":9708,"▁exhibitions":9709,"emed":9710,"▁focuses":9711,"▁Tele":9712,"▁observation":9713,"well":9714,"▁manip":9715,"erce":9716,"▁plain":9717,"▁funded":9718,"iera":9719,"▁electoral":9720,"▁collapse":9721,"arsh":9722,"▁declare":9723,"▁fo":9724,"▁logical":9725,"▁granting":9726,"▁behavior":9727,"▁Moz":9728,"▁Jul":9729,"▁stopped":9730,"▁constructed":9731,"▁hun":9732,"▁Pacific":9733,"▁keys":9734,"▁Suite":9735,"erb":9736,"▁refuse":9737,"▁advise":9738,"▁healthcare":9739,"▁Area":9740,"▁Storage":9741,"▁renewed":9742,"▁profound":9743,"▁­":9744,"ogen":9745,"▁James":9746,"▁Gentoo":9747,"▁falling":9748,"▁SL":9749,"▁Les":9750,"▁catalogue":9751,"▁bay":9752,"▁buying":9753,"▁Show":9754,"▁broader":9755,"uj":9756,"▁proxim":9757,"▁viney":9758,"▁Youth":9759,"▁cameras":9760,"▁variable":9761,"lich":9762,"▁Nov":9763,"GB":9764,"▁turns":9765,"▁Light":9766,"rator":9767,"▁pensions":9768,"▁painting":9769,"▁Maced":9770,"▁cancel":9771,"ipher":9772,"▁governmental":9773,"▁poker":9774,"urches":9775,"▁Gaza":9776,"▁encry":9777,"asse":9778,"▁visits":9779,"▁correspond":9780,"▁certificate":9781,"▁Jer":9782,"▁automotive":9783,"▁sailing":9784,"▁publishing":9785,"▁breach":9786,"▁knew":9787,"▁gate":9788,"▁Late":9789,"▁deserve":9790,"▁brands":9791,"▁soldiers":9792,"▁precision":9793,"▁distinction":9794,"▁alternatives":9795,"▁violent":9796,"▁beneficial":9797,"▁duration":9798,"udes":9799,"▁Studio":9800,"▁Representative":9801,"▁irre":9802,"holm":9803,"enz":9804,"▁Full":9805,"sole":9806,"▁monuments":9807,"▁elig":9808,"▁Da":9809,"▁Mü":9810,"▁Lo":9811,"▁transit":9812,"archers":9813,"▁beat":9814,"▁cha":9815,"▁identification":9816,"▁Budapest":9817,"▁Ide":9818,"ando":9819,"▁whenever":9820,"▁41":9821,"▁achievements":9822,"▁postal":9823,"▁logo":9824,"▁Society":9825,"▁Angel":9826,"▁Mobile":9827,"irts":9828,"▁preparations":9829,"▁amending":9830,"▁pressing":9831,"irs":9832,"opard":9833,"▁18th":9834,"▁noon":9835,"▁precious":9836,"▁debated":9837,"▁undertake":9838,"▁Made":9839,"▁segment":9840,"▁twin":9841,"▁researchers":9842,"▁Search":9843,"▁Marina":9844,"▁officially":9845,"▁conversion":9846,"▁Bab":9847,"▁Washington":9848,"raction":9849,"athy":9850,"tains":9851,"▁fores":9852,"▁unb":9853,"▁Space":9854,"▁loans":9855,"▁cancelled":9856,"position":9857,"▁recover":9858,"ologne":9859,"ropol":9860,"▁territories":9861,"▁explicitly":9862,"EA":9863,"▁ineff":9864,"▁Charles":9865,"▁prestigious":9866,"▁machinery":9867,"▁constra":9868,"▁Place":9869,"▁crow":9870,"▁arts":9871,"▁schedule":9872,"▁Citiz":9873,"amin":9874,"ourse":9875,"itionally":9876,"▁Presidents":9877,"▁focusing":9878,"▁surveillance":9879,"▁п":9880,"orate":9881,"▁Mold":9882,"▁vic":9883,"orses":9884,"▁gast":9885,"▁spell":9886,"▁Growth":9887,"▁signals":9888,"▁virus":9889,"▁greenhouse":9890,"RO":9891,"▁lod":9892,"▁newspaper":9893,"▁suspended":9894,"▁MA":9895,"▁Pia":9896,"▁tower":9897,"▁reflection":9898,"▁Joint":9899,"▁extrem":9900,"ady":9901,"een":9902,"gart":9903,"▁affordable":9904,"▁lingu":9905,"▁prevented":9906,"▁relaxed":9907,"▁deterior":9908,"▁Regard":9909,"▁Cologne":9910,"▁unre":9911,"▁trains":9912,"astricht":9913,"▁necessity":9914,"▁concerts":9915,"▁Milan":9916,".The":9917,"▁perce":9918,"▁sandy":9919,"▁releases":9920,"▁stops":9921,"▁ham":9922,"▁Cre":9923,"▁DA":9924,"▁populations":9925,"▁negotiated":9926,"▁ignore":9927,"hre":9928,"▁employers":9929,"▁privat":9930,"▁Left":9931,"▁multinational":9932,"▁civilian":9933,"▁Maastricht":9934,"atlantic":9935,"▁strip":9936,"▁Bure":9937,"▁templ":9938,"▁unusual":9939,"▁Location":9940,"▁Zurich":9941,"▁Hostelsclub":9942,"▁thanking":9943,"pm":9944,"▁SO":9945,"▁delete":9946,"▁wars":9947,"▁presidential":9948,"▁gym":9949,"▁adjustment":9950,"▁mental":9951,"▁centers":9952,"▁Contin":9953,"▁Sar":9954,"▁posts":9955,"▁FA":9956,"▁sharp":9957,"▁Digital":9958,"urable":9959,"▁attended":9960,"otechn":9961,"▁frequent":9962,"▁Point":9963,"▁Dal":9964,"▁winner":9965,"▁logistics":9966,"▁Az":9967,"▁Press":9968,"▁conservation":9969,"▁Olympic":9970,"elve":9971,"▁lets":9972,"▁taxpayers":9973,"A.":9974,"front":9975,"eness":9976,"▁telecommunications":9977,"▁ratified":9978,"▁ruling":9979,"▁Opera":9980,"▁drives":9981,"▁Prize":9982,"▁certainty":9983,"ester":9984,"▁flying":9985,"▁Tam":9986,"▁Ca":9987,"▁organize":9988,"▁publications":9989,"▁architectural":9990,"IDS":9991,"▁SV":9992,"elle":9993,"▁Near":9994,"▁trace":9995,"▁confident":9996,"▁typically":9997,"▁favourite":9998,"▁indicators":9999,"▁Sony":10000,"auer":10001,"jud":10002,"▁supplementary":10003,"▁spare":10004,"▁treas":10005,"▁threatened":10006,"▁catalog":10007,"▁photographs":10008,"▁Rural":10009,"arf":10010,"▁persec":10011,"▁nationals":10012,"pectives":10013,"izer":10014,"▁orientation":10015,"▁Lic":10016,"▁fails":10017,"▁revealed":10018,"▁Conserv":10019,"▁Liberal":10020,"▁47":10021,"▁academic":10022,"▁tip":10023,"▁environ":10024,"▁feedback":10025,"▁hesitate":10026,"ey":10027,"unte":10028,"▁Os":10029,"▁chose":10030,"iana":10031,"▁realize":10032,"▁interactive":10033,"▁tough":10034,"▁replacement":10035,"▁uncertainty":10036,"▁imported":10037,"▁comprises":10038,"▁Vir":10039,"▁stayed":10040,"▁farms":10041,"▁commerce":10042,"▁Southern":10043,"▁Ice":10044,"▁Partnership":10045,"▁Wolf":10046,"▁Until":10047,"▁acquisition":10048,"▁signing":10049,"▁purchasing":10050,"▁advertise":10051,"▁privileged":10052,"icted":10053,"str":10054,"▁unknown":10055,"▁46":10056,"▁um":10057,"▁Iron":10058,"▁Ess":10059,"▁Website":10060,"▁inject":10061,"▁Europol":10062,"▁Thomas":10063,"▁mandatory":10064,"▁evolution":10065,"▁overwhel":10066,"▁Ken":10067,"▁silver":10068,"tel":10069,"oning":10070,"▁Spr":10071,"▁airline":10072,"▁citizenship":10073,"▁confront":10074,"▁contractual":10075,"▁mistakes":10076,"▁List":10077,"▁substit":10078,"▁negotiate":10079,"▁demonstrates":10080,"▁disappear":10081,"▁Leon":10082,"▁hospital":10083,"itter":10084,"▁Mach":10085,"▁Berg":10086,"▁bureaucracy":10087,"▁evaluate":10088,"▁Nic":10089,"▁alike":10090,"ès":10091,"▁illness":10092,"gments":10093,"rection":10094,"▁BSE":10095,"▁justify":10096,"▁moves":10097,"▁Hour":10098,"▁Langu":10099,"▁chemicals":10100,"▁cockt":10101,"pie":10102,"▁Innov":10103,"▁Jack":10104,"▁manifest":10105,"▁Sem":10106,"▁UR":10107,"▁patents":10108,"▁innovations":10109,"▁Ru":10110,"▁hydro":10111,"othe":10112,"▁convers":10113,"▁occurs":10114,"▁Quark":10115,"▁emerged":10116,"▁harbour":10117,"▁worrying":10118,"▁notably":10119,"▁movies":10120,"ación":10121,"▁literature":10122,"▁Ash":10123,"▁archive":10124,"▁generous":10125,"▁deaths":10126,"▁notified":10127,"▁consistently":10128,"▁IB":10129,"▁phones":10130,"▁indicates":10131,"▁CN":10132,"▁Pen":10133,"▁patterns":10134,"CH":10135,"▁Object":10136,"▁EX":10137,"▁applicant":10138,"▁camps":10139,"▁joy":10140,"▁creature":10141,"lock":10142,"▁intervene":10143,"▁Conditions":10144,"▁exempt":10145,"▁Adobe":10146,"zes":10147,"▁Tick":10148,"umed":10149,"order":10150,"▁Deposit":10151,"▁heavily":10152,"▁unanimously":10153,"▁fert":10154,"▁dual":10155,"▁reloc":10156,"▁conventions":10157,"▁allocation":10158,"▁downloaded":10159,"▁displays":10160,"▁Series":10161,"lem":10162,"▁tonnes":10163,"▁Camb":10164,"▁Freedom":10165,"▁rating":10166,"▁measuring":10167,"▁drinking":10168,"▁partition":10169,"▁wherever":10170,"▁52":10171,"▁authentic":10172,"▁clothing":10173,"▁Zimb":10174,"▁contributing":10175,"▁Canon":10176,"▁coordinate":10177,"▁claimed":10178,"▁Bureau":10179,"urf":10180,"▁Major":10181,"▁withdrawal":10182,"32":10183,"▁council":10184,"▁surpl":10185,"▁specify":10186,"▁closing":10187,"CE":10188,"▁Ec":10189,"▁accum":10190,"▁Investment":10191,"▁Vo":10192,"▁180":10193,"▁qualifications":10194,"▁senior":10195,"▁premises":10196,"akh":10197,"▁Burma":10198,"uania":10199,"▁alumin":10200,"▁IV":10201,"▁competences":10202,"▁leather":10203,"▁churches":10204,"▁Putin":10205,"▁pup":10206,"abwe":10207,"ungen":10208,"▁initiated":10209,"▁cooking":10210,"▁Install":10211,"▁apparently":10212,"▁proximity":10213,"▁Lithuania":10214,"▁lovers":10215,"▁Copy":10216,"▁horizont":10217,"▁egg":10218,"▁assurance":10219,"▁keen":10220,"▁ER":10221,"▁placing":10222,"via":10223,"agon":10224,"▁strange":10225,"▁performing":10226,"▁Slovenia":10227,"▁systematic":10228,"▁Adri":10229,"▁returns":10230,"▁credible":10231,"▁victim":10232,"▁argue":10233,"▁Tues":10234,"▁AIDS":10235,"▁column":10236,"▁judgment":10237,"▁Zimbabwe":10238,"▁procurement":10239,"hard":10240,"▁experiencing":10241,"▁shot":10242,"▁catering":10243,"▁converted":10244,"cho":10245,"▁minimal":10246,"▁murder":10247,"anes":10248,"▁trail":10249,"▁receipt":10250,"▁ratio":10251,"ritten":10252,"▁defic":10253,"▁Yugoslavia":10254,"hone":10255,"▁caught":10256,"▁pays":10257,"▁Beaut":10258,"regular":10259,"▁elderly":10260,"▁recession":10261,"liminary":10262,"resses":10263,"▁timely":10264,"▁eurozone":10265,"▁Ib":10266,"connect":10267,"▁visitor":10268,"▁Compet":10269,"▁favorite":10270,"▁Cross":10271,"▁hero":10272,"▁deficits":10273,"▁Jun":10274,"▁slowly":10275,"jan":10276,"▁tropical":10277,"▁wise":10278,"▁unst":10279,"rooms":10280,"UT":10281,"▁heated":10282,"encia":10283,"estyle":10284,"matic":10285,"▁handed":10286,"▁occupied":10287,"▁semi":10288,"▁imbal":10289,"▁formation":10290,"▁Hen":10291,"▁assured":10292,"▁Malta":10293,"▁arbitrary":10294,"▁contest":10295,"▁warmly":10296,"▁fitted":10297,"▁creativity":10298,"ede":10299,"▁copies":10300,"iox":10301,"▁answered":10302,"▁imposing":10303,"▁headquarters":10304,"▁biodiversity":10305,"▁Son":10306,"ords":10307,"fall":10308,"▁Fried":10309,"▁2nd":10310,"▁humanity":10311,"▁robust":10312,"▁avo":10313,"▁160":10314,"uzzi":10315,"▁Excell":10316,"▁intelligence":10317,"▁zones":10318,"▁tram":10319,"▁potentially":10320,"▁Everything":10321,"▁DS":10322,"▁agrees":10323,"▁keeps":10324,"▁terrorists":10325,"▁girl":10326,"▁IG":10327,"▁85":10328,"▁Choose":10329,"▁ox":10330,"▁magic":10331,"▁pursuant":10332,"ye":10333,"▁sentence":10334,"▁ric":10335,"▁redund":10336,"how":10337,"▁workshops":10338,"▁Budd":10339,"15":10340,"▁stance":10341,"▁pursued":10342,"▁silence":10343,"orrect":10344,"▁Solid":10345,"▁accommodate":10346,"▁flash":10347,"▁specialities":10348,"▁bench":10349,"▁Explore":10350,"▁Mas":10351,"▁Elev":10352,"▁2012":10353,"▁Syria":10354,"▁Upd":10355,"▁hole":10356,"▁Lie":10357,"PC":10358,"▁Sav":10359,"wer":10360,"▁emp":10361,"▁dupl":10362,"▁mirror":10363,"▁Wars":10364,"▁Bang":10365,"▁refurb":10366,"▁integral":10367,"play":10368,"▁degrees":10369,"▁disputes":10370,"▁exposure":10371,"rell":10372,"▁irregular":10373,"▁scrut":10374,"▁lighting":10375,"▁brain":10376,"▁handled":10377,"▁Democratic":10378,"▁findings":10379,"▁Which":10380,"▁designer":10381,"▁Scotland":10382,"rob":10383,"ardo":10384,"▁respectively":10385,"▁convince":10386,"▁Experience":10387,"▁Citizens":10388,"▁diet":10389,"ifts":10390,"▁score":10391,"▁perspectives":10392,"ibb":10393,"▁workshop":10394,"▁Communist":10395,"▁depr":10396,"▁structured":10397,"▁impr":10398,"▁makers":10399,"▁laser":10400,"aled":10401,"▁progressive":10402,"ilingual":10403,"stone":10404,"▁specifications":10405,"▁suggestion":10406,"▁Calif":10407,"▁terminal":10408,"▁ambition":10409,"▁temperatures":10410,"ooms":10411,"▁Argentina":10412,"▁ON":10413,"▁expanding":10414,"umps":10415,"▁Science":10416,"▁unemployed":10417,"▁Turn":10418,"▁Kurd":10419,"▁detrim":10420,"▁700":10421,"▁Obviously":10422,"▁Iranian":10423,"▁LE":10424,"▁practically":10425,"▁essence":10426,"▁trem":10427,"▁emphasised":10428,"▁Empire":10429,"▁colonial":10430,"▁Sound":10431,"▁stays":10432,"htaking":10433,"▁neutral":10434,"asis":10435,"ctor":10436,"▁Prom":10437,"aya":10438,"▁haird":10439,"▁platforms":10440,"▁paradise":10441,"aux":10442,"▁Apple":10443,"▁treaties":10444,"uber":10445,"propri":10446,"▁pedest":10447,"▁Stockholm":10448,"ads":10449,"▁chocol":10450,"redit":10451,"▁advent":10452,"▁viable":10453,"▁embed":10454,"▁doctor":10455,"▁2.5":10456,"▁Right":10457,"▁blame":10458,"▁Mem":10459,"▁Rou":10460,"▁defining":10461,"enez":10462,"▁lowest":10463,"ATION":10464,"▁Rap":10465,"▁fundament":10466,"▁21st":10467,"▁CR":10468,"▁solved":10469,"seeing":10470,"▁College":10471,"▁inclusive":10472,"ml":10473,"▁desirable":10474,"▁Order":10475,"▁coverage":10476,"▁BMW":10477,"▁cer":10478,"▁Andre":10479,"▁Consult":10480,"▁ultra":10481,"limited":10482,"▁emission":10483,"▁Decl":10484,"▁explos":10485,"▁biological":10486,"▁controversial":10487,"▁tub":10488,"unes":10489,"▁terra":10490,"86":10491,"▁stroll":10492,"▁edit":10493,"ionship":10494,"▁contam":10495,"▁enlarged":10496,"ст":10497,"▁Ur":10498,"SCO":10499,"▁Visit":10500,"rium":10501,"▁explains":10502,"▁comparable":10503,"▁Nordic":10504,"▁thin":10505,"▁Der":10506,"▁receives":10507,"▁describes":10508,"ère":10509,"▁tank":10510,"aration":10511,"▁male":10512,"▁Kal":10513,"▁performances":10514,"NA":10515,"án":10516,"▁directions":10517,"▁Adv":10518,"▁talked":10519,"hl":10520,"▁salt":10521,"mony":10522,"▁hazard":10523,"▁chairs":10524,"ailed":10525,"▁Account":10526,"▁meantime":10527,"▁Californ":10528,"MA":10529,"chron":10530,"rome":10531,"agn":10532,"▁Alexander":10533,"▁m2":10534,"▁harmony":10535,"bles":10536,"▁Stra":10537,"▁papers":10538,"▁Nep":10539,"▁Alt":10540,"▁Peace":10541,"▁disagree":10542,"▁crops":10543,"▁viewed":10544,"▁choosing":10545,"erge":10546,"▁spr":10547,"▁surg":10548,"▁graphic":10549,"▁Defence":10550,"orca":10551,"▁unions":10552,"▁develops":10553,"▁entries":10554,"▁erad":10555,"▁Golden":10556,"UL":10557,"▁sees":10558,"▁Parliamentary":10559,"▁shaped":10560,"▁dating":10561,"▁preliminary":10562,"▁worthy":10563,"▁undermine":10564,"▁tor":10565,"▁tips":10566,"▁Additionally":10567,"▁theore":10568,"▁enchant":10569,"▁breathtaking":10570,"▁appreciated":10571,"▁settled":10572,"ente":10573,"▁voters":10574,"▁consequently":10575,"itra":10576,"akings":10577,"▁cease":10578,"▁dollars":10579,"▁thoroughly":10580,"▁Kirk":10581,"▁swift":10582,"▁Socialists":10583,"▁Hostel":10584,"▁si":10585,"▁wake":10586,"▁isn":10587,"▁scenery":10588,"▁interinstitutional":10589,"▁Similarly":10590,"proof":10591,"▁signature":10592,"ocket":10593,"▁189":10594,"▁regulate":10595,"ANT":10596,"▁avoided":10597,"▁ending":10598,"▁retire":10599,"ophob":10600,"▁acquire":10601,"inos":10602,"▁murd":10603,"▁Mall":10604,"▁desert":10605,"▁experiment":10606,"▁cot":10607,"IX":10608,"▁marquis":10609,"▁ware":10610,"iche":10611,"▁tempt":10612,"▁Cathedral":10613,"BS":10614,"▁transformation":10615,"▁controlling":10616,"▁McC":10617,"▁cosmet":10618,"▁incorrect":10619,"▁substantially":10620,"cker":10621,"▁partnerships":10622,"▁Tuesday":10623,"▁Puerto":10624,"▁downtown":10625,"▁setup":10626,".net":10627,"▁tox":10628,"▁brut":10629,"▁expressing":10630,"▁Elevator":10631,"▁feas":10632,"▁cheese":10633,"▁photography":10634,"▁declarations":10635,"▁disappointed":10636,"▁SAP":10637,"▁devast":10638,"field":10639,"kl":10640,"▁IF":10641,"pled":10642,"▁executed":10643,"▁tribute":10644,"ila":10645,"▁Certain":10646,"▁teacher":10647,"uz":10648,"▁Along":10649,"▁nonetheless":10650,"▁exchanges":10651,"▁torture":10652,"stuff":10653,"▁Ult":10654,"▁screens":10655,"▁posted":10656,"▁licence":10657,"▁rect":10658,"amps":10659,"▁neglect":10660,"▁NOT":10661,"iki":10662,"orable":10663,"▁pine":10664,"▁fib":10665,"▁rivers":10666,"▁finest":10667,"▁Iraqi":10668,"▁crystal":10669,"▁Cath":10670,"▁Mur":10671,"▁Eff":10672,"▁spiritual":10673,"▁tailored":10674,"gor":10675,"▁maps":10676,"▁Hence":10677,"▁raises":10678,"▁measured":10679,"apping":10680,"▁drafting":10681,"▁undertakings":10682,"LO":10683,"mo":10684,"ami":10685,"▁Heating":10686,"▁maxim":10687,"▁Lebanon":10688,"▁damaged":10689,"▁battery":10690,"▁bureaucratic":10691,"25":10692,"ican":10693,"▁statistical":10694,"▁TR":10695,"▁3rd":10696,"▁acknowledged":10697,"▁Hand":10698,"▁admitted":10699,"▁jew":10700,"▁54":10701,"▁confusion":10702,"▁capture":10703,"▁Scott":10704,"▁tempor":10705,"▁catast":10706,"▁Instru":10707,"▁sporting":10708,"▁Labour":10709,"▁Beij":10710,"▁Big":10711,"▁belonging":10712,"▁sq":10713,"▁Gi":10714,"▁Luggage":10715,"▁prede":10716,"▁automation":10717,"▁birds":10718,"EX":10719,"ás":10720,"▁Pap":10721,"▁incredible":10722,"▁isolated":10723,"▁GB":10724,"▁celebrate":10725,"▁parameter":10726,"▁merc":10727,"▁formula":10728,"▁pod":10729,"▁fought":10730,"▁Creat":10731,"▁derived":10732,"▁pm":10733,"▁Image":10734,"▁engineers":10735,"▁paintings":10736,"▁intermedi":10737,"▁finances":10738,"▁dust":10739,"▁agent":10740,"▁predict":10741,"yan":10742,"▁guitar":10743,"▁Easy":10744,"▁CON":10745,"▁exert":10746,"venth":10747,"itored":10748,"▁peripher":10749,"pa":10750,"iverse":10751,"▁Everyone":10752,"▁prohibited":10753,"atis":10754,"▁resid":10755,"apped":10756,"▁fulfilled":10757,"▁jeopard":10758,"▁HTML":10759,"▁Beijing":10760,"bu":10761,"▁themes":10762,"chestra":10763,"▁cup":10764,"▁Macedonia":10765,"▁Adriatic":10766,"▁regrettable":10767,"▁borrow":10768,"▁abund":10769,"nen":10770,"nings":10771,"▁dumping":10772,"ancell":10773,"▁assemb":10774,"▁encounter":10775,"▁hoped":10776,"▁neglig":10777,"▁lesson":10778,"▁volunte":10779,"▁winds":10780,"▁watching":10781,"▁fears":10782,"ancies":10783,"unately":10784,"▁pact":10785,"▁hel":10786,"▁demographic":10787,"comings":10788,"oft":10789,"adium":10790,"▁piano":10791,"▁bid":10792,"▁MB":10793,"▁FOR":10794,"▁Venez":10795,"▁tells":10796,"▁ignored":10797,"▁incur":10798,"▁circuit":10799,"▁Discover":10800,"osa":10801,"▁Gulf":10802,"atively":10803,"▁founding":10804,"▁environments":10805,"▁warming":10806,"▁monitored":10807,"▁downloading":10808,"▁Budgetary":10809,"▁scandal":10810,"▁imperial":10811,"oven":10812,"▁condemned":10813,"▁discipline":10814,"▁wages":10815,"▁racism":10816,"75":10817,"▁shortcomings":10818,"▁Apartment":10819,"iser":10820,"▁prere":10821,"▁socio":10822,"▁genet":10823,"▁Palestine":10824,"isms":10825,"▁hier":10826,"▁Game":10827,"ders":10828,"▁shame":10829,"▁Ger":10830,"▁thread":10831,"▁compare":10832,"abe":10833,"▁outset":10834,"▁fate":10835,"▁unfortun":10836,"▁genetic":10837,"▁branches":10838,"▁sensor":10839,"▁bare":10840,"▁yellow":10841,"▁notion":10842,"▁seaf":10843,"▁Know":10844,"19":10845,"bach":10846,"▁optical":10847,"▁unpre":10848,"▁History":10849,"SA":10850,"▁inquiry":10851,"▁challenging":10852,"▁Edition":10853,"▁tolerance":10854,"▁complexity":10855,"▁publicly":10856,"▁accepts":10857,"▁coordin":10858,"break":10859,"▁League":10860,"▁foods":10861,"▁multimedia":10862,"▁characterized":10863,"▁width":10864,"uest":10865,"▁governed":10866,"▁automated":10867,"▁autonomy":10868,"itudes":10869,"▁Hamas":10870,"▁SU":10871,"▁Eur":10872,"ät":10873,"tein":10874,"weg":10875,"▁rejection":10876,"▁incorporate":10877,"osc":10878,"▁Long":10879,"▁Orig":10880,"▁·":10881,"▁mixt":10882,"▁gal":10883,"▁fallen":10884,"▁incentive":10885,"▁searching":10886,"▁codes":10887,"▁California":10888,"yers":10889,"ugg":10890,"▁subsidiary":10891,"▁kids":10892,"▁thoughts":10893,"▁в":10894,"▁Ban":10895,"aked":10896,"▁equity":10897,"ventions":10898,"▁Albania":10899,"▁Clearly":10900,"▁pione":10901,"▁characterised":10902,"▁A.":10903,"▁spots":10904,"▁taught":10905,"leet":10906,"pling":10907,"▁garage":10908,"▁clim":10909,"opter":10910,"▁53":10911,"▁separately":10912,"▁guidance":10913,"▁unfortunate":10914,"▁broch":10915,"▁flowers":10916,"▁infringement":10917,"üss":10918,"но":10919,"▁transatlantic":10920,"▁Chap":10921,"▁realized":10922,"▁conjunction":10923,"▁login":10924,"▁departments":10925,"OP":10926,"▁coach":10927,"anger":10928,"▁pig":10929,"▁adverse":10930,"▁invitation":10931,"▁simplify":10932,"▁seminars":10933,"▁defects":10934,"▁Dolom":10935,"itting":10936,"mentation":10937,"▁Ve":10938,"▁abandoned":10939,"▁delicate":10940,"▁drafted":10941,"▁Nonetheless":10942,"▁survival":10943,"▁Michel":10944,"▁Wal":10945,"▁editing":10946,"▁exceptions":10947,"▁Industrial":10948,"▁plural":10949,"▁styles":10950,"▁schol":10951,"▁tut":10952,"▁reper":10953,"▁wording":10954,"▁Wil":10955,"erne":10956,"▁centrally":10957,"▁checking":10958,"▁lacking":10959,"▁Silver":10960,"CP":10961,"▁B5":10962,"emic":10963,"▁reduces":10964,"insula":10965,"▁penalties":10966,"▁Norway":10967,"▁Vietnam":10968,"tr":10969,"▁circle":10970,"▁survive":10971,"▁horizontal":10972,"▁reverse":10973,"▁Hard":10974,"▁grants":10975,"▁quota":10976,"LAF":10977,"▁fuels":10978,"▁Ram":10979,"▁returning":10980,"▁Francis":10981,"▁optional":10982,"▁Training":10983,"▁Technical":10984,"▁vegetables":10985,"▁Sah":10986,"▁celebrated":10987,"▁Captain":10988,"▁gat":10989,"▁transmit":10990,"▁emerge":10991,"ricts":10992,"▁Kr":10993,"▁translations":10994,"▁Declaration":10995,"NG":10996,"▁Mean":10997,"▁prominent":10998,"vy":10999,"▁rede":11000,"ailand":11001,"▁diox":11002,"▁trails":11003,"▁Tyrol":11004,"▁iPhone":11005,"igenous":11006,"▁tact":11007,"▁outs":11008,"igu":11009,"▁Riv":11010,"▁indication":11011,"▁reprodu":11012,"▁propag":11013,"▁Sometimes":11014,"▁accepting":11015,"▁sheets":11016,"iably":11017,"▁adjusted":11018,"▁officer":11019,"на":11020,"mense":11021,"▁tape":11022,"▁guides":11023,"▁tap":11024,"atile":11025,"retion":11026,"▁striking":11027,"▁Naturally":11028,"▁Currently":11029,"▁Radio":11030,"▁tremend":11031,"emble":11032,"▁respecting":11033,"▁golden":11034,"▁hire":11035,"stadt":11036,"▁Chile":11037,"▁continually":11038,"▁Professional":11039,"▁&apos;d":11040,"▁reiterate":11041,"▁landscapes":11042,"▁ram":11043,"▁anx":11044,"▁crossing":11045,"▁Ta":11046,"▁Pop":11047,"iev":11048,"▁Allow":11049,"▁Anton":11050,"▁finger":11051,"▁loyal":11052,"▁upcoming":11053,"▁endeavour":11054,"▁Eth":11055,"▁Li":11056,"▁encount":11057,"▁undertaking":11058,"▁simplification":11059,"▁regimes":11060,"▁coinc":11061,"▁Content":11062,"▁Come":11063,"▁unequ":11064,"▁interaction":11065,"iferation":11066,"▁Norm":11067,"▁telling":11068,"ESS":11069,"▁boxes":11070,"▁Integ":11071,"▁frank":11072,"struct":11073,"▁mining":11074,"▁calculated":11075,"PL":11076,"▁MP3":11077,"▁imprison":11078,"▁chocolate":11079,"▁ensured":11080,"iasm":11081,"▁UNE":11082,"alia":11083,"ifiable":11084,"▁modes":11085,"▁reductions":11086,"▁feels":11087,"▁shareholders":11088,"▁1980":11089,"▁Indonesia":11090,"ois":11091,"▁preferences":11092,"▁separated":11093,"zig":11094,"▁tension":11095,"▁hide":11096,"ocent":11097,"BC":11098,"liness":11099,"▁fro":11100,"▁immense":11101,"▁underline":11102,"▁dominated":11103,"▁Above":11104,"yal":11105,"▁Tri":11106,"asting":11107,"▁circulation":11108,"▁derog":11109,"▁minds":11110,"▁conveniently":11111,"▁quantities":11112,"tage":11113,"▁PS":11114,"▁myth":11115,"▁sensit":11116,"▁denied":11117,"▁doctors":11118,"▁Tel":11119,"▁Thailand":11120,"▁defending":11121,"▁motions":11122,"▁participated":11123,"▁consistency":11124,"▁aest":11125,"▁pix":11126,"är":11127,"▁Mail":11128,"▁evil":11129,"oa":11130,"▁SA":11131,"▁Aqu":11132,"▁Line":11133,"▁responses":11134,"▁listened":11135,"▁weapon":11136,"▁LT":11137,"▁lights":11138,"▁solo":11139,"▁boards":11140,"▁exploring":11141,"▁identical":11142,"uum":11143,"▁pa":11144,"▁stood":11145,"▁missions":11146,"▁combining":11147,"▁deleted":11148,"▁recycling":11149,"isons":11150,"▁C.":11151,"arked":11152,"▁pin":11153,"oler":11154,"▁interim":11155,"▁XP":11156,"issance":11157,"▁monthly":11158,"▁assumed":11159,"▁Friendly":11160,"idad":11161,"izz":11162,"▁Alg":11163,"▁16th":11164,"▁badly":11165,"▁loved":11166,"Rooms":11167,"▁Stutt":11168,"▁investigate":11169,"▁god":11170,"▁cens":11171,"▁sustained":11172,"ultural":11173,"ductive":11174,"▁Danube":11175,"▁culinary":11176,"▁EF":11177,"▁hosts":11178,"▁concentrated":11179,"▁walks":11180,"▁rand":11181,"▁linguistic":11182,"ski":11183,"▁bow":11184,"▁Mi":11185,"▁About":11186,"▁Organization":11187,"▁enemy":11188,"etus":11189,"▁Six":11190,"▁analyses":11191,"▁resorts":11192,"200":11193,"▁pull":11194,"▁requiring":11195,"▁specialised":11196,"lessly":11197,"▁gest":11198,"rix":11199,"▁della":11200,"▁charter":11201,"works":11202,"iza":11203,"▁commend":11204,"▁Exhib":11205,"▁Comb":11206,"▁Region":11207,"▁ocean":11208,"▁DC":11209,"▁optimum":11210,"▁consisting":11211,"▁tiss":11212,"▁Rio":11213,"▁overwhelming":11214,"▁banned":11215,"▁bases":11216,"▁transformed":11217,"▁vicinity":11218,"hand":11219,"hne":11220,"▁Walk":11221,"▁Bug":11222,"▁Louis":11223,"▁Spring":11224,"raf":11225,"▁pled":11226,"▁prejud":11227,"▁enthusiasm":11228,"faces":11229,"▁alliance":11230,"racies":11231,"▁announcement":11232,"▁newspapers":11233,"pin":11234,"▁unlimited":11235,"▁permanently":11236,"▁Reform":11237,"▁brows":11238,"burgh":11239,"alys":11240,"▁Roc":11241,"▁weekly":11242,"▁officers":11243,"▁unstable":11244,"▁commonly":11245,"▁connecting":11246,"▁Client":11247,"▁tackling":11248,"▁filling":11249,"▁Cert":11250,"▁SW":11251,"▁handic":11252,"▁cheaper":11253,"list":11254,"oque":11255,"idity":11256,"▁dish":11257,"ische":11258,"▁Alpine":11259,"▁1.2":11260,"▁HU":11261,"▁isolation":11262,"▁©":11263,"▁forb":11264,"▁discovery":11265,"▁Film":11266,"isse":11267,"▁pron":11268,"▁modest":11269,"▁minib":11270,"▁Coast":11271,"isen":11272,"▁enfor":11273,"▁refined":11274,"▁booth":11275,"▁warranty":11276,"▁districts":11277,"▁adaptation":11278,"▁trademarks":11279,"▁cig":11280,"ustain":11281,"▁cargo":11282,"vi":11283,"herent":11284,"▁accused":11285,"▁56":11286,"enger":11287,"▁marvel":11288,"▁pursuing":11289,"▁EMU":11290,"▁Joseph":11291,"TER":11292,"▁Chief":11293,"▁twelve":11294,"▁passes":11295,"▁observers":11296,".I":11297,"▁Num":11298,"▁68":11299,"▁Natural":11300,"▁pray":11301,"▁discretion":11302,"▁51":11303,"▁Scient":11304,"▁continuation":11305,"▁Libya":11306,"▁sofa":11307,"▁clothes":11308,"▁restoration":11309,"▁Stuttgart":11310,"▁Fif":11311,"▁Holy":11312,"▁Ocean":11313,"▁presentations":11314,"▁Anti":11315,"▁daughter":11316,"▁exploit":11317,"▁earthqu":11318,"▁LateRooms":11319,"acent":11320,"▁strive":11321,"▁Anonymous":11322,"▁Print":11323,"▁Forest":11324,"▁gastronom":11325,"rets":11326,"▁propri":11327,"raries":11328,"▁knowing":11329,"▁carrier":11330,"▁publisher":11331,"▁railways":11332,"▁humans":11333,"▁suddenly":11334,"pression":11335,"station":11336,"▁CP":11337,"▁Plus":11338,"▁drag":11339,"▁Andal":11340,"▁tangible":11341,"▁congratulations":11342,"▁sympt":11343,"ju":11344,"▁annex":11345,"▁Docu":11346,"▁authorisation":11347,"▁Spec":11348,"itably":11349,"▁Could":11350,"▁clearer":11351,"▁labels":11352,"▁demonstration":11353,"stuffs":11354,"▁tone":11355,"▁influenced":11356,"▁SK":11357,"▁conqu":11358,"▁authorised":11359,"▁contributes":11360,"▁irres":11361,"▁Playa":11362,"▁abolition":11363,"mn":11364,"▁confron":11365,"▁homepage":11366,"▁17th":11367,"▁fifteen":11368,"▁arrested":11369,"▁unpreced":11370,"▁fires":11371,"▁depos":11372,"▁BE":11373,"▁failing":11374,"▁Sky":11375,"35":11376,"kind":11377,"▁migrants":11378,"▁Fut":11379,"▁Py":11380,"br":11381,"▁sail":11382,"▁reun":11383,"▁Arts":11384,"▁breaking":11385,"▁unprecedented":11386,"▁roles":11387,"▁obtaining":11388,"▁alive":11389,"▁Und":11390,"udi":11391,"▁glob":11392,"▁descript":11393,"▁grew":11394,"idel":11395,"▁absurd":11396,"▁demanded":11397,"iot":11398,"▁competitors":11399,"▁mailing":11400,"with":11401,"▁hus":11402,"oked":11403,"▁shell":11404,"▁marginal":11405,"▁vend":11406,"▁Rock":11407,"▁defense":11408,"leys":11409,"▁nicht":11410,"▁desper":11411,"▁independently":11412,"▁distinguished":11413,"DI":11414,"▁arom":11415,"▁SS":11416,"ologically":11417,"oust":11418,"▁lag":11419,"atics":11420,"chi":11421,"▁Pas":11422,"▁UNESCO":11423,"heart":11424,"▁frust":11425,"ressing":11426,"▁brill":11427,"▁rescue":11428,"▁Dres":11429,"▁backing":11430,"▁consolidation":11431,"▁Tax":11432,"▁rear":11433,"▁Tower":11434,"▁Bor":11435,"▁CHF":11436,"ín":11437,"▁lens":11438,"tering":11439,"▁Amb":11440,"▁earned":11441,"▁winners":11442,"▁prag":11443,"▁WC":11444,"▁notification":11445,"▁Millennium":11446,"▁gathered":11447,"DR":11448,"▁Ms":11449,"▁transmitted":11450,"▁endors":11451,"▁investigations":11452,"▁venture":11453,"rine":11454,"▁flags":11455,"ugen":11456,"▁furthermore":11457,"▁gains":11458,"▁noticed":11459,"▁tech":11460,"▁skilled":11461,"▁skill":11462,"▁Working":11463,"▁permits":11464,"▁securities":11465,"▁excellence":11466,"▁ambitions":11467,"▁Fourth":11468,"▁capability":11469,"▁deny":11470,"feld":11471,"▁founder":11472,"▁preventive":11473,"▁grave":11474,"▁implies":11475,"apore":11476,"▁BA":11477,"▁economics":11478,"▁cinema":11479,"▁profiles":11480,"▁employee":11481,"▁Tunisia":11482,"lad":11483,"ui":11484,"▁storm":11485,"alled":11486,"▁unex":11487,"▁laboratory":11488,"▁random":11489,"16":11490,"▁nowadays":11491,"▁differently":11492,"▁estimates":11493,"▁deemed":11494,"▁lifestyle":11495,"▁ambience":11496,"win":11497,"▁backed":11498,"ibbean":11499,"eter":11500,"▁butt":11501,"▁intergovernmental":11502,"▁audit":11503,"▁Text":11504,"▁District":11505,"▁dominant":11506,"OC":11507,"▁observations":11508,"▁org":11509,"opp":11510,"▁Vista":11511,"▁supervisory":11512,"▁assessments":11513,"▁sightseeing":11514,"▁cabin":11515,"▁abst":11516,"▁removing":11517,"aire":11518,"▁shore":11519,"▁Nature":11520,"▁cope":11521,"onds":11522,"▁plane":11523,"▁synchron":11524,"▁subscribe":11525,"▁pregn":11526,"▁musicians":11527,"▁dangers":11528,"▁Communication":11529,"▁Moldova":11530,"▁designers":11531,"ART":11532,"astery":11533,"▁stakeholders":11534,"▁embedded":11535,"▁sick":11536,"▁venue":11537,"▁rose":11538,"▁cycling":11539,"▁Double":11540,"ни":11541,"▁aspir":11542,"▁capacities":11543,"▁databases":11544,"▁partially":11545,"▁indisp":11546,"▁unanimous":11547,"iously":11548,"▁Arc":11549,"▁15th":11550,"▁benefici":11551,"van":11552,"▁indigenous":11553,"▁globalization":11554,"▁Country":11555,"organ":11556,"platz":11557,"▁furnish":11558,"▁motivated":11559,"ße":11560,"▁":11561,"▁besides":11562,"▁invested":11563,"oper":11564,"ruck":11565,"▁acted":11566,"▁married":11567,"▁missed":11568,"rot":11569,"▁bears":11570,"▁Ce":11571,"ncies":11572,"▁consulted":11573,"▁Imm":11574,"▁Library":11575,"▁scar":11576,"▁hal":11577,"▁Bund":11578,"▁featured":11579,"▁Caribbean":11580,"▁Ra":11581,"▁boundaries":11582,"▁Meanwhile":11583,"▁eating":11584,"▁promotes":11585,"▁Transl":11586,"▁configure":11587,"▁Mountain":11588,"▁mould":11589,"▁CEO":11590,"bre":11591,"▁ath":11592,"▁Jos":11593,"▁58":11594,"▁Ukrain":11595,"iances":11596,"ahr":11597,"14":11598,"bing":11599,".200":11600,"pan":11601,"ori":11602,"▁C5":11603,"▁Has":11604,"▁Tok":11605,"teries":11606,"▁Jud":11607,"▁translate":11608,"▁scenes":11609,"▁Professor":11610,"nik":11611,"▁Gas":11612,"▁radiation":11613,"▁kilometers":11614,"▁unlikely":11615,"▁climbing":11616,"atories":11617,"▁poet":11618,"▁extends":11619,"▁afterwards":11620,"▁younger":11621,"▁appreciation":11622,"▁inspiration":11623,"▁forums":11624,"▁Aren":11625,"▁comforts":11626,"▁feelings":11627,"▁struck":11628,"▁vineyards":11629,"othic":11630,"▁awards":11631,"west":11632,"▁uncom":11633,"▁forming":11634,"▁Dam":11635,"▁countless":11636,"▁Suites":11637,"aug":11638,"add":11639,"▁angle":11640,"asy":11641,"aret":11642,"▁safely":11643,"▁Sand":11644,"▁brid":11645,"▁elabor":11646,"▁speaks":11647,"▁eligible":11648,"▁dispar":11649,"▁Vel":11650,"▁genetically":11651,"▁wer":11652,"ulus":11653,"▁Close":11654,"law":11655,"▁loading":11656,"▁dissem":11657,"▁dismant":11658,"▁dossi":11659,"▁solving":11660,"▁steep":11661,"▁hectares":11662,"▁ties":11663,"▁Tit":11664,"▁pride":11665,"▁Change":11666,"▁Casa":11667,"▁stringent":11668,"▁Excellent":11669,"oard":11670,"▁conviction":11671,"war":11672,"▁oder":11673,"▁Nero":11674,"▁sincerely":11675,"▁collections":11676,"▁clarification":11677,"▁summary":11678,"▁Residence":11679,"▁nutr":11680,"▁Rental":11681,"▁Nig":11682,"argo":11683,"ci":11684,"▁theat":11685,"aton":11686,"enade":11687,"▁dive":11688,"▁reconciliation":11689,"otechnology":11690,"▁eine":11691,"▁Ges":11692,"eldorf":11693,"▁Regarding":11694,"▁damaging":11695,"gov":11696,"▁reaches":11697,"▁Hit":11698,"▁Later":11699,"▁finishing":11700,"ounded":11701,"pha":11702,"▁utility":11703,"marks":11704,"▁supermark":11705,"▁cooling":11706,"▁Products":11707,"▁Domin":11708,"aded":11709,"▁Bill":11710,"ensable":11711,"▁secured":11712,"▁revenues":11713,"usalem":11714,"▁refres":11715,"▁Jews":11716,"▁Jesus":11717,"▁dictatorship":11718,"▁tiny":11719,"▁Cold":11720,"▁diamet":11721,"brid":11722,"hesion":11723,"▁RA":11724,"▁moderate":11725,"▁tournament":11726,"pine":11727,"icating":11728,"ucks":11729,"▁Ski":11730,"▁delayed":11731,"▁vessel":11732,"▁Gallery":11733,"▁instant":11734,"▁pit":11735,"▁Mov":11736,"▁albeit":11737,"▁separation":11738,"▁qualities":11739,"▁palace":11740,"▁mild":11741,"▁dil":11742,"▁AK":11743,"▁mineral":11744,"ра":11745,"aland":11746,"▁Crim":11747,"▁justification":11748,"▁59":11749,"▁chef":11750,"▁explanations":11751,"▁grad":11752,"▁Love":11753,"▁panels":11754,"▁Estonia":11755,"▁Supervisory":11756,"▁decentral":11757,"TR":11758,"▁Gh":11759,"▁investing":11760,"ijk":11761,"▁Mah":11762,"▁Han":11763,"▁ave":11764,"▁bust":11765,"rage":11766,"▁MO":11767,"▁Rather":11768,"▁unilateral":11769,"▁suspension":11770,"▁plugin":11771,"anas":11772,"▁Hels":11773,"▁dreams":11774,"▁Jerusalem":11775,"yo":11776,"▁Mul":11777,"▁realised":11778,"▁designated":11779,"▁borne":11780,"▁hypoc":11781,"▁ages":11782,"▁intoler":11783,"▁offset":11784,"▁blank":11785,"▁symbolic":11786,"▁Piazza":11787,"▁insight":11788,"▁Partner":11789,"▁uphold":11790,"▁royal":11791,"▁Schul":11792,"▁Heritage":11793,"▁camping":11794,"▁infrastructures":11795,"imal":11796,"iere":11797,"TC":11798,"opoly":11799,"▁helic":11800,"ACH":11801,"▁wedding":11802,"▁Warcraft":11803,"▁reproduction":11804,"▁stimulate":11805,"▁hairdry":11806,"rav":11807,"ective":11808,"▁Ly":11809,"▁scenario":11810,"▁seminar":11811,"▁disclos":11812,"▁constraints":11813,"hm":11814,"▁Aven":11815,"▁Step":11816,"▁Update":11817,"▁shoes":11818,"hyth":11819,"RC":11820,"TH":11821,"appropri":11822,"▁Capital":11823,"log":11824,"asp":11825,"▁Ele":11826,"▁horses":11827,"▁boom":11828,"▁accountability":11829,"▁seaside":11830,"▁с":11831,"ctic":11832,"▁endless":11833,"▁coherence":11834,"TV":11835,"▁auch":11836,"▁URL":11837,"isual":11838,"▁horn":11839,"▁140":11840,"▁Between":11841,"▁roughly":11842,"iten":11843,"▁socially":11844,"▁lawyers":11845,"▁limitations":11846,"▁fruits":11847,"▁await":11848,"▁Annual":11849,"▁refurbished":11850,"ierra":11851,"▁Independ":11852,"cia":11853,"estone":11854,"▁1950":11855,"▁bonds":11856,"iates":11857,"▁coc":11858,"▁PSE":11859,"▁outlined":11860,"isa":11861,"hensible":11862,"▁continental":11863,"▁Newsp":11864,"▁subscription":11865,"▁compatibility":11866,"▁luggage":11867,"▁gaming":11868,"imm":11869,"▁avoiding":11870,"▁indispensable":11871,"cles":11872,"▁weld":11873,"▁racing":11874,"▁activated":11875,"▁attempted":11876,"▁Language":11877,"▁vice":11878,"sians":11879,"▁evol":11880,"anners":11881,"▁Christians":11882,"▁controller":11883,"▁advocate":11884,"heast":11885,"▁invites":11886,"▁Sams":11887,"outs":11888,"▁flaw":11889,"▁impetus":11890,"▁Exc":11891,"▁criter":11892,"▁Monten":11893,"▁margin":11894,"▁Richard":11895,"▁episode":11896,"▁Fax":11897,"▁washing":11898,"▁Young":11899,"▁admission":11900,"▁laying":11901,"▁delivering":11902,"zo":11903,"sten":11904,"▁Ak":11905,"▁flour":11906,"▁existed":11907,"▁currencies":11908,"▁misunder":11909,"▁Simply":11910,"▁Galile":11911,"▁grip":11912,"▁AF":11913,"▁divide":11914,"▁inevitable":11915,"fo":11916,"▁wet":11917,"ems":11918,"▁filters":11919,"EF":11920,"▁GPS":11921,"▁printer":11922,"▁routine":11923,"▁License":11924,"esh":11925,"▁plot":11926,"▁entities":11927,"▁hopefully":11928,"▁complimentary":11929,"▁hazardous":11930,"oda":11931,"▁reviewed":11932,"▁pedestrian":11933,"zb":11934,"▁Foot":11935,"▁trap":11936,"▁Climate":11937,"▁paint":11938,"fit":11939,"▁ca":11940,"▁installing":11941,"▁Wellness":11942,"▁resistant":11943,"▁Much":11944,"▁definitive":11945,"▁legendary":11946,".20":11947,"▁Ein":11948,"▁Eco":11949,"▁Unlike":11950,"▁Kn":11951,"▁provin":11952,"▁somewhere":11953,"▁systematically":11954,"▁villas":11955,"▁counterfe":11956,"▁elegance":11957,"▁coalition":11958,"econom":11959,"▁haven":11960,"auses":11961,"▁actor":11962,"ischer":11963,"▁dogs":11964,"▁Allah":11965,"▁libraries":11966,"▁reinforced":11967,"▁Marg":11968,"lims":11969,"▁Hus":11970,"▁Lag":11971,"▁Str":11972,"▁admire":11973,"▁hyper":11974,"bec":11975,"▁gamb":11976,"▁patch":11977,"▁mounted":11978,"▁seekers":11979,"▁Cultural":11980,"68":11981,"pone":11982,"▁mainstream":11983,"▁menus":11984,"iovisual":11985,"▁Cru":11986,"▁110":11987,"▁Spir":11988,"▁Short":11989,"▁simplified":11990,"▁blocked":11991,"▁retirement":11992,"▁gases":11993,"▁universe":11994,"▁entity":11995,"▁neighbor":11996,"▁Wireless":11997,"▁interfaces":11998,"▁mathem":11999,"▁Bridge":12000,"▁killing":12001,"▁promising":12002,"peror":12003,"▁auction":12004,"laimed":12005,"▁Cab":12006,"▁Dim":12007,"▁kg":12008,"▁disreg":12009,"▁authorized":12010,"▁Starf":12011,"▁opponents":12012,"▁het":12013,"▁Ot":12014,"▁arriving":12015,"▁Venet":12016,"ugh":12017,"▁delivers":12018,"▁honor":12019,"▁Ö":12020,"▁bell":12021,"▁.....":12022,"▁Dresden":12023,"▁waves":12024,"▁Sac":12025,"rak":12026,"istry":12027,"▁72":12028,"▁fundamentally":12029,"▁encom":12030,"▁talent":12031,"▁Photos":12032,"▁Corporate":12033,"▁Round":12034,"▁globally":12035,"18":12036,"65":12037,"▁subjected":12038,"▁Being":12039,"▁Chechn":12040,"PA":12041,"▁OK":12042,"▁locally":12043,"▁bless":12044,"▁Basel":12045,"▁Kon":12046,"▁Chic":12047,"▁auto":12048,"▁Privacy":12049,"ilty":12050,"▁Pict":12051,"▁carries":12052,"▁openly":12053,"▁calculation":12054,"held":12055,"▁thirty":12056,"▁Auto":12057,"▁tremendous":12058,"▁SQL":12059,"▁Arr":12060,"▁revol":12061,"▁praise":12062,"▁greet":12063,"▁ideological":12064,"▁Guide":12065,"▁inevitably":12066,"▁intr":12067,"▁affil":12068,"rupted":12069,"▁Try":12070,"olly":12071,"▁HIV":12072,"inki":12073,"▁Nikon":12074,"▁resumed":12075,"▁abort":12076,"▁overse":12077,"▁closure":12078,"▁judges":12079,"PEG":12080,"quiries":12081,"▁Monteneg":12082,"▁attraction":12083,"▁maintains":12084,"▁serial":12085,"▁Muslims":12086,"▁Caf":12087,"▁Bath":12088,"▁ranges":12089,"▁chamber":12090,"▁cream":12091,"▁herself":12092,"▁Riviera":12093,"▁Chechnya":12094,"▁advised":12095,"▁slip":12096,"▁symbols":12097,"▁Person":12098,"▁Key":12099,"▁Catholic":12100,"▁turb":12101,"▁pi":12102,"eland":12103,"▁Ho":12104,"▁deck":12105,"▁prevents":12106,"▁gradual":12107,"▁abstained":12108,"enburg":12109,"▁inex":12110,"▁writer":12111,"▁170":12112,"pot":12113,"▁Plat":12114,"▁precaution":12115,"▁Doha":12116,"▁bicycle":12117,"PM":12118,"fox":12119,"icular":12120,"▁detection":12121,"▁Army":12122,"▁capitalism":12123,"▁marriage":12124,"▁Revolution":12125,"▁tag":12126,"▁Winter":12127,"ller":12128,"▁57":12129,"▁wishing":12130,"▁portra":12131,"▁harmonised":12132,"▁Alban":12133,"▁Motor":12134,"▁Village":12135,"▁Starfleet":12136,"▁encompass":12137,"quet":12138,"astics":12139,"▁convinc":12140,"▁mood":12141,"osystem":12142,"▁distributors":12143,"▁Das":12144,"▁allies":12145,"▁interference":12146,"▁deeper":12147,".com.":12148,"▁analog":12149,"▁selecting":12150,"▁Romanian":12151,"▁130":12152,"▁mad":12153,"▁Siem":12154,"▁4th":12155,"▁Helsinki":12156,"▁WE":12157,"▁abuses":12158,"▁workforce":12159,"▁KDE":12160,"▁vacuum":12161,"▁decrease":12162,"▁predecess":12163,"▁viewing":12164,"▁ferry":12165,"▁electronics":12166,"ilia":12167,"▁decoration":12168,"▁hunger":12169,"iann":12170,"▁topical":12171,"habilit":12172,"▁Statute":12173,"▁Saddam":12174,"▁criterion":12175,"▁technically":12176,"▁behold":12177,"rov":12178,"▁ruled":12179,"iors":12180,"▁Bell":12181,"uma":12182,"▁rigorous":12183,"PR":12184,"case":12185,"zing":12186,"▁grey":12187,"aks":12188,"▁Voy":12189,"orders":12190,"▁arises":12191,"▁enshr":12192,"▁advances":12193,"▁argued":12194,"▁counterpart":12195,"▁350":12196,"▁postpon":12197,"▁surplus":12198,"mented":12199,"▁donors":12200,"▁Administration":12201,"▁Criminal":12202,"▁wire":12203,"▁Call":12204,"▁criminals":12205,"▁reciproc":12206,"pi":12207,"▁dans":12208,"▁liv":12209,"▁giant":12210,"▁Jon":12211,"▁opera":12212,"▁interpreted":12213,"▁Samsung":12214,"▁Move":12215,"ifice":12216,"▁jack":12217,"▁personality":12218,"archy":12219,"▁harvest":12220,"▁envisaged":12221,"▁Š":12222,"▁stamp":12223,"▁exped":12224,"▁exclude":12225,"enophob":12226,"▁Maur":12227,"▁Farm":12228,"▁examining":12229,"▁distant":12230,"▁188":12231,"▁silent":12232,"▁entrepreneurs":12233,"▁sin":12234,"▁bands":12235,"▁backup":12236,"▁defeat":12237,"▁mixture":12238,"▁ü":12239,"▁Pin":12240,"owed":12241,"▁Ga":12242,"▁query":12243,"oys":12244,"▁hearts":12245,"▁autonomous":12246,"▁terraces":12247,"inburgh":12248,"▁procedural":12249,"13":12250,"▁stones":12251,"uxe":12252,"▁restrictive":12253,"arium":12254,"ulture":12255,"isdom":12256,"▁Pier":12257,"▁ads":12258,"▁newest":12259,"▁globe":12260,"▁enjoyable":12261,"▁Comfort":12262,"▁Relations":12263,"▁IGC":12264,"▁mic":12265,"▁LCD":12266,"ailable":12267,"▁Armen":12268,"▁Rhine":12269,"▁Jour":12270,"▁carriers":12271,"▁repression":12272,"▁origins":12273,"▁dependence":12274,"▁Edinburgh":12275,"▁bold":12276,"astrous":12277,"▁highway":12278,"▁loaded":12279,"▁chances":12280,"▁Singapore":12281,"ré":12282,"▁Gay":12283,"▁hosting":12284,"▁Porto":12285,"▁iPod":12286,"ucc":12287,"▁tube":12288,"▁Leip":12289,"▁excuse":12290,"▁postpone":12291,"▁5th":12292,"▁complaint":12293,"iables":12294,"▁ceremony":12295,"▁recruit":12296,"▁Bes":12297,"▁attain":12298,"▁engagement":12299,"▁statute":12300,"▁ageing":12301,"▁Mountains":12302,"▁breeding":12303,"▁inequality":12304,"yll":12305,"▁rarely":12306,"▁customized":12307,"▁sincere":12308,"hal":12309,"ко":12310,"▁healing":12311,"▁disastrous":12312,"▁attent":12313,"▁adjustments":12314,"▁indirectly":12315,"imo":12316,"▁dei":12317,"▁glac":12318,"▁hang":12319,"▁stating":12320,"▁overnight":12321,"▁keyboard":12322,"▁adequately":12323,"▁exceptionally":12324,"▁gun":12325,"▁1990s":12326,"▁threatening":12327,"▁congratulating":12328,"▁revolutionary":12329,"▁distribute":12330,"▁Circ":12331,"▁asc":12332,"▁Bour":12333,"▁62":12334,"▁attempting":12335,"▁voices":12336,"▁proliferation":12337,"▁hairdryer":12338,"▁Hot":12339,"▁courty":12340,"▁Appro":12341,"▁Colomb":12342,"▁validity":12343,"▁accomod":12344,"▁Euros":12345,"▁Kle":12346,"airy":12347,"▁Altern":12348,"▁matches":12349,"▁contradict":12350,"▁coins":12351,"▁resolving":12352,"▁carte":12353,"▁BC":12354,"▁Got":12355,"▁kid":12356,"öm":12357,"▁Wood":12358,"aco":12359,"▁Kling":12360,"▁determining":12361,"▁Especially":12362,"▁Solidarity":12363,"▁Explorer":12364,"IK":12365,"▁Ul":12366,"▁acid":12367,"▁pointing":12368,"▁Connect":12369,"▁Korean":12370,"▁Lind":12371,"▁basket":12372,"▁Proper":12373,"▁pose":12374,"arn":12375,"▁Hill":12376,"▁predom":12377,"▁Finance":12378,"▁Help":12379,"▁sensitivity":12380,"▁fare":12381,"▁quarters":12382,"▁woods":12383,"▁theoretical":12384,",00":12385,"▁inher":12386,"▁maj":12387,"uten":12388,"▁Emb":12389,"▁asks":12390,"▁Bah":12391,"▁Di":12392,"▁affirm":12393,"ischen":12394,"▁Summer":12395,"▁sich":12396,"▁toll":12397,"▁tries":12398,"▁tel":12399,"▁worker":12400,"▁preservation":12401,"▁towels":12402,"▁pillars":12403,"▁samples":12404,"adian":12405,"ainless":12406,"ocop":12407,"▁Petitions":12408,"▁cotton":12409,"economic":12410,"▁£":12411,"elong":12412,"▁Written":12413,"elli":12414,"▁packed":12415,"▁beautifully":12416,"▁Blu":12417,"VI":12418,"▁bags":12419,"▁shooting":12420,"▁cow":12421,"esc":12422,"▁E.":12423,"▁intu":12424,"garian":12425,"utory":12426,"▁rhyth":12427,"▁abilities":12428,"ussions":12429,"▁visas":12430,"▁Stein":12431,"igl":12432,"ayer":12433,"▁layers":12434,"▁thereof":12435,"▁reactions":12436,"▁unanimity":12437,"▁imperative":12438,"▁invoice":12439,"▁aluminium":12440,"▁scrutiny":12441,"▁Newspapers":12442,"inth":12443,"▁Stay":12444,"rer":12445,"▁Night":12446,"▁Dev":12447,"▁civilians":12448,"▁rhet":12449,"▁vertical":12450,"zt":12451,"▁protective":12452,"▁Latvia":12453,"66":12454,"▁EEC":12455,"▁Bö":12456,"▁Ten":12457,"▁monopoly":12458,"▁и":12459,"▁Cash":12460,"▁analyse":12461,"▁shif":12462,"▁NO":12463,"▁formally":12464,"▁monopol":12465,"▁Whilst":12466,"▁readers":12467,"▁refugee":12468,"▁innocent":12469,"ifferent":12470,"▁Unless":12471,"▁workplace":12472,"▁instability":12473,"▁impress":12474,"▁owing":12475,"▁Ford":12476,"▁transported":12477,"▁William":12478,"▁Fron":12479,"▁consolidated":12480,"▁concludes":12481,"ück":12482,"ARE":12483,"▁accommodations":12484,"▁certificates":12485,"▁holes":12486,"▁compromises":12487,"ados":12488,"▁nearest":12489,"▁Dry":12490,"▁belt":12491,"▁audiovisual":12492,"▁tranquil":12493,"▁Nigeria":12494,"▁Nok":12495,"▁clinical":12496,"▁unjust":12497,"▁Annex":12498,"▁critique":12499,"▁Reserv":12500,"▁emotional":12501,"▁beside":12502,"card":12503,"▁§":12504,"▁ran":12505,"▁preference":12506,"▁Works":12507,"▁Disabled":12508,"▁plates":12509,"▁energies":12510,"▁Corporation":12511,"▁Leipzig":12512,"▁Lit":12513,"▁securing":12514,"olding":12515,"▁breaks":12516,"▁loan":12517,"▁distinguish":12518,"▁lapt":12519,"▁Mann":12520,"▁Hon":12521,"▁linking":12522,"▁safeguarding":12523,"▁tonight":12524,"aman":12525,"▁counts":12526,"▁Chancell":12527,"▁integrating":12528,"▁Marc":12529,"▁consultations":12530,"▁epid":12531,"▁alpine":12532,"▁Bag":12533,"uela":12534,"▁Bulgarian":12535,"eta":12536,"▁Dra":12537,"▁formerly":12538,"▁powered":12539,"▁Buddh":12540,"▁Siemens":12541,"orld":12542,"▁insec":12543,"▁GR":12544,"▁NEW":12545,"▁veter":12546,"▁Local":12547,"▁loud":12548,"▁literally":12549,"▁altitude":12550,"▁Innovation":12551,"▁hur":12552,"▁gran":12553,"▁classified":12554,"onian":12555,"▁wished":12556,"▁Times":12557,"ulator":12558,"▁surgery":12559,"72":12560,"▁fits":12561,"▁Fra":12562,"▁VIP":12563,"▁Flor":12564,"33":12565,"▁dens":12566,"▁EG":12567,"▁buyer":12568,"ál":12569,"orious":12570,"▁ster":12571,"▁Upon":12572,"▁sympathy":12573,"▁Id":12574,"rape":12575,"▁painted":12576,"▁dimin":12577,"▁fulfill":12578,"▁Relax":12579,"gal":12580,"▁Eve":12581,"▁limitation":12582,"▁Mallorca":12583,"▁Firefox":12584,"▁accompanying":12585,"▁Galileo":12586,"▁husband":12587,"wall":12588,"issible":12589,"▁thinks":12590,"▁Age":12591,"▁BO":12592,"acies":12593,"▁galleries":12594,"▁Friedrich":12595,"cat":12596,"▁sed":12597,"▁grade":12598,"pere":12599,"plements":12600,"▁multilingual":12601,"▁disregard":12602,"rasse":12603,"▁Sierra":12604,"▁Rod":12605,"▁Roth":12606,"▁refusal":12607,"▁embry":12608,"▁aggressive":12609,"▁foster":12610,"▁furnishings":12611,"sters":12612,"▁chip":12613,"orde":12614,"▁88":12615,"▁verify":12616,"▁Scand":12617,"▁cathedral":12618,"▁Congo":12619,"V.":12620,"▁Metro":12621,"aro":12622,"▁File":12623,"▁democracies":12624,"▁aiming":12625,"▁hunting":12626,"▁deadlines":12627,"▁Depending":12628,"makers":12629,"national":12630,"phones":12631,"▁studying":12632,"▁sums":12633,"▁cattle":12634,"▁exempl":12635,"▁Engineering":12636,"▁rehabilit":12637,"▁disg":12638,"▁smoke":12639,"▁CAN":12640,"▁interventions":12641,"▁delegations":12642,"ро":12643,"▁foss":12644,"▁FI":12645,"▁Nothing":12646,"▁perception":12647,"▁supporters":12648,"▁Theatre":12649,"▁wanting":12650,"▁Coll":12651,"ially":12652,"▁XML":12653,"▁1970":12654,"▁rolling":12655,"lu":12656,"▁profitable":12657,"▁immunity":12658,"▁confirms":12659,"▁endorsed":12660,"agne":12661,"▁spam":12662,"ariat":12663,"▁strikes":12664,"▁detention":12665,"▁classification":12666,"▁spo":12667,"▁Neither":12668,"▁enhancing":12669,"itravel":12670,"▁irrespective":12671,"bi":12672,"isy":12673,"▁stric":12674,"▁deciding":12675,"▁comfortably":12676,"▁medicinal":12677,"▁Aus":12678,"▁Dat":12679,"▁deriv":12680,"▁Valencia":12681,"▁surfaces":12682,"▁Nobel":12683,"▁toxic":12684,"▁Nokia":12685,"▁Ay":12686,"▁posed":12687,"luded":12688,"▁Palma":12689,"▁avec":12690,"mente":12691,"cessions":12692,"weight":12693,"▁78":12694,"▁multipl":12695,"▁archae":12696,"▁inappropri":12697,"▁ours":12698,"▁punishment":12699,"pace":12700,"▁exquisite":12701,"▁guilty":12702,"▁grid":12703,"ustainable":12704,"dens":12705,"s.":12706,"▁intimate":12707,"▁inviting":12708,"asonic":12709,"▁sheep":12710,"mail":12711,"▁lend":12712,"▁Ut":12713,"▁Kat":12714,"▁proves":12715,"▁reader":12716,"▁modernisation":12717,"▁1988":12718,"▁Exhibition":12719,"arly":12720,"▁revers":12721,"▁anch":12722,"▁RSS":12723,"▁smallest":12724,"▁activate":12725,"▁Return":12726,"▁Montenegro":12727,"▁Som":12728,"▁reasonably":12729,"▁demonstrations":12730,"▁memories":12731,"▁Wikitravel":12732,"▁Fel":12733,"▁Blair":12734,"▁divisions":12735,"▁crafts":12736,"amount":12737,"▁exotic":12738,"oga":12739,"▁intent":12740,"▁Prog":12741,"▁gour":12742,"▁corporations":12743,"▁paragraphs":12744,"▁incomes":12745,"bul":12746,"vens":12747,"▁worried":12748,"▁desp":12749,"▁variables":12750,"▁portion":12751,"▁Building":12752,"▁navig":12753,"▁obstacle":12754,"Press":12755,"▁wisdom":12756,"▁ment":12757,"▁Mary":12758,"▁jazz":12759,"▁annually":12760,"▁execute":12761,"sts":12762,"▁incons":12763,"▁Anyone":12764,"▁licensed":12765,"▁cliff":12766,"▁interd":12767,"▁couples":12768,"▁assessed":12769,"ifa":12770,"99":12771,"▁protests":12772,"▁etc.":12773,"draul":12774,"▁container":12775,"▁buttons":12776,"uits":12777,"▁hub":12778,"▁developer":12779,"▁safer":12780,"▁identifying":12781,"▁ruins":12782,"gorith":12783,"én":12784,"▁umb":12785,"isations":12786,"▁pestic":12787,"▁Cohesion":12788,"▁dismiss":12789,"▁remedy":12790,"▁reaff":12791,"▁communist":12792,"▁witnessed":12793,"▁&apos;E":12794,"▁seed":12795,"GE":12796,"houses":12797,"▁hab":12798,"▁Ox":12799,"▁Deep":12800,"▁elite":12801,"owski":12802,"▁inherent":12803,"▁completing":12804,"▁improves":12805,"▁fastest":12806,"▁exploited":12807,"▁als":12808,"▁modification":12809,"ribution":12810,"▁baths":12811,"▁burning":12812,"▁convincing":12813,"▁cy":12814,"▁Lang":12815,"▁overl":12816,"arios":12817,"▁perceived":12818,".10":12819,"uation":12820,"▁dairy":12821,"▁SH":12822,"▁accessed":12823,"aze":12824,"▁advisory":12825,"▁porn":12826,"▁Sty":12827,"▁festivals":12828,"▁inland":12829,"chaft":12830,"▁Quest":12831,"▁definitions":12832,"▁reimb":12833,"etch":12834,"ermost":12835,"▁textiles":12836,"ilton":12837,"heres":12838,"▁disabilities":12839,"▁clauses":12840,"▁Tex":12841,"▁Looking":12842,"▁werden":12843,"▁tong":12844,"▁downloads":12845,"▁Wild":12846,"▁seam":12847,"▁coat":12848,"▁ups":12849,"▁pretext":12850,"▁barrier":12851,"▁sends":12852,"▁Recently":12853,"▁sequence":12854,"▁pushed":12855,"urse":12856,"▁processor":12857,"▁Iceland":12858,"▁Ukrainian":12859,"▁Did":12860,"▁introduces":12861,"▁nightlife":12862,"▁Chancellor":12863,"itals":12864,"pted":12865,"▁commands":12866,"rics":12867,"elson":12868,"▁psychological":12869,"▁CL":12870,"▁modular":12871,"▁modifications":12872,"▁lifts":12873,"▁trials":12874,"▁consolidate":12875,"▁Algeria":12876,"cany":12877,"ocratic":12878,"▁anyway":12879,"▁gaining":12880,"▁broadcasting":12881,"▁nit":12882,"▁Want":12883,"▁rum":12884,"▁LED":12885,"▁amid":12886,"▁este":12887,"▁reaffirm":12888,"opia":12889,"▁HP":12890,"plex":12891,"▁passport":12892,"▁limiting":12893,"▁bathing":12894,"▁holder":12895,"17":12896,"VIS":12897,"▁een":12898,"orship":12899,"▁Sales":12900,"▁renewal":12901,"▁distinctive":12902,"▁sul":12903,"itives":12904,"▁aboard":12905,"▁tracking":12906,"▁baggage":12907,"▁adjacent":12908,"67":12909,"erie":12910,"▁eco":12911,"▁vibrant":12912,"far":12913,"▁wond":12914,"ali":12915,"▁Cel":12916,"▁Lud":12917,"▁irrespon":12918,"uty":12919,"▁Azer":12920,"oding":12921,"▁indications":12922,"▁retrie":12923,"▁genoc":12924,"▁predomin":12925,"▁bol":12926,"roph":12927,"▁forestry":12928,"▁Marketing":12929,"▁earthquake":12930,"IO":12931,"▁Pot":12932,"▁neo":12933,"▁Jord":12934,"assador":12935,"▁Const":12936,"▁utter":12937,"▁snacks":12938,"▁Terrace":12939,"riger":12940,"▁Sax":12941,"asty":12942,"inea":12943,"▁92":12944,"▁landing":12945,"▁emphasize":12946,"▁Additional":12947,"▁summar":12948,"▁Zealand":12949,"▁Ok":12950,"▁Smith":12951,"▁tendency":12952,"▁dramatically":12953,"▁sacrific":12954,"▁dioxide":12955,"▁xenophob":12956,"▁scholars":12957,"▁depl":12958,"▁protects":12959,"▁complementary":12960,"▁Burg":12961,"▁2,":12962,"▁OLAF":12963,"▁costly":12964,"▁Objective":12965,"▁barg":12966,"▁spreading":12967,"▁prerequisite":12968,"▁chamb":12969,"▁apolog":12970,"▁pipeline":12971,"▁wrap":12972,"▁coastline":12973,"▁sorts":12974,"▁Croatian":12975,"▁Andalus":12976,"▁Colombia":12977,"idas":12978,"▁Eurost":12979,"▁Hor":12980,"▁wasn":12981,"▁evaluated":12982,"▁traditionally":12983,"▁panorama":12984,"▁Spl":12985,"▁Large":12986,"▁secular":12987,"▁meaningful":12988,"▁Environmental":12989,"▁Queen":12990,"▁tensions":12991,"▁Pad":12992,"▁Kaz":12993,"▁shorter":12994,"▁1980s":12995,"▁biof":12996,"eling":12997,"▁congress":12998,"▁tunnel":12999,"UC":13000,"▁crown":13001,"▁dereg":13002,"▁3.5":13003,"▁worlds":13004,"▁Alm":13005,"▁vigil":13006,"▁honey":13007,"▁Thai":13008,"▁incon":13009,"▁incidents":13010,"▁bankrupt":13011,"▁graphical":13012,"▁cache":13013,"▁credits":13014,"▁volumes":13015,"▁painful":13016,"▁Reserve":13017,"▁hybrid":13018,"▁Warsaw":13019,"▁gambling":13020,"BA":13021,"▁stro":13022,"▁63":13023,"▁recognises":13024,"▁Medical":13025,"▁popularity":13026,"▁ecosystem":13027,"▁breast":13028,"▁dryer":13029,"▁Ticket":13030,"▁gre":13031,"erning":13032,"▁13th":13033,"▁retained":13034,"▁feeding":13035,"▁refreshing":13036,"etime":13037,"▁enrich":13038,"▁encourages":13039,"▁Import":13040,"▁bub":13041,"asm":13042,"▁Cot":13043,"▁donor":13044,"▁confidentiality":13045,"▁unexpect":13046,"bor":13047,"▁Kre":13048,"▁Haiti":13049,"▁Railway":13050,"iannual":13051,"drop":13052,"ité":13053,"▁contra":13054,"▁ordering":13055,"▁termin":13056,"▁attacked":13057,"▁tasty":13058,"▁exter":13059,"▁Ku":13060,"▁Excel":13061,"▁petition":13062,"▁breath":13063,"▁Dolomites":13064,"▁wholes":13065,"keeping":13066,"▁misle":13067,"▁CDs":13068,"govina":13069,"uce":13070,"▁german":13071,"▁Borg":13072,"acio":13073,"▁economical":13074,"ungal":13075,"▁Canary":13076,"▁bottle":13077,"lor":13078,"▁prostit":13079,"▁unified":13080,"▁overt":13081,"▁conducting":13082,"▁settlements":13083,"▁Users":13084,"▁oasis":13085,"▁Cook":13086,"▁Event":13087,"▁Airlines":13088,"▁fulfilling":13089,"▁Spirit":13090,"▁Sir":13091,"▁noble":13092,"▁Shan":13093,"▁Solutions":13094,"▁Johannes":13095,"▁surre":13096,"▁Gre":13097,"izations":13098,"inking":13099,"▁marble":13100,"▁Francisco":13101,"▁organs":13102,"▁pricing":13103,"▁legacy":13104,"▁evenings":13105,"▁Whatever":13106,"▁Marco":13107,"▁aston":13108,"▁brilliant":13109,"▁Fab":13110,"▁correction":13111,"▁Arena":13112,"▁rust":13113,"▁alert":13114,"▁optimized":13115,"▁tailor":13116,"▁PV":13117,"▁Germans":13118,"▁Official":13119,"▁ratify":13120,"eenth":13121,"▁trick":13122,"▁municipality":13123,"GA":13124,"yss":13125,"▁weigh":13126,"▁Rub":13127,"▁reluct":13128,"orthy":13129,"▁safeguards":13130,"▁gathering":13131,"▁playground":13132,"▁temporarily":13133,"ées":13134,"▁proport":13135,"▁Hu":13136,"▁rememb":13137,"ARD":13138,"▁courtyard":13139,"iguous":13140,"▁Level":13141,"ernity":13142,"▁corrid":13143,"▁prescrib":13144,"▁Herze":13145,"▁bugs":13146,"▁Against":13147,"otal":13148,"▁Save":13149,"▁Though":13150,"▁transnational":13151,"▁Impro":13152,"▁sleeping":13153,"▁inspections":13154,"MO":13155,"inav":13156,"ota":13157,"▁Computer":13158,"▁batteries":13159,"▁Tuscany":13160,"▁Mid":13161,"▁ideology":13162,"▁minded":13163,"▁quoted":13164,"▁antique":13165,"▁preserving":13166,"▁birthday":13167,"▁encountered":13168,"▁nurs":13169,"▁Sports":13170,"▁generating":13171,"▁Solana":13172,"▁cosm":13173,"▁floods":13174,"▁responding":13175,"▁10th":13176,"aran":13177,"▁CA":13178,"▁outermost":13179,"▁races":13180,"▁potato":13181,"▁configured":13182,"▁inappropriate":13183,"▁Initi":13184,"▁Need":13185,"▁regener":13186,"▁assessing":13187,"▁cycl":13188,"▁Deutsch":13189,"▁privileges":13190,"▁brutal":13191,"cs":13192,"eing":13193,"ioned":13194,"▁mira":13195,"oded":13196,"ardin":13197,"▁wholeheart":13198,"power":13199,"▁cott":13200,"▁Ped":13201,"aden":13202,"▁Hague":13203,"▁visibility":13204,"▁Canadian":13205,"▁titles":13206,"▁enemies":13207,"oty":13208,"▁Fisch":13209,"ourge":13210,"▁invasion":13211,"▁attitudes":13212,"▁Bonn":13213,"▁democratically":13214,"oors":13215,"idal":13216,"▁Mit":13217,"▁Wald":13218,"▁1986":13219,"▁merch":13220,"▁Version":13221,"▁Division":13222,"▁Herzegovina":13223,"cano":13224,"r.":13225,"▁cu":13226,"▁bou":13227,"▁mile":13228,"step":13229,"▁Virt":13230,"▁14th":13231,"▁Photo":13232,"ét":13233,"▁Sel":13234,"ocation":13235,"▁statutory":13236,"▁continuity":13237,"▁disadvantage":13238,"▁Pon":13239,"ivities":13240,"▁Gott":13241,"▁sind":13242,"▁Sche":13243,"▁experiments":13244,"otype":13245,"▁Credit":13246,"▁chips":13247,"▁metals":13248,"▁institute":13249,"▁ber":13250,"▁Esp":13251,"▁dispro":13252,"▁captured":13253,"▁bin":13254,"▁vou":13255,"▁prud":13256,"aven":13257,"▁minibar":13258,"aron":13259,"▁deployment":13260,"▁launching":13261,"▁cave":13262,"▁broadly":13263,"▁magazines":13264,"▁escal":13265,"▁tons":13266,"▁ok":13267,"▁pump":13268,"eren":13269,"angle":13270,"▁understandable":13271,"▁Speed":13272,"▁Ashton":13273,"cz":13274,"lov":13275,"▁ic":13276,"▁Broad":13277,"artial":13278,"▁J.":13279,"▁Athens":13280,"▁Contract":13281,"▁vegetable":13282,"▁cord":13283,"▁OSC":13284,"▁Force":13285,"▁retention":13286,"▁foodstuffs":13287,"▁blocking":13288,"▁persecution":13289,"illy":13290,"eli":13291,"▁Gate":13292,"▁directors":13293,"▁popul":13294,"▁Holland":13295,"mers":13296,"▁OEC":13297,"▁unres":13298,"▁headed":13299,"▁timing":13300,"▁fabulous":13301,"UN":13302,"▁Sic":13303,"▁algorith":13304,"▁zoom":13305,"holder":13306,"▁varying":13307,"giene":13308,"▁Learn":13309,"anka":13310,"▁measurements":13311,"▁compiled":13312,"▁automobile":13313,"▁cooperative":13314,"▁Saudi":13315,"▁solarium":13316,"ji":13317,"▁activists":13318,"atisfact":13319,"45":13320,"48":13321,"▁hoc":13322,"▁Ric":13323,"▁disarm":13324,"▁marking":13325,"author":13326,"▁Nazi":13327,"▁precautionary":13328,"▁sid":13329,"▁Kun":13330,"iban":13331,"▁Peters":13332,"▁scripts":13333,"▁conscience":13334,"asant":13335,"▁Lod":13336,"▁Monitor":13337,"▁responded":13338,"▁imagination":13339,"rapeut":13340,"▁OECD":13341,"▁problematic":13342,"▁estimate":13343,"ORT":13344,"▁pushing":13345,"▁nick":13346,"▁interconnect":13347,"▁organising":13348,"▁positively":13349,"▁Political":13350,"ström":13351,"mans":13352,"▁cyl":13353,"▁B.":13354,"▁ROM":13355,"▁Kor":13356,"olec":13357,"▁tens":13358,"arre":13359,"▁mines":13360,"▁restra":13361,"▁initiate":13362,"▁withdrawn":13363,"▁Fa":13364,"teg":13365,"ieu":13366,"▁Still":13367,"▁closest":13368,"▁holders":13369,"▁stretch":13370,"omic":13371,"▁stainless":13372,"▁Father":13373,"▁Dor":13374,"▁resign":13375,"▁Lead":13376,"▁Prince":13377,"▁hosted":13378,"▁fragile":13379,"▁IBM":13380,"▁echo":13381,"ommerce":13382,"ende":13383,"▁underest":13384,"▁dealers":13385,"▁voltage":13386,"örse":13387,"XI":13388,"chers":13389,"▁è":13390,"▁dur":13391,"onda":13392,"▁Baron":13393,"▁burdens":13394,"▁municipal":13395,"▁sear":13396,"▁Rena":13397,"▁jet":13398,"▁competitions":13399,"▁coordinating":13400,"▁viruses":13401,"▁motorcy":13402,"▁casual":13403,"▁Future":13404,"▁env":13405,"▁coating":13406,"▁listing":13407,"▁collecting":13408,"▁Picard":13409,"esk":13410,"obil":13411,"▁entrust":13412,"ribe":13413,"ieth":13414,"▁establishments":13415,"▁genocide":13416,"73":13417,"▁om":13418,"▁brew":13419,"▁suic":13420,"▁exac":13421,"▁manually":13422,"▁rocks":13423,"▁YOU":13424,"▁productions":13425,"▁grain":13426,"▁Assist":13427,"▁1987":13428,"▁imbalances":13429,"sor":13430,"eda":13431,"▁Pun":13432,"▁Articles":13433,".C.":13434,"▁Battle":13435,"▁Advanced":13436,"itis":13437,"▁Bou":13438,"oca":13439,"▁Share":13440,"▁App":13441,"▁Sym":13442,"▁deliberately":13443,"▁boutique":13444,"▁align":13445,"▁Watch":13446,"▁Fun":13447,"▁documented":13448,"▁injury":13449,"▁affair":13450,"▁penet":13451,"oen":13452,"▁Fern":13453,"▁Od":13454,"▁Week":13455,"▁socialist":13456,"▁successes":13457,"▁fridge":13458,"▁thou":13459,"▁EIB":13460,"▁accessibility":13461,"▁Laundry":13462,"▁exacerb":13463,"▁Wat":13464,"▁refriger":13465,"▁lifelong":13466,"▁zur":13467,"▁hoping":13468,"▁Scandinav":13469,"▁OSCE":13470,"bsp":13471,"▁bass":13472,"▁chronic":13473,"▁unch":13474,"coni":13475,"aching":13476,"▁defines":13477,"▁lifting":13478,"▁diplomacy":13479,"immer":13480,"▁stere":13481,"sein":13482,"▁shoulder":13483,"▁folk":13484,"▁Quick":13485,"▁stresses":13486,"▁Schulz":13487,"ishop":13488,"▁harder":13489,"▁Smart":13490,".ch":13491,"▁toys":13492,"▁wholly":13493,"▁DJ":13494,"▁Düss":13495,"ourcing":13496,"▁discrimin":13497,"▁Decision":13498,"▁Cambod":13499,"AY":13500,"orously":13501,"▁GT":13502,"▁attending":13503,"▁Daniel":13504,"▁disappeared":13505,"▁infringe":13506,"▁irregularities":13507,"то":13508,"ERS":13509,"▁eliminating":13510,"▁paradox":13511,"▁über":13512,"▁RF":13513,"ECT":13514,"▁Active":13515,"▁Liberals":13516,"▁contradiction":13517,"▁alien":13518,"▁Hi":13519,"▁1985":13520,"▁Patten":13521,"▁rigid":13522,"▁Cleaning":13523,"icable":13524,"asus":13525,"▁reminded":13526,"▁dropped":13527,"▁conservative":13528,"▁detected":13529,"stanbul":13530,"▁Bavaria":13531,"▁umbrell":13532,"▁pair":13533,"▁Ramb":13534,"▁instances":13535,"▁admin":13536,"▁prolong":13537,"▁LO":13538,"▁wheels":13539,"▁studios":13540,"▁banana":13541,"▁preparatory":13542,"▁pursuit":13543,"▁diagnosis":13544,"▁feasible":13545,"ña":13546,"▁LAN":13547,"▁Democracy":13548,"▁harsh":13549,"opl":13550,"▁1945":13551,"▁stimulus":13552,"▁weaknesses":13553,"▁dossier":13554,"▁Cauc":13555,"▁concessions":13556,"▁Columb":13557,"▁recreation":13558,"este":13559,"▁Marx":13560,"▁FREE":13561,"▁possession":13562,"▁disadvantaged":13563,"▁anticipated":13564,"▁persuade":13565,"▁fossil":13566,"kov":13567,"iders":13568,"▁spark":13569,"▁Conver":13570,"▁forever":13571,"▁protectionism":13572,"▁dealer":13573,"▁SDL":13574,"▁injection":13575,"cussions":13576,"▁outline":13577,"▁indul":13578,"▁Review":13579,"▁accomplished":13580,"ao":13581,"han":13582,"acity":13583,"▁Ll":13584,"▁wash":13585,"▁singer":13586,"▁brown":13587,"atorium":13588,"▁Hitler":13589,"▁inconsist":13590,"group":13591,"kin":13592,"▁liberty":13593,"▁celebration":13594,"gel":13595,"▁Bahn":13596,"▁accus":13597,"▁objections":13598,"▁turnover":13599,"▁Quite":13600,"▁hydraul":13601,"enza":13602,"▁cure":13603,"▁earm":13604,"▁template":13605,"▁reign":13606,"ulent":13607,"▁segments":13608,"▁kingdom":13609,"▁eggs":13610,"▁о":13611,"▁1.1":13612,"▁networking":13613,"▁diagnost":13614,"▁incompat":13615,"▁intuitive":13616,"▁meter":13617,"▁impressed":13618,"▁bookings":13619,"▁suspic":13620,"▁tanks":13621,"▁Cad":13622,"▁Hosp":13623,"▁passage":13624,"▁exemption":13625,"ocopying":13626,"anted":13627,"▁anymore":13628,"▁speculation":13629,"▁Adjust":13630,"▁draws":13631,"▁speeds":13632,"▁ranking":13633,"ifier":13634,"car":13635,"▁ta":13636,"▁Source":13637,"▁66":13638,"▁pressures":13639,"▁GMOs":13640,"▁negligence":13641,"▁descriptions":13642,"▁Düsseldorf":13643,"PP":13644,"gang":13645,"▁halls":13646,"▁Ni":13647,"▁fled":13648,"▁influences":13649,"▁illum":13650,"▁facilitating":13651,"oeuv":13652,"▁cultivation":13653,"22":13654,"▁acute":13655,"▁varieties":13656,"▁Technologies":13657,"▁EB":13658,"ersed":13659,"▁batt":13660,"▁commodity":13661,"falls":13662,"anium":13663,"▁dub":13664,"▁Care":13665,"▁ranks":13666,"▁tackled":13667,"bility":13668,"▁multitude":13669,"▁Intel":13670,"▁Kurdish":13671,"▁catastrop":13672,"71":13673,"▁Ts":13674,"estock":13675,"▁Diam":13676,"▁patron":13677,"▁fortress":13678,"▁overseas":13679,"▁Journal":13680,"▁lending":13681,"▁ED":13682,"▁queries":13683,"▁Below":13684,"▁density":13685,"▁Renaissance":13686,"▁smell":13687,"▁instruction":13688,"▁reveals":13689,"▁inequalities":13690,"conditioning":13691,"rapeutic":13692,"▁leaf":13693,"▁doz":13694,"▁Price":13695,"▁donation":13696,"▁qualification":13697,"▁Tampere":13698,"hot":13699,"vic":13700,"▁aged":13701,"▁laundry":13702,"▁Universal":13703,"▁Instruments":13704,"▁Voyager":13705,"▁retreat":13706,"▁replacing":13707,"▁degrad":13708,"▁trendy":13709,"▁diameter":13710,"ре":13711,"oma":13712,"ogan":13713,"▁VI":13714,"▁shortage":13715,"OTEL":13716,"▁alleged":13717,"▁ASE":13718,"unge":13719,"▁scrap":13720,"▁crash":13721,"▁terrain":13722,"▁complied":13723,"▁elimination":13724,"▁AU":13725,"▁outer":13726,"▁outbreak":13727,"▁debts":13728,"▁enclos":13729,"▁vegetation":13730,"▁Fortunately":13731,"▁springs":13732,"▁neighborhood":13733,"pack":13734,"▁wearing":13735,"through":13736,"▁noisy":13737,"▁consultants":13738,"▁Chem":13739,"▁inse":13740,"anta":13741,"▁Kare":13742,"phony":13743,"▁corresponds":13744,"▁ALDE":13745,"▁Fine":13746,"▁6th":13747,"▁Guard":13748,"▁recipient":13749,"▁7th":13750,"▁relevance":13751,"▁hospitals":13752,"▁diesel":13753,"▁thy":13754,"▁Mare":13755,"▁Fig":13756,"agg":13757,"▁attracted":13758,"▁Cypri":13759,"▁Garda":13760,"▁poorer":13761,"mus":13762,"▁Cô":13763,"▁Gothic":13764,"anna":13765,"▁Century":13766,"▁broke":13767,"▁Schm":13768,"▁Lounge":13769,"▁intensity":13770,"▁tissue":13771,"verages":13772,"▁orange":13773,"▁LA":13774,"▁commissioned":13775,"▁bulk":13776,"▁scarce":13777,"rose":13778,"▁strongest":13779,"▁Tokyo":13780,"▁Ill":13781,"▁writers":13782,"▁archives":13783,"▁drawings":13784,"▁Perform":13785,"▁deliveries":13786,"atus":13787,"▁unrest":13788,"iker":13789,"▁slaughter":13790,"▁idyll":13791,"▁propaganda":13792,"▁Shangh":13793,"49":13794,"FT":13795,"esse":13796,"▁Production":13797,"▁altogether":13798,"▁rhetoric":13799,"inct":13800,"icer":13801,"icism":13802,"▁Sri":13803,"▁neck":13804,"ested":13805,"▁intim":13806,"▁monastery":13807,"▁signatures":13808,"▁updating":13809,"▁Verhe":13810,"ilder":13811,"▁BR":13812,"▁Low":13813,"▁faire":13814,"p.":13815,"▁allev":13816,"▁1,000":13817,"▁truck":13818,"▁Tarifa":13819,"▁lecture":13820,"▁Link":13821,"▁obsc":13822,"▁forbidden":13823,"arr":13824,"▁nan":13825,"▁ampl":13826,"▁factories":13827,"▁couldn":13828,"▁frames":13829,"▁eliminated":13830,"▁experimental":13831,"chl":13832,"▁screw":13833,"▁variations":13834,"▁organizing":13835,"▁Quart":13836,"▁sixth":13837,"▁journalist":13838,"Hz":13839,"▁distances":13840,"▁broadband":13841,"▁2015":13842,"----":13843,"▁incurred":13844,"▁repercussions":13845,"▁Verheugen":13846,"xual":13847,"▁tired":13848,"▁hind":13849,"▁Corn":13850,"▁preview":13851,"▁installer":13852,"▁Hussein":13853,"▁Questions":13854,"reb":13855,"▁inh":13856,"▁Istanbul":13857,"▁Au":13858,"▁149":13859,"▁threaten":13860,"▁guiding":13861,"▁macroeconomic":13862,"acher":13863,"▁resident":13864,"▁ample":13865,"▁regulating":13866,"▁Schl":13867,"▁Serbian":13868,"▁Core":13869,"▁personalized":13870,"▁scept":13871,"igo":13872,"▁125":13873,"▁thirds":13874,"▁boarding":13875,"▁architects":13876,"▁antib":13877,"▁teeth":13878,"▁flora":13879,"▁escap":13880,"▁motto":13881,"icars":13882,"state":13883,"▁Bow":13884,"▁matching":13885,"▁Guinea":13886,"▁sensors":13887,"gra":13888,"▁Past":13889,"aine":13890,"▁D.":13891,"▁decides":13892,"▁temple":13893,"▁categor":13894,"▁screening":13895,"▁magnetic":13896,"▁rehabilitation":13897,"atial":13898,"▁myst":13899,"▁tutorial":13900,"▁livestock":13901,"▁deployed":13902,"▁vague":13903,"▁notify":13904,"▁Almost":13905,"auf":13906,"▁incredibly":13907,"▁enshrined":13908,"PO":13909,"▁С":13910,"▁protein":13911,"▁capitalist":13912,"▁hygiene":13913,"▁geared":13914,"▁Certainly":13915,"▁nach":13916,"▁gaps":13917,"▁arena":13918,"▁pragmatic":13919,"▁bridges":13920,"▁sister":13921,"▁dear":13922,"▁acoust":13923,"▁loose":13924,"▁fireplace":13925,"▁Wikicars":13926,"the":13927,"arious":13928,"▁Trib":13929,"iments":13930,"▁ray":13931,"▁scrat":13932,"▁purchases":13933,"ôtel":13934,"unc":13935,"▁shores":13936,"▁jump":13937,"▁massac":13938,"▁Color":13939,"▁qualitative":13940,"▁licences":13941,"▁recreational":13942,"▁confronted":13943,"▁Börse":13944,"aka":13945,"▁Ka":13946,"▁82":13947,"SI":13948,"▁exercises":13949,"▁Photocopying":13950,"▁Fischler":13951,"▁manoeuv":13952,"▁positioned":13953,"▁verification":13954,"▁midst":13955,"▁peripheral":13956,"bel":13957,"▁Č":13958,"▁moon":13959,"▁Si":13960,"▁Eri":13961,"▁Poly":13962,"▁rice":13963,"▁organisms":13964,"▁Brun":13965,"▁Europa":13966,"▁nbsp":13967,"▁Pent":13968,"illes":13969,"▁unauthor":13970,"▁Incre":13971,"▁enchanting":13972,"77":13973,"▁dress":13974,"▁Fuj":13975,"▁Canc":13976,"▁Parad":13977,"▁Neigh":13978,"▁Imper":13979,"▁Classic":13980,"▁Jordan":13981,"rite":13982,"▁bone":13983,"▁forg":13984,"▁Sab":13985,"▁republic":13986,"▁successor":13987,"▁grav":13988,"▁fabrics":13989,"▁FAQ":13990,"making":13991,"▁english":13992,"sky":13993,"▁promptly":13994,"▁synthes":13995,"▁tv":13996,"▁Sul":13997,"▁seasonal":13998,"▁aspirations":13999,"▁Requ":14000,"▁embargo":14001,"▁Buyer":14002,"▁billions":14003,"▁cocktail":14004,".-":14005,"▁workflow":14006,"neys":14007,"▁delightful":14008,"▁360":14009,"▁Shanghai":14010,"▁CC":14011,"emen":14012,"▁indu":14013,"▁seal":14014,"▁Herm":14015,"▁Ober":14016,"▁Arm":14017,"▁calib":14018,"letes":14019,"▁heaven":14020,"▁occasionally":14021,"iating":14022,"opher":14023,"▁biotechnology":14024,"▁photographer":14025,"▁foresee":14026,"▁aesthetic":14027,"days":14028,"park":14029,"▁tear":14030,"▁RI":14031,"▁MEP":14032,"▁unsu":14033,"▁Brok":14034,"▁emotions":14035,"▁disproportion":14036,"▁horm":14037,"▁enters":14038,"▁promenade":14039,"▁versatile":14040,"▁quantitative":14041,"▁Egyptian":14042,"▁earnings":14043,"▁barely":14044,"▁Ari":14045,"▁consec":14046,"▁Five":14047,"▁promotional":14048,"▁emergence":14049,"▁compensate":14050,"pal":14051,"▁myster":14052,"▁prevail":14053,"▁momentum":14054,"▁Malays":14055,"▁premature":14056,"▁Madeira":14057,"▁gourmet":14058,"FOR":14059,"thod":14060,"▁recur":14061,"▁financially":14062,"▁Scottish":14063,"tex":14064,"▁assort":14065,"▁Mini":14066,"▁administrator":14067,"▁Tourist":14068,"icts":14069,"▁ash":14070,"▁Flex":14071,"▁1.0":14072,"▁applaud":14073,"▁Yesterday":14074,"ashed":14075,"▁lin":14076,"▁designing":14077,"▁eru":14078,"▁Meas":14079,"▁tongue":14080,"sburg":14081,"▁mud":14082,"utz":14083,"▁Sure":14084,"▁imply":14085,"▁formulated":14086,"▁simulation":14087,"▁competing":14088,"▁educated":14089,"INE":14090,"69":14091,"▁PM":14092,"▁specification":14093,"▁Competition":14094,"▁tuna":14095,"▁halt":14096,"▁ninet":14097,"▁deploy":14098,"▁issuing":14099,"ologist":14100,"▁blend":14101,"▁redist":14102,"▁colourful":14103,"▁Bundes":14104,"те":14105,"▁Fon":14106,"aval":14107,"▁subt":14108,"▁longest":14109,"▁Seville":14110,"annel":14111,"▁Maybe":14112,"▁shapes":14113,"▁Ethi":14114,"▁frozen":14115,
[...]
